, 5357834
. 2745369
và 1920904
của 1737028
" 1536134
là 1412165
được 1268299
các 1239564
một 1107828
trong 1086845
năm 916843
có 874853
) 805713
( 804150
đã 756991
cho 711984
với 704468
người 643766
ở 624198
vào 577527
những 548172
không 501390
từ 473818
này 465648
khi 455571
để 453730
đến 447612
tại 401708
tháng 400668
về 381927
ngày 366147
đó 364586
sau 358290
: 355733
ra 331065
trên 326232
như 325753
cũng 321739
ông 310329
nhiều 303484
theo 277767
- 270311
bị 265720
sự 254181
lại 251956
làm 247621
anh 230131
._@@ 229821
có_thể 218811
hơn 216114
hai 211271
việc 210183
họ 209943
sẽ 208316
phải 205757
nhưng 201795
khác 199664
nó 194483
còn 191913
nhất 185602
trường 180504
nhà 169154
chỉ 167029
trước 166084
nước 162274
cùng 159447
con 158586
; 157580
học 154947
rằng 154082
mà 151939
thứ 149013
đi 148208
thuộc 144307
do 143672
mình 143098
cuộc 142938
hoặc 141606
mới 139756
bằng 138058
tên 137238
2 136409
bộ 135628
số 134136
thì 134133
cô 130297
sử_dụng 130044
rất 128342
bởi 123803
3 123639
tỉnh 122661
việt_nam 121612
lớn 120777
1 118540
lên 118119
cao 117793
hay 117564
vì 115823
thi 113350
loài 112950
nam 112898
đang 112505
đây 112063
đầu_tiên 110737
nên 109423
lần 109258
bài 109118
cả 107669
một_số 107650
phía 107095
biết 106866
tới 106181
hoạt_động 106180
tổ_chức 105527
tiếng 104930
thành 104477
đại_học 103207
nói 103188
thấy 102254
qua 99455
bà 99226
10 98266
4 98237
vẫn 97680
quốc_gia 97337
cách 97122
giải 95339
nhau 94807
mỹ 94737
chính 94290
học_sinh 93322
đầu 92687
thời_gian 92446
5 91859
quân 91743
em 88994
thường 88354
pháp 87842
giáo_dục 87444
giữa 87204
phần 86635
vùng 86323
thành_phố 86044
bạn 85284
xã 85079
loại 84267
phát_triển 83653
điểm 83554
ba 82841
nơi 82716
thế_giới 82098
phim 82036
khu_vực 81748
tham_gia 80190
“ 79533
khoảng 79110
” 78656
bao_gồm 78132
huyện 77809
6 77647
tôi 77638
đường 77528
/ 77465
nhóm 75947
đưa 75256
nhận 75039
tạo 74662
trở_thành 73878
sống 73810
tuổi 73656
chương_trình 72893
gần 72746
đều 72430
chúng 71996
dưới 71887
từng 71244
bên 71212
mỗi 70687
sinh 68662
dùng 68555
8 68377
bắt_đầu 68006
thực_hiện 67936
tuy_nhiên 67893
trận 67795
lớp 66209
nào 66061
12 65802
cần 65012
9 64802
% 64549
ngoài 64289
nằm 64174
7 64145
thêm 63756
viết 63588
mang 63560
nếu 63003
chiếc 62805
tàu 62558
chưa 62535
tìm 62472
tây 61387
hoa_kỳ 61177
việt 60151
đặt 60132
nhỏ 59702
đức 59543
lúc 59509
hàng 59361
điều 58921
bắc 58834
gọi 58601
hệ_thống 58164
11 57649
trẻ 57637
xây_dựng 57467
... 56879
ngành 56321
trung_quốc 55790
đội 55142
cấp 55013
đặc_biệt 54928
xã_hội 54479
nghiên_cứu 54245
đạt 54018
tính 53983
gia_đình 53727
đào_tạo 53363
giúp 53303
xem 53217
chính_phủ 53125
đông 52963
giữ 52956
._trong 52766
gây 52663
đồng 52208
ta 51413
thành_lập 50861
vị_trí 50710
đối_với 50547
tăng 50437
miền 50159
mùa 49879
quốc_tế 49868
lấy 49704
tất_cả 49664
._ông 49600
giống 49547
sang 49526
tiếp_tục 49502
dân_số 48995
cái 48955
tốt 48543
quận 48400
gồm 48122
thành_viên 48068
mất 47673
hà_nội 47595
triệu 47087
bóng_đá 46800
mọi 46753
gì 46745
chống 46520
ban 46248
công_ty 46129
khoa_học 46048
khiến 45951
quyết_định 45940
kinh_tế 45863
chết 45826
cuối 45360
sản_xuất 44921
đánh 44840
khả_năng 44803
độ 44768
tiền 44332
giáo_viên 44305
diễn 44211
? 43701
muốn 43533
chuyển 43411
vòng 43410
sinh_viên 42826
khỏi 42785
vua 42650
chơi 42534
ăn 42436
rồi 42408
biển 42221
quyền 42184
quan_trọng 42112
màu 42098
sông 41963
lịch_sử 41475
vấn_đề 41216
20 40996
xuất_hiện 40923
nay 40751
chi 40708
tấn_công 40701
lực_lượng 40537
hỗ_trợ 40260
trung_tâm 40159
phòng 40092
gặp 40067
chiến_tranh 39970
dân 39915
gọi_là 39871
tin 39860
kỳ 39856
nữ 39781
so 39709
._năm 39590
quản_lý 39587
thay_đổi 39527
hát 39483
phát_hành 39200
thời 39149
cuối_cùng 39133
khu 38959
kết_quả 38954
dành 38621
nga 38505
ngay 38413
i 38063
m 37952
xe 37912
làm_việc 37751
đất 37693
không_thể 37443
nhạc 37147
the 37031
quân_đội 37016
môn 36966
kể 36878
tự 36804
vụ 36774
thu 36748
đảng 36336
giảm 36328
quá 36207
liên_quan 36178
bán 36150
câu 36057
sách 36045
mẹ 35736
chung 35637
quá_trình 35616
giờ 35610
tuần 35472
mặc_dù 35374
đóng 35335
đánh_giá 35334
ảnh_hưởng 35290
bản 35264
yêu_cầu 35253
chính_thức 35237
giành 35109
thí_sinh 35088
chọn 34895
hoa 34712
thông_tin 34669
văn_hóa 34415
đấu 34314
bệnh 34293
nhằm 34279
ai 34260
máy_bay 34246
địa_phương 34178
dài 34084
lời 33920
chủ_tịch 33696
cây 33655
nữa 33593
vừa 33469
xuống 33398
mức 33225
15 33210
ít 33163
nhật_bản 33118
thành_công 32974
đơn_vị 32921
vị 32789
dẫn 32749
cơ_sở 32677
thế_kỷ 32651
giai_đoạn 32543
._các 32284
đứng 32258
2012 32241
bảng 32200
a 32165
chia_sẻ 32040
nguồn 31935
sự_kiện 31899
đảo 31723
album 31710
cung_cấp 31528
bé 31524
bảo_vệ 31128
chính_trị 31024
dạy 30994
quay 30980
lãnh_đạo 30948
a@@ 30782
s@@ 30780
2011 30719
dự_án 30716
dân_trí 30710
dạng 30638
chiếm 30571
nổi_tiếng 30545
hiện 30248
ấy 30219
de 30180
dựa 30052
vàng 30014
báo 29991
cá 29822
môi_trường 29637
phát_hiện 29585
mặt 29475
chạy 29344
quy_định 29331
riêng 29307
buổi 29136
nhân_dân 29111
công_nghệ 29090
bỏ 29033
18 28986
chủ_yếu 28971
gửi 28910
thông_qua 28852
ngôi 28816
mô_tả 28733
o@@ 28647
làng 28550
30 28441
đủ 28379
coi 28369
tay 28097
đồng_thời 28028
xảy 27953
nhìn 27690
núi 27676
thiết_kế 27640
học_tập 27617
điều_kiện 27536
vai_trò 27507
c 27474
đơn 27450
nền 27424
luôn 27378
d@@ 27371
phụ_huynh 27302
trở_lại 27257
thấp 27168
ma@@ 27149
nghe 27055
m@@ 26880
châu_âu 26869
điều_tra 26855
quan_hệ 26830
in 26749
hỏi 26675
i@@ 26518
cơ_quan 26505
da 26473
kế_hoạch 26430
tổng_thống 26399
hướng 26370
2016 26296
tập_trung 26276
ngoài_ra 26242
hội_đồng 26208
phổ_biến 26182
giá 26142
thời_điểm 26115
trường_hợp 26098
-@@ 26091
' 26082
sa@@ 26070
e@@ 25962
khá 25960
ví_dụ 25920
16 25913
động_vật 25811
chia 25735
ngôn_ngữ 25629
danh_sách 25588
cá_nhân 25576
đọc 25540
hạng 25497
đúng 25443
s 25376
trao 25308
vốn 25270
trung_bình 25216
xác_định 25187
bước 25169
sáng 25141
nhiệm_vụ 25094
thi_đấu 25081
dòng 25063
14 25013
hiện_nay 25012
._đây 25002
chuyện 24926
mạnh 24925
nhà_nước 24886
ban_đầu 24828
lập 24803
2015 24791
phục_vụ 24784
bắt 24781
tác_phẩm 24773
mua 24736
vậy 24708
13 24706
vai 24665
tuyên_bố 24630
tốt_nghiệp 24619
đoàn 24611
lĩnh_vực 24582
đá 24557
phụ_nữ 24523
cầu_thủ 24497
na@@ 24474
giá_trị 24470
cuốn 24453
t 24423
trực_tiếp 24315
to 24250
vô_địch 24231
chiều 24223
n@@ 24199
bốn 24138
tập 24125
khóa 24124
ý 24110
2010 24071
17 24037
chất 23988
nhờ 23981
b@@ 23979
thực_tế 23969
giải_thưởng 23966
câu_lạc_bộ 23947
quốc_hội 23932
ta@@ 23930
nhân_vật 23914
đô_thị 23898
khó 23864
giết 23834
kết_thúc 23744
g@@ 23732
cho_phép 23698
thể_thao 23556
kinh_doanh 23499
vượt 23443
thpt 23437
đại_diện 23403
mở 23376
một_cách 23370
an 23355
kỹ_thuật 23353
xét 23331
la@@ 23320
nội_dung 23296
hiệu_quả 23253
số_lượng 23097
âm_nhạc 23072
đề 23042
k@@ 23013
hải_quân 22983
phiên_bản 22931
doanh_nghiệp 22916
sản_phẩm 22901
c@@ 22894
19 22866
phó 22861
công 22843
dịch 22788
cũ 22772
hoàn_toàn 22755
chất_lượng 22709
b 22709
hết 22643
r@@ 22636
d 22553
t@@ 22546
ảnh 22544
mục_tiêu 22532
l@@ 22532
giới 22526
sở 22502
tiến 22466
khó_khăn 22435
ghi 22399
do_đó 22391
nhật 22389
ủng_hộ 22371
tương_tự 22331
ra@@ 22296
chính_quyền 22245
công_việc 22177
7/3 22175
video 22163
chức 22145
u@@ 22137
con_người 22122
hầu_hết 22096
quân_sự 22079
2018 22075
tự_nhiên 22056
li@@ 22047
2017 22023
2014 22016
trung_ương 22012
thể_hiện 22005
chịu 21986
100 21921
p@@ 21902
mối 21885
sân_bay 21836
ủy_ban 21808
hóa 21805
cha 21758
bay 21681
rõ 21678
đĩa 21656
hiểu 21603
25 21596
toàn 21547
mở_rộng 21499
công_bố 21426
diện_tích 21415
e 21405
chiến_thắng 21383
lễ 21366
cánh 21352
duy_nhất 21347
chân 21256
2007 21255
2008 21245
sao 21216
dù 21181
2009 21157
thắng 21103
tuyển 21075
hội 21064
điện 21062
suốt 21059
ca 21003
& 20979
bờ 20965
hình_ảnh 20962
toàn_bộ 20954
tòa 20916
._cô 20902
thuốc 20892
chuyến 20880
to@@ 20872
a_@@ 20845
dịch_vụ 20812
de@@ 20796
thầy 20792
nghệ_thuật 20783
vây 20783
cộng_đồng 20780
ba@@ 20772
đầu_tư 20768
ne@@ 20720
mi@@ 20715
ni@@ 20683
ii 20676
le@@ 20661
re@@ 20587
| 20576
y 20561
thế 20558
máy 20555
kiểm_soát 20543
2013 20513
._loài 20498
nghĩa 20456
phương_pháp 20451
ro@@ 20432
thiếu 20431
bóng 20413
hoàn_thành 20365
chúng_tôi 20342
xa 20336
v@@ 20334
h@@ 20324
liên_xô 20318
di@@ 20213
co@@ 20210
cậu 20175
vương 20174
sớm 20169
cầu 20061
lo@@ 20060
công_tác 20045
nguyên 20045
hồ_sơ 20020
ca@@ 20016
cụ_thể 20014
giám_đốc 19996
! 19893
ri@@ 19882
ti@@ 19873
vài 19871
người_ta 19845
thay_thế 19809
lao_động 19804
chiến_dịch 19802
si@@ 19757
đăng_ký 19738
hãng 19720
kiến_thức 19688
rừng 19654
chuẩn_bị 19623
phù_hợp 19618
xin 19600
trở_nên 19570
2006 19557
ngựa 19556
chứa 19526
gốc 19524
báo_cáo 19522
da@@ 19500
diễn_viên 19451
phương 19404
dân_tộc 19391
trắng 19387
kiểm_tra 19369
xuất_sắc 19361
tổng 19344
mo@@ 19309
thị_trấn 19304
ha@@ 19271
luật 19248
sai 19233
kinh_nghiệm 19218
thanh 19168
tự_do 19166
đáng 19153
thời_kỳ 19137
độc_lập 19082
sức_khỏe 19067
bức 19012
y_tế 19007
đen 18971
viện 18971
tuyến 18962
tồn_tại 18949
… 18932
ngày_nay 18923
tướng 18907
k 18880
thủ_tướng 18867
lượng 18855
thị_trường 18827
xếp_hạng 18777
con_trai 18733
u 18731
tp 18717
pa@@ 18709
nhanh 18685
21 18633
trò_chơi 18633
trung 18617
gái 18606
vi@@ 18560
ra_mắt 18551
kiểu 18481
hệ 18470
thư 18392
x 18377
máy_tính 18376
24 18366
truyền_thống 18358
bắn 18332
h 18332
nặng 18323
ka@@ 18322
chữ 18308
trực_tuyến 18297
thương_mại 18277
se@@ 18251
phong 18179
thật 18170
chỉ_huy 18133
đảm_bảo 18083
chính_sách 18044
tập_đoàn 18021
sau_này 17967
giao 17944
bổ_nhiệm 17938
mạng 17928
chị 17909
hình 17862
phút 17833
cổ 17824
viên 17817
thích 17784
x@@ 17768
bàn 17762
p 17762
n 17753
thực_vật 17706
chúng_ta 17699
bầu 17663
phân 17653
tiến_hành 17649
rút 17643
đêm 17629
thường_xuyên 17578
đổi 17546
công_nhận 17516
ch@@ 17445
2019 17398
50 17392
cơ_hội 17381
l 17370
công_nghiệp 17327
cảnh 17323
t_@@ 17299
2000 17272
kỹ_năng 17235
bản_thân 17235
an_toàn 17211
đời 17208
ký 17173
thiết_bị 17162
hình_thành 17151
vợ 17134
tham_dự 17130
kết_hợp 17090
la 17059
bo@@ 17057
rộng 17048
lãnh_thổ 17040
đôi 17037
lương 17018
bang 17005
nổi 17003
._chúng 16999
no@@ 16978
ngắn 16949
tiếp_theo 16891
tỷ 16891
hồ 16866
khối 16841
lựa_chọn 16825
thân 16823
rời 16819
thông_báo 16817
tuyển_sinh 16791
đem 16754
ấn_độ 16709
22 16671
me@@ 16644
ca_khúc 16643
bộ_trưởng 16587
cuộc_sống 16585
do@@ 16568
khắp 16566
nâng 16544
usd 16543
of 16543
kéo_dài 16528
vương_quốc 16516
âm 16513
4@@ 16488
nhà_trường 16476
mục_đích 16447
nuôi 16438
._anh 16419
mẫu 16412
chủ 16407
nước_ngoài 16383
trách_nhiệm 16374
s_@@ 16373
tình_trạng 16365
so@@ 16300
thịt 16293
lửa 16263
5@@ 16258
pháp_luật 16252
hình_thức 16250
chiến_đấu 16232
quan_tâm 16214
cháu 16214
nhân 16209
nghĩ 16129
hành_động 16099
o 16069
23 16033
2005 16029
2004 16008
tài_chính 15999
tỷ_lệ 15995
cục 15980
hiện_đại 15975
sức_mạnh 15965
lòng 15960
dễ 15957
úc 15950
ga@@ 15937
cố_gắng 15935
châu 15930
sơn 15924
f@@ 15890
hành_chính 15879
chỗ 15874
6@@ 15855
ar@@ 15852
nghệ_sĩ 15815
] 15804
trả 15799
cơ_bản 15741
du_lịch 15738
quốc 15720
nguyễn_@@ 15704
._bà 15641
su@@ 15632
ứng_dụng 15632
te@@ 15629
xử_lý 15624
đẹp 15617
đội_tuyển 15611
quả 15608
nhanh_chóng 15595
nắm 15575
du_học 15567
triển_khai 15519
ko@@ 15504
sâu 15461
áo 15442
áp_dụng 15425
tình_yêu 15424
thần 15419
bướm_đêm 15419
thậm_chí 15394
hạ 15393
đh 15384
minh 15352
qua_đời 15320
bầu_cử 15317
thực_sự 15309
yếu_tố 15264
hiện_tại 15223
cán_bộ 15201
na 15192
chế_độ 15187
26 15140
phần_lớn 15139
đất_nước 15105
chủ_đề 15101
sân 15091
hàn_quốc 15074
đoạn 15071
dữ_liệu 15066
chức_vụ 15062
n_@@ 15043
chồng 15028
ng@@ 15011
máu 14992
loạt 14986
nhân_viên 14977
con_gái 14969
ma 14959
giới_thiệu 14950
po@@ 14942
sự_nghiệp 14930
xếp 14920
lan 14916
chuyên 14914
i_@@ 14884
40 14883
giải_quyết 14854
biến 14842
chó 14842
đại_biểu 14818
càng 14795
dương 14795
nỗ_lực 14788
câu_chuyện 14787
tiểu_học 14784
dần 14776
truyền_hình 14759
văn 14759
cách_mạng 14749
hợp_tác 14684
lâu 14662
đăng 14648
toán 14597
kẻ 14595
cạnh 14538
đỏ 14537
bình 14523
cấu_trúc 14523
mô_hình 14516
7@@ 14470
trang 14453
tránh 14449
pi@@ 14404
đề_nghị 14372
ô_tô 14354
y@@ 14354
phát 14316
yêu 14306
phụ 14303
tiêu_chuẩn 14294
phường 14293
mắt 14264
hạt 14263
chuyển_đổi 14217
lý_do 14168
trẻ_em 14155
căn_cứ 14111
đứa 14108
bu@@ 14100
28 14098
nhân_ái 14091
trở 14091
đại_@@ 14053
27 14052
gi@@ 14041
đại 14030
bi@@ 14028
thái 14019
al@@ 13998
trải 13988
công_trình 13979
dự 13957
phủ 13948
8@@ 13934
ngôi_sao 13894
top 13885
tiến_sĩ 13868
phản_ứng 13834
lu@@ 13806
[ 13803
chuẩn 13799
như_là 13795
ngân_hàng 13784
ca_sĩ 13770
tiếp 13744
chuyên_gia 13739
chú_ý 13718
r 13703
lá 13615
liên_tục 13610
cần_thiết 13600
bất_kỳ 13578
._điều 13578
bổ_sung 13575
năng_lượng 13560
bậc 13544
ci@@ 13506
thay 13500
quanh 13477
g 13477
điều_hành 13452
3@@ 13449
vũ_khí 13444
chi_phí 13427
họp 13421
điều_trị 13403
thống_nhất 13398
xanh 13378
châu_á 13341
be@@ 13339
xung_quanh 13335
thất_bại 13332
hướng_dẫn 13278
duy_trì 13274
tích_cực 13268
hòa 13263
phép 13258
thập_niên 13251
hợp_đồng 13242
khách 13221
hành_tinh 13203
cơ_thể 13203
nhu_cầu 13201
9@@ 13176
buộc 13172
chấp_nhận 13152
go@@ 13151
truyền_thông 13148
ho@@ 13122
giám_mục 13115
giáo_sư 13092
chẳng_hạn 13075
tài_liệu 13030
hôm 13014
canada 13014
quần_đảo 13010
hạn_chế 13002
._nó 12995
xứ 12981
không_gian 12976
hà 12971
khẳng_định 12960
tư 12956
vì_vậy 12937
tạp_chí 12936
món 12916
chùa 12909
nghề 12894
bao_giờ 12887
biểu_diễn 12880
ban_nha 12867
bão 12859
ý_kiến 12834
tiểu_bang 12826
tương_lai 12811
liên_kết 12796
cháy 12785
sáu 12756
một_vài 12743
bệnh_viện 12734
v 12733
us 12731
tốc_độ 12723
2002 12713
đợt 12702
đầy 12694
chức_năng 12668
xuất_bản 12658
súng 12651
an@@ 12640
en@@ 12622
giao_thông 12608
tế_bào 12599
siêu 12595
đồ 12595
mét 12585
phi 12547
tôn_giáo 12547
nha 12540
tranh 12525
thành_phần 12520
man 12516
cắt 12464
đầy_đủ 12462
16@@ 12462
nguồn_gốc 12448
triều_tiên 12429
bố_mẹ 12399
game 12379
trái_đất 12373
trưởng 12347
le 12341
nhớ 12340
tầm 12323
1945 12322
hội_nghị 12305
chính_xác 12292
29 12289
linh 12288
2003 12273
danh_hiệu 12272
quan 12266
z@@ 12234
te 12227
cảnh_sát 12225
_s@@ 12215
tác_giả 12214
đế_quốc 12214
> 12198
trả_lời 12190
công_an 12180
f 12172
ki@@ 12160
hoàng_đế 12157
xuân 12154
la_mã 12153
tách 12152
đạo_diễn 12144
di_chuyển 12140
1999 12121
phong_trào 12117
ngoại_khóa 12117
dậy 12112
lượt 12098
nhà_thờ 12083
nghỉ 12054
đối_tượng 12048
kim 12032
trần 12025
lạ 12018
quan_sát 11998
đánh_bại 11991
rơi 11985
băng 11954
gia_nhập 11944
đơn_giản 11939
chim 11929
học_viện 11921
cửa 11911
khoa 11907
6/3 11905
đáng_kể 11895
hcm 11893
in@@ 11885
giỏi 11880
giải_phóng 11874
la_@@ 11864
tu@@ 11861
chi@@ 11859
nh@@ 11857
điện_tử 11854
thế_nào 11843
hồ_chí_minh 11834
o_@@ 11819
m_@@ 11813
thay_vì 11806
dễ_dàng 11782
hộ 11780
thăm 11769
khoản 11761
mời 11732
thông_thường 11726
đề_xuất 11715
giải_pháp 11687
rõ_ràng 11682
chứ 11676
y_@@ 11669
song 11645
_@@ 11644
năng_lực 11613
15@@ 11606
giảng_dạy 11601
trái 11591
tìm_kiếm 11586
kết_nối 11561
tấn 11536
mu@@ 11531
chiến_lược 11485
thơ 11471
w@@ 11452
ru@@ 11449
pe@@ 11436
cảng 11424
bom 11422
phần_mềm 11411
tông 11388
thành_tích 11386
nổ 11378
dọc 11376
truyền 11373
j@@ 11360
phố 11358
+ 11324
ngồi 11306
phân_tích 11292
địa_điểm 11292
quỹ 11289
er@@ 11261
2020 11252
chung_kết 11238
th@@ 11233
giáp 11230
phản_hồi 11221
thu_nhập 11221
._việc 11202
on 11201
trang_bị 11177
mực 11168
mức_độ 11162
cựu 11156
ngày_càng 11133
vật_lý 11116
hãy 11114
60 11099
ít_nhất 11097
._khi 11095
thoát 11086
đôi_khi 11067
ý_nghĩa 11066
liền 11053
xe_máy 11041
._họ 11037
hoàng_gia 11031
tùy 11017
mặt_trời 10992
cộng_sản 10987
nội 10986
the_@@ 10980
ga 10980
tầng 10966
giúp_đỡ 10955
tặng 10950
1990 10946
chiến 10913
ja@@ 10910
ứng_viên 10907
giải_thích 10901
sức 10898
ý_tưởng 10897
tân 10883
dừng 10876
khai_thác 10871
lệnh 10866
vật 10863
tấm 10857
hiệp_hội 10857
chụp 10856
khí 10779
chỉ_đạo 10774
vùng_đất 10752
mã 10743
tinh_thần 10742
ổn_định 10740
điện_thoại 10729
mạnh_mẽ 10724
mar@@ 10710
năm_học 10708
bảo 10696
hà_lan 10695
biên_giới 10692
quan_điểm 10690
tiếp_cận 10678
đóng_góp 10659
hoàng 10646
bộ_phận 10636
bạn_đọc 10634
điều_khiển 10627
chăm_sóc 10611
phối_hợp 10604
du@@ 10601
từ_chối 10591
nông_nghiệp 10591
bác_sĩ 10590
_t@@ 10579
nhân_lực 10563
quyền_lực 10561
ielts 10559
va@@ 10557
đáp_ứng 10556
el@@ 10537
triều_đình 10535
kênh 10515
tình_hình 10512
thủ_đô 10499
ba_lan 10481
hồng 10445
lẫn 10442
trường_học 10438
lý_thuyết 10438
đền 10437
thiết_lập 10428
định 10415
nam_@@ 10413
tác_động 10410
cảm_thấy 10402
tia 10384
dân_chủ 10382
fi@@ 10379
kiếm 10366
cặp 10356
tối 10350
]_] 10340
thu_hút 10339
chuỗi 10325
ge@@ 10320
nguyên_nhân 10319
liên_bang 10310
2001 10308
châu_phi 10300
khác_biệt 10300
thái_lan 10296
cộng_hòa 10293
quy_mô 10280
học_bổng 10271
wa@@ 10267
and 10265
trần_@@ 10260
niềm 10244
hiệu_trưởng 10240
điện_ảnh 10229
sài_gòn 10227
ngang 10215
mặc 10207
tư_vấn 10204
ts 10200
lưng 10193
ghi_nhận 10193
paris 10187
14@@ 10185
tây_bắc 10174
lính 10169
tổng_hợp 10160
xác_nhận 10147
giả 10138
hi@@ 10132
trở_về 10131
phá 10128
fa@@ 10124
sáng_tạo 10111
toàn_cầu 10106
d_@@ 10082
dầu 10075
thực_phẩm 10075
._nhiều 10071
gắn 10055
xương 10053
covid-19 10043
sáng_tác 10034
cao_đẳng 10033
ngoại_giao 10018
tư_cách 10010
es@@ 9987
tường 9983
triều 9976
sa 9976
bí_thư 9975
điều_chỉnh 9964
cứu 9948
đe_dọa 9931
tăng_cường 9928
._một 9928
ủy_viên 9921
ha 9918
nổi_bật 9913
31 9904
cơn 9893
chi_tiết 9888
thử 9879
ne 9870
gà 9868
hu@@ 9846
tương_đối 9844
có_mặt 9835
phát_sóng 9831
cụm 9811
ánh_sáng 9807
cuộc_chiến 9802
văn_phòng 9784
thống_kê 9771
liên_minh 9770
đ@@ 9769
lưu_@@ 9768
phương_tiện 9766
hành_vi 9763
đồng_ý 9754
bất_ngờ 9754
giấy 9737
cung 9736
cứ 9727
an_ninh 9713
thị_xã 9699
bò 9698
trai 9696
có_lẽ 9681
huấn_luyện 9669
thức_ăn 9667
hy_lạp 9665
phong_cách 9660
sở_hữu 9653
kết_hôn 9636
cử 9627
định_hướng 9627
._vào 9624
khuyến_khích 9622
công_giáo 9617
vườn 9615
vì_thế 9614
nộp 9612
lo 9607
cấm 9599
thua 9592
giới_hạn 9589
thờ 9574
bình_thường 9557
syria 9546
giáo_hoàng 9534
xây 9533
xe_tăng 9532
rộng_rãi 9525
thử_nghiệm 9521
mong_muốn 9514
hán 9513
nước_biển 9483
thánh 9475
phức_tạp 9473
vui 9468
lý 9468
vịnh 9467
đồng_hành 9461
đề_cập 9459
2021 9448
ya@@ 9434
đạo 9412
trình_độ 9403
hồi_giáo 9393
lịch 9393
kéo 9386
phân_loại 9386
rắn 9380
me 9377
tờ 9376
tòa_án 9372
trao_đổi 9361
car@@ 9352
philippines 9341
long 9340
chuyên_nghiệp 9336
giọng 9335
nhiệt_đới 9334
z 9330
son 9318
phân_biệt 9311
hạm_đội 9307
trốn 9282
trương_@@ 9282
cộng 9277
new_york 9276
mười 9263
đàn 9258
bạn_bè 9256
nóng 9251
xem_xét 9242
tạm 9242
cha_mẹ 9238
khán_giả 9229
pháo 9223
toán_học 9221
hàng_đầu 9208
tình_dục 9207
200 9203
hoàng_@@ 9202
không_quân 9201
kh@@ 9201
za@@ 9194
ban_hành 9189
văn_bản 9172
tượng 9159
mấy 9157
chảy 9132
trình_diễn 9117
đa_dạng 9115
._tháng 9096
văn_học 9092
tcn 9092
no 9089
trăm 9088
nhà_máy 9081
giang 9076
kèm 9071
._có 9069
gu@@ 9066
tác_dụng 9062
u_@@ 9041
huế 9029
1980 9025
ce@@ 9017
phạm_vi 9017
thôn 9014
nửa 9010
tài_sản 9009
chế_tạo 8995
1975 8971
khách_hàng 8967
thăng 8967
hàm 8962
đâu 8959
tết 8950
gỗ 8946
kiến_trúc 8946
tri@@ 8945
tháp 8944
đồng_minh 8920
đàn_ông 8916
mưa 8911
sư_đoàn 8908
hạt_nhân 8904
đạn 8903
gió 8888
sợ 8887
e_@@ 8878
cạnh_tranh 8873
quê 8862
ngừng 8841
sẵn 8839
chiếu 8838
tình 8833
chứng_minh 8832
địa_bàn 8816
sóng 8811
hiến_pháp 8810
quang 8805
iii 8804
bệnh_nhân 8796
cha@@ 8789
nhẹ 8787
80 8782
đại_hội 8778
thế_hệ 8777
sư_phạm 8775
hè 8764
nêu 8750
văn_@@ 8748
khái_niệm 8746
13@@ 8740
đồng_@@ 8739
10@@ 8739
nghèo 8738
st 8738
cai_trị 8727
động 8711
_d@@ 8708
kêu_gọi 8697
miêu_tả 8685
hổ 8682
góc 8677
đỉnh 8670
._đến 8660
lối 8646
ka 8639
phí 8636
trụ_sở 8624
hương 8622
sinh_sống 8618
sắp 8604
sáp_nhập 8599
thiên_@@ 8597
bố 8588
tổ 8574
vũ_trụ 8572
chẳng 8572
mặt_trận 8560
cao_@@ 8558
kim_@@ 8556
ke@@ 8551
uống 8546
đề_cử 8546
phái 8532
california 8529
kích_thước 8515
nói_chung 8507
t-@@ 8497
diễn_đàn 8495
70 8484
gia 8476
bao 8476
tiểu_thuyết 8474
500 8461
phạm_@@ 8450
vẽ 8445
12@@ 8441
ch 8436
tiết 8436
liên 8410
thuế 8403
nhịp 8387
or@@ 8376
mắc 8373
đỗ 8368
tái 8364
phản_đối 8362
tương_đương 8361
lông 8356
khu_trục 8352
c_@@ 8347
dãy 8342
bất_cứ 8338
đài_loan 8336
như_vậy 8332
se 8321
biện_pháp 8318
hộ_tống 8315
trung_học 8313
1998 8305
động_cơ 8296
lê 8293
cu@@ 8286
an_@@ 8280
nhấn_mạnh 8275
1@@ 8274
đuôi 8267
tức 8263
đông_@@ 8259
ph@@ 8257
ve@@ 8250
– 8247
xong 8245
nghiêm_trọng 8232
giảng_viên 8232
nhiệt_độ 8226
is@@ 8218
mềm 8212
nguy_cơ 8207
thuê 8205
kinh 8205
khối_lượng 8202
giao_diện 8195
ném 8188
iran 8186
dự_kiến 8186
tương_tác 8176
hòa_bình 8163
per@@ 8163
thổ 8141
2@@ 8140
nền_tảng 8134
mũi 8124
1997 8121
vận_động 8118
< 8114
đối_phương 8109
_l@@ 8108
ber@@ 8084
đội_ngũ 8064
dương_@@ 8061
cải_thiện 8059
chú 8059
truyện 8051
hiện_tượng 8043
đặc_hữu 8031
tổng_số 8023
án 8018
huy_chương 8010
vi_phạm 8002
co 7999
singapore 7995
1960 7991
he@@ 7991
ku@@ 7987
giám_sát 7987
dây 7987
sinh_học 7986
._nếu 7977
chắc_chắn 7962
1970 7957
giáo_hội 7940
công_dân 7930
tâm 7917
so_sánh 7907
ra_đời 7900
hồi 7890
cải_cách 7883
bèn 7879
khuyên 7876
thuật_ngữ 7865
kém 7860
vũ 7856
israel 7850
đoạt 7846
ngọc 7841
phụ_thuộc 7839
trồng 7839
_h@@ 7838
dạy_học 7833
trải_nghiệm 7823
đặc_trưng 7823
san 7822
1996 7814
thông_minh 7813
yếu 7796
wi@@ 7787
cập 7787
cứng 7782
liên_hệ 7779
ung_thư 7770
đặc_điểm 7770
thái_bình_dương 7750
cừu 7736
vận_tải 7734
sta@@ 7734
ngoại_ngữ 7733
giáo 7730
ng 7725
kia 7724
bảo_tàng 7721
pro@@ 7720
yên 7717
nối 7708
việc_làm 7702
báo_chí 7700
lỗ 7686
hơi 7677
sẵn_sàng 7669
triều_đại 7668
sha@@ 7665
ubnd 7662
_k@@ 7654
nhập 7649
gen 7648
ước_tính 7644
trung_@@ 7638
ton 7632
hải 7625
tiêu_diệt 7624
sắt 7615
thanh_niên 7608
_c@@ 7602
cầm 7602
ter@@ 7601
bảy 7601
chủ_nghĩa 7595
địa_lý 7595
chỉ_tiêu 7592
xu_hướng 7584
tra@@ 7582
trực_thuộc 7580
tắt 7573
en 7568
tr@@ 7566
báo_điện_tử 7565
._xã 7562
hàn 7560
nhất_định 7558
vật_liệu 7554
khám_phá 7548
indonesia 7542
17@@ 7541
lâm 7536
sát 7532
nhạc_sĩ 7526
tổng_cộng 7523
nhĩ 7520
ng_@@ 7513
sử 7507
phổ_thông 7483
bởi_vì 7483
pu@@ 7480
toàn_quốc 7476
thể_loại 7471
phỏng_vấn 7463
lực 7460
đài 7453
quý 7448
tối_đa 7447
phân_bố 7444
bạc 7437
kỷ_niệm 7433
con_số 7428
trình 7427
shi@@ 7426
nhân_sự 7426
che@@ 7420
1995 7409
ngàn 7403
man@@ 7402
th 7399
thị 7397
phê_bình 7392
nghề_nghiệp 7391
dịch_bệnh 7384
khuyến_học 7380
tuy 7379
nhánh 7378
pha 7377
đổ_bộ 7372
theo_dõi 7372
tân_@@ 7368
ả 7367
anh_em 7367
chuyên_môn 7366
quân_đoàn 7366
1994 7364
nghìn 7361
gia_tăng 7357
rượu 7353
0 7352
phe 7345
cơ 7330
bí_mật 7329
ưu_tiên 7329
sĩ_quan 7325
tài_năng 7324
thúc_đẩy 7322
học_viên 7322
tập_hợp 7321
tám 7313
q@@ 7311
300 7307
1991 7304
trời 7294
nhất_là 7291
vi 7289
mi 7283
hôn_nhân 7283
tương_ứng 7281
vận_chuyển 7281
am@@ 7280
trưởng_thành 7271
_th@@ 7266
nữ_sinh 7260
tâm_lý 7258
ya 7258
mua_bán 7256
bề_mặt 7249
định_cư 7248
vỡ 7246
sắp_xếp 7243
._hai 7239
hàng_không 7228
thẳng 7222
hóa_học 7222
internet 7218
xuyên 7217
sinh_vật 7207
đào 7206
quán 7194
thông 7194
hùng 7193
nhà_vua 7192
vỏ 7191
5/3 7174
đốt 7171
cúp 7169
as@@ 7166
chàng 7166
ô 7165
45 7162
ngăn_chặn 7158
góp_phần 7155
thcs 7154
gấp 7138
qu@@ 7132
mà_còn 7121
= 7112
đối_thủ 7111
chậm 7111
w 7105
nguyên_tắc 7100
bản_địa 7091
bảo_tồn 7091
phổ 7088
công_chúa 7086
nguy_hiểm 7085
đo 7077
áp_lực 7074
quản_trị 7057
thương_hiệu 7056
nhảy 7056
trung_hoa 7055
bây_giờ 7054
bãi 7052
màn 7044
phóng 7040
không_khí 7039
quy_trình 7024
tranh_cãi 7012
viêm 7011
đa_số 7009
us@@ 7006
l_@@ 6999
tan 6998
vú 6998
1992 6982
nhiệm_kỳ 6974
chứng_chỉ 6970
zi@@ 6962
trừ 6961
km 6958
chuyên_ngành 6954
english 6940
tính_chất 6935
hiệu 6933
học_phí 6932
ly 6927
lợi_ích 6907
thú 6906
mai 6905
chữa 6904
công_khai 6903
chợ 6896
khô 6884
hấp_dẫn 6883
thôi 6874
tội 6873
hậu 6871
lưu 6864
săn 6861
vợ_chồng 6855
quảng_cáo 6849
nhắc 6838
tiếp_xúc 6835
minh_@@ 6824
hạnh_phúc 6821
ck 6816
chín 6814
biểu_tượng 6813
yo@@ 6812
ghế 6811
quà 6809
sân_khấu 6808
phản_ánh 6803
khơi 6802
khổng_lồ 6801
thuyền 6801
phá_hủy 6790
đón 6780
jo@@ 6778
_v@@ 6775
nhà_khoa_học 6774
thanh_@@ 6772
blog 6770
miệng 6768
lọt 6768
90 6765
_ch@@ 6765
màu_sắc 6763
tìm_hiểu 6757
liên_tiếp 6747
ấn_tượng 6742
trạng_thái 6741
phạm 6734
khoảng_cách 6732
đau 6729
nhà_sản_xuất 6727
màn_hình 6718
dựng 6715
luyện 6713
kỹ 6712
lào 6712
tư_duy 6710
loại_bỏ 6704
đổi_mới 6701
biểu_tình 6700
nhận_xét 6698
chục 6694
tim 6690
cuộc_đời 6689
tần 6688
bar@@ 6686
thuộc_địa 6686
đa 6680
đẩy 6677
cửa_hàng 6675
65 6666
tiết_lộ 6661
giàu 6658
tài_trợ 6650
linh_mục 6646
thủy 6643
nghệ_an 6642
tại_sao 6639
er 6638
chờ 6632
1993 6632
công_cụ 6630
sứ 6624
ti 6621
liên_đoàn 6619
công_@@ 6618
nhà_văn 6618
chủ_động 6612
nam_phi 6609
sáng_lập 6608
liệt_kê 6596
hy_vọng 6596
tỏ 6592
ni 6576
lo_lắng 6575
is 6575
0@@ 6574
der 6574
ngủ 6573
hề 6571
mer@@ 6570
sữa 6567
cát 6565
malaysia 6563
les 6562
the@@ 6556
cổng 6554
trống 6550
._tuy_nhiên 6549
trại 6548
trạm 6548
tăng_trưởng 6546
cơ_chế 6543
kết_luận 6543
p_@@ 6539
tiêu_chí 6538
huấn_luyện_viên 6535
vinh 6535
cư_dân 6535
phòng_thủ 6535
lần_lượt 6532
con@@ 6527
bối_cảnh 6526
đòi_hỏi 6522
bị_thương 6520
john_@@ 6519
đực 6511
chấm_dứt 6510
thách_thức 6508
thầy_cô 6504
lạnh 6503
đế 6503
phật_giáo 6496
đua 6495
sh@@ 6490
.. 6482
ce 6481
mảnh 6480
ngã 6474
thai 6474
ong 6466
xung_đột 6463
1950 6463
kim_loại 6461
cao_cấp 6461
._đối_với 6455
es 6452
ven 6444
thành_@@ 6440
ngọc_@@ 6434
campuchia 6418
35 6415
lai 6415
hải_phòng 6411
har@@ 6404
mầm_non 6397
nghị_quyết 6395
chúa 6390
bằng_chứng 6389
tai_nạn 6387
nạn 6379
thỏa_thuận 6378
học_trò 6377
yêu_thích 6372
._do 6368
bữa 6363
vùng_biển 6362
lợi 6359
giải_trí 6358
lê_@@ 6356
thảo_luận 6355
quân_@@ 6354
định_nghĩa 6347
kiêm 6347
di 6336
ngọn 6335
tài 6333
trứng 6329
hiếm 6324
hoa_hậu 6324
phân_phối 6312
đổ 6310
thụy_điển 6308
phương_thức 6307
trình_bày 6302
ver@@ 6295
li 6292
tai 6290
binh 6282
gia_@@ 6282
phú 6281
cỏ 6281
cho@@ 6274
ju@@ 6271
hòn 6270
cor@@ 6267
nu@@ 6263
hằng 6263
nghĩa_là 6247
hợp_lý 6240
thế_chiến 6240
tình_cảm 6236
cố 6235
tung 6232
._tại 6229
lỗi 6221
ống 6219
thiệt_hại 6213
dường_như 6213
ki 6208
cờ 6205
vương_@@ 6197
lễ_hội 6184
chở 6181
bụng 6177
âm_thanh 6172
hiệp_ước 6171
tính_năng 6167
32 6167
vo@@ 6164
hàng_hóa 6158
ôn 6157
1989 6157
tư_lệnh 6151
nạn_nhân 6145
tam_@@ 6144
bố_trí 6139
hoa_@@ 6124
chỉ_trích 6123
phát_biểu 6121
trở_lên 6120
đối_mặt 6110
gra@@ 6110
vựng 6110
thạc_sĩ 6106
bánh 6101
n-@@ 6095
ngô 6091
k_@@ 6087
thư_viện 6084
đồng_tính 6082
for 6081
go 6080
thời_đại 6080
lý_@@ 6075
tiểu 6073
al-@@ 6059
đuổi 6056
tống 6056
nhiễm 6055
căn 6054
thực_hành 6053
công_viên 6051
cô_giáo 6051
dân_cư 6048
đánh_dấu 6045
công_cộng 6042
el 6039
mộ 6036
sư 6035
thanh_hóa 6029
phương_án 6015
re 6009
al 6007
miễn_phí 6006
lộ 6006
biến_đổi 6004
au@@ 6002
phiếu 5990
par@@ 5989
vạn 5982
bắt_buộc 5981
gai 5970
xinh 5966
nợ 5965
đời_sống 5963
giám_khảo 5958
ley 5957
tóc 5940
hiệp 5939
chuyển_động 5932
bảo_hiểm 5926
xuân_@@ 5925
xấu 5923
giao_tiếp 5919
nhận_thức 5918
tức_là 5913
bảo_đảm 5911
nhiệt 5910
anh_hùng 5902
tư_tưởng 5898
ngoại 5897
nét 5888
thích_hợp 5883
bra@@ 5882
trước_đây 5881
đồng_hồ 5876
hoàng_hậu 5876
ba_@@ 5875
phiên 5872
hoàn_cảnh 5871
quốc_phòng 5869
as 5864
vô_cùng 5859
nỗi 5859
di_tích 5858
trông 5855
fo@@ 5850
sửa_đổi 5850
sinh_hoạt 5845
đà_nẵng 5840
thực 5839
tử_vong 5838
chấm 5833
ma_@@ 5828
mỏ 5828
già 5821
ri 5817
nâu 5809
1946 5807
é@@ 5806
bướm 5804
khách_sạn 5795
cú 5795
tối_cao 5793
khung 5790
đức_@@ 5787
nàng 5781
london 5774
thời_trang 5769
khánh 5756
hợp 5753
giao_dịch 5742
tính_toán 5741
ngược_lại 5740
dịp 5737
sửa 5735
1_, 5732
xưởng 5730
châu_@@ 5728
tấm_lòng 5723
tuần_báo 5710
tận 5707
đô_la 5703
phúc 5699
cực 5693
thả 5693
cử_nhân 5687
xuất_phát 5685
bia 5680
s-@@ 5680
1988 5679
đô 5677
mèo 5675
tải 5672
phim_truyền_hình 5668
virus 5666
bọn 5666
1944 5664
gan 5657
lợn 5642
cột 5639
va 5639
tiếp_nhận 5639
sửa_chữa 5638
kỷ_lục 5636
kịp 5633
bộ_binh 5632
thương 5631
công_chúng 5629
suy_nghĩ 5626
cảm_giác 5619
ko 5617
cổ_đại 5617
hàng_loạt 5616
thọ 5616
nông_dân 5609
liên_lạc 5608
lan@@ 5606
ter 5602
do_thái 5598
thừa_nhận 5597
hoài 5595
di_sản 5592
công_nhân 5587
cười 5584
khảo_sát 5580
trung_đoàn 5580
căng_thẳng 5572
for@@ 5566
nâng_cấp 5560
trúng_tuyển 5557
đình 5552
zo@@ 5548
chỉ_định 5546
ji@@ 5546
hắn 5542
bắc_@@ 5535
ly@@ 5528
xuất_khẩu 5528
nguyễn 5526
nghi_ngờ 5525
online 5521
ty 5515
giáo_phận 5511
thần_kinh 5508
giấy_phép 5507
tha@@ 5507
tiên 5507
1942 5506
chìm 5494
đậu 5484
mồi 5481
mạch 5478
ngân_sách 5476
phân_tử 5472
đạo_đức 5468
cùng_với 5466
bỉ 5462
tây_@@ 5459
toàn_diện 5458
san@@ 5458
tàu_ngầm 5454
vân 5445
ad@@ 5443
us_@@ 5441
sàn 5437
_tr@@ 5431
ste@@ 5431
hòa_@@ 5430
mông_cổ 5424
non 5423
um 5423
chiến_thuật 5418
quên 5417
kích_thích 5411
hưu 5407
tiềm_năng 5406
trang_web 5395
nhì 5395
pda_mua 5391
chặt_chẽ 5387
tuấn 5381
bài_toán 5377
ne_@@ 5376
tro@@ 5370
riêng_biệt 5369
chứng_nhận 5367
chương 5361
1954 5360
cố_vấn 5359
._đó 5359
75 5356
kinh_@@ 5356
land 5355
kính 5354
kịch_bản 5354
quyển 5354
tình_huống 5353
brasil 5351
ra_lệnh 5349
ner 5337
rock 5335
bán_đảo 5331
danh_pháp 5330
hồng_kông 5329
lớp_học 5328
đám 5326
dự_định 5326
công_lập 5326
thuận_lợi 5324
nes 5324
đáp 5323
chu_@@ 5312
tín_hiệu 5296
vé 5291
tài_nguyên 5290
thuyết_phục 5286
bình_@@ 5285
hoàng_tử 5282
tổ_hợp 5275
yu@@ 5275
quỹ_đạo 5274
we@@ 5273
độc 5271
1,@@ 5262
rập 5258
di_@@ 5248
xi@@ 5247
sợi 5246
lao 5240
tính_cách 5236
1986 5233
hầu_như 5231
men@@ 5223
dân_sự 5219
le_@@ 5218
đối_tác 5218
bao_nhiêu 5218
liệu 5218
kết 5216
đấu_tranh 5214
ngực 5205
it 5203
bấy_giờ 5203
sở_thích 5201
san_hô 5200
xăng 5194
tu 5194
hành_trình 5191
ngược 5190
australia 5189
1943 5189
lắm 5185
mái 5185
lưu_trữ 5178
gh@@ 5178
.@@ 5178
1979 5172
chứng_kiến 5170
1976 5165
chủ_nhiệm 5164
>> 5163
môn_học 5160
dấu_hiệu 5155
ireland 5155
bình_chọn 5154
ấu_trùng 5154
học_thuật 5150
đông_nam_á 5144
tử 5144
eu@@ 5142
triển_lãm 5136
biên 5134
un@@ 5129
xô_viết 5128
hại 5127
36 5125
tổng_giám_mục 5125
phục_hồi 5122
br 5120
rút_lui 5114
1940 5107
'@@ 5098
nam_giới 5095
xâm_lược 5095
argentina 5092
1985 5090
ge 5087
ruột 5083
khí_hậu 5083
di_cư 5080
na_@@ 5079
lưu_ý 5078
công_thức 5076
trúng 5073
bri@@ 5073
muối 5070
cập_nhật 5069
can_thiệp 5065
nguyện_vọng 5063
sách_giáo_khoa 5060
mạc 5057
phẫu_thuật 5055
fu@@ 5053
noctuidae 5048
thể 5044
dâng 5044
._cả 5044
1972 5042
thanh_tra 5033
đội_hình 5033
hiệu_ứng 5031
chắc 5029
ke 5025
mor@@ 5024
1987 5022
sto@@ 5022
1.@@ 5021
trang_phục 5019
thẻ 5019
phụ_trách 5018
nông_thôn 5009
đường_sắt 5006
38 5005
lên_ngôi 5004
funix 5000
khoảnh_khắc 4999
pháp_lý 4998
triết_học 4997
giới_tính 4994
fe@@ 4992
des 4990
nia 4989
cá_thể 4989
hợp_nhất 4983
km2 4983
bên_cạnh 4977
hưởng 4973
ismart 4963
33 4958
ze@@ 4956
chiếm_đóng 4952
cảm_xúc 4951
hoàn_tất 4950
ấp 4946
võ 4945
người_mẫu 4944
thụy_sĩ 4944
tích_hợp 4942
_m@@ 4939
lục_địa 4933
64 4925
tes 4911
sắc 4902
400 4901
hiện_diện 4900
axit 4900
cải_tiến 4899
sống_sót 4899
bắt_nguồn 4894
za 4894
chủ_trương 4893
soạn 4889
phân_chia 4889
cuba 4886
quan_chức 4878
khẩu 4877
thích_nghi 4873
tho@@ 4865
._được 4858
trích 4854
suất 4853
doanh_thu 4852
ur@@ 4843
vay 4843
uy_tín 4840
hẳn 4840
mong 4837
1968 4835
tiến_bộ 4834
đam_mê 4832
văn_hoá 4830
sinh_sản 4828
ser@@ 4826
trịnh_@@ 4823
# 4820
2,@@ 4819
hội_thảo 4819
may 4818
thiên_nhiên 4818
kho 4814
tôn 4814
nhiên_liệu 4812
gói 4811
đầu_hàng 4811
dưới_quyền 4810
protein 4809
my@@ 4809
34 4806
nguyên_tử 4804
je@@ 4803
bồ_đào 4802
tự_tin 4801
trị 4799
1982 4799
chặt 4795
đập 4792
55 4792
vật_chất 4790
tròn 4789
tiêm 4786
bày_tỏ 4783
gd-đt 4783
mặt_đất 4775
01 4773
hoá 4772
lâu_dài 4772
tự_động 4770
sen 4769
đòi 4766
á 4764
1984 4762
lợi_nhuận 4756
tuyển_dụng 4755
ban_chấp_hành 4755
quốc_@@ 4754
1.000 4754
tiêu 4753
1941 4737
dám 4735
ran@@ 4734
washington 4723
sự_việc 4719
công_nghệ_thông_tin 4719
hâm_mộ 4718
cân_bằng 4714
trung_học_phổ_thông 4714
thủ_tục 4710
uy 4709
0,@@ 4707
00 4702
1965 4699
tiêu_biểu 4698
chỉnh 4696
thi@@ 4688
ánh 4684
ngay_lập_tức 4681
tạm_thời 4680
iraq 4679
thượng_@@ 4678
._dân_số 4666
thung_lũng 4662
be 4660
cướp 4656
trục 4656
phát_âm 4655
1973 4654
ý_định 4653
gar@@ 4651
thảo 4649
đông_dương 4647
'_@@ 4644
mexico 4643
tus 4639
tiêu_điểm 4637
khủng_hoảng 4633
huy_động 4632
cambridge 4630
vệ_tinh 4629
pri@@ 4629
phạt 4628
đồng_bằng 4628
não 4627
kể_cả 4627
may_mắn 4626
hậu_môn 4625
khóc 4624
hợp_chất 4623
1981 4622
48 4621
treo 4621
lên_đường 4620
kế 4620
tỉnh_ủy 4619
hoàn_thiện 4617
pop 4610
._bộ 4610
trấn 4610
lia 4609
đế_chế 4607
lộ_trình 4604
phi_công 4600
men 4599
cổ_phần 4598
thuyết 4594
her@@ 4593
ngoại_trừ 4591
ngụy 4591
theo_đuổi 4588
vi_khuẩn 4587
bản_đồ 4585
mùi 4585
chấp_thuận 4582
tàu_chiến 4581
1930 4581
ss 4579
cưới 4579
clip 4578
tù 4576
con_cái 4575
dự_bị 4557
buồn 4556
ng-@@ 4554
biểu_hiện 4553
binh_sĩ 4547
pho@@ 4545
yên_@@ 4544
a-@@ 4541
cần_thơ 4539
mon@@ 4539
ve 4538
iv 4537
._những 4537
tả 4536
er_@@ 4536
sân_vận_động 4536
mục 4535
bồi_dưỡng 4533
ck@@ 4525
cơ_cấu 4521
37 4516
trung_học_cơ_sở 4516
tài_khoản 4515
1974 4513
der@@ 4512
truy_cập 4510
mari@@ 4510
you 4507
bắt_giữ 4506
lái 4503
mọc 4498
triệu_chứng 4498
ed@@ 4496
ấn 4493
than 4490
cam 4490
cảnh_báo 4487
ipad 4484
kháng_chiến 4483
thiên_hà 4478
xưa 4477
bur@@ 4476
mặt_trăng 4475
đô_đốc 4475
tiêu_thụ 4475
ro 4475
chi_@@ 4474
xoay 4474
1983 4474
đồi 4473
hút 4471
xác 4469
tiêu_dùng 4469
quảng_bá 4469
răng 4468
tận_dụng 4465
pha@@ 4465
đàm_phán 4460
đà 4458
anh_trai 4456
bột 4456
luật_sư 4452
ana 4452
n_h@@ 4450
1_. 4448
thực_dân 4445
dũng 4442
tư_nhân 4441
ab@@ 4439
am 4437
lin 4434
sụp_đổ 4433
tổng_thể 4433
địch 4431
i-@@ 4431
củng_cố 4427
hành 4427
cy@@ 4427
04 4423
thái_@@ 4420
sh 4418
dẫn_đầu 4417
1978 4416
tuyết 4415
giây 4415
1956 4413
cổ_điển 4410
tiến_hóa 4409
rối_loạn 4407
một_mình 4404
vụ_việc 4403
khởi_đầu 4400
si 4400
new_zealand 4397
pa 4397
quý_tộc 4396
ger@@ 4395
formula_@@ 4393
42 4392
động_lực 4391
bắc_kinh 4390
luận 4390
vận_động_viên 4390
điểm_số 4389
danh 4382
lâm_@@ 4376
phần_thưởng 4372
nói_chuyện 4371
chánh 4369
nd@@ 4368
địa 4366
1967 4366
quê_hương 4365
dinh_dưỡng 4360
bi 4357
điển_hình 4356
of_@@ 4356
1964 4354
dấu 4352
tổng_@@ 4349
tuần_tra 4349
c-@@ 4348
pla@@ 4347
đại_dương 4344
hôm_nay 4344
q 4342
website 4342
diễn_xuất 4341
ninh 4338
chinh_phục 4337
20@@ 4336
chu 4335
ai@@ 4334
ân 4332
kê_khai 4331
tưởng 4329
olympic 4329
liên_@@ 4327
kỹ_sư 4324
mc@@ 4324
đan_mạch 4322
thí_nghiệm 4322
tội_phạm 4321
thời_tiết 4318
quá_khứ 4318
bạo_lực 4316
ou@@ 4316
đạo_luật 4309
tiểu_đoàn 4309
scotland 4308
mô 4308
thuận 4300
ac@@ 4298
thưởng 4297
chuột 4296
kỷ_luật 4295
nhà_@@ 4295
đấy 4295
1963 4292
số_liệu 4289
xét_nghiệm 4289
vĩnh_@@ 4285
vn 4284
đừng 4277
c. 4275
thái_tử 4274
nặng_nề 4270
hậu_quả 4266
ngăn 4264
ler 4262
phật 4261
xóa 4252
phát_sinh 4251
sti@@ 4247
đáy 4233
vở 4232
000 4229
du_khách 4229
quần_áo 4229
buôn_bán 4229
kế_vị 4228
nguyễn_văn_@@ 4223
nữ_hoàng 4222
tây_dương 4221
nhà_hát 4220
mãi 4217
tiết_kiệm 4214
mạng_lưới 4211
ty@@ 4205
com@@ 4202
nông 4201
hứa 4200
thu_thập 4199
lam 4198
lưới 4197
pre@@ 4195
fer@@ 4191
chặn 4190
nguyên_@@ 4190
1969 4189
billboard 4188
quy_tắc 4186
long_@@ 4186
đất_đai 4186
thật_sự 4184
học_giả 4181
khôi_phục 4180
trang_trí 4179
liên_hiệp_quốc 4179
đặc_nhiệm 4179
ước 4174
trò 4169
vật_thể 4169
khúc 4166
ảo 4166
thủ 4164
1955 4161
nghĩa_@@ 4157
ghép 4155
nhân_@@ 4153
bớt 4152
y_học 4150
vẻ 4148
gợi_ý 4145
reading 4143
thắng_lợi 4142
44 4139
tranh_luận 4137
thi_hành 4137
chỉ_số 4132
huân_chương 4132
dặm 4132
chị_em 4129
nhà_giáo 4129
chứng 4128
ép 4125
đạo_@@ 4123
nghị_viện 4122
thực_tiễn 4114
thống_trị 4111
ry 4105
lục 4101
kịch 4097
ten@@ 4096
hết_sức 4095
đèn 4094
1971 4094
don 4093
el_@@ 4092
tuyên_truyền 4092
1962 4091
dần_dần 4090
os 4089
đinh 4089
nhà_nghiên_cứu 4089
a_s@@ 4087
bác 4085
kiến 4083
tranh_chấp 4082
quy_hoạch 4081
đại_tá 4080
địa_chỉ 4079
thép 4077
tùng 4075
chí 4073
tối_thiểu 4071
39 4070
kẻ_thù 4070
ghi_chép 4070
chính_@@ 4067
qua@@ 4066
điền 4063
tt 4063
gs 4058
j 4056
john 4053
dân_gian 4050
đông_bắc 4049
nhà_báo 4046
thống_đốc 4046
ria 4043
tỉ_lệ 4040
hỗn_hợp 4040
bỏ_phiếu 4039
hiếu 4039
mm 4037
sưu_tập 4036
ký_hiệu 4036
1977 4034
ấm 4031
7_, 4030
hộp 4029
nghị_định 4027
47 4026
cung_điện 4024
ers 4024
thú_vị 4022
mảng 4019
41 4018
dày 4015
mở_cửa 4014
giam 4010
windows 4007
quân_khu 4007
cấp_độ 4005
trí 4004
nút 4002
phương_diện 4002
thạch 4002
văn_minh 4000
on@@ 3999
tham_khảo 3996
03 3995
thượng 3995
hành_khách 3994
cầu_@@ 3988
dải 3982
_đ@@ 3978
di_truyền 3978
diện 3973
ta_@@ 3973
saint-@@ 3973
ds 3972
phong_phú 3971
lạc 3971
rộng_lớn 3970
ranh_giới 3969
08 3967
bất_chấp 3967
du 3965
tiểu_@@ 3965
ll 3963
ns 3963
khởi_nghĩa 3962
lỵ 3960
sho@@ 3959
em_trai 3958
quy_chế 3957
hy@@ 3956
ir@@ 3956
1959 3954
cla@@ 3953
ra_@@ 3952
cộng_hòa_@@ 3952
lâu_đài 3952
thiệt_mạng 3951
chủ_quyền 3951
túi 3948
cảm_hứng 3946
1966 3946
can@@ 3943
huỳnh 3942
hình_dạng 3942
từ_thiện 3941
ukraina 3941
luật_@@ 3940
quảng_bình 3938
lộc 3935
bất_thường 3935
thủy_thủ 3930
venezuela 3930
nội_chiến 3930
._bài_hát 3923
bốc 3921
khắc 3921
nô_lệ 3920
vững 3919
sạch 3919
quần_thể 3919
thái_bình 3918
1947 3915
thức 3912
đại_sứ 3908
ben@@ 3907
02 3906
val@@ 3905
đối_lập 3904
trưa 3903
sỹ 3903
hungary 3903
nếu_như 3898
nội_bộ 3898
nhận_định 3898
lúc_nào 3895
kha@@ 3892
brazil 3891
bám 3890
1949 3887
wal@@ 3885
1958 3882
sự_thật 3881
._không 3877
gạo 3874
xóm 3873
đặng_@@ 3869
quảng_nam 3859
way 3859
tuyệt_vời 3855
hang 3855
ổ 3854
rồng 3853
thập_kỷ 3853
phòng_chống 3849
150 3846
mật_độ 3845
cung_@@ 3841
bông 3840
chính_trị_gia 3839
ninh_bình 3838
hiệp_định 3836
chấn_thương 3835
tề 3835
46 3834
thường_trực 3834
hồng_y 3834
lập_trình 3833
linh_hoạt 3832
ye@@ 3831
1961 3829
nor@@ 3828
thiếu_tướng 3828
kín 3827
quyết_tâm 3825
bình_quân 3825
pra@@ 3824
thường_vụ 3824
thông_tư 3820
._dù 3820
thói_quen 3819
độc_đáo 3818
[_[ 3818
colombia 3817
bất_@@ 3816
1_@@ 3814
cs 3813
hợp_pháp 3813
._album 3812
trung_thành 3811
đầm 3809
tập_thể 3807
thiết_giáp 3806
cư_trú 3803
trùng 3798
show 3794
hưng 3792
chu@@ 3789
vết 3788
di_động 3782
khủng_bố 3780
quang_@@ 3780
ung 3779
tiêu_cực 3777
10.000 3777
vận_hành 3776
khởi_động 3775
tổ_tiên 3774
diệt 3773
quốc_lộ 3773
bao_vây 3773
leo 3772
dung 3772
trị_giá 3771
ban@@ 3771
vĩ_đại 3770
voi 3768
phóng_viên 3767
eri@@ 3767
oscar 3765
hoang_dã 3764
thử_thách 3763
bro@@ 3762
._quận 3762
lus 3761
bảo_@@ 3760
nigeria 3759
mâu_thuẫn 3757
nhân_quyền 3757
vươn 3756
ara@@ 3755
đối_đầu 3755
giả_thuyết 3752
vũ_trang 3751
52 3748
thế_vận_hội 3746
lò 3745
mật 3744
._cuộc 3744
to_@@ 3742
dư_luận 3741
._tất_cả 3739
bre@@ 3738
ứng_cử_viên 3734
ts@@ 3733
biên_chế 3733
dự_đoán 3732
đám_cưới 3731
cố_định 3730
bách_khoa 3730
đảng_viên 3729
texas 3725
từ_bỏ 3725
suối 3725
cường 3725
tuyệt_chủng 3724
kho@@ 3723
chế_biến 3722
que 3721
ngầm 3718
vũ_@@ 3718
cụ 3716
khai 3714
hữu_ích 3714
tuyệt_đối 3712
đồng_nghiệp 3711
dược 3711
1/3 3709
che 3707
's_@@ 3707
lăng 3706
kinh_phí 3706
da_@@ 3704
đề_tài 3704
cận_nhiệt_đới 3703
tỏa 3700
thang 3699
lưu_diễn 3698
song_song 3696
51 3696
sy@@ 3696
ren@@ 3694
có_vẻ 3693
lương_thực 3693
cỡ 3691
hủy 3689
2.@@ 3689
._về 3686
49 3684
te_@@ 3682
cam_kết 3678
vải 3678
đồn 3676
như_thế 3675
chiến_trường 3675
trợ_giúp 3674
apple 3670
đầu_tay 3670
phục 3668
tiệc 3667
hiệu_lực 3667
danh_tiếng 3663
bùi_@@ 3661
3.@@ 3661
ngữ_pháp 3660
chu_kỳ 3659
bel@@ 3659
tin_tức 3658
n_l@@ 3657
facebook 3653
at@@ 3650
nhập_khẩu 3649
bình_đẳng 3649
95 3648
một_chút 3645
đeo 3644
mốc 3643
world_cup 3642
muộn 3641
25@@ 3639
tour 3637
._s@@ 3637
trật_tự 3635
thái_độ 3632
tầng_lớp 3632
mơ 3628
lân_cận 3628
lo_ngại 3627
bơi 3625
tinh 3624
é 3624
._vì 3623
1939 3622
cách_ly 3621
._a@@ 3620
ôn_tập 3617
mia 3615
quốc_dân 3614
thích_ứng 3613
u-@@ 3610
út 3609
43 3609
nhà_thơ 3608
._phần 3608
phổi 3607
lập_pháp 3606
1957 3604
58 3604
chuyển_giao 3604
dàn 3603
tổn_thương 3600
bản_quyền 3598
euro 3597
tar@@ 3597
nắng 3596
one 3596
sai_lầm 3593
kịp_thời 3592
diễn_biến 3590
chức_danh 3589
bình_dương 3585
nguyên_tố 3585
putin 3584
chủng_tộc 3584
bọ 3584
hoàn_hảo 3582
xám 3582
lý@@ 3582
tham_nhũng 3579
pan@@ 3578
anime 3578
54 3577
1948 3576
._ngoài 3575
hẹp 3574
william_@@ 3574
trâu 3574
chile 3573
1920 3571
lục_quân 3571
pen@@ 3570
cơm 3569
trà 3569
hiểu_biết 3569
tion 3568
2/3 3567
đảng_cộng_sản_việt_nam 3567
m-@@ 3567
đinh_@@ 3561
dự_thảo 3558
ký_kết 3555
quần_vợt 3554
hải_dương 3554
phong_@@ 3553
tổng_cục 3552
doanh_nhân 3548
hồng_@@ 3548
tre 3544
thẩm_quyền 3544
85 3541
gen@@ 3537
web 3534
bo 3529
bài_học 3528
pakistan 3526
nghi 3526
n_tr@@ 3526
công_nguyên 3526
làm_chủ 3525
seoul 3523
nấu 3523
tước 3523
1953 3523
cro@@ 3523
google 3521
ngữ_văn 3521
tỉ 3520
do_@@ 3519
vương_triều 3519
làm_@@ 3518
hữu_@@ 3517
tương_đồng 3517
._tính 3517
my 3516
bán_kết 3514
địa_trung_hải 3510
ny 3504
thứ_trưởng 3504
youtube 3504
mặt_nước 3503
tuy_vậy 3503
p-@@ 3503
4.@@ 3503
nhà_xuất_bản 3498
trưng_bày 3497
ch_@@ 3496
mo 3495
quỳnh 3495
cer@@ 3489
lật_đổ 3488
danh_dự 3488
nấm 3487
ven@@ 3486
đông_nam 3485
giải_@@ 3484
giàu_có 3480
kar@@ 3480
56 3478
thủ_lĩnh 3475
giảng 3473
st@@ 3472
cia 3471
phòng_thí_nghiệm 3471
hạm 3471
cà_phê 3469
ai_cập 3469
tin_tưởng 3469
cân 3468
ford 3467
tự_chủ 3466
công_chức 3464
del 3459
rửa 3459
mượn 3457
et 3455
bình_luận 3455
tokyo 3452
1/@@ 3449
thế_lực 3448
ville 3446
sâu_sắc 3445
tự_trị 3443
hóa_@@ 3441
600 3435
chăn_nuôi 3434
ss@@ 3433
cảm_ơn 3432
luật_pháp 3432
minh_họa 3431
tựa 3431
88 3430
n_th@@ 3430
phê_duyệt 3429
lúa 3429
wa 3427
hạng_mục 3426
para@@ 3421
phát_minh 3419
n_đ@@ 3418
afghanistan 3418
ả_rập 3417
bộ_lạc 3413
khắc_phục 3412
's 3410
hiển_thị 3408
05 3406
công_suất 3406
72 3401
gặp_gỡ 3400
phan_@@ 3400
thừa 3399
florida 3398
ce_@@ 3396
nhựa 3396
liên_hiệp 3396
công_bằng 3395
luân_đôn 3392
vụ_án 3390
800 3390
năm_ngoái 3389
phương_trình 3389
tv 3387
đề_án 3384
bor@@ 3381
bản_chất 3381
tô 3381
đối_phó 3380
rẻ 3376
._còn 3376
education 3375
tôn_trọng 3372
thở 3372
den 3372
sia 3371
._[ 3371
ps 3368
địa_hình 3367
bụi 3366
bến 3365
thủy_@@ 3365
địa_chất 3363
quen 3359
dân_chúng 3355
đảm_nhiệm 3354
phương_@@ 3353
ms 3350
von 3350
ff 3349
vừa_qua 3346
thanh_toán 3345
họa 3337
king 3335
thứ_tự 3334
_nh@@ 3334
vệ_sinh 3333
ức_chế 3333
world 3331
lâu_đời 3330
rau 3330
thực_thi 3329
ghi_bàn 3329
nhà_hàng 3328
nhắm 3328
sch@@ 3326
chứng_khoán 3323
ea@@ 3323
huyền_thoại 3321
thận 3321
os@@ 3321
hậu_@@ 3320
tế 3315
xá 3315
chelsea 3313
lang 3313
ry@@ 3311
khám 3309
hồ_@@ 3306
sis 3303
em_gái 3301
em@@ 3300
tiền_vệ 3297
viên_chức 3297
thiên 3295
ý_thức 3290
hội_@@ 3288
1951 3287
bit 3286
moskva 3282
eo 3279
sen@@ 3277
hot 3277
robert_@@ 3276
suy_giảm 3276
mở_đầu 3276
dy@@ 3272
nhân_tạo 3272
lli@@ 3272
đại_việt 3272
tan@@ 3269
bin 3268
dao 3267
họa_sĩ 3267
đồng_nghĩa 3266
sky 3263
lọc 3261
by 3260
lis 3258
hầu 3254
tha 3254
khía_cạnh 3253
wo@@ 3253
mỏng 3251
tra 3251
ny@@ 3249
1952 3248
den@@ 3248
cáo_buộc 3246
3,@@ 3241
múa 3236
đối_diện 3234
fc 3234
tiền_tệ 3234
2/@@ 3233
war@@ 3233
đi_lại 3231
cm 3231
sự_cố 3230
r_@@ 3229
chủ_trì 3228
thu_hồi 3228
hiến 3228
thỏ 3228
ito 3228
ali@@ 3227
wales 3226
đường_phố 3225
đường_@@ 3224
et@@ 3224
tình_nguyện 3223
ex@@ 3222
hiền 3222
lin@@ 3222
trí_tuệ 3218
dê 3217
bật 3215
57 3215
dốc 3214
thầy_giáo 3214
._chỉ 3214
62 3213
phát_huy 3212
ẩm 3211
đảm_nhận 3211
vũ@@ 3210
kinh_đô 3210
lứa 3209
ưu_thế 3207
advance 3203
hệ_số 3202
công_tước 3201
09 3200
lợi_thế 3200
độc_giả 3200
năng_khiếu 3197
nai 3196
to_lớn 3194
ari@@ 3194
kiện 3193
đốm 3193
63 3190
can 3187
ku 3187
thủ_phủ 3187
đòn 3185
ker@@ 3184
mp@@ 3183
quân_pháp 3182
tích 3180
lặp 3180
2022 3179
khí_quyển 3177
quốc_vương 3177
sườn 3176
ho 3174
peru 3174
cân_nhắc 3173
roma 3172
đậm 3172
al_@@ 3168
tuân 3166
thuật 3165
áp_suất 3165
âm_lịch 3163
sừng 3163
nhà_ga 3160
kỳ_vọng 3157
chiêu 3157
lũ 3157
24@@ 3157
môi 3156
kỷ 3154
nội_@@ 3153
ssi@@ 3153
người_thân 3152
hỏa_lực 3152
á@@ 3152
tứ 3150
of@@ 3149
12/@@ 3148
rèn_luyện 3148
dar@@ 3148
phi@@ 3146
tĩnh 3146
fa 3145
ff@@ 3145
chú_trọng 3144
kan@@ 3144
4/3 3143
chí_minh 3143
28@@ 3142
tươi 3141
đối_xử 3141
tri_thức 3140
ji 3135
biến_thể 3134
sốc 3131
nguyên_liệu 3130
khoa_học_tự_nhiên 3130
nghiêm_túc 3129
y_khoa 3128
qui@@ 3126
at 3126
06 3126
cung_ứng 3126
hư_hại 3125
bất_động_sản 3124
công_văn 3122
gri@@ 3122
quán_quân 3121
đặc_tính 3121
gần_gũi 3119
9/@@ 3118
ngài 3117
hà_@@ 3115
bí_ẩn 3114
bình_định 3113
đồng_đội 3112
khởi_hành 3112
italia 3107
ngô_@@ 3105
làm_quen 3104
lữ_đoàn 3103
bắc_ninh 3103
ang 3103
tọa_lạc 3103
ul@@ 3102
pin 3102
ecuador 3101
ngon 3099
ngữ 3099
sk@@ 3096
f-@@ 3095
dia 3095
._ngay 3095
núi_lửa 3094
gian 3091
khớp 3090
vinh_danh 3089
26@@ 3088
đâm 3087
ạ 3087
5/@@ 3086
ô_nhiễm 3084
3/@@ 3083
luyện_tập 3083
chẩn_đoán 3080
suy_yếu 3079
bùng_nổ 3075
de_@@ 3073
on_@@ 3072
7,@@ 3070
nước_@@ 3070
tsu@@ 3069
thoải_mái 3068
cấp_bậc 3065
latinh 3065
pháo_đài 3064
quy 3062
bỏ_qua 3059
ám_sát 3059
ca_@@ 3058
truyền_thuyết 3058
binh_lính 3058
bí_quyết 3056
người_lớn 3055
nam_sinh 3055
kỵ_binh 3050
cực_kỳ 3049
53 3048
dra@@ 3047
mông 3046
._tên 3046
tre@@ 3044
a._@@ 3044
động_viên 3040
hài 3040
ba_tư 3040
học_@@ 3039
phun 3038
spi@@ 3038
tổn_thất 3037
trao_tặng 3037
nguyễn_thị_@@ 3037
7/@@ 3036
ap@@ 3036
gia_súc 3035
poly@@ 3035
tz 3034
kháng 3033
libya 3029
trụ 3029
18@@ 3026
tín_đồ 3024
ái 3024
đích 3024
nam_mỹ 3023
cho_dù 3022
han@@ 3020
liều 3019
dời 3017
thám_hiểm 3014
ruồi 3014
méxico 3014
chia_tay 3011
clo@@ 3011
phân_@@ 3010
mb@@ 3007
30@@ 3004
đt 3003
khâu 3003
tướng_quân 3003
khoe 3001
ng_h@@ 3001
đảo_chính 3001
công_chiếu 3001
chạm 3000
ces 2998
chế 2998
07 2993
khẩn_cấp 2992
triệu_tập 2992
phần_lan 2989
quảng_@@ 2988
or 2987
._phim 2987
địa_@@ 2985
việt_@@ 2984
berlin 2982
rủi_ro 2981
một_nửa 2980
phản_xạ 2980
quyền_lợi 2978
29@@ 2977
d-@@ 2977
bền_vững 2977
nam_định 2976
phu_nhân 2975
hà_tĩnh 2975
nội_vụ 2973
5.@@ 2972
dy 2971
sinh_@@ 2971
z_@@ 2971
thánh_@@ 2971
à 2970
thông_điệp 2969
thực_tập 2965
cách_thức 2964
ana@@ 2964
tin_cậy 2963
nhập_học 2963
66 2962
76 2962
lon 2962
nic 2962
duyệt 2961
đài_@@ 2961
vệ 2961
tuần_dương 2961
gdp 2957
tham_quan 2955
chép 2952
cảm_nhận 2950
tt@@ 2950
ước_mơ 2949
eo_biển 2949
nghị 2944
gre@@ 2944
x_@@ 2943
rạp 2943
lý_tưởng 2942
phi_@@ 2942
hữu 2942
chữ_cái 2942
8,@@ 2941
ala@@ 2941
tor@@ 2940
27@@ 2939
los_angeles 2938
len@@ 2937
ei@@ 2936
mu 2935
độc_quyền 2932
tú 2932
triệu_@@ 2932
nhập_cư 2931
._sự 2930
9.@@ 2930
miễn 2929
99 2925
thẩm_phán 2924
phẩm 2924
quan_niệm 2923
98 2923
định_dạng 2920
côn_trùng 2919
n_t@@ 2918
net 2918
ion 2916
._ảnh 2914
í@@ 2911
nin 2910
hawaii 2908
thái_nguyên 2908
f_@@ 2903
trọng_lượng 2903
van 2902
tự_hào 2899
10/@@ 2899
góp_ý 2897
sói 2896
việt_minh 2896
liệt 2891
san_@@ 2890
sar@@ 2890
lê@@ 2888
ăn_uống 2886
cương 2885
len 2885
hố 2884
hà@@ 2883
tác_chiến 2881
khỉ 2879
trái_tim 2878
_r@@ 2878
âm_mưu 2877
fc_@@ 2877
tử@@ 2876
1000 2874
tiên_tiến 2874
ris 2873
tình_báo 2873
bát 2873
ôm 2872
she@@ 2872
tây_nam 2871
sa_@@ 2869
ol@@ 2868
kiên 2867
mua_sắm 2865
nội_địa 2863
eli@@ 2862
por@@ 2861
gi 2859
hồ@@ 2859
mai_@@ 2858
xét_xử 2857
phước 2857
kiến_nghị 2857
microsoft 2856
kỹ_thuật_số 2856
120 2854
cal@@ 2854
đức_quốc_xã 2854
ron 2853
bộ_môn 2853
rạn 2852
trộm 2849
thị_@@ 2849
hạ@@ 2848
tốn 2847
ngập 2845
st_@@ 2844
vịt 2844
lee 2844
trưởng_phòng 2843
tiêm_kích 2843
nội_các 2842
6/@@ 2840
màng 2840
gạch 2838
va_chạm 2836
tiên_phong 2836
68 2836
fan 2834
tây_sơn 2834
ken@@ 2834
line 2832
sco@@ 2832
động_đất 2830
thủy_điện 2830
league 2829
thành_tựu 2828
ll@@ 2828
nowiki 2827
11/@@ 2825
trượt 2825
sản_lượng 2823
chân_@@ 2823
thời_hạn 2821
không_chỉ 2821
tiêu_@@ 2821
nhắn 2821
nói_riêng 2820
nghi_lễ 2820
nghiệp 2819
ca_ngợi 2818
miếng 2816
thái_hậu 2816
cường_độ 2815
hủy_bỏ 2815
nhi 2815
thu_@@ 2815
điều_khoản 2813
phê_chuẩn 2811
phước_@@ 2810
thượng_viện 2809
áp 2808
không_kích 2807
quảng_ninh 2807
chỉ_thị 2807
rin 2807
._nhóm 2807
xa_lộ 2806
xâm_nhập 2804
học_kỳ 2804
8.@@ 2804
biên_soạn 2803
chân_dung 2797
dự_trữ 2797
lương_@@ 2796
82 2795
thịnh_vượng 2791
thừa_kế 2791
2_@@ 2788
khu_phố 2786
ô@@ 2785
đột_biến 2783
ten 2782
huy 2780
đai 2780
người_yêu 2776
ván 2776
ốc 2776
59 2775
thất 2775
khánh_@@ 2773
bộ_máy 2772
khủng 2771
cra@@ 2771
liên_hoan_phim 2770
nhân_văn 2769
sợ_hãi 2769
âu 2769
bọc 2769
guitar 2769
james_@@ 2766
6,@@ 2765
ma_túy 2765
mini 2764
city 2764
mặt_khác 2762
man_@@ 2761
zu@@ 2760
tiên_@@ 2758
dấu_ấn 2757
nhãn 2757
thiên_văn_học 2756
id 2755
phim_hoạt_hình 2753
nghiêm 2753
29/2 2749
tham_mưu 2749
kế_toán 2748
tis 2748
p. 2748
gấu 2746
ngu@@ 2745
đợi 2741
nhiệm 2741
thăng_long 2740
ngắm 2738
lục_@@ 2736
thiện 2736
n_s@@ 2736
se_@@ 2736
gro@@ 2735
khen_ngợi 2735
7.@@ 2733
virginia 2732
thu@@ 2730
e-@@ 2729
hải_@@ 2729
chừng 2728
mer 2728
chiến_binh 2728
chủ_nhật 2727
cơ_sở_vật_chất 2726
xuất 2725
2.000 2725
tai_nghe 2724
ca_nhạc 2723
thư_ký 2722
ác 2722
đồ_họa 2722
thế_kỉ 2722
._ma@@ 2722
dụng_cụ 2721
2_, 2718
chào 2716
dao_động 2716
sư_tử 2716
ed 2715
series 2714
ang@@ 2713
stra@@ 2712
nhạt 2712
bá 2712
đầu_vào 2711
ea 2711
berg 2711
chịu_đựng 2710
trọng 2710
nồng_độ 2705
algérie 2705
79 2704
góp 2704
inter@@ 2703
pháo_binh 2703
lla@@ 2701
thơm 2701
ứng 2700
4,@@ 2700
dẫn_dắt 2700
giãn 2700
ngư_lôi 2700
eu 2698
quen_thuộc 2698
xe_buýt 2697
lập_tức 2696
hài_lòng 2694
ê@@ 2692
kitô_giáo 2691
quảng_trường 2690
đình_chỉ 2690
giải_cứu 2689
lệ 2689
thỉnh_thoảng 2688
đại_thần 2688
entertainment 2688
lõi 2687
đáp_án 2687
69 2686
quân_số 2684
vành_đai 2684
mc 2681
viện_trợ 2681
pp@@ 2680
78 2680
me_@@ 2678
8/@@ 2677
4/@@ 2677
nổi_loạn 2674
son_@@ 2672
$ 2672
xin_lỗi 2670
hlv 2669
tống_@@ 2669
py@@ 2669
định_@@ 2668
kg 2667
ngo@@ 2664
hauts-de-france 2664
phân_công 2662
kép 2661
phát_động 2661
pomerania 2660
năng_suất 2659
bác_bỏ 2658
miễn_dịch 2657
gal@@ 2657
tư_pháp 2655
61 2653
chém 2653
tor 2652
84 2651
w_@@ 2651
bút 2651
uni@@ 2651
đàn_áp 2650
._thành_phố 2649
đẻ 2648
mũ 2646
lãng_mạn 2645
thợ 2645
nhiễm_trùng 2644
đoàn_kết 2641
chuyển_thể 2641
.... 2641
bãi_bỏ 2641
min 2640
đồng_chí 2638
tiền_đạo 2637
73 2637
ủy 2634
pe 2634
thực_chất 2633
căn_hộ 2632
77 2631
ct 2631
thứ_bảy 2631
ngẫu_nhiên 2631
mìn 2630
vui_vẻ 2628
đình_@@ 2628
nguồn_lực 2627
67 2626
quãng 2626
united 2623
vô 2623
cen@@ 2623
by@@ 2622
thông_@@ 2620
74 2619
tâm_sự 2619
hướng_đạo 2619
việt_nam_dân_chủ_cộng_hòa 2619
tương_@@ 2618
dơi 2617
chư_hầu 2617
đói 2613
sa_mạc 2612
86 2611
hệ_sinh_thái 2610
._cuối 2610
ẩn 2609
sp@@ 2608
* 2607
xinh_đẹp 2607
lườn 2607
ông_@@ 2606
giải_thể 2606
ster 2605
lão 2604
niên_đại 2604
cơ_sở_hạ_tầng 2603
cổ_phiếu 2602
time 2602
trung_tướng 2602
loan 2600
nhân_tài 2598
barcelona 2598
y-@@ 2598
tưởng_niệm 2597
cáp 2596
b-@@ 2595
1936 2594
quảng_ngãi 2593
thủy_quân 2593
700 2592
ân_@@ 2591
thuần 2591
đành 2591
quảng_trị 2590
new_@@ 2590
71 2589
trợ_lý 2588
nhầm_lẫn 2587
hội_chứng 2586
il@@ 2586
6.@@ 2586
mann 2585
david_@@ 2585
miếu 2584
nhân_khẩu 2584
ver 2583
tuyên 2582
gián_đoạn 2581
9,@@ 2579
dữ_dội 2577
cầm_quyền 2576
chăm 2575
love 2575
vận_tốc 2575
jackson 2573
park 2571
lâm_thời 2570
dụ 2569
shi 2568
chờ_đợi 2568
mây 2568
quan_@@ 2568
giáng_sinh 2567
nước_mắt 2565
h_@@ 2564
gor@@ 2564
100_% 2563
im@@ 2562
1938 2562
siêu_@@ 2561
bal@@ 2561
win@@ 2561
bộ_tư_lệnh 2559
radar 2559
nước_ngọt 2558
lập_luận 2558
cài_đặt 2556
re_@@ 2553
giấc 2552
dính 2552
ja 2551
ine 2551
thác 2551
đặt_hàng 2550
nhạc_cụ 2549
._khoảng 2549
thất_vọng 2546
tố_cáo 2545
nho 2545
3_@@ 2545
ama@@ 2545
bảo_mật 2542
arsenal 2542
cam@@ 2541
lâm_sàng 2541
sọc 2540
1-2 2539
cống_hiến 2538
$_@@ 2537
liverpool 2536
bulgaria 2536
ê 2535
phối 2535
nh 2534
xử 2533
đằng 2533
lồng_tiếng 2533
rio 2532
rôma 2531
chi_nhánh 2530
ao 2528
bắc_giang 2528
96 2526
dor@@ 2526
97 2525
sal@@ 2525
hạn 2524
vận 2523
trôi 2523
tại_chỗ 2523
sk 2522
._số 2522
trịnh 2521
thành_ủy 2519
uy@@ 2518
bla@@ 2517
linh_@@ 2517
tù_nhân 2516
phú@@ 2515
bưu_điện 2514
chiến_sĩ 2513
tur@@ 2513
bá@@ 2512
tinh_@@ 2512
bí 2512
họ_hàng 2512
kin 2511
thăm_dò 2510
cơ_@@ 2510
trắc_nghiệm 2510
tảo 2506
nga@@ 2505
ngh@@ 2504
lạp 2504
m2 2504
cd 2504
hoàn_chỉnh 2504
mỹ_thuật 2503
lùn 2503
bán_chạy 2502
tuân_thủ 2502
tinh_thể 2502
87 2498
trung_cấp 2498
._tuy 2498
mon 2497
hoàn 2496
đối 2494
đất_liền 2493
nghĩa_vụ 2492
đệm 2492
trung_gian 2492
nhạy_cảm 2491
dung_dịch 2491
tràn 2490
far@@ 2489
cử_tri 2488
khang 2488
5.000 2488
lợi_dụng 2487
clb 2486
day 2485
góp_mặt 2484
ia 2484
khổ 2481
fla@@ 2481
lừa 2480
3d 2479
bar 2477
tượng_trưng 2477
mệt_mỏi 2477
tp.hcm 2477
._cùng 2477
tị_nạn 2476
giáo_dục_phổ_thông 2476
ua 2474
quần 2474
lar@@ 2474
trục_xuất 2474
tu_@@ 2474
nghi_thức 2472
bài_tập 2469
1937 2469
mã_lai 2469
ngoại_@@ 2468
java 2466
làm_sao 2466
chút 2465
hậu_vệ 2464
hữu_cơ 2463
chủng 2463
tòa_thánh 2461
giặc 2460
bài_giảng 2460
hầu_@@ 2460
vất_vả 2459
trung_đông 2457
suy 2457
mai@@ 2457
chứng_tỏ 2455
ngọt 2454
latin 2453
thùng 2452
nén 2452
char@@ 2452
cải_tạo 2449
canh 2449
sinh_thái 2449
cặp_đôi 2447
90_% 2447
gia_tộc 2446
thượng_hải 2446
phó_giáo_sư 2444
kích_hoạt 2443
trang_chủ 2443
dro@@ 2443
căn_bệnh 2443
phượng 2443
lly 2443
bắn_phá 2443
ker 2442
new@@ 2441
giao_@@ 2441
bộ_nhớ 2440
phản 2440
khoá 2440
tphcm 2439
cốc 2439
3/3 2438
vị_thế 2437
bảo_hộ 2437
tức_giận 2435
xuất_thân 2435
ty_@@ 2435
ngăn_cản 2434
ng_đ@@ 2432
fre@@ 2431
af@@ 2430
lạm_dụng 2429
tàn_phá 2427
học_hành 2427
cuộn 2427
gương_mặt 2426
mát 2423
vo 2423
nuôi_dưỡng 2422
ban_đêm 2422
ương 2421
victoria 2421
đương_thời 2421
normandie 2419
dòng_chảy 2418
giường 2417
chính_quy 2417
1918 2417
phương_ngữ 2417
bourgogne-franche-comté 2417
nhà_đầu_tư 2416
mỡ 2415
ster@@ 2415
ted 2414
thảm_họa 2413
th_@@ 2413
giày 2412
quét 2411
trường_@@ 2411
địa_giới 2410
nhìn_chung 2409
hành_quân 2409
les@@ 2408
đẩy_mạnh 2407
bức_xạ 2407
biệt_danh 2406
chung_cuộc 2405
ment 2405
._đầu 2404
nhầm 2403
91 2403
mal@@ 2403
hor@@ 2402
tu_viện 2401
mô_phỏng 2400
hành_@@ 2399
giai_điệu 2399
harvard 2398
đống 2397
cơ_học 2396
250 2395
đa_@@ 2395
chuyên_sâu 2395
liêu 2395
đ 2394
nghỉ_ngơi 2394
cốt_truyện 2394
bán_lẻ 2393
tộc 2392
tro 2391
điều_động 2391
khói 2390
liên_hợp_quốc 2389
19@@ 2388
93 2388
đột_ngột 2388
5,@@ 2386
đài_truyền_hình 2385
/@@ 2384
hậu_duệ 2384
unesco 2380
del@@ 2379
nòng 2379
b_@@ 2378
dan@@ 2378
94 2377
vuông 2377
danh_@@ 2377
van_@@ 2376
đảng_@@ 2375
hôn 2374
vi_@@ 2373
nở 2373
dòng_họ 2373
xâm_chiếm 2372
bou@@ 2371
cắn 2370
cao_nguyên 2370
ải 2369
v_@@ 2368
ks 2367
kra@@ 2366
lla 2365
cửa_sổ 2365
fanpage 2365
cri@@ 2364
mã_hóa 2364
sơn_@@ 2363
trung_cổ 2361
khởi 2360
rà_soát 2359
tựa_đề 2359
đầu_@@ 2358
nghiêng 2358
chôn_cất 2358
truyện_tranh 2357
radio 2355
đứt 2355
tái_@@ 2355
tôm 2354
danh_mục 2354
gắn_bó 2354
cận 2352
ry_@@ 2352
vì_sao 2351
nd 2351
bài_hát 2351
trò_chuyện 2350
đỉnh_cao 2349
trọng_tài 2348
bìa 2348
doanh_số 2347
nam_bộ 2347
._< 2347
tốt_đẹp 2346
thể_chất 2346
tần_số 2345
giờ_đây 2344
kiều 2344
xiêm 2344
vân_@@ 2343
vạch 2342
đánh_@@ 2341
khuôn_viên 2341
sử_gia 2341
xi 2340
_kh@@ 2339
yêu_thương 2339
lle@@ 2339
k-@@ 2338
83 2338
james 2338
thần_thoại 2338
van@@ 2337
lái_xe 2337
92 2336
huệ 2336
luồng 2335
váy 2335
say 2335
thịnh 2335
bàn_tay 2334
đồng_nai 2333
hình_@@ 2333
uganda 2333
giấu 2332
ottoman 2332
din 2331
rùa 2331
đài_phát_thanh 2329
10.@@ 2329
tăng_tốc 2328
vững_chắc 2328
1919 2325
my_@@ 2324
manga 2323
up 2322
mặt_hàng 2322
buôn 2321
tam_giác 2321
dna 2320
hạ_viện 2317
mừng 2316
hấp_thụ 2315
ngạc_nhiên 2314
hành_lang 2314
bắt_cóc 2314
tự_sát 2313
đông_á 2312
thương_vong 2311
sốt 2310
hầm 2307
hạ_cánh 2306
đông_đảo 2306
rea@@ 2306
đại_tướng 2304
đột_phá 2303
luôn_luôn 2303
charles 2303
cẩn_thận 2301
hợp_@@ 2301
đánh_bắt 2301
thiên_chúa 2301
fpt 2300
khen 2300
na_uy 2299
81 2299
gia_định 2299
well 2298
thứ_sáu 2298
quyết_liệt 2298
điệu 2297
trọng_@@ 2297
3.000 2297
địa_danh 2296
sai_phạm 2295
fifa 2295
89 2295
hồng_quân 2295
[_[_@@ 2294
tay_vợt 2292
loại_hình 2289
do_vậy 2289
ẩm_thực 2289
tôn_@@ 2287
thùy 2287
loại_trừ 2286
bất_hợp_pháp 2286
cho_nên 2284
thổi 2281
julius 2281
tổng_giám_đốc 2280
tín 2280
tic 2280
gánh 2278
tổ_quốc 2278
cre@@ 2278
đầu_ra 2277
oxy 2276
khe 2275
khê 2275
ham 2274
tuần_lễ 2274
hà_nam 2274
hạt_giống 2274
pal@@ 2273
ling 2273
phản_công 2272
tháo_dỡ 2272
star@@ 2270
town 2270
đồ_chơi 2269
trang_trại 2267
group 2266
tán 2266
chủ_nghĩa_@@ 2266
phụng 2265
tím 2264
george 2264
george_@@ 2264
âm_@@ 2263
thiếu_niên 2262
linh_hồn 2262
hoài_@@ 2261
robot 2260
ther@@ 2260
tuyển_chọn 2258
du_học_sinh 2258
chuông 2257
đường_bộ 2257
nar@@ 2256
bảo_thủ 2255
nguyện 2254
1,5 2254
đăng_tải 2254
o-@@ 2254
giao_lưu 2252
trọng_tâm 2252
trừng_phạt 2251
con_cháu 2250
từ_chức 2249
nobel 2249
thiên_văn 2249
tiếp_thị 2248
thân_thiện 2248
._h@@ 2248
hiệu_suất 2247
mục_@@ 2246
học_hỏi 2246
v.v. 2246
piano 2245
tứ_kết 2244
tan_rã 2244
co_@@ 2244
bạch_@@ 2244
._ở 2244
email 2243
dầu_khí 2243
nan 2243
trị_vì 2243
vô_tình 2242
thải 2240
máy_chủ 2240
chai 2239
ơ 2238
báo_@@ 2238
trinh_sát 2237
hy_sinh 2236
tích_lũy 2235
new 2234
nẵng 2234
chùm 2232
chăn 2232
viễn_thông 2232
địa_vị 2232
cưỡi 2230
thượng_thư 2230
khai_giảng 2229
đan 2228
kế_tiếp 2226
phòng_ngự 2225
dư 2225
cus 2223
không_những 2222
loạn 2222
kinh_thành 2222
xo@@ 2221
sơn_la 2220
khởi_xướng 2220
opera 2220
phó_thủ_tướng 2219
lui 2218
ghi_âm 2218
ple@@ 2218
4.0 2217
bất_đồng 2216
nhốt 2216
nhật_@@ 2216
lưu_giữ 2216
ger 2216
cô_lập 2215
kem 2214
nguyên_thủy 2213
vết_thương 2212
hi 2212
._nhà 2212
thất_nghiệp 2211
móng 2210
ner@@ 2210
obama 2208
tâm_@@ 2208
đội_trưởng 2207
ngoại_ô 2207
armenia 2207
cạn 2206
tiếp_nối 2206
gương 2205
loài_người 2205
hình_học 2205
khoa_học_@@ 2204
cher@@ 2204
tranh_cử 2203
kì 2203
đối_ngoại 2202
_thành 2202
tru@@ 2202
mus 2202
ngô@@ 2202
điêu_khắc 2202
chuyển_tiếp 2199
phóng_xạ 2198
gãy 2197
đèo 2197
mus@@ 2197
tên_tuổi 2196
._d@@ 2196
tiếc 2195
dan 2195
burg 2195
kenya 2194
trước_kia 2193
._hiện 2193
kích 2192
nger 2192
đại_dịch 2191
ông_bà 2190
xấp_xỉ 2189
dân_@@ 2189
ghé 2188
chọn_lọc 2188
nhượng 2187
200@@ 2184
tào 2184
maria 2183
bộ_@@ 2182
dự_báo 2181
đếm 2181
phúc_@@ 2179
huyền 2179
danh_nghĩa 2178
trộn 2178
ms@@ 2177
min@@ 2177
minh_bạch 2176
not 2176
records 2176
milan 2175
đảng_ủy 2175
chủ_lực 2174
n_b@@ 2173
bầu_trời 2173
võ@@ 2172
ton_@@ 2172
đăng_quang 2171
thiết_thực 2170
lý_luận 2170
ngón 2169
trú 2168
teen 2168
đồng_bộ 2168
thế_@@ 2167
ưng 2167
tín_dụng 2167
thụy 2167
sĩ 2166
bàng 2166
nghĩa_trang 2165
hit 2163
tum 2163
thị_trưởng 2162
tti 2161
sát_hại 2161
s_s@@ 2161
ami@@ 2161
nguyễn_th@@ 2161
electron 2161
con_@@ 2159
william 2157
ghana 2157
phần_tử 2157
dinh 2157
hoang 2156
._m@@ 2156
dưỡng 2155
ly_@@ 2155
il 2152
kế_nhiệm 2152
đồng_tiền 2152
lea@@ 2151
mba@@ 2150
tz@@ 2149
d'@@ 2149
quỷ 2147
phần_trăm 2147
music 2147
du_kích 2146
phan 2146
mac@@ 2146
panama 2146
thuật_toán 2145
android 2143
tin_học 2143
tướng_lĩnh 2143
biểu 2142
thân_@@ 2142
ngưng 2140
hitler 2140
mark 2139
kinh_điển 2138
res 2137
hạnh 2136
sin 2136
biên_tập 2135
thương_@@ 2134
trái_ngược 2133
cương_vị 2133
ur 2132
ban_@@ 2131
ir 2131
bày 2130
hóa_chất 2130
hưng_@@ 2130
chất_lỏng 2130
khuôn_mặt 2129
ye 2128
vở_kịch 2127
ak@@ 2124
ôn_luyện 2122
đỗ@@ 2121
an_giang 2121
bus 2121
lắp 2120
duy 2120
sun@@ 2120
ting 2120
chi_tiêu 2119
ngũ 2119
nan@@ 2118
vin@@ 2117
hy 2116
mất_tích 2116
tiêu_hóa 2116
cộng_hòa_nhân_dân 2116
xx 2115
sân_nhà 2113
kế_thừa 2113
sla@@ 2113
use 2112
lực_lượng_vũ_trang 2112
gas 2111
trân_châu 2111
nghiện 2110
mv 2109
ham@@ 2108
bệnh_tật 2108
giáo_sĩ 2108
trích_dẫn 2107
1917 2107
super@@ 2105
cố_tình 2105
mel@@ 2105
iphone 2103
lật 2102
kov 2102
sa_thải 2101
uss 2100
hội_đồng_@@ 2100
5_@@ 2098
hoàn_vũ 2097
wood 2096
xứng_đáng 2095
cộng_tác 2095
0.@@ 2094
tối_ưu 2093
tỉ_số 2093
chòm_sao 2091
g-@@ 2090
ning 2090
nhẹ_nhàng 2088
lĩnh 2088
nhậm_chức 2088
ya_@@ 2088
cánh_tay 2087
tập_trận 2086
giáo_@@ 2086
khoan 2085
tín_ngưỡng 2085
românia 2085
heo 2083
yến 2083
_do@@ 2083
tây_nguyên 2083
hội_đồng_nhân_dân 2083
dvd 2083
đầu_bảng 2082
trường_sa 2082
mao 2082
vff 2080
ưu_đãi 2080
nhìn_nhận 2080
nis 2080
1935 2080
._quân 2080
khu@@ 2077
căn_bản 2077
tiêu_đề 2077
bù 2076
phùng_@@ 2076
field 2076
ve_@@ 2075
trực_thăng 2075
xác_minh 2075
ep 2074
._mẹ 2074
đắt 2073
j._@@ 2073
myanmar 2071
x-@@ 2070
college 2070
chicago 2070
a_m@@ 2068
đồng_cỏ 2068
fri@@ 2067
kim_cương 2067
._quân_@@ 2066
sáng_kiến 2065
phong_kiến 2065
quyết 2064
asean 2063
đoán 2063
đảng_bộ 2063
ban_ngày 2062
dự_luật 2062
t. 2062
khuôn_khổ 2061
ơi 2060
chặng 2059
kim_tự_tháp 2059
tiếp_thu 2058
nhà_tù 2057
chống_đối 2057
rễ 2055
khách_quan 2054
format 2054
vang 2053
kết_án 2053
đúc 2053
quốc_tịch 2053
._cá 2053
sea_games 2051
biểu_thị 2051
_tcn 2051
khuyết_tật 2050
ơn 2049
mại_dâm 2048
sơn_tây 2048
tắm 2047
chủ_nhân 2046
gia@@ 2046
làn 2045
tiến_công 2045
nae 2045
in_@@ 2044
g_@@ 2043
khai_mạc 2042
._phần_lớn 2042
xã_hội_chủ_nghĩa 2041
khoang 2041
_hóa 2041
lưu_vực 2041
tự_@@ 2040
tốn_kém 2039
dia@@ 2036
hương_@@ 2036
ani@@ 2036
fal@@ 2035
tập_luyện 2035
trung_thực 2035
rắc_rối 2034
đàm 2034
giải_tán 2033
lượng_tử 2033
vượt_trội 2032
u_th@@ 2031
ung_@@ 2031
ùng 2031
phá_hoại 2031
cân_đối 2029
hô_hấp 2029
ngai_vàng 2029
gy@@ 2029
hình_sự 2028
han 2028
mỹ@@ 2025
lạm_phát 2025
var@@ 2025
shu@@ 2025
khách_mời 2024
mạn 2023
_de@@ 2023
cacbon 2022
viếng_thăm 2021
sv 2021
uyên 2020
com 2020
lên_tiếng 2019
phẩm_chất 2019
ăng 2018
mồ_côi 2018
lặn 2018
bản_sao 2018
ens 2017
mary 2017
vách 2014
hình_tượng 2014
ina 2014
en_@@ 2013
dri@@ 2013
solo 2013
wer@@ 2012
tô@@ 2012
đỡ 2011
đón_nhận 2008
người_dân 2008
wan 2008
duyên_hải 2007
bẫy 2006
cli@@ 2006
nạp 2005
lạc_@@ 2005
giai_cấp 2005
duyên 2004
sổ 2004
hẹn 2003
tâm_thần 2003
quảng 2003
ale@@ 2001
jo 2001
thời_kì 2000
colo@@ 1999
1931 1999
tiền_thân 1999
massachusetts 1998
ney 1997
củ 1996
cán 1995
huỳnh_@@ 1995
gp 1994
danh_giá 1994
1929 1994
io@@ 1993
tổng_quát 1991
._trường 1991
tin_đồn 1990
ze 1990
ld 1990
cđ 1990
truyền_giáo 1990
bùn 1988
camera 1987
hồn 1986
chiêu_@@ 1985
bếp 1984
lầy 1984
bbc 1983
ano 1983
máy_móc 1983
charles_@@ 1983
ft 1982
ngo 1979
=_@@ 1979
henry 1977
1-@@ 1977
dài_hạn 1977
l-@@ 1977
vu@@ 1977
1934 1977
nhà_sử_học 1976
bank 1975
un 1975
young 1975
nus 1974
phong_độ 1973
ruộng 1973
thường_niên 1973
tác 1973
cẩm_@@ 1972
làn_sóng 1971
news 1971
phủ_nhận 1971
cou@@ 1971
logic 1970
kinh_hoàng 1967
trưởng_ban 1967
4_@@ 1967
ld@@ 1966
xu 1966
idae 1966
ky@@ 1965
1932 1965
xe_đạp 1964
ần 1963
nghệ 1963
cơ_động 1962
chính_thống 1962
nghiệp_vụ 1961
thời_@@ 1961
thất_@@ 1959
ếch 1959
cưỡng_chế 1958
lục_chiến 1958
ls 1957
boston 1957
des@@ 1957
col@@ 1957
đại_đội 1957
blo@@ 1956
du_@@ 1956
fra@@ 1955
vel@@ 1955
phán_quyết 1954
bao_phủ 1954
tôn_vinh 1953
cấu_tạo 1953
lưỡi 1953
xương_sống 1953
stri@@ 1953
thủy_sản 1952
kiểm_định 1952
ưa_thích 1952
inch 1951
thiên_thể 1951
sony 1949
hàng_hải 1949
phân_bổ 1949
học_thuyết 1949
palestine 1948
bảo_trợ 1948
hỏng 1947
cơ_khí 1947
ngô_đình_diệm 1946
tạng 1945
ương_@@ 1944
100.000 1944
bộ_đội 1943
vii 1943
._hiện_tại 1943
cao_điểm 1942
bạch 1942
phẳng 1942
nhấn 1941
stu@@ 1941
spe@@ 1941
đệ_nhất 1940
ig@@ 1940
hiện_hành 1939
bru@@ 1939
lo_sợ 1938
quay_phim 1938
thực_ra 1937
macedonia 1937
trả_thù 1935
tổng_thư_ký 1935
phù@@ 1935
khanh 1935
tâm_huyết 1935
ano@@ 1935
đày 1933
vaccine 1933
lướt 1932
tố 1931
fran@@ 1931
cục_trưởng 1931
dáng 1929
bộ_tộc 1928
sơ_bộ 1927
bầu_chọn 1927
pc 1927
natri 1927
trình_tự 1927
ps@@ 1927
thế_vận_hội_mùa_hè 1926
kêu 1925
thiền 1925
stalin 1925
xix 1924
tù_binh 1924
số_phận 1923
kết_cấu 1923
thẩm_định 1923
hài_hước 1922
chuyển_nhượng 1921
dân_quốc 1921
bản_nhạc 1920
cà_mau 1920
ắng 1919
vô@@ 1918
cin@@ 1917
vũng_tàu 1917
henry_@@ 1916
lau@@ 1916
ó@@ 1915
tâm_lý_học 1915
tham 1914
nhân_loại 1914
thể_dục 1914
thục 1914
ae@@ 1914
trường_phái 1914
châu_mỹ 1912
đại_lý 1911
1933 1911
một_khi 1910
giam_giữ 1910
ref 1910
aceae 1910
ding 1909
bá_tước 1909
file 1908
trinh 1908
đào_@@ 1908
thần_@@ 1908
trung_tá 1908
khảo_cổ 1907
cáo 1907
1922 1907
ăn_@@ 1906
may@@ 1906
vũ_đế 1906
tử_@@ 1905
thể_chế 1905
liên_quân 1905
hiện_thực 1904
tran@@ 1903
chiến_@@ 1902
lé@@ 1901
hàm_@@ 1901
que@@ 1900
bức_xúc 1900
bền 1900
sơ 1900
buộc_tội 1899
media 1899
hollywood 1898
thi_@@ 1898
thứ_hạng 1898
lỏng 1897
thủ_môn 1896
28/2 1896
unicode 1895
lệnh_cấm 1895
è@@ 1895
thiệu 1895
tiến_trình 1894
xúc_động 1894
châu_thành 1894
sút 1892
xiii 1892
tam 1891
kênh_đào 1891
quân_chủ 1891
pháp_@@ 1890
phương_đông 1890
vận_dụng 1890
thiểu_số 1890
real 1889
đám_mây 1889
sông_@@ 1888
tái_lập 1888
quân_hàm 1888
let 1887
ka_@@ 1887
chí@@ 1887
cua 1887
chi_phối 1887
hoà 1886
hoãn 1885
tào_tháo 1885
tiền_lương 1883
tte 1883
bồi_thường 1882
nhắc_nhở 1882
sắc_lệnh 1881
gla@@ 1880
1921 1880
cản_trở 1879
dẫn_chương_trình 1879
mã_@@ 1879
font 1878
1914 1878
lãi_suất 1877
airlines 1877
au 1877
ag@@ 1876
._trận 1875
nhạc_@@ 1874
pon@@ 1873
hiv 1872
pennsylvania 1872
_so@@ 1872
s. 1872
op@@ 1871
oli@@ 1871
nguyên_lý 1871
cảnh_@@ 1871
tạ 1870
kiến_trúc_sư 1870
tuyệt 1869
vương_miện 1869
ghi_nhớ 1869
lô 1868
tưởng_tượng 1868
tang 1868
sus 1868
hạ_@@ 1865
27/2 1865
tổng_công_ty 1865
vòng_tròn 1865
cường_quốc 1864
samsung 1864
shin@@ 1864
kinh_thánh 1864
mono@@ 1864
lùi 1863
xu@@ 1862
_le@@ 1862
giáng 1861
link 1861
ar 1861
wil@@ 1861
thỏa_mãn 1860
tác_nhân 1859
ninh_@@ 1859
sse@@ 1858
hoa_kỳ_@@ 1857
tự_nguyện 1856
hel@@ 1856
lou@@ 1855
thomas 1855
paul_@@ 1854
bản_xứ 1854
quân_lực 1854
hứng_thú 1853
lấp 1853
dũng_cảm 1852
sam 1851
micro@@ 1851
1900 1850
bùng_phát 1850
cơ_giới 1850
dệt 1849
vĩnh_long 1849
bể 1849
1927 1849
nghi_@@ 1848
._con 1847
ele@@ 1847
tỷ_số 1845
kỷ_nguyên 1845
giao_chiến 1845
su 1844
mat@@ 1844
xưng 1844
tham_vọng 1843
cơ@@ 1843
ấn_độ_dương 1843
cây_trồng 1843
dâu 1842
hào 1842
net@@ 1842
1050 1841
hậu_cần 1841
rõ_rệt 1841
mệnh 1841
trương 1841
xe@@ 1840
cong 1840
and@@ 1839
ensis 1839
đại_gia 1838
khánh_thành 1838
sai_lệch 1838
thị@@ 1838
ella 1838
thị_thực 1838
bin@@ 1838
tháo 1837
ngân 1837
gha@@ 1837
thuộc_hạt 1837
22/@@ 1836
bánh_@@ 1836
madrid 1835
hàm_lượng 1834
hư_hỏng 1834
nướng 1834
bồ_đào_nha 1833
liên_minh_châu_âu 1832
don@@ 1832
epi@@ 1832
mba 1831
cảm 1831
võ_thuật 1831
cai_quản 1830
đo_lường 1828
cổ_@@ 1828
dân_tộc_thiểu_số 1827
cơ_quan_chức_năng 1825
máy_ảnh 1824
tư_thục 1824
elizabeth 1823
trang_thiết_bị 1823
cồn 1823
hòa_tan 1823
hình_dáng 1822
hội_nhập 1822
kiến_tạo 1822
dong 1821
ngưỡng 1821
star 1820
quyền_hạn 1819
fan@@ 1819
._người 1819
đường_kính 1817
tăng_@@ 1817
phân_tán 1816
._riêng 1816
thiên_hoàng 1816
biển_đông 1815
mộc 1815
vĩnh_phúc 1815
gd 1814
tục 1814
grammy 1814
._đội 1814
gọn 1813
900 1813
dio@@ 1813
tal@@ 1813
sca@@ 1812
ưu_tú 1812
thảm_sát 1811
đối_thoại 1811
._hơn_nữa 1811
lên_án 1810
viễn_đông 1810
sel@@ 1810
ram 1809
khai_@@ 1809
người_đẹp 1809
1925 1809
ư 1808
bảo_quản 1807
nụ 1806
dis@@ 1806
lành 1806
4.000 1806
kính_@@ 1804
gian_lận 1804
khai_quật 1803
xoáy 1802
house 1802
nghĩa_quân 1802
cửa_khẩu 1801
ô_@@ 1801
cy 1801
lei@@ 1801
khmer 1800
edward 1800
neo 1799
chinh 1799
cal 1798
cam_@@ 1798
tư_mã 1797
hol@@ 1796
tion_@@ 1796
sn 1796
._phía 1796
nhãn_hiệu 1795
5-@@ 1795
chèo 1795
không_lực 1794
lo_@@ 1794
trí_thức 1794
tương 1793
._ba 1793
cổ@@ 1792
quái_vật 1792
paul 1792
georgia 1792
tồi_tệ 1791
rụng 1791
jamaica 1791
tự_quản 1790
uefa 1789
martin 1789
khắc_nghiệt 1788
hỗn_loạn 1788
năng 1788
ngoại_hạng 1787
mầm 1787
norfolk 1787
biến_động 1786
phát_@@ 1786
gốm 1786
lôi 1785
._em 1785
lan_truyền 1784
._lần 1784
bangladesh 1783
tổng_bí_thư 1782
we 1782
sso@@ 1781
bộ_quốc_phòng 1779
bản_@@ 1779
ski 1779
sin@@ 1779
._cha 1779
sm 1779
set 1778
1928 1778
thụ_thể 1778
vĩnh_viễn 1777
congo 1777
bách 1777
science 1777
trái_cây 1776
viện_trưởng 1776
thực_thể 1776
hs 1775
học_bạ 1774
đắp 1774
giảm_thiểu 1773
bích 1773
chị_gái 1773
tây_tạng 1773
ck_@@ 1772
đạo_quân 1772
flo@@ 1771
khải 1771
with 1771
nguyễn_thị@@ 1770
tư_liệu 1770
trực 1770
đối_xứng 1770
tư@@ 1770
6_@@ 1769
mé@@ 1769
ela 1768
neu@@ 1767
tọa_độ 1767
po 1767
liban 1767
hủy_diệt 1766
pala@@ 1765
táo 1765
phấn 1765
mi_@@ 1765
hang_động 1765
ran 1764
phần_nào 1764
cti@@ 1764
20.000 1764
gracillariidae 1764
tổng_kết 1763
giấy_tờ 1763
đương_đại 1762
vy 1762
._cậu 1762
tham_chiến 1761
michael_@@ 1760
cp 1760
toàn_thể 1760
tương_thích 1760
._sau 1760
xả 1758
chúc 1758
đặc_thù 1757
quảng_đông 1757
ble 1757
tambon 1756
doanh 1755
giá_cả 1755
dược_phẩm 1755
toàn_quyền 1755
lãnh 1754
thần_học 1754
dán 1753
cành 1753
thuốc_@@ 1753
bắc_bộ 1753
ser 1752
mp 1752
hương_vị 1752
ceae 1752
cấp_cứu 1751
ngày_lễ 1751
_hu@@ 1751
phát_xít 1751
đặc 1750
dầu_mỏ 1750
1924 1750
ber 1749
sinh_nhật 1749
y_dược 1749
biệt 1749
thy@@ 1749
btttt 1748
ám_chỉ 1748
định_kỳ 1748
tiên_lãng 1747
cát_@@ 1747
ngành_nghề 1746
gặm_nhấm 1745
tự_tử 1745
eni@@ 1745
định_lý 1745
mar 1744
nhật_ký 1743
thành_thạo 1742
lúng_túng 1742
phái_đoàn 1742
ah@@ 1741
10_triệu 1740
ð@@ 1739
điện_thoại_di_động 1737
phức_hợp 1737
phong_tỏa 1737
từ_điển 1737
ái_@@ 1736
thủy_tinh 1736
cộng_hoà 1735
ken 1735
1926 1735
ell 1734
tel 1732
real_madrid 1732
láng_giềng 1730
amsterdam 1730
wor@@ 1730
lưu_bị 1730
tái_tạo 1728
._dưới 1728
chốt 1727
tiện 1727
[_back 1725
|_giáo_dục 1725
|_nhịp 1725
internet_số 1725
15-07-2008 1725
jordan 1725
ay@@ 1724
hóa_thạch 1724
|_xã_hội 1723
|_thế_giới 1723
|_nhân_ái 1723
|_văn_hóa_| 1723
giọt 1723
kali 1723
hữu_hiệu 1722
i_th@@ 1722
ghét 1721
xích 1721
vòm 1720
bàn_giao 1720
dy_@@ 1719
phát_thanh 1719
phấn_đấu 1718
khó_chịu 1718
khai_sinh 1717
đau_đớn 1717
land@@ 1716
sil@@ 1716
cây_bụi 1716
cây_@@ 1714
101 1714
vũ_công 1714
vitamin 1714
sri_lanka 1714
thứ_sử 1714
8_@@ 1713
xe_tải 1713
săn_bắn 1713
cải 1712
br@@ 1712
truyền_cảm_hứng 1711
tập_@@ 1711
canxi 1711
chênh_lệch 1710
cc@@ 1710
tỉnh_thành 1710
sư_đoàn_bộ_binh 1710
nato 1709
xii 1709
nhung 1708
công_ước 1708
văn_h@@ 1707
công_đoàn 1707
nghị_sĩ 1706
lát 1706
đỗ_@@ 1706
khuynh_hướng 1706
xông 1705
nhọn 1705
thiết_yếu 1705
mag@@ 1705
lắng_nghe 1704
khỏe_mạnh 1704
đê 1704
,_5 1704
pin@@ 1704
ức 1704
niên_hiệu 1704
cao_su 1703
mờ 1703
oregon 1702
2-@@ 1702
sydney 1702
caribe 1701
lắp_đặt 1699
ves@@ 1699
đồng_bào 1698
dae 1698
tổng_giáo_phận 1698
mong_đợi 1697
chôn 1697
ol 1696
rong 1696
định_luật 1696
thuyền_trưởng 1695
làm_quan 1695
khảo_cổ_học 1695
trợ_cấp 1694
cup 1694
bại 1694
đa_phần 1694
h30 1694
lá@@ 1694
anh_@@ 1694
cao_bằng 1694
điểm_cao 1694
glo@@ 1693
soạn_thảo 1693
phản_biện 1693
a1 1692
tch 1692
công_nghệ_cao 1692
ngày_@@ 1691
đồng_tình 1691
ngăn_ngừa 1691
nghiên_cứu_sinh 1691
_su@@ 1690
ngờ 1690
rou@@ 1690
columbia 1690
quy_@@ 1690
anus 1690
chủ_sở_hữu 1689
sử_ký 1689
ưa 1687
mãn 1686
port 1686
nas 1686
dàn_nhạc 1685
mas@@ 1685
._i@@ 1685
wel@@ 1684
thực_@@ 1684
thủ_khoa 1683
dòng_điện 1683
mới_đây 1682
kíp 1682
/3 1682
rus@@ 1682
nguyệt 1681
harry 1681
cúng 1680
quần_chúng 1680
somme 1680
giao_hưởng 1679
phản_lực 1679
khánh_hòa 1678
xương_@@ 1678
cảnh_quan 1677
khỏe 1677
quản 1677
50.000 1677
sóc 1676
đa_khoa 1675
tom 1675
tình_nguyện_viên 1675
trường_an 1675
đẳng_cấp 1674
sơ_sinh 1674
thực_nghiệm 1674
d_s@@ 1674
anti@@ 1674
cá@@ 1673
_di@@ 1673
cờ_vua 1672
ngoài_trời 1672
oxford 1672
vui_chơi 1672
thấm 1671
tal 1671
ký_sinh 1671
phần_cứng 1670
lưu_thông 1669
phân_giải 1669
bình_thuận 1669
bắt_tay 1668
đức_tin 1668
đương_kim 1667
._thông_thường 1667
hồi_sinh 1666
sun 1666
._trên 1666
ôi 1665
gác 1664
emi@@ 1664
sức_khoẻ 1664
đắc_cử 1663
jones 1663
nhận_dạng 1662
thuốc_lá 1662
huyết_áp 1662
liễu 1661
johnson 1661
cur@@ 1661
trầm_tích 1661
trì_hoãn 1659
cực_@@ 1659
cầu_nguyện 1659
kin@@ 1659
đồ@@ 1658
michael 1657
ph 1657
lạng_sơn 1656
tiến_độ 1655
xạ 1655
thiếu_nhi 1655
ssa 1655
bầy 1654
belarus 1654
quê_quán 1654
anh_chị 1653
hiểu_lầm 1653
trọn 1652
phòng_học 1652
anne 1651
sai@@ 1650
brown 1650
tặng_thưởng 1650
international 1649
suy_thoái 1649
tỉnh_lỵ 1649
khởi_nghiệp 1648
ư@@ 1648
bayern 1648
hư_cấu 1648
văn_nghệ 1647
san_francisco 1646
anna 1646
kênh_truyền_hình 1645
trang_@@ 1644
nh_@@ 1644
viễn 1643
00@@ 1643
địa_phận 1643
bà_con 1641
cbs 1641
kháng_cự 1640
tội_ác 1640
hải_ngoại 1639
ma_trận 1639
mã@@ 1638
vu 1638
hiệp_sĩ 1638
phim_tài_liệu 1638
ci 1637
university 1637
xác_suất 1637
hình_phạt 1636
triều_@@ 1636
niên 1636
mù 1635
nhị 1635
thi_công 1635
phản_bội 1635
lời_nói 1634
trùm 1634
viện_hàn_lâm 1634
bổ 1634
thiếu_tá 1634
champions_league 1633
nội_trú 1633
trở_ngại 1633
văn_chương 1633
bán_kính 1630
í 1629
110 1628
sau_đại_học 1628
ns@@ 1628
cỗ 1628
cử_hành 1628
tắc 1627
trước_hết 1627
ng_l@@ 1627
ll_@@ 1627
bảo_trì 1626
model 1626
thân_thiết 1625
thiếu_hụt 1625
ae 1625
mini@@ 1624
smith 1624
đại_sứ_quán 1623
cắm 1623
thập_@@ 1623
nghiệm 1622
gục 1621
ú 1621
hoạt_hình 1621
linux 1621
l'@@ 1621
ón 1620
làm_tổ 1620
nếp 1619
úy 1619
vực 1618
nđ-cp 1618
life 1618
ethiopia 1618
chi_trả 1617
dạ_dày 1617
wan@@ 1617
xe_hơi 1616
vol@@ 1616
ren 1616
bran@@ 1616
live 1616
tào_@@ 1616
10,@@ 1615
tiệm 1615
nghiêm_ngặt 1615
thiết 1614
khan 1614
kĩ_thuật 1614
cr@@ 1613
lưu_vong 1613
times 1613
sót 1612
chiến_trận 1612
nông_@@ 1612
tấn_@@ 1611
vietnamnet 1611
ut 1611
mil@@ 1611
ngoại_lệ 1610
hiện_trường 1610
rome 1610
quốc_kỳ 1610
dịch_chuyển 1609
thấu_hiểu 1609
occitanie 1609
tất_nhiên 1608
hòa_nhạc 1608
_lu@@ 1608
stein 1608
nhôm 1607
thượng_nghị_sĩ 1606
ú@@ 1605
nhện 1604
1912 1604
louis_@@ 1604
bộ_chính_trị 1603
thủy_triều 1603
auvergne-rhône-alpes 1602
tta@@ 1601
luân 1600
chì 1600
serbia 1600
khoa_@@ 1599
hải_đội 1599
nhân_tố 1598
quang_trung 1598
chung_cư 1598
ấn_phẩm 1598
tông_@@ 1598
phó_hiệu_trưởng 1595
cửa_@@ 1595
võ_@@ 1594
nữ_giới 1594
thưa 1594
liêm 1594
điều_lệ 1594
cari@@ 1594
boeing 1593
ký_ức 1593
ura@@ 1593
pi 1593
đồng_phục 1593
disney 1592
máy_@@ 1592
giao_phối 1592
danh_xưng 1592
nữ_diễn_viên 1591
gia_vị 1591
vĩ 1590
thảm 1590
giáo_phái 1590
hươu 1590
rác 1589
0_@@ 1589
quyến_rũ 1589
hen@@ 1589
truy 1589
mường_@@ 1589
hms 1589
._giải 1589
ub@@ 1588
phú_@@ 1588
dẹp 1588
đụng_độ 1587
đích_thân 1587
fin@@ 1587
mina@@ 1587
chuyên_biệt 1586
nghỉ_hè 1585
enzyme 1585
nt 1584
vật_nuôi 1584
ăn_lá 1583
ssa@@ 1582
&@@ 1582
bạc_liêu 1582
tập_huấn 1582
khủng_long 1582
._bản 1582
cấu_hình 1581
sét 1581
quế 1580
phụ_tá 1580
cửu 1580
2,5 1579
,5 1578
con_em 1578
ầu 1577
bùi 1577
ses 1577
tổng_tuyển_cử 1577
gỡ 1576
viện_@@ 1576
tự@@ 1576
bổ_ích 1576
khắc_@@ 1575
ồng 1575
nguyễn_h@@ 1575
đồng_nhất 1575
napoléon 1575
1923 1574
chiếm_giữ 1574
._độ 1574
mồ_hôi 1573
khống_chế 1573
dừa 1573
đúng_đắn 1573
thuận_@@ 1573
quỳnh_@@ 1573
carbon 1573
h. 1573
2_. 1572
tri 1572
12.@@ 1572
mẫu_vật 1572
nhất_@@ 1571
sou@@ 1571
tình_cờ 1570
cổ_truyền 1570
vin 1569
09@@ 1569
tổng_tham_mưu 1569
điện_@@ 1569
hồi_phục 1568
band 1568
name 1567
la-@@ 1567
đệ 1567
ga_@@ 1567
tham_mưu_trưởng 1567
tuổi_trẻ 1566
kiệt 1565
jack 1565
ix 1565
nhiễm_sắc_thể 1565
david 1563
cống 1562
bất_ổn 1561
nga_@@ 1561
thô 1561
bangkok 1560
los 1560
hưởng_ứng 1559
cắt_giảm 1559
đối_@@ 1559
11@@ 1559
thứ_ba 1558
ley_@@ 1558
gia_lai 1558
bất_kì 1558
sam@@ 1558
ứng_cử 1558
az@@ 1558
thủ_công 1557
công_cuộc 1557
cận_vệ 1557
giác 1556
_sơn 1556
ràng_buộc 1555
you_@@ 1555
tiếng_nói 1554
quy_luật 1554
phu 1554
quang_học 1553
._nhờ 1553
đồng_vị 1552
tranh_thủ 1552
ào 1552
miến_điện 1552
triết_lý 1550
văn_bằng 1550
tách_biệt 1550
quan_lại 1550
cel@@ 1549
ges 1549
bê_tông 1549
air 1549
rìa 1549
ngạnh 1549
hydro 1548
180 1547
lào_cai 1547
mẫu_giáo 1546
động_mạch 1546
mặt_bằng 1546
nha@@ 1546
side 1546
chữ_số 1545
ros 1545
vọng 1544
rick 1544
v-@@ 1543
gậy 1543
bất 1542
air@@ 1542
nảy_sinh 1542
phiêu_lưu 1542
thu_hoạch 1542
_châu 1542
mes 1542
dụng 1542
4-@@ 1541
nhận_biết 1541
lãnh_tụ 1541
windows_@@ 1540
okinawa 1540
nghĩa_rộng 1540
zz@@ 1539
en-@@ 1539
tiến_quân 1539
quảng_châu 1538
khuyến_cáo 1537
dubai 1537
ám_ảnh 1537
world_@@ 1536
._cách 1536
ys 1535
tài_@@ 1535
nguyễn_hữu_@@ 1535
lạc_dương 1535
ì 1534
chia_cắt 1534
fe 1533
cara@@ 1533
._điểm 1533
kề 1532
duy@@ 1532
single 1532
mạng_@@ 1531
cs@@ 1531
dr@@ 1531
sao_hỏa 1531
bát_@@ 1530
ắc 1530
đẩy_lùi 1530
đột_kích 1530
ray 1530
1910 1529
23/@@ 1528
sci@@ 1528
chúa_@@ 1528
gan@@ 1527
_ho@@ 1526
hữu_nghị 1526
bào 1526
bổ_trợ 1526
._đĩa 1526
sor@@ 1525
games 1525
thanh_thiếu_niên 1525
thái_tổ 1525
._với 1525
kor@@ 1525
6-@@ 1524
m. 1524
sứ_mệnh 1523
mỹ_@@ 1522
thương_nhân 1522
won 1522
giật 1520
có_khi 1520
10-@@ 1520
qa@@ 1520
khởi_công 1519
ke_@@ 1519
tử_hình 1518
tta 1518
phục_hưng 1518
west_@@ 1517
ngôn 1517
thiên_hạ 1517
xử_tử 1516
quang_phổ 1516
tin_lành 1516
._mọi 1515
nhất_thiết 1514
lý_th@@ 1514
thiền_sư 1514
ard 1513
hưng_yên 1512
năng_động 1511
gộp 1511
7-@@ 1510
sta 1510
nhiếp_chính 1509
long_an 1509
song_@@ 1509
hùng_mạnh 1508
diệu 1508
lý_t@@ 1508
back 1507
áp_đặt 1507
erebidae 1507
bằng_cấp 1506
chăm_chỉ 1505
bất_lợi 1505
ohio 1505
chéo 1504
sóc_trăng 1504
túc 1504
ưa_chuộng 1503
is_@@ 1503
ghi_chú 1503
áp_đảo 1502
mẫn 1502
tây_ninh 1502
tệ 1501
phơi 1501
ca_hát 1501
mara@@ 1501
hơi_nước 1501
hình_thái 1500
ngoại_trưởng 1499
rực_rỡ 1499
trầm_trọng 1499
sha 1499
phong_tục 1499
người_bệnh 1499
kích_cỡ 1499
thuận_tiện 1498
mas 1498
lãng_phí 1498
tình_thế 1498
lân 1498
._cái 1498
30.000 1498
chưa_thể 1497
toà 1497
saint_@@ 1497
phú_yên 1497
hea@@ 1497
súng_trường 1497
soái 1497
true 1497
ời 1496
thần_thánh 1496
loa 1496
vướng_mắc 1496
trẻ_con 1495
bản_sắc 1495
hall 1495
áp_thấp 1494
flu@@ 1494
biệt_thự 1493
thụ 1493
thay_mặt 1493
cô@@ 1493
uri@@ 1493
louis 1493
mê 1492
pau@@ 1492
via 1492
quyên_góp 1491
đại_chúng 1491
red 1491
thiên_thần 1490
mộng 1490
hẹn_hò 1490
mổ 1490
zy@@ 1490
ôtô 1489
llo 1489
giận 1488
truyện_ngắn 1488
nhiệt_tình 1487
mur@@ 1487
west 1487
ski@@ 1487
6.000 1487
bb@@ 1486
quách 1486
nepal 1486
frank 1486
óc 1485
trung_lập 1485
mặt_phẳng 1485
sara@@ 1484
gán 1483
grand_est 1483
nghịch 1482
williams 1481
hợp_lệ 1481
like 1481
ra_vào 1481
số_một 1481
cớ 1481
kỵ 1481
et_@@ 1481
era 1481
cour@@ 1481
động_@@ 1480
dre@@ 1480
gruzia 1479
băn_khoăn 1477
dị_ứng 1477
sân_chơi 1476
tước_hiệu 1476
luận_án 1475
vô_số 1474
lót 1473
bất_kể 1473
trưng_cầu 1473
black 1473
sao_mộc 1473
._ro@@ 1472
yếu_kém 1471
bỏng 1471
1916 1471
nos 1471
hỏa_@@ 1470
hàng_xóm 1469
chủ_chốt 1468
kỳ@@ 1468
pur@@ 1468
quả@@ 1468
8-@@ 1467
kan 1467
mĩ 1467
nữ_thần 1467
nhẫn 1466
hứa_hẹn 1466
kê 1466
nô 1466
quân_nhân 1465
11.@@ 1465
mở_màn 1464
ki_@@ 1464
phi_đội 1463
thần_tượng 1462
sắc_đẹp 1462
cổ_đông 1461
xung_@@ 1461
đại_số 1461
tiến_triển 1460
hội_đồng_quản_trị 1460
áo_@@ 1460
hal@@ 1460
chan@@ 1460
vô_@@ 1459
rước 1459
lai_tạo 1459
tư_thế 1458
quái 1457
ac 1457
iso@@ 1457
ớt 1457
triển_vọng 1456
mẹ_con 1456
road 1456
đại_lộ 1456
7_@@ 1455
hội_tụ 1455
dance 1455
trần_th@@ 1454
23@@ 1453
tử_trận 1453
york 1453
phú_thọ 1452
ý_chí 1452
b. 1452
xác_chết 1451
ter_@@ 1451
đà_lạt 1451
sul@@ 1451
khẩu_hiệu 1450
trại_hè 1450
vua_@@ 1450
điểm_chuẩn 1450
vắng_mặt 1449
11,@@ 1449
kha 1449
chấm_thi 1449
giả_định 1449
company 1448
ans 1448
._thế 1447
ngton 1447
american_@@ 1446
liên_ngành 1446
kinh_dị 1446
kỳ_lạ 1445
pv 1445
tâm_hồn 1445
ori@@ 1445
fro@@ 1445
quặng 1445
lưu_hành 1444
cứu_hộ 1444
béo 1444
dự_phòng 1443
chài 1443
usd. 1443
toàn_cảnh 1441
phạm_tội 1441
phá_sản 1441
đến_nỗi 1441
llo@@ 1441
khởi_tố 1440
ef@@ 1439
bằng_sáng_chế 1439
toàn_thư 1439
1913 1439
130 1438
chia_rẽ 1438
inc 1438
nha_trang 1438
._bốn 1437
ngại 1436
đau_khổ 1436
thomas_@@ 1435
bởi_vậy 1435
đường_cao_tốc 1435
000@@ 1435
lý_giải 1434
nội_thất 1434
ii. 1434
nắm_bắt 1433
nhân_dịp 1433
ire 1433
mưu 1433
nal 1433
mou@@ 1432
hn 1432
râu 1432
gián_tiếp 1432
madagascar 1432
đồ_thị 1432
phúc_âm 1432
ction 1431
12,@@ 1431
lê_th@@ 1431
las 1430
dọn 1429
mala@@ 1429
ly_hôn 1429
huyện_lỵ 1429
huy@@ 1429
sh_@@ 1429
đảng_phái 1429
yên_tâm 1428
số_ít 1428
nhặt 1428
khăn 1428
liên_hợp 1428
sim 1427
tai@@ 1427
bóng_rổ 1427
hay_là 1427
ý@@ 1426
cốt 1425
cổ_xưa 1425
cục_bộ 1424
phù 1424
hàng_@@ 1424
khoáng_sản 1424
dục 1423
cle@@ 1423
quân_chủng 1423
trump 1423
rắn_nước 1423
24/2 1422
tỷ_phú 1422
gắn_kết 1422
tá@@ 1422
ốm 1420
chính_khách 1420
lee_@@ 1420
key 1420
._là 1420
mệnh_lệnh 1420
hin@@ 1420
chuyên_@@ 1419
dồn 1419
thúy 1419
sắc_tộc 1419
nhạc_kịch 1419
mani@@ 1419
ngụy_@@ 1419
thẩm_mỹ 1418
sau_cùng 1418
tuyên_ngôn 1418
bơm 1417
trái_phép 1417
ồn 1417
ưu_điểm 1416
thắt 1416
ký_túc_xá 1416
girl 1416
thông_dụng 1416
cau@@ 1416
1911 1416
thiếu_nữ 1415
thành_thị 1415
ny_@@ 1415
tê_giác 1414
tí@@ 1412
lầu 1412
zi 1412
e_d@@ 1412
thềm 1412
marshall 1412
nasa 1411
leo@@ 1411
cất_cánh 1411
dịch_thuật 1411
gui@@ 1410
ài 1410
oc@@ 1410
red@@ 1409
lăng_mộ 1409
giả@@ 1409
bộ_lông 1409
cher 1408
vảy 1408
khẩu_pháo 1408
phù_thủy 1407
aids 1407
inter 1406
tuần_hoàn 1406
dầu_@@ 1405
thạch_@@ 1405
from 1405
140 1404
gu 1404
vă@@ 1404
bị_cáo 1403
tệp 1403
illinois 1403
._loại 1403
phòng_ngừa 1402
king_@@ 1402
lãi 1402
tâm_linh 1402
lũ_lụt 1401
ben 1401
băng_hà 1401
động_thái 1400
lã 1400
tảng 1400
hán_@@ 1400
le-@@ 1400
dày_đặc 1399
lược 1399
._ngược_lại 1398
manchester_united 1397
khai_trương 1397
tuyên_quang 1397
bình_minh 1397
tiền_giang 1397
dấu_vết 1397
eo@@ 1397
quận_công 1397
cru@@ 1396
alaska 1396
sur@@ 1396
13,@@ 1395
per 1395
cốt_lõi 1394
đông_âu 1394
vô_tuyến 1394
sở_hữu_@@ 1393
bỏ_rơi 1393
tháo_gỡ 1393
jr 1392
vinh_dự 1392
gợi 1392
nấu_ăn 1392
sey 1391
marketing 1391
play 1390
yên_bái 1390
tu_sĩ 1390
sản 1389
chanh 1388
boo@@ 1388
tter@@ 1388
ngs 1387
thề 1387
thuở 1387
sức_ép 1387
light 1387
oxit 1387
ngư_dân 1386
khả_thi 1386
đường_băng 1386
no_@@ 1386
8/3 1385
350 1385
chất_thải 1385
khiếu_nại 1384
._như 1384
c._@@ 1384
bắc_phi 1383
trọng_điểm 1383
pan 1383
đấu_giá 1383
black@@ 1383
nie 1383
lang@@ 1382
ler@@ 1382
cap@@ 1382
siêu_thị 1381
đơn_thuần 1381
hai@@ 1381
tự_đức 1381
mạc_@@ 1381
ves 1381
cker 1380
tuyệt_@@ 1380
dân_ý 1380
tơ 1380
1905 1380
khoáng_vật 1380
tele@@ 1379
san_diego 1379
ngâm 1378
tĩnh_mạch 1378
ất_@@ 1378
zo 1378
richard_@@ 1378
tấn_phong 1378
độc_hại 1377
ek 1377
tunisia 1377
cảm_@@ 1377
jin 1376
du_hành 1375
hi_vọng 1375
nát 1375
luân_phiên 1375
tiếp_quản 1375
poli@@ 1375
xê 1374
giêng 1374
hàng_rào 1374
kiên_trì 1373
gia_long 1373
ngoại_hình 1372
lgbt 1372
_dương 1371
kẽm 1371
cá_mập 1371
ọ 1370
cc 1370
khen_thưởng 1369
usa 1368
má@@ 1368
ế_@@ 1368
chua 1368
rải_rác 1368
mùa_hè 1368
sương 1367
petro@@ 1367
pr@@ 1367
uruguay 1367
hoa_lư 1367
đặc_quyền 1366
thân_vương 1366
bình_tĩnh 1365
bất_cập 1365
lie 1365
quỳ 1365
rey 1364
phúc_lợi 1364
truyền_bá 1364
s.@@ 1364
cầu_giấy 1363
chuối 1363
est 1363
ble@@ 1363
ngà 1362
đá@@ 1362
huyết 1362
qatar 1362
đại_úy 1362
thưởng_thức 1361
bli@@ 1361
barangay 1361
giao_tranh 1360
phật_@@ 1360
coi_trọng 1360
tiếp_tế 1360
chào_đón 1360
ena 1360
kur@@ 1360
nhã 1359
câu_hỏi 1359
trầm_cảm 1359
._o@@ 1359
chính_ủy 1359
phiếu_bầu 1358
sao_chép 1358
fle@@ 1358
cửa_sông 1358
cha_ông 1357
nhé 1357
trì 1357
điều_hòa 1357
ii@@ 1357
nguyễn_hải_nam 1357
sig@@ 1356
ứng_xử 1356
1915 1356
làm_bạn 1355
thống 1355
ố 1355
hạ_tầng 1355
xseries 1355
cn 1354
thi_thể 1354
quạt 1354
túy 1354
chúc_mừng 1353
đường_lối 1353
dân_làng 1353
phó_tổng_thống 1353
luyến_ái 1353
guatemala 1352
1908 1352
bio@@ 1352
._thêm 1352
ra_sao 1351
lỡ 1351
khương 1351
kiên_quyết 1350
ad 1350
tiền_nhiệm 1350
bãi_biển 1349
ình 1349
mạnh_@@ 1349
nốt 1348
robert 1348
sanh 1348
dòng_dõi 1348
lăng_@@ 1347
pp 1346
nhường 1346
hôm_qua 1346
tuyến_tính 1346
diễn_giả 1345
hà_đông 1345
an-@@ 1345
nhai 1345
hoằng_@@ 1345
21/@@ 1344
160 1344
[_@@ 1344
đựng 1342
night 1342
phi_vụ 1342
ufo 1342
mùa_đông 1341
tinh_tế 1341
vội 1341
ạnh 1341
tàu_điện_ngầm 1341
alexandria 1341
nguyễn_huệ 1341
._vua 1341
lừa_đảo 1340
book 1340
tử_cung 1340
mặt_@@ 1340
ronaldo 1339
cô_dâu 1339
tri_@@ 1339
sơ_đồ 1339
tti@@ 1339
194 1338
đá_vôi 1338
trúc 1338
nh_h@@ 1337
kiểm 1337
cất 1337
nang 1337
phê_phán 1336
ắt 1336
pha_trộn 1336
false 1336
xe_lửa 1335
thi_đua 1335
lê_văn_@@ 1335
kri@@ 1334
apo@@ 1334
nouvelle-aquitaine 1334
phó_chủ_tịch 1333
công_lý 1333
yama@@ 1333
rưỡi 1333
francisco 1333
yếu_thế 1333
philadelphia 1333
jer@@ 1332
trước_mắt 1332
hoà@@ 1332
ita@@ 1332
eno@@ 1332
tra_tấn 1331
mấu_chốt 1331
ngày_xưa 1331
tự_xưng 1331
tỉnh_trưởng 1331
sinh_dục 1330
khử 1330
stro@@ 1330
richard 1330
nấu_nướng 1329
ash@@ 1329
súng_máy 1329
gregory 1329
sập 1328
sung 1328
đảo_ngược 1328
friedrich 1328
data 1327
năm_@@ 1326
đạp 1325
cá_voi 1325
mtv 1325
giang_@@ 1324
đe_doạ 1323
thích_thú 1323
2-3 1323
spa@@ 1322
500.000 1322
nghiệp_dư 1322
given 1322
bỡ_ngỡ 1321
vân_nam 1321
vinh_quang 1320
i_tr@@ 1320
pokémon 1320
ập 1319
hộ_chiếu 1319
taka@@ 1319
mit 1318
tình_@@ 1318
kiên_giang 1318
chất_liệu 1317
ron@@ 1317
lãnh_địa 1317
iceland 1317
đính 1316
tâm_trạng 1316
_long 1316
nguyên_soái 1316
kết_@@ 1315
tán_thành 1315
tang_lễ 1314
để_ý 1314
xích_đạo 1313
giáo_xứ 1313
mã_số 1312
nge 1312
hữu_hạn 1312
premier_league 1311
gã 1311
bến_tre 1311
toàn_@@ 1311
hd 1311
eng@@ 1311
3-@@ 1310
7.000 1310
tự_động_hóa 1310
tể_tướng 1310
đỡ_đầu 1309
vành 1308
tar 1308
cảm_ứng 1308
stone 1308
sand@@ 1307
santa_@@ 1307
chánh_án 1307
ứng_@@ 1307
ruộng_đất 1307
sử_sách 1307
arizona 1306
dạo 1306
uk 1306
sứ_giả 1306
more 1306
croatia 1306
brunei 1306
tạm_biệt 1305
ủ 1305
yan 1304
toàn_phần 1304
lá_cờ 1304
gd@@ 1304
vich 1304
lucanidae 1304
beta 1303
trường_trung_học 1303
tưởng_nhớ 1302
trình_chiếu 1302
phòng_@@ 1302
hãn 1302
mont 1302
làm_ăn 1301
bái 1301
bận_rộn 1301
._mi@@ 1301
40@@ 1300
line@@ 1300
tiện_ích 1300
bẩn 1300
xâm_phạm 1300
tiền_@@ 1300
david@@ 1300
canh_tác 1300
._v@@ 1300
tiền_mặt 1299
bó 1299
dự_tính 1299
ngoại_thương 1298
kháng_sinh 1298
chốn 1297
spo@@ 1297
tốp 1297
lụa 1297
val 1297
bes@@ 1297
một_ít 1296
nam_cực 1296
/5 1295
khối_u 1295
it_@@ 1295
khu_công_nghiệp 1295
bắc_kỳ 1295
vàng_@@ 1294
caro@@ 1294
ly_khai 1294
laser 1294
cổ_vũ 1293
gel 1293
awards 1293
._video 1293
clorua 1293
mentor 1293
thắc_mắc 1292
phiên_tòa 1291
hai_mươi 1290
má 1290
lây_nhiễm 1290
str@@ 1290
viii 1290
chữa_trị 1289
ston 1289
công_tử 1288
bé@@ 1287
ực 1287
9_@@ 1287
thời_khóa_biểu 1287
ada@@ 1287
ngôi_vị 1286
họp_báo 1286
manchester 1286
thừa_thiên 1286
ghi_hình 1286
an_táng 1286
._thuật_ngữ 1286
sinh_trưởng 1285
giết_hại 1284
michigan 1284
công_lao 1284
biên_tập_viên 1284
ồng_@@ 1283
jazz 1283
lên_trang 1283
tag 1283
rat 1283
taylor 1283
mô@@ 1282
chen 1282
tv@@ 1282
ent 1282
bay@@ 1282
gli@@ 1282
thao_tác 1281
vật_dụng 1281
manila 1281
bu 1281
ght 1281
whitney_houston 1280
o'@@ 1280
naruto 1280
ges@@ 1279
chuyển_hướng 1279
hội_đồng_bộ_trưởng 1279
nhập_viện 1279
nguyễn_ngọc_@@ 1279
pes 1279
000_@@ 1279
babylon 1279
chất_độc 1278
ường 1278
binh_@@ 1278
động_tác 1278
bert 1278
sinh_tồn 1277
gon 1277
thái_thú 1277
vĩnh 1275
diệp 1275
dou@@ 1275
giáo_dân 1275
?_@@ 1274
xa@@ 1274
minh_mạng 1274
li_@@ 1274
va_@@ 1273
nhà_cửa 1273
ục 1273
ero@@ 1273
cao_tốc 1272
tuổi_thọ 1272
e_s@@ 1272
cảm_biến 1272
ngoại_quốc 1271
vietnam 1271
tiểu_sử 1271
tạ@@ 1270
kel@@ 1270
biểu_đồ 1269
sẫm 1269
hiện_vật 1269
d. 1269
iền 1268
–_@@ 1268
mệnh_danh 1268
thống_chế 1268
văn_t@@ 1268
hoàn_@@ 1268
jar@@ 1268
._e@@ 1268
lắp_ráp 1267
air_@@ 1267
giữ_gìn 1267
35@@ 1267
phùng 1267
khiêu_dâm 1267
gil@@ 1267
liệu_pháp 1266
ani 1266
nhà_cung_cấp 1266
maroc 1266
qua_lại 1265
ề 1265
rung 1265
bóng_chuyền 1265
tra_cứu 1265
litva 1265
đóng_cửa 1264
thận_trọng 1264
đắm 1263
ang_@@ 1263
biên_phòng 1263
xy@@ 1263
trình_@@ 1262
chinh_phạt 1262
vào_khoảng 1261
cn@@ 1261
tam_quốc 1261
201@@ 1260
bắt_chước 1259
từ_từ 1259
điện_tích 1259
new_guinea 1259
who 1258
twitter 1258
đạm 1258
lây_lan 1258
bir@@ 1258
sudan 1258
nam_tư 1258
bà_rịa 1257
ước_@@ 1257
die@@ 1257
|_@@ 1257
tin_@@ 1256
khéo_léo 1256
truyền_tải 1256
triệt_để 1256
vật_@@ 1256
ấn_bản 1256
rai@@ 1255
yêu_mến 1255
sco 1255
ngắn_hạn 1255
dại 1254
á_quân 1254
._hơn 1254
matching 1254
chủ_quan 1253
dt 1253
ts_@@ 1253
._tới 1253
du_nhập 1253
phụ@@ 1252
worth 1252
thơ_ấu 1252
cá_sấu 1252
collins 1252
sphingidae 1252
nồi 1251
kỹ_lưỡng 1251
nương 1251
minh_chứng 1251
tư_bản 1251
ko_@@ 1250
tiền_bạc 1250
lệch 1250
thất_thủ 1250
huy_hiệu 1250
yan@@ 1249
giúp_việc 1249
tiết_mục 1249
nico@@ 1249
xoắn 1249
đại_tu 1249
mạ@@ 1248
hàn_@@ 1248
hei@@ 1247
căng 1247
hợp_thành 1247
đàng 1247
bầu_dục 1246
malta 1246
tine 1245
lang_thang 1245
tráng 1245
kiến_@@ 1245
puerto_rico 1245
tiếp_liệu 1245
kes 1244
whi@@ 1244
13-16 1244
nối_ngôi 1243
nhất_trí 1242
ịnh 1242
thổ@@ 1242
chuẩn_mực 1242
jean_@@ 1242
khẩu_trang 1241
giao_hữu 1241
đấu_trường 1241
anh_chàng 1240
vatican 1240
thảm_khốc 1239
thiên_tai 1239
ram@@ 1239
f1 1239
phiến_quân 1239
bấm 1239
phục_@@ 1239
paul@@ 1239
rớt 1238
àng 1237
thiệu_@@ 1237
les_@@ 1237
cameroon 1237
đối_chiếu 1237
1890 1237
phát_ngôn 1236
music_@@ 1236
tiểu_vương_quốc 1235
u23 1235
đàn_bà 1235
riêng_tư 1235
tứ@@ 1235
lau 1235
lồng 1235
._cuốn 1235
thiết_giáp_hạm 1235
cực_đoan 1234
it@@ 1234
tte@@ 1234
war 1234
nhiệm_kì 1234
khoác 1233
đường_cong 1233
sau@@ 1233
khuê 1232
su-@@ 1232
mega@@ 1231
gặt_hái 1231
kon_tum 1231
giọng_hát 1231
dân_thường 1230
indi@@ 1230
anto@@ 1230
đồn_trú 1230
biến_dạng 1230
xã_hội_học 1230
đẫm 1229
quyên 1229
juventus 1229
tự_vệ 1229
ré@@ 1229
bolivia 1228
ngày_một 1228
bề_ngoài 1228
8.000 1228
i. 1228
ing 1227
000_bản 1227
/02/2012 1226
vui_mừng 1226
madonna 1226
chất_@@ 1226
pé@@ 1226
._do_vậy 1226
ía 1225
định_vị 1225
serie 1224
thời_lượng 1224
ành_@@ 1223
cách_chức 1223
romania 1223
chứng_cứ 1223
dé@@ 1223
barca 1222
tất_@@ 1222
dol@@ 1222
peter_@@ 1222
thủ_đức 1222
ban_giám_hiệu 1222
ali 1221
bú 1221
bắc_cực 1221
quy_nhơn 1221
lia_@@ 1221
all 1221
bạch_kim 1221
[_[@@ 1221
hơn_nữa 1220
ích 1220
hoà_bình 1220
vấp 1220
thiếp 1220
oanh 1220
avi@@ 1220
codice_@@ 1220
liệt_sĩ 1219
thằng 1219
sinh_lý 1219
gh 1219
leu@@ 1219
thân_hình 1218
yo 1218
chủ_nghĩa_xã_hội 1218
aga@@ 1217
lâm_nghiệp 1217
joseph_@@ 1217
4-5 1217
nậm_@@ 1217
bun@@ 1217
trang_sức 1216
lư@@ 1216
cto@@ 1216
chiêm 1216
lor@@ 1216
nov 1215
lẻ 1215
vụn 1215
đặc_@@ 1215
ceo 1214
tư_@@ 1214
gay_gắt 1214
rei@@ 1214
hành_pháp 1214
ban_bí_thư 1213
liên_hoan 1213
dale 1213
ạc 1213
._mùa 1213
bảo_đại 1213
f.k._@@ 1213
cl 1212
olympia 1212
hoa_hồng 1212
ă@@ 1212
giếng 1212
kal@@ 1212
mô_tô 1211
giáo_trình 1211
chọn_lựa 1211
met 1211
are 1211
._hãng 1211
point 1211
thứ_tư 1210
21/2 1210
anh_chị_em 1210
vnexpress 1210
meta@@ 1210
queensland 1210
on-@@ 1210
bộc_lộ 1209
ờ 1209
pgs 1209
nguyễn_đình_@@ 1209
chiến_sự 1209
ế 1208
trần_văn_@@ 1208
nghèo_khổ 1208
bass 1208
._com 1208
tanzania 1208
bản_lĩnh 1207
chắn 1207
phy@@ 1207
football_league 1207
buồng 1206
thông_số 1206
he 1206
tiễn 1206
nam_á 1206
ok@@ 1206
swa@@ 1205
roi 1205
boy 1205
sơn_đông 1205
xen_kẽ 1205
kh 1204
port_@@ 1204
ại 1204
tổng_tư_lệnh 1204
chiến_công 1204
zimbabwe 1204
._qua 1204
thúc 1203
moto 1203
cay 1203
22/2 1202
độc_@@ 1202
nguyên_mẫu 1202
._cứ 1202
con_tin 1201
hòa_giải 1201
thi_cử 1201
wy@@ 1201
ne-@@ 1201
tos 1200
đầu_quân 1200
thường_dân 1200
rai 1199
ó 1199
xuất_@@ 1199
nứt 1199
ot@@ 1199
black_@@ 1199
hỏa_hoạn 1198
im 1198
săn_bắt 1198
1904 1198
plu@@ 1197
trần_h@@ 1197
nữ_vương 1197
mary_@@ 1197
hydro@@ 1197
mõm 1196
tio@@ 1195
1907 1195
vie@@ 1194
tsu 1194
thù 1194
ox@@ 1194
hà_tiên 1194
giảm_giá 1193
vạn_@@ 1193
euro@@ 1192
are@@ 1192
hở 1192
tuyên_@@ 1192
1_._@@ 1192
trung_úy 1192
biên_@@ 1191
chọn_người 1191
xa_xôi 1190
zar@@ 1190
ss_@@ 1190
iso 1190
phòng_tuyến 1190
đục 1189
cày 1188
binh_đoàn 1188
hạ_lệnh 1188
ý_muốn 1187
đơn_độc 1187
ju 1187
móc 1186
bắt_gặp 1186
rẽ 1186
cao_độ 1186
5_% 1186
tas 1186
ấn_@@ 1186
jerusalem 1185
ngưỡng_mộ 1185
mili@@ 1185
bất_mãn 1185
lan_@@ 1185
tổng_đốc 1185
tín_nhiệm 1184
tẩy 1184
đa@@ 1184
chiên 1184
khmer_đỏ 1184
nidae 1184
tóm_tắt 1183
mùng 1183
sai_sót 1183
dos 1183
tiền_sử 1183
id@@ 1182
rỗng 1182
tan_vỡ 1181
thạnh_@@ 1181
tranh_giành 1181
thiếu_@@ 1181
bour@@ 1181
taxi 1180
nhân_chứng 1180
biên_hòa 1180
kích_động 1180
gia_cầm 1180
colorado 1180
3000 1179
tứ_xuyên 1179
à@@ 1178
giám 1178
chart 1178
nôm 1178
nhận_diện 1177
sat 1177
phiên_@@ 1177
pgs.ts 1177
hà_bắc 1177
trị_liệu 1176
nhân_đạo 1176
trung_mỹ 1176
che_giấu 1175
kon@@ 1175
ngc 1175
sát_thủ 1174
điền_kinh 1174
ds@@ 1174
gò 1174
giáp_ranh 1174
công_sức 1174
peri@@ 1174
ing@@ 1174
37@@ 1173
giải_thoát 1173
sơ_tán 1173
saurus 1173
gun@@ 1173
thuộc_tính 1173
dor 1172
thí_điểm 1172
điển 1172
chim_@@ 1172
borneo 1172
1870 1172
ngắn_gọn 1171
điều_chế 1171
thập_tự 1171
quá_tải 1170
mươi 1170
hành_quyết 1170
lenin 1170
dus 1170
mad@@ 1169
trung_á 1169
50@@ 1169
ok 1169
yoshi@@ 1168
tú_tài 1168
biện 1168
trạch 1168
row 1168
nica 1168
sôi_động 1167
im_lặng 1167
ập_@@ 1167
kiều_@@ 1167
mau@@ 1167
chấn 1167
sky@@ 1167
._tiếng 1167
trấn_thủ 1167
kiềm_chế 1166
quy_đổi 1166
thi_tuyển 1166
đề_cao 1166
costa_rica 1166
đại_quân 1166
cali@@ 1165
lạng 1165
đề@@ 1164
ge_@@ 1164
edi@@ 1164
phân_cấp 1164
bon@@ 1164
1885 1164
cải_tổ 1163
-_@@ 1163
ế@@ 1163
phó_chủ_nhiệm 1163
ác_@@ 1163
ngự 1163
phiến 1163
hoa_hậu_thế_giới 1163
đối_địch 1163
geo@@ 1162
sản_sinh 1162
bộ@@ 1162
cộng_sự 1162
thù_địch 1162
kazakhstan 1162
wilson 1162
hou@@ 1162
m._@@ 1162
dai 1162
tou@@ 1162
ces@@ 1161
ug@@ 1161
học_đường 1161
i_m@@ 1160
xá@@ 1160
guam 1160
chấp_hành 1160
ượng 1160
tường_thuật 1160
cloud 1160
chuồng 1159
amazon 1159
độc_tài 1159
dis 1159
bờ_biển 1158
ấm_áp 1158
ệ 1158
red_@@ 1158
sang_trọng 1157
nói_@@ 1157
solomon 1157
mg 1156
sala@@ 1156
sơ@@ 1156
maha@@ 1156
tem 1156
gia_hạn 1155
bao_lâu 1155
vòng_quanh 1155
tàn_bạo 1155
school 1155
ward 1155
mb 1154
hi_sinh 1154
70-80 1154
lành_mạnh 1154
trúng_cử 1154
bach 1153
dine 1153
vụ_trưởng 1153
rap 1153
thể_tích 1153
20/2 1151
tái_hiện 1151
ru 1151
thu_hẹp 1151
01/@@ 1151
văn_th@@ 1151
tấu 1150
vắc-xin 1150
hung 1150
hàn_lâm 1150
pharaon 1150
lều 1149
ị_@@ 1149
ách 1149
công_vụ 1149
._nơi 1149
cd@@ 1149
bỗng 1148
ối 1148
khác_thường 1148
tài_xế 1148
lum 1148
1906 1148
dung_@@ 1147
kara@@ 1147
hoàng_sa 1147
bóng_tối 1147
ngục 1147
ala 1147
cải_biến 1147
ji_@@ 1146
_triệu 1146
new_jersey 1146
trước_tiên 1146
nguyễn_đức_@@ 1146
xử_phạt 1146
golf 1145
ị@@ 1145
scho@@ 1145
gram 1145
chiếu_phim 1145
công_quốc 1145
a.@@ 1145
lio@@ 1145
missouri 1144
siêu_phẩm 1143
sách_vở 1143
tim_mạch 1143
ví 1143
bạch_cầu 1143
ios 1143
cá_@@ 1142
ngắn_ngủi 1142
cò 1142
leyte 1142
nude 1141
360 1141
lập_trường 1141
sáng_lập_viên 1141
bắc_ireland 1141
hào_hứng 1140
nes@@ 1140
khẩn_trương 1140
tội_lỗi 1140
tụ_tập 1140
lập_@@ 1140
thành_quả 1140
dương_tính 1140
hồng_ngoại 1140
sex 1139
mở_đường 1139
ất 1139
ira@@ 1139
dị 1139
tuất 1139
ah 1138
cá_tính 1138
smartphone 1137
corporation 1136
vn@@ 1136
_se@@ 1136
neo@@ 1136
win 1135
tuyển_tập 1135
thổ_dân 1135
lar 1134
ct@@ 1134
đại_bàng 1134
trân_trọng 1134
mos 1134
world@@ 1134
rãnh 1134
rời_bỏ 1134
khủng_khiếp 1133
đồng_tháp 1133
nguyên_vẹn 1133
keo 1133
nal@@ 1133
oh 1133
tiệp_khắc 1133
bồn 1132
đồ_vật 1132
bộ_ba 1132
thợ_săn 1132
somalia 1132
quy_ước 1132
nối_tiếp 1131
phôi 1131
riêng_lẻ 1131
e._@@ 1131
formes 1131
ere@@ 1130
cụt 1130
lie@@ 1130
châu_lục 1129
bol@@ 1129
love@@ 1129
14,@@ 1129
mạch_máu 1128
điều_@@ 1128
rải 1128
._thay 1128
ever@@ 1127
hội_viên 1127
lớn_tuổi 1127
kẹo 1127
di_dân 1127
alice 1127
chủng_viện 1127
thủ_phạm 1126
trung_học_@@ 1126
mạo_hiểm 1126
_vi 1125
hộp_thư 1125
bao_bọc 1124
thoại 1124
quốc_ca 1124
beau@@ 1124
13.@@ 1124
gru@@ 1124
5_triệu 1123
lăn 1123
tâm_trí 1123
ượng_@@ 1123
mặt_nạ 1123
con_tàu 1123
canh_@@ 1122
ác_liệt 1122
lộc_@@ 1122
maria_@@ 1122
jack@@ 1122
share 1122
điểm_nóng 1120
năm_tháng 1120
thanh_hải 1120
_hi@@ 1120
ak 1120
gene 1120
nam_kỳ 1120
bai@@ 1119
quý@@ 1119
thuyết_trình 1119
bs 1119
hiệp_@@ 1119
chân_thành 1118
up@@ 1118
raw 1118
truy_tặng 1118
mine 1117
moscow 1117
fel@@ 1117
ther 1116
tch@@ 1116
hành_nghề 1116
zer@@ 1116
p_th@@ 1116
ana_@@ 1116
đắc_lực 1116
15.@@ 1116
2-1 1115
tây_âu 1115
hoành 1115
summit 1115
alexander 1115
bò_sát 1115
đồng_thuận 1114
studio 1114
đồ_uống 1114
duy_@@ 1114
đệ_tử 1114
fon@@ 1114
nguyễn_phúc_@@ 1114
chro@@ 1114
thảm_hoạ 1113
ướt 1113
thầy_thuốc 1113
trễ 1113
cướp_bóc 1113
một_@@ 1113
_du@@ 1113
thụy_@@ 1113
learning 1113
._vây 1113
nhỏ_bé 1112
s_d@@ 1112
cản 1112
viễn_tưởng 1112
đường_hầm 1111
hòa_nhập 1111
thuỷ 1111
đại_lục 1111
thừa_@@ 1110
mãn_châu 1110
max 1110
quân_sĩ 1110
go_@@ 1109
đặc_sản 1109
đàn_@@ 1109
điện_áp 1109
thứ_hai 1108
nh-@@ 1108
quý_phi 1108
nam_kinh 1108
thứ_năm 1107
sei@@ 1107
và_@@ 1107
tổ@@ 1107
tủ 1107
úc_@@ 1107
áng 1107
cao_quý 1106
sher@@ 1106
c.@@ 1106
alpha 1106
ẩm_nhiệt_đới 1106
mississippi 1105
đại_chiến 1105
rò_rỉ 1105
tuyền 1105
bồ 1105
bao_@@ 1105
dai@@ 1105
av@@ 1105
toronto 1105
._mỗi 1105
giải_phẫu 1105
f._@@ 1105
bính 1104
binh_chủng 1104
tụ 1104
kiev 1104
23,@@ 1103
tịch_thu 1103
báo_động 1103
bước_ngoặt 1103
chứng_thực 1103
diên_@@ 1103
edward_@@ 1103
_trung 1103
ngôn_ngữ_học 1103
phân_rã 1103
giuse 1103
gadhafi 1102
nhiếp_ảnh 1102
hải_lý 1102
úp 1102
ấn_định 1101
khôi 1101
wi 1101
ức_@@ 1101
tâu 1101
trừu_tượng 1101
axít 1101
ơ@@ 1100
vá 1100
trọ 1100
jun@@ 1100
bệ 1100
thảo_nguyên 1100
estonia 1100
quý_hiếm 1099
ưu 1099
nắp 1099
one@@ 1099
r-@@ 1099
ace@@ 1099
hill 1098
công_nghệ_@@ 1098
ire@@ 1098
truyền_đạt 1098
chích 1098
truy_tìm 1097
mati@@ 1097
è 1097
tp. 1097
cai 1097
1.0@@ 1097
s._@@ 1097
xuất_xứ 1096
105 1096
đều_đặn 1096
tiên_tri 1096
game@@ 1095
luci@@ 1095
âl 1095
nhập_ngũ 1094
lic 1094
giám_@@ 1094
out 1094
ane 1094
con_nuôi 1094
tụt 1093
nhâm 1093
ngươi 1093
mẫu_@@ 1093
bảo_an 1092
meri@@ 1092
hoàng_thái_hậu 1092
dae@@ 1091
xuôi 1091
pper 1091
peter 1091
tay_chân 1090
đường_thẳng 1090
tân_bình 1090
bè 1090
côn 1090
tions 1090
công_thương 1089
ét 1089
hải_sản 1089
ness 1089
mới_mẻ 1088
giận_dữ 1088
sôi 1088
marti@@ 1088
quá@@ 1088
thiêu 1088
luxembourg 1088
kính_viễn_vọng 1088
r&b 1088
apg 1088
phế 1087
bà_@@ 1087
zer 1087
ons 1086
kiểm_điểm 1086
chè 1086
cõi 1086
đặt_chân 1086
thước 1086
oi@@ 1086
điên 1086
lang_@@ 1086
tâm_sức 1086
pseudo@@ 1086
angola 1086
đồng_loạt 1085
y_tá 1085
450 1085
n_n@@ 1085
bệnh_@@ 1085
việt_nam_@@ 1085
trơn 1085
huyền_@@ 1085
trấn_@@ 1085
vlog 1085
ị 1084
/6 1084
perry 1084
vịnh_@@ 1084
hàng_hoá 1083
đường_dây 1083
vil@@ 1083
mac 1083
_nhân 1083
tiế@@ 1083
mất_@@ 1083
trăng 1083
phe@@ 1083
fox 1083
9-@@ 1082
tập_kích 1082
mường 1082
tham_chiếu 1082
điền_@@ 1081
cu 1081
nhân_cách 1081
phúc_kiến 1081
ít_lâu 1081
tiếp_giáp 1081
viễn_chinh 1081
kim_jong-il 1080
mơ_ước 1080
i_l@@ 1080
trung_bộ 1080
moni@@ 1080
quảng_tây 1080
hà_giang 1079
isa@@ 1079
sao_chổi 1079
pel@@ 1079
nitơ 1079
chất_béo 1078
blue 1078
pt 1078
quốc_xã 1078
kane 1078
đo@@ 1077
ra_sức 1077
lịch_trình 1077
séc 1077
lai_@@ 1077
albania 1077
chỉ_dẫn 1076
ngõ 1076
khiêm 1076
băng_@@ 1076
eria 1076
đại_phu 1076
chel@@ 1075
cas 1075
batman 1075
khuyến_nghị 1074
part 1074
lu 1074
chuyên_viên 1074
thi_tuyển_sinh 1074
l. 1074
ws 1074
._lễ 1074
green 1073
medi@@ 1073
gả 1073
đô@@ 1072
chí_@@ 1072
iện 1072
fur@@ 1072
tinh_vân 1072
auto@@ 1071
hông 1071
thor@@ 1071
doanh_trại 1071
chỉ_huy_trưởng 1071
phù_@@ 1070
tự_lập 1070
juli@@ 1070
one_@@ 1069
16/2 1069
_tử 1069
trán 1068
ep@@ 1068
sáng_chế 1068
bel 1068
hi_@@ 1067
card 1067
di_tản 1067
adn 1067
0.000 1067
walker 1067
biệt_@@ 1066
pari@@ 1066
eri 1066
ấ@@ 1066
hoan 1066
gau@@ 1066
sumatra 1065
bush 1065
bắt_nạt 1065
art 1065
trinidad 1065
fi 1064
xô 1064
bơi_lội 1064
1/2 1064
ches@@ 1064
nia_@@ 1064
núi_@@ 1064
hashtag 1064
26/2 1063
tượng_đài 1063
đánh_đuổi 1063
ưng_@@ 1063
ù 1063
một_mặt 1063
quyền_sở_hữu 1063
high@@ 1063
vị_hoàng_đế 1063
byzantine 1063
hormone 1062
phụ_@@ 1061
chữ_ký 1061
nhập_@@ 1061
mỹ_tho 1061
slovakia 1061
dd@@ 1060
cư 1060
hạ_long 1060
danh_tính 1060
38@@ 1060
diễu_hành 1060
hồi_ký 1060
ii_@@ 1060
neutron 1060
xấu_hổ 1059
bì 1059
._sa@@ 1059
dru@@ 1059
gia_cát 1059
quan_tài 1058
/8 1058
24,@@ 1058
thế@@ 1058
bon 1058
nung 1058
tức_@@ 1057
rie 1057
._song 1057
._vài 1057
nghiêm_khắc 1056
1_triệu 1056
không_@@ 1056
vây_hãm 1056
xi_măng 1055
ninh_thuận 1055
qđ-ttg 1055
bản_thảo 1055
federer 1055
fen@@ 1055
cứu_trợ 1054
gặp_mặt 1054
xôn_xao 1054
dân_lập 1054
ứng_phó 1054
nhà_thầu 1054
bình_dân 1054
ment_@@ 1054
tương_quan 1053
hiếm_hoi 1053
tina 1053
ò 1053
bộ_luật 1053
15,@@ 1052
thương_binh 1052
dal 1052
viền 1052
tính_mạng 1052
trà_vinh 1052
kiểm_duyệt 1052
200.000 1052
25,@@ 1052
tiết_độ 1052
hệ_mặt_trời 1051
há@@ 1051
._nghiên_cứu 1051
dồi_dào 1050
mei@@ 1050
punk 1050
nọ 1049
thường_@@ 1049
um@@ 1049
metal 1049
mont@@ 1049
xuất_biên_chế 1049
honda 1048
án_@@ 1048
ela@@ 1048
giáp_@@ 1048
lưỡng_cư 1048
yama 1047
1909 1047
bước_đầu 1047
20.@@ 1047
40.000 1047
._ka@@ 1047
baltic 1047
yemen 1046
rau_@@ 1046
bộ_chỉ_huy 1046
xiv 1046
quin@@ 1046
sứ_thần 1046
hội_trường 1045
nguyễn_trãi 1045
gna@@ 1045
thương_lượng 1045
newton 1045
parthia 1045
international_@@ 1044
ở@@ 1044
80@@ 1044
mobile 1044
cấp_@@ 1044
thiết_@@ 1044
kỳ_@@ 1044
nguy_cấp 1044
arthur 1044
messi 1043
vần 1043
tát 1043
1898 1043
chip 1042
thờ_cúng 1042
đi@@ 1041
trọn_vẹn 1041
bad 1041
xv 1041
play-off 1041
chủ_đạo 1040
vinh_@@ 1040
tip 1040
tiếp_@@ 1040
festival 1040
hàng_ngũ 1040
thâm_nhập 1040
lê_lợi 1040
club 1040
h-@@ 1039
tennessee 1039
tăng_giá 1038
ray@@ 1038
hoang_mang 1038
lưu_lượng 1038
houston 1038
long@@ 1038
1901 1038
cửu_@@ 1038
1895 1038
bán_trú 1037
xé 1037
đại_đế 1037
joseph 1037
hannah 1037
kuwait 1036
cẩn 1036
ước_lượng 1036
nai@@ 1036
yl 1036
dge 1036
melbourne 1036
namibia 1036
dân_dụng 1036
ea_@@ 1036
p._@@ 1036
ằng 1035
sĩ@@ 1035
trách 1035
cài 1035
court 1035
cks 1035
macro@@ 1035
tín_hữu 1035
nghỉ_dưỡng 1034
mịn 1034
hiện_đại_hóa 1034
mbo@@ 1034
low 1033
đốc 1033
v.v... 1033
tha_@@ 1032
vắng 1032
đầu_mối 1032
handmade 1032
14.@@ 1032
trang_điểm 1031
ụ 1031
was 1031
allen 1031
khiêm_tốn 1030
ngộ 1030
die 1030
luật_lệ 1030
italy 1029
xúc_tiến 1029
thoáng 1029
bất_hợp_lý 1029
tuy@@ 1029
tiếp_diễn 1029
uri 1029
gr@@ 1029
.com 1029
1860 1029
carthage 1029
pter@@ 1029
sáo 1028
gar 1028
national_@@ 1028
cọp 1028
airpods 1028
ổn 1027
bẩm_sinh 1027
dịch_@@ 1027
khiêu_vũ 1027
ậ@@ 1026
nhiễm_bệnh 1026
ồ@@ 1026
sắc_@@ 1026
1a 1026
ev 1026
thủ@@ 1026
fli@@ 1026
_km2 1026
sub@@ 1025
wall 1025
23/2 1025
té 1025
nhà_vệ_sinh 1025
hội_chợ 1025
lam_@@ 1025
ring 1025
1.500 1025
tham_số 1025
don_@@ 1024
asi@@ 1024
serie_a 1024
mori@@ 1024
dập 1024
nảy 1024
pho 1024
._vùng 1024
lincoln 1023
biên_bản 1023
xúc_phạm 1023
1902 1023
.vn 1023
tana 1023
county 1023
bảng_@@ 1022
get 1022
_cup 1022
tô_@@ 1022
chan 1021
dữ 1020
ral 1020
nóc 1020
biến_cố 1020
hít 1020
cape 1020
duy_tân 1020
award 1020
dân_quân 1020
nhiễu 1019
run 1019
đỉnh_điểm 1019
queen 1018
twi@@ 1018
mun@@ 1017
định_hình 1017
ồ 1017
diên 1017
thuê_bao 1017
đốc_@@ 1017
cối 1016
ệ@@ 1016
sá@@ 1016
trấn_áp 1016
bara@@ 1016
kỹ_năng_học 1016
rào_cản 1015
xa_@@ 1015
r._@@ 1015
giáo_án 1015
26,@@ 1014
đồ_dùng 1014
visa 1014
âu_@@ 1014
wa_@@ 1014
quân_thanh 1014
lãnh_chúa 1014
king@@ 1013
ton@@ 1013
ngộ_độc 1013
ib@@ 1013
cố_ý 1013
hợp_kim 1013
giả_sử 1013
cana@@ 1012
lít 1012
shar@@ 1012
woo@@ 1012
chus 1012
um_@@ 1011
dỡ 1011
hoàng_tộc 1011
đánh_cá 1011
chuyển_@@ 1011
quanh_năm 1011
white 1011
jean 1011
thiên_niên_kỷ 1011
dun@@ 1011
nhà_sư 1011
hiến_chương 1011
hành_hương 1011
búa 1010
kiềm 1010
ngũ_cốc 1010
]_@@ 1010
n_thành 1010
phủ@@ 1010
ric 1010
khu_@@ 1009
àn 1009
_lan 1009
áo_dài 1009
cata@@ 1009
cải_@@ 1009
nel 1009
shire 1009
đau_đầu 1008
mậu 1008
nokia 1008
hài_kịch 1008
đam 1008
kệ 1007
thượng_đỉnh 1007
mái_tóc 1007
khoáng_chất 1007
lati@@ 1007
ít_nhiều 1006
cer 1006
mid@@ 1006
british 1006
tàn 1006
wen@@ 1006
kir@@ 1006
ère 1006
nhà_thanh 1006
đao 1005
ốt 1005
rượu_vang 1005
2025 1005
phục_kích 1005
cyclo@@ 1005
hài_cốt 1004
ky 1004
hảo 1004
hoài_nghi 1004
vườn_quốc_gia 1004
giải_mã 1003
thẳng_thắn 1003
ngày_mai 1003
tter 1003
tuyệt_vọng 1003
logo 1003
asia 1003
smi@@ 1003
nhiên 1003
b._@@ 1003
cao_tông 1003
syrphidae 1003
thìn 1002
nhược_điểm 1002
bi_@@ 1002
khoai_tây 1002
ba_đình 1001
hoá_học 1001
36@@ 1001
machine 1001
thị_giác 1001
buenos_aires 1001
đồn_điền 1000
haw@@ 1000
27,@@ 1000
thiên_chúa_giáo 1000
1880 1000
de-@@ 1000
độc_thân 999
39@@ 999
stan 999
._bản_thân 999
02/2012 998
bánh_mì 998
regi@@ 998
peter@@ 997
lường 997
trú_ẩn 997
chìa_khóa 997
chọi 997
mãi_mãi 997
trung_nguyên 997
lư 996
tất 996
toa 996
ngọt_ngào 996
thẩm_@@ 996
nder@@ 996
nintendo 996
pro 995
tàn_sát 995
gan_@@ 995
trữ_lượng 995
albert 994
đắc_@@ 993
dò 993
tá 993
công_đồng 993
america 993
tori@@ 993
ống_kính 992
_ph@@ 992
cuống 992
bc 992
end 991
nhí 991
giấy_@@ 991
yang 991
ngũ@@ 991
liên_minh_@@ 991
sie@@ 991
lưu_bang 991
quý_@@ 990
nguyễn_minh_@@ 990
bù_đắp 990
ot 990
myanma 990
sóng_thần 989
niệm 989
biến_chứng 989
tranh_@@ 989
170 989
tạp 989
._vụ 989
chuyên_trách 988
tnhh 988
18.@@ 988
chưởng 988
rian 988
cơ_đốc 988
ôn_đới 988
convuihoc 988
bomedonghanh 988
ấu 987
125 987
?@@ 987
tước_vị 987
thủy_ngân 987
đánh_vần 987
lê_hoài_thanh 987
el-@@ 986
nghi_vấn 986
từ_ngữ 986
ải_@@ 986
trà@@ 986
mất_mát 986
tổn_hại 986
mộc_@@ 986
đóng_@@ 986
gb 985
nam@@ 985
asa@@ 985
tỉnh_@@ 984
mắc_kẹt 984
ed_@@ 984
tế_@@ 984
15.000 984
over@@ 984
shima 984
sọ 983
ổi 983
phím 983
om 983
dập_tắt 983
thực_trạng 983
sương_mù 983
oxy@@ 983
đẳng 982
bà@@ 982
thư_giãn 982
gìn_giữ 982
ukraine 982
ade@@ 982
wei@@ 982
rậm 982
gran@@ 982
1903 982
apollo 982
assyria 982
nữ@@ 981
như@@ 981
doãn 981
nho_giáo 981
chiêm_thành 981
hoạn_quan 981
thiên_đường 980
hoan_nghênh 980
ỉ 980
glu@@ 980
cơ_đốc_giáo 980
gala@@ 980
xáo_trộn 979
mãnh_liệt 979
led 979
mật_mã 979
lâm_đồng 979
lê_thánh_tông 979
xvi 979
lạc_quan 978
1896 978
bản_án 978
j_@@ 978
son@@ 978
ear@@ 978
quốc_công 978
hô 977
moon 977
yêu_quý 977
chén 977
đôla 977
masa@@ 977
ore@@ 977
kai@@ 977
mora@@ 976
nig@@ 976
sea@@ 975
ừ 975
tn@@ 975
_mét 975
martin_@@ 974
chat 974
ê_@@ 974
hệ_quả 974
tin@@ 974
25/2 973
phận 973
lên_lớp 973
tò_mò 973
thiêng_liêng 973
pur 973
cúc 973
nham 973
smo@@ 973
ống_@@ 973
bằng_@@ 973
12-@@ 973
ise 973
ngi@@ 973
rus 973
phiên_âm 973
rihanna 972
di_dời 972
tinh_khiết 972
murray 972
1889 972
vio@@ 971
đùi 971
điều_dưỡng 971
hấp_thu 971
rs 971
am_@@ 971
tel@@ 971
nguyễn_ánh 971
xót_xa 970
xói_mòn 970
haiti 970
phẫn_nộ 969
hình_dung 969
suýt 969
sẻ 969
by_@@ 969
_ta@@ 969
n_hóa 969
khoáng 969
marie 969
ti_@@ 968
mỹ_phẩm 967
elli@@ 967
ăm 967
khả@@ 967
trầm_@@ 967
chủ_thể 967
rapper 967
chiến_khu 967
vô_danh 966
pti@@ 966
2-0 966
wood@@ 966
toản 966
rạng 966
phòng_vệ 966
rock@@ 966
thí_dụ 966
super_@@ 966
nguyễn_, 966
f.c. 966
vùng_cao 965
nến 965
biến_@@ 965
độ@@ 965
cal_@@ 965
sasuke 965
truy_tố 964
truy_đuổi 964
dc 964
calli@@ 964
bãi_@@ 964
1862 964
kông 963
thể_thức 963
tái_hợp 963
tiêu_chảy 963
an_h@@ 963
ủy_@@ 963
ale 963
gián_điệp 962
bắt_@@ 962
1,2 962
bắc_âu 962
es_@@ 962
acti@@ 962
mela@@ 962
jan 961
phim_ảnh 961
nói_dối 961
phạm_văn_@@ 961
đặc_cách 961
hư@@ 961
._thường 961
bồi_đắp 961
hara 961
tại_chức 960
za_@@ 960
iên_@@ 960
tiểu_đường 960
chủ@@ 960
kỉ_lục 960
rio@@ 960
cứ_điểm 960
dã 959
nuốt 959
120@@ 959
sát_@@ 959
bha@@ 959
đất_sét 959
lồi 959
tày 958
logi@@ 958
phi_chính_phủ 958
òng 958
kháng_thể 958
kai 958
big@@ 957
ầm 957
tiến_@@ 957
bình_phước 957
lee@@ 957
num 957
w._@@ 957
hoán 956
tehran 956
multi@@ 956
anderson 956
aki@@ 956
wwe 956
đăng_cai 955
pes@@ 955
ngày_sinh 955
síp 955
ata@@ 955
mes@@ 954
nal_@@ 954
bôi 954
suy_đoán 954
chủ_@@ 954
trần_l@@ 954
wes@@ 954
nau@@ 954
thon 954
16.@@ 954
vsky 954
valentine 953
tàu_@@ 953
bưởi 953
say_mê 953
vô_hạn 953
diễn_văn 953
azerbaijan 953
psi@@ 953
vọt 952
bắt_đầu_từ 952
chiếm_đoạt 952
gs@@ 952
sali@@ 952
v. 952
proton 952
thằn_lằn 952
đoàn_thể 951
vi_sinh_vật 951
ùng_@@ 951
hình_tròn 951
the_s@@ 951
lai_châu 950
không_thể_nào 950
ct_@@ 950
tà_@@ 950
vectơ 950
cưng 949
16,@@ 949
tom_@@ 949
nhuộm 949
t.@@ 949
n. 949
1899 949
phaolô 949
khép 948
vô_hình 948
â@@ 948
áp_@@ 948
sỏi 948
ctor 948
._chi 948
ứ 947
người_nhà 947
đóng_băng 947
học_lực 947
ý_@@ 947
cán_sự 947
lãng 947
tên_gọi 947
thắp 946
hư 946
lov 946
xx@@ 946
logy 946
262 945
diễn_tả 945
ngày_đêm 945
bỏ_hoang 945
cộng_hòa_séc 945
ame@@ 945
cửu_long 945
bại_trận 944
you@@ 944
thanh_xuân 944
master 944
nối_liền 944
lạ@@ 944
vich_@@ 944
gus 944
zone 943
nóng_bỏng 943
3,5 943
giảng_đường 943
osaka 943
nius 943
1861 943
/12/@@ 942
mr@@ 942
dium 942
cộng_hòa_dân_chủ 942
ĩnh 941
giải_đáp 941
mặn 941
ontario 941
iển 941
stan@@ 941
dar 941
đài_bắc 941
cóc 940
dân_ca 940
dn 940
network 940
nhúng 940
mana@@ 940
thus 940
tủy 939
pm 939
_da@@ 939
gaddafi 939
france 939
ngũ_@@ 939
lưu_huỳnh 939
mão 938
cat 938
kong 938
ngạch 938
miami 938
minnesota 937
bình_an 937
jean-@@ 937
búp_bê 937
òa 937
sol 937
quân_lính 937
._chiếc 937
kavkaz 937
đức_mẹ 937
trà_@@ 936
nevada 936
._tiếp 936
xúc_tác 936
ngư 935
hoàng_thân 935
luộc 935
chuyên_đề 935
mail 935
gio 935
hong_kong 935
thương_gia 935
thủng 934
càn_quét 934
trau_dồi 934
thy 934
tetra@@ 934
ora@@ 934
ides 934
hội_thánh 934
now 933
cự 933
lê_h@@ 933
khuất 933
đại_hội_đồng 933
._công_việc 933
bs@@ 932
an_sinh 932
tr 932
sinh_động 932
_viên 932
cao_học 932
liber@@ 932
bal 932
phụng_@@ 932
chết_đuối 931
nhà_ở 931
đại_học_@@ 931
kỉ_niệm 931
hoạch_định 931
28,@@ 931
technology 931
đánh_dẹp 931
êm_@@ 930
gõ 930
chui 930
._hãy 930
._thời 930
cố_thủ 929
_league 929
tiết_@@ 929
hay@@ 929
hoa_văn 929
cấp_tính 929
bau@@ 929
sultan 929
ult 929
sứ_quân 929
phân_cực 929
iot 929
cảnh_cáo 928
dạ 928
màn_ảnh 928
mir@@ 928
suy_luận 928
ip 928
sôi_nổi 927
đánh_cắp 927
ủ@@ 927
yểm_trợ 927
ins 927
rov 926
bưu_chính 926
chạy_đua 926
gate 926
wimbledon 926
cha_@@ 926
this 926
._giống 926
face 926
zealand 925
thiếu_thốn 925
dễ_thương 925
đè 925
andro@@ 925
nat 925
giá_thành 924
vĩ_mô 924
xâm_lấn 924
dụ_dỗ 924
bea@@ 924
prote@@ 924
blockchain 924
pas-de-calais 924
320 923
titan 923
theo@@ 923
pie@@ 923
thủy_lợi 923
giáp_xác 923
1897 923
đại_vương 923
/4 922
cầm_@@ 922
chế_@@ 922
dây_chuyền 922
rum 922
sar 922
kỷ@@ 922
._bài 922
zero 921
open 921
liên_thông 921
trào_lưu 921
box 921
nguyên_âm 921
chris_@@ 921
xen 920
bành_trướng 920
còi 920
tương_phản 920
đấu_thầu 919
chào_đời 919
cước 919
môi_giới 919
nước_tiểu 919
bán_@@ 919
17,@@ 919
kro@@ 919
thes 919
bengal 919
augus@@ 919
_% 918
ãi 918
core 918
trầm 918
philip 918
ballad 918
web@@ 918
nhàn 917
nano 917
home 917
1884 917
1867 917
._tướng 917
trùng_tu 916
gam 916
gold@@ 916
united_@@ 916
đẻ_trứng 916
tuổi_tác 916
santiago 916
ành 915
mani 915
trợ 915
kiế@@ 915
ao@@ 915
trưng 915
tai_@@ 915
tần_@@ 915
mậu_dịch 915
cởi_mở 914
chán 914
bố@@ 914
_sĩ 914
tiềm_ẩn 914
thuậ@@ 914
girls 914
ôxy 914
great_@@ 914
lập_hiến 914
dung_lượng 913
jor@@ 913
hiếu_@@ 913
người_@@ 913
chuột_@@ 913
feet 913
bury 913
cơ_bắp 912
chi_bộ 912
bài_bản 912
table 912
liên_doanh 911
maine 911
đặc_sắc 911
meli@@ 911
ngọ 911
độ_dài 911
hama 911
hạm_trưởng 911
phát_tán 910
kỳ_thị 910
họng 910
new_south_wales 910
nha_@@ 910
ăn_mặc 910
jes@@ 910
maryland 910
wol@@ 910
tư_mã@@ 910
phà 909
1-0 909
ận 909
chu_trình 909
tiễn_biệt 908
abi@@ 908
nạc 908
bàn_chân 908
slo@@ 908
lê_quý_đôn 908
làm_nên 907
bạo_loạn 907
giảm_sút 907
úng 907
rèn 907
1888 907
kentucky 907
sê-ri 907
kĩ_năng 906
_thị 906
ly_dị 906
khích_lệ 906
mác 906
nn 906
đề_phòng 906
văn_kiện 906
trans@@ 906
kinh_ngạc 906
22,@@ 906
._ví_dụ 906
gon@@ 906
17.@@ 906
ngữ_hệ 906
giá@@ 905
lập_trình_viên 905
fuji@@ 905
land_@@ 905
sty@@ 905
oni@@ 905
đám_tang 904
31/@@ 904
gởi 904
trồng_trọt 904
fer 904
nik 904
._thuốc 904
nium 903
10/2 903
athens 903
tín_chỉ 903
ậu 903
nguyễn_l@@ 903
mộ@@ 903
xanh_lá 903
view 902
lim 902
nata@@ 902
nhô 902
catherine 902
sử_học 902
1800 902
14/2 901
xác_thực 901
cọ 901
noel 901
đoàn_@@ 901
rời_rạc 901
jan@@ 901
nhạ 901
titanic 900
chịu_@@ 900
quấn 900
hình_vuông 900
vor@@ 900
guadalcanal 900
tone 899
vina@@ 899
gieo 899
mì 899
xác_ướp 899
suy@@ 899
sắp_đặt 899
short 899
ngu 899
diego 898
bước_sóng 898
phao 897
điểm_@@ 897
ội 897
thân_thể 896
sục 896
that 896
đánh_số 896
bội 896
hối_lộ 895
công_kích 895
grant 895
ngói 895
abc 895
phi_hành_đoàn 895
miller 895
slav 895
hỏa 894
tấm_gương 894
29,@@ 894
biên_dịch 894
rit 894
unit 894
góc_độ 893
mãn_tính 893
khi@@ 893
tín_@@ 893
ẩm_ướt 893
_he@@ 893
cô_đơn 893
/7 893
wang 893
mpi@@ 893
kiếp 893
zu 893
zambia 893
nensis 893
biểu_kiến 893
vừa_mới 892
dinh_thự 892
thầu 892
cầu_thang 892
cố@@ 892
sahara 892
carter 892
gin 892
west@@ 892
lidae 892
ép_buộc 891
nhà_chức_trách 891
bản_gốc 891
_nhân_@@ 891
fda 891
tốc 891
thống_lĩnh 891
adams 891
tôn_quyền 891
220 890
phàn_nàn 890
ls@@ 890
hộp_sọ 890
tiên_hoàng 890
chuyên_chở 890
cao_tuổi 890
xung 890
yer 890
cb@@ 889
nhận_lời 889
hát_@@ 889
điều_phối 889
sao_kim 889
formula_1 889
cấy 888
khát_vọng 888
dj 888
genève 888
ân_xá 888
hằng_số 888
đặc_khu 888
thoái_vị 888
wo 888
phản_kháng 887
bàn_thờ 887
shin 887
vas 887
đệ_nhị 887
lão_@@ 887
stanford 887
lạc_hậu 887
iri@@ 887
bất_bình 886
cci 886
mật_thiết 886
sâm 886
nhân_giống 886
đột_nhiên 885
grand 885
tham_@@ 885
đậu_@@ 885
davis 885
rius 885
thượng_lưu 884
center 884
island 884
bridge 883
ec@@ 883
bận 883
mỹ_nhân 883
ạn 883
lớn_mạnh 883
sinh_đôi 883
nội_thành 883
song_ngữ 883
lậu 882
yahoo 882
học_vấn 882
visi@@ 882
tt_@@ 882
nguyễn_t@@ 882
chứng_@@ 882
phép_thuật 882
võ_sư 882
mozambique 882
đạn_dược 881
diễn_đạt 881
chiếu_sáng 881
đương_nhiệm 881
blu@@ 880
tớ 880
cio 880
tive 880
krym 880
xí_nghiệp 879
ngao 879
hạt_@@ 879
thú_y 879
loire 879
1871 879
tinh_trùng 878
viet@@ 878
cải_lương 878
chu_văn_an 878
vis 878
dở 877
tặc 877
hậu_giang 877
mber@@ 877
rủ 877
lôi_kéo 877
hoàng_anh 876
trụ_cột 876
115 876
rối 876
vội_vàng 876
tuổi_thơ 876
chuyên_dụng 876
định_danh 876
102 875
phật_tử 875
ói 875
đối_kháng 875
độc_tố 875
tả@@ 875
hà_tây 875
cairo 875
bot 875
darwin 875
khuếch_đại 875
xoắn_ốc 875
iberia 875
albert_@@ 875
playstation 874
zh@@ 874
thượng_tướng 874
siberia 874
tha_thứ 874
bản_tin 873
30_triệu 873
bao_trùm 873
ml 873
rể 873
juan_@@ 873
ạch 873
mía 873
huấn 873
nhất_quán 873
xơ 872
oan 872
ters 872
hậu_thuẫn 872
love_@@ 872
kèn 872
lý_h@@ 872
napoleon 872
how 871
ini 871
1887 871
quý_giá 870
pu 870
vancouver 870
đường_thủy 870
chế_độ_quân_chủ 870
monte@@ 870
muỗi 869
quận_@@ 869
bhutan 869
grand_slam 869
khảo_thí 869
rwanda 869
song_ca 869
đô_vật 869
chuyền 868
trí_nhớ 868
đại_nam 868
bánh_xe 868
lady 868
giả_mạo 867
ài_@@ 867
đánh_tan 867
bàn_phím 867
sol@@ 867
guinea 867
thực_hư 866
khuya 866
108 866
âm_đạo 866
giun 866
michael@@ 866
vạ@@ 866
janeiro 866
nguyên_thủ 865
iếu 865
190 865
thường_trú 865
nho@@ 865
lina 865
_thị_@@ 865
bảo_toàn 865
bren@@ 865
pun@@ 865
das 865
ây 864
cạn_kiệt 864
tái_định_cư 864
nian 864
chứa_đựng 863
mark@@ 863
0,5 863
fair@@ 863
bạt 863
đảm_trách 863
._ra@@ 863
chlo@@ 863
yar@@ 863
myr@@ 863
3_% 862
big_@@ 862
uy_hiếp 862
hoa_sen 862
in-@@ 862
cin 862
1883 862
sion 862
dẻo 862
xviii 862
caesar 862
có_ích 861
roosevelt 861
thượng_đế 861
phổ_@@ 861
mel 861
gg 861
đánh_phá 861
mbi@@ 861
nghệ_danh 861
hiện_hữu 860
sáng_tỏ 860
pol@@ 860
sức_@@ 860
tình_nhân 860
bài_thơ 860
mơ_hồ 860
cle 860
cốt_yếu 860
ni_@@ 859
moore 859
di_chỉ 859
lay 859
bất_lực 858
ín 858
nhắn_tin 858
khuôn 858
cir@@ 858
council 858
ob@@ 858
sicilia 858
biểu_trưng 857
kính_trọng 857
kiểm_toán 857
tái_sinh 857
sé@@ 857
basi@@ 857
u_tr@@ 856
du_mục 856
khổng_tử 856
new_york_times 856
ròng 855
boy@@ 855
côn_đồ 855
phương_tây 855
ship 855
kẹt 855
sạch_sẽ 855
nón 855
tuyên_thệ 855
toà_án 855
học_phần 855
1840 855
mwc 854
hận 854
napoli 854
vùng_@@ 854
vũ_văn_@@ 854
chồn 854
thừa_hưởng 854
tụng 854
tia_@@ 854
triệu_hồi 853
quân_ủy 853
cảnh_giác 853
thuần_@@ 853
nou@@ 853
văn_l@@ 853
chiết_giang 853
nen@@ 853
sớ 853
nhị_phân 853
đùa 852
xăm 852
ba_mươi 852
không_đổi 852
đồi_núi 852
thân_phận 851
đới 851
ia@@ 851
rna 851
1868 851
/9 850
ường_@@ 850
iowa 850
dịu 850
cà_chua 850
george@@ 850
đột_nhập 849
fire 849
cọc 849
tc 849
franklin 849
miên 849
less 849
thanh_bình 848
cộng_hưởng 848
3-4 848
1848 848
muhammad 848
ki-@@ 847
suy_sụp 847
_vương 847
inh 847
kẹp 847
hđnd 847
dị@@ 847
good 847
cá_hồi 847
đông_sơn 847
tt-bgdđt 847
ap 846
thẳng_đứng 846
số@@ 846
gân 846
linh_trưởng 846
nhà_minh 846
ford_@@ 845
ình_@@ 845
ấm_@@ 845
làm_giàu 845
lam_sơn 845
ia_@@ 845
mic 845
1894 845
chất_rắn 845
đầu_bếp 844
fu 844
hái 844
thụ_động 844
ùn_tắc 844
1886 844
bang_@@ 844
’ 843
ờ@@ 843
đo_đạc 843
thuần_hóa 843
đồ_đá 843
có@@ 842
bạc_@@ 842
tes@@ 842
post 842
ầu_@@ 842
aus@@ 842
luke 842
kre@@ 842
số_@@ 841
cơm_@@ 841
cl@@ 841
bahrain 841
ngụy_trang 841
hé 840
ổ_@@ 840
chức_danh_giáo_sư 840
cư_ngụ 840
cấu_thành 840
hàm_số 840
ller@@ 840
bretagne 840
dự@@ 839
biết_ơn 839
mạ 839
ôn_@@ 839
góa 839
thổ_@@ 839
warsaw 839
suke 839
sarawak 839
marne 839
xe_@@ 838
đăng_@@ 838
khương_@@ 838
dọn_dẹp 838
sắc_tố 838
ay 838
ọ@@ 838
nei@@ 838
bả@@ 838
wn 838
đệ_trình 838
dẫn_xuất 838
lũy 838
._ha@@ 838
wikipedia 838
ez 838
bell 838
hợp_pháp_hóa 838
n_trung 837
lượt_về 837
xe_khách 837
swift 837
team 837
vị@@ 837
as_@@ 837
ddi@@ 837
táng 837
điện_lực 836
lụt 836
giàn 836
nguội 836
va_đập 836
nền_móng 836
ăng_@@ 836
công_phu 836
hệ_thống_hóa 836
xứ_sở 835
cấp_bách 835
bê 835
sing 835
lên_@@ 835
nước_thải 835
tập_quán 835
thường_vụ_quốc_hội 835
sa_đéc 835
vệ_binh 835
47@@ 834
schi@@ 834
hai_@@ 834
je 834
_liệu 834
ctu@@ 834
phế_truất 834
constantinopolis 834
chung_@@ 833
giả_thiết 833
phản_diện 833
morgan 833
truy_kích 833
kinh_châu 833
thừa_tướng 833
chấn_động 832
sơ_cấp 832
dương_vật 832
try 832
thành_đô 832
scott 832
m.@@ 832
elle 832
nguyễn_du 832
._vua_@@ 832
seri@@ 831
lội 831
spar@@ 831
tb@@ 831
nguyễn_tr@@ 831
dow@@ 831
oklahoma 831
hạch 831
dặn 831
chớp 831
yi 831
máy_bay_trực_thăng 831
chi_viện 831
._khác 831
diễn_@@ 831
ch-@@ 831
gioan 831
1500 830
trói 830
nguyễn_đ@@ 830
kei@@ 830
tối_@@ 830
sư@@ 830
utah 830
hải_nam 830
phân_đoạn 830
1850 830
bị_cáo_buộc 829
tầm_@@ 829
cúp_@@ 829
vỉa_hè 829
chê 829
nes_@@ 829
trung_lưu 829
kno@@ 829
đời_vua 829
bac@@ 829
dal@@ 829
văn_đế 829
ri_@@ 828
ằn 828
điện_biên 828
18,@@ 828
scu@@ 828
brea@@ 828
ati@@ 828
gián 827
mưa_@@ 827
ảng 827
colle@@ 827
tập_thể_dục 827
kế_tục 827
harry_potter 827
vòng_loại 827
cướp_phá 827
cacbonat 827
hình_chữ_nhật 827
bán_dẫn 827
điện_thế 827
1893 827
binh_lực 827
học_vị 826
60@@ 826
rạch_giá 826
pháp_thuộc 826
miss_@@ 826
tàu_thuyền 826
mo_@@ 826
hop 826
nin@@ 826
hiệu_phó 826
vô_cơ 826
phức 826
độc_tính 826
phép_đo 826
bankplus 825
đắng 825
ngân_@@ 825
ain 825
/10/@@ 825
uỷ_ban_@@ 824
fun@@ 824
bán_cầu 824
tiểu_vùng 824
áo-hung 824
gmina_@@ 824
y_tế_thế_giới 823
feli@@ 823
hamilton 823
đô-la 823
rho@@ 823
1892 823
nova 822
lén 822
pana@@ 822
pe_@@ 822
rose 822
kon 822
carey 822
bản_năng 821
chiếm_lĩnh 821
lệ_phí 821
lề 821
_trưởng 821
tạo_dựng 821
vũ_đạo 821
ngưu 821
uỷ_viên 821
hau@@ 821
tcn. 821
alexandros 821
acid 820
cựu_chiến_binh 820
linh_kiện 820
1_,_@@ 820
_sta@@ 820
bul@@ 820
1863 820
1864 820
công_sự 820
tái_thiết 819
will 819
bước_tiến 819
khởi_@@ 819
bàn_@@ 819
đông_đúc 819
kiên_cố 819
cent 819
đóng_gói 819
lls 819
siêu_tân_tinh 819
8/2 818
bế_tắc 818
ibm 818
lắc 818
đa_năng 818
trung_sơn 818
phương_châm 818
tràng 817
vào_cuộc 817
hủy_hoại 817
rạch 817
đấng 817
của_cải 817
swi@@ 817
ng_hóa 817
lon@@ 817
đối_lưu 817
nefer@@ 817
vắc_xin 816
chăm_lo 816
chậm_trễ 816
bản_ngữ 816
điều_tiết 816
ý_đồ 816
đông_phi 816
ninja 816
stem 816
tỷ_giá 815
cầm_đầu 815
hưởng_thọ 815
gai@@ 815
zen@@ 815
sùng 815
khí_tượng 815
montana 815
ria_@@ 814
trân 814
ốc_@@ 814
tôn_kính 814
sir_@@ 814
._đa_số 814
300.000 814
mourinho 813
bạo_động 813
địa_ngục 813
người_tình 813
nhơn 813
clau@@ 813
kes@@ 813
tana@@ 813
nữ_quyền 812
y_th@@ 812
đổ_lỗi 812
maya 812
lewis 812
toàn_thân 811
ska 811
chót 811
iên 811
ễ@@ 811
trận_địa 811
rie@@ 811
thạnh 810
dạ@@ 810
tron 810
5000 810
dha@@ 810
mon_@@ 810
thẩm 810
pictures 810
tư_sản 810
thiên_tài 809
sâu_rộng 809
24/10 809
thường_lệ 809
ro_@@ 809
khuyết_điểm 809
coun@@ 809
chăn_thả 809
thực_tập_sinh 809
best_@@ 808
sụt 808
bệnh_lý 808
thanh_vân 808
app@@ 808
ệ_@@ 808
ima@@ 808
chủ_nghĩa_cộng_sản 808
thăng_tiến 807
sl 807
iều 807
át 807
ba_mẹ 807
độ_ẩm 807
google_@@ 807
_tông 807
s_a@@ 807
phán 807
paraguay 807
nicaragua 807
mah@@ 807
xoáy_thuận 807
ab 806
test 806
phụ_cấp 806
anh_dũng 806
nhi_đồng 806
daniel_@@ 806
điệ@@ 806
thỏa_hiệp 806
._trương_@@ 806
kiều_bào 805
bê_bối 805
cây_xăng 805
trào 805
nguyễn_thị_th@@ 805
tứ_@@ 805
little_@@ 805
nick@@ 804
con_voi 804
plus 804
mark_@@ 804
._mãi 804
vir 804
sony_@@ 803
deni@@ 803
ới 803
yah 803
…_@@ 803
ừa 803
code 803
chuyển_biến 803
_hòa 803
naga@@ 803
ful@@ 803
cé@@ 803
thị_lang 803
thầy_trò 802
wea@@ 802
phú_quốc 802
bala@@ 802
ht@@ 802
nhanh_nhẹn 802
foundation 802
biểu_quyết 802
frank_@@ 802
bolshevik 802
east_@@ 802
run@@ 802
cum 802
nas@@ 801
trong_sáng 801
vs 801
á_@@ 801
vũ_lực 801
phác_thảo 801
ngan 801
liveshow 801
mép 801
kar 801
evn 800
sĩ_tử 800
giấc_ngủ 800
củi 800
thật_ra 800
gaga 800
bismarck 800
sur-@@ 800
chán_nản 799
phar@@ 799
tịch 799
giai 799
ey 799
àm 799
tạc 799
insee 799
hình_mẫu 798
lỗ_hổng 798
:@@ 798
xà 798
p.@@ 798
._khu 798
._bị 798
cta@@ 798
phong_chức 798
quốc_gia_@@ 797
thu_nhận 797
ủi 797
ạng 797
ql@@ 797
urani 797
hiro@@ 797
bo_@@ 797
._t@@ 797
thro@@ 797
flow 797
đạo_giáo 797
west_pomeranian_voivodeship 797
diệt_chủng 796
clinton 796
tw 796
tự_truyện 796
né@@ 796
._vậy 796
tân_cương 795
bá_@@ 795
thao 795
phen@@ 795
cộng_hoà_mỹ 794
tính_@@ 794
cà 794
đôn 794
vấn 794
nen 794
mis 794
ic@@ 794
malaya 794
bào_tử 794
force 794
đúp 793
vòi 793
maxi@@ 793
2_% 793
thiên_thạch 793
128 793
khai_báo 792
chất_vấn 792
bi_kịch 792
villa@@ 792
chiết 792
ence 792
mbo 792
ngựa_vằn 792
._co@@ 792
nepticulidae 792
vướng 791
đơn_lẻ 791
trọng_lực 791
indiana 791
nhập_cảnh 791
alexander_@@ 791
kennedy 790
ám 790
chân_trời 790
big 790
gươm 790
nhiếp_ảnh_gia 790
stephen_@@ 790
buồn_nôn 790
luân_lưu 790
than_@@ 790
lli 790
león 790
phúc_thẩm 789
mand@@ 789
phù_du 789
bắc_triều_tiên 789
tiền_đề 789
30.@@ 789
hậu_cung 789
niêm_yết 788
đội_bóng 788
giã 788
ks@@ 788
lỗi_thời 788
giải_trình 788
,000 788
chống_cự 788
chánh_@@ 788
khung_cảnh 787
lễ_@@ 787
nt@@ 787
trỗi 787
cy_@@ 787
chúng_@@ 787
ngừng_bắn 787
._tòa 787
xê_út 787
công_binh 787
ngụ_ý 787
diễn_giải 786
hào_@@ 786
hợp_tác_xã 786
1.4@@ 786
mali@@ 786
lên_men 786
đấm 785
yale 785
thị_phần 785
ong_@@ 785
tái_chế 785
microsoft_@@ 785
đô_thành 785
võ_sĩ 785
ngỗng 785
đỏ@@ 784
trợ_thủ 784
hẻm 784
điện_biên_phủ 784
clu@@ 784
cht 784
sian 784
geor@@ 784
_đạo 784
ras 784
honduras 784
1830 784
chloro@@ 784
phát_xạ 784
trắng_@@ 783
ere 783
tổng_biên_tập 783
đoan 783
tao 783
sburg 783
a. 783
heli@@ 783
ôn_hòa 782
kết_tội 782
giam_cầm 782
mura@@ 782
d._@@ 782
i.@@ 782
hạng_nhất 781
dứt_điểm 781
lyon 781
đánh_đập 781
vội_vã 781
thương_tích 781
thới_@@ 781
tướng_@@ 781
20,@@ 781
jen@@ 781
hr 781
nge@@ 781
szczecin 781
240 780
quốc_nội 780
kiên_@@ 780
34@@ 780
yêu_@@ 780
phủ_@@ 780
19.@@ 780
g._@@ 780
photon 780
e. 780
ev@@ 779
cây_số 779
cầu_hôn 779
đồng_đều 779
hòa_hợp 779
phone 779
bộ_văn_hóa 779
tuỳ 779
sơn_nam 779
nhật_báo 778
roo@@ 778
cholesterol 778
bại_quân 778
văng 777
ẻ@@ 777
thâm_@@ 777
trạng 777
quân_y 777
_city 777
._sang 777
sakura 777
forbes 776
13/2 776
17/2 776
._bạn 776
biế@@ 775
_hương 775
0-@@ 775
giản_dị 775
như_@@ 775
đá_ngầm 775
ef 775
mệt 775
xuống_cấp 775
đại_bác 775
định_lượng 775
ture 775
sáp 775
tua 775
tica 775
21,@@ 774
đun 774
ỷ 774
khốc_liệt 774
về_phần 774
down 774
con_trưởng 774
computing 774
villas-boas 773
ưởng 773
cảm_động 773
đầu_đạn 773
sko@@ 773
cửa_ngõ 773
gene@@ 773
khu_tự_trị 773
thuộc_hạ 773
giả_vờ 772
sảnh 772
h5n1 772
bắc_mỹ 772
phong_cảnh 772
sao_thổ 772
phần_nhiều 771
ử@@ 771
ự 771
einstein 771
thành_trì 771
stalingrad 771
hacker 770
vùng_miền 770
ạt 770
thuốc_nổ 770
oper@@ 770
plo@@ 770
[@@ 770
balkan 770
50_% 769
ăn_cỏ 769
cướp_biển 769
ver_@@ 769
định_nghĩa_là 769
next 768
polis 768
nova@@ 768
._si@@ 768
caribbean 768
tem@@ 768
formula_2 768
đàm_@@ 767
nghị_luận 767
60.000 767
thuần_chủng 767
động_lực_học 767
chạy_@@ 766
éo 766
trác 766
cởi 766
thân_mật 766
tràn_ngập 766
dàn_dựng 766
qs 766
._mối 766
tiểu_luận 766
pli@@ 766
phản_cảm 765
địa_chủ 765
xay 765
pd@@ 765
bill 765
water@@ 765
_ver@@ 765
o.@@ 765
rhône-alpes 765
_ste@@ 764
khẩu_phần 764
nhuận 764
ông_già 764
ướp 764
mật_@@ 764
seattle 764
mưu_@@ 764
trưởng_đoàn 764
your_@@ 764
mal 764
dị_thường 763
ngoan 763
quấy_rối 763
tae@@ 763
hồ_nam 763
đảng_cộng_hòa 763
we_@@ 763
airways 763
1865 763
luân_công 763
phis 763
rét 762
xvii 762
_ly 762
._dựa 762
naka@@ 762
hoành_tráng 761
6_% 761
hình_vẽ 761
phó@@ 761
trèo 761
om@@ 761
lô@@ 761
tộc_người 761
cao_đài 761
sse 761
m-tp 761
cá_thia 761
sea 760
số_hiệu 760
cách_mạng_@@ 760
hải_tặc 760
nguyên_bản 760
2030 760
bút_danh 760
north_@@ 760
fiji 759
_thanh 759
cư_xử 759
xanh_lam 759
tạo_hình 759
nhảy_dù 759
lis@@ 759
wri@@ 759
ross 759
cook 758
urs 758
yêu_sách 758
à_@@ 758
trá@@ 758
lưu_truyền 758
bộ_đồ 758
tiến_cử 758
._dù_vậy 758
buri 758
phước_long 758
đồng_hóa 758
dã_man 757
bối_rối 757
_lý 757
lượn 757
._ngôi 757
._vị 757
đường_biển 757
mali 757
80_% 757
tiếp_viện 757
dạy_dỗ 756
alan_@@ 756
mun 756
nghệ_nhân 756
võ_nguyên_giáp 756
bow@@ 756
joe 756
scandal 755
19,@@ 755
hét 755
hết_mình 755
vĩnh_cửu 755
dan_@@ 755
roma@@ 755
liêu_@@ 755
văn_hóa_@@ 755
samoa 755
ted_@@ 754
cuồng 754
vô_hiệu_hóa 754
tích_tụ 754
rao 754
ít_ỏi 754
tuồng 754
toại 754
từ_liêm 754
nội_tạng 754
tea@@ 754
._ba@@ 754
bella 754
latvia 754
phong_tước 754
ngang_@@ 753
kéo_theo 753
phách 753
nửa_đêm 753
phản_chiếu 753
dì 753
charles@@ 753
trượng 753
đơn_@@ 753
chal@@ 753
nie_@@ 753
valen@@ 753
chung_quanh 753
giêsu 753
ola@@ 752
ther_@@ 752
khỏa_thân 752
hiển 752
sốt_rét 752
milli@@ 752
ên 752
chin 752
gà_@@ 752
back@@ 752
hoo@@ 752
cover 752
phản_@@ 752
đạo_hồi 752
nông_sản 752
đổng 752
miến 752
squa@@ 752
dad 751
mt 751
trung_vệ 751
concert 751
tto@@ 751
dom 751
lone 751
ngả 750
1_% 750
crea@@ 750
thoái_hóa 750
vị_thành_niên 750
thông_cáo 750
tải_trọng 750
alabama 750
yev 750
chủ_nghĩa_tư_bản 750
tidae 750
nhưỡng 749
tý 749
or_@@ 749
nda_@@ 749
kiếm_ăn 749
tương_truyền 749
tinh_hoa 749
newport 749
tan_@@ 748
,@@ 748
vic 748
!_@@ 748
dọa 748
gợi_cảm 748
thầy_@@ 748
phá_thai 748
trực_quan 748
tích_phân 748
dani@@ 748
giật_mình 747
kỳ_thủ 747
kiên_nhẫn 747
gối 747
vật_tư 747
ar_@@ 747
khoảng_trống 747
phát_ngôn_viên 747
leningrad 747
99@@ 747
ần_@@ 747
pto@@ 747
rang 747
gly@@ 747
dực 747
thoả_thuận 746
địa_chấn 746
steve_@@ 746
động_kinh 746
ăn_mừng 746
hộ_khẩu 746
đa_dạng_sinh_học 746
lam@@ 746
._toàn_bộ 746
ic 746
lúa_mì 746
1891 746
hùng_@@ 745
4,5 745
minh_h@@ 745
cự_ly 745
siêu_âm 745
nadal 745
sili@@ 745
tái_bản 745
ng_hải 744
nước_sạch 744
linh_thiêng 744
gol@@ 744
buồm 744
hợp_xướng 744
mục_sư 744
gia_tốc 744
đình_đám 743
/5/@@ 743
thiệt_thòi 743
cầu_cứu 743
113 743
cổ_động_viên 743
so_@@ 743
giống_hệt 743
tình_tiết 743
khinh_@@ 743
đạo_phật 743
tra_@@ 743
sed 743
hoảng_loạn 742
báo_hiệu 742
thân_nhiệt 742
nghiêm_@@ 742
in_ấn 742
_đức 742
_her@@ 742
kansas 742
syn@@ 742
bet 742
đương_nhiên 741
steve_jobs 741
thanh_hà 741
sc 741
mày 741
chào_mừng 741
đất_@@ 741
òi 741
ning_@@ 741
max_@@ 741
phần_@@ 741
1.6@@ 741
kla@@ 741
ngạn 741
gal 741
intel 740
thiếu_sót 740
3-1 740
tivi 740
ùa 740
sli@@ 740
gần_như 740
tĩnh_@@ 740
american 740
kháng_nguyên 740
nq-cp 740
đường_bay 739
điệp_viên 739
109 739
xà_phòng 739
l_s@@ 739
công_thần 739
ma_cao 739
mù_lòa 738
ũ 738
sưng 738
nick 738
luân_chuyển 738
chiến_hạm 738
type 738
thỏa 738
đại_trà 738
fish 738
bẻ 738
hạ_lưu 738
bành 738
thá@@ 738
philip@@ 738
chu_đáo 737
>>_@@ 737
tiền_phong 737
cây_xanh 737
super 737
uốc 737
vòng_vây 737
gio@@ 737
all_@@ 737
giao_thương 737
103 736
cứng_rắn 736
nà 736
kí@@ 736
buôn_lậu 736
british_columbia 736
south_@@ 736
tit 736
đô_hộ 736
1882 736
tri_ân 735
ming 735
gua@@ 735
lê_thị_@@ 735
kết_nạp 735
pa_@@ 735
vũ_hán 735
127 735
._ủy_ban 735
pus 735
hành_hạ 734
manhattan 734
châm 734
room 734
phòng_khám 734
chính_đáng 734
lớn_lao 734
idlib 734
ball 734
nit 734
hạo 734
liên_hiệp_anh 734
niger 733
bút_@@ 733
20/11 733
hoàng_hà 733
brow@@ 733
ez@@ 733
ur_@@ 733
indo@@ 733
kilômét_vuông 733
viếng 732
nể 732
ted@@ 732
eric_@@ 732
tập_kết 732
ngụ 732
rang@@ 732
thịnh_hành 732
thuộc_@@ 732
._rồi 732
mara 732
nóng_chảy 732
dd-@@ 732
gos 732
princeton 731
–@@ 731
khan_hiếm 731
thạc 731
á_hậu 731
phổ@@ 731
apa@@ 731
flash 731
hyun 731
new_mexico 731
sùng_@@ 731
championship 731
phus 731
naceae 731
48@@ 730
cẩm 730
4_% 730
thiện_@@ 730
đề_kháng 730
thảm_thực_vật 730
ria@@ 730
ngoại_vi 730
ctus 730
rea 730
il-@@ 730
aquitaine 730
quặn_lòng 729
shan 729
thời_cơ 729
hoạt 729
thú_nhận 729
mau 729
nguyễn_xuân_@@ 729
tiên_đoán 729
ch_t@@ 729
goo@@ 729
dd 729
hr@@ 729
nguyễn_thị 729
oh@@ 729
_tây 729
lợn_rừng 729
nguyễn_quang_@@ 728
hải_đảo 728
mura 728
tướng_sĩ 728
athena 728
thèm 727
first_@@ 727
cẩm_nang 727
pr 727
lặng 727
lanh 727
quy_tụ 727
bạn_tình 727
shi_@@ 727
ino@@ 727
ona@@ 727
anh_ngữ 727
chậu 727
hun@@ 727
pul@@ 727
chú_thích 727
quân_địch 727
danh_từ 727
đăng_bạ 727
toát 726
under@@ 726
tro_@@ 726
bất_tử 726
lao_@@ 726
daniel 726
gusta@@ 726
111 726
tech 726
power 726
natu@@ 726
feld 726
kế_@@ 726
phân_khu 726
ẽ 725
@@@ 725
tẩm 725
phòng_ngủ 725
nuôi_trồng 725
ốn 725
thu_nhỏ 725
nhảy_múa 725
colli@@ 725
phi_cơ 725
._n@@ 725
cala@@ 725
._lưu_@@ 725
định_giá 724
chậm_chạp 724
la_liga 724
ánh_@@ 724
pg 724
trùng_khánh 724
bat@@ 724
trung_quốc_đại_lục 724
bẩy 723
trần_quốc_tuấn 723
tc@@ 723
diễm 723
tỵ 723
ney_@@ 723
chuồn_chuồn 723
jura 723
ata 723
đồng_quê 722
hung_thủ 722
tết_nguyên_đán 722
yu 722
đồng_cảm 722
túc_@@ 722
be_@@ 722
sz@@ 722
cta 722
dollar 722
văn_tự 721
cole 721
ậu_@@ 721
bình_yên 721
thời_đại_số 721
_lượng 721
màng_@@ 721
bồ_câu 721
ữu_@@ 721
what 721
cus@@ 721
urus 721
210 720
tái_phát 720
shan@@ 720
nổi_giận 720
ã@@ 720
cây_cối 720
rah 720
tăng_viện 720
ary 720
công_dân_số 720
complete 720
seleukos 720
dây_@@ 719
nghỉ_việc 719
môn_@@ 719
trụ_trì 719
clo 719
dưỡng_@@ 719
đau_@@ 719
nước_mắm 719
bịt 719
1873 719
k._@@ 719
atlanta 719
lawrence 719
mat 719
_show 719
quan_quân 719
chóng_mặt 718
rau@@ 718
v-league 718
lã@@ 718
lễ_cưới 718
sưu_tầm 718
sở_trường 718
od@@ 718
chính_yếu 718
hiệ@@ 718
xung_kích 718
khảo 718
1.8@@ 718
khe@@ 718
giao_thức 718
ue@@ 718
cassi@@ 718
tiết_độ_sứ 718
posi@@ 717
ha_@@ 717
hoảng_sợ 717
cntt 717
nổi_@@ 717
nguyễn_- 717
xếp_hàng 717
bos@@ 717
thanh_hoá 717
_sha@@ 717
niko@@ 717
press 717
jose@@ 717
1.5@@ 717
tory 717
apple_@@ 716
ết 716
chả 716
giang_hồ 716
lo_âu 716
nhịp_điệu 716
thể@@ 716
đại_lượng 716
quách_@@ 716
phân_tách 716
hồi_@@ 716
nguyễn_kim 716
2.500 716
bế 715
_hậu 715
viettel 715
đường_ray 715
khán_đài 715
can_đảm 715
èn 715
ngoại_thành 715
giám_thị 715
tà@@ 715
grammar 715
hải_quan 714
135 714
bùng 714
chúng_em 714
and_@@ 714
den_@@ 714
lla_@@ 714
230 714
trạch_đông 714
._de@@ 714
ino 714
đường_ống 713
cung_đình 713
đổ_nát 713
krông_@@ 713
phe_phái 713
uzbekistan 713
âm_tiết 713
kháng_cáo 712
huyện_ủy 712
trượt_tuyết 712
ska@@ 712
chầu 712
thông_thạo 712
10_% 712
sầu 711
tử_thần 711
hoạt_@@ 711
thám_tử 711
an_ủi 711
trùng_@@ 711
cầu_xin 711
mông_@@ 711
der_@@ 711
ware 711
lot 711
nhạc_phẩm 711
marx 711
nguyễn_thanh_@@ 710
đính_hôn 710
bỏ_cuộc 710
tần_suất 710
mê@@ 710
tam@@ 710
gali@@ 710
._se@@ 710
s_c@@ 710
trấn_giữ 710
green@@ 710
sum 710
tillandsia 710
ac_milan 709
/8/@@ 709
từ@@ 709
bí@@ 709
adam 709
trường_giang 709
brian_@@ 709
yi@@ 709
25.000 709
f. 709
pal 709
bas@@ 709
ấn_độ_giáo 709
kitô_hữu 709
cky 708
sel 708
djokovic 708
cầm_quân 708
ard_@@ 708
vu_@@ 708
cứu_@@ 708
vợ_con 708
scar@@ 708
sống_động 708
thân_cận 708
nguyệt_@@ 708
park_@@ 708
simon 708
mber 708
._tập 708
north@@ 708
táo_bạo 707
tes_@@ 707
gang 707
tắt_@@ 707
30_% 707
chạm_trán 707
vật_phẩm 707
đề_@@ 707
slovenia 707
itunes 707
che_phủ 707
1.7@@ 707
._chương_trình 707
maro@@ 707
hoằng 707
chen@@ 707
gibraltar 707
folia 707
calvados 707
sang_@@ 706
tuyên_dương 706
trăn_trở 706
kiệu 706
shel@@ 706
/04 706
pháp_sư 706
nguy 705
1866 705
rin@@ 705
association 705
xẻ 705
30,@@ 705
khiên 705
lene 705
afc 705
newfoundland 705
nguyên_lão 705
phu_@@ 704
tổ_dân_phố 704
q-@@ 704
nam_châm 704
star_@@ 704
khao_khát 704
1876 704
atp 704
khí@@ 704
cea 704
nguyễn_văn_h@@ 704
boys 704
phân_hóa 704
po_@@ 704
ngữ_âm 704
nạp_đạn 704
kepler-@@ 704
phi_thường 703
nhỏ_tuổi 703
showbiz 703
ctv 703
lôi_cuốn 703
dư_thừa 703
estrogen 703
xa_xưa 703
vĩnh_hưng 703
time_@@ 703
chạm_khắc 703
delta 703
luzon 703
augustus 703
ngòi 702
bàn_bạc 702
nước_nhà 702
thụ_tinh 702
yên_bình 702
ma-@@ 702
khôn 702
tổ_trưởng 702
trần_phú 702
báo_thù 702
vắt 702
ine@@ 702
best 702
1.200 702
huân 702
sy 702
thiếc 702
nguyên_sinh 702
yeon 702
thiên_tân 702
sei 702
số_nguyên 702
giới_thạch 702
ả@@ 701
amo@@ 701
muôn 701
gtvt 701
sông_băng 701
tiêm_chủng 701
carl_@@ 701
canh_phòng 701
manche 701
chính_thể 701
._lượng 701
soi 700
got_talent 700
15-@@ 700
lữ 700
fort_@@ 700
mắng 700
mi-@@ 700
đánh_đắm 699
104 699
xác_lập 699
lịch_sự 699
xu_thế 699
biển_@@ 699
phú_th@@ 699
valencia 699
phong_tặng 699
rio_@@ 699
hur@@ 699
's@@ 699
gray 699
kou@@ 699
lưỡng_hà 699
cộng_sản_@@ 698
tẩy_chay 698
hội_an 698
amin 698
lở 698
ham_muốn 698
tinh_vi 698
diệm 698
thế_tục 698
._na@@ 698
chập 697
_đông 697
bắc_hà 697
nhu_@@ 697
late 697
dắt 696
ục_@@ 696
sche@@ 696
papua_new_guinea 696
đội_xếp 696
lly_@@ 696
sử_thi 696
kawa 696
utc 696
k-pop 695
bóng_@@ 695
oman 695
cố_đô 695
èo 695
tây_phi 695
cấp_tiến 695
tường_trình 695
f0 695
venice 695
tân_an 695
nam_trung_bộ 695
tự_học 695
#_@@ 695
mân 695
thủ_thuật 694
thể_lực 694
ươ@@ 694
rita 694
oxy_hóa 694
da_đỏ 694
zen 694
nor 694
lương_sơn 694
ưu_@@ 694
quốc_khánh 694
phun_trào 694
châu_đốc 694
grand_@@ 693
kiểm_chứng 693
thiên_nga 693
xe_lăn 693
7_% 693
phù_sa 693
bú@@ 693
truyền_nhiễm 693
tinh_nhuệ 693
tháng_@@ 693
species 693
biểu_@@ 692
vác 692
chàm 692
lọ 692
hip 692
gia_sư 692
kinh_tế_thị_trường 692
lốc 691
thủ_@@ 691
/11/@@ 691
quất 691
03/@@ 691
mul@@ 691
lỏng_lẻo 691
đầu_gối 691
chợ_lớn 691
trường_sơn 691
gel@@ 691
đông_đức 691
south@@ 691
._li@@ 691
đẩy_lui 691
nguyễn_văn_thiệu 691
c1 690
lắng 690
chợ@@ 690
/6/@@ 690
trần_hưng_đạo 690
05@@ 690
đặng 690
idea 690
dã_chiến 690
vật_chủ 690
wright 690
cuồng_phong 690
hồi_hộp 689
bộ_tư_pháp 689
phân_định 689
austra@@ 689
ủy_thác 689
cà@@ 689
quen_biết 689
._tân 689
tàu_bè 689
thế_tử 689
lãnh_sự 688
ịt 688
vẹt 688
nhà@@ 688
cos 688
jack_@@ 688
thái_cực 688
phép_tính 688
royal 688
sơ_khai 688
chủ_hộ 688
phụ_âm 688
vậy_mà 687
nhà_riêng 687
ngày_tháng 687
nổi_danh 687
ã 687
laptop 687
kết_bạn 687
nv 687
á_châu 687
jin@@ 687
harrison 687
hl 687
hoạt_tính 687
e.@@ 687
thêu 687
bằng_phẳng 687
1878 687
gang@@ 687
18-24 687
nine 687
hoa_kỳ@@ 687
division 687
60_% 687
hạt_trần 687
andre@@ 686
hiếp_dâm 686
sim@@ 686
ichi@@ 686
mol 686
your 686
._thật 686
head 686
aka@@ 686
quân_phiệt 686
iết 685
bằng_khen 685
20-@@ 685
tối_ưu_hóa 685
112 685
hes@@ 685
hara@@ 685
lạc_đà 685
zan@@ 685
9.000 685
friedrich_@@ 685
galaxy 684
ene 684
arena 684
ra_tay 684
phú_xuân 684
trọng_dụng 684
ley@@ 684
hối_hận 684
tus_@@ 684
ma_thuật 684
._sở 684
hình_cầu 684
cula@@ 684
quản_lý_số 684
tto 683
10_@@ 683
thế_là 683
tồn_kho 683
row@@ 683
nixon 683
chấp_chính 683
mindset 683
palau 683
lốp 682
40_% 682
mồng 682
bến_@@ 682
blan@@ 682
doraemon 682
tuyên_chiến 682
louisiana 682
tỉnh_lộ 682
11-@@ 682
tol@@ 682
tụy 681
nóng_@@ 681
mạo 681
cả@@ 681
xoài 681
jim_@@ 681
harris 681
dio 681
union 681
fron@@ 681
cỏ_khô 681
nguyễn_tấn_dũng 680
cực_kì 680
thư_mục 680
harry_@@ 680
thánh_đường 680
7_,_@@ 680
base 680
sp 679
ngăn_cách 679
yên_tĩnh 679
>_@@ 679
thi_hài 679
ảo_giác 679
lưỡng_@@ 679
albu@@ 679
wisconsin 679
sma@@ 679
dora 679
monta@@ 679
alex 678
ra_quân 678
ben_@@ 678
tỏ_tình 678
hội_thi 678
dứt 678
nam-@@ 678
tận_hưởng 678
ăn_khách 678
ớ@@ 678
word 678
edinburgh 678
jung 678
anh-@@ 678
cation 678
vuông_góc 678
daceae 678
gian@@ 677
giải_tỏa 677
sẹo 677
woo 677
triết 677
ộc 677
trang_trọng 677
/3/@@ 677
office 677
nhĩ@@ 677
giả_tưởng 677
tàn_tích 677
gun 677
._ca@@ 677
mig-@@ 677
._pa@@ 677
karl 677
chuộc 676
08@@ 676
@ 676
đắk 676
danh_vọng 676
an_th@@ 676
gn@@ 676
khuôn_mẫu 676
huyề@@ 676
tưới 676
dur@@ 676
kết_cục 676
baker 676
g-talent 676
non-it 676
tortricidae 676
gót 675
ồ_ạt 675
ẩn_@@ 675
villa 675
tân_phú 675
bob 675
bề 675
louis@@ 675
mệnh_đề 675
cây_gỗ 675
sử_@@ 675
._buổi 675
bất_bình_đẳng 674
747 674
280 674
175 674
nol 674
taliban 674
thuyên_chuyển 674
loét 674
ngô_th@@ 674
công_đoạn 674
khả_@@ 674
20_% 674
1789 674
tịnh_@@ 674
nô@@ 674
aba@@ 674
ron_@@ 673
bắc_kạn 673
sàng_lọc 673
giải_nghệ 673
cpu 673
joseph@@ 673
làm_phản 673
tia_x 673
norman 673
càn_long 673
tử_nạn 672
nhược 672
ajax 672
ể 672
huyền_bí 672
bat 672
chí_linh 672
soul 672
đứt_gãy 672
triều_chính 672
bàn_đạp 671
21/11 671
sếp 671
ngen 671
ợi 671
diều 671
nước_ngầm 671
schu@@ 671
1858 671
no-@@ 671
ố@@ 670
diện_mạo 670
joh@@ 670
tắc_nghẽn 670
time@@ 670
sing@@ 670
hiền_lành 670
belle 670
tây_phương 670
trị@@ 670
cien@@ 670
bata@@ 670
na-@@ 669
ỉnh 669
_ng@@ 669
giây_phút 669
vớt 669
geneva 669
trang_trải 669
che_@@ 669
châu_thổ 669
kepler 669
pháp-@@ 669
phanxicô 669
national 668
hcv 668
song_sinh 668
nhảy_@@ 668
quản_lí 668
năm_nhuận 668
107 668
điềm 668
arkansas 668
yor@@ 668
var 668
số_nguyên_tố 668
castile 668
07@@ 667
êu 667
toyota 667
portland 667
xuồng 667
thành_đạt 667
chuyên_khoa 667
văn_miếu 667
thời_sự 667
howard 667
trực_@@ 667
lấn 667
vệt 667
xâm_lăng 667
da_trắng 667
myo@@ 666
nhũ@@ 666
lặng_lẽ 666
bàn_luận 666
tệ_nạn 666
ừng 666
cana 666
fm 666
play@@ 666
mira@@ 666
chúa_tể 666
alo@@ 666
carol 666
lena 666
jakarta 665
megan_fox 665
tay_trái 665
mạt 665
publi@@ 665
._đoạn 665
loo@@ 665
triết_gia 665
north 665
12.000 665
gabriel 665
answer 665
25-44 665
ibn 665
quan_vũ 665
saipan 665
ulithi 665
galaxy_@@ 664
bạch_dương 664
_thể 664
kit@@ 664
ạ@@ 664
hung_dữ 664
marie_@@ 664
dus@@ 664
._hắn 664
thanh_trừng 664
wilhelm 664
mys 664
novel 664
750 663
alle@@ 663
9/2 663
ỗ@@ 663
bất_công 663
tản 663
samsung_@@ 663
vô_tội 663
công_trường 663
cha_đẻ 663
thâm 663
adam_@@ 663
rad@@ 663
giu@@ 663
sa_hoàng 663
ip@@ 663
johannesburg 663
phản_kích 663
tiếng_@@ 662
mến 662
ai_@@ 662
chải 662
duyên_dáng 662
45@@ 662
phẩm_@@ 662
xung_phong 662
dự_tuyển 662
hoàng_h@@ 662
đệ_tam 662
bộc 662
phục_sinh 662
g. 662
22.@@ 662
tami@@ 662
vienna 662
ign 662
sius 662
aa@@ 661
họa_@@ 661
dàn_xếp 661
vững_vàng 661
phu@@ 661
pia 661
tùng_@@ 661
ăn_mòn 661
dư@@ 661
đấu_loại 661
oise 661
metacritic 661
kiêm_nhiệm 660
300@@ 660
._đoàn 660
mori 660
margaret 660
văn_phong 660
nòng_cốt 659
arts 659
đảo_@@ 659
dậu 659
golden_@@ 659
ffi@@ 659
ure 659
giáo_lý 659
ridae 659
mới_lạ 658
sur 658
kiệt_sức 658
sb@@ 658
kịch_liệt 658
ẫn 658
che_chở 658
tác_@@ 658
tony_@@ 658
._nguyên_nhân 658
frank@@ 658
domi@@ 658
khẩu_đội 658
xạ_thủ 658
ato@@ 658
vocabulary 658
uỷ 657
ỏi 657
dian 657
lity 657
vứt 657
thuỷ_@@ 657
ds_@@ 657
9_% 657
cự@@ 657
._bởi 657
._hàng 657
000.000 657
j.@@ 657
diệt_vong 657
kit 657
paraphrase 657
soci@@ 656
sứ_quán 656
lựu_đạn 656
kim_sơn 656
sở_dĩ 656
ali_@@ 656
co_giật 656
chang 656
ổng 656
cứu_hỏa 656
hiên 656
ẩn_náu 656
ngữ_cảnh 656
hồ_bắc 656
gia_lâm 656
thu_phục 656
mauritius 656
tiger 655
trấn_thành 655
khôn_ngoan 655
đắk_lắk 655
33@@ 655
cho_@@ 655
antonio_@@ 655
channel 655
josé_@@ 655
tự_ý 654
spor@@ 654
lây 654
limited 654
sit 654
quốc_huy 654
net_@@ 654
chuẩn_tướng 654
25.@@ 654
nel@@ 654
ret 654
pronunciation 654
ptolemaios 654
domini@@ 653
thắt_lưng 653
6,5 653
truyền_@@ 653
_chi@@ 653
iệ@@ 653
ắc_@@ 653
viện_kiểm_sát 653
tius 653
trái_phiếu 652
nước_lớn 652
nhút_nhát 652
ie@@ 652
câu_@@ 652
vệ_@@ 652
lev 652
vector 652
00_% 652
giơ 651
vang_dội 651
toefl 651
nghĩa_đen 651
8_% 651
hoà_@@ 651
thang_máy 651
._nước 651
tề@@ 651
đề_bài 651
x. 651
._công_trình 651
một_phần_ba 650
los_@@ 650
nese 650
real@@ 650
_hóa_@@ 650
_thế 650
syl@@ 650
sper@@ 650
khởi_chiếu 650
nguyễn_hoàng 650
philip_@@ 650
vong 649
chính_tả 649
vũng 649
berkeley 649
đánh_thuê 649
hong 649
80.000 649
free@@ 649
vka 649
kết_nghĩa 648
stic 648
dea 648
anna_@@ 648
1859 648
ght_@@ 648
_mw 648
server 648
vĩ_độ 648
act 648
dương_xỉ 648
126 647
xa_lạ 647
tuần_@@ 647
toan 647
gian_@@ 647
miễn_cưỡng 647
zon 647
tòa_@@ 647
vé@@ 647
ville@@ 647
iu@@ 647
karl_@@ 647
matsu@@ 647
leo_thang 646
plasma 646
550 646
byte 646
cù@@ 646
bồi 646
đánh_thức 646
tương_dương 646
hiển_nhiên 646
kí 646
bis 646
si_@@ 646
damascus 646
nhạc_viện 646
sno@@ 646
kent 646
thượng_hoàng 646
ero 645
ding_@@ 645
22@@ 645
rách 645
tự_phát 645
kính_thiên_văn 645
dứt_khoát 645
las@@ 645
plan@@ 645
este 645
triệt_thoái 645
khiết_đan 645
bục 644
mona@@ 644
quầy 644
nhị@@ 644
connecticut 644
jet 644
fort 644
_vạn 644
_lập 643
blues 643
như_thể 643
_du_@@ 643
hoa_quả 643
nghèo_khó 643
ase@@ 643
fs@@ 643
khiển_trách 643
tích_@@ 643
chương_@@ 643
south 643
mol@@ 643
russell 643
osa@@ 642
nhật_bản_@@ 642
tuần_hành 642
pad@@ 642
mười_lăm 642
tràn_lan 642
đụng 642
_ko@@ 642
sắc_phong 642
cấy_ghép 642
chợ_@@ 642
arti@@ 642
biên_độ 642
trắc 642
ực_@@ 642
nhượng_bộ 642
nah 642
quốc_dân_đảng 642
đặc_vụ 641
xanh_@@ 641
trũng 641
trọng_trách 641
system 641
lane 641
quá_cố 641
works 641
white@@ 641
kịch_tính 640
vừa_rồi 640
tù@@ 640
tác_hại 640
tỷ_trọng 640
rượu_@@ 640
ọc 640
hòn_@@ 640
cơ_tim 640
văn_đ@@ 640
lợp 640
nov@@ 640
củ@@ 640
cola 640
tvb 640
sentence 640
josé 640
khởi_binh 640
đt@@ 639
ờn 639
chánh_văn_phòng 639
gạt 639
adri@@ 639
buồng_lái 639
ộ 639
khắt_khe 639
vôi 639
chết_@@ 639
have 639
tán_@@ 639
phiên_dịch 639
off 639
1881 639
mariana 639
1831 639
ideae 639
trữ 638
then_chốt 638
rô 638
quốc_học 638
nôn 638
độc_nhất 638
dấu_tích 638
elo 638
_thuật 638
cử_chỉ 638
môi_trường_học_tập 638
xit 638
mào 638
1872 638
cop@@ 638
sas 638
uro@@ 638
70_% 638
._da@@ 638
tiểu_á 638
ì@@ 637
carlos 637
vặt 637
cháo 637
rt 637
kết_tinh 637
rhodes 637
ược 636
đưa_đón 636
hậu_lộc 636
way_@@ 636
day_@@ 636
olympi@@ 636
ties 636
đồ_sộ 636
enti@@ 636
z-@@ 636
dự_khuyết 636
cnn 635
mạnh_dạn 635
ndi 635
prince 635
ặc 635
nghịch_lý 635
dâm 635
chướng_ngại_vật 635
power@@ 635
áo_khoác 635
rd 635
d.@@ 635
h.@@ 635
carolina 635
bình_nguyên 635
phan_thiết 635
chin@@ 635
ban_hành_quyết_định 635
ẩm_@@ 634
hđ@@ 634
đu@@ 634
bất_hạnh 634
tàn_nhẫn 634
lem 634
cứu_vớt 634
lẽ 634
3-0 634
đơn_nam 634
lima 634
royal_@@ 634
comi@@ 634
out@@ 634
._lớp 634
sachsen 634
nữ_@@ 633
30-@@ 633
ong@@ 633
ể@@ 633
phụ_kiện 633
đũa 633
qđ-@@ 633
eco@@ 633
nhập_vai 633
lucas 633
hy_lạp_@@ 633
nhân_dân_tối_cao 632
sáng_@@ 632
metha@@ 632
rối_@@ 632
đích_thực 632
nhân_dân_tệ 632
noi 632
rosa@@ 632
xuyên_@@ 632
hawk 632
track 632
nice 632
venezia 632
joe_@@ 631
thác_@@ 631
elizabeth_@@ 631
tìm_tòi 631
ẹt 631
giản 631
thượng_nguồn 631
ch_s@@ 631
sơn_dương 631
j-@@ 631
se-@@ 631
aca@@ 631
d.c. 631
nhà_t@@ 630
chổi 630
bong_bóng 630
rã 630
cine@@ 630
=@@ 630
bồ_tát 630
completion 630
tất_yếu 629
bắp 629
andrew_@@ 629
bạch_đằng 629
xế 629
cột_@@ 629
260 629
duệ 629
._lời 629
._đảng 629
._ước_tính 629
xy 629
._năm_@@ 629
._ja@@ 629
đường_tròn 629
116 628
thai_@@ 628
rào 628
ide@@ 628
general_@@ 628
đị@@ 628
dấy 628
vượng 628
zeus 628
kyoto 628
cker@@ 628
1838 628
biểu_thức 628
gyeong@@ 628
tội_danh 627
ò@@ 627
del_@@ 627
điện_toán 627
gou@@ 627
thường_ngày 627
trống_@@ 627
ữ@@ 627
francis 627
_hình 627
phụ_trợ 627
axit_amin 627
color 627
lab 627
kam@@ 627
vị_@@ 627
vers 627
glyco@@ 627
mộ_dung_@@ 627
hạn_hán 626
lõm 626
xoa 626
sánh 626
patri@@ 626
vy@@ 626
khí_@@ 626
tập_tính 626
._k@@ 626
chúa_giêsu 626
mindmap 626
64@@ 625
thiếu_máu 625
quyết_@@ 625
giao_lộ 625
thấu_kính 625
biện_@@ 625
tuệ 625
truyện_@@ 625
ope@@ 625
oanh_tạc 625
1806 625
u-20 625
tu_sửa 624
gin@@ 624
rót 624
cúi 624
hl@@ 624
tú@@ 624
seo@@ 624
jimmy_@@ 624
nhật_thực 624
vel 624
lagos 624
nông_trại 624
điện_trở 624
quạ 624
phoenix 624
diễn_nghĩa 624
vương_hậu 624
tươi_@@ 623
đồ_đạc 623
mars 623
thóc 623
phá_huỷ 623
giòn 623
vau@@ 623
liu 623
đàn_hồi 623
106 623
1874 623
beginner 623
ori 623
sia_@@ 622
ệt 622
mong_manh 622
trông_coi 622
lạnh_lùng 622
n_hòa 622
phương_hướng 622
cp@@ 622
ngôn_luận 622
nghèo_đói 622
lipid 622
headings 622
chiêm_ngưỡng 621
chuộng 621
song_phương 621
sơ_tuyển 621
bahamas 621
robin 621
john@@ 621
bảo_dưỡng 621
dj@@ 621
nea 621
chân_lạp 621
xít 620
ngoạn_mục 620
em_@@ 620
trái_@@ 620
bình_thạnh 620
tang_@@ 620
đổi_@@ 620
christian_@@ 620
diễn_thuyết 620
liberia 620
vincent 620
otto 620
gabon 620
gam@@ 620
québec 620
chính_trường 619
dễ_chịu 619
nhân_nghĩa 619
háo_hức 619
trần_quốc_@@ 619
an_khánh 619
nelson 619
nhà_h@@ 619
cực_bắc 619
côn_đảo 619
chuyên_chế 619
chức_@@ 619
river 619
witz 619
thế_này 618
mina 618
abu_@@ 618
15/2 618
khép_kín 618
gương_sáng 618
khúc_@@ 618
rác_thải 618
kiểm_@@ 618
ek@@ 618
pus@@ 618
._thông_qua 618
gus@@ 618
thủy_phi_cơ 618
carlos_@@ 618
nata 618
thủ_hạ 618
ngất 617
ót 617
iv@@ 617
điệp 617
phỏng 617
car 617
heart 617
some@@ 617
nation 617
_mc@@ 617
yn 617
xbox 617
low@@ 617
nước_mặn 617
bay_hơi 617
clark 617
khải_@@ 617
phụ_lục 617
húc 616
,_@@ 616
nguyền 616
trục_trặc 616
điều_ước 616
hạc 616
đẳng_@@ 616
kala@@ 616
sson 616
r. 616
đại_bại 616
9.0_ielts 616
12/2011 615
hất 615
vế 615
02/@@ 615
giao_thừa 615
_hà 615
vũ_đ@@ 615
vay_mượn 615
alexand@@ 615
ăn_cắp 615
._tùy 615
hải_cẩu 615
cá_mú 615
cao_lãnh 615
hoàng_cung 615
quá_cảnh 615
ku_@@ 615
trung_đội 615
nậm 615
opo@@ 615
yuki 615
11/9 614
báo_giới 614
buông 614
tê_liệt 614
trọng_yếu 614
lê_thị@@ 614
_duy@@ 614
chăng 614
dl 614
phân_bón 614
cúm 614
đá_@@ 614
24.@@ 614
cột_sống 614
xuân_thu 614
pays 614
tsa@@ 613
see 613
quán_@@ 613
võ_công 613
long_xuyên 613
cia_@@ 613
penta@@ 613
máu_@@ 612
tình_cảnh 612
bản_tính 612
fo 612
chung_sống 612
lớn_nhỏ 612
kara 612
b.@@ 612
áo_giáp 612
oa@@ 612
roy 612
eisenhower 612
chức_vị 612
dream 611
guer@@ 611
phanh 611
đường_mòn 611
ớ 611
/9/@@ 611
‘ 611
pro_@@ 611
henri_@@ 611
nio@@ 611
ppa 611
thị_trường_chứng_khoán 610
ôi_@@ 610
hành_xử 610
home@@ 610
body 610
thợ@@ 610
thơ_ca 610
thần_linh 610
cộng_hòa_dân_chủ_nhân_dân 610
cis 610
cách_biệt 609
hé@@ 609
store 609
iệp 609
siết 609
kì@@ 609
trung_tính 609
orange 609
tino 609
pv@@ 609
cannes 609
1812 609
._mo@@ 609
roll 609
qlvnch 609
việt_quốc 609
sự_vụ 608
ù@@ 608
trả_đũa 608
chảo 608
ừ@@ 608
chy 608
film 608
cực_đại 608
tịnh 608
good@@ 608
live_@@ 608
phra@@ 608
kawa@@ 608
ener@@ 608
francis_@@ 608
lle 608
._hoa_kỳ 608
kamikaze 608
maz@@ 607
lời_giải 607
câu_thơ 607
ỗi 607
cánh_diều 607
công_dụng 607
điện_năng 607
toeic 607
che_khuất 607
te-@@ 607
fs 607
coa@@ 607
prin@@ 607
malawi 607
vi_tính 606
ngắt 606
nhiệt_huyết 606
uyết 606
đơn_giản_hóa 606
nước_hoa 606
leon 606
nhị_@@ 606
thân_mềm 606
nais 606
qui_@@ 605
vật_lộn 605
chọc 605
pedro 605
iệu 605
thảo_@@ 605
vita@@ 605
sông_đà 605
nhu@@ 605
trâm 605
chữ_viết 605
chỉ@@ 605
mềm_mại 605
lập_nghiệp 605
thôn_tính 605
nhụy 605
thiệu_trị 605
but 605
afri@@ 605
carl 605
anima@@ 605
1879 605
fire@@ 604
đền_bù 604
đò 604
viện_phí 604
đại_đa_số 604
cương_@@ 604
đột_quỵ 604
mâm 604
bản_vẽ 604
sư_@@ 604
hiển_@@ 604
khoan_dung 604
tu-@@ 604
gabri@@ 603
day@@ 603
đón_tiếp 603
quốc_tử_giám 603
mauri@@ 603
hòa_âm 603
doanh_@@ 603
23.@@ 603
cưỡng_bức 603
sab@@ 603
môn_phái 603
hip@@ 603
gue@@ 602
chợt 602
xã_hội_@@ 602
bốc_@@ 602
mir 602
cul@@ 602
chó@@ 602
sum@@ 602
que_@@ 602
lock 602
nhu 602
vá@@ 602
28.@@ 602
châm_biếm 602
sồi 602
b-52 602
the_beatles 602
kiểu_dáng 601
kel 601
tí 601
môn_sinh 601
thâm_niên 601
tiện_lợi 601
ào_@@ 601
andrew 601
ster_@@ 601
thỉnh_cầu 601
lũng 601
blue_@@ 601
sao_thủy 601
covid 601
vinschool 601
!_sơn 601
cup_châu_âu 600
sam_@@ 600
ngoại_tình 600
khiết 600
xốp 600
thối 600
tàn_dư 600
cr 600
chay 600
nu 600
uy_@@ 600
hướng_nghiệp 600
đạ@@ 600
wai@@ 600
phụ_gia 600
._ho@@ 600
gy 600
tasmania 600
1820 600
vus 600
phêrô 600
amphoe 600
mật_khẩu 599
tbn_tennis 599
nghiền 599
mẩu 599
btc 599
điề@@ 599
kỳ_diệu 599
tố_tụng 599
ê-@@ 599
ama 599
sd@@ 599
thúy_@@ 599
mata 599
bún 599
tho 599
lắng_đọng 599
beach 599
._nền 599
pen 599
maru 599
são_paulo 599
fbi 598
stress 598
ray_@@ 598
chiết_xuất 598
hóa_đơn 598
đa_phương_tiện 598
kho_báu 598
ngang_hàng 598
hài_hòa 598
mặc_@@ 598
toàn_vẹn 598
mở_mang 598
._chuyến 598
khảm 598
birmingham 598
_thần 598
đại_tướng_quân 598
resi@@ 598
._la@@ 598
mato@@ 598
vằn 598
doro@@ 598
phình 597
marseille 597
loãng 597
_trường 597
nghiên_cứu_@@ 597
-2 597
scott_@@ 597
park@@ 597
thuốc_phiện 597
._theo 597
bird 597
26.@@ 597
ppe@@ 597
chy@@ 597
manuel_@@ 597
phân_vùng 597
chon 597
1832 597
pascal 597
hoá@@ 596
_thân 596
ịch 596
phan@@ 596
mút 596
ndt 596
/7/@@ 596
_char@@ 596
ngập_mặn 596
làng_nghề 596
đồng_tâm 596
1841 596
vĩ_tuyến 596
ngự_sử 596
1,3 595
màu_mỡ 595
a2 595
thành_ngữ 595
ạo 595
thống_@@ 595
archi@@ 595
thắng_cảnh 595
jane 595
cá_chép 595
lennon 595
calo@@ 595
borough 595
tncd@@ 595
_trọng_@@ 594
ồn_ào 594
uận 594
pierre 594
tics 594
đại_nghĩa 594
tháp_@@ 594
cảm_tình 594
dz@@ 594
watson 594
teu@@ 594
xa_xỉ 593
7,5 593
ghi_điểm 593
lyn@@ 593
hoàng_kim 593
bill_@@ 593
1.9@@ 593
lê_t@@ 593
._cư_dân 593
robinson 593
_championship 593
sạt_lở 592
agri@@ 592
bế_mạc 592
tour@@ 592
_vân 592
suối_@@ 592
chữ@@ 592
hò@@ 592
cầu_nối 592
duyên_@@ 592
lầm 592
sor 592
pine 592
nami@@ 592
lai@@ 592
gothic 592
sons 591
tử_tế 591
tượng_@@ 591
114 591
got 591
đình_công 591
biệt_kích 591
dịu_dàng 591
êng 591
kham 591
mậu_@@ 591
vô_gia_cư 591
fes@@ 591
kỷ_@@ 591
yuri 591
1875 591
chính_thống_giáo 591
hải_vương 591
spin 591
iế@@ 590
viên_@@ 590
iếp 590
uốn 590
photo@@ 590
lung 590
330 590
nho_@@ 590
mccartney 590
ch_l@@ 590
engine 590
j. 590
nga_hoàng 590
state 589
…@@ 589
zon@@ 589
mùa_xuân 589
tt-@@ 589
ting_@@ 589
thước_đo 589
ngô_quyền 589
phì 589
cca 589
law@@ 589
produ@@ 589
sinh_quyển 589
austin 589
steroid 589
guyana 589
mẹo 588
kì_thi 588
đen_tối 588
q_@@ 588
bong 588
mozart 588
ọng 588
chu_du 588
chèn 588
1869 588
khiếm_khuyết 588
hết_@@ 588
qh 588
ano_@@ 588
._đêm 588
._nói 588
rolling_stone 588
tỏi 587
đốn 587
tối_ngày 587
kiên_cường 587
chân_lý 587
sai_trái 587
hứa_@@ 587
cánh_@@ 587
lưu_niệm 587
_hội 587
mét_vuông 587
trưởng_@@ 587
mụ 587
ôxít 587
tara@@ 587
tốt_bụng 586
í_@@ 586
ắp 586
metro 586
phóng_thích 586
party 586
gây_mê 586
iện_@@ 586
cuốn_hút 586
dmi@@ 586
lòng_@@ 586
_trang 586
hoàng_thái_tử 586
coi_thường 586
und@@ 586
vir@@ 586
fil@@ 586
eus 586
niên_giám 586
đá_quý 585
hiểm 585
vô_lý 585
wha@@ 585
máy_in 585
sài_@@ 585
phan_văn_@@ 585
at_@@ 585
come@@ 585
dương_lịch 585
ms_@@ 585
sai_@@ 585
kins 585
_lộc 585
1802 585
1854 585
mond 585
súng_cối 585
quark 585
bắc_ngụy 585
cường_@@ 584
ăn_ở 584
lệ_thuộc 584
hóa_trị 584
tân_thành 584
rama 584
cơ_chế_thị_trường 583
cãi 583
stockholm 583
tuấn_@@ 583
chiêu_mộ 583
kosovo 583
khuyết 583
giao_thoa 583
cameron 583
nate 583
suez 583
._c@@ 583
công_ty_con 583
god@@ 583
liên_khu 583
nard 583
/4/@@ 582
hao 582
vui_nhộn 582
lit@@ 582
trả_giá 582
lí 582
tuần_lộc 582
ylo@@ 582
westminster 582
thích_@@ 582
argen@@ 582
._sách 582
1846 582
nero 582
không_chiến 582
chính_quốc 582
âm_thầm 581
con_dấu 581
anh_tuấn 581
_huy@@ 581
đắc 581
bầu_không_khí 581
iến 581
thúc_@@ 581
145 581
_lễ 581
thanh_trì 581
ja_@@ 581
giang_tô 581
._viên 581
vd 581
luther 581
tung_@@ 580
eva 580
_thị@@ 580
lhq 580
khí_đốt 580
câm 580
nguyễn_công_@@ 580
bona@@ 580
pira@@ 580
đồ_gốm 580
phù_điêu 580
quebec 580
bah@@ 579
phim_truyện 579
bột_@@ 579
cúm_@@ 579
some 579
christi@@ 579
delhi 579
._vòng 579
arta@@ 579
lộ_diện 578
bơ 578
camp 578
trùng_hợp 578
gừng 578
michael_jackson 578
chứng_bệnh 578
chủ_quản 578
sgk 578
thắm 578
chính_đảng 578
tàng_hình 578
tim_@@ 578
set@@ 578
xe_điện 578
pou@@ 578
log 578
seine-maritime 578
thương_tâm 577
an_bình 577
mốt 577
ợ 577
khang_@@ 577
bọt 577
baby 577
xin_phép 577
nỗ 577
_châu_@@ 577
._bức 577
cầy 577
thầ@@ 577
charleston 577
._ta@@ 577
cứu_viện 577
mã_siêu 577
đông_phổ 577
trình_làng 576
khá@@ 576
dire@@ 576
giới_chức 576
hô@@ 576
gầm 576
toshi@@ 576
trở_đi 576
mệnh_giá 576
nger@@ 576
sức_chứa 576
lạt 576
đa_thức 576
đinh_bộ_lĩnh 576
soli@@ 575
thông_lệ 575
sống_còn 575
tổng_sản_phẩm 575
ĩ@@ 575
rô@@ 575
bài_@@ 575
ca-@@ 575
khuất_phục 575
tỉ_mỉ 575
nhồi 575
eg@@ 575
buôn_ma_thuột 575
chiêu_thức 575
kwa@@ 575
khai_phá 575
harri@@ 575
cape_town 575
tajikistan 575
saône-et-loire 575
công_nghiệp_@@ 574
trẻ_trung 574
quốc_tế_@@ 574
tà 574
hổ@@ 574
ử 574
enne 574
pierre_@@ 574
cú_pháp 574
budapest 574
viện_kiểm_sát_nhân_dân_tối_cao 574
gard 574
tuân_@@ 574
hậu_lê 574
ndđt 574
visual 574
formula_3 574
7/2 573
đâm_chết 573
barack_obama 573
giò 573
tiếp_sức 573
06@@ 573
ống_dẫn 573
nghi@@ 573
ầ@@ 573
mòn 573
đương_đầu 573
xịt 573
thiều 573
thờ_phụng 573
tán_xạ 573
._thân 573
kol@@ 573
hand@@ 573
thé@@ 573
công_sở 572
nới_lỏng 572
lind@@ 572
tiêu_hao 572
ngần_ngại 572
ft_@@ 572
thiệt 572
500@@ 572
vision 572
độc_ác 572
ell@@ 572
andes 572
dau@@ 572
adi@@ 572
diana 572
ava@@ 572
gặm 572
1815 572
vul@@ 572
trạng_nguyên 572
dent 572
tỉnh_ủy_viên 572
thánh_lễ 572
nguyễn_phú_trọng 571
n_thân 571
đất_đá 571
hc@@ 571
phan_bội_châu 571
metho@@ 571
n_hóa_@@ 571
óa_@@ 571
ngôi_vua 571
dẫn_chứng 571
xanh_lục 571
cao_tầng 571
._ta 571
tier 571
glucose 571
sierra_leone 571
._thịt 571
thiên_tử 571
qg 570
liệt_@@ 570
ư_@@ 570
hoàng_mai 570
dính_líu 569
phép_@@ 569
veri@@ 569
ngân_hà 569
nhậm 569
thủ_trưởng 569
cs_@@ 569
lake 569
đấu_vật 569
0,000 569
grande 569
._vương_@@ 569
gv 568
cư@@ 568
nhậu 568
ăm_@@ 568
1,7 568
trúc_@@ 568
bóc 568
berry 568
semi@@ 568
vẻ_ngoài 568
_tu@@ 568
lây_truyền 568
saud 568
versailles 568
wilhelm_@@ 568
yevich_@@ 568
lời_lẽ 567
ầy 567
đội_@@ 567
hân 567
ẳng 567
thiếu_úy 567
1.3@@ 567
._nhân_vật 567
moldova 567
nk@@ 567
british_@@ 567
hải_chiến 567
bông_@@ 566
tháo_chạy 566
can_@@ 566
miss_teen 566
jon 566
._bệnh 566
street 566
tấ@@ 566
thời_chiến 566
botswana 566
nie@@ 566
ferrari 565
nghị_lực 565
đông_phương 565
khâm_phục 565
dược_học 565
ủy_quyền 565
bắn_tỉa 565
trữ_tình 565
27.@@ 565
gue 565
bes 565
than_đá 565
quar@@ 565
1877 565
nam_tước 565
bé_nhỏ 564
giặt 564
đồng_hương 564
minh_châu 564
ch_th@@ 564
quần_@@ 564
juan 564
điều_luật 564
des_@@ 564
greenland 564
hannibal 564
lưỡng_tính 564
ini@@ 564
vi_phân 564
trọng_thương 563
chủng_loại 563
đại_thắng 563
miễn_@@ 563
ngửa 563
/0@@ 563
400@@ 563
uệ 563
cảnh_sát_nhân_dân 563
hãm 563
vv 563
cleopatra 563
kau@@ 563
bao_hàm 563
proto@@ 562
ý_nghĩ 562
bàn_ghế 562
bướu 562
line_@@ 562
vid@@ 562
born 562
people 562
xâm_hại 562
juni@@ 562
lat 562
._nên 562
118 562
haru@@ 562
pura 562
._2 562
ate 562
khâm 562
yokosuka 562
beli@@ 562
f2 562
awa@@ 562
niken 562
quân_vương 562
gara 561
lời_@@ 561
117 561
trường_lớp 561
lưu_động 561
đôi_@@ 561
nhục 561
luận_văn 561
sửu 561
dv@@ 561
hắc 561
phần_tư 561
_school 561
oro@@ 561
open@@ 561
nahiyah 561
imf 560
đẹp_mắt 560
nặc 560
sung_@@ 560
la_tinh 560
tính_tình 560
today 560
ị_th@@ 560
jung_@@ 560
_tho@@ 560
270 560
thanh_nhạc 560
uỷ_ban 560
little 560
tòng 560
nhan_đề 560
roberts 560
sarah 560
hq-@@ 560
johan@@ 560
hoang_mạc 560
sang@@ 560
kurd 560
yas 560
cate@@ 560
german 560
nguyễn_nhạc 560
taceae 560
sao_@@ 559
per_@@ 559
hậu_trường 559
casi@@ 559
cuồng_nhiệt 559
phê 559
container 559
young_@@ 559
thanh_sơn 559
ắn 559
sông_cửu_long 559
quỹ_@@ 559
kịch_@@ 559
justi@@ 559
wing 559
victo@@ 559
thụ_@@ 559
enzym 559
chiến_thuyền 559
điện_trường 559
._me@@ 559
phụ_cận 559
miêu 559
turkmenistan 559
ễ 558
ngứa 558
mino@@ 558
frankfurt 558
ỵ 558
ãng 558
ant 558
himalaya 558
ches 558
hyper@@ 558
arn 558
tomo@@ 558
liga 557
đình_chiến 557
êu_@@ 557
bán_buôn 557
việt_kiều 557
ngỡ_ngàng 557
chấn_chỉnh 557
nhiễm_độc 557
miễn_là 557
đãi 557
nar 557
voi@@ 557
quan_sát_viên 557
tràng_an 557
jima 557
đạo_hàm 557
quercus 557
lí_do 556
liên_hoàn 556
122 556
kun@@ 556
mỳ 556
tp@@ 556
giải_oscar 556
phóng_@@ 556
_tài 556
ở_@@ 556
ẩy 556
ĩ 556
650 556
ch_h@@ 556
leigh 556
._để 556
văn_lang 556
hốc 556
sara 556
eng 556
project 556
psy@@ 556
yonne 556
normandy 556
trân_châu_cảng 556
isère 556
do_thám 555
nặng_@@ 555
sân_cỏ 555
cao_ốc 555
định_kiến 555
ela_@@ 555
cắm_trại 555
cau 555
2.0 555
thủy_sinh 555
if 555
usa@@ 555
abraham 555
hạnh_kiểm 555
hood 555
smackdown 555
súc_vật 554
khả_quan 554
kỉ 554
edwards 554
chuyển_dịch 554
nổi_trội 554
bạ@@ 554
vtv@@ 554
bất_tỉnh 554
dao_@@ 554
academy 554
alpha@@ 554
rine 554
magi@@ 554
rha@@ 554
boro@@ 554
đồng_tác_giả 554
ir_@@ 554
quang_hợp 554
1,6 553
đơn_phương 553
9,5 553
máng 553
thay_@@ 553
nông_trường 553
pháo_hoa 553
broadway 553
thiểm 553
thra@@ 553
caroline 553
und 553
hypo@@ 553
cricetidae 553
vđv 552
gia_công 552
xúc 552
lê_hồng_phong 552
bề@@ 552
nam_nữ 552
sky_@@ 552
điệp_khúc 552
thịnh_@@ 552
._tuy_vậy 552
cai_@@ 552
khu_tập_thể 551
sushi 551
vuốt 551
nhà_trọ 551
hđqt 551
nhàm_chán 551
_dung 551
xã_hội_hóa 551
year 551
key@@ 551
nella 551
pet 551
ô-@@ 550
tiện_nghi 550
quyền_anh 550
quả_@@ 550
reuters 550
sưởi 550
abdu@@ 550
hoàn_kiếm 550
ợ@@ 550
bđs 550
parker 550
doãn_@@ 550
chống_trả 550
chính_kiến 550
edition 550
ishi@@ 550
uefa_champions_league 550
unix 550
bazơ 550
đông_la_mã 550
dận 550
vi-rút 549
sine 549
silva 549
sô 549
non_@@ 549
123 549
n_thị 549
med 549
arthur_@@ 549
sunni 549
siêu_nhiên 549
phụ_đề 549
hiđrô 549
nga_châu 548
iaea 548
tầm_vóc 548
phải_chăng 548
cần_@@ 548
càn 548
1,4 548
âm_tính 548
kevin_@@ 548
quốc_oai 548
thập 548
4000 548
tripoli 548
water 548
hiến_@@ 548
phi_hành_gia 547
mai_phục 547
đắt_đỏ 547
thiệp 547
điều_chuyển 547
hôi 547
bao_quát 547
chiêm_@@ 547
note 547
dream@@ 547
cott 547
hột 547
bari 547
rhe@@ 547
sông_hồng 547
thẩm_vấn 547
penang 547
anthony_@@ 547
colombo 547
dra 547
1849 547
canon 546
lễ_tang 546
trong_sạch 546
công_nghệ@@ 546
hải_đăng 546
xăng_dầu 546
recor@@ 546
sức_sống 546
88@@ 546
gáy 546
_dân 546
santos 546
mah 546
người_thường 546
băm 546
thompson 546
dam 546
ạc_@@ 546
sov 546
algeria 546
kuala_lumpur 546
1822 546
tobago 546
._bo@@ 546
_te@@ 545
of_me 545
chanel 545
las_vegas 545
thụ@@ 545
cái_@@ 545
niên_@@ 545
khăn_@@ 545
nguyễn_văn_bình 545
chồi 545
._giới 545
._jo@@ 545
mitsu@@ 545
chưởng_@@ 545
thần_phục 545
rose@@ 545
1835 545
cidae 545
do_thái_giáo 545
can_ngăn 544
minh_hóa_bơi 544
té@@ 544
mobi@@ 544
ral@@ 544
nghệ_@@ 544
sào 544
đầu_lòng 544
assa@@ 544
cửa_biển 544
đặc_hiệu 544
rium 544
board 544
bất_động 544
thái_sư 544
thri@@ 544
ão 544
douglas 544
rom@@ 544
dòng_tên 544
quân_minh 544
doubs 544
tỉnh_táo 543
newcastle 543
tottenham 543
làm_loạn 543
tv_@@ 543
ứa 543
hội_thoại 543
xưa_kia 543
scha@@ 543
giải_vây 543
_hữu_@@ 543
ni-@@ 543
ei 543
ma_sát 543
luyện_kim 543
báng 543
gordon 543
khâm_sứ 543
tropi@@ 543
phi_mã 542
dấu_@@ 542
brah@@ 542
fa_@@ 542
e_ngại 542
thánh_ca 542
sản_@@ 542
giáo_dục_và_đào_tạo 542
tau@@ 542
nhân_bản 542
1847 542
tuyến_đầu 542
isi@@ 542
les-@@ 542
say_xỉn 541
ander@@ 541
hoàn_trả 541
_hồng 541
boli@@ 541
sạc 541
bổng 541
cm@@ 541
phỏng_đoán 541
lễ@@ 541
bộ_não 541
áo_choàng 541
_châu_âu 541
gg@@ 541
kt 541
ving 541
1833 541
nguyên_là 541
ned 541
med@@ 541
maría 541
chryso@@ 541
nguyễn_hoàng_@@ 540
xách 540
tham_vấn 540
ối_@@ 540
thúc_giục 540
ũng 540
155 540
165 540
list 540
lười 540
ance 540
lit 540
oda 540
azi@@ 540
lisa 540
malacca 540
singh 540
bái_@@ 540
teri@@ 540
burn 540
calvin 540
quy_phục 540
aleksandr 540
đại_công_tước 540
ngây_thơ 539
_hải 539
nhà_khoa_học_@@ 539
kháng_@@ 539
kêu_@@ 539
bước_đi 539
vtv 539
nhà_thương 539
huyệt 539
xào 539
rina 539
._màu 539
monaco 539
bry@@ 539
allo@@ 539
cooper 539
woman 539
rừng_núi 538
khiêu_khích 538
lin_@@ 538
huyết_thanh 538
nồng_nhiệt 538
opti@@ 538
hiện_giờ 538
firefox 538
ính 538
emmy 538
chư 538
remix 538
lễ_vật 538
phép_toán 538
rêu 538
quyền_@@ 538
tổng_trấn 538
sta_@@ 538
thụ_phấn 538
rider 538
hòa_ước 538
tokyo_@@ 537
công_nghệ_sinh_học 537
cám 537
module 537
simon_@@ 537
bùa 537
magne@@ 537
fir@@ 537
media_@@ 537
sự_vật 537
lady_@@ 537
whe@@ 537
dân_biểu 537
pero@@ 537
bão_@@ 536
giấc_mơ 536
main 536
ùn 536
ló@@ 536
hd@@ 536
edge 536
bắc_sơn 536
súng_ngắn 536
khuẩn 536
fili@@ 536
watch 536
donald 536
gió_mùa 536
xe_cộ 536
mbu@@ 536
nitrat 536
quý_châu 536
enberg 536
tara 536
maría_@@ 536
nier 536
hảo_tâm 535
19/11 535
eb@@ 535
bánh_chưng 535
har 535
cưa 535
_danh 535
gé@@ 535
tiề@@ 535
tay_@@ 535
sắn 535
én 535
show@@ 535
mario_@@ 535
hùng_biện 535
cele@@ 535
mond@@ 535
cyrus 535
thành_hoàng 535
bra 535
quán_tính 535
rút_gọn 535
nhường_ngôi 535
coo@@ 535
1851 535
giảng_@@ 534
kim_jong-un 534
ĩnh_@@ 534
nhiệt_@@ 534
124 534
bất_thành 534
phối_@@ 534
tù_trưởng 534
._thiết_kế 534
._su@@ 534
pol 534
r.@@ 534
ayutthaya 534
mada@@ 534
chor@@ 534
ngân_khố 534
1836 534
midway 534
vo_@@ 533
ments 533
90@@ 533
áy 533
miss 533
field_@@ 533
sey@@ 533
_thiên_@@ 533
pon 533
china 533
nam_tiến 533
ngai 533
cư_@@ 533
cựu_học_sinh 533
nghỉ_mát 533
capi@@ 533
đô_thị_hóa 533
._nguồn 533
hiro 533
1842 533
virgin 533
brandenburg 533
thebes 533
man_city 532
không_tưởng 532
xa_hoa 532
nguy_kịch 532
bách_@@ 532
thiêng 532
gây_dựng 532
ưu_việt 532
tương_xứng 532
insulin 532
river@@ 532
._nhân 532
than@@ 532
k. 532
philippine 532
gò_công 532
solo@@ 532
công_thức_hóa_học 532
thế_trận 531
lâu_nay 531
tiệp 531
thầm 531
hứng 531
thông_cảm 531
bom_@@ 531
viễn_@@ 531
tation 531
thia 531
thor 531
guil@@ 531
._lý_@@ 531
phân_bộ 531
sự-ký 530
cáo_@@ 530
bào_chữa 530
giăng 530
nôi 530
cùng_@@ 530
mộng_@@ 530
kho_tàng 530
bài_tiết 530
tuyết_@@ 530
yang_@@ 530
hoàng_đ@@ 530
walter_@@ 530
cộng_tác_viên 530
biến_thiên 530
tố@@ 530
grand@@ 530
1814 530
stor@@ 530
yamato 530
mất_ngủ 529
phế_quản 529
cio@@ 529
hăng_hái 529
tay_nghề 529
ng_long 529
mong_ước 529
dion 529
vp@@ 529
_lợi 529
express 529
chức_vụ_phó 529
rommel 529
._cảnh_sát 529
brothers 529
hệ_quy_chiếu 529
comics 529
phó_tế 529
_tỉ 528
dù_sao 528
tiếp_đón 528
vùng_sâu_vùng_xa 528
sán 528
ụ@@ 528
via_@@ 528
ẹp 528
vạc 528
mắm 528
nối_@@ 528
yếu_ớt 528
bb 528
đố@@ 528
ira 528
lympho 528
chủ_ý 528
busan 528
tle@@ 528
._thành_phần 528
ars 528
đặc_công 528
nam_đảo 528
sông_ngòi 528
ques@@ 528
lá_mầm 528
hải_pháo 528
điếu 527
diễn_tập 527
đb 527
mouth 527
máy_phát_điện 527
bửu 527
uyên_@@ 527
tom@@ 527
minh_trị 527
vsk 527
gilbert 527
hard 527
rhine 527
1839 527
bậc_thang 526
ssi 526
cổ_tích 526
casino 526
ùi 526
trúng_@@ 526
nintendo_@@ 526
bảo_lưu 526
chất_nổ 526
phổ_cập 526
ẫm 526
dẫu 526
bil@@ 526
face@@ 526
sl@@ 526
n._@@ 526
rìu 526
bắt_sống 526
1853 526
sting 526
cry@@ 526
á-âu 526
kare 526
corp 525
tạo_lập 525
iết_@@ 525
suôn_sẻ 525
nhỉ 525
đau_lòng 525
lưỡng 525
_chân 525
hu 525
cào 525
rụi 525
hãm_hiếp 525
kiếm_@@ 525
un-@@ 525
định_mệnh 525
giãn_nở 525
chấp 525
cos@@ 525
khối_@@ 525
ferdinand 525
1/4 525
hải_cảng 525
nell 525
1_,_2_,_3 525
universi@@ 525
temp@@ 525
tàn_quân 525
riêng_rẽ 524
vậ@@ 524
hắc_@@ 524
hiện_thời 524
thư_pháp 524
bế@@ 524
first 524
xuất_huyết 524
trĩ 524
hấp 524
chuyên_mục 524
ăn_chay 524
green_@@ 524
khấu 524
chỉnh_@@ 524
bermuda 524
ded 524
pso@@ 524
mike_@@ 524
nhà_tây_sơn 524
nhân_tông 524
habsburg 524
kv 523
ứng_tuyển 523
tại_gia 523
phở 523
áp_bức 523
cki 523
grad 523
max@@ 523
sòng_bạc 523
nội_tâm 523
andy_@@ 523
bạo_hành 523
gold 523
peti@@ 523
._to@@ 523
gandhi 523
hướng_@@ 523
tinh_bột 523
stewart 523
nobita 523
sie 523
đại_từ 523
francisco_@@ 523
kie 523
montenegro 523
phụ_chính 523
amiens 523
nhạc_công 522
khéo 522
chăm_@@ 522
tal_@@ 522
tạ_@@ 522
nhân_danh 522
134 522
liễn 522
casablanca 522
amphi@@ 522
14-@@ 521
hòng 521
khát_khao 521
ngỏ 521
nhan 521
141 521
phân_luồng 521
hee 521
beck 521
phượng_hoàng 521
tiếng_mẹ_đẻ 521
wald 521
fen 521
đông_timor 521
du_thuyền 520
thâu 520
1,8 520
thông_tấn 520
ắm 520
ậm 520
curie 520
tay_đua 520
lucy 520
thách 520
bene@@ 520
alberta 520
basti@@ 520
age 520
aza@@ 520
done 520
diêu_@@ 520
ober@@ 519
5,5 519
tàu_hỏa 519
bv 519
edu@@ 519
lừng_danh 519
hart 519
gaz@@ 519
hồi_hương 519
samurai 519
._mặc_dù 519
uya 519
sio@@ 519
mata@@ 519
quan_viên 519
software 519
oliver 519
phosphate 519
/1/@@ 518
lady_gaga 518
chẵn 518
guinness 518
tê 518
gger 518
._hầu_hết 518
io 518
._p@@ 518
mô-đun 518
gni@@ 518
tiên_đề 518
rơi_lệ 517
tống_tiền 517
pháo_kích 517
ỗ 517
tả_ngạn 517
dẫn_điện 517
đoàn_tụ 517
đèn_@@ 517
xấu_xa 517
việ@@ 517
chry@@ 517
re-@@ 517
nii 517
khai_sáng 517
tuyển_mộ 517
ng_hóa_@@ 517
mos@@ 517
dh@@ 517
national@@ 517
tàu_bay 517
business 516
ổ@@ 516
chia_@@ 516
tổng_doanh_thu 516
tại_nhà 516
xát 516
ngộ_nghĩnh 516
thọ@@ 516
_vị 516
kiểm_lâm 516
chiều_hướng 516
ngạc 516
form 516
từ_@@ 516
costa 516
nhà_tr@@ 516
phát_sáng 516
400.000 516
ee 516
albi@@ 516
holmes 516
lễ_nghi 516
._le@@ 516
flora 516
thập_phân 516
east 516
bohemia 516
tuyển_thủ 515
rim 515
xe_bọc_thép 515
olympic_@@ 515
tex 515
nhan_sắc 515
đi_@@ 515
gò@@ 515
phan_th@@ 515
charlie 515
d_k@@ 515
vương_phi 515
trinh_@@ 515
f.@@ 515
cora@@ 515
violin 515
bá_chủ 515
log@@ 515
sủng_ái 515
động_học 515
rập_@@ 514
100@@ 514
bồ@@ 514
lột_xác 514
_tâm 514
aci@@ 514
nùng 514
trộm_cắp 514
11_@@ 514
dã@@ 514
làm_lễ 514
1600 514
oecd 514
cù_lao 514
thương_nghiệp 514
|@@ 514
._kế_hoạch 514
poi@@ 514
gm 513
api 513
bự 513
hồi_âm 513
chúc_@@ 513
tuyên_giáo 513
biến_chất 513
đấu_@@ 513
đau_buồn 513
master@@ 513
vệ@@ 513
/04/2012 513
instagram 513
cacbo@@ 513
kị 513
thôi_@@ 513
tôn_thờ 513
118@@ 513
ura 513
sư_phụ 513
horn 513
goth 513
microsoft_windows 513
johann_@@ 513
download 512
bp 512
cuộc_@@ 512
nhà_bếp 512
lãnh_vực 512
chế_tác 512
55@@ 512
level 512
lines 512
*_@@ 512
hanh 512
volu@@ 512
_đình_@@ 512
tton 512
ngi 512
n_tây 512
campbell 512
._đáng 512
pradesh 512
._do_@@ 512
shaw 512
lois 512
đánh_bật 511
cape_@@ 511
triển 511
dĩ_nhiên 511
ăn_học 511
cứng_nhắc 511
kính_hiển_vi 511
fred@@ 511
trailer 511
serie_b 511
ey@@ 511
jan_@@ 511
yên_thành 511
anne_@@ 511
vin_@@ 511
jose_@@ 510
cấm_@@ 510
32,@@ 510
dị_nhân 510
hiếu_học 510
chống_chọi 510
chân_tay 510
giác_quan 510
câu_đối 510
mù_chữ 510
não_bộ 510
quan_liêu 510
khoa_học_và_công_nghệ 510
jun 510
trăn 510
tây_hồ 510
chùa_@@ 510
ra-@@ 510
tự_hành 510
ngư@@ 510
công_nương 510
tượng_hình 510
phóng_đại 510
yaku@@ 510
1821 510
sii 510
ji-@@ 510
1857 510
09/@@ 509
sto 509
marcel@@ 509
bồng 509
nguyễn_văn_th@@ 509
lịch@@ 509
152 509
công_tố_viên 509
mủ 509
thao_túng 509
._gần 509
fred 509
150.000 509
cây_cảnh 509
ltd 509
une@@ 509
sna@@ 509
naga 509
_thủ 509
inn 509
nis@@ 508
khủng_hoảng_kinh_tế 508
tường_@@ 508
xoang 508
cộng_đồng_@@ 508
persi@@ 508
benjamin_@@ 508
jac@@ 508
uranium 508
sân_@@ 508
cụ@@ 508
mer_@@ 508
men_@@ 508
._và 508
zel 508
aero@@ 508
christian 508
angel 508
con_thứ 508
ấn-@@ 508
turner 508
florence 508
thánh_giá 508
khởi_sự 508
kị_binh 508
._chu_@@ 508
infor@@ 507
lands 507
marathon 507
thức_uống 507
thực_thụ 507
kids 507
od 507
lay_@@ 507
nhiễu_loạn 507
xà_@@ 507
oai 507
dez 507
tat 507
xuân_lộc 507
giai_thoại 507
vẩy 507
mèo_@@ 507
tex@@ 507
di-@@ 507
cat@@ 507
70.000 507
bân 507
_d'@@ 507
zawa 507
quez 507
2026 507
hung_nô 507
manuel 506
saudi 506
khổ@@ 506
õ@@ 506
quan_họ 506
ngó@@ 506
nội_trợ 506
quýt 506
sir@@ 506
trix 506
cki@@ 506
ọng_@@ 506
4_,_5 506
._đi 506
heidelberg 506
lãnh_đạo_@@ 506
lp 506
trượt_băng 506
basic 506
wat@@ 506
mak@@ 506
melano@@ 506
kle@@ 506
rầm_rộ 505
3-2 505
măng 505
vô_t@@ 505
minh_đức 505
chú_rể 505
phó_tổng_@@ 505
mười_@@ 505
lk 505
mờ_nhạt 505
n_đông 505
pho_mát 505
dệt_may 505
cha_anh 505
chấn_@@ 505
khuếch_tán 505
thị_lực 505
thất_lạc 505
bos 505
số_học 505
male@@ 505
1834 505
giao_chỉ 505
vân_canh 504
tựu_trường 504
_thường 504
sách_đỏ 504
khắc_họa 504
gs. 504
mike 504
i._@@ 504
tổng_hành_dinh 504
trung_kỳ 504
chóp 504
danube 504
munich 503
tân_binh 503
đương_@@ 503
làm_thuê 503
anne@@ 503
biểu_dương 503
di_chúc 503
giờ_địa_phương 503
lí@@ 503
òa_@@ 503
saki 503
danh_tướng 503
oo@@ 503
tiền_tố 503
tây_hạ 503
12/2 502
care@@ 502
elo@@ 502
tty 502
vùng_sâu 502
tật 502
ngưng_tụ 502
uae 502
talk 502
n_lâm 502
ngoài_@@ 502
trại_giam 502
tiền_giấy 502
luca@@ 502
ivano@@ 502
daily_@@ 502
thực_lực 502
tie 502
dir@@ 502
_tướng 502
miên_@@ 502
tổ_@@ 502
2.0@@ 502
đa_dạng_hóa 502
mỹ_latinh 502
orne 502
had 501
ngất_xỉu 501
zzi 501
tự_giác 501
cờ_bạc 501
thủ_đoạn 501
rung_động 501
rain 501
eh@@ 501
sir 501
brooklyn 501
guy 501
pyotr 501
cosmopterigidae 501
dư_@@ 500
usb 500
ề@@ 500
380 500
nhức_nhối 500
pru@@ 500
khiếm_thị 500
nha_khoa 500
ép_@@ 500
nan_@@ 500
wat 500
đường_sá 500
bom_nguyên_tử 500
góc_@@ 500
als 500
tiền_lệ 500
khoái 500
hot@@ 500
cka@@ 500
khô_cằn 500
opi@@ 500
take@@ 500
phân_hạch 500
1845 500
philo@@ 500
toán_tử 500
euler 500
tand 499
ế_th@@ 499
reagan 499
phó_@@ 499
giông 499
hẻo_lánh 499
29.@@ 499
._kiểu 499
cà_@@ 499
charlotte 499
._so@@ 499
last_@@ 499
1855 499
missi@@ 499
cử@@ 499
spears 499
quốc_trưởng 499
chi_cục 498
quyết_đoán 498
thấu 498
xứng 498
stre@@ 498
ut@@ 498
tàn_@@ 498
ple 498
giai_@@ 498
nghèo_nàn 498
lựu 498
bố_cục 498
2.5@@ 498
vỹ 498
tun@@ 498
cận_đông 498
centre-val 498
thâu_tóm 497
lộn_xộn 497
mr_đàm 497
yn@@ 497
chu_th@@ 497
kì_@@ 497
sĩ_@@ 497
ặt 497
reg@@ 497
235 497
bị_động 497
_sy@@ 497
lian 497
mecca 497
biên_niên 497
phi_tần 497
dah 497
ma_cà_rồng 497
bernar@@ 497
bộ_tướng 497
new_caledonia 497
hứng_chịu 496
hat-trick 496
3_triệu 496
khởi_phát 496
văn_tr@@ 496
melo@@ 496
chia_nhỏ 496
tổ_quốc_việt_nam 496
x-men 496
rich@@ 496
đồ_án 496
thôn_@@ 496
vệ_tinh_@@ 496
berg@@ 496
khúc_xạ 496
văn_xuôi 496
alli@@ 496
1852 496
tông_đồ 496
138 495
trí_tưởng_tượng 495
cricket 495
quang_liêm 495
philli@@ 495
thăng_hoa 495
ari 495
up_@@ 495
cap 495
tow@@ 495
zia 495
hoàng_đạo 495
robo@@ 495
phân_lập 495
quận_huyện 495
ara 495
www.@@ 495
nee 495
gur@@ 495
._mười 495
quốc_ngữ 495
m'@@ 495
laris 495
tamil 495
said 494
cv 494
bạo_@@ 494
ận_@@ 494
75@@ 494
trung_thu 494
đường_dẫn 494
xướng 494
portsmouth 494
sk_@@ 494
cruz 494
nhân_công 494
pas 494
hiểm_trở 494
kỹ_nghệ 494
sinh_lý_học 494
ugh 494
lãnh_@@ 494
nao@@ 494
togo 494
take 494
gne 494
động_lượng 494
dona@@ 494
đăk 494
acro@@ 494
formula_4 494
nửa_@@ 493
huệ_@@ 493
thực_đơn 493
yoga 493
rơm 493
xh 493
tay_phải 493
và@@ 493
31,@@ 493
mario 493
h00 493
soft 493
shah 493
glasgow 493
murphy 493
bổ@@ 492
đề_xướng 492
ẹ 492
144 492
46@@ 492
hỏi_thăm 492
bee@@ 492
mở_@@ 492
pô 492
christopher_@@ 492
21@@ 492
res@@ 492
patrick 492
._b@@ 492
thiên_văn_@@ 492
peptide 492
nami 492
tate 491
thưa_thớt 491
rat@@ 491
ling_@@ 491
hoạ 491
gió@@ 491
nhà_nghỉ 491
thỏa_đáng 491
bus@@ 491
inte@@ 491
kelly 491
alan 491
may_@@ 491
new_orleans 491
histo@@ 491
dia_@@ 491
viện_binh 491
er-@@ 491
trung-@@ 491
tranh_đấu 491
wer 491
h._@@ 491
simp@@ 491
peters 491
ling@@ 491
iro 491
sparta 491
tây_bắc_thái_bình_dương 491
steve 490
law 490
global 490
page 490
sa_pa 490
m3 490
trù@@ 490
oka@@ 490
phổ_quát 490
thạ@@ 490
tràng_@@ 490
nebraska 490
bel_@@ 490
victor 490
phia 490
fera 490
lycaenidae 490
hôn_mê 489
nicholas 489
đầu_cơ 489
dội 489
bởi_lẽ 489
testosterone 489
buồng_trứng 489
phin 489
tạp_@@ 489
tty_@@ 489
dự_toán 489
pisa 489
cole@@ 489
1856 489
kry@@ 489
cell 489
james@@ 489
khái_quát 489
marvel 489
._cỡ 489
match 489
over 489
cena 489
thuốc_trừ_sâu 488
som@@ 488
alfred_@@ 488
dầm 488
sụn 488
thu_gom 488
dina@@ 488
càng_ngày_càng 488
n_hồ 488
tam_kỳ 488
family 488
đầu_độc 488
._hiện_nay 488
đan_@@ 488
high 488
tov 488
davis_cup 488
oa 488
bed@@ 488
mers 488
nord 488
linnaeus 488
trịnh_tùng 488
ủng 487
mafia 487
phi_thuyền 487
3/2 487
da_cam 487
anh@@ 487
dầu_thô 487
ẽ@@ 487
dương_cầm 487
mis@@ 487
vik@@ 487
kè 487
bull 487
again 487
nước_rút 487
tóm_lại 487
ụy 487
u.@@ 487
nh_hòa 487
bóc_lột 487
matt_@@ 487
sophi@@ 487
giải_tích 487
trung_âu 487
voldemort 487
city_@@ 486
biết_bao 486
_trọng 486
phóng_sự 486
đâu_đó 486
kura 486
sát_thương 486
mỉm 486
lộng_lẫy 486
lari@@ 486
jason_@@ 486
hemi@@ 486
l.@@ 486
thanh_chương 486
điểu 486
sử_liệu 486
demo 486
copenhagen 486
way@@ 486
western_@@ 486
cci@@ 486
cơ_mật 486
under 486
elip 486
ele 486
cac@@ 486
tiếng_tăm 485
25-@@ 485
132 485
kovsky 485
dragon 485
lệ@@ 485
_ci@@ 485
tiểu_khu 485
cà_rốt 485
champion@@ 485
lừa_dối 485
lord_@@ 485
đầm_@@ 485
mm@@ 485
trôi_chảy 485
phàm 485
far 485
con_thoi 484
cuộc_chơi 484
kiện_tướng 484
xóa_sổ 484
ự@@ 484
nhất_thời 484
kẽ 484
1801 484
đền_@@ 484
vô_sản 484
willi@@ 484
pea@@ 484
aristotle 484
hamburg 484
1824 484
two 484
ban_thưởng 484
khu_ủy 484
tea 484
tita@@ 483
rúng_động 483
eti@@ 483
hs@@ 483
giới_@@ 483
nhà_th@@ 483
fru@@ 483
nhịn 483
tiến_dũng 483
xuyến 483
châ@@ 483
1837 483
cho_đến 483
nbc 483
phó_viện_trưởng 483
chư@@ 483
._chị 483
mang@@ 483
chắt 483
yer@@ 483
l._@@ 483
ghan 483
quer@@ 483
scandinavia 483
bora@@ 483
warszawa 483
mercury 483
gno@@ 483
>>@@ 482
137 482
iệt 482
ật_@@ 482
gom 482
hung@@ 482
ỏ 482
đa_ngành 482
lặp_lại 482
bạ 482
_lực 482
pháp_lệnh 482
palermo 482
thượng_h@@ 482
els 482
hear@@ 482
khử_trùng 482
sicily 482
pher@@ 482
morrison 482
wolf 482
cens 482
stis 482
kid 482
luna 482
đánh_thuế 481
ner_@@ 481
kỹ_thuật_viên 481
bundesliga 481
buồn_bã 481
tích_trữ 481
136 481
deli@@ 481
nội_tại 481
vla@@ 481
idol 481
dòng_@@ 481
chau@@ 481
uý 481
enterprise 481
._chiến_dịch 481
vi_mô 481
old@@ 481
brad@@ 481
đán 481
vĩnh_yên 481
số_thực 481
thụ_phong 481
hautes-pyrénées 481
yes 480
ans@@ 480
quản_thúc 480
phạm_ngọc_@@ 480
8,5 480
hồng_cầu 480
atm 480
class 480
bưu_@@ 480
trưng_@@ 480
bức_@@ 480
nick_@@ 480
pt@@ 480
bang@@ 480
huy_hoàng 480
noãn 480
thiên_hướng 480
mưu_đồ 480
_chương 480
night_@@ 480
azu@@ 480
._sáu 480
manu@@ 480
wayne 480
guy@@ 480
seine 480
ist 480
70@@ 479
ryan_@@ 479
da_màu 479
cho_biết 479
mê_@@ 479
sơn_h@@ 479
tội_@@ 479
phen 479
digi@@ 479
raja@@ 479
chủ_biên 479
an_thần 479
die_@@ 479
_nhạc 479
n.@@ 479
nhóm_@@ 479
rand 479
movie 479
html 479
._phái 479
kingston 479
model_@@ 479
zy 479
ères 479
galileo 479
alu@@ 478
143 478
bối 478
ứ@@ 478
sách_@@ 478
uyển 478
bệnh_dịch 478
dublin 478
vững_@@ 478
phạt_đền 478
banks 478
let@@ 478
esa 478
ath@@ 478
n_lý 478
cá_biệt 478
._suốt 478
key_@@ 478
thiểm_tây 478
music_awards 478
hogwarts 478
tòa_soạn 477
torres 477
castro 477
thương_vụ 477
thuốc_độc 477
cử_động 477
co-@@ 477
00_@@ 477
_hữu 477
thiện_chí 477
dẹp_loạn 477
gates 477
truy_nã 477
style 477
người_đời 477
._chất 477
nhà_kính 477
guar@@ 477
dương_châu 477
caceae 477
rhin@@ 477
vì@@ 476
mát_mẻ 476
chính_sự 476
tươi_sáng 476
bổ_nhào 476
nghiệ@@ 476
lãnh_hải 476
phản_bác 476
ượ@@ 476
ráo 476
thần_tiên 476
tennis 476
mặt_biển 476
gia_phả 476
tức_thời 476
hai_phần_ba 476
._thông_tin 476
mmer 476
tera 476
zoom 476
pound 476
cộng_hòa_xã_hội_chủ_nghĩa_việt_nam 476
23/12 475
bèo 475
quản_@@ 475
chiều_cao 475
ngược_đãi 475
chống_@@ 475
365 475
công_phá 475
ví_như 475
rel 475
trút 475
canh_gác 475
._viện 475
199@@ 475
_khí 475
free 475
phili@@ 475
bit@@ 475
heli 475
lc 475
gie 475
lea 475
khuông 475
ché@@ 475
mide 475
ai_cập_học 475
6/2 474
ơi_@@ 474
bali 474
gó@@ 474
ryan 474
cảnh_tượng 474
trôi_dạt 474
gian_hàng 474
_thành_@@ 474
diêm 474
lồng_ghép 474
bee 474
sio 474
tuy_@@ 474
phá@@ 474
văn_thành 474
chày 474
dung_nham 474
thể_@@ 474
sa-@@ 474
._ð@@ 474
old_@@ 474
._bảng 474
trung_quân 474
tak@@ 474
theri@@ 474
ane@@ 474
ật 473
vietnam's 473
trung_hòa 473
cầu_vồng 473
nhộn_nhịp 473
khổng_@@ 473
mitchell 473
mpe@@ 473
praha 473
sc@@ 473
dẫn_@@ 473
rey@@ 473
an_huy 473
răng_cưa 473
edo 473
rubi@@ 473
sénégal 473
cận_cảnh 472
chặn_đứng 472
nguyễn_thành_@@ 472
kình_địch 472
cổ_vật 472
hai_bà_trưng 472
_league_@@ 472
hoa@@ 472
ld_@@ 472
bao_cao_su 472
hoàng_hôn 472
ngô_t@@ 472
hưng_thịnh 472
bóng_bàn 472
ngà_voi 472
_hộ 472
musi@@ 472
wild@@ 472
tella 472
ón_@@ 471
nguy@@ 471
huy_@@ 471
thoát_@@ 471
tx 471
ụi 471
sự@@ 471
lãng_quên 471
sten 471
7-8 471
hương_sơn 471
sóng_@@ 471
họ@@ 471
câu_đố 471
đông_nam_bộ 471
junior 471
n_tự 471
._thứ 471
franco 471
aleppo 471
teaser 471
sofia 471
xôi 470
khẩn 470
moo@@ 470
chấp_@@ 470
lẫn_lộn 470
thương_mại_điện_tử 470
thô_sơ 470
am_hiểu 470
trình_diện 470
bbi@@ 470
thuyết_@@ 470
rè@@ 470
sever@@ 470
cộng_sinh 470
gho@@ 470
manda@@ 470
_sou@@ 470
trung_du 470
empire 470
yak-@@ 470
chế_độ_độc_tài 470
zzo 470
du-@@ 470
hàm_ý 469
ila 469
ultra@@ 469
bất_chấp_sự 469
hóa_ra 469
ảo_thuật 469
thuận_an 469
antonio 469
àng_@@ 469
right 469
._g@@ 469
aya@@ 469
nhiễm_@@ 469
sùng_bái 469
nile 469
philippe 469
biểu_mô 469
tony 469
cần_vương 469
thanh_h@@ 468
phả 468
nguyễn_trọng_@@ 468
lương_tâm 468
zan 468
oce@@ 468
sơ_thẩm 468
_tử@@ 468
tâ@@ 468
ổi_@@ 468
pink 468
movi@@ 468
tyl 468
simpson 468
thọ_@@ 468
chu_vi 468
eminem 468
u-17 468
nhát 467
ngọc_trai 467
úy_@@ 467
dul@@ 467
đống_đa 467
mận 467
bài_văn 467
016@@ 467
yếu_đuối 467
múi_giờ 467
siêu_sao 467
ngừa 467
bảo_lãnh 467
trách_@@ 467
belize 467
pleiku 467
18-@@ 467
._' 467
~ 467
ký_tên 467
zar 467
bảy_@@ 467
mod 467
ave@@ 467
phúc_khảo 467
1804 467
rou 467
grdp 467
anura 467
19/2 466
mercedes 466
chật_vật 466
3g 466
nó@@ 466
tán_dương 466
ẻ 466
phong_thủy 466
lord 466
rom 466
_lâm 466
luis_@@ 466
_vo@@ 466
maldives 466
thạch_anh 466
boa 466
địa_tầng 466
châu_phi_@@ 466
pháp_thuật 466
._do@@ 466
kom@@ 466
bãi_chức 466
hung_@@ 465
mikhail_@@ 465
chống_đỡ 465
song@@ 465
nem 465
nguyễn_vă@@ 465
lie_@@ 465
nhà_hóa_học 465
ie 465
aqui@@ 465
thừa_thiên_huế 465
láng 465
carl@@ 465
uro 465
tland 465
hot_@@ 465
chức_sắc 465
rico 465
đế_@@ 465
platy@@ 465
thăng_chức 464
việt-@@ 464
chân_thực 464
lưu_trú 464
gaza 464
ow@@ 464
1700 464
pas@@ 464
silic 464
central 464
hổ_@@ 464
bad_@@ 464
hợp_lưu 464
fus@@ 464
rush 464
eth 464
vali@@ 464
naples 464
nheim 464
good_@@ 464
bắc_carolina 464
florua 464
lập_thể 464
khoét 463
new_york_@@ 463
ub 463
trốn_tránh 463
08/@@ 463
ngày_hội 463
đăng_kí 463
trò@@ 463
lặ@@ 463
rán 463
cậ@@ 463
tiếc_nuối 463
chồng_chéo 463
ắ@@ 463
phả@@ 463
xã_@@ 463
săn_lùng 463
jessica 463
when 463
muội 463
mập 463
bút_chì 463
jesus 463
ậy 463
cast 463
gener@@ 463
cai@@ 463
tây_úc 463
ngham 463
heim 463
]_[ 463
daryl 463
êm 462
derby 462
lê_văn_luyện 462
thần_kỳ 462
bội_@@ 462
phong_bì 462
iệu_@@ 462
suy_tàn 462
jo_@@ 462
samuel_@@ 462
._cháu 462
ivan_@@ 462
code@@ 462
phân_hiệu 462
roman 462
magazine 462
vòng_cung 462
magiê 462
chống_tăng 462
madi@@ 462
stal 462
nồi_hơi 462
1843 462
phá_@@ 461
ngoại_tệ 461
quả_bóng_vàng 461
vùng_xa 461
http://@@ 461
suy_ngẫm 461
mai_táng 461
tinh_dầu 461
chiểu 461
út_@@ 461
thể_xác 461
lơ_lửng 461
khá_giả 461
lâm_bệnh 461
tây_an 461
hiệu_chỉnh 461
_trung_@@ 461
._thực_tế 461
2.6@@ 461
garden 461
fast 461
avengers 461
paris_@@ 461
lực_@@ 461
nho_học 461
minh_đế 461
silesia 461
geometridae 461
wwe_@@ 461
eniwetok 461
iếu_@@ 460
navi@@ 460
vô_nghĩa 460
yế@@ 460
thuế_@@ 460
ore 460
8/8 460
ọc_@@ 460
d1 460
japan 460
su_@@ 460
ẻ_@@ 460
hung_hăng 460
idaho 460
burundi 460
khoa_học_xã_hội 460
chuyên_quyền 460
lê_trung_hưng 460
mind 460
lation 460
1825 460
calcio 460
rặng 459
2d 459
bert_@@ 459
mas_@@ 459
bài_ca 459
a4 459
civi@@ 459
âm_hưởng 459
huyết_tương 459
thủy_văn 459
christina 459
console 459
oi 458
lợi_@@ 458
tố_chất 458
44@@ 458
vi_hiến 458
meh@@ 458
thế_chấp 458
thu_giữ 458
lơ 458
đông_lạnh 458
_lương 458
liên_tưởng 458
giấm 458
ballet 458
ham_@@ 458
bóng_chày 458
trường_thành 458
anna@@ 458
maka@@ 458
_đổi 458
trao_trả 458
tu_hành 458
mare 458
ily@@ 458
._sư 458
xan@@ 458
hotep 458
lữ_hành 457
all@@ 457
vòng_tay 457
đông_y 457
tạ_ơn 457
thai_nhi 457
thất_thoát 457
àu 457
nacional 457
dio_@@ 457
sắc_thái 457
thỉnh 457
ken_@@ 457
esta@@ 457
khởi_điểm 457
quan_thoại 457
phương_pháp_học 457
cula 457
hội_họp 457
command 457
tân_thế_giới 457
giám_định 456
sức_lực 456
phất 456
trung_tâm_@@ 456
/10 456
737 456
vượt_bậc 456
ẫy 456
novo@@ 456
hiện_thân 456
iq 456
ừa_@@ 456
chà_@@ 456
sáng_suốt 456
đố 456
eto@@ 456
swe@@ 456
polymer 456
money 456
dela@@ 456
đông_anh 456
._việt_nam 456
._giá 456
art_@@ 456
._nằm 456
._quốc_hội 456
pit@@ 456
tằm 456
hat 456
cao_tổ 456
vàng_bạc 455
9/1 455
nancy 455
giai_nhân 455
99,@@ 455
kinh_tế_học 455
tm 455
iếm 455
miễn_thuế 455
moon_@@ 455
phát_điện 455
mây_@@ 455
lò_xo 455
get_@@ 455
hình_trụ 455
mao_@@ 455
goku 455
grego@@ 455
panther 455
sultan_@@ 455
cô_gái 454
cục_@@ 454
04@@ 454
oslo 454
phim_@@ 454
gay 454
tràn_đầy 454
ể_@@ 454
1200 454
tiêu_hủy 454
oán 454
explorer 454
android_@@ 454
jacob 454
._hội 454
._mặt 454
192 454
broad@@ 454
oki@@ 454
yon@@ 454
xvi@@ 454
stephen 454
đại_sảnh 454
thời_khắc 453
trật 453
cô_@@ 453
ena_@@ 453
bền_bỉ 453
lana 453
phồng 453
bruce 453
biện_minh 453
đẹp_trai 453
hy_@@ 453
buv 453
lông_@@ 453
142 453
tama@@ 453
xước 453
_chất 453
montreal 453
phò 453
lò@@ 453
beat@@ 453
cang 453
ths 453
ros@@ 453
salva@@ 453
trung_đoàn_bộ_binh 453
giao_tử 453
tống_giang 453
la_loire 453
ker_@@ 452
thu_mua 452
78@@ 452
milano 452
khóa_@@ 452
university_@@ 452
ướng 452
nhiệm_@@ 452
sổ_sách 452
fr 452
._kỹ_thuật 452
mr._@@ 452
ppe 452
250.000 452
oka 452
2023 452
bara 452
gari@@ 452
africa 452
coronavirus 452
pháo_thủ 451
pháo_@@ 451
kyo@@ 451
225 451
2_triệu 451
ý_thức_hệ 451
đôi_chút 451
mex 451
fall 451
_tele@@ 451
khâm_@@ 451
thường_tín 451
uss_@@ 451
xanh_dương 451
._tàu 451
electro@@ 451
thị_chính 451
meni@@ 451
ena@@ 451
daw@@ 451
story 451
corona 451
deca@@ 451
acan@@ 451
tower 450
sea_@@ 450
mật_ong 450
iề@@ 450
thâm_hụt 450
rich 450
trắc_@@ 450
54@@ 450
hoành_hành 450
117@@ 450
đồ_ăn 450
phủ_quyết 450
giảng_hòa 450
đại_bản_doanh 450
phạn 450
cốt_cán 450
biểu_lộ 450
champ@@ 450
jose 450
monroe 450
ivan 450
switch 450
308 450
sumer 450
chính_kịch 450
tài_giỏi 449
basel 449
giúp_ích 449
ền_@@ 449
lạch 449
api@@ 449
biệt_động 449
._ngành 449
billy_@@ 449
cầu_lông 449
mika@@ 449
lay@@ 449
nhĩ_kỳ 449
nọc_độc 449
digital 449
dino 449
dorf 449
1792 449
nhũ_danh_@@ 449
fabi@@ 448
5-6 448
lyo@@ 448
phán_đoán 448
loan_báo 448
iwa@@ 448
tam_điệp 448
khó@@ 448
bán_dâm 448
khoai 448
cần_sa 448
quan_ngại 448
ese 448
nhím 448
pos 448
mbar 448
place 448
cụm_từ 448
ring@@ 448
dallas 448
foot 448
bốn_mươi 448
bor 448
leni@@ 448
công_xã 448
kiểu_hình 448
dwi@@ 448
đăng_dung 448
cyto@@ 448
conan 448
ánh_xạ 448
hữu_ngạn 448
psis 448
đổng_trác 448
phi_đoàn 448
starcraft 448
bia_@@ 447
_spor@@ 447
ỏng 447
thọ_xuân 447
vine 447
giỗ 447
phượng_@@ 447
hiệu_@@ 447
ameri@@ 447
thực_tại 447
vùi 447
-19 447
madison 447
qi@@ 447
thin@@ 447
cơ_quan_hành_chính 447
xuất_nhập_khẩu 447
129 447
vene@@ 447
._nhằm 447
thuế_quan 447
skaya 447
deu@@ 447
trung_hoa_@@ 447
dni@@ 447
linda 447
1758 447
aude 447
gary_@@ 446
spa 446
cornell 446
hiểm_nghèo 446
n_tho@@ 446
tiềm_lực 446
xem_lại 446
khái 446
lê_văn_h@@ 446
conne@@ 446
né 446
hon@@ 446
eric 446
dụ@@ 446
rion 446
gaon 446
tta_@@ 446
don't_@@ 446
tuần_phủ 446
iii_@@ 446
sabah 446
dordogne 446
sso 445
sặc_sỡ 445
ggs 445
bạch_tuộc 445
ams 445
lg 445
con_chuột 445
international@@ 445
phạm_đình_@@ 445
dịch_giả 445
đồ_@@ 445
tự_kỷ 445
kiên_định 445
buta@@ 445
kiệt_tác 445
beat 445
tas@@ 445
u-boat 445
say@@ 444
trần_đình_@@ 444
thuận_thành 444
trong_@@ 444
caracas 444
vicen@@ 444
nách 444
bích_@@ 444
ồi 444
phiêu_@@ 444
công_đức 444
121 444
ma_quỷ 444
2.7@@ 444
hòn_đảo 444
đồ_đồng 444
một_trăm 444
toàn_quân 444
hito 444
binh_mã 444
dark@@ 444
thực_lục 444
cao_ly 444
-sur-@@ 444
nguy_hại 443
tháp_tùng 443
33,@@ 443
dp 443
thua_lỗ 443
bốc_hơi 443
kus@@ 443
ès 443
đẹp_đẽ 443
thiên_vị 443
lg@@ 443
lưu_tr@@ 443
nhổ 443
thức_tỉnh 443
st-@@ 443
tiếng_ồn 443
._kỳ 443
wyoming 443
rama@@ 443
38.@@ 443
._ko@@ 443
động_dục 443
philipin 443
1844 443
beckham 442
hp 442
49@@ 442
290 442
phòng_dịch 442
ole@@ 442
work 442
mò 442
sle@@ 442
thành_thái 442
brian 442
uông 442
uỷ_ban_nhân_dân 442
hiề@@ 442
_tra@@ 442
niêm_mạc 442
rangers 442
yết 442
tỳ 442
vision_@@ 442
hudson 442
crete 442
mode 442
sai_số 442
pay@@ 442
kilômét 442
ðảng 442
chúa_trịnh 442
nale 442
vô_thần 442
franci@@ 442
rosa 442
zation 442
pyrros 442
ị_tr@@ 441
lột 441
kín_đáo 441
bình_tân 441
vũ_h@@ 441
ì_@@ 441
luậ@@ 441
trường_chinh 441
chân_vịt 441
giác_@@ 441
tụ_họp 441
đom_đóm 441
._biết 441
dea@@ 441
kevin 441
tsk 441
._lá 441
thẩm_thấu 441
học_khóa 441
dean 441
samu@@ 441
ein@@ 441
methyl@@ 441
order 440
giá_bán 440
khát 440
đản 440
tình_bạn 440
compa@@ 440
thị_th@@ 440
netflix 440
mart 440
xê@@ 440
con_rể 440
đổng_@@ 440
tris 440
co_thắt 440
lib@@ 440
reu@@ 440
vô_tính 440
._al@@ 440
rica 440
tơ_lụa 440
dylan 440
sarah_@@ 440
lio 440
vòi_@@ 439
niêm_phong 439
_đình 439
205 439
ăn_theo 439
phan_h@@ 439
trí@@ 439
nhỏ_@@ 439
né_tránh 439
rẻ_tiền 439
miya@@ 439
_tội 439
thái_sơn 439
vững_mạnh 439
._thành_công 439
cardi@@ 439
bei@@ 439
top_@@ 439
ille 439
bts 439
mig-21 439
who@@ 439
weber 439
playstation_@@ 439
rudol@@ 439
n_đức 439
pô@@ 439
<_br 439
biể@@ 438
triệu_đô 438
yến_@@ 438
baba 438
eth@@ 438
hồi_tưởng 438
kéo_@@ 438
alexander@@ 438
come 438
wiki@@ 438
tium 438
phora 438
polynesia 438
sa_sút 437
hir@@ 437
til@@ 437
vđ@@ 437
tản_@@ 437
tiềm_tàng 437
băng_giá 437
đơ@@ 437
_thủy 437
_đại 437
khố 437
tinh_tinh 437
._lúc 437
yl@@ 437
_chi 437
octa@@ 437
general 437
._thị_trấn 437
mare@@ 437
u-23 437
chưng_cất 437
dic@@ 437
giác_ngộ 437
champa 437
nova_scotia 437
lus_@@ 437
formula_5 437
đông_ấn 437
haute-saône 437
ưu_ái 436
tâm_điểm 436
tụ@@ 436
nguy_@@ 436
block 436
diva 436
pixar 436
luận_điểm 436
đổ_vỡ 436
trại_@@ 436
chao 436
bloo@@ 436
_du 436
ces_@@ 436
thính 436
chari@@ 436
bố_@@ 436
white_@@ 436
dẹt 436
._ki@@ 436
ựa 436
bag@@ 436
hộ_@@ 436
ba-@@ 436
thea@@ 436
baro@@ 436
aux 436
dge@@ 436
manus 436
scythia 436
strabomantidae 436
zing 435
rắc 435
loay_hoay 435
photoshop 435
cứu_giúp 435
_tính 435
hữu_dụng 435
mùa_màng 435
khét_tiếng 435
bt 435
mau_chóng 435
1,1 435
146 435
tân_tiến 435
ta-@@ 435
đảng_cộng_sản 435
vượn 435
jaya@@ 435
quân_dân 435
trini@@ 435
sts 435
dãy_núi 435
stream 435
reli@@ 435
beth 435
quốc_hiệu 435
sherman 435
ncov 435
alternative 435
tư_tế 435
154 434
thiêu_đốt 434
phnom_penh 434
chịu_khó 434
pc@@ 434
chửi 434
girls_aloud 434
cuố@@ 434
try@@ 434
saigon 434
mậu_thân 434
ìn 434
trần_tr@@ 434
ế_t@@ 434
bừa_bãi 434
điều_hành_@@ 434
sấy 434
nhãn_@@ 434
phụ_tùng 434
xua 434
nguyễn_khắc_@@ 434
bằng_lòng 434
bí_danh 434
._lu@@ 434
thương_mại_@@ 434
tani 434
fisher 434
._ni@@ 434
ride 434
thềm_lục_địa 434
tuyên_án 434
tân_châu 434
illi@@ 434
ette 434
graphi@@ 434
rac@@ 434
ptera 434
everton 433
bank@@ 433
cất_giữ 433
trạm_@@ 433
tự_trọng 433
md@@ 433
ỡ 433
tiếng_vang 433
ẩn_dụ 433
mith 433
pear@@ 433
hùng_hậu 433
liễu_@@ 433
biên_đạo 433
xiên 433
abu@@ 433
tùy_ý 433
ceci@@ 433
đào_ngũ 433
evans 433
đệ_tứ 433
._he@@ 433
von@@ 433
caine 433
nau 433
xưng_đế 433
dreadnought 433
302 432
vạ 432
béo_phì 432
11/2011 432
n_long 432
ghe 432
lẽ_ra 432
ùm 432
n_hậu 432
nữ_tính 432
liêu_ninh 432
tan_tác 432
119 432
dép 432
jerry 432
quát 432
lữ_@@ 432
player 432
dong@@ 432
sông_mã 432
._quả 432
hốt 432
thân_chinh 432
trea@@ 432
animation 432
._hiệp_hội 432
map 432
qa 432
tesla 432
jah 432
salamanca 431
rod@@ 431
rooney 431
nhiễm_khuẩn 431
ặng 431
tưởng_chừng 431
găng_tay 431
hồn_nhiên 431
sos 431
davi@@ 431
hộ@@ 431
ba_vì 431
hindu 431
break 431
google@@ 431
tình_thương 431
bác_@@ 431
hoa_mai 431
miễn_nhiệm 431
liên_đội 431
hán_việt 431
cius 431
thủ_dầu_một 431
enri@@ 431
tri_phủ 431
dana 431
ller 431
undertaker 431
26/12 430
thặng_dư 430
ng_hà 430
mưu_sinh 430
giỏ 430
quân_phục 430
bù@@ 430
review 430
mekong 430
kỳ_dị 430
_thông 430
tec 430
carbo@@ 430
af 430
life_@@ 430
zam@@ 430
fair 430
kiêu_ngạo 430
khước 430
richard@@ 430
nghiêm_cấm 430
julia 430
thias 430
trâu_bò 430
isi 430
graham 430
._cha_ông 430
1790 430
ann 430
productions 430
răng_cửa 430
songs 430
wars 430
1775 430
ngoại_hối 429
sbs 429
hành_hung 429
big_bang 429
gầy 429
thị_h@@ 429
cậy 429
_tự 429
xoa_dịu 429
nêm 429
đầu_óc 429
thương_tiếc 429
ce_s@@ 429
rhi@@ 429
journal 429
hình_tam_giác 429
định_tuyến 429
qđ-b@@ 429
hiệp_thương 429
hạ_sĩ_quan 429
thiếu_lâm 429
tây_đức 429
mũi_nhọn 428
850 428
trên_dưới 428
bọ_cạp 428
dị_tật 428
y_bác_sĩ 428
bị_can 428
kinh_nguyệt 428
ty_thể 428
yeltsin 428
hoảng 428
thomas@@ 428
thư@@ 428
rẫy 428
._sản_phẩm 428
đầu_cuối 428
._bố 428
_học 428
shor@@ 428
gaulle 428
tôn_thất 428
bình_xuyên 428
phò_mã 428
hoa_màu 427
nhấn_chìm 427
falko_goetz 427
tai_họa 427
hiện_trạng 427
đương 427
cke@@ 427
ice 427
ppi@@ 427
luật_hình_sự 427
jai@@ 427
địa_vật_lý 427
warner_bros 427
columbus 427
ux 427
friends 427
had@@ 427
truman 427
isabella 427
aguilera 427
lombar@@ 427
oricon 427
trotsky 427
antonius 427
micro 426
ad_@@ 426
palace 426
whit@@ 426
phần_đông 426
pg@@ 426
máy_vi_tính 426
âm_dương 426
work@@ 426
gp@@ 426
700@@ 426
dược_@@ 426
bó@@ 426
bắc_nam 426
biệt_lập 426
trợ@@ 426
haya@@ 426
cộng_hòa_xã_hội_chủ_nghĩa_xô_viết 426
khuyến_mãi 425
ẵm 425
fernando_@@ 425
bò_tót 425
trầ@@ 425
hoa_khôi 425
mắc_lỗi 425
ỹ@@ 425
vấn_nạn 425
05/@@ 425
hò 425
mụn 425
vệ_sĩ 425
cất_@@ 425
berna@@ 425
hậu_phương 425
hiế@@ 425
seri 425
popu@@ 425
grace 425
tribu@@ 425
bristol 425
sten@@ 425
niên_thiếu 425
nvcc 425
gawa 425
yorkshire 425
go-@@ 425
eum 425
chiếm_cứ 425
bồ_@@ 424
để_dành 424
người_máy 424
tình_ca 424
mắt_@@ 424
dây_thanh_quản 424
gọn_gàng 424
sâu_@@ 424
thí@@ 424
giường_bệnh 424
thoa 424
her 424
đánh_lừa 424
hen 424
do_dự 424
_đức_@@ 424
diesel 424
tầng_hầm 424
răn 424
yểm_hộ 424
istanbul 424
._vai 424
cứu_quốc 424
cảm_tử 424
lê_dương 424
phó_vương 424
bỗng_dưng 423
hori@@ 423
cay_đắng 423
tai_tiếng 423
nguyễn_quốc_@@ 423
3/2012 423
phạm_văn_đồng 423
khốn_khổ 423
]_]_@@ 423
volga 423
sự_biến 423
thần_dân 423
fernan@@ 423
răng_hàm 423
lý_lịch 423
phá_bỏ 423
_thiên 423
ngập_lụt 423
dic 423
sách_báo 423
homs 423
trần_đ@@ 423
fletcher 423
secu@@ 423
hide@@ 423
ám_@@ 423
malay@@ 423
v._@@ 423
mạn_tính 423
os_@@ 423
bưu 423
ng_hòa 423
thạch@@ 423
cham 423
động_năng 423
rena@@ 423
xuất_gia 423
gio_@@ 423
lim@@ 423
night@@ 423
vũ_vương 423
nk 422
sonic 422
lưu_th@@ 422
kìm 422
fighter 422
sóc_sơn 422
rừng_@@ 422
tw@@ 422
cánh_hữu 422
._đề 422
xide 422
ado@@ 422
1788 422
maxwell 422
ries 422
era@@ 422
sihanouk 422
dằn_mặt 421
institute 421
hãm_hại 421
thua_kém 421
1805 421
chuy@@ 421
ữu 421
im_@@ 421
brussels 421
hợi 421
nguyễn_ái_quốc 421
iro@@ 421
uyền 421
kiri@@ 421
wu 421
_độ 421
bryan 421
hunter 421
antio@@ 421
el_salvador 421
._it 421
gambia 421
ả-rập_xê-út 420
đà@@ 420
sờ 420
hình_như 420
trước_@@ 420
suy_tim 420
_ký 420
văn_đức 420
atp_@@ 420
ý_niệm 420
q. 420
lưỡi_liềm 420
vol 420
mpa 420
hari@@ 420
concerto 420
hebrew 420
thông_hiểu 420
ib 420
main@@ 420
không-@@ 420
dou 420
rell 420
lex 420
thủy_phân 420
gib@@ 420
ques 420
jaco@@ 420
bạch_huyết 420
5512 420
niaceae 420
world_tour 420
muban 420
ác_mộng 419
đan_xen 419
chĩa 419
gt 419
thăm_hỏi 419
kĩ 419
vâng 419
6-7 419
mương 419
sound@@ 419
đắk_@@ 419
alba@@ 419
phán_xét 419
v.@@ 419
acoustic 419
cấp_ủy 419
phân_phát 419
kinh_tế-xã 419
yasu@@ 419
minu@@ 419
._môn 419
_ser@@ 419
ổ_đĩa 419
khoa_thi 419
bazan 419
việt_trì 418
thương_yêu 418
giấy_báo 418
lắk 418
lâu_@@ 418
ban_bố 418
quăng 418
vò 418
savi@@ 418
xén 418
cách_điệu 418
gala 418
tổng_quan 418
xách_tay 418
tại_vị 418
warren 418
dog 418
pot 418
1813 418
film_@@ 418
1823 418
machi@@ 418
mam@@ 418
._re@@ 418
bari@@ 418
7/2021 418
ase 418
mục_vụ 418
manchester_city 417
ngay_@@ 417
blu-ray 417
quo@@ 417
bỏ@@ 417
viking 417
ts. 417
di_vật 417
khai_hoang 417
văn_công 417
studios 417
nana 417
gne@@ 417
sóng_gió 416
agu@@ 416
bỏ_@@ 416
1-3 416
đập_@@ 416
lor 416
đại_đồng 416
131 416
cao_lớn 416
triệu_phú 416
sở_tại 416
marc_@@ 416
lý_trí 416
tọa 416
ain@@ 416
vius 416
57@@ 416
chiến_tuyến 416
ffe@@ 416
mov 416
physi@@ 416
then@@ 416
rugby 416
rhône 416
mum 416
ốp 415
_lăng 415
four 415
11/1 415
khuyến 415
chữ_thập_đỏ 415
astro@@ 415
nguyễn_hồng_@@ 415
ping 415
ạy 415
_song 415
s_k@@ 415
vina 415
suy_dinh_dưỡng 415
uốn_cong 415
swan@@ 415
cưỡng_hiếp 415
hết_lòng 415
khuyên_@@ 415
_hưng 415
ence_@@ 415
kỳ_sơn 415
sông_cầu 415
roy@@ 415
ian_@@ 415
nya@@ 415
spin@@ 415
economi@@ 415
tuần_tự 415
nhạn 415
tia_gamma 415
vier 415
tiểu_th@@ 415
kitô 415
leuco@@ 415
dơi_muỗi 415
wenger 414
lt 414
133 414
choáng 414
cúm_a 414
trăng_@@ 414
xác_@@ 414
phòng_bệnh 414
súp 414
cứng_@@ 414
quán_triệt 414
donald_trump 414
biên_cương 414
bob_@@ 414
bình_chánh 414
_hợp 414
ởm 414
chri@@ 414
tiếu 414
cami@@ 414
chữ_quốc_ngữ 414
cấu 414
đánh_thắng 414
đối_nghịch 414
asen 414
kilo@@ 414
hựu 414
thủy_lực 414
nairobi 414
._trần_@@ 414
mae@@ 414
19-8 413
đãi_ngộ 413
mô-@@ 413
fax 413
open_@@ 413
phillips 413
148 413
ợp 413
tiền_đồn 413
shakespeare 413
homo 413
trội 413
nhầy 413
kết_tủa 413
tte_@@ 413
anthony 413
let_@@ 413
lepto@@ 413
1772 413
hpa 413
cầ@@ 412
ũy 412
vpf 412
cắp 412
bình_phương 412
208 412
lê_duy@@ 412
chơi_lễ 412
đánh_bạc 412
rạn_nứt 412
glen@@ 412
thăng_bằng 412
napo@@ 412
1_,@@ 412
gian_khổ 412
đầm_phá 412
không_trung 412
nới 412
1829 412
four@@ 412
make 412
kế_sách 412
ống_khói 412
_trị 412
tọa_đàm 412
147 412
185 412
củ_chi 412
đê@@ 412
>@@ 412
ate@@ 412
chữ_thập 412
feder@@ 412
tháng_tám 412
to-@@ 412
nagasaki 412
binh_biến 412
._đuôi 412
kharkov 412
hậu_tố 412
meyer 412
hòa_hảo 412
nghị_viên 412
mation 411
/12/2011 411
đầu_sách 411
miệt_mài 411
31/1 411
thám 411
như_ý 411
bã@@ 411
ẩu 411
tiếng_động 411
ện 411
tâm_tư 411
dai_dẳng 411
gh_@@ 411
người_hầu 411
2,3 411
17-@@ 411
rano 411
65@@ 411
pai@@ 411
quang_minh 411
ina@@ 411
yun 411
pani@@ 411
mea 411
sch 411
194@@ 411
della 411
ów 411
nhái 410
khai_hỏa 410
al-qaeda 410
jonathan_@@ 410
ăn_chơi 410
chen_@@ 410
340 410
mỏ@@ 410
alexi@@ 410
lê_tr@@ 410
giá_@@ 410
ựu 410
rạch_@@ 410
ca_dao 410
tận_cùng 410
lh@@ 410
che_chắn 410
xấu_xí 410
ngôn_từ 410
thới 410
michi@@ 410
ển 410
168 410
sil 410
phụng_sự 410
đông_hán 410
thiệ@@ 410
computer 410
trọng_thể 410
dg@@ 410
punjab 410
cts 410
fide 410
shari@@ 410
kinh_sư 410
chó_săn 410
._dương_@@ 410
bius 410
vnch 410
mobifone 409
đại_hội_đảng_cộng_sản 409
bạch_mai 409
hồng_ngọc_celine_dion 409
huynh_đệ 409
phú_mỹ 409
chơi_đùa 409
32@@ 409
diễn_châu 409
ruby 409
nông_lâm 409
rex 409
vữa 409
eva@@ 409
._xét 409
ày 409
đà_@@ 409
bất_biến 409
_de 409
salo@@ 409
she 409
sui@@ 409
tae 409
lệnh_@@ 409
iucn 409
chim_cánh 409
mission 409
triều_thần 409
pie 409
1819 409
gnu 409
nq-ubtvqh14 409
nã 408
bhu@@ 408
mẻ 408
gps 408
long_thành 408
ghen 408
gánh_chịu 408
bất_đắc_dĩ 408
nao 408
vung 408
làng_@@ 408
hoàng_văn_@@ 408
canada_@@ 408
hoang_@@ 408
tùy_tùng 408
hiện_@@ 408
chú@@ 408
lê_duẩn 408
căm_ghét 408
trí_@@ 408
.._@@ 408
christ@@ 408
pale@@ 408
gis 408
chất_khí 408
._louis 408
giám_hộ 408
ernest_@@ 408
thal 408
geno@@ 408
macarthur 408
origi@@ 408
moro@@ 408
xa_cách 407
gi_@@ 407
barbados 407
sắm 407
vũ_điệu 407
ww@@ 407
195 407
5/9 407
bot@@ 407
hụt 407
tầm_thường 407
thi_thử 407
wang_@@ 407
hàm_nghi 407
480 407
mccain 407
wolf@@ 407
chang@@ 407
inca 407
casting 407
._bằng 407
trung_đại 407
neutrino 407
iềng 407
communi@@ 407
malay 407
chất_hữu_cơ 407
sey_@@ 407
management 407
._game 407
đổi_hướng 407
tata 407
liti 407
giao_châu 407
sela@@ 407
hora@@ 407
bluetooth 406
hưng_phấn 406
tồn_@@ 406
bề_@@ 406
quang_h@@ 406
chung_chung 406
cá_nóc 406
bồng_@@ 406
chum 406
thoái_@@ 406
seychelles 406
exi@@ 406
._lý_do 406
soát 406
language 406
vũ_tr@@ 406
3.500 406
học_chính 406
35.@@ 406
khoa_học_chính_trị 406
sấm 406
ubi@@ 406
's_s@@ 406
bất_hòa 406
bạch_th@@ 406
game_@@ 406
văn_bia 406
_sư 406
quân_bị 406
aragon 406
town_@@ 406
1776 406
1807 406
sinh_mạng 405
unda@@ 405
kim_anh 405
vặn 405
hội_đồng_nhà_nước 405
đâm_@@ 405
res_@@ 405
2012_@@ 405
202 405
lửa_đạn_đạo 405
thốt 405
ngọc_anh 405
thục_@@ 405
thành_long 405
bạt_@@ 405
nham_@@ 405
xa_lánh 405
zho@@ 405
gửi_gắm 405
coro@@ 405
35.000 405
tôn_sùng 405
plan 405
giao_phó 405
danh_nhân 405
yat 405
ctor_@@ 405
nhu_yếu_phẩm 405
._quyền 405
dina 405
universal_@@ 405
rp@@ 405
_dra@@ 405
stars 405
alfred 405
sankt-peterburg 405
cói 404
thi_thoảng 404
gmail 404
tiếp_viên 404
non_trẻ 404
frederick 404
phối_khí 404
churchill 404
diêm_@@ 404
nhà_kho 404
tree 404
nuôi_cấy 404
bố_chính 404
fate 404
tam_đảo 404
nguyên_chất 404
tại_@@ 404
ation_@@ 404
310 404
trần_trọng_kim 404
_mor@@ 404
kon_@@ 404
gamma 404
don't 404
1786 404
ina_@@ 404
ống_phóng 404
siri@@ 404
lặc 404
chester 404
thái_phó 404
jobs 403
chụp_ảnh 403
thịt_@@ 403
209 403
kỳ_quan 403
gấp_rút 403
lạy 403
erie 403
ago@@ 403
sha_@@ 403
đồng_văn 403
rocky 403
mỹ_đức 403
earth 403
ting@@ 403
kim_thành 403
công_sứ 403
thảo_phạt 403
tinh_xảo 402
hotel 402
global_@@ 402
bới 402
nhà_bè 402
vóc_dáng 402
ản 402
cảm_thông 402
tử_t@@ 402
super_junior 402
ấp_ủ 402
tía 402
trai_trẻ 402
whitney 402
cket 402
_val@@ 402
thực_địa 402
mũi_@@ 402
trung_chuyển 402
tân_lập 402
._thế_là 402
siu 402
._luật 402
luân_@@ 402
pool 402
tle 402
new_england 402
rice 402
bec@@ 402
cách_mạng_tháng_tám 402
_khan 402
pier@@ 402
hae@@ 402
lorraine 402
trẫm 402
celt 402
phospho@@ 402
vriesea 402
4-0 401
gorbachev 401
truy_lùng 401
xiết 401
kiệm 401
giáo_đường 401
tự_tạo 401
đặ@@ 401
chuẩn_hóa 401
volo@@ 401
som 401
3-5 401
bàng_@@ 401
ust 401
scri@@ 401
ridge 401
độn 401
coli 401
thông_giám 401
pharaoh 401
hip-hop 401
fly@@ 401
chris 401
watt 401
lê_sơ 401
eux 401
hoàn_công 401
cộng_hòa_xã_hội_chủ_nghĩa 401
nam_dương 401
stown 401
vô_ích 400
lính_@@ 400
trực_diện 400
trở_xuống 400
2/2 400
_tv 400
ác_tính 400
thuốc_nhuộm 400
56@@ 400
vui_lòng 400
cốt_@@ 400
thi_sĩ 400
tây_nam_bộ 400
công_tắc 400
bafta 400
giết_mổ 400
-3 400
dioxit 400
cio_@@ 400
môn_hóa 400
giả_@@ 400
rier 400
n_tông 400
unt 400
stru@@ 400
culata 400
công_tố 399
league_@@ 399
iss 399
cơn_sốt 399
người_hùng 399
manh 399
2,4 399
oni 399
ền 399
triệt_tiêu 399
._máy 399
199 399
phông 399
gấu_đen 399
_hill 399
china_@@ 399
2.8@@ 399
tay_sai 399
._j@@ 399
methy@@ 399
bol 399
giovanni_@@ 399
gny 399
tân_ước 399
chiến-tuần 399
cẩm_thạch 398
hyundai 398
hóa_giải 398
silicon 398
ến 398
thần_đồng 398
trăm_ngàn 398
velo@@ 398
nghệ@@ 398
_thượng 398
cẩn_trọng 398
nháp 398
ders 398
camp@@ 398
16/10 398
hiền_@@ 398
khả 398
nhắn_nhủ 398
chư_@@ 398
atta@@ 398
vợ_thứ 398
tia@@ 398
aru@@ 398
hoon 398
fox@@ 398
-1 398
sino@@ 398
đồng_phân 398
alps 398
1808 398
quần_thần 398
corse 398
óng 397
tia_sáng 397
viễn_cảnh 397
hôn_lễ 397
thông_suốt 397
cam_ranh 397
dịch_tễ 397
fiel@@ 397
hối 397
chi_lăng 397
ngăn_cấm 397
dĩnh 397
côn_cầu 397
bbc_@@ 397
franco@@ 397
hubble 397
anh_quốc 397
rain@@ 397
_studios 397
ation 397
exo@@ 397
genova 397
deri@@ 397
drama 397
rotten_tomatoes 397
dendro@@ 397
gul@@ 396
hầu_tòa 396
_cla@@ 396
quán_rượu 396
rí@@ 396
iều_@@ 396
lách 396
kha_@@ 396
túng 396
xưng_@@ 396
nhiệt_điện 396
tập_tục 396
turin 396
op 396
tân_hiệp 396
nguyễn_tất_thành 396
bô@@ 396
cách_@@ 396
pla 396
nhà_văn_@@ 396
cebu 396
made@@ 396
iron_@@ 396
foo@@ 396
đoàn_thanh_niên 396
hanover 396
serge@@ 396
dật 396
wee@@ 396
phái_bộ 396
._chùa 396
zole 396
santa 396
nucleotide 396
varman 396
aleksand@@ 396
chú_tâm 395
cứu_vãn 395
lề_đường 395
lòng_dân 395
sinh_ra 395
seo 395
dị_@@ 395
võng_mạc 395
ỵ@@ 395
85@@ 395
rumani 395
dit 395
ligue 395
montgomery 395
rity 395
ngữ_@@ 395
tor_@@ 395
._tổng 395
lini 395
clemen@@ 395
simo@@ 395
1787 395
will@@ 395
rez 395
yla@@ 395
us_s@@ 395
poin@@ 395
1783 395
đài_thiên_văn 395
chae@@ 395
ribo@@ 395
sassanid 395
ramesses 395
đón_@@ 394
jong-@@ 394
găm 394
uẩn_khúc 394
có_@@ 394
phấn_khích 394
úi 394
for_@@ 394
ội_@@ 394
acer 394
đuối 394
chỉnh_đốn 394
kì_lạ 394
khởi_kiện 394
cá_heo 394
fanta@@ 394
tiểu_cầu 394
vạt 394
copa_@@ 394
mít 394
hối_đoái 394
warner 394
margaret_@@ 394
sters 394
thủy_lôi 394
lyn 394
dam@@ 394
hoa_kiều 394
kr@@ 394
raj@@ 394
crow@@ 394
brisbane 394
vey 394
cya@@ 394
tena@@ 394
phyllo@@ 394
thả@@ 393
jang 393
tuần_duyên 393
al-ha@@ 393
mpa@@ 393
sinh_khối 393
139 393
4/2 393
bay_@@ 393
văn_cao 393
shop 393
sự_tích 393
]@@ 393
vy_@@ 393
nguyên_do 393
chiến_bại 393
370 393
ấn_hành 393
hiroshima 393
làm_hỏng 393
lẻn 393
trà_my 393
._vợ 393
guardian 393
lệ_@@ 393
winter@@ 393
bầy_đàn 393
nghênh_@@ 393
sát_khuẩn 393
1810 393
._lý@@ 393
kang 393
armstrong 393
đa_giác 393
pháp_viện 393
ales 393
formula_6 393
constanti@@ 393
mượt 392
han_@@ 392
giao_cấu 392
liều_lượng 392
206 392
đổ_@@ 392
đánh_rơi 392
hà_t@@ 392
khang_trang 392
mê_hoặc 392
call 392
oc 392
tình_yêu_thương 392
pictu@@ 392
1_,_2 392
gore 392
thính_giả 392
kv@@ 392
phan_rang 392
chiến_lợi_phẩm 392
premier 392
kas 392
phạm_duy 392
cần_giờ 392
lược_@@ 392
19_@@ 392
_des@@ 392
tun 392
1818 392
767 392
phon 392
team_@@ 392
centu@@ 392
1826 392
hydroxit 392
gioan_phaolô_ii 392
thủ_thành 391
bmw 391
217 391
bộ_mặt 391
hội_sinh_viên 391
tóm 391
cõng 391
bất_an 391
hó@@ 391
tế_lễ 391
trọng_tải 391
chệch 391
quá_sức 391
beni@@ 391
xua_đuổi 391
tê@@ 391
ido@@ 391
hope 391
valley 391
đội_quân 391
hòa_lạc 391
cù 391
cố_@@ 391
đăk_@@ 391
premi@@ 391
tian 391
nam_úc 391
navarre 391
cb 390
tab 390
hường 390
rạng_rỡ 390
hưu_trí 390
dĩ 390
dưa 390
dược_sĩ 390
chân_chính 390
iêm 390
thờ_ơ 390
mặt_tiền 390
adolf_hitler 390
174 390
figh@@ 390
cao_trào 390
just 390
ệ_th@@ 390
saint 390
khả_dụng 390
đặng_tiểu_bình 390
ryu@@ 390
khử_khuẩn 390
vồ 390
xây_cất 390
sierra 390
casti@@ 390
quân_cờ 390
foli@@ 390
thi_hương 390
didae 390
vương_cung_thánh 390
pyro@@ 390
stigmella 390
pterophoridae 390
tren@@ 389
ngọc_sơn 389
ấp_@@ 389
nỗi_lòng 389
sĩ_số 389
cầu_kỳ 389
trụ@@ 389
dung_nạp 389
phát_nổ 389
thô@@ 389
ửa 389
biện_hộ 389
etta 389
phan_đ@@ 389
glenn 389
h'@@ 389
plaza 389
suk 389
granit 389
đoà@@ 389
rút_chạy 389
công_chính 389
mãnh 389
yết_kiến 389
phát_ban 389
karate 389
leton 389
tính_trạng 389
cường_kích 389
col 389
zo_@@ 389
hunt 389
trai@@ 389
tranh_biện 389
tale 389
baroque 389
giám_quản 389
dum 389
qgp 389
sarthe 389
sebasti@@ 388
24/1 388
quyết_đấu 388
5/12 388
mari 388
ỏa 388
rami@@ 388
xí@@ 388
phớt_lờ 388
lỗ@@ 388
wallace 388
đơn_nữ 388
phức_@@ 388
qui 388
llard 388
đôi_nam_nữ 388
325 388
phỉ 388
ghts 388
dex@@ 388
1793 388
kaze 388
zel@@ 388
eritrea 388
rogers 388
xưng_vương 388
ee@@ 387
terry 387
mumbai 387
bởi_thế 387
[...]
