n g</w>
t h
n g
n h
c h
t r
n _
n h</w>
ng _
p h
k h
i _
g i
i ệ
q u
nh _
v à</w>
t _
c _
c ủ
củ a</w>
c á
ư ợ
ê n</w>
u _
l à</w>
ư ờ
i ế
ượ c</w>
m ộ
cá c</w>
ớ i</w>
đ ược</w>
u y
ô ng</w>
o ng</w>
. _
tr ong</w>
mộ t</w>
n ă
m _
ạ i</w>
a _
o _
nă m</w>
c ó</w>
à y</w>
_ th
c h</w>
t i
h o
v ới</w>
đ ã</w>
h ọ
à o</w>
ư ớ
ư ơ
ng ườ
ch o</w>
i ề
s a
ấ t</w>
ng h
y _
ngườ i</w>
ô ng_
â n_
n a
i ể
ì nh</w>
p _
â n</w>
v iệ
v ào</w>
th á
a n</w>
ê n_
s i
ữ ng</w>
nh ững</w>
à nh</w>
ườ ng</w>
đ ộ
ế n</w>
l i
kh ông</w>
ầ n</w>
ph á
h a
l o
họ c</w>
a nh</w>
v i
2 0
à i</w>
n ày</w>
kh i</w>
c o
t ừ</w>
b a
đ ến</w>
đ ể</w>
t iế
ướ c</w>
ứ c</w>
c a
t ại</w>
iề u</w>
ậ n</w>
h iệ
1 9
u ộ
đ ạ
ù ng</w>
gi á
đ ầ
ố ng</w>
thá ng</w>
e r
m a
đ ị
ả i</w>
v ề</w>
đ ó</w>
r a</w>
qu ố
b ả
à nh_
t o
s ố</w>
ng ày</w>
_ tr
ch í
ươ ng_
â y</w>
sa u</w>
_ h
l à
c ông_
u ng_
ấ t_
e o</w>
uộ c</w>
nh ư</w>
ậ t</w>
ũ ng</w>
l a
ươ ng</w>
kh á
s ự</w>
ụ c</w>
tr ên</w>
_ t
ch iế
ằ ng</w>
b ị</w>
c ũng</w>
ậ p</w>
_ l
nh iều</w>
_ d
ơ n</w>
r i
ự c</w>
th a
m i
việ c</w>
đ ồ
n i
ự c_
k i
t a
n_ th
à ng</w>
s á
vi ên</w>
th eo</w>
r a
ì nh_
th ành_
si nh</w>
ế t</w>
l ại</w>
_th ể</w>
na m</w>
b ắ
t uy
d i
là m</w>
ế _
t í
20 1
à n</w>
ộ i</w>
th ờ
_ s
c ó
ạ n</w>
kh o
ư ng</w>
_ nh
t ổ
t u
u ố
b á
ổ i</w>
l e
x u
ch uy
b ộ</w>
độ ng</w>
đạ i_
ò n</w>
ề n</w>
n e
n_ h
ư ở
n_ đ
tr ung_
l ớ
tr ường</w>
gi a</w>
qu y
quố c_
a ng</w>
h ọ</w>
ô i</w>
ng uy
ấ y</w>
đầ u</w>
họ c_
ha i</w>
có _thể</w>
nh ất</w>
_ ch
t ạ
h ơn</w>
ượ ng</w>
r o
ụ ng</w>
l u
iệ n</w>
n ước</w>
iế t</w>
d a
c ùng</w>
s ẽ</w>
n ó</w>
ph ải</w>
đ á
gi ả
ế t_
ưở ng</w>
t á
phá t_
khá c</w>
c òn</w>
nh ưng</w>
chí nh_
e n
đ ố
o r
hiệ n</w>
ơ i</w>
giá o_
ch ú
ng o
à _
e m</w>
đị nh</w>
ú c</w>
ch ỉ</w>
qu a
ngh iệ
u ng</w>
n_ tr
đ iể
ẫ n</w>
ò ng</w>
đ ặ
v ă
c ấ
â u</w>
i ên_
n_ l
đ o
c ả
ệ n</w>
nh à</w>
à i_
th ực_
c ả</w>
20 0
a r
ng_ h
ờ i</w>
phá p</w>
qu ân</w>
thờ i_
á n</w>
co n</w>
d o
m ặ
d ự
iể n</w>
cá ch</w>
tr ước</w>
c ầ
ạ ng</w>
ư a</w>
li ên_
a n
mộ t_
r e
à n_
ho ạ
đầ u_
k ỳ</w>
ch ủ
iề u_
a i</w>
s ử
d ân_
c ô</w>
d o</w>
b u
c ơ
b ằng</w>
ê u_
ứ c_
ỉ nh</w>
t e
r ằng</w>
t ố
nh ận</w>
iế n</w>
m à</w>
iệ u</w>
th uộc</w>
th ành</w>
c uộc</w>
ữ a</w>
tạ o</w>
s o
bả n</w>
điể m</w>
th ứ</w>
ô n</w>
ặ c</w>
ch i
đ i</w>
m á
m ình</w>
quố c</w>
lớ n</w>
th ế_
a l
m ới</w>
t ế</w>
ả ng</w>
đ ây</w>
ậ t_
ị ch</w>
tiế ng</w>
ph i
t â
ó a</w>
ộ i_
i n
ti ên</w>
nh ân_
â u_
ă ng</w>
gi a
n ó
ậ p_
ho ặc</w>
t ên</w>
b i
v ì</w>
việ t_
v ụ</w>
tr ở
chí nh</w>
qu a</w>
í ch</w>
gi ới</w>
ứ ng</w>
ca o</w>
ch _
ê m</w>
đ ề
th ì</w>
b ở
ừ ng</w>
lo ài</w>
0 0</w>
n ên</w>
đ ộ</w>
di ễ
_d ụng</w>
e l
sử _dụng</w>
iệ t</w>
c ông</w>
r ất</w>
tr a
l ập</w>
ồ m</w>
i ên</w>
m o
việt_ nam</w>
g ồm</w>
đố i_
ó ng</w>
ợ p</w>
đồ ng</w>
s ả
nghiệ p</w>
t ỉnh</w>
tr uy
bở i</w>
ể n</w>
th ường</w>
ạ c</w>
ố i</w>
tha m_
m e
tr ình</w>
ph ần</w>
th ông_
ấ u</w>
th i</w>
t a</w>
à u</w>
ướ ng</w>
b à</w>
đ iều_
nh a
k ết_
ọ i</w>
h ồ
cấ p</w>
ki nh_
l ượng</w>
l ên</w>
ê u</w>
ha y</w>
đồ ng_
u a</w>
ế u</w>
h uy
ầ n_
b o
độ i</w>
c uố
gi an</w>
tí nh</w>
s e
ph ụ
lo ại</w>
hoạ t_
b iết</w>
ườ ng_
th ấy</w>
đ ang</w>
ọ ng</w>
í a</w>
b ài</w>
v ực</w>
th iế
1 0</w>
l ần</w>
s ống</w>
đầu_ tiên</w>
qu ân_
x ã</w>
_ch ức</w>
ba o_
ph ía</w>
_ v
m ạ
ă n</w>
nó i</w>
gi a_
t ới</w>
một_ số</w>
ph ố</w>
á t</w>
qu ả
si nh_
d ân</w>
hoạt_ động</w>
m ỹ</w>
ỗ i</w>
tổ _chức</w>
c ộ
đại_ học</w>
t ự
ắ c</w>
gi ải</w>
d e
n_ t
d ục</w>
ả o</w>
p a
nă ng</w>
ng_ đ
qu an</w>
giả i_
chú ng</w>
th u
ằ m</w>
_nh iên</w>
quy ền</w>
ti n</w>
n o
ỏ i</w>
b a</w>
v ật</w>
quốc_ gia</w>
ắ ng</w>
xu ất_
ấ n</w>
t ôi</w>
v ẫn</w>
á i</w>
kh u_
s u
d ư
đặ c_
học_ sinh</w>
_ đ
g h
đị a_
ị _tr
nh à_
bắ t_
nha u</w>
h ạ
th ủ
e _
ho à
iệ m</w>
ngh ĩ
thời_ gian</w>
g a
m ô
phi m</w>
h àng</w>
na y</w>
c ứ
â y_
sá ch</w>
_ k
giáo_ dục</w>
đo àn</w>
v ị</w>
thành_ phố</w>
ho a_
v ùng</w>
b ạn</w>
b iệt</w>
đ ường</w>
ắ t</w>
ệ nh</w>
cầ u</w>
ệ _th
gi ữa</w>
iể u</w>
h u
ó m</w>
qu ả</w>
ngo ài</w>
tổ ng_
â m_
e n</w>
h ành</w>
tiế p_
i n</w>
mi nh</w>
nguy ễ
n ào</w>
diễ n</w>
tr iển</w>
n ơi</w>
p o
u s
thế_ giới</w>
b ộ
bả o_
ồ i</w>
phát_ triển</w>
19 9
tr ận</w>
ô n_
s ĩ</w>
ọ n</w>
h ành_
ướ c_
_h ội</w>
o n</w>
kho ảng</w>
kh ông_
_ c
h ình_
iề n</w>
t ương_
ch u
t ì
khu_ vực</w>
ph ân_
nh ân</w>
ứ ng_
_th ành</w>
t ình_
ẩ m</w>
à o_
tham_ gia</w>
thờ i</w>
l ư
ba y</w>
1 2</w>
h i
nh óm</w>
v ậ
ương_ trình</w>
tâ m</w>
gi á</w>
vă n_
1 8
v a
ọ c</w>
th ức</w>
huy ện</w>
p i
tu ổi</w>
bao_ gồm</w>
bắ c</w>
é t</w>
ạ y</w>
h à
b an</w>
h ội</w>
b ình</w>
ph ủ</w>
é p</w>
cứ u</w>
l ã
xu ất</w>
sả n_
nh_ h
ch ương_trình</w>
ụ c_
đ ưa</w>
đ ổi</w>
ă ng_
tuy _nhiên</w>
d ùng</w>
dư ới</w>
a n_
b ất_
ph òng</w>
đá nh_
trở _thành</w>
ạ i_
đề u</w>
đạ o</w>
truy ề
giá o</w>
g ần</w>
e r</w>
đ iều</w>
lớ p</w>
ắ n</w>
ư _
ấ n_
ị _
đ ình</w>
n e</w>
ph ạ
ú t</w>
bá o</w>
m ỗi</w>
h ội_
ù a</w>
ả nh</w>
ph ẩm</w>
t ừng</w>
b ên</w>
tr ị</w>
n ếu</w>
gi ú
ả i_
việ n</w>
s _
x á
nh ạc</w>
tá c</w>
ch âu_
u ật</w>
d ụng</w>
mặ t</w>
n ữ</w>
t ập</w>
t ài_
qu y_
đ ức</w>
th ể</w>
thiế t_
1 1</w>
g ọi</w>
t er
bắt_ đầu</w>
c i
thực_ hiện</w>
m u
chuy ển</w>
ph ương</w>
ng a
í _
â m</w>
c ần</w>
b ố</w>
đặ t</w>
t y</w>
. .</w>
b iển</w>
t ục</w>
t ự</w>
t ập_
ậ u</w>
da nh_
chủ _
t ây</w>
dự ng</w>
x ã
gi ữ</w>
việ t</w>
ô _
cơ _
ng ành</w>
tá c_
th ể
ma ng</w>
tr á
ò a</w>
t àu</w>
h ợ
th êm</w>
l ạ
d ù</w>
k iế
má y_
nh à
e s
n ằm</w>
a nh_
2 0</w>
kho a_
là m_
ố n</w>
chiế c</w>
l ực</w>
đ iệ
v iết</w>
s ự
to àn</w>
_ năng</w>
b ình_
l ý</w>
ph ả
hợ p_
ti ể
k a
ch ưa</w>
ổ _
tì m</w>
nghĩ a</w>
độ ng_
tí ch</w>
gi ờ</w>
ầ u_
na m_
hoa_ kỳ</w>
ngh iên_
0 00</w>
nh ỏ</w>
kh ả
d ịch</w>
đ ông</w>
ph o
ph ương_
b ó
co n_
ồ n</w>
ch ọn</w>
m ẹ</w>
nh iệ
ch ất</w>
ti êu_
m uố
ch ỉ
ố c</w>
sá t</w>
ổ i_
. ..</w>
ấ n_đ
đ ấu</w>
h ệ_th
u s</w>
l úc</w>
ơ n_
giá m_
tr ẻ</w>
n ội</w>
ng u
tiế p</w>
nghiên_ cứu</w>
u_ th
l e</w>
d a</w>
ử a</w>
la n
h à_
t ăng</w>
g u
cá i</w>
hệ_th ống</w>
x ây_
xã _hội</w>
/ 3</w>
ấ p</w>
đ ả
đ ào_
mạ nh</w>
đạ t</w>
giú p</w>
tr a</w>
d iện</w>
xây_ dựng</w>
t ất_
hiệ u</w>
l ý
đối_ với</w>
n a</w>
r ộ
d ài</w>
chiế n</w>
qu á
tr ực_
đ ất</w>
b iến</w>
19 4
ố ng_
b e
ặ p</w>
m ôn</w>
d ẫn</w>
trung_ quốc</w>
ă n_
muố n</w>
nghiệ m</w>
quy ết_
_ kh
19 8
đặc_ biệt</w>
ng ữ</w>
lã nh_
d ương</w>
chính_ phủ</w>
dân_ số</w>
19 7
gi ống</w>
k iể
x i
c e
đào_ tạo</w>
gia_ đình</w>
g o
sa o</w>
chu ẩ
tha y_
gia o_
x em</w>
nguy ên_
tất_ cả</w>
khoa_ học</w>
n ội_
hiệ n_
ồ ng</w>
thá i_
ngo ại_
._ trong</w>
w a
w i
g ây</w>
to àn_
u_ tr
v ua</w>
ú ng</w>
ả y</w>
m ùa</w>
k ỹ
ba n_
qu ận</w>
ma r
đ ời</w>
h ình</w>
d uy
chuy ên_
ò a_
u r
đ ơn_
b ỏ</w>
d i_
h ải_
m iền</w>
sa ng</w>
thành_ lập</w>
đo ạn</w>
b ạ
v ị_tr
vị_tr í</w>
ừ a</w>
v ũ
quốc_ tế</w>
ch ống</w>
k ể</w>
d ạng</w>
ị ch
ca o_
ch í</w>
đ ô
j o
j a
kiể m_
l ấy</w>
p e
b ệnh</w>
._ ông</w>
tiếp_ tục</w>
y êu_
uộ c_
ti ền</w>
à y_
nh ập</w>
ộ c</w>
dự _
d e</w>
nguyễ n_
tố t</w>
tr í</w>
. 000</w>
ch ết</w>
cuố i</w>
a_ m
th o
m ọi</w>
tr ung</w>
bá n</w>
thành_ viên</w>
công_ ty</w>
a_ s
m ất</w>
h ỗ
h át</w>
ch ung</w>
h ết</w>
_s ở</w>
hà_ nội</w>
qua n_
kh u</w>
t ư</w>
iể u_
tr iệu</w>
ch ơi</w>
n_tr ọng</w>
b ổ
b er
má y</w>
bó ng_đ
ợ i</w>
ắ c_
ho a</w>
19 6
th iên_
bóng_đ á</w>
g ì</w>
chuy ện</w>
kinh_ tế</w>
ượ t</w>
ch ế</w>
d u_
quyết_ định</w>
c ung_
h ạng</w>
t ư
cộ ng_
ể n_
h ợp</w>
mặ t_
n ổi_
kh iến</w>
g ó
f or
tiể u_
k í
ầ u</w>
y ếu</w>
ố i_
lu ật</w>
1 0
ậ y</w>
n_h óa</w>
ngườ i_
_s ử</w>
n u
ph ép</w>
đ ông_
ầ m</w>
sản_ xuất</w>
t ấn_
s h
khả _năng</w>
ta y</w>
l ực_
í t</w>
đá nh</w>
ứ a</w>
ố _
ch ấ
ò ng_
th í_
m a</w>
v òng</w>
giáo_ viên</w>
ẳ ng</w>
ng a</w>
ch i</w>
k ết</w>
_nh ân</w>
nguy ên</w>
c âu_
tuy ển</w>
t o</w>
x ế
sả n</w>
gi ả</w>
th u</w>
m àu</w>
ã i</w>
r ồi</w>
v ệ</w>
d ị
xá c_
d _
sinh_ viên</w>
k é
l ịch
c a</w>
n ước_
ri ê
ạ t</w>
ĩ nh_
m e</w>
m ục_
s o</w>
n_tr anh</w>
f i
l an</w>
nga y</w>
kh ỏi</w>
ch á
l a</w>
s ông</w>
th ị_tr
_tr ình</w>
th i_
d ạy</w>
p _th
_tr ợ</w>
ba ng</w>
ậ n_
pho ng_
c a_
t e</w>
19 5
qua n_trọng</w>
ph í</w>
k o
ặ ng</w>
ủ y_
x e</w>
ra n
quả n_l
giả m</w>
kh a
v ấn_đ
ho àn_
s ức_
ch ủ</w>
lịch _sử</w>
g ặp</w>
ì n</w>
vấn_đ ề</w>
g ọ
3 0</w>
đ ủ</w>
rộ ng</w>
k ỷ</w>
tấn_ công</w>
th ương_
ng ày_
tuy ến</w>
t ử</w>
xuất_ hiện</w>
_nh iệm</w>
r u
trung_ tâm</w>
i_ tr
x ét</w>
m ạng</w>
bá o_
k ý</w>
lực_ lượng</w>
k ế_
tha nh_
chú ng_
chiế n_tranh</w>
cả m_
đ óng</w>
hỗ _trợ</w>
g ái</w>
ch ức</w>
nh ật_
gọ i_
th ích</w>
gọi_ là</w>
vă n</w>
m ục</w>
hoà ng_
ắ m</w>
l iệu</w>
u y</w>
đ ảo</w>
sá ng</w>
cả nh</w>
._ năm</w>
quản_l ý</w>
thay_ đổi</w>
tâ y_
phát_ hành</w>
i_ cùng</w>
uy ên</w>
công_ ngh
cuố i_cùng</w>
ni a</w>
c k
201 2</w>
i_ th
d o_
ti êu</w>
kết_ quả</w>
tra ng_
đ ảng</w>
h ã
hiệ u_
d ành</w>
_th ế</w>
y o
độ c_
ngu ồn</w>
s ắc</w>
gia i_
ph ần_
ú c_
ch i_
v ô_
s ân_
ồ n_
kh óa</w>
th e</w>
b iểu_
h ỏi</w>
1 5</w>
c e</w>
g e
ch ức_
mặ c_
1 9</w>
iệ n_
làm_ việc</w>
i i</w>
ng_h ợp</w>
c ử
không_ thể</w>
n ữa</w>
uy ết</w>
tuy ên_
al bu
chiế n_
quân_ đội</w>
ng ôi</w>
cơ _sở</w>
th ầ
er i
ch ứng_
chi a</w>
v ật_
cá o</w>
k ế</w>
ắ p</w>
gi ành</w>
c ử</w>
h ướng</w>
thá i</w>
n_h ình</w>
to án</w>
d ự</w>
_h ợp</w>
phả n_
vă n_hóa</w>
lư u_
quả ng_
i s
ch a
tu ần</w>
c âu</w>
bộ _
th ần</w>
đố c</w>
ữ _
qu á</w>
ho àng</w>
liên_ quan</w>
kh ó
phụ c_
ti ề
c u
vi d
ù ng_
ph i</w>
ngh ị</w>
_t ịch</w>
mặc_ dù</w>
đ ại</w>
do anh_
albu m</w>
tr iều_
th ống_
đ êm</w>
c ứ</w>
t ượng</w>
truyề n_th
th u_
quá _trình</w>
c ây</w>
ch ất_
ệ _
tiế n</w>
bả ng</w>
n ú
ẹ p</w>
đánh_ giá</w>
to n</w>
thí_ sinh</w>
ả nh_h
ảnh_h ưởng</w>
sá ng_
s ố
yêu_ cầu</w>
chính_ thức</w>
nhân_ dân</w>
s ư</w>
thông_ tin</w>
2 1</w>
c uộc_
v àng</w>
_d o</w>
riê ng</w>
đạ o_
đề _
l ời</w>
ệ nh_
nh ằm</w>
th ường_
địa_ phương</w>
m ức</w>
s ơn</w>
đ iện</w>
nhiệ m_
v ương_
ê _
v e
ne w
quy ết</w>
ph ục</w>
máy_ bay</w>
iệ t_
nă ng_
phạ m</w>
1 7
n_h ành</w>
h óa</w>
gia o</w>
c á</w>
bi nh</w>
c ạ
x e
xu ống</w>
chủ _tịch</w>
đị nh_
ă m</w>
bả n_
s ta
v ừa</w>
v ài</w>
diễ n_
thành_ công</w>
y êu</w>
p u
trở _l
g ốc</w>
k iện</w>
nhật_ bản</w>
chiế m</w>
bắ c_
l y
chính_ trị</w>
lan d</w>
d ung</w>
b é</w>
201 1</w>
c ụ
đ ó
hoạ ch</w>
th anh</w>
1 8</w>
v ương</w>
_k iện</w>
đơn_ vị</w>
da e</w>
d u
m ở
ch ạy</w>
cung_ cấp</w>
trở _
f o
_th uật</w>
thế_ kỷ</w>
giai_ đoạn</w>
m ẫ
đ ứng</w>
kho ả
đị ch</w>
f a
._ các</w>
gi ớ
qua y</w>
ô i_
5 0</w>
ý _
t s</w>
chi a_s
chia_s ẻ</w>
ậ u_
e a
th ị
ti nh</w>
c k</w>
sự _kiện</w>
th ống</w>
thể _
tr i
i r
b àn</w>
dị ch_
ngh e</w>
h ầu_
tr ình_
độ i_
ni ên</w>
đ ường_
kh ẩ
mô i_
lãnh_ đạo</w>
bảo_ vệ</w>
t ướng</w>
ủ y</w>
b iên_
ữ u</w>
v i</w>
là ng</w>
ph ong</w>
lạ c_
đ a_
nổi_ tiếng</w>
á p_
h iểu</w>
dự a</w>
nh ật</w>
dự_ án</w>
dân_ trí</w>
t ộc</w>
1 6</w>
ch o_
l ễ</w>
ch âu</w>
s hi
vậ y</w>
lu ận</w>
ế n_
so n</w>
iể m</w>
bả o</w>
ph ó</w>
hiệ p_
hà ng_
môi_ trường</w>
kho a</w>
đ ề</w>
đị a</w>
_th ị</w>
mô _t
b iểu</w>
th ưởng</w>
_h uy
công_ngh ệ</w>
ê m_
w e
kh ở
tr ưởng</w>
bu ổi</w>
ướ ng_
ph á</w>
bắ t</w>
chuẩ n</w>
phụ _
phát_ hiện</w>
l ịch</w>
lu ôn</w>
ử i</w>
a o</w>
v er
nú i</w>
p er
thông_ qua</w>
l l
vậ n_
ch _th
quy_ định</w>
châu_ âu</w>
_tr ị</w>
th ủ</w>
n d
nghĩ a_
y a
v u
1 4</w>
đ ơn</w>
th uố
th ư</w>
ngo ài_
chỉ _
ng ôn_
co i</w>
chủ_ yếu</w>
phá p_
c o</w>
g ửi</w>
c ổ</w>
ượ ng_
á nh</w>
í _d
mô_t ả</w>
b ại</w>
qu anh</w>
ca r
l òng</w>
s te
học_ tập</w>
s ó
1 7</w>
p t</w>
t ừ
à u_
thiết_ kế</w>
1 3</w>
tr ang</w>
x uyên</w>
qua n_h
kh uy
tố t_
số _l
ph iên_
đồng_ thời</w>
n ền</w>
ph ù
đ ăng_
x ảy</w>
ph ổ_
kh ai</w>
tuy ển_
th e
í_d ụ</w>
c ực</w>
1 5
chiế n_th
b ệnh_
h iế
nh ìn</w>
ch ị
tí nh_
do anh</w>
1 6
điều_ kiện</w>
va i_tr
vai_tr ò</w>
t ố</w>
_huy nh</w>
ti nh_
2 5</w>
mở _
th ấp</w>
s uố
phụ _huynh</w>
ư u_
v o
trở_l ại</w>
nh a</w>
ưở ng_
phá t</w>
h ậu_
hội_ đồng</w>
kế_ hoạch</w>
a m
tr ườ
ấ u_
cá nh</w>
í nh</w>
h ệ</w>
tâ m_
v ây</w>
c ư</w>
th ân</w>
c ư
điều_ tra</w>
tập_ trung</w>
quan_h ệ</w>
th ổ</w>
v í_dụ</w>
cơ_ quan</w>
t an</w>
ỷ _l
mi nh_
ki m_
c àng</w>
nhiệ t_
_tr ưởng</w>
khở i_
ri a</w>
o n
mẫ u</w>
cộ ng_h
/ 2</w>
201 6</w>
tổng_ thống</w>
cuố n</w>
n ông_
_v ậy</w>
uy ện</w>
ngoài_ ra</w>
ạ ch</w>
v ì
phổ_ biến</w>
đả m_
thời_ điểm</w>
động_ vật</w>
trườ ng_hợp</w>
ạ c_
tiế t</w>
ph òng_
ấ m</w>
s y
k e
l a_
ó a_
ẩ m_
kh á</w>
ph ó
nh ờ</w>
n_th ành</w>
l ợ
n_th ức</w>
nhà_ nước</w>
kha i_
m ua</w>
ngôn_ ngữ</w>
v ai</w>
ự a</w>
m an</w>
đ ọc</w>
đ úng</w>
b uộc</w>
gh i_
tr ường_
ch ân</w>
h e
danh_ sách</w>
cá _nhân</w>
ch iều</w>
b ốn</w>
tự _nhiên</w>
v ốn</w>
tiế n_
hiện_ nay</w>
ỡ ng</w>
l ộ</w>
đ ất_
h òa_
g e</w>
quốc_ hội</w>
đ á</w>
ma n
l ập_
tra o</w>
kh ó</w>
tr ời</w>
ĩ nh</w>
1 2
trung_ bình</w>
xác_ định</w>
b ước</w>
th ế</w>
l ĩnh_
th úc</w>
t h</w>
cả nh_
nhiệm_ vụ</w>
thi_ đấu</w>
_ r
d òng</w>
khá ch</w>
._ đây</w>
phạ m_
phụ_ nữ</w>
b ài_
u_th ủ</w>
ban_ đầu</w>
201 5</w>
m ở</w>
h ô
_t ướng</w>
n iệm</w>
phục_ vụ</w>
tác_ phẩm</w>
lĩnh_ vực</w>
kh u
truyề n_hình</w>
đ ẹp</w>
u ni
_l ực</w>
tuyên_ bố</w>
tốt_ nghiệp</w>
thể _th
v ọng</w>
kh í</w>
i ễ
cầ u_thủ</w>
nhân_ vật</w>
giá _trị</w>
ĩ a</w>
s ở</w>
la i</w>
thực_ tế</w>
tự _
trực_ tiếp</w>
b a_
vô_ địch</w>
201 0</w>
m ã
o_ động</w>
r a_
m er
ph ận</w>
x a</w>
câu_ lạc_
new _
0 0
l _
gi ết</w>
d anh</w>
m ối</w>
giải_ thưởng</w>
vid eo</w>
câu_lạc_ bộ</w>
sản_ phẩm</w>
đô _thị</w>
xế p</w>
kỹ _thuật</w>
kinh_ doanh</w>
kết_ thúc</w>
p ro
v ượt</w>
cho_ phép</w>
kh ỏ
ni nh</w>
đá ng</w>
ừ a_
th ắng</w>
thể_th ao</w>
ch a</w>
b iế
cộ ng</w>
r e</w>
x in</w>
th pt</w>
đ u
hiệu_ quả</w>
đại_ diện</w>
th ất_
t òa</w>
_nh ất</w>
một_ cách</w>
đầu_ tư</w>
si a</w>
nội_ dung</w>
ch ứng</w>
đ ĩa</w>
2 2</w>
phiên_ bản</w>
s e</w>
công_ việc</w>
le s</w>
số_l ượng</w>
l li
âm_ nhạc</w>
t ăng_
e l</w>
ch ế_
_s ĩ</w>
hải_ quân</w>
quân_ sự</w>
200 8</w>
cạ nh</w>
tra nh_
doanh_ nghiệp</w>
n â
b ra
chị u</w>
1 00</w>
ẩ n</w>
t -
ne s</w>
ng_ l
giám_ đốc</w>
c ũ</w>
tr anh</w>
hoàn_ toàn</w>
tr iể
kiế m</w>
gi ang</w>
è o</w>
chất_ lượng</w>
ữ u_
nu ôi</w>
suố t</w>
ậ m_
co n
x ung_
ng_h ộ</w>
u ận</w>
hầu_ hết</w>
iế u</w>
d iện_
trá i_
n_th ân</w>
ch ặ
c ố
s a</w>
1 4
ủy_ ban</w>
mục_ tiêu</w>
w ar
ế u_
_ nghiệp</w>
b óng</w>
ngh ĩ</w>
khó _kh
khó_kh ăn</w>
u n
gh i</w>
do_ đó</w>
n_t ử</w>
ủ ng_hộ</w>
t ình</w>
tương_ tự</w>
trung_ ương</w>
2 4</w>
ki nh</w>
chính_ quyền</w>
n ối</w>
e s</w>
7 /3</w>
ng ân_
kh úc</w>
ti on</w>
con_ người</w>
th ứ
ô _t
201 8</w>
ngh i
truy ền</w>
201 7</w>
201 4</w>
ề m</w>
s k
thể_ hiện</w>
lo ạt</w>
s óng</w>
c ơ</w>
thuố c</w>
c ổ
ph ân</w>
c ậu</w>
b ướ
x ô</w>
chuẩ n_
sân_ bay</w>
đ a
g a</w>
b ri
tr ò
z a
toàn_ bộ</w>
p or
r õ</w>
1 /
te r</w>
_k iến</w>
diện_ tích</w>
b ầu_
sa i</w>
an d
th ông</w>
mở_ rộng</w>
z i
chuy ến</w>
tiế p_th
công_ bố</w>
s uy
sa u_
s ư_
chiến_th ắng</w>
19 3
t t
duy _nhất</w>
th ập_
g ra
200 7</w>
á o</w>
r ừng</w>
c ục</w>
ỉ nh_
s ở
nh ất_
bắ n</w>
200 9</w>
_ch ơi</w>
điệ n_
so át</w>
_t ưởng</w>
c ố_
thiế u</w>
t ôn_
th ụ
ă m_
đ ôi</w>
b ã
cộng_ đồng</w>
f ran
_s ơ</w>
su ất</w>
b ờ</w>
hình_ ảnh</w>
l ệnh</w>
ng ọ
thầ y</w>
ệ t</w>
hã ng</w>
b ức</w>
._ cô</w>
tr ạng</w>
khỏ e</w>
t ử
ngh ệ_th
đố i</w>
tha y
dịch_ vụ</w>
nghệ_th uật</w>
chấ p_
ớ m</w>
phương_ pháp</w>
h ộ
s h</w>
s ức</w>
2 3</w>
_l iệu</w>
h à</w>
khuy ến_
ư u</w>
kiểm_ soát</w>
v i_
201 3</w>
giả ng_
_l ý</w>
ch ứa</w>
._ loài</w>
tr ần_
liên_ xô</w>
điệ n_tử</w>
m ềm</w>
ợ t</w>
n_đ ổi</w>
thủ y_
m ắt</w>
hoà n_thành</w>
s ơ
t p</w>
chúng_ tôi</w>
x ử
chiến_ dịch</w>
ph óng</w>
co n_tr
th ả
_ %</w>
cụ _thể</w>
ầ m_
cả i_
đ en</w>
s ớm</w>
ng ựa</w>
la o_động</w>
1 3
xế p_
tr ắng</w>
_h uy</w>
công_ tác</w>
ch ị</w>
c m</w>
t ồn_
hồ _sơ</w>
quy ề
h ạn</w>
n_th o
thị_tr ấn</w>
ha r
h y_
l ửa</w>
tố i_
l ong</w>
người_ ta</w>
thay _thế</w>
n_ b
ki m</w>
tổ ng</w>
đăng_ ký</w>
th ực</w>
t ư_
ạ o</w>
kiế n_thức</w>
k ê
t ù
h ạ</w>
c ăn_
khẩ u</w>
_ m
chuẩn_ bị</w>
phù _hợp</w>
đ ích</w>
dân_ tộc</w>
t ông</w>
m ại</w>
trở_ nên</w>
h ậu</w>
200 6</w>
tự _do</w>
cả m</w>
bu r
s ti
báo_ cáo</w>
p ar
ch e
chiế u</w>
khoả n</w>
l ương</w>
n_đ ảo</w>
x e_
th ật</w>
diễn_ viên</w>
hồ ng_
xá c</w>
m en
v ị
tr ai</w>
li nh_
r út</w>
s to
kiểm_ tra</w>
xuất_ sắc</w>
h òa</w>
thiết_ bị</w>
c ổ_
công_ nghiệp</w>
đ ẩ
kinh_ nghiệm</w>
t ân_
b ầu</w>
n d</w>
v a</w>
thời_ kỳ</w>
w or
y a</w>
tr o
ọ ng_
độc_ lập</w>
e d
sức_ khỏe</w>
b ồ
ba r
chuy ể
thị_tr ường</w>
y_ tế</w>
h óa_
j u
tì m_
k iểu</w>
ng ắn</w>
nhà _th
tồn_ tại</w>
s t</w>
ệ t_
chá u</w>
ngày_ nay</w>
ngh ệ
th uy
thủ _tướng</w>
ch ỉnh</w>
d ần</w>
ch ữ</w>
co m
ph i_
ỷ _
d ữ
h ại</w>
n ặng</w>
4 0</w>
xếp_ hạng</w>
s âu</w>
ẳ ng_
nă m_
con_tr ai</w>
ph út</w>
ỏ ng</w>
nh anh</w>
ự a_
qu ầ
đả ng_
r a_m
trò _chơi</w>
giá p</w>
kh ối</w>
1 _
thực_ vật</w>
ch ung_
ra_m ắt</w>
a u
hồ i</w>
thiế u_
nhà _tr
n ổi</w>
l ê
chỉ _huy</w>
ẻ _
y ếu_
h ồ</w>
ch ỗ</w>
máy_ tính</w>
truyền_th ống</w>
cầ n_th
th i
_h ình</w>
2 6</w>
trực_ tuyến</w>
th í
l o</w>
h ướng_
thương_ mại</w>
ó n</w>
b ậ
đề _c
cá ch_
b ào</w>
giám_ mục</w>
k ê</w>
bả n_thân</w>
iệ u_
ch o
k u
vương_ quốc</w>
ấ y_
chú a</w>
đ ế_
đảm_ bảo</w>
li nh</w>
th ần_
p p
nó i_
chính_ sách</w>
k ích</w>
tập_ đoàn</w>
sau_ này</w>
l l</w>
bổ _nhiệm</w>
g en
th ượng_
bộ _trưởng</w>
tuyển_ sinh</w>
đ ài_
hồ _
c ận</w>
k iến</w>
p_ đ
đồ ng_h
1 .
bi a</w>
nh iệm</w>
l ên_
in e</w>
lư u</w>
ké o_
chúng_ ta</w>
hồ i_
chuy ển_
ệ n_
li a</w>
tr ọng</w>
tiế n_hành</w>
giá c</w>
mo n
thường_ xuyên</w>
triể n_
bậ c</w>
v ợ</w>
_ mặt</w>
má u</w>
công_ nhận</w>
t ầ
ngh ề</w>
đ ỏ</w>
qu a_
201 9</w>
x ứ</w>
th ị_
_tr ì</w>
cơ _hội</w>
nh iễ
2 7</w>
m ã</w>
n ạn</w>
200 0</w>
l âu</w>
kỹ _năng</w>
ườ i</w>
an_ toàn</w>
x o
thị t</w>
co r
phần_ lớn</w>
r ời</w>
hiện_ tại</w>
hình_ thành</w>
n_ học</w>
tham_ dự</w>
kết_ hợp</w>
re a
thá nh</w>
tiếp_th eo</w>
lãnh_ thổ</w>
qu ang</w>
._ chúng</w>
n_tho ại</w>
ca m
thông_ báo</w>
ng ờ</w>
nh ạc_
th ân_
2 8</w>
ấn_đ ộ</w>
t ỷ</w>
ị p</w>
k ỳ
nh iên</w>
chí _
nha nh_
h àn_
ựa_ chọn</w>
in ter
w o
l ựa_chọn</w>
l á</w>
o f</w>
tr ả</w>
s ẵ
ã n</w>
đ em</w>
nâ ng</w>
h ộ</w>
n_đ ại</w>
c ro
hạ t</w>
giáo_ sư</w>
ca_ khúc</w>
ấ n_l
cá n_
mục_ đích</w>
cuộc_ sống</w>
_đ ề</w>
kh ắp</w>
us d</w>
tr ả
n_l ực</w>
kéo_ dài</w>
điể n</w>
pháp_ luật</w>
giớ i_
jo h
ph ụ</w>
ch _nhiệm</w>
nhà_tr ường</w>
in do
chiế n_đ
ch ar
ườ n</w>
ph ổ
._ anh</w>
ằ ng_
g ắng</w>
s ong</w>
hành_ động</w>
_ ý</w>
nước_ ngoài</w>
h ữu_
s ha
ca na
n ổ</w>
trá ch_nhiệm</w>
v e</w>
tình_ trạng</w>
ch óng</w>
tiế t_
xu ân</w>
hu ấn_l
t ỷ_l
hình_ thức</w>
chiến_đ ấu</w>
quan_ tâm</w>
t ức</w>
d s</w>
tỷ_l ệ</w>
th ế
200 4</w>
ngh ị_
xuất_ bản</w>
c ụ</w>
ti ên_
ng ôi_
k a</w>
ứng_ dụng</w>
tr ọng_
r y</w>
thu ật</w>
200 5</w>
_v ấn</w>
cơ_ bản</w>
ph a
tài_ chính</w>
è n</w>
nghệ _sĩ</w>
m ô</w>
hiệ n_đại</w>
6 0</w>
sức_ mạnh</w>
d ễ</w>
cố_ gắng</w>
phá i</w>
du_ lịch</w>
th ương</w>
hành_ chính</w>
ú ng_
tr ẻ_
mạ ch</w>
á ch</w>
t àu_
ri s</w>
ó c</w>
c ự
đ h</w>
m a_
tr iều</w>
tr ạ
nghi êm_
t ế_
giớ i_th
dữ _liệu</w>
lợ i_
2 9</w>
nh ập_
b ăng</w>
._ bà</w>
1 ,
xử _lý</w>
a s
đội_ tuyển</w>
th ậm_
nhanh_ chóng</w>
l o_
a e</w>
a d
n ắm</w>
du_ học</w>
ng_đ ế</w>
sá u</w>
ph úc</w>
triển_ khai</w>
lo ạn</w>
đ ẳng</w>
nh ớ</w>
đ ài</w>
bướ m_
dư ỡng</w>
á c</w>
n ỗ
vũ _tr
s ân</w>
í _th
l ục_
áp_ dụng</w>
tình_ yêu</w>
nh ư_
l ê_
bướm_ đêm</w>
thậm_ chí</w>
nh ận_
s s</w>
ư ng_
ễ n_
m ật</w>
_th ông</w>
ngh i_
qua_ đời</w>
bầu_ cử</w>
thực_ sự</w>
h y
tiề n_
chức_ vụ</w>
lu ật_
đó ng_
yếu_ tố</w>
ch ồng</w>
nhân_ viên</w>
n ữ_
kh ắc</w>
á p</w>
n i</w>
cán_ bộ</w>
m ộ</w>
đ ăng</w>
_h àng</w>
chế_ độ</w>
h ôn</w>
đ ồ</w>
ch ó</w>
bảo_ t
đ ới</w>
e t
đất_ nước</w>
d ương_
chủ _đề</w>
hàn_ quốc</w>
bá c_
tí ch_
y ên</w>
thu ận</w>
chí_ minh</w>
ch u_
n o</w>
con_ gái</w>
c ường</w>
khá ch
giới_th iệu</w>
l y</w>
ồ ng_
ph ú</w>
ng_đ ất</w>
sự _nghiệp</w>
n_t ượng</w>
k e</w>
tài_ liệu</w>
chuy ên</w>
p la
x anh</w>
kh ủ
to p</w>
c ửa</w>
n or
gó p</w>
giải_ quyết</w>
tr ừ</w>
tr ải</w>
l ạc</w>
đại_ biểu</w>
h út</w>
k ẻ</w>
họ p</w>
tha y</w>
ỏ a_
í t_
nỗ _lực</w>
câu_ chuyện</w>
tiểu_ học</w>
trá nh</w>
u_tr úc</w>
cách_ mạng</w>
ờ i_
phi li
chức_ năng</w>
th ừa_
õ i</w>
nh ư
t ỏ</w>
đ ức_
t ặng</w>
hợp_ tác</w>
phổ _thông</w>
công_ trình</w>
tr ở</w>
lý _do</w>
l la
đ àn_
ô_t ô</w>
cấ u_trúc</w>
mô _hình</w>
l iền</w>
suy _
c n</w>
v ĩnh_
ph ường</w>
_h ữu</w>
đ a</w>
th ôn</w>
j e
tạ p_
h ải</w>
li n</w>
đề_ nghị</w>
h cm</w>
h è</w>
họ a</w>
d ẫ
l ính</w>
nh u_
d ạ
tiêu_ chuẩn</w>
_th uyết</w>
g o</w>
t ả</w>
y or
i s</w>
t ổ</w>
cấ p_
ch ăm_
x úc</w>
tr ưởng_
bi nh_
t ài</w>
chuyể n_đổi</w>
v ụ
ễ n</w>
t ấn</w>
c ắt</w>
no n</w>
m pi
th ơ</w>
a le
k i</w>
trẻ_ em</w>
8 0</w>
cầ u_
nhiệt_ đới</w>
ngọ c_
d ễ
căn_ cứ</w>
đ ứa</w>
nhân_ ái</w>
tiến_ sĩ</w>
x âm_
tuy ệt_
_kh í</w>
s -
rộ ng_
n é
ng ũ</w>
kí ch_th
đẩ y</w>
đ i
ố t</w>
ngôi_ sao</w>
tá i_
th ẳng</w>
l a_m
bất_ kỳ</w>
s t
phản_ ứng</w>
b ật</w>
ậ m</w>
o f
ph iếu</w>
như_ là</w>
th ăm</w>
b í_
ngân_ hàng</w>
p ri
ca_ sĩ</w>
m ời</w>
ch ương</w>
chuyên_ gia</w>
ch ảy</w>
chú _ý</w>
tr ị
_s ung</w>
cộng_h òa</w>
b ề
s úng</w>
u_tr ưởng</w>
r o</w>
á nh_
hạ n_
c_ độ</w>
ượ c_
liên_ tục</w>
mạ nh_
cần_th iết</w>
v õ
ch a_
._ điều</w>
đá p_
bổ _sung</w>
l âm_
năng_ lượng</w>
ầ n_l
qu án</w>
r õ
m ực</w>
ne t</w>
rõ _r
th ử
tr ào</w>
tr ương_
d iệt</w>
triều_ tiên</w>
b ố_
điều_ hành</w>
ẳ ng_h
vũ _khí</w>
l d
ta m_
tho át</w>
chi_ phí</w>
cơ _thể</w>
thá c</w>
điều_ trị</w>
ch ữa</w>
hành_ tinh</w>
thống_ nhất</w>
hợp_ đồng</w>
l âu_
thông_ thường</w>
s ho
le r</w>
3 0
e u
hạ t_
b ro
t ân</w>
châu_ á</w>
giả n</w>
xung_ quanh</w>
thất_ bại</w>
k _
l ạ</w>
t ắc</w>
ch ùa</w>
tr iệu_
m ét</w>
hướng_ dẫn</w>
đầ y_
duy _trì</w>
tích_ cực</w>
ứ t</w>
thập_ niên</w>
el _
gu e</w>
hoà ng_đế</w>
ph ối</w>
lạ p</w>
nhu_ cầu</w>
m ón</w>
t ầm</w>
ph ú
ỏ _
si êu</w>
kh ẳng_
iề m</w>
cana da</w>
ti o
m ù
chấp_ nhận</w>
đầ y</w>
truyền_th ông</w>
ti a</w>
l ẫn</w>
chá y</w>
tố i</w>
n_th ể</w>
bã o</w>
qua ng_
ch ẳng_h
chẳng_h ạn</w>
tr ần</w>
ấ p_
u ống</w>
e _d
thành_ phần</w>
b í_th
gó p_
ý _kiến</w>
ế _t
hô m</w>
đô i_
quầ n_đảo</w>
tr ục</w>
hoạ t</w>
á ng</w>
hạn_ chế</w>
._ nó</w>
c s</w>
đ ợt</w>
cả ng</w>
không_ gian</w>
bí_th ư</w>
tế_ bào</w>
khẳng_ định</w>
t òa_
vì _vậy</w>
tạp_ chí</w>
ho á</w>
ga me</w>
tra o_
ngh ỉ</w>
la_m ã</w>
bao_ giờ</w>
biểu_ diễn</w>
c ố</w>
tá ch</w>
ban_ nha</w>
o u
] _
le n
phi m_
t ỉnh_
kí nh</w>
2 5
tiểu_ bang</w>
ce ae</w>
t ô
tương_ lai</w>
liên_ kết</w>
tr ước_
th ức_
c ập</w>
tác_ giả</w>
y ên_
cảnh_ sát</w>
h ữu</w>
một_ vài</w>
ĩ _
bệnh_ viện</w>
ng ăn_
tố c_độ</w>
thụ y_
tr ái</w>
200 2</w>
[ _
ọ t</w>
tu ần_
r y
tí n_
ki a</w>
ngu ồn_
vận_ động</w>
cộng_ sản</w>
ắ p_
đạo_ diễn</w>
s ắt</w>
tầ ng</w>
giao_ thông</w>
b ằng_
b e</w>
th e_
th ăng</w>
trái_ đất</w>
gia_ nhập</w>
m or
n ửa</w>
tôn_ giáo</w>
m y
194 5</w>
sử a_
th ẩm_
p re
cấ m</w>
đầy_ đủ</w>
hà m</w>
nguồn_ gốc</w>
i_ l
bá n_
y _th
t iện</w>
đá ng_
f u
độ t_
f er
bố_ mẹ</w>
đế_ quốc</w>
tạ i_
r ơi</w>
quan_ sát</w>
trả _l
hồ ng</w>
m ỹ
gi ỏi</w>
me s</w>
kh í
u m</w>
hội_ nghị</w>
g d
chính_ xác</w>
só c</w>
200 3</w>
danh_ hiệu</w>
thủ y</w>
b ày</w>
cử a_
i l
chi m</w>
v ũ</w>
ph ối_
ké m</w>
trả_l ời</w>
c ú
công_ an</w>
ma ri
x ạ</w>
s co
z o
chiế n_l
ũ i</w>
m p
di_ chuyển</w>
ụ p</w>
7 0</w>
199 9</w>
ọ a</w>
phong_ trào</w>
ngoại_ khóa</w>
d ậy</w>
thủ _
b lo
đu ổi</w>
l ượt</w>
th uộc_
lý _
bình_ dương</w>
nhà_th ờ</w>
the o_
ú y</w>
đối_ tượng</w>
hã y</w>
mặt_ trời</w>
v ấn</w>
_l an</w>
văn_ học</w>
j i
đánh_ bại</w>
c ung</w>
dễ _d
y_ học</w>
l ộ
ng ầm</w>
n_h ồi</w>
ngh i</w>
đơn_ giản</w>
sa n
qu ỹ</w>
học_ viện</w>
v ù
khá c_
2 4
6 /3</w>
a s</w>
đáng_ kể</w>
cộng_h òa_
do n</w>
s ứ</w>
giải_ phóng</w>
3 /
thế_ nào</w>
hiệ u_trưởng</w>
20 21</w>
hồ_ chí_minh</w>
s ợ</w>
mặ c</w>
t t</w>
thay_ vì</w>
xu ân_
thủ _đ
dễ_d àng</w>
đ ò
th ị</w>
s ca
er _
ộ p</w>
i dae</w>
đ à
ca i_
v ệ_
n -
đề_ xuất</w>
vi r
d ọc</w>
uộ t</w>
m ức_
giải_ pháp</w>
đạ n</w>
rõ_r àng</w>
ch ứ</w>
ch ạ
bo m</w>
h a</w>
chiến_l ược</w>
c en
tù y</w>
le y</w>
thu ật_
ngày_ càng</w>
dẫ n_
năng_ lực</w>
d ầu</w>
phần_ mềm</w>
quả n</w>
gi ấy</w>
giảng_ dạy</w>
địa_ điểm</w>
ph ức_
y e
a t
tìm_ kiếm</w>
thầ y_
kết_ nối</w>
i ta
ạ n_
kh ảo</w>
ng -
ã y</w>
vật_ lý</w>
l ễ
phạ t</w>
độ c</w>
n a_
lo ại_
n_ s
s tan</w>
v an
_l ệnh</w>
ma la
ta i_
cự u</w>
mo ng_
ỏ a</w>
x ử</w>
u p</w>
truy ện</w>
s si
th ảo</w>
xe _t
t ờ</w>
c ô
thành_ tích</w>
ma i</w>
ự ng</w>
ngo ại</w>
nh_h ướng</w>
5 00</w>
i el
tr ò</w>
chặ n</w>
t ội</w>
a m</w>
w al
dân_ chủ</w>
tr ị_
tr ại</w>
phá o</w>
n_ định</w>
kh iển</w>
ng ồi</w>
v ùng_
lo u
phân_ tích</w>
hiệp_ hội</w>
a y</w>
n_đ iểm</w>
đ e_d
20 20</w>
khá ng_
đ ền</w>
u b
chung_ kết</w>
ch ân_
thu_ nhập</w>
phả n_hồi</w>
tr ưng</w>
d ấu</w>
._ việc</w>
iel ts</w>
trang_ bị</w>
h iểm</w>
chủ ng</w>
x ương</w>
mức_ độ</w>
ch _hợp</w>
m ắc</w>
bổ ng</w>
tr ợ</w>
t ường</w>
d ấu_
t ấm</w>
phili p
t y
kiế n_tr
l ợi</w>
ít_ nhất</w>
._ khi</w>
b ạc</w>
new_ yor
z u
s ài_
tạ p</w>
đôi_ khi</w>
ý_ nghĩa</w>
c ặp</w>
g ar
xe_ máy</w>
mi ễn_
._ họ</w>
c ây_
s er
hoàng_ gia</w>
l ưng</w>
bác_ sĩ</w>
l i</w>
bạ n_đ
th iệt_
f f
ấ u_tr
kh ích</w>
đ ô</w>
nguyên_ nhân</w>
ca li
chỉ_ đạo</w>
r ắn</w>
giú p_đ
giúp_đ ỡ</w>
iế t_
nó ng</w>
199 0</w>
s ử</w>
h ương</w>
3 1</w>
lo an</w>
2 ,
_d ân</w>
ba n
ứng_ viên</w>
hiệ p</w>
giải_ thích</w>
ý _tưởng</w>
tr ụ
bả y</w>
a b
ng ư
d ừng</w>
khai_ thác</w>
ch ụp</w>
m ẽ</w>
- 19</w>
bộ_ phận</w>
nh ắc</w>
de r</w>
c li
r i</w>
l âm</w>
vù ng_đất</w>
2 .
tinh_ thần</w>
ổ n_định</w>
kê nh</w>
hiế n_
điệ n_thoại</w>
mạnh_ mẽ</w>
h er
_s ả
sở _hữu</w>
năm_ học</w>
quyề n_lực</w>
qu e
2 /
hà _lan</w>
20 0</w>
biên_ giới</w>
qua n_điểm</w>
tiếp_ cận</w>
văn_ phòng</w>
m b
g re
khả o_
đóng_ góp</w>
b ù
từ _ch
ké o</w>
đ ế</w>
đ àn</w>
h án</w>
bạn_đ ọc</w>
ấ m_
ti m</w>
điều_ khiển</w>
an d</w>
đ t</w>
to á
chăm_ sóc</w>
19 0
phối_ hợp</w>
nguyễ n_th
b ò</w>
từ_ch ối</w>
nông_ nghiệp</w>
e ng
2 9
e i
xe m_
qu ý</w>
nhân_ lực</w>
đáp_ ứng</w>
thá p</w>
2 6
cầ m</w>
]_ ]</w>
triều_ đình</w>
_l ẽ</w>
vụ _
sy ria</w>
k ị
tình_ hình</w>
qu en</w>
thủ_đ ô</w>
ủy_ viên</w>
é t_
ng ữ_
ch ú</w>
ba_ lan</w>
ng_h óa</w>
châu_ phi</w>
chu ỗi</w>
qu ý
t ức_
c ân_
trường_ học</w>
lý _thuyết</w>
n iềm</w>
thiết_ lập</w>
g à</w>
v ô
t á</w>
m ười</w>
ng ang</w>
tác_ động</w>
g òn</w>
cảm_ thấy</w>
è m</w>
phương_ tiện</w>
trung_ học_
qu ần_
ba o</w>
c ơn</w>
b àn_
thu_ hút</w>
s ắc_
t s
ú t_
tổ ng_hợp</w>
liên_ bang</w>
200 1</w>
t o_
c ỏ</w>
khác_ biệt</w>
thái_ lan</w>
ớ t</w>
chủ_ nghĩa</w>
th ử</w>
g ắn</w>
quy_ mô</w>
học_ bổng</w>
a i
th ú</w>
g en</w>
le _
điể m_
t en
vi nh</w>
hạ m_
ar d</w>
điện_ ảnh</w>
sài_ gòn</w>
tư _vấn</w>
for mu
ghi_ nhận</w>
pa ris</w>
c to
cụ m</w>
tố c</w>
tây_ bắc</w>
l ối</w>
c la
_đ ại</w>
_h ệ</w>
g ỗ</w>
khủ ng_
k ỷ_
xác_ nhận</w>
formu la_
trở_ về</w>
v ườn</w>
ươ i</w>
2 8
sáng_ tạo</w>
ma i
toàn_ cầu</w>
l ệ</w>
0 .000</w>
b ố
g an</w>
a f
thực_ phẩm</w>
._ nhiều</w>
thị_ xã</w>
m ạc</w>
co vid
b ỏ_
nh ánh</w>
sa o_
sinh_ học</w>
tương_ đối</w>
covid -19</w>
tu s</w>
sáng_ tác</w>
cao_ đẳng</w>
k ỷ_l
thứ _
tu y</w>
kh ối_
ngoại_ giao</w>
đ ổ</w>
ch ế_t
tư_ cách</w>
tr ồng</w>
ngh èo</w>
kh ổ
b el
y u
c y
hành_ vi</w>
0 ,
điều_ chỉnh</w>
đ ua</w>
đe_d ọa</w>
tăng_ cường</w>
._ một</w>
li ên</w>
2 7
n ộp</w>
si êu_
thống_ kê</w>
nổi_ bật</w>
ge or
m i</w>
thức_ ăn</w>
a ng
h ổ</w>
phá n</w>
chi_ tiết</w>
c ứng</w>
giáo_ hoàng</w>
t i</w>
nguy ện</w>
z e
tr ợ
r ãi</w>
kết_ hôn</w>
có _mặt</w>
phát_ sóng</w>
s ter
v ẽ</w>
vu i</w>
ánh_ sáng</w>
khá nh</w>
cuộc_ chiến</w>
lo ng_
c ực_
r ượ
liên_ minh</w>
à ng_
qu ê</w>
ha n
ne _
đồng_ ý</w>
bất_ ngờ</w>
ch _l
t ắt</w>
f re
w a</w>
an_ ninh</w>
l á
t ước</w>
hu ế</w>
gi ấy_
có _lẽ</w>
huấn_l uyện</w>
hy_ lạp</w>
phong_ cách</w>
r en
đ ai</w>
_t ử</w>
pi nes</w>
đị nh_hướng</w>
vị nh</w>
._ vào</w>
khuyến_ khích</w>
ch ắn</w>
đ ào</w>
công_ giáo</w>
trung_ học</w>
vì _thế</w>
ca n
từ _
li ne</w>
b iện_
th ua</w>
giới_ hạn</w>
er s</w>
18 9
th ờ</w>
sa n</w>
bình_ thường</w>
_ nghiệm</w>
x ây</w>
xe_t ăng</w>
tr ăm</w>
v en
ng ụ
rộng_ rãi</w>
thử _nghiệm</w>
quy ển</w>
mong_ muốn</w>
f lo
nước_ biển</w>
phức_ tạp</w>
ph ổ</w>
ch_th ức</w>
gi ó</w>
an a</w>
ph a</w>
đồng_h ành</w>
đề_c ập</w>
khá n_
cali for
r _
le a
đ ệ
n ề
n_b è</w>
cứ u_
iệ p</w>
trình_ độ</w>
khá i_
m ấy</w>
ph úc_
hồi_ giáo</w>
phân_ loại</w>
chiế m_
ph ật_
đ ương</w>
tòa_ án</w>
nh ẹ</w>
tiể u_th
trao_ đổi</w>
thí ch_
đo án</w>
m ưu</w>
a c
thu ê</w>
gó c</w>
h ơi</w>
philip pines</w>
chuyên_ nghiệp</w>
gi ọng</w>
n_t ải</w>
văn_ bản</w>
phân_ biệt</w>
l d</w>
s s
hạm_ đội</w>
đó n</w>
sư_ đoàn</w>
l iệt</w>
đo ạt</w>
tr ốn</w>
new_yor k</w>
t cn</w>
u r</w>
bạ n_bè</w>
l uyện</w>
v en</w>
sá t_
ắ n_
w n</w>
xem_ xét</w>
tạ m</w>
cha_ mẹ</w>
k êu_
k y
_c ơ</w>
l ê</w>
d õi</w>
khán_ giả</w>
tài_ sản</w>
toá n_học</w>
tác_ dụng</w>
ng ọc</w>
nh ịp</w>
hàng_ đầu</w>
tình_ dục</w>
không_ quân</w>
ba n_hành</w>
đ âu</w>
thuật_ ngữ</w>
we b</w>
me n</w>
e li
p en
s ĩ_
thu ậ
ú a</w>
ph ê_
o l</w>
cạ nh_
trình_ diễn</w>
đại_ hội</w>
đa_ dạng</w>
m ưa</w>
._ tháng</w>
2 _
ne r</w>
kiến_tr úc</w>
nhà_ máy</w>
v er</w>
n_l ợi</w>
k èm</w>
d ây</w>
._ có</w>
ô_ giáo</w>
đ ổ_
ne y</w>
s o_
cấ u</w>
ch ấp</w>
l ông</w>
198 0</w>
phạm_ vi</w>
n s</w>
_tr iệu</w>
l ương_
al -
chế_t ạo</w>
t u_
r y_
hiến_ pháp</w>
địa_ bàn</w>
ng ủ</w>
k en
197 5</w>
khách _hàng</w>
bở i_
ne -
t ết</w>
n_tr ị</w>
giả ng</w>
califor nia</w>
n_đ ồ</w>
đồng_ minh</w>
đàn_ ông</w>
de s</w>
hạt_ nhân</w>
th úc_
c e_
đ ỉnh</w>
thu ế</w>
th ạ
d en
cạnh_ tranh</w>
mi êu_
k ar
vũ_tr ụ</w>
s ố_
ng ừng</w>
m s</w>
sẵ n</w>
ti n_
chứng_ minh</w>
ng ược</w>
thả m_
i ii</w>
sá p_
c ờ</w>
bệnh_ nhân</w>
m ật_
0 _%</w>
sinh_ sống</w>
th ư_
s eri
tr u
thế _hệ</w>
sư_ phạm</w>
thả o_
ỳ nh</w>
n êu</w>
e t</w>
_ch ế</w>
khái_ niệm</w>
a ng_
chấ m_
ch ẳng</w>
lư ới</w>
ch àng</w>
w es
m àn</w>
cai_ trị</w>
ne sia</w>
nh ấn_
đ ình_
đ ương_
sá nh</w>
tr ộ
m ê</w>
kêu_ gọi</w>
miêu_ tả</w>
h ệ_
đu ôi</w>
tr ầ
v ỡ</w>
phả n_đ
_ch ương</w>
._ đến</w>
vũ _
l le
x a_
l ục</w>
i re
ẵ ng</w>
phá o_
x ưa</w>
l iệt_
trụ _sở</w>
a ni
s ắp</w>
n_đ àn</w>
ng ại</w>
sáp_ nhập</w>
đo àn_
nguyễ n_h
ư a_
ỏ ng_
t àn_
truyề n_
mặt_ trận</w>
động_ cơ</w>
k ì</w>
đề_c ử</w>
ị _th
tha nh_h
li n
u l
la o</w>
is ra
v ợ
quả n_trị</w>
_l ệ</w>
kích_th ước</w>
m 2</w>
th ọ</w>
nói_ chung</w>
_t ống</w>
t ội_
thái_ bình_dương</w>
diễ n_đàn</w>
n_t ập</w>
t u</w>
_l uận</w>
khá m_
k ịch</w>
kh i
tiểu_th uyết</w>
o k</w>
tr òn</w>
b en
k ra
má i</w>
l ỗ</w>
ẹ n</w>
tr e
s ắp_
3 .
só t</w>
g ặ
xi co</w>
đa_ số</w>
e m_
m àu_
né m</w>
b la
so ng_
bồ i_
ỉ _
m y</w>
v ân</w>
ch ép</w>
si nga
o s</w>
ch ắc_
đ ỗ</w>
động_ viên</w>
tá i</w>
phản_đ ối</w>
tương_ đương</w>
a l</w>
n y</w>
f t</w>
khu_ trục</w>
d ãy</w>
tá m</w>
bất_ cứ</w>
c ướ
đài_ loan</w>
như _vậy</w>
ỡ ng_
se n</w>
lu i</w>
biện_ pháp</w>
t ải</w>
nh iệt</w>
hộ _tống</w>
co lo
é o</w>
cư ới</w>
ứ _
3 5</w>
199 8</w>
_th uộc</w>
singa por
t ướng_
ì m</w>
m ũi</w>
nhấn_ mạnh</w>
n ẵng</w>
ước_ tính</w>
cả i_th
cá t</w>
wi lli
k ý_
ện_ viên</w>
te s</w>
x ong</w>
a us
na l</w>
nghiêm_ trọng</w>
giảng_ viên</w>
hoà ng_h
nhiệt_ độ</w>
3 ,
nguy _cơ</w>
4 .
khối_ lượng</w>
nhiễ m</w>
giao_ diện</w>
e n_
4 5</w>
ir an</w>
dự _kiến</w>
đố t</w>
ta y_
tương_ tác</w>
ẫ u_
l ỗi</w>
kh ổ</w>
so ạn</w>
giáo_ hội</w>
việ c_
1 -
hòa_ bình</w>
sinh_ vật</w>
c ừ
h ôn_
g ran
h ùng</w>
ư _h
n_t ảng</w>
nề n_tảng</w>
phó ng_
h en
199 7</w>
6 5</w>
ph ỏng_
định_ cư</w>
9 0</w>
us _
đối_ phương</w>
kh ắc_
d ri
bo n</w>
ạ p</w>
đ ổi_
x u_
bi ên</w>
trị nh_
i_ m
đội_ ngũ</w>
cải_th iện</w>
xi t</w>
mu a_
si s</w>
18 8
bộ_ binh</w>
3 00</w>
hiệ n_tượng</w>
ắ t_
_k ý</w>
khoa_ học_
đặc_ hữu</w>
tổng_ số</w>
m ỏ</w>
ê ng</w>
isra el</w>
huy _chương</w>
tổ _
hội_ đồng_
thanh_ niên</w>
vi_ phạm</w>
el l</w>
singapor e</w>
196 0</w>
giám_ sát</w>
bảo_t àng</w>
._ nếu</w>
vật_ liệu</w>
h ưởng</w>
chắc_ chắn</w>
iệ ng</w>
việc_ làm</w>
197 0</w>
s a_
_s ở
c ãi</w>
công_ dân</w>
thuy ết_
ch ợ</w>
bộ _l
rượ u</w>
so_ sánh</w>
ub nd</w>
ra_ đời</w>
tr ải_
lu ân_
cải_ cách</w>
b èn</w>
ng ược_
kh uyên</w>
th ú
th ỏa_
mạ ng_
h àn</w>
tr í
l y_
lạ nh</w>
nh ĩ</w>
phụ _thuộc</w>
bó ng_
dạ y_học</w>
i t</w>
ng ton</w>
đặc_ trưng</w>
trải_ nghiệm</w>
i d</w>
199 6</w>
thông_ minh</w>
chi a_
ng àn</w>
thí_ nghiệm</w>
liên_ hệ</w>
khoả ng_
đặc_ điểm</w>
ung_ thư</w>
biế n_
sá ch_
hóa_ học</w>
o x
ta i</w>
ngh ìn</w>
me r</w>
a ir
al _
s se
f a</w>
w indo
b ối_
cừ u</w>
vậ n_tải</w>
ngoại_ ngữ</w>
n_th ương</w>
s ông_
hạ nh_
x ét_
phi ên</w>
báo_ chí</w>
nhạc_ sĩ</w>
u n</w>
phân_ bố</w>
h ài_
e le
gi àu</w>
p a</w>
sẵ n_s
sẵn_s àng</w>
triều_ đại</w>
phá _h
đ o</w>
h ứng</w>
thể_ loại</w>
hạ _
quốc_ phòng</w>
l ắng</w>
s sa
la m</w>
m iệng</w>
bo ur
tiêu_ diệt</w>
phê_ bình</w>
không_ khí</w>
ch ờ</w>
p e</w>
đ ời_
địa_ lý</w>
o ly
chỉ_ tiêu</w>
xu_ hướng</w>
trực_ thuộc</w>
c tu
kh ấu</w>
tha i</w>
v n</w>
báo_ điện_tử</w>
g ha
tr ống</w>
._ xã</w>
nh ậ
nhất_ định</w>
hàng_ không</w>
tr iết_
ph e</w>
khám_ phá</w>
indo nesia</w>
i êu</w>
nguy _h
khu ôn_
tá n</w>
trạ ng_
c c
d i</w>
tiề m_
ã o</w>
tổng_ cộng</w>
ắ ng_
3 2</w>
tư _lệnh</w>
ụ t</w>
ngh ề
ch ắc</w>
f e
wo o
b ãi</w>
_l ea
windo w
bởi_ vì</w>
sĩ_ quan</w>
toàn_ quốc</w>
tiể u</w>
th ạch</w>
phỏng_ vấn</w>
d u</w>
te d</w>
nghĩa_ là</w>
th ải</w>
sa in
h ấp_
tối_ đa</w>
v ỏ</w>
vi l
kỷ_ niệm</w>
con_ số</w>
nhân_ sự</w>
go o
ki ên_
d ge</w>
199 5</w>
t ậ
ặ ng_
nghề _nghiệp</w>
d òng_
thá nh_
dịch_ bệnh</w>
t ú
khuyến_ học</w>
lập_ tức</w>
gh ế</w>
đổ_ bộ</w>
theo_ dõi</w>
ni nh_
anh_ em</w>
quân_ đoàn</w>
chuyên_ môn</w>
199 4</w>
d y</w>
cú p</w>
gia_ tăng</w>
h ưng</w>
công_ chúa</w>
ưu_ tiên</w>
bí_ mật</w>
tài_ năng</w>
vi êm</w>
thúc_ đẩy</w>
p an
li sh</w>
học_ viên</w>
tập_ hợp</w>
tr ùng</w>
la ng</w>
joh n_
g ro
h iể
ni ên_
ch ị_
199 1</w>
ph ầ
n ỗi</w>
f ri
nhất_ là</w>
gi à</w>
hôn_ nhân</w>
vận_ chuyển</w>
tương_ ứng</w>
k o</w>
bur g</w>
ph ê
trưởng_ thành</w>
v ẻ</w>
riê ng_
hợp_ lý</w>
th _
nữ_ sinh</w>
tâm_ lý</w>
lo n
mua_ bán</w>
th uyết</w>
bề _mặt</w>
oly mpi
nh ảy</w>
sắp_ xếp</w>
lu s</w>
._ hai</w>
tr úng_
inter net</w>
_s ư</w>
vi nh_
_sả n_
giáo_ phận</w>
v ú</w>
chủ_ nghĩa_
_t ộc</w>
g er
nhà_ vua</w>
mo n</w>
ti n_t
d ứt</w>
c ận_
ngh ệ_
t ần</w>
b á</w>
huy _
men t</w>
5 /3</w>
dị p</w>
tha ng</w>
ng ô
ngăn_ chặn</w>
góp_ phần</w>
b re
th cs</w>
thuy ền</w>
độ t</w>
gh t</w>
_sản_ xuất</w>
đa u_
ngược_ lại</w>
m à
g ấp</w>
bi ll
m à_
thuố c_
cư _dân</w>
mà_ còn</w>
đá m_
m ơ</w>
đối_ thủ</w>
ch ậm</w>
đồ _
d el
nguyên_ tắc</w>
/ 0
bảo_t ồn</w>
bản_ địa</w>
á i_
b y
nguy_h iểm</w>
b ây_
áp_ lực</w>
ch ở</w>
đá p</w>
tr ăng</w>
d a_
sa n_
thương_ hiệu</w>
trung_ hoa</w>
bây_ giờ</w>
á o_
th er
quy_ trình</w>
tư _d
o t
tr ứng</w>
tranh_ cãi</w>
tối_ cao</w>
th ụ</w>
qu à</w>
b iệt_
c -
mala y
đa u</w>
199 2</w>
tạ m_
in a</w>
nhiệm_ kỳ</w>
chứng_ chỉ</w>
_ch ồng</w>
k m</w>
chuyên_ ngành</w>
d ra
i a</w>
t óc</w>
kiế n_
eng lish</w>
uy ền</w>
7 5</w>
vi et
u -
tính_ chất</w>
s co</w>
học_ phí</w>
z a</w>
d ũng</w>
l ào</w>
v ĩ
lợi_ ích</w>
ụ i</w>
công_ khai</w>
v ững</w>
ho ang_
o ne</w>
m c
v òng_
_tr í</w>
kh ô</w>
hấp_ dẫn</w>
ale x
th ôi</w>
c à_
s âu_
p y
l ược</w>
s ữa</w>
s ăn</w>
vợ _chồng</w>
quảng_ cáo</w>
_h ậu</w>
tu ấn</w>
c er
tiếp_ xúc</w>
t ấm_
_h ội_
l ĩnh</w>
hạnh_ phúc</w>
khổ ng_l
chí n</w>
biểu_ tượng</w>
t ống</w>
sân_ khấu</w>
í n</w>
linh_ mục</w>
phản_ ánh</w>
kh ơi</w>
khổng_l ồ</w>
_ đạo</w>
7 _
d ầu_
phá_h ủy</w>
d er
nhà_ khoa_học</w>
liên_ đoàn</w>
b or
blo g</w>
x ô
l ọt</w>
á m_
ặ t</w>
màu_ sắc</w>
b ụng</w>
for d</w>
tìm_ hiểu</w>
m bia</w>
liên_ tiếp</w>
ấ n_tượng</w>
trạng_ thái</w>
18 6
chú t</w>
c ùng_
khoảng_ cách</w>
nhiễ m_
nhà _sản_xuất</w>
0 1</w>
c ra
mà n_hình</w>
k ỹ</w>
tư_d uy</w>
bồ _đ
a i_
loại_ bỏ</w>
cổ ng</w>
đổi_ mới</w>
biểu_ tình</w>
nhận_ xét</w>
ch ục</w>
b iể
mi cro
cuộc_ đời</w>
sta n
thuộc_ địa</w>
ta n
8 /
el a</w>
cửa_ hàng</w>
di a</w>
r út_
tiết_ lộ</w>
mã _
tài_ trợ</w>
e x
hu y</w>
nghệ_ an</w>
tại_ sao</w>
li s</w>
l ộc</w>
t ưởng_
199 3</w>
công_ cụ</w>
n_đ o
đ à_
nhà_ văn</w>
chủ_ động</w>
nam_ phi</w>
sáng_ lập</w>
khu ẩn</w>
kị ch_
i_ hỏi</w>
n ét</w>
định_ nghĩa</w>
liệt_ kê</w>
hy_ vọng</w>
huấn_l uy
l ần_l
ng ô</w>
pa u
m ầm_
tử _v
ire land</w>
_ cả</w>
s ống_
lo_ lắng</w>
ị_th ương</w>
h ề</w>
u g
12 /
sử a</w>
malay sia</w>
us e</w>
hiế m</w>
t iệ
p s</w>
vă n_h
._ tuy_nhiên</w>
trạ m</w>
so u
tăng_ trưởng</w>
tu r
s ch
kết_ luận</w>
cơ _chế</w>
tiêu_ chí</w>
ượ t_
phòng_ thủ</w>
huấn_luy ện_viên</w>
f f</w>
c ăn</w>
lần_l ượt</w>
t_ ch
c ương</w>
bối_ cảnh</w>
y_ m
lễ _hội</w>
c an</w>
đò i_hỏi</w>
b ị_thương</w>
ho l
a m_
cộ t</w>
bạ o_
đ ực</w>
tr ực</w>
chấm_ dứt</w>
thá ch_thức</w>
thầy_ cô</w>
t ưởng</w>
iề n_
t v
phật_ giáo</w>
g or
á m</w>
m ảnh</w>
m o</w>
ng ã</w>
n_th ưởng</w>
cam pu
t v</w>
4 /
xung_ đột</w>
195 0</w>
di ng</w>
kim_ loại</w>
d ường_
cao_ cấp</w>
9 /
._ đối_với</w>
ci a</w>
_v iết</w>
7 /
hiệp_ ước</w>
chủ ng_
ờ _
p d
th ư
k er</w>
| _
ừ ng_
dường_ như</w>
campu chia</w>
ng_ cấp</w>
n_đ ông</w>
, _
d ro
hải_ phòng</w>
đ ập</w>
g er</w>
u ệ</w>
we b
đ à</w>
mầm_ non</w>
đồ n</w>
nghị_ quyết</w>
5 /
3 6</w>
bã i_
bằng_ chứng</w>
vu i_
tai_ nạn</w>
t ùng</w>
thỏa_ thuận</w>
học_ trò</w>
s u</w>
da r
yêu_ thích</w>
g ỡ</w>
._ do</w>
n ợ</w>
ợ i_
b ữa</w>
vùng_ biển</w>
giải_ trí</w>
ck _
ti na</w>
thảo_ luận</w>
x ưởng</w>
nam_ á</w>
3 8</w>
ki êm</w>
ế p</w>
d ược</w>
c ri
s t_
ng ọn</w>
ch ri
a la
_c up</w>
xã _hội_
hoa_ hậu</w>
da vi
pa ra
huy ề
phân_ phối</w>
thụy_ điển</w>
bảo_ hiểm</w>
phương_ thức</w>
_tr ích</w>
l ù
trình_ bày</w>
n ữ
d or
k ông</w>
đả m</w>
n ạn_
b ọn</w>
3 3</w>
nh_h ùng</w>
bài_ hát</w>
aus tra
na n
h ỏa_
h òn</w>
vir us</w>
tr i_
h ằng</w>
k ý
bá nh</w>
t ô</w>
i ra
thế_ chiến</w>
qu y</w>
tình_ cảm</w>
tu ng</w>
._ tại</w>
ca m_
b i</w>
thiệt_ hại</w>
h ắn</w>
chấ m</w>
tử_v ong</w>
hà m_
v ợt</w>
nh uận</w>
0 _
khá ng</w>
ti c</w>
v ô_t
qu ỹ
âm_ thanh</w>
chi nh_
k an
tính_ năng</w>
tr ưng_
x ấu</w>
hà ng_hóa</w>
198 9</w>
th ạc_
mi n</w>
_th ích</w>
đ iệu</w>
n ô
nạn_ nhân</w>
n àng</w>
t a_
sk y</w>
bố _trí</w>
_k ết</w>
m ông_
tr ì</w>
uộ n</w>
chỉ _trích</w>
phát_ biểu</w>
trở_l ên</w>
bạ ch_
ro ber
c o_
t ận_
t ỏa</w>
đối_ mặt</w>
v ựng</w>
d ung_
thạc_ sĩ</w>
ste r</w>
v e_
hợp_ pháp</w>
ó t</w>
tức_ là</w>
lư u_tr
thư_ viện</w>
đồng_ tính</w>
fo r</w>
thời_ đại</w>
th iết</w>
_th ù</w>
qu e</w>
_l a</w>
3 4</w>
đá m</w>
sự _
t ận</w>
w hi
cầ m_
m ất_
o n_
x úc_
thực_ hành</w>
n ão</w>
4 8</w>
công_ viên</w>
c ỡ</w>
c ô_giáo</w>
ầ y</w>
dân_ cư</w>
t ụ</w>
đánh_ dấu</w>
công_ cộng</w>
h ết_
10 /
vậ n_h
si l</w>
3 7</w>
_t ài</w>
v al
qu ên</w>
na tio
x á</w>
thanh_h óa</w>
_lea gue</w>
na i</w>
de n</w>
c ường_
p ra
chú a_
chạ m</w>
phương_ án</w>
b b
th ơ
miễn_ phí</w>
biế n_đổi</w>
x ăng</w>
ch ữ
ph an_
to r
4 ,
v ạn</w>
bắt_ buộc</w>
t su
g ai</w>
xi nh</w>
2 -
đời_ sống</w>
m -
việ n_
giám_ khảo</w>
nh iêu</w>
c ú</w>
t ất</w>
ch el
h á
giao_ dịch</w>
f al
chuyển_ động</w>
wa shi
s en
d an</w>
ch ìm</w>
giao_ tiếp</w>
re s</w>
nhậ n_thức</w>
chấp_ hành</w>
bảo_ đảm</w>
m s
b ru
a nh_hùng</w>
kh o</w>
tư _tưởng</w>
sca r</w>
pro te
thí ch_hợp</w>
trước_ đây</w>
es t</w>
1 1/
đồng_h ồ</w>
hoàng_h ậu</w>
6 /
c .</w>
th ăng_
hoàn_ cảnh</w>
ar gen
bá nh_
vũ_tr ang</w>
c ập_
vô_ cùng</w>
yo u
di_ tích</w>
tr ông</w>
trợ _
sửa_ đổi</w>
công_ nhân</w>
sinh_ hoạt</w>
d â
c ăng_
đà_ nẵng</w>
ch e</w>
ch _t
phú _
ngụ y</w>
_h óa</w>
n âu</w>
cơ _sở
kh í_
194 6</w>
n_l uyện</w>
bướ m</w>
_s ạn</w>
ỡ i</w>
u_th ế</w>
n_tr ưởng</w>
ướ i_
bri dge</w>
cố t_
khách _sạn</w>
c lo
cùng_ với</w>
ệ ch</w>
kh ung</w>
l uy
gó i</w>
lon don</w>
thời_ trang</w>
ha u
c ười</w>
ượ n</w>
á ng_
phó _
ù m</w>
v ừa_
hô m_
g -
ca l
tính_ toán</w>
xô _viết</w>
x i</w>
_ ho
ngh ệ</w>
a p
d áng</w>
1_ ,</w>
t ỉ
sh e
p le
b ấy_
tấm_ lòng</w>
g s</w>
tuần_ báo</w>
ì n_
wor ld
ngh ị
đô _la</w>
a pp
tr ầm_
lớ p_
th ả</w>
hồ n</w>
thế_ vận_h
4 4</w>
cử _nhân</w>
xuất_ phát</w>
198 8</w>
z ea
m èo</w>
_t ục</w>
phim_ truyền_hình</w>
ho àn</w>
194 4</w>
5 5</w>
mar t</w>
le s
cảm_ hứng</w>
ng ợi</w>
_tr ọng</w>
ò i</w>
lợ n</w>
f an
r ập</w>
tiếp_ nhận</w>
sửa_ chữa</w>
m é
kỷ_l ục</w>
k ịp</w>
t land</w>
công_ chúng</w>
suy_ nghĩ</w>
wa y</w>
hạ m</w>
cảm_ giác</w>
cổ _đại</w>
trang_ web</w>
hàng_ loạt</w>
đả o_
đạo_ đức</w>
nông_ dân</w>
l ỵ</w>
gu i
liên_ lạc</w>
de l</w>
_t ín</w>
o l
t ĩnh</w>
ch es
v ở</w>
do_ thái</w>
thừa_ nhận</w>
de -
v õ</w>
ho ài</w>
di_ sản</w>
dân_ sự</w>
chiến_th uật</w>
t ôn</w>
trung_ đoàn</w>
khảo_ sát</w>
sh i</w>
căng_ thẳng</w>
v a_
ơ i_
u ri
ng ực</w>
nâ ng_cấp</w>
b r</w>
trúng_ tuyển</w>
te _
uni x</w>
do r</w>
d ặ
chỉ_ định</w>
di nh_
s ạch</w>
ti ễn</w>
bá c</w>
18 7
tuy ết</w>
xuất_ khẩu</w>
nguyễ n</w>
o p
nghi_ ngờ</w>
mù a_
on line</w>
ma y</w>
di_ động</w>
a ri
v ân_
ha m
h iểu_
a ra
_ binh</w>
ch ọ
thần_ kinh</w>
giấy_ phép</w>
194 2</w>
r ối_
ã m</w>
á y</w>
r ăng</w>
di s
po p</w>
x óm</w>
đ ậu</w>
m ồi</w>
_tr ương</w>
ụ ng_
ngân_ sách</w>
ọ a_
l é
th ượ
phân_ tử</w>
hoàng_ tử</w>
ỳ nh_
gh ép</w>
s ụ
nhà _h
b ỉ</w>
nguyên_ tử</w>
c us</w>
toàn_ diện</w>
tàu_ ngầm</w>
hu ống</w>
m ãi</w>
s àn</w>
sa i_l
g e_
t ù</w>
bao_ nhiêu</w>
v el
hầu_ như</w>
mông_ cổ</w>
4 00</w>
x _
ho ài_
kích_th ích</w>
h ủy_
h ưu</w>
tiềm_ năng</w>
do n
4 2</w>
nh ì</w>
a_m ua</w>
pd a_mua</w>
of _
tr ú</w>
t_ch ẽ</w>
lo n</w>
chặ t_chẽ</w>
tr ấn</w>
4 7</w>
mi n
kí ch_
eri a</w>
mi cha
tu ổi_
bài_ toán</w>
i g
đà m_
me xico</w>
riêng_ biệt</w>
' _
doanh_ thu</w>
lục_ địa</w>
chứng_ nhận</w>
ve ne
ch ống_
195 4</w>
cố _vấn</w>
._ đó</w>
kịch_ bản</w>
tình_ huống</w>
th ật_
th ù
bra sil</w>
_ ph
ra_ lệnh</w>
to r</w>
_tr ách</w>
ta n_
bu ồn</w>
m ừng</w>
chị_ em</w>
m ong</w>
ro ck</w>
gd -
bo ok</w>
bá n_đảo</w>
danh_ pháp</w>
hồng_ kông</w>
lớp_ học</w>
o s
dự_ định</w>
công_ lập</w>
_h ương</w>
ấu_tr ùng</w>
thuậ n_lợi</w>
ng_h ải</w>
zea land</w>
6 4</w>
vi ễ
0 4</w>
na l
bu ôn_
n_h ô</w>
en ter
t ọa_
đ ấu_
đ ô_
1 .000</w>
tín_ hiệu</w>
ber g</w>
y s</w>
d ị</w>
v é</w>
tài_ nguyên</w>
ph ật</w>
cá o_
ma l
thuyết_ phục</w>
h ẹp</w>
đ ấu_tr
5 .
ho ảng</w>
tổ _hợp</w>
quỹ _đạo</w>
ch ữ_
ba l
b y</w>
th ượng</w>
l ũng</w>
3 9</w>
thanh_ tra</w>
d âm</w>
7 ,
s ợi</w>
d ưới_
khí _hậu</w>
h ẳ
9 ,
tính_ cách</w>
ph ủ
r uột</w>
198 6</w>
v ong</w>
u kra
đ an_
t ật</w>
sử _
tu ầ
5 2</w>
nh i</w>
đối_ tác</w>
đấu_tr anh</w>
a li
ngọ t</w>
s p
ma r</w>
ho r
th an</w>
liên_ hiệp_
bấy_ giờ</w>
sở _thích</w>
người_ mẫu</w>
th iện</w>
sa n_hô</w>
wi l
g ợi_
nông_ thôn</w>
khẩ u_
giáo_ khoa</w>
hành_ trình</w>
austra lia</w>
194 3</w>
g al
khá nh_
v ết</w>
l ắm</w>
5 ,
no ctu
and ro
t ú</w>
ter _
fran ci
_ viên</w>
mu si
lưu_tr ữ</w>
b ức_
197 9</w>
ph ẫu_
chứng_ kiến</w>
_kh ai</w>
197 6</w>
nguyễn_ văn_
chủ _nhiệm</w>
> ></w>
_s o
mô n_học</w>
đặ ng_
to à
b s</w>
trá ch</w>
n_l ãm</w>
dấu_ hiệu</w>
c ục_
bình_ chọn</w>
học_ thuật</w>
f -
nghiệ p_
đông_ nam_á</w>
ca m</w>
gd- đt</w>
i o
b ùng_
triể n_lãm</w>
s ứ_
tổng_ giám_mục</w>
sơ _
phục_ hồi</w>
6 ,
p _thể</w>
kí nh_
rút_ lui</w>
0 2</w>
ni n</w>
nguy ện_
194 0</w>
nga y_
a na
vi n
xâm_ lược</w>
nam_ giới</w>
da n
argen tina</w>
198 5</w>
hẳ n</w>
ta r
b ụi</w>
di_ cư</w>
n_th iệp</w>
lưu_ ý</w>
e du
công_ thức</w>
tr úng</w>
h ương_
muố i</w>
_c ập</w>
cập_ nhật</w>
gia m</w>
ca n_thiệp</w>
nguyện_ vọng</w>
sách_ giáo_khoa</w>
ma t
sinh_ thái</w>
phẫu_ thuật</w>
mẫ u_
o c
noctu idae</w>
vo i</w>
dâ ng</w>
b ên_
._ cả</w>
197 2</w>
i -
tr i</w>
t p
đội_ hình</w>
cấ u_
hiệu_ ứng</w>
ju li
n ông</w>
ma s</w>
h el
đá o</w>
khoả nh_
l la</w>
m_ mê</w>
ì a</w>
198 7</w>
e m
trang_ phục</w>
th ẻ</w>
r uộ
a da
phụ _trách</w>
n ặng_
3 -
t z</w>
bill bo
đường_ sắt</w>
lên_ ngôi</w>
nú i_
ir e</w>
me _
f unix</w>
khoảnh_ khắc</w>
pháp_ lý</w>
triết_ học</w>
ng ô_
giới_ tính</w>
s k</w>
cá _thể</w>
hợp_ chất</w>
h ư_h
sa l
k m2</w>
hợp_ nhất</w>
washi ngton</w>
n t</w>
co m</w>
ng ôn</w>
bộ t</w>
b ày_
j er
bên_ cạnh</w>
4 1</w>
ch u</w>
i l</w>
s ơn_
ng ộ
le n</w>
is mart</w>
tiế ng_
prote in</w>
l ái</w>
ô m</w>
di o</w>
ta l</w>
chiếm_ đóng</w>
cảm_ xúc</w>
hoàn_ tất</w>
r ối</w>
thụy_ sĩ</w>
ni g
d y
tí ch_hợp</w>
bi n</w>
h ưng_
ớ i_
lã ng_
s ưu_
ế _th
d ã</w>
ông_ tin</w>
đ ựng</w>
hiện_ diện</w>
a xit</w>
sống_ sót</w>
cải_ tiến</w>
po ly
lê _th
h âm_
bắt_ nguồn</w>
chủ _trương</w>
th ép</w>
h o</w>
vil le</w>
thu ẫn</w>
phân_ chia</w>
cu ba</w>
ch uột</w>
ki stan</w>
hu ỳnh</w>
n_th iện</w>
k er
nh iên_
quan_ chức</w>
si te</w>
thích_ nghi</w>
k u</w>
thư _ký</w>
la r
kỳ _
ma i_
thái_ tử</w>
a -
ca ro
._ được</w>
tr ích</w>
t úc</w>
th ung_
ma n_
đ ỗ
va y</w>
na r
uy _tín</w>
lạ m_
sa r
y -
196 8</w>
tiến_ bộ</w>
đa m_mê</w>
duy ệt</w>
s pe
m ạn</w>
văn_ hoá</w>
sinh_ sản</w>
cướ p</w>
ồ i_
c re
hội_ thảo</w>
thiên_ nhiên</w>
p -
tr eo</w>
é p_
nhiên_ liệu</w>
đầu_ hàng</w>
dưới_ quyền</w>
ng ăn</w>
war d</w>
th ất</w>
đi nh_
l ượng_
7 .
a ma
bồ_đ ào</w>
tự_ tin</w>
t y_
198 2</w>
chặ t</w>
x ương_
pa d</w>
m iế
8 ,
vật_ chất</w>
ã ng</w>
_t ính</w>
ti ng</w>
ti êm</w>
chá nh</w>
bày_ tỏ</w>
biên_ chế</w>
x ít</w>
kí n</w>
mặt_ đất</w>
goo g
võ _
m ba
lâu_ dài</w>
tự_ động</w>
l ăng</w>
công_ngh ệ_th
x ưng</w>
đò i</w>
d ư</w>
o r</w>
198 4</w>
le o
lợi_ nhuận</w>
tuyển_ dụng</w>
ban_ chấp_hành</w>
6 .
h iến</w>
mi a</w>
vu ông</w>
s i</w>
trộ n</w>
kh iế
cả n</w>
vi si
ta in
194 1</w>
vi cto
d ám</w>
' s</w>
vi_ khuẩn</w>
pho ne</w>
k s</w>
5 8</w>
k ẻ
sự_ việc</w>
công_nghệ_th ông_tin</w>
hộ p</w>
hâm_ mộ</w>
am eri
r us
trung_học_ phổ_thông</w>
cân_ bằng</w>
quá _kh
h _
thủ _tục</w>
đẩ y_
r ồng</w>
vi a</w>
th u_th
b ước_
k ể
196 5</w>
tiêu_ biểu</w>
yo u</w>
đồ i</w>
tiêu_ dùng</w>
ni c</w>
lea gue</w>
5 4</w>
ng ũ
bạ ch</w>
ngay_ lập_tức</w>
tạm_ thời</w>
ira q</w>
._ dân_số</w>
đạo_ luật</w>
quá n_
sa i_
ng o</w>
thung_ lũng</w>
w in
phát_ âm</w>
thá o_
197 3</w>
ý_ định</w>
qu ê
đông_ dương</w>
a ceae</w>
g _
gi ận</w>
vụ_ việc</w>
ca ri
tiêu_ điểm</w>
kh ôi_
điể n_hình</w>
khủng_ hoảng</w>
huy_ động</w>
cam bridge</w>
vệ_ tinh</w>
đồng_ bằng</w>
u ật_
ma y_m
kể _cả</w>
may_m ắn</w>
hậu_ môn</w>
khó c</w>
ar y</w>
g ri
198 1</w>
lên_ đường</w>
tỉnh_ ủy</w>
jo se
huy ết</w>
hoà n_thiện</w>
k iệm</w>
p_th uận</w>
má t</w>
._ bộ</w>
á c_
đế_ chế</w>
te x
n_ n
lộ _trình</w>
a d</w>
phi_ công</w>
cổ_ phần</w>
mi l
ngoại_ trừ</w>
c p</w>
._ s
nhà _t
nghị_ viện</w>
theo_ đuổi</w>
mù i</w>
bả n_đồ</w>
đ ừng</w>
ẫ m</w>
4 6</w>
chấ p_thuận</w>
tàu_ chiến</w>
th iên</w>
19 30</w>
0 8</w>
4 3</w>
cli p</w>
i i
con_ cái</w>
lo s_
vir gi
g us
củ ng_
cha mpi
è o_
bá ch_
ng s</w>
ki ng</w>
thứ _t
dự_ bị</w>
thú _v
biểu_ hiện</w>
ca nh_
binh_ sĩ</w>
8 .
cần_th ơ</w>
gặ p_
i v</w>
b ơi</w>
._ những</w>
sân_ vận_động</w>
b à_
nh ìn_
bồi_ dưỡng</w>
t ào_
ur o</w>
ngư ỡng</w>
hoạt_ hình</w>
sain t-
s úng_
n ề</w>
chính_ trị_
c ất</w>
cơ_ cấu</w>
window s</w>
fa ce
_d uy
trung_học_ cơ_sở</w>
tài_ khoản</w>
l eo</w>
197 4</w>
ja ck
truy _cập</w>
v .
bắt_ giữ</w>
ng er</w>
0 3</w>
s ton</w>
tuầ n_tr
triệu_ chứng</w>
m ọc</w>
olympi c</w>
li êu</w>
cảnh_ báo</w>
i pad</w>
số_l iệu</w>
kháng_ chiến</w>
thiên_ hà</w>
tr à</w>
th ừa</w>
đô_ đốc</w>
tiêu_ thụ</w>
se a</w>
mặt_ trăng</w>
xo ay</w>
b lu
198 3</w>
ươ n</w>
tạ ng</w>
quảng_ bá</w>
tr ục_
fi el
tận_ dụng</w>
joh n</w>
p_đ ổ</w>
đàm_ phán</w>
th ó
m ây</w>
anh_ trai</w>
_nh ân_
luật_ sư</w>
p al
ầ ng</w>
1_ .</w>
thực_ dân</w>
ớ p</w>
n ối_
w e</w>
tư _nhân</w>
ma g
5 1</w>
s tra
tổng_ thể</w>
sụ p_đổ</w>
thá o</w>
l ỏng</w>
củng_ cố</w>
de _
b é
ne t
e ni
dẫn_ đầu</w>
thị nh_
197 8</w>
z e</w>
gi ây</w>
độ _
195 6</w>
du_ khách</w>
giả m_
cổ_ điển</w>
tiế n_hóa</w>
rối_ loạn</w>
hu ân_
một_ mình</w>
khởi_ đầu</w>
ẩ y</w>
new_ zealand</w>
quý _tộc</w>
' s_
nguyễ n_đ
liên_ ho
động_ lực</w>
vận_ động_viên</w>
s ci
bắc_ kinh</w>
điểm_ số</w>
s tu
mai l</w>
t ệ</w>
hu ng
giá p_
ph y
ca tion</w>
đ -
khá ch_
5 6</w>
t ả
g on</w>
phầ n_thưởng</w>
nói_ chuyện</w>
ro n</w>
an o</w>
tr on</w>
c ẩ
196 7</w>
quê _hương</w>
dinh_ dưỡng</w>
tố i_th
vệ_ sinh</w>
tậ p_thể</w>
cộng_ sản_
196 4</w>
tuần_tr a</w>
micro so
sự _th
an ti
di e
đại_ dương</w>
hôm_ nay</w>
web site</w>
diễn_ xuất</w>
an to
chinh_ phục</w>
hạ ng_
/ 12</w>
văn_ minh</w>
kê _khai</w>
ele c
_th ủ</w>
d ần_
kỹ _sư</w>
bình_ đẳng</w>
5 7</w>
đan_ mạch</w>
tội_ phạm</w>
o scar</w>
tho ại</w>
b o</w>
0 5</w>
thời_ tiết</w>
tham_ mưu</w>
quá_kh ứ</w>
bạo_ lực</w>
s é
ả y_
tiểu_ đoàn</w>
ẫ y</w>
sco tland</w>
h ủy</w>
ch é
c t</w>
v ời</w>
đ i_
ng_l ợi</w>
_d ương</w>
thá m_
th ù</w>
đ ấy</w>
kỷ_l uật</w>
196 3</w>
u ẩn</w>
xét_ nghiệm</w>
d -
chi êu_
b ổ</w>
kho án</w>
ri e</w>
phả n</w>
th ắ
n y
h ài</w>
nặng_ nề</w>
ằ n</w>
hậu_ quả</w>
_th iện</w>
_th ần</w>
enter tain
ữ ng_
su l
nh ượng</w>
nguyên_ tố</w>
x óa</w>
_c ửa</w>
phát_ sinh</w>
a t</w>
la i_
hà _t
m ệnh_
đá y</w>
4 9</w>
quần_ áo</w>
buôn_ bán</w>
qu i
kế_ vị</w>
nữ_ hoàng</w>
gi ấ
tây_ dương</w>
woo d</w>
nhà_h át</w>
ha ng</w>
tự _trị</w>
đ ắc_
tiết_ kiệm</w>
._ h
_t ầng</w>
l ật_
_ch ủ</w>
mạng_ lưới</w>
e o_
9 .
m p</w>
h ứa</w>
5 3</w>
thu_th ập</w>
h ỏa</w>
chị u_
si n</w>
j i</w>
f ro
tr ụ</w>
ni e</w>
uni ted</w>
f la
196 9</w>
thủ y_th
billbo ard</w>
đất_ đai</w>
đ ôn</w>
quy_ tắc</w>
hiế u</w>
thật_ sự</w>
8 5</w>
khởi_ nghĩa</w>
học_ giả</w>
khôi_ phục</w>
đặc_ nhiệm</w>
trang_ trí</w>
liên_hiệp_ quốc</w>
đặ t_
e d</w>
world _cup</w>
be l</w>
vật_ thể</w>
0 7</w>
195 5</w>
9 5</w>
_v ẻ</w>
hỗ n_h
b ớt</w>
tố ng_
b iện</w>
gợi_ ý</w>
ca mer
rea ding</w>
thắ ng_lợi</w>
4 -
champi on
tranh_ luận</w>
thi_ hành</w>
e f
wa les</w>
r ô
bù i_
t ỷ_
huân_ chương</w>
dặ m</w>
chỉ_ số</w>
m ông</w>
nhà_ giáo</w>
kê nh_
_ ng
s tr
ri char
vene zu
t ần_
bra zi
r ã</w>
t úy</w>
n_th ị</w>
._ a
bộ _t
thực_ tiễn</w>
ph ẳng</w>
g ne-
thống_ trị</w>
qu át</w>
d ò</w>
bo u
đạ p</w>
na m
_v ật</w>
ướ t</w>
vi ên_
tú i</w>
quốc_ xã</w>
nhập_ khẩu</w>
ho à</w>
v ar
hết_ sức</w>
g ạo</w>
đ èn</w>
197 1</w>
tuyên_ truyền</w>
196 2</w>
dần_ dần</w>
đi nh</w>
nhà_ nghiên_cứu</w>
huy ết_
tranh_ chấp</w>
quy_ hoạch</w>
l õi</w>
đại_ tá</w>
địa_ chỉ</w>
t ề</w>
cáo_ buộc</w>
ý t</w>
tối_th iểu</w>
kẻ _thù</w>
ghi_ chép</w>
to n_
seri es</w>
s ư
v o</w>
ni s</w>
đ iền</w>
sta r
to ur</w>
s pi
s ỹ</w>
tuy _vậy</w>
ja me
tử _
tr a_
dân_ gian</w>
c ẩm_
đông_ bắc</w>
phát_ thanh</w>
thống_ đốc</w>
nhà_ báo</w>
0 6</w>
z y
ni stan</w>
khá m</w>
en s</w>
tỉ _lệ</w>
hỗn_h ợp</w>
bỏ_ phiếu</w>
ta r</w>
tố n</w>
m m</w>
sưu_ tập</w>
ký_ hiệu</w>
kho áng_
điệ p</w>
197 7</w>
v ươn</w>
7_ ,</w>
ne u
i s_
_c ố</w>
8 8</w>
ra nh_
ph ê</w>
7 2</w>
vi ễn</w>
nghị_ định</w>
bình_ quân</w>
cung_ điện</w>
thú_v ị</w>
ổ ng_
m ảng</w>
gi r
sa i
g ần_
n y_
d ày</w>
mở _cửa</w>
to ky
z _
1 /3</w>
n ếu_
quân_ khu</w>
uố i</w>
cấp_ độ</w>
gi ãn</w>
phương_ diện</w>
n út</w>
r é
na po
0 -
tự a</w>
ca c
0 9</w>
tham_ khảo</w>
quốc_ lộ</w>
hành_ khách</w>
c n
00 .000</w>
face book</w>
hồng_ y</w>
d ời</w>
ni ng</w>
ạ nh</w>
ba ng
d ải</w>
co un
g lo
di_ truyền</w>
su n
ph ước</w>
c el
phong_ phú</w>
ố m</w>
à m</w>
rộng_ lớn</w>
ranh_ giới</w>
re _
bất_ chấp</w>
w _
l úc_
v ận</w>
k -
tiề n_t
việt_ nam_
sho w</w>
s- de-
em_ trai</w>
you tu
quy_ chế</w>
ngh ỉ_
ma dri
pu tin</w>
195 9</w>
lâu_ đài</w>
thiệt_ mạng</w>
chủ_ quyền</w>
x ướng</w>
mi ni
se r</w>
6 00</w>
196 6</w>
hình_ dạng</w>
uni ver
ukra ina</w>
từ _thiện</w>
chi nh</w>
quảng_ bình</w>
flo ri
c ự</w>
bất_ thường</w>
su per
chứng_ khoán</w>
l ò</w>
nh iế
n ạp</w>
l ân_
venezu ela</w>
thủy_th ủ</w>
nội_ chiến</w>
l ũ
họ a_
_l ập</w>
vă n_th
._ bài_hát</w>
v an</w>
b ốc</w>
nô _lệ</w>
b ưu_
quầ n_thể</w>
thái_ bình</w>
thó i_
194 7</w>
5 9</w>
di e</w>
cư _tr
đại_ sứ</w>
thái_ hậu</w>
v ững_
gi ấu</w>
đối_ lập</w>
tr ưa</w>
qu ét</w>
hung ary</w>
r ửa</w>
nội_ bộ</w>
nếu_ như</w>
nhận_ định</w>
h i</w>
d ược_
l ặ
co lu
lúc_ nào</w>
công_ tước</w>
b ọc</w>
sa ra
o_ l
brazi l</w>
bá m</w>
e -
194 9</w>
ứ a_
cá t_
195 8</w>
sự_th ật</w>
8 00</w>
_v ọng</w>
._ không</w>
xá m</w>
th iểu_
ng ự</w>
tr ân_
mỹ _
h ea
ph ước_
quảng_ nam</w>
ng_ lớp</w>
m âu_
tuyệt_ vời</w>
t ươi</w>
thập_ kỷ</w>
tí n</w>
_th uật_
phòng_ chống</w>
e a</w>
m ốc</w>
1 50</w>
mật_ độ</w>
đ ỉnh_
b ông</w>
_nh ật</w>
m el
chính_trị_ gia</w>
v ượt_
ninh_ bình</w>
cá nh_
tự _h
hiệp_ định</w>
chấ n_thương</w>
b ọ</w>
thường_ trực</w>
lập_ trình</w>
linh_ hoạt</w>
th ỉnh_
196 1</w>
thiếu_ tướng</w>
b àng</w>
_th ức</w>
v ang</w>
quyết_ tâm</w>
thường_ vụ</w>
b _
thông_ tư</w>
o li
f i</w>
._ dù</w>
tướng_ quân</w>
thói_ quen</w>
ẹ t</w>
độc_ đáo</w>
[_ [</w>
colo mbia</w>
no u
h ầu</w>
a h
._ album</w>
trung_ thành</w>
mộ c</w>
0 .
qu ý_
ca i</w>
đầ m</w>
pe s</w>
c es
tr an
7 -
thiết_ giáp</w>
c ân</w>
/ 11</w>
h i_
cư_tr ú</w>
le -
trung_ hải</w>
ộ c_
ha m</w>
tr ật_
f e</w>
._ d
ph ổi</w>
to wn</w>
_ch âu</w>
thiếu_ niên</w>
qu ỳnh</w>
tr e</w>
khủng_ bố</w>
trí _t
tiêu_ cực</w>
10 .000</w>
vậ n_hành</w>
khởi_ động</w>
tổ_ tiên</w>
chức_ danh</w>
bao_ vây</w>
_th ảo</w>
3 _
gi àu_
trị_ giá</w>
ti êm_
vĩ _đại</w>
r è
phóng_ viên</w>
a mi
_l ĩnh</w>
hoang_ dã</w>
ban k</w>
_th ách</w>
thử _thách</w>
i n_
m ồ
l ời_
._ quận</w>
ắ m_
nig eria</w>
w an
t ơ</w>
nhân_ quyền</w>
mâu_ thuẫn</w>
đối_ đầu</w>
ả _r
th ở</w>
giả _thuyết</w>
gra m
cử a_s
thế_vận_h ội</w>
hoà n_h
._ cuộc</w>
8 6</w>
/ 1</w>
willi am_
dư _luận</w>
se ou
._ tất_cả</w>
cử _viên</w>
co l
ứng_ cử_viên</w>
nh ũng</w>
ổ n</w>
dự_ đoán</w>
đám_ cưới</w>
d _s
c ương_
cố_ định</w>
bách_ khoa</w>
đảng_ viên</w>
cá ch_l
b út</w>
ti s</w>
từ_ bỏ</w>
tex as</w>
suố i</w>
tuyệt_ chủng</w>
chế_ biến</w>
lo r
_t ông</w>
h ùng_
thiểu_ số</w>
ph u</w>
hữu_ ích</w>
ste in</w>
ro m
tuyệt_ đối</w>
đồng_ nghiệp</w>
6 2</w>
ò _
ỗ ng</w>
lã o</w>
si ng
kinh_ phí</w>
đề _tài</w>
da r</w>
cận_ nhiệt_đới</w>
_nh ớ</w>
lưu_ diễn</w>
ki t
ho ang</w>
song_ song</w>
ch ốt</w>
c l
ar t</w>
lương_ thực</w>
có _vẻ</w>
p_th ời</w>
th ăm_
g ọn</w>
ba y
._ về</w>
alex and
p in
ph u_
v ải</w>
entertain ment</w>
cam_ kết</w>
da o</w>
x ỉ</w>
như _thế</w>
chiến_ trường</w>
đ ẻ</w>
đ ãi</w>
trợ_ giúp</w>
t ên_
_d i
đầu_ tay</w>
app le</w>
địa_ trung_hải</w>
tiệ c</w>
hiệu_ lực</w>
danh_ tiếng</w>
ngữ_ pháp</w>
cộng_sản_ việt_nam</w>
chu_ kỳ</w>
tin_t ức</w>
_ch ất</w>
ad van
i r</w>
tri nh_
tio n_
một_ chút</w>
đ eo</w>
lớ n_
ch ăn_
_t ình</w>
t te</w>
r i_
m uộn</w>
em_ gái</w>
_ học</w>
i b
v on</w>
trật_ tự</w>
9 9</w>
ra y</w>
ri o</w>
po mer
tầ ng_lớp</w>
thái_ độ</w>
k iều</w>
i_th ế</w>
z er
s la
n ồng_
lân_ cận</w>
lo_ ngại</w>
d ụ</w>
bu l
ai_ cập</w>
t ứ
._ vì</w>
q a
193 9</w>
cách_l y</w>
ô n_tập</w>
6 3</w>
r ủ
t é</w>
quốc_ dân</w>
thích_ ứng</w>
k ỉ</w>
ng ập</w>
nhà_th ơ</w>
._ phần</w>
t ter</w>
nhiế p_
lập_ pháp</w>
c ti
d ục_
chuyển_ giao</w>
195 7</w>
đặ c</w>
fran ce</w>
d àn</w>
tổ n_thương</w>
đ í
bản_ quyền</w>
e uro</w>
n ắng</w>
c y</w>
b -
địa_ hình</w>
l ứa</w>
sai_l ầm</w>
kị p_thời</w>
c anh</w>
diễn_ biến</w>
te l</w>
chủng_ tộc</w>
hoàn_h ảo</w>
tham_ nhũng</w>
ph ương_trình</w>
o -
ani me</w>
tu m</w>
ga mes</w>
194 8</w>
._ ngoài</w>
tr âu</w>
da y</w>
chi le</w>
re cor
lục_ quân</w>
19 20</w>
hiểu_ biết</w>
cơ m</w>
co lle
af gha
đảng_ cộng_sản_việt_nam</w>
madri d</w>
la tinh</w>
j a</w>
2 /3</w>
p ti
d ắt</w>
ri n</w>
ng ừa</w>
6 8</w>
te n</w>
dự _thảo</w>
g s
phó _t
ký _kết</w>
quần_ vợt</w>
hải_ dương</w>
_đ ình_
7 6</w>
tổng_ cục</w>
ba ma</w>
doanh_ nhân</w>
chiến_ binh</w>
ch ào_
k ỵ
ni n
n_tr ở</w>
k iệt</w>
thẩm_ quyền</w>
th a</w>
ra u</w>
ne y_
na n</w>
bản_ chất</w>
m y_
l ăng_
l ọc</w>
l ữ_
su r
wor ld</w>
n_đo án</w>
_đ ồ</w>
t ứ</w>
g i</w>
ber t</w>
ca p
bài_ học</w>
5 .000</w>
pa kistan</w>
công_ nguyên</w>
làm_ chủ</w>
p in</w>
seou l</w>
p h</w>
n ấu</w>
ho t</w>
195 3</w>
pa la
ngữ_ văn</w>
goog le</w>
t ỉ</w>
vương_ triều</w>
th ận</w>
i m
tương_ đồng</w>
._ tính</w>
do_ vậy</w>
bán_ kết</w>
7 7</w>
tr ấn_
mo sk
l ặp</w>
d ây_
s ườn</w>
/ 10</w>
khoa_học_ tự_nhiên</w>
youtu be</w>
thứ _trưởng</w>
th er</w>
mặt_ nước</w>
công_ngh ệ_
nhà_ xuất_bản</w>
trưng_ bày</w>
ch ừng</w>
ấ p_th
_duy ệt</w>
lật_ đổ</w>
danh_ dự</w>
c ong</w>
va n_
tiế n_tr
n ấm</w>
k ĩ
đông_ nam</w>
qu ận_
giàu_ có</w>
l ũ</w>
thủ _lĩnh</w>
liên_ minh_
g ương_
f c</w>
phòng_ thí_nghiệm</w>
g é
tin_t ưởng</w>
li b
h ẹn</w>
cà_ phê</w>
n_th ất</w>
d ốc</w>
tự _chủ</w>
đ ậm</w>
n_l âm</w>
công_ chức</w>
v n
ngo ái</w>
m ượn</w>
e cu
bình_ luận</w>
se _
5 -
toky o</w>
thế _lực</w>
so n_
ng ân</w>
ci ty</w>
sâu_ sắc</w>
ne a</w>
t ịch</w>
shi p</w>
joh n
6 7</w>
p ter
di o
chăn_ nuôi</w>
l s</w>
đó i</w>
luật_ pháp</w>
cảm_ ơn</w>
minh_ họa</w>
phê _duyệt</w>
l úa</w>
v es
ẩ n_
hạng_ mục</w>
th ỏ</w>
gi o
kỹ _thuật_
v ượng</w>
phát_ minh</w>
m ẹ
afgha nistan</w>
ả_r ập</w>
su s</w>
kh iếu</w>
_v ương</w>
bộ_l ạc</w>
ang e
khắc_ phục</w>
_sả n</w>
chọ n_l
_s ơn</w>
th y
v .</w>
lo gi
iễ m</w>
hiể n_thị</w>
le s_
công_ suất</w>
gặp_ gỡ</w>
flori da</w>
ro n
c in
ã n_
nh ựa</w>
man ches
liên_ hiệp</w>
ca n_
công_ bằng</w>
lù i</w>
ki ên</w>
nguyễn_th ị_
luân_ đôn</w>
c ậy</w>
phá i_
vụ_ án</w>
năm_ ngoái</w>
ma ni
jack son</w>
_th i</w>
nd er
đề_ án</w>
i to</w>
ễ u</w>
ng ài</w>
đối_ phó</w>
ba ck</w>
b à
quốc_ vương</w>
7 1</w>
r ẻ</w>
chi êu</w>
._ còn</w>
u ỷ_
edu cation</w>
na l_
tô n_trọng</w>
._ [</w>
g la
ch e_
r ác</w>
n_l ẻ</w>
b ến</w>
bá t</w>
địa_ chất</w>
ti me</w>
ko v</w>
g ương</w>
gi ờ_
nh o</w>
vo l
d ẹp</w>
dân_ chúng</w>
đảm_ nhiệm</w>
s ốc</w>
b li
giá ng_
_d ẫn</w>
vừa_ qua</w>
ả o_
thanh_ toán</w>
s el
b ếp</w>
n ướng</w>
on s</w>
thứ_t ự</w>
di a
cướ p_
ch uộ
ức_ chế</w>
tu ân</w>
mo u
th âm_
lâu_ đời</w>
thực_ thi</w>
ghi_ bàn</w>
nhà _hàng</w>
nh ắm</w>
t ụ
x anh_
c ặ
í ch_
huyề n_thoại</w>
6 6</w>
_tr ữ</w>
mi lan</w>
inter natio
wi ki</w>
mạ i_
chel sea</w>
nghị _sĩ</w>
n_l ượng</w>
en o
vi ễn_
ho à_
ó i</w>
o per
h ấp_th
viên_ chức</w>
tiền_ vệ</w>
ce s</w>
ro o
g ây_
mùa_ hè</w>
my an
h l
ý _thức</w>
ta ng</w>
thiên_ văn</w>
ã _
l d_
195 1</w>
s mi
nh_ l
k ì
bi t</w>
vị t</w>
kh ê</w>
j or
d ỡ</w>
vi e
mosk va</w>
kh en</w>
d àn_
_t ích</w>
w ell</w>
ngo n</w>
suy_ giảm</w>
rober t_
mở_ đầu</w>
ờ _đ
t ler</w>
bu ôn</w>
l k</w>
đại_ việt</w>
nhân_ tạo</w>
ngh ỉ
co u
ù _
ứ t_
họa_ sĩ</w>
đồng_ nghĩa</w>
ita lia</w>
l ồng_
d y_
duy ên_
ế m</w>
khí a_
r ạp</w>
c d</w>
có c</w>
khía_ cạnh</w>
kh ớp</w>
giáo_ dục_
e mi
m ỏng</w>
m iếu</w>
khẩ n_
cố t</w>
_d iễ
ó m_
va l</w>
ha wa
de s
ce lo
195 2</w>
ớ n</w>
nh a_
be a
ú p</w>
ba ra
ber lin</w>
m úa</w>
tu ân_
đối_ diện</w>
tiền_t ệ</w>
ng e</w>
đi_ lại</w>
xi nh_
x a
sự _cố</w>
n er
thu_ hồi</w>
chủ _trì</w>
f .
h ung_
đường_ phố</w>
tình_ nguyện</w>
h iền</w>
ph iế
trí_t uệ</w>
nam_ bộ</w>
d ê</w>
s úc</w>
thầy_ giáo</w>
._ chỉ</w>
l lo
g y
phát_ huy</w>
đảm_ nhận</w>
ga s</w>
ô _nh
l ắp_
kinh_ đô</w>
v ẹn</w>
số t</w>
w er</w>
ư u_thế</w>
t ch</w>
tho ảng</w>
advan ce</w>
hệ_ số</w>
f ra
b ội</w>
sa nd
le i
độc_ giả</w>
truy _t
lợ i_thế</w>
n_h ạn</w>
ê -
năng_ khiếu</w>
g h</w>
đó n_
sh a</w>
li na</w>
to_ lớn</w>
fiel d</w>
9 8</w>
đố m</w>
m ệnh</w>
w er
nu ôi_
k e_
thủ_ phủ</w>
n ở</w>
li êm</w>
đ òn</w>
quân_ pháp</w>
tr ắc_
9 2</w>
20 22</w>
khí_ quyển</w>
per u</w>
luy ệ
k al
cân_ nhắc</w>
ro ma</w>
s pa
and re
m óc</w>
trầ n_th
tiề n_l
áp_ suất</w>
thị nh</w>
lo g
l ây_
động_ sản</w>
âm_ lịch</w>
s ừng</w>
đ ằng</w>
th ổ
nhà_ ga</w>
bá i</w>
6 1</w>
kỳ _vọng</w>
m ôi</w>
ange les</w>
người_ thân</w>
nghi êm</w>
hỏa_ lực</w>
v iế
m us
h in
rè n_luyện</w>
r ẽ</w>
2 1/
pri n
chú _trọng</w>
4 /3</w>
por t</w>
đối_ xử</w>
tri_ thức</w>
mu r
khủ ng</w>
ecu a
b le</w>
s lo
_th ủ
bo t</w>
biế n_thể</w>
ư ỡng</w>
le e</w>
g ũi</w>
nguyên_ liệu</w>
nghiêm_ túc</w>
y_ khoa</w>
vũ _đ
virgi nia</w>
tiế c</w>
cung_ ứng</w>
tạ o_
hư_h ại</w>
w el
bất_ động_sản</w>
t ộc_
công_ văn</w>
a th
8 9</w>
8 7</w>
đặc_ tính</w>
quán_ quân</w>
gần_ gũi</w>
s ăn_
sả n_lượng</w>
bí_ ẩn</w>
bình_ định</w>
bi r
đồng_ đội</w>
khởi_ hành</w>
khở i</w>
ch ẩ
nh ạ
m ỏi</w>
8 4</w>
ll _
làm_ quen</w>
b ơ
tọa_ lạc</w>
lữ_ đoàn</w>
bắc_ ninh</w>
ecua dor</w>
ngh èo_
._ ngay</w>
núi_ lửa</w>
8 2</w>
vinh_ danh</w>
l ô
hạ nh</w>
mã n</w>
ố c_
đ âm</w>
t z
v à_
ô_nh iễm</w>
luyệ n_tập</w>
x -
di n</w>
chẩ n_đoán</w>
suy_ yếu</w>
sh _
ngư _l
d ụng_
bùng_ nổ</w>
p to
giá m</w>
tho ải_
d ũ
thoải_ mái</w>
t ượng_
sy l
f _
cấp_ bậc</w>
pháo_ đài</w>
pre mi
ám_ sát</w>
bỏ_ qua</w>
un d</w>
truyền_th uyết</w>
binh_ lính</w>
_nh ận</w>
bí_ quyết</w>
người_ lớn</w>
nam_ sinh</w>
chuy ền</w>
or e
o ri
lu ận_
n_h ộ</w>
kỵ _binh</w>
b í</w>
t ước_
cực_ kỳ</w>
cư ỡng_
8 3</w>
iế m</w>
m óng</w>
không_ chỉ</w>
._ tên</w>
m àng</w>
ẻ o</w>
a ._
tr ừ
ba_ tư</w>
a k
ph un</w>
tổ n_thất</w>
trao_ tặng</w>
so ái</w>
gia_ súc</w>
ơn_ nữa</w>
o k
s _s
lib ya</w>
khi êu_
la s</w>
v -
pe ter
da m</w>
tí n_đồ</w>
tác_ chiến</w>
nam_ mỹ</w>
microso ft</w>
cho_ dù</w>
đ an</w>
l iều</w>
bề n_
f ar
00 0_
thám_ hiểm</w>
ru ồi</w>
mé xico</w>
du ệ</w>
chia_ tay</w>
m ỡ</w>
ph ần_l
tá ng</w>
đo à
tr iệt_
dân_ chủ_
kh âu</w>
đảo_ chính</w>
tự u</w>
kho e</w>
công_ chiếu</w>
eu ro
tr ội</w>
s so
no wiki</w>
l ỗ
geor ge_
uy ến</w>
d re
ng ẫu_
an o
th ợ
bo l
b ỏ
triệu_ tập</w>
khẩn_ cấp</w>
9 6</w>
_ch uẩn</w>
se y</w>
phần_l an</w>
sa u
mã n_
._ phim</w>
quyề n_
a nia</w>
8 1</w>
x ứng</w>
fri ed
chiế u_
t ch
i_ ro</w>
b ạ</w>
rủ i_ro</w>
đ ợi</w>
phản_ xạ</w>
một_ nửa</w>
lã ng</w>
_d ục</w>
franci sco</w>
quyề n_lợi</w>
7 8</w>
tr o</w>
bền_ vững</w>
nam_ định</w>
phu_ nhân</w>
hà_t ĩnh</w>
nội_ vụ</w>
khuy ết_
n eo</w>
w w
n_tr ùng</w>
thông_ điệp</w>
ma t</w>
pa na
ne x
bar celo
thực_ tập</w>
cá ch_thức</w>
trị nh</w>
tin_ cậy</w>
nhập_ học</w>
tuần_ dương</w>
tr à_
e u</w>
tố _
tp .
nó ng_
gd p</w>
_th ực</w>
gia m_
tham_ quan</w>
có _
2 .000</w>
v ành_
lư ỡng_
cảm_ nhận</w>
ước_ mơ</w>
eo_ biển</w>
_tr i</w>
ch ôn_
jame s_
ho ả
gu ita
en ce</w>
lý _tưởng</w>
chữ_ cái</w>
tự _th
par k</w>
po ol</w>
los_ angeles</w>
en a</w>
e di
đoàn_ kết</w>
m u</w>
h ào_
7 4</w>
độc_ quyền</w>
vì _
nhập_ cư</w>
man n</w>
ch ợ
._ sự</w>
si l
mi ễn</w>
p er</w>
h ối_
liên_ho an_
hu ấn</w>
c ă
c ur
thẩm_ phán</w>
quan_ niệm</w>
7 9</w>
s àng</w>
k ur
định_ dạng</w>
mi d
cô n_trùng</w>
độ i_tr
biên_ tập</w>
da l</w>
6 -
i on</w>
kh e</w>
._ ảnh</w>
đ ẳng_
ar se
2 3/
thái_ nguyên</w>
hawa ii</w>
t te
n_th ảo</w>
ch ào</w>
trực_ thăng</w>
nh ạt</w>
l ừa</w>
hiệ n_th
trọng_ lượng</w>
qu ần</w>
ph ẩm_
a po
s cho
tự_h ào</w>
i sa
góp_ ý</w>
việt_ minh</w>
só i</w>
n ấu_
ng ãi</w>
ne t_
nguyễ n_tr
n_l ỗi</w>
d ính</w>
u ne
li ng</w>
e p</w>
lý _th
x ó
ăn_ uống</w>
t ĩnh_
ng a_
h ố</w>
na e</w>
d ịch
6 9</w>
hy dro
s ợ
kh ỉ</w>
trái_ tim</w>
mu a_s
âm_ mưu</w>
f c_
gu a
chá nh_
việt_nam_ dân_chủ_
tiên_ tiến</w>
d iệm</w>
1 000</w>
v d</w>
tình_ báo</w>
đ úc</w>
tây_ nam</w>
qu ỷ</w>
hữu_ cơ</w>
g ãy</w>
7 00</w>
tu ần_l
z z
mua_s ắm</w>
bu s</w>
_h ạ
nội_ địa</w>
s ta</w>
7 3</w>
a u</w>
thuy ề
t ph
so ci
b ăng_
xét_ xử</w>
kiến_ nghị</w>
lu ồng</w>
li ver
kỹ_thuật_ số</w>
pa ge</w>
g ru
đức_ quốc_xã</w>
1 20</w>
g p</w>
bộ_ môn</w>
r ạn</w>
ve s</w>
ca ra
trộ m</w>
nh ẫn</w>
b ào_
eli za
trưởng_ phòng</w>
tiêm_ kích</w>
au gus
ò m_
nội_ các</w>
qu ãng</w>
g ạch</w>
zi a</w>
ch ư_h
va_ chạm</w>
tiên_ phong</w>
lã nh</w>
tây_ sơn</w>
recor ds</w>
h ưởng_
f an</w>
tuy ên</w>
f ed
b ị_
độ ng_đất</w>
thủy_ điện</w>
giáng_ sinh</w>
viet nam
thành_ tựu</w>
cá p</w>
ă ng_h
tuy ến_
tr ượt</w>
se t</w>
ê nh</w>
nhạ y_
d uy</w>
gui nea</w>
thời_ hạn</w>
nh ắn</w>
j us
nói_ riêng</w>
nghi_ lễ</w>
ba r</w>
barcelo na</w>
ca_ ngợi</w>
9 7</w>
miế ng</w>
hủy_ bỏ</w>
e t_
cường_ độ</w>
_v ật_
điều_ khoản</w>
phê _chuẩn</w>
đội_tr ưởng</w>
thượng_ viện</w>
ga la
th a_
quảng_ ninh</w>
mi t</w>
không_ kích</w>
kh en_
chỉ _thị</w>
._ nhóm</w>
xa_ lộ</w>
cu p</w>
bul ga
xâm_ nhập</w>
ni dae</w>
học_ kỳ</w>
vă n_đ
biên_ soạn</w>
đà m</w>
thá ng_
khó i</w>
va len
đi êu_
a qu
s út</w>
r hô
tr ại_
kh e
r an</w>
n_l ành</w>
dự _trữ</w>
chân_ dung</w>
bu ýt</w>
u ra
in di
thừa_ kế</w>
thịnh_ vượng</w>
ma s
_k ịch</w>
2/ 2012</w>
t c</w>
ẩ u</w>
ng ộ</w>
khu_ phố</w>
bá ch</w>
5 _
đ ơ
đột_ biến</w>
o bama</w>
gran d_
se a_
lan d
ch er
_h ãi</w>
v án</w>
người_ yêu</w>
hình_ sự</w>
9 3</w>
tí m</w>
hu ỳnh_
uố c</w>
d ữ</w>
bộ_ máy</w>
ve l</w>
liên_hoan_ phim</w>
sợ _hãi</w>
nhân_ văn</w>
guita r</w>
go l
ba n_đ
ma_ túy</w>
ur i</w>
mi ni</w>
l er
c ất_
c ải</w>
thu ần</w>
mặt_ khác</w>
quân_ chủ</w>
p s
nh ãn</w>
dấu_ ấn</w>
9 1</w>
thiên_ văn_học</w>
s ét</w>
na ng</w>
do l
t ta
th ự</w>
phim_ hoạt_hình</w>
bour go
2 2/
wes t_
tam_ giác</w>
29 /2</w>
p .</w>
kế_ toán</w>
che -
ngu ồ
ế_ giới</w>
g ấu</w>
do nia</w>
wo l
th ạo</w>
s or
tri nh</w>
thăng_ long</w>
c ờ
al gé
ng ắm</w>
x y</w>
eliza be
đ ắp</w>
khen_ ngợi</w>
_vật_ chất</w>
ng_h iến</w>
yêu_ thương</w>
chủ _nhật</w>
n_th uộc</w>
cơ_sở _vật_chất</w>
ba i
a g
tai_ nghe</w>
n át</w>
ca_ nhạc</w>
đồ_ họa</w>
thế_ kỉ</w>
._ ma
dụng_ cụ</w>
2_ ,</w>
sư _tử</w>
hau t
giả _
da o_động</w>
vi n</w>
d .</w>
đầu_ vào</w>
chịu_ đựng</w>
việ n_tr
cao_ tốc</w>
_d anh</w>
c le
a se
vi i</w>
v _
nồng_ độ</w>
giấ c</w>
algé rie</w>
pháo_ binh</w>
c lu
thơ m</w>
sa ms
ngư_l ôi</w>
dẫn_ dắt</w>
do s</w>
cặ p_
_ch ủ
que n_thuộc</w>
m ưu_
co de</w>
xe_ buýt</w>
sk a</w>
a tion</w>
b éo</w>
hài_ lòng</w>
ro u
9 4</w>
sa ng_
kit ô_giáo</w>
chri sti
đình_ chỉ</w>
quảng_ trường</w>
đ ắ
n_ phá</w>
giải_ cứu</w>
đại_ thần</w>
thỉnh_ thoảng</w>
haut s-de-
an da</w>
đáp_ án</w>
phó_t ổng_
cầ n_
m ệt_
vành_ đai</w>
quân_ số</w>
$ _
g ne</w>
viện_tr ợ</w>
m c</w>
tr ùng_
ma ssa
ầm_ lẫn</w>
s a_m
lợi_ dụng</w>
ph a_
dũ ng_
cử _tri</w>
cục_ trưởng</w>
nổi_ loạn</w>
nh ẹ
ngộ t</w>
z on</w>
dữ _d
xi n_lỗi</w>
vă n_t
nghiên_ cứu_
hl v</w>
ki n</w>
k g</w>
2 3
hauts-de- france</w>
an s</w>
tr àn</w>
phân_ công</w>
pu n
phát_ động</w>
k ép</w>
di nh</w>
pomer ania</w>
năng_ suất</w>
lo ire</w>
l ệnh_
_h ành</w>
seri e_
bác_ bỏ</w>
shi re</w>
miễn_ dịch</w>
ti mes</w>
and er
tư_ pháp</w>
ché m</w>
ủ i</w>
đàn_ áp</w>
ma u</w>
m ới_
._ thành_phố</w>
vu a_
ũ y</w>
t úng</w>
n òng</w>
m ũ</w>
ll o</w>
th ợ</w>
lãng_ mạn</w>
he i
nhiễm_ trùng</w>
gia ng_
_hạ _tầng</w>
s ứ
m ê
d r
chuyể n_thể</w>
bãi_ bỏ</w>
_t u
. ...</w>
bạ c_
đồng_ chí</w>
v ard</w>
tiền_ đạo</w>
er e
kh ang</w>
thực_ chất</w>
ẹ o</w>
da ni
că n_hộ</w>
15 -
thứ_ bảy</w>
ngẫu_ nhiên</w>
m ìn</w>
_s ử
ọ c_
vui_ vẻ</w>
ta i
1 /2</w>
nguồ n_lực</w>
chi êm_
stan ti
ruộ ng</w>
v ô</w>
v ết_
v ả</w>
việt_nam_dân_chủ_ cộng_hòa</w>
tâm_ sự</w>
s s_
hướng_ đạo</w>
m ù</w>
d ro</w>
li nes</w>
d ơi</w>
chư_h ầu</w>
se t
univer si
s burg</w>
_đ ông</w>
sa_m ạc</w>
re n</w>
nh ị
hệ_ sinh_thái</w>
_h ữu_
._ cuối</w>
ch ó
l ô</w>
e mail</w>
xinh_ đẹp</w>
l ườn</w>
giải_ thể</w>
fran che-
niên_ đại</w>
cơ_sở _hạ_tầng</w>
trung_ tướng</w>
cổ_ phiếu</w>
te -
c ốc</w>
h ứng_
ho n
t wi
pla y
nhân_ tài</w>
tưởng_ niệm</w>
l ặng</w>
ườ ng_h
ne l</w>
193 6</w>
tr ừng_
thủy_ quân</w>
quảng_ ngãi</w>
nh o_
bạ o</w>
te le
n_đo ạn</w>
đ ành</w>
d ị_
quảng_ trị</w>
ma nia</w>
gh t_
com té</w>
trợ _lý</w>
nh ầm_lẫn</w>
lá i_
thụ _
hội_ chứng</w>
franche- comté</w>
b ỏng</w>
davi d_
nhân_ khẩu</w>
thiên_ chúa</w>
w an</w>
giá n_đoạn</w>
re y</w>
dữ_d ội</w>
cầm_ quyền</w>
_d o
vận_ tốc</w>
nh_h òa</w>
lo ve</w>
ch ăm</w>
bộ_t ư
mu s</w>
v ườ
q -
ber ia</w>
ta l
le u
b in
lâm_ thời</w>
bo o
ờ_đ ợi</w>
s wi
ch ờ_đợi</w>
nước_ mắt</w>
đ iền_
ò m</w>
ngô _đình_
10 0_%</w>
q đ-
193 8</w>
c ài_
su m
n_th u
n_t ây</w>
ra dar</w>
bộ_tư _lệnh</w>
nước_ ngọt</w>
lập_ luận</w>
hỗ n_
th ấu_
cài_ đặt</w>
c ạn</w>
nor man
đặt_ hàng</w>
o pi
si li
nhạc_ cụ</w>
._ khoảng</w>
ra dio</w>
thất_ vọng</w>
tố_ cáo</w>
cử u_
bảo_ mật</w>
arse nal</w>
pa le
lâm_ sàng</w>
s ọc</w>
li e</w>
1- 2</w>
v ở
cố ng_hiến</w>
ar me
liver pool</w>
ha i
bulga ria</w>
lồng_ tiếng</w>
x ích</w>
rô ma</w>
chi_ nhánh</w>
b er</w>
al pes</w>
bắc_ giang</w>
er a</w>
_đ ức</w>
tại_ chỗ</w>
tr ôi</w>
lý_ học</w>
._ số</w>
ki n
ch an
á _
k or
thành_ ủy</w>
n us</w>
la ng_
ga d
tù _nhân</w>
sa y_
co ur
no bel</w>
bưu_ điện</w>
u_th ị</w>
chiến_ sĩ</w>
phá n_
họ _hàng</w>
t ường_
mã _hóa</w>
ị u</w>
trắc_ nghiệm</w>
thăm_ dò</w>
ị t</w>
p an</w>
u e
tr ùm</w>
sáng_ chế</w>
ma y
l ư</w>
tí ch_l
t ảo</w>
hoàn_ chỉnh</w>
ng ơi</w>
mỹ _thuật</w>
lù n</w>
tuân_ thủ</w>
tinh_ thể</w>
bán_ chạy</w>
ẩm_ thực</w>
phó _chủ
ja mes</w>
y ến</w>
fran k
trung_ cấp</w>
._ tuy</w>
truy ệ
ti a_
hiế u_
fo x</w>
cá _m
window s_
trầ n_h
sk i</w>
đất_ liền</w>
t ứ_
đệ m</w>
trung_ gian</w>
nghĩa_ vụ</w>
le y_
t ị_
sa y</w>
nhạy_ cảm</w>
ho us
dung_ dịch</w>
ch ết_
khó a_
chú c</w>
v ất_
cl b</w>
ả n</w>
i nh</w>
góp_ mặt</w>
iề m_
h ụt</w>
văn_h óa_
3 d</w>
liên_ hợp_
gia_ định</w>
tượng_ trưng</w>
tp. hcm</w>
mệt_ mỏi</w>
a e
._ cùng</w>
tị_ nạn</w>
ot to
giáo_dục_ phổ_thông</w>
p r
b ại_
trục_ xuất</w>
an -
t ỉ_
4 _
nghi_ thức</w>
mã_ lai</w>
bài_ tập</w>
193 7</w>
c ắp</w>
_l uật</w>
í m</w>
ta m
làm_ sao</w>
ja va</w>
gh ét</w>
ch ăn</w>
s mar
cự u_
hậu_ vệ</w>
sơ n_l
qua y_
tòa_ thánh</w>
s mo
ti dae</w>
gi ặc</w>
bài_ giảng</w>
vất_ vả</w>
z am
nguyễ n_t
n_đ ộ</w>
trung_ đông</w>
su y</w>
pre ss</w>
e ver
_th o
._ m
chứng_ tỏ</w>
chu ông</w>
vi ii</w>
m ơ
la tin</w>
char les</w>
th ùng</w>
né n</w>
b ran
ngh iện</w>
mo bi
c s
nguyễn_th ị
hol ly
cải_ tạo</w>
tr ì
cặp_ đôi</w>
9 0_%</w>
ă n_l
thượ ng_hải</w>
gia_ tộc</w>
cá n</w>
phó_ giáo_sư</w>
trang_ chủ</w>
ph ượng</w>
ll y</w>
kích_ hoạt</w>
căn_ bệnh</w>
bắ n_phá</w>
xã_hội_ chủ_nghĩa</w>
li ban</w>
sh in
kho á</w>
bộ _nhớ</w>
tph cm</w>
lu ca
b ế
v la
3 /3</w>
vị _thế</w>
la u
bảo_ hộ</w>
_s u
n_th ông</w>
xuất_ thân</w>
tức_ giận</w>
truy ện_
to u
ngăn_ cản</w>
w in</w>
al ber
a vi
á n_
y lo
uố t</w>
te ch
lạm_ dụng</w>
tàn_ phá</w>
ir o</w>
học_ hành</w>
f ur
c uộn</w>
quá i_
ne n
gương_ mặt</w>
colu mbia</w>
k an</w>
gro up</w>
y a_
/ 7</w>
ổ ng</w>
nuôi_ dưỡng</w>
ban_đ êm</w>
đương_ thời</w>
victo ria</w>
ph ẫ
gen er
mặ n</w>
_t cn</w>
norman die</w>
pi er
dòng_ chảy</w>
bourgo gne-
phương_ ngữ</w>
gi ường</w>
chính_ quy</w>
bourgogne- franche-comté</w>
19 18</w>
đoàn_ bộ_binh</w>
nhà_ đầu_tư</w>
trá ng</w>
thảm_ họa</w>
gi ày</w>
th ục</w>
sa la
địa_ giới</w>
nhìn_ chung</w>
ng ạc_
hành_ quân</w>
mi na
ế ch</w>
đẩy_ mạnh</w>
bức_ xạ</w>
b è</w>
biệt_ danh</w>
chung_ cuộc</w>
p o</w>
mô _ph
._ đầu</w>
nh ầm</w>
h ung</w>
t ương</w>
c ru
tu_ viện</w>
qu ỳnh_
mạ o</w>
g ác</w>
ro s</w>
mô_ph ỏng</w>
nh ãn_
giai_ điệu</w>
har vard</w>
đ ống</w>
duy ên</w>
m ến</w>
cơ_ học</w>
cá _
chi ca
bri ti
g ắ
chuyên_ sâu</w>
_ chuyện</w>
2 50</w>
nghỉ_ ngơi</w>
cốt_ truyện</w>
r ạ
li o
h đ
bá n_lẻ</w>
điều_ động</w>
tt i</w>
ho w</w>
d ài_
chiế n_tr
/ 9</w>
qu ái</w>
liên_hợp_ quốc</w>
đột_ ngột</w>
sa r</w>
musi c</w>
đài_ truyền_hình</w>
champion s
_c i
ù i</w>
hậu_ duệ</w>
nguy ệt</w>
ị nh</w>
đỗ _
us s</w>
ti ne</w>
une sco</w>
tự a_
is e</w>
ph ép_
k no
jo ng-
war ds</w>
gi ật</w>
_l ong</w>
thạ ch_
rhô ne-
ng ắn_
mộ ng</w>
me ga
y e</w>
ch _h
nh -
dòng_ họ</w>
xâm_ chiếm</w>
r à
de sh</w>
,_ 5</w>
õ m</w>
cao_ nguyên</w>
c ắn</w>
rhône- alpes</w>
g ốm</w>
m òn</w>
fan page</w>
cửa_s ổ</w>
s ơ</w>
po n
ka ra
_ch ịu</w>
ò ng_đ
trung_ cổ</w>
cấ m_
rà _so
tựa_ đề</w>
rà_so át</w>
ma ra
f es
t ter
nghi êng</w>
chôn_ cất</w>
_l e
truyệ n_tranh</w>
fried ri
n_đ iện</w>
đ ứt</w>
tô m</w>
n_b ó</w>
gắ n_bó</w>
danh_ mục</w>
vì_ sao</w>
lý _t
trò _chuyện</w>
đỉnh_ cao</w>
v y</w>
trọng_ tài</w>
b ìa</w>
ta g</w>
hình_ học</w>
doanh_ số</w>
._ <</w>
v ào_
tốt_ đẹp</w>
thể _chất</w>
tần_ số</w>
_ con</w>
xi êm</w>
t ắm</w>
giờ_ đây</w>
v ạch</w>
lo ài_
j en
sử_ gia</w>
ma c
khuôn_ viên</w>
t ông_
h ỏng</w>
h y</w>
fo ot
thầ n_thoại</w>
micha el_
ma ria</w>
lái_ xe</w>
_h ộ</w>
hu ệ</w>
v áy</w>
cử u</w>
ca ta
ni co
bàn_ tay</w>
đồng_ nai</w>
ug anda</w>
visi on</w>
otto man</w>
r ùa</w>
s hu
m bi
lực_ lượng_
đài_ phát_thanh</w>
me di
10 .
vững_ chắc</w>
tăng_ tốc</w>
cto r</w>
hi tler</w>
19 19</w>
ma nga</w>
mặt_ hàng</w>
ur us</w>
c ối</w>
d na</w>
ck er</w>
vi ta
m r
phi a</w>
hous ton</w>
hạ_ viện</w>
t ti
nguyễn_h ữu_
n_h ữu</w>
hấp_th ụ</w>
r ễ</w>
ngạc_ nhiên</w>
hành_ lang</w>
bắt_ cóc</w>
tự_ sát</w>
đông_ á</w>
sta lin</w>
nhẹ _nh
thương_ vong</w>
t ầm_
n_th ận</w>
tá o</w>
h ầm</w>
đông_ đảo</w>
só c_
hạ_ cánh</w>
s ĩ
nh o
lu ôn_
_h i
đại_ tướng</w>
đột_ phá</w>
luôn_ luôn</w>
k ong</w>
đánh_ bắt</w>
cẩ n_thận</w>
f pt</w>
bu n
na_ uy</w>
đ ậu_
u_ d
thứ_ sáu</w>
quyết_ liệt</w>
k en</w>
3 .000</w>
địa_ danh</w>
r ho
tâm_ thần</w>
sai_ phạm</w>
hồng_ quân</w>
fi fa</w>
cơ_ quan_
[_ [_
quả ng_đ
x ấu_
kh ải</w>
tay_ vợt</w>
loại_ hình</w>
l -
đ è
x x</w>
thù y</w>
vườ n_
ng ục</w>
loại_ trừ</w>
bất_ hợp_pháp</w>
an e</w>
o ki
cho_ nên</w>
th ổi</w>
juli us</w>
tổng_ giám_đốc</w>
sứ_ quán</w>
tổ_ quốc</w>
tha o_
g ánh</w>
_thủ _tướng</w>
đầu_ ra</w>
die go</w>
ox y</w>
ga me
tuần_l ễ</w>
hạt_ giống</w>
hà_ nam</w>
m ũ
tháo_ dỡ</w>
phản_ công</w>
n_ sóng</w>
só ng_
ch éo</w>
đồ _chơi</w>
wor ld_
l ắp</w>
l ú
si n
lư u_th
trang_ trại</w>
n_tr ú</w>
m ươi</w>
i d
ma ce
fo lk</w>
ph ụng</w>
li dae</w>
geor ge</w>
v ị_
linh_ hồn</w>
dân_ quốc</w>
an us</w>
ro bot</w>
ngụ y_
việ n_trưởng</w>
foot ba
tuyển_ chọn</w>
du_ học_sinh</w>
đường_ bộ</w>
d iệu</w>
ch âm</w>
bảo_ thủ</w>
đăng_ tải</w>
n n</w>
1, 5</w>
uy ên_
đ ường_h
trọng_ tâm</w>
giao_ lưu</w>
đí ch_th
trừng_ phạt</w>
ma gi
le t</w>
hô _h
c d
e t-
con_ cháu</w>
từ _chức</w>
ri ca</w>
tiếp_th ị</w>
thân_ thiện</w>
s ôi_
hiệu_ suất</w>
ử a_
v. v.</w>
học_ hỏi</w>
pi ano</w>
l ầm</w>
tứ _kết</w>
tan_ rã</w>
h an</w>
._ ở</w>
trị_ vì</w>
dầu_ khí</w>
/ 8</w>
vô_t ình</w>
ca l</w>
b ú
tuy ể
máy_ chủ</w>
aqu ita
è re</w>
vũ ng_
ch ai</w>
trinh_ sát</w>
m ber
hy_ sinh</w>
tích_l ũy</w>
ne w</w>
kho ang</w>
ch ì</w>
địa_ vị</w>
viễ n_thông</w>
nh ơn</w>
ch ùm</w>
ã o_
thượng_ thư</w>
t iện_
cư ỡi</w>
am s</w>
x u</w>
thạ nh</w>
khai_ giảng</w>
ya ma
whi t
at lan
kế_ tiếp</w>
phòng_ ngự</w>
hộ _
kinh_ thành</w>
không_ những</w>
e pi
bá t_
ẹ p_
sơn_l a</w>
oper a</w>
khởi_ xướng</w>
hiể m_
phó _thủ_tướng</w>
tào_ tháo</w>
hen ry_
ghi_ âm</w>
4. 0</w>
nh ốt</w>
lưu_ giữ</w>
bất_ đồng</w>
cô _lập</w>
mi ne</w>
k em</w>
th iệu_
nguyên_ thủy</w>
vết_ thương</w>
tiến_ công</w>
c à
._ nhà</w>
thất_ nghiệp</w>
en zy
_sử _học</w>
đ ắm</w>
ho use</w>
3 1/
r ào</w>
kh âm_
ngoại_ ô</w>
l ừa_
arme nia</w>
tiếp_ nối</w>
cá ch
loài_ người</w>
li ễu</w>
h ứa_
tá n_
tranh_ cử</w>
ma da
đối_ ngoại</w>
điêu_ khắc</w>
n_tr uyền</w>
b ê</w>
sa m</w>
_t ân</w>
mu ni
chuyển_ tiếp</w>
phóng_ xạ</w>
len t</w>
kiể m</w>
đ èo</w>
n ô</w>
lo s</w>
tên_ tuổi</w>
pa l</w>
ho ạ</w>
ố t_
ken ya</w>
trước_ kia</w>
ro ck
ha w
._ hiện</w>
đại_ dịch</w>
s tri
nhà _sử_học</w>
ông_ bà</w>
l í
da d</w>
ấp_ xỉ</w>
x ấp_xỉ</w>
ta m</w>
m iện</w>
syl va
gh é</w>
chọn_l ọc</w>
x y
_h ạng</w>
thơ _
t ào</w>
k ế_th
champions _league</w>
đố c_
đại_ số</w>
gu ay</w>
đ ếm</w>
ha i_
f le
dự_ báo</w>
l ôi</w>
huy ền</w>
m ờ</w>
danh_ nghĩa</w>
p c</w>
đo an</w>
no t</w>
minh_ bạch</w>
_d e
đảng_ ủy</w>
r ỡ</w>
k el
cao_ su</w>
bu ồn_
cờ _v
chủ _lực</w>
nga i_
bầu_ trời</w>
đăng_ quang</w>
ph ấn</w>
cac bon</w>
thiết_ thực</w>
phụ _t
oc ci
lý _luận</w>
ng ón</w>
đồng_ bộ</w>
te en</w>
so m
mar y</w>
b t</w>
tín_ dụng</w>
thụ y</w>
no v
b ê
k ._
nghĩa_ trang</w>
ngh ịch</w>
hi t</w>
thị_tr ưởng</w>
mô n_
sát_ hại</w>
nh ậm_
elec tron</w>
e z</w>
k iều_
se a
willi am</w>
phần_ tử</w>
gha na</w>
c đ</w>
caro lina</w>
n_tr ăm</w>
l ầy</w>
gi l
g a_
_tr ận</w>
đồng_ tiền</w>
kế_ nhiệm</w>
phú _th
a c</w>
p eri
s z
gi ết_
d '
kim_ tự_th
phầ n_trăm</w>
ph an</w>
pana ma</w>
massa chu
du_ kích</w>
thuật_ toán</w>
con stanti
c ống</w>
đ ệ</w>
tướng_ lĩnh</w>
ti n_học</w>
andro id</w>
ng ưng</w>
mar k</w>
a z
kinh_ điển</w>
ra d</w>
ấn_ độ
trái_ ngược</w>
sti ne</w>
nh ọn</w>
cương_ vị</w>
đ ấ
c ư_
hóa_ chất</w>
e v</w>
chất_ lỏng</w>
khuôn_ mặt</w>
huy ệ
vở _kịch</w>
e k</w>
o ra
n_ viên</w>
chuộ ng</w>
ne ss</w>
f t_
_c ung</w>
ô n_luyện</w>
trí ch
c i</w>
ộ n</w>
an_ giang</w>
rom â
t à
chi_ tiêu</w>
ch ê
sinh_ nhật</w>
n ếp</w>
xi ii</w>
tiêu_ hóa</w>
mất_ tích</w>
cộng_hòa_ nhân_dân</w>
b út_
x ứng_
ha ng_
gram my</w>
sân_ nhà</w>
kế_th ừa</w>
m ì</w>
lực_lượng_ vũ_trang</w>
ch òm_
_l ục</w>
trân_ châu</w>
ng_l ong</w>
h ò
n_th ần</w>
m v</w>
l g
g rea
giáo_ sĩ</w>
bệnh_ tật</w>
trích _dẫn</w>
premi er
phù _
na me</w>
19 17</w>
vũ_đ ế</w>
biế t_
me ta
cố _tình</w>
b es
air lines</w>
tư _th
k êu</w>
i phone</w>
a si
l ật</w>
_v ệ</w>
v ạn_
sa_ thải</w>
c tion</w>
hoàn_ vũ</w>
bá _t
be au
b ì</w>
duy _
c c</w>
xứng_ đáng</w>
cộng_ tác</w>
tối_ ưu</w>
tỉ_ số</w>
se l</w>
20 .000</w>
u ỷ</w>
le y
chòm_ sao</w>
đại_ đế</w>
jo han
nhẹ_nh àng</w>
nhậm_ chức</w>
kỹ _
th ỏ
n_ kém</w>
cánh_ tay</w>
tập_ trận</w>
tín_ ngưỡng</w>
româ nia</w>
ro y
kho an</w>
tây_ nguyên</w>
hội_đồng_ nhân_dân</w>
h eo</w>
gra ci
d vd</w>
ọ n_
đầu_ bảng</w>
trường_ sa</w>
ma o</w>
ưu_ đãi</w>
v ff</w>
ra s</w>
nhìn_ nhận</w>
fed er
193 5</w>
._ quân</w>
kh anh</w>
j an</w>
musi c_
mi ên</w>
tiêu_ đề</w>
căn_ bản</w>
ph ùng_
nh ắc_
b ù</w>
xác_ minh</w>
h ái</w>
._ mẹ</w>
đ ắt</w>
uộc_ tội</w>
j ._
xe _l
re al_
myan mar</w>
ê ng_
tr ấ
colle ge</w>
chica go</w>
đồng_ cỏ</w>
qu ế</w>
chiế t_
bay er
kim_ cương</w>
a r</w>
._ quân_
sáng_ kiến</w>
phong_ kiến</w>
nh ung</w>
aquita ine</w>
đảng_ bộ</w>
ase an</w>
t .</w>
mi ssi
dự _luật</w>
ban_ ngày</w>
tha n_
r ời_
khuôn_ khổ</w>
g o_
ma s_
kim_tự_th áp</w>
ch ặng</w>
ca sti
tiếp_th u</w>
pp er</w>
nhân_ dân_
ườ i_
tha m</w>
nhà_t ù</w>
jose ph
chống_ đối</w>
3/ 2012</w>
khách_ quan</w>
for mat</w>
quốc_ tịch</w>
lễ _
kết_ án</w>
._ cá</w>
ro nal
sea_ games</w>
ra i</w>
biể u_thị</w>
le m</w>
khuyết_ tật</w>
d t</w>
b ích</w>
_đ ỏ</w>
v àng_
ba y_
th ô</w>
sơ n_tây</w>
sa s</w>
mại_ dâm</w>
m ắc_
sto ne</w>
chủ _nhân</w>
_l y</w>
là n</w>
tho ái_
f in
ko n
thu ận_
khai_ mạc</w>
._ phần_lớn</w>
lưu_ vực</w>
_ho ại</w>
đ ú
r ắc_
tố n_kém</w>
da i</w>
set ts</w>
lệnh_ cấm</w>
l ành</w>
chi m_
h ươ
k h</w>
b lan
tập_ luyện</w>
trung_ thực</w>
ha l
si g
rắc_ rối</w>
lượng_ tử</w>
giải_ tán</w>
vượt_ trội</w>
re i
pa tri
phá _hoại</w>
b i_
a ga
v ần</w>
d âu</w>
ngai_ vàng</w>
mo no
hô_h ấp</w>
cân_ đối</w>
c in</w>
ho ãn</w>
n ảy_
bề _
u sa
po in
_c ôi</w>
vi lla
lạm_ phát</w>
en t</w>
khách_ mời</w>
j es
hoả ng_
viế ng_
sé c</w>
m_ nh
viếng_ thăm</w>
s v</w>
vi ch_
phẩm_ chất</w>
na mi
lên_ tiếng</w>
inter net_
mồ _côi</w>
lặ n</w>
bản_ sao</w>
s ọ</w>
vo i
s .</w>
iế p</w>
ba i</w>
v ách</w>
mar ke
hình_ tượng</w>
er o
co ngo</w>
so lo</w>
r ô</w>
thi a</w>
qu ật</w>
ký _t
đ ỡ</w>
lan ka</w>
bo na
/ 6</w>
ham ma
giú p_
ở i</w>
đón_ nhận</w>
người_ dân</w>
ca la
, 5</w>
pau l</w>
duyên_ hải</w>
b ẫy</w>
a sh
y ế
giai_ cấp</w>
s ổ</w>
qu ảng</w>
đ ể
tư_ bản</w>
j o</w>
thời_ kì</w>
lạ ng_
tiề n_thân</w>
p lo
fi l
193 1</w>
massachu setts</w>
sylva nia</w>
r ắn_
l ề
m ư
c ủ</w>
n_ k
danh_ giá</w>
19 29</w>
_d ày</w>
sa mu
ụ a</w>
tổng_ quát</w>
tt le</w>
bla ck
._ trường</w>
truyền_ giáo</w>
tin_ đồn</w>
nha m</w>
li nu
ch ro
ss i</w>
_đ ường</w>
f el
bù n</w>
h ơi_
dân_ tộc_
camer a</w>
phi êu_
ba l</w>
_tr ung</w>
p lu
o sa
no s</w>
kim_ jong-
máy_ móc</w>
char les_
bb c</w>
li ne
a ce
ph ra
kiến_tr úc_
ch iều_
n_h à
= _
po li
ta lent</w>
há n_
hen ry</w>
dài_ hạn</w>
co lli
193 4</w>
va cc
nh ỏ_
ụ y</w>
yo ung</w>
đá _
thường_ niên</w>
ri ck</w>
phong_ độ</w>
ma ro
d ong</w>
b r
mar tin</w>
phủ _nhận</w>
new s</w>
là n_sóng</w>
se u
logi c</w>
y ể
lê _h
trưởng_ ban</w>
kinh_ hoàng</w>
_v o
bo ei
phát_ xít</w>
mo del</w>
ed ward</w>
193 2</w>
xe_ đạp</w>
cơ_ động</w>
chính_ thống</w>
nghiệp_ vụ</w>
lưu_ bị</w>
s ri_
ành_ nghề</w>
s ủ
lục_ chiến</w>
cưỡng_ chế</w>
đại_ đội</w>
ur _
tuyển_ cử</w>
nghĩa_ quân</w>
i de
bo ston</w>
pen n
new_ guinea</w>
phán_ quyết</w>
f o</w>
ch er</w>
bao_ phủ</w>
xương_ sống</w>
tôn_ vinh</w>
ti ve</w>
lư ỡi</w>
cấu_ tạo</w>
ưa_ thích</w>
thủy_ sản</w>
kiểm_ định</w>
thiên_ thể</w>
in ch</w>
nh ảy_
v ắng_
so ny</w>
phân_ bổ</w>
học_ thuyết</w>
hà ng_hải</w>
pale stine</w>
bảo_ trợ</w>
o d</w>
cơ_ khí</w>
thế_vận_h ội_
ngô_đình_ diệm</w>
h ước</w>
p i</w>
10 0.000</w>
thần_ học</w>
se i
do na
bộ_ đội</w>
bộ c_
bo li
._ hiện_tại</w>
x ôi</w>
cao_ điểm</w>
nh ấn</w>
đệ _nhất</w>
fi r
hiệ n_hành</w>
h s</w>
st a_
quay_ phim</w>
lo_ sợ</w>
thực_ ra</w>
nghiệ t</w>
mace donia</w>
tổng_ thư_ký</w>
tâm_ huyết</w>
trả _thù</w>
ta ng_
đ ày</w>
vacc ine</w>
p a_
mon te
l ướt</w>
d ney</w>
tr ễ</w>
g lu
bộ _tộc</w>
ă n_th
trình_ tự</w>
sơ_ bộ</w>
na tri</w>
lo g</w>
bầu_ chọn</w>
thế_vận_hội_ mùa_hè</w>
ja mai
th iền</w>
chủ _sở
ưở i</w>
xi x</w>
tù _binh</w>
thẩm_ định</w>
số_ phận</w>
kết_ cấu</w>
kho ẻ</w>
hài_ hước</w>
do w
li e
chuyển_ nhượng</w>
cà_ mau</w>
bản_ nhạc</w>
í_th ức</w>
t ấu</w>
fre d
n s
l ôi_
k o_
k i_
chạ m_
vũng_ tàu</w>
t ặc</w>
lou is_
vi c</w>
s sa</w>
me la
> _
tâm_ lý_học</w>
trường_ phái</w>
thể _dục</w>
nhân_ loại</w>
nh ở</w>
ch ấn</w>
châu_ mỹ</w>
đại_ lý</w>
ma uri
193 3</w>
toà n_th
re f</w>
ph é
một_ khi</w>
giam_ giữ</w>
lã i_
bá_t ước</w>
trung_ tá</w>
fi le</w>
n_th ủ</w>
khảo_ cổ</w>
19 22</w>
po ra
lư ỡ
thể _chế</w>
liên_ quân</w>
c úng</w>
m ường_
k ề</w>
hiện_th ực</w>
d ã_
ur u
ni ght</w>
lou is</w>
_l ượng</w>
e ar
dis ney</w>
bức_ xúc</w>
b ền</w>
ự u</w>
th iện_
me dia</w>
k ri
b uộc_tội</w>
thứ _hạng</w>
holly wood</w>
ạ t_
thủ_ môn</w>
28 /2</w>
uni code</w>
th iệu</w>
lo a</w>
xúc_ động</w>
tiến_tr ình</w>
châu_ thành</w>
ch ấn_
so ma
o m</w>
kênh_ đào</w>
gra m</w>
gi ọt</w>
vận_ dụng</w>
vi o
phương_ đông</w>
mi ng</w>
m ổ</w>
đám_ mây</w>
rea l</w>
tái_ lập</w>
r ua</w>
quân_ hàm</w>
g an
ph e
k a_
chi_ phối</w>
c ua</w>
gs .
t ồi_
ri idae</w>
na s</w>
kh an</w>
xi i</w>
tiền_l ương</w>
v ĩ</w>
nhắc_ nhở</w>
hã m</w>
bồi_ thường</w>
sắc_ lệnh</w>
mo ni
kỳ _l
s tre
chạ y_
19 21</w>
dẫn_ chương_trình</w>
cả n_trở</w>
ỡ _ng
pu er
fo nt</w>
ar thu
19 14</w>
lãi_ suất</w>
log y</w>
d iệt_
x ích_
._ trận</w>
pu r</w>
be s</w>
thu ần_
fo n
penn sylvania</w>
k es
hi v</w>
thỏ a_m
nguyên_ lý</w>
._ i
t ạ</w>
la m_
kiến_trúc_ sư</w>
_t uy
xử _
vương_ miện</w>
tuy ệt</w>
ghi_ nhớ</w>
bồ_đ ào_
_ch âu_
tưởng_ tượng</w>
se s</w>
kho ác</w>
chú c_
vòng_ tròn</w>
tổng_ công_ty</w>
27 /2</w>
sams ung</w>
kinh_ thánh</w>
cường_ quốc</w>
a 1</w>
lin k</w>
giá ng</w>
thỏa_m ãn</w>
qu ê_
p us</w>
napo lé
tác_ nhân</w>
hã n</w>
ha m_
khỏ e_
ale k
đại_ chúng</w>
hoa_ kỳ_
e thi
tự_ nguyện</w>
th ắt</w>
b u</w>
tho mas</w>
lê_ văn_
h ư_
wes t
quân_ lực</w>
pau l_
bản_ xứ</w>
2 2
đa_ phần</w>
t óm_
l ấp</w>
hứng_ thú</w>
ha ra</w>
t t_
ho ành_
dũng_ cảm</w>
ph ím</w>
giá c_
cơ_ giới</w>
bùng_ phát</w>
19 00</w>
ỡ _
vĩnh_ long</w>
u t</w>
ng õ</w>
ho á
d ệt</w>
b ể</w>
_th ành_
19 27</w>
lu ân</w>
nh ị</w>
li t
._ con</w>
tỷ_ số</w>
kỷ_ nguyên</w>
john son</w>
giao_ chiến</w>
th iểu</w>
h ư
_th ủy</w>
ấn_độ _dương</w>
tham_ vọng</w>
g ợi</w>
cây_ trồng</w>
bang la
5 0.000</w>
s ùng_
mộ c_
h ào</w>
tr ương</w>
rõ_r ệt</w>
hậu_ cần</w>
ch ậm_
10 50</w>
t ươ
of f</w>
1 1
k ẹt</w>
en sis</w>
_ch í</w>
đại_ gia</w>
thị _thực</w>
ta na</w>
sai_l ệch</w>
là ng_
khánh_ thành</w>
el la</w>
thuộc_ hạt</w>
i lli
a ca
đại_ lục</w>
hư_h ỏng</w>
hàm_ lượng</w>
ge s</w>
di na
ni êm_
mu l
k ỵ</w>
hạ ch</w>
har ry</w>
g ly
bồ_đào_ nha</w>
sain t_
liên_minh_ châu_âu</w>
võ _thuật</w>
o_l ường</w>
m ba</w>
h c
lá ng_
go n
d ối</w>
cai_ quản</w>
đ o_lường</w>
r ũ</w>
i t
kí p</w>
ge o
dân_tộc_ thiểu_số</w>
_l u
ả m</w>
ti n_lành</w>
0 7-
kh iết</w>
cơ_quan_ chức_năng</w>
ả nh_
tư_th ục</w>
máy_ ảnh</w>
li ve</w>
a n_h
trang_ thiết_bị</w>
hòa_ tan</w>
elizabe th</w>
c ồn</w>
kiến_ tạo</w>
hội_ nhập</w>
hình_ dáng</w>
cha y</w>
i x</w>
an ne</w>
sta r</w>
quyề n_hạn</w>
._ người</w>
đường_ kính</w>
la -
thiên_ hoàng</w>
phân_ tán</w>
._ riêng</w>
ị_tr ường</w>
vĩnh_ phúc</w>
biể n_đông</w>
g d</w>
._ đội</w>
tu re</w>
g es
9 00</w>
ưu_ tú</w>
ng ữ
h ư</w>
đối_ thoại</w>
v u</w>
thảm_ sát</w>
._h ơn_nữa</w>
viễ n_đông</w>
lên_ án</w>
ra m</w>
người_ đẹp</w>
19 25</w>
tiếng_ nói</w>
tham_ mư
micha el</w>
co di
bảo_ quản</w>
tham_mư u_trưởng</w>
n ụ</w>
di mi
anto ni
4 .000</w>
s po
ta nie</w>
su ke</w>
n_l ận</w>
gia n_lận</w>
khai_ quật</w>
c ắt_
am ster
_h ơi</w>
xo áy</w>
cửa_ khẩu</w>
kh mer</w>
d ày_
th ắng_
rượ u_
ba t
tư_ mã</w>
r anh</w>
b ổ_
s n</w>
s ki
ni ko
._ phía</w>
nhãn_ hiệu</w>
ch èo</w>
tr í_thức</w>
không_ lực</w>
._ ba</w>
đ uối</w>
quái_ vật</w>
geor gia</w>
tồi_ tệ</w>
tro ng_
r ụng</w>
k iệt_
jamai ca</w>
tự_ quản</w>
ue fa</w>
n_tho ại_
khắc_ nghiệt</w>
hỗn_ loạn</w>
we i
tá ch_
nor folk</w>
ngoại_ hạng</w>
m ầm</w>
lou d</w>
cha_ ông</w>
ne l
ho ạn</w>
biến_ động</w>
đ ụng_
mi nd
li fe</w>
c ca</w>
._ em</w>
la n_truyền</w>
au ver
._ lần</w>
đạ c</w>
ya h</w>
ph o</w>
bangla desh</w>
tổng_ bí_thư</w>
no is</w>
mi g-
n_h ành_
b tt
ma nu
h n</w>
s m</w>
ri a_
com ple
bộ_ quốc_phòng</w>
._ cha</w>
thụ _thể</w>
19 28</w>
x ế</w>
vĩnh_ viễn</w>
sci ence</w>
lla riidae</w>
gi ề
c r
trái_ cây</w>
thực_ thể</w>
trung_ bộ</w>
tr án</w>
f a_
_th ế_giới</w>
ng_đ ợi</w>
ng_đ ài</w>
học_ bạ</w>
cộ t_
z ar
tây_ tạng</w>
t ặng_
giề ng</w>
giảm_ thiểu</w>
chị_ gái</w>
đạo_ quân</w>
lan d_
wi th</w>
a wards</w>
đối_ xứng</w>
tư _liệu</w>
thù _
th on</w>
ed war
6 _
m .</w>
| _nh
tọa_ độ</w>
ha y_
i a
hủy_ diệt</w>
g ắn_
_tr uyền</w>
m i_
hang_ động</w>
phần_ nào</w>
graci llariidae</w>
tổng_ kết</w>
giấy_ tờ</w>
đương_ đại</w>
n ại</w>
li ga</w>
._ cậu</w>
tham_ chiến</w>
n ương</w>
_t ập</w>
tương_ thích</w>
toà n_thể</w>
nou vel
10 -
._ sau</w>
điệ n_thoại_
x ả</w>
po lis</w>
mi nh_h
chi ng</w>
đặc_ thù</w>
th ẩm</w>
quảng_đ ông</w>
ma nd
10 ,
tam bon</w>
t ệ
scho ol</w>
e k
toàn_ quyền</w>
san ta_
men t_
ki ng
h ận</w>
giá _cả</w>
dược_ phẩm</w>
t b
g li
d án</w>
c ành</w>
bắc_ bộ</w>
truy _
hương_ vị</w>
- _
vă n_l
ngày_ lễ</w>
cấp_ cứu</w>
_h u
00 0
dầu_ mỏ</w>
car bon</w>
19 24</w>
y_ dược</w>
họ p_
định_ kỳ</w>
ám_ chỉ</w>
war e</w>
btt tt</w>
bour g</w>
al e</w>
tiên_ lãng</w>
to s</w>
ng ành_nghề</w>
l úng_
định_ lý</w>
tự _tử</w>
po ké
m_nh ấm</w>
gặ m_nhấm</w>
c ._
nhật_ ký</w>
_m ệnh</w>
vô _h
thành_ thạo</w>
phái_ đoàn</w>
lúng_ túng</w>
ng ặt</w>
_s ăn</w>
10 _triệu</w>
pha ra
_l ợi</w>
điện_thoại_ di_động</w>
từ_ điển</w>
phức_ hợp</w>
phong_ tỏa</w>
g r
ethi opi
1_ ,_
thủy_ tinh</w>
gre en
ge ne
cli n
mi s</w>
cộng_ hoà</w>
19 26</w>
i ng</w>
h ms</w>
g u</w>
real_ madrid</w>
mo un
0 9
b ận_
uy _
tả n</w>
láng_ giềng</w>
amster dam</w>
be lar
_ci ty</w>
đ ớn</w>
tái_ tạo</w>
d òng_đ
._ dưới</w>
m ẫn</w>
kha i_tr
cổ_ học</w>
15- 07-
|_nh ịp</w>
|_ giáo_dục</w>
| _nhân_
văn_hóa_ |</w>
v ạ
mạ ch_
khổ ng_
jor dan</w>
internet_ số</w>
[_ back</w>
15-07- 2008</w>
th iền_
ma na
kiể u_
hóa_ thạch</w>
huyệ n_l
bi dae</w>
a y
|_nhân_ ái</w>
|_ xã_hội</w>
|_ văn_hóa_|</w>
| _thế_giới</w>
kal i</w>
hữu_ hiệu</w>
wor k</w>
ti m_
v òm</w>
ph ấn_đ
bàn_ giao</w>
phấn_đ ấu</w>
pa ri
khó _chịu</w>
đau_ đớn</w>
khai_ sinh</w>
tri ni
cây_ bụi</w>
chữ a_
bo s
b gd
vũ_ công</w>
vita min</w>
thứ _sử</w>
sri_ lanka</w>
nin ten
ngh am</w>
10 1</w>
xe_t ải</w>
t n
săn_ bắn</w>
8 _
ka za
truyền_ cảm_hứng</w>
l ắng_
ga li
chê nh_l
can xi</w>
tỉnh_ thành</w>
sư_ đoàn_bộ_binh</w>
ri co</w>
chênh_l ệch</w>
ug h</w>
nguy ện_viên</w>
na to</w>
ch ổi</w>
w i</w>
s ẻ</w>
công_ ước</w>
f lu
công_ đoàn</w>
m ậu_
l át</w>
khuy nh_hướng</w>
x ông</w>
tươ i_
thiết_ yếu</w>
đ ê</w>
niên_ hiệu</w>
lắng_ nghe</w>
khỏe_ mạnh</w>
sy dney</w>
ore gon</w>
ngộ _
m ó
cari be</w>
t ượ
richar d_
r ổ</w>
ts u</w>
nouvel le-
lắp_ đặt</w>
kh ôi</w>
gre gor
đồng_ bào</w>
tổng_ giáo_phận</w>
mi ra
ố p</w>
ị ch_
so ạ
mo ng_đợi</w>
e _s
ch ôn</w>
định_ luật</w>
w ri
r ong</w>
nhà _ch
thuyề n_trưởng</w>
s wa
làm_ quan</w>
khảo_ cổ_học</w>
điểm_ cao</w>
trợ_ cấp</w>
mi chi
h 30</w>
cao_ bằng</w>
t ta</w>
soạ n_thảo</w>
phản_ biện</w>
ch i_tr
công_nghệ_ cao</w>
đồng_ tình</w>
ngăn_ ngừa</w>
nghiên_cứu_ sinh</w>
sử _ký</w>
so lo
chủ_sở _hữu</w>
bơ m</w>
_tho ái</w>
ca e
nguyễn_h ải_
ne i
a bra
đ ă
mar ti
in -
dàn_ nhạc</w>
ja c
thủ_ khoa</w>
r âu</w>
ng_đ ắn</w>
dòng_đ iện</w>
n_th ế</w>
mới_ đây</w>
t ồn</w>
bó c</w>
som me</w>
quần_ chúng</w>
mor e</w>
hoa_ hậu_
ch _s
phả n_lực</w>
na h</w>
ki r
giao_ hưởng</w>
ph u
khá nh_hòa</w>
do wn</w>
cảnh_ quan</w>
_r ơi</w>
ò _m
đa_ khoa</w>
tình_ nguyện_viên</w>
trường_ an</w>
to m</w>
ng rad</w>
đẳng_ cấp</w>
thực_ nghiệm</w>
th úy</w>
sơ_ sinh</w>
ken ne
k ịch
sca n
hộ p_
codi ce_
bá u</w>
vui_ chơi</w>
ox ford</w>
ngoài_ trời</w>
cờ_v ua</w>
th ấm</w>
ký_ sinh</w>
thá p_
te d_
phần_ cứng</w>
ameri can_
ra y
phân_ giải</w>
ni a_
lưu_th ông</w>
bình_ thuận</w>
đức_ tin</w>
pu bli
bắt_ tay</w>
đương_ kim</w>
pha ol
la o_
._ thông_thường</w>
t ế_th
su n</w>
hồi_ sinh</w>
._ trên</w>
khá t_
việ n_hà
uộ i</w>
sức_ khoẻ</w>
l i_
ướ p</w>
đắc_ cử</w>
jo nes</w>
thuốc_ lá</w>
p _thành</w>
nhận_ dạng</w>
huyết_ áp</w>
ho an</w>
_ho ãn</w>
trầm_ tích</w>
cứ ng_
v ội_
bang ko
trì _hoãn</w>
o '
cầu_ nguyện</w>
cách_ mạng_
v or
di gi
ống_ chế</w>
khả _thi</w>
lạng_ sơn</w>
b ội_
_v ũ</w>
tiế n_độ</w>
thiếu_ nhi</w>
nguyễn_ phúc_
mar sha
quê_ quán</w>
la n_
belar us</w>
b ầy</w>
hiểu_ lầm</w>
anh_ chị</w>
8 -
tr ọn</w>
phòng_ học</w>
n ốt</w>
bo n
tặng_ thưởng</w>
gi u
bro wn</w>
al a</w>
tỉnh_ lỵ</w>
suy _thoái</w>
o ng
internatio nal</w>
x on</w>
khởi_ nghiệp</w>
hư_ cấu</w>
bayer n</w>
xi v</w>
văn_ nghệ</w>
nhiễ u</w>
ch lo
san_ francisco</w>
j uni
ar e</w>
an na</w>
tr ông_
pe tro
n đ-
kênh_ truyền_hình</w>
th ưởng_
kho áng</w>
địa_ phận</w>
to à</w>
ặ c_
w ha
qua n_t
ma u
le ar
c bs</w>
bà_ con</w>
tội_ ác</w>
kháng_ cự</w>
ọ ng_h
ylo r</w>
mo n_
ma_ trận</w>
l ót</w>
hải_ ngoại</w>
phim_ tài_liệu</w>
hiệp_ sĩ</w>
á p_th
xác_ suất</w>
universi ty</w>
quả _
áp_th ấp</w>
hình_ phạt</w>
gia n_
f li
thi_ công</w>
phản_ bội</w>
nh uộ
ko n_
viện_hà n_lâm</w>
thiếu_ tá</w>
số t_
lời_ nói</w>
văn_ chương</w>
trở_ ngại</w>
nội_ trú</w>
l u</w>
thu ở</w>
ba by
a y_
o hi
bán_ kính</w>
độc_ tài</w>
p lus</w>
tr à
sau_ đại_học</w>
ri o
go s</w>
cử _hành</w>
c ỗ</w>
1 10</w>
trước_ hết</w>
r ực_
khả _
tạ c</w>
ri e
g na
bảo_ trì</w>
thân_ thiết</w>
thiếu_ hụt</w>
r áp</w>
má i_
khu ế
smi th</w>
giá n_
gi ê
đại_ sứ_quán</w>
nh ỏ
c ắm</w>
ra t</w>
mo to</w>
vi ch</w>
p ur
linu x</w>
l '
g ục</w>
ter s</w>
sur -
làm_ tổ</w>
ki ng_
kh ốc</w>
tr àng</w>
sk y
là o_
nđ- cp</w>
h ậ
ethiopi a</w>
_tr u
p lan
n àn</w>
gi êng</w>
dạ _dày</w>
chi_tr ả</w>
b ến_
xe _hơi</w>
footba ll
t iệm</w>
nghiêm_ ngặt</w>
na ga
ck y</w>
ri dae</w>
que en
kĩ _thuật</w>
lưu_ vong</w>
i ce
va ti
ta s
chiến_tr ận</w>
vietnam net</w>
tù y_
n ứt</w>
ro me</w>
quốc_ kỳ</w>
ngoại_ lệ</w>
hiện_ trường</w>
thấu_ hiểu</w>
the o
pla y</w>
occi tanie</w>
n o_
manches ter_
dịch_ chuyển</w>
tất_ nhiên</w>
thạ nh_
hòa_ nhạc</w>
cu ồng_
nh ôm</w>
h t
a me
0 1/
thượng_ nghị_sĩ</w>
ba h
wi ki
tu ni
phi la
mon t</w>
ha nd
auver gne-
nh ện</w>
ngo an</w>
khá t</w>
d us
al le
19 12</w>
z i</w>
thủy_ triều</w>
khiế u_
bộ_ chính_trị</w>
nhiễm_ sắc_
mồ _h
auvergne- rhône-alpes</w>
đ ổ
thuậ n_t
tho mas_
quy ên</w>
ser bia</w>
ste ph
nh ã</w>
hải_ đội</w>
ấn_ phẩm</w>
quy ến_
quang_ trung</w>
nhân_ tố</w>
chung_ cư</w>
s_ a
n_tr ung</w>
vô_t uyến</w>
c àn_
phó_ hiệu_trưởng</w>
điều_ lệ</w>
th ưa</w>
nữ_ giới</w>
nữ _diễ
ị a</w>
đồng_ phục</w>
ký_ ức</w>
boei ng</w>
_h òa</w>
_ch am
na wa</w>
giao_ phối</w>
danh_ xưng</w>
nữ_diễ n_viên</w>
l ấn</w>
gia_ vị</w>
a h</w>
z z</w>
thả m</w>
nghỉ _h
ne i</w>
hươ u</w>
giáo_ phái</w>
đ àng</w>
v ướng_
tr uy</w>
t ủ
quyến_ rũ</w>
p el
._ giải</w>
v sky</w>
i m_
đụng_ độ</w>
đích_th ân</w>
xu ôi</w>
f en
l ệ_
com pan
chuyên_ biệt</w>
13 -
nghỉ_h è</w>
kh o_
enzy me</w>
vật_ nuôi</w>
ph ùng</w>
ke y</w>
ăn_l á</w>
m àng_
tập_ huấn</w>
m l</w>
khủ ng_long</w>
bạc_ liêu</w>
12 ,
._ bản</w>
đạ n_
g ối</w>
d é
cấu_ hình</w>
phụ_t á</w>
is land</w>
do n_
2, 5</w>
ga l</w>
con_ em</w>
_l ễ</w>
tổng_ tuyển_cử</w>
tr ữ
bù i</w>
t w
d ọn</w>
bổ_ ích</w>
ọ _
đồng_ nhất</w>
ta ka
napolé on</w>
h iề
h ẹ
cla u
chiếm_ giữ</w>
19 23</w>
._ độ</w>
đú ng_đắn</w>
mồ_h ôi</w>
kh ống_chế</w>
h .</w>
d ừa</w>
d ại</w>
ng ụ</w>
mẫu_ vật</w>
de n_
c leo
2_ .</w>
12 .
thượ ng_đ
ca u
tình_ cờ</w>
i .</w>
cổ _truyền</w>
tổng_ tham_mưu</w>
tr ú
pho s
ng ự
b s
thá m</w>
hồi_ phục</w>
ba nd</w>
phili pp
tuổi_ trẻ</w>
su dan</w>
qu ạt</w>
nhiễm_sắc_ thể</w>
ja ck</w>
ho u
bả n_l
bo y</w>
davi d</w>
r àng_
t ê_
ni um</w>
chế_ độ_
c ậ
bất_ ổn</w>
bangko k</w>
as soci
mou th</w>
hưởng_ ứng</w>
cắt_ giảm</w>
_th ị
ứng_ cử</w>
z o</w>
thứ_ ba</w>
sa m
ra u_
mb le
gia_ lai</w>
ga y_
bất_ kì</w>
thủ_ công</w>
cận_ vệ</w>
công_ cuộc</w>
v ây_
quy ên_
yo u_
v ắng</w>
ràng_ buộc</w>
phủ _
c ăng</w>
bar ba
vi na
quy_ luật</w>
ng_ d
n_h òa</w>
la ng
quang_ học</w>
._ nhờ</w>
đồng_ vị</w>
tranh_ thủ</w>
miế n_điện</w>
s ập</w>
văn_ bằng</w>
tách_ biệt</w>
triết_ lý</w>
quan_ lại</w>
viet nam</w>
r ìa</w>
ng ạnh</w>
hạ _tầng</w>
bê _tông</w>
ai r</w>
hy dro</w>
cú m_
đà _l
to ri
s par
ra do</w>
lào_ cai</w>
do mini
d ụ
18 0</w>
động_ mạch</w>
si de</w>
mặt_ bằng</w>
mẫu_ giáo</w>
ma la</w>
._ v
nh ường</w>
chữ_ số</w>
sở _hữu_
s .
pha n_th
me tri
p u</w>
lá _c
g ậy</w>
thu_ hoạch</w>
sh in</w>
phiêu_ lưu</w>
nảy_ sinh</w>
m b</w>
b ất</w>
_đ iện</w>
wil hel
sh er
nhận_ biết</w>
nh u
lãnh_ tụ</w>
bắ p</w>
oki nawa</w>
nghĩa_ rộng</w>
khu ất</w>
h tt
d wi
tiến_ quân</w>
t ô_
en -
b ăng_h
_tr ung_
quảng_ châu</w>
qu in
bo x</w>
ám_ ảnh</w>
ng ạch</w>
ma ha
khuyến_ cáo</w>
du bai</w>
r t</w>
cu la
._ cách</w>
lạc_ dương</w>
cor pora
o h</w>
chia_ cắt</w>
ar e
._ điểm</w>
sing le</w>
r u</w>
ch ua</w>
â y_th
th ẳng_
sao_ hỏa</w>
n_đ ề</w>
ma ti
đột_ kích</w>
đẩy_ lùi</w>
mạ c_
ar s</w>
an tho
m ét_
19 10</w>
ũ a</w>
of fi
ronal do</w>
se x</w>
lo ng
hữu_ nghị</w>
bổ _trợ</w>
._ đĩa</w>
thái_ tổ</w>
thanh_ thiếu_niên</w>
ga bri
b ối</w>
._ với</w>
thu ỷ</w>
sứ _mệnh</w>
phụ ng_
lã o_
w on</w>
thương_ nhân</w>
_l iệt</w>
_t âm</w>
ề m_
phiế n_
có_ khi</w>
tiề n_b
mada ga
khởi_ công</w>
ch ưa_
ca s</w>
tử _hình</w>
phục_ hưng</w>
thiên_ hạ</w>
la w
xử _tử</w>
quang_ phổ</w>
qu ỳ</w>
p p</w>
na ru
mi li
yo n
do u
._ mọi</w>
thiền_ sư</w>
r ét</w>
nhất_ thiết</w>
viện_ kiểm_
_th u</w>
t ẩy</w>
mon t
hưng_ yên</w>
fu l
năng_ động</w>
g ộp</w>
nhiếp_ chính</w>
long_ an</w>
r us</w>
hùng_ mạnh</w>
_t e
áp_ đặt</w>
t ẩ
li êu_
har ry_
ere bidae</w>
ch ọi</w>
_v i</w>
qua nh_
gu ar
d el_
bằng_ cấp</w>
đạ m</w>
vie w</w>
ph an
ohi o</w>
chủ _ch
chăm_ chỉ</w>
bất_ lợi</w>
v ội</w>
sóc_ trăng</w>
geor ge
cửu_ long</w>
ưa_ chuộng</w>
ghi_ chú</w>
ba ng_
áp_ đảo</w>
tây_ ninh</w>
r ỗng</w>
hau te-
d rea
xã_hội_ chủ_nghĩa_
ph ơi</w>
n ắm_
hơi_ nước</w>
gi ế
ca_ hát</w>
, 000</w>
si ci
hình_ thái</w>
trầm_ trọng</w>
ti a
rực_ rỡ</w>
phong_ tục</w>
người_ bệnh</w>
ngoại_ trưởng</w>
kích_ cỡ</w>
ch ù
điệ p_
tình_ thế</w>
thuận_t iện</w>
p é
mạ o_
lãng_ phí</w>
l ân</w>
c t
30 .000</w>
._ cái</w>
tru e</w>
súng_ trường</w>
sa nh</w>
phú_ yên</w>
ha o</w>
chưa_ thể</w>
b ành_
_d ưỡng</w>
vướng_ mắc</w>
thần_ thánh</w>
al ba
trẻ_ con</w>
ha ll</w>
bản_ sắc</w>
đ ến_
thay_ mặt</w>
hẹ n_h
biệt_ thự</w>
u nder
or e</w>
n_h ướng</w>
kho ăn</w>
a ci
re d</w>
quyên_ góp</w>
l ành_
d ứt_
úc_ xá</w>
thiên_ thần</w>
hẹn_h ò</w>
ho ằng_
b ó</w>
ô tô</w>
truyện_ ngắn</w>
nh_h ình</w>
gen e</w>
wes t</w>
v ớt</w>
ste ve_
nhiệt_ tình</w>
6 .000</w>
quá ch</w>
ne pal</w>
fran k</w>
/ 4</w>
trung_ lập</w>
mặt_ phẳng</w>
_tr ường</w>
_d âu</w>
thí ch_th
lũ _l
char les
a n_l
s ma
na i
grand_ est</w>
g án</w>
bu sh</w>
đ ính</w>
xâm_ phạm</w>
willi ams</w>
w a_
số_ một</w>
ra_ vào</w>
li ke</w>
hợp_ lệ</w>
gs. ts</w>
ch ì
c ớ</w>
bán_ cầu</w>
ố n_
nguy _
b rea
gru zia</w>
ươ m</w>
le on</w>
l òng_
3 5
ăn_ khoăn</w>
dị_ ứng</w>
b ăn_khoăn</w>
tước_ hiệu</w>
sân_ chơi</w>
s ung</w>
phi_ hành_
luận_ án</w>
b c</w>
vô_ số</w>
u_tr ang</w>
ti ons</w>
th ro
trưng_ cầu</w>
sao_ mộc</w>
kh ử</w>
bất_ kể</w>
bla ck</w>
r ư
nguyễn_đ ình_
._ ro
yếu_ kém</w>
19 16</w>
nd a_
hàng_ xóm</w>
chủ_ch ốt</w>
_đ ơn</w>
nữ _thần</w>
m ĩ</w>
bá _
tran s
hứa_ hẹn</w>
họ ng</w>
a min</w>
y er</w>
quân_ nhân</w>
lin col
ch án</w>
1 1.
n_th ờ</w>
mở_ màn</w>
hi gh
f ._
y an</w>
qu ấy_
phi_ đội</w>
ja co
thần_ tượng</w>
sắc_ đẹp</w>
th ô
ke p
cổ _đông</w>
? _
tiến_tr iển</w>
hội_đồng_ quản_trị</w>
r ước</w>
phila del
nh ị_
n ửa_
lai_ tạo</w>
chủng_ viện</w>
tư _thế</w>
mu n
har ri
cá _h
í p</w>
u k</w>
st em</w>
i so
đại_ lộ</w>
us h
triển_ vọng</w>
ro ad</w>
mẹ _con</w>
k ẽ
gu e_
com pu
hội_ tụ</w>
dan ce</w>
puer to_
yor k</w>
tử _trận</w>
ý _chí</w>
phú_th ọ</w>
mo l
b .</w>
đà_l ạt</w>
xác_ chết</w>
điểm_ chuẩn</w>
trại_ hè</w>
sa li
khẩu_ hiệu</w>
vắng_ mặt</w>
r ải_
kh a</w>
giả_ định</w>
d d
chấm_ thi</w>
be c
1 1,
g ắt</w>
don na</w>
compan y</w>
_th ường</w>
._ thế</w>
x y_
s _d
mo nd</w>
liên_ ngành</w>
kinh_ dị</w>
tâm_ hồn</w>
qu ặng</w>
p v</w>
kỳ_l ạ</w>
lưu_ hành</w>
ga u
cứu_ hộ</w>
vla dimi
us d.</w>
n_thu ần</w>
dự_ phòng</w>
ch ài</w>
a v
zo na</w>
_s ou
đến_ nỗi</w>
toàn_ cảnh</w>
phạm_ tội</w>
phá _sản</w>
ch ước</w>
tt g</w>
o ai</w>
khởi_ tố</w>
c ta
000_ bản</w>
toàn_th ư</w>
ga m
cen t</w>
bằng_ sáng_chế</w>
19 13</w>
o t</w>
nha_ trang</w>
j u</w>
in c</w>
chia_ rẽ</w>
1 30</w>
k r
._ bốn</w>
đau_ khổ</w>
t t-
gia_ cầm</w>
đường_ cao_tốc</w>
li ber
l iệu_
kho ai_
c ze
bởi_ vậy</w>
ba u
nội_ thất</w>
lý_ giải</w>
ii .</w>
ar d_
th ôn_
t r</w>
nắm_ bắt</w>
nhân_ dịp</w>
kh ung_
hiện_ đại_
a xi
đồ _thị</w>
phúc_ âm</w>
madaga scar</w>
gián_ tiếp</w>
en d</w>
đ ùa</w>
cro a
ề _
đảng_ phái</w>
uỷ_ ban_
ly_ hôn</w>
luy ến_
huyện_l ỵ</w>
b hu
ab du
yên_ tâm</w>
y an
số_ ít</w>
nh ặt</w>
n ôn</w>
mu hamma
liên_ hợp</w>
kh ăn</w>
si m</w>
hay_ là</w>
co s</w>
bóng_ rổ</w>
nó c</w>
mu n</w>
cổ_ xưa</w>
ph ù</w>
khoáng_ sản</w>
e in
cục_ bộ</w>
tru mp</w>
rắn_ nước</w>
quân_ chủng</w>
ph ả</w>
ll s</w>
tỷ_ phú</w>
ng ạc</w>
gắn_ kết</w>
cla r
24 /2</w>
s ôi</w>
pro du
mệnh_ lệnh</w>
le e_
da i
da e
co i_tr
chính_ khách</w>
._ là</w>
y o</w>
t s_
sắc_ tộc</w>
ra i
no v</w>
nhạc_ kịch</w>
ma chi
d ồn</w>
ca pi
tuyên_ ngôn</w>
thẩm_ mỹ</w>
sau_ cùng</w>
trái_ phép</w>
kh ô
gua te
b ệ</w>
ưu_ điểm</w>
yể m_
thông_ dụng</w>
tha o</w>
ll i</w>
ký_t úc_xá</w>
h ảo</w>
gir l</w>
19 11</w>
thành_ thị</w>
thiếu_ nữ</w>
tê_ giác</w>
m àn_
x x
x uố
p es
th ềm</w>
se e</w>
marsha ll</w>
l ầu</w>
th ậ
na sa</w>
dịch _thuật</w>
cất_ cánh</w>
ro v</w>
phát_ ngôn</w>
kan sas</w>
k iềm_
ci o
/0 2/2012</w>
re d
lăng_ mộ</w>
khi êm</w>
bộ_l ông</w>
v ảy</w>
ng ập_
khẩu_ pháo</w>
kh mer
bur y</w>
phù _thủy</w>
ai ds</w>
tuần_ hoàn</w>
q l
nguyễn_đ ức_
ng_đ ường</w>
mi kha
in ter</w>
g ua</w>
_t ay</w>
mỹ _th
fro m</w>
phiế u_
m_ ho
14 0</w>
tệ p</w>
illi nois</w>
c ô_
bị_ cáo</w>
._ loại</w>
đá _v
tâm_ linh</w>
phòng_ ngừa</w>
lã i</w>
v ắ
mo ri
lũ_l ụt</w>
băng_h à</w>
b en</w>
động_ thái</w>
t ảng</w>
l ệch</w>
l ã</w>
fre e
co sta_
whit ney_
lu m</w>
dày_ đặc</w>
đệ _t
s pri
lập_ trường</w>
_l ưỡng</w>
._ ngược_lại</w>
tuyên_ quang</w>
tiền_ giang</w>
quận_ công</w>
n_b á</w>
manchester_ united</w>
khai_tr ương</w>
e o
dấu_ vết</w>
bình_ minh</w>
x à_
ala ska</w>
s âm</w>
13 ,
đông_ âu</w>
li a_
cốt_ lõi</w>
trị _liệu</w>
tháo_ gỡ</w>
bỏ _rơi</w>
đa_ dạ
vinh_ dự</w>
ren ce</w>
nấu_ ăn</w>
j r</w>
marke ting</w>
lộ n</w>
gi ó
yên_ bái</w>
v ằn</w>
tu_ sĩ</w>
nh i_
me l</w>
d s
_h ạ</w>
ngũ _
ch anh</w>
bản_ gốc</w>
tranh_ giành</w>
th ề</w>
sức_ ép</w>
r he
o xit</w>
li ght</w>
i m</w>
con cer
_ch ỉ
đường_ băng</w>
ngư _dân</w>
gi ữ_
n_t ông</w>
lộ c_
k re
giấ c_
chất_ thải</w>
9 -
8 /3</w>
3 50</w>
wal l</w>
ri c</w>
phạm_ văn_
ma de</w>
ki ns</w>
khiếu_ nại</w>
khi êm_
ci dae</w>
._ như</w>
đấu_ giá</w>
trọng_ điểm</w>
ti ta
su -
sho w
bắc_ phi</w>
t ể
st y
ki -
khu ê</w>
k ẹo</w>
co ro
c rea
đơ n_thuần</w>
tự _đức</w>
trần_ văn_
siêu_ thị</w>
nguyễn_ văn_th
m bo
khoáng_ vật</w>
dân_ ý</w>
a de
190 5</w>
san_ diego</w>
giê su</w>
_chỉ _huy</w>
tự_ độ
tấn_ phong</w>
tĩnh_ mạch</w>
ng âm</w>
kh é
gi n
độc_ hại</w>
tuni sia</w>
shi ma</w>
ngư ỡng_
j in</w>
ch ứa_
bour ne</w>
_cham pi
tiếp_ quản</w>
luân_ phiên</w>
hi_ vọng</w>
e co
du_ hành</w>
d iệ
ã nh</w>
x ê</w>
w ._
p seu
hàng_ rào</w>
ch ơi_
th or
ng_h ình</w>
kiên_ trì</w>
gia_ long</w>
u ổi</w>
ngoại_ hình</w>
lg bt</w>
o id</w>
kẽ m</w>
ju ven
cá_m ập</w>
x ỉ
r d</w>
ng ựa_
khe n_thưởng</w>
k ry
us a</w>
tho áng</w>
super _
rải_ rác</w>
nh ắn_
mũ i_
uru guay</w>
s ương</w>
s ka
rộ n</w>
r ăng_
ma d
hoa_ lư</w>
do ug
đặc_ quyền</w>
x uyên_
thân_ vương</w>
al i</w>
ri us</w>
di ên_
bất_ cập</w>
bình_ tĩnh</w>
truyề n_bá</w>
tr ạch</w>
sa urus</w>
phúc_ lợi</w>
ng ó
i i_
on -
cầu_ giấy</w>
ch uối</w>
ba si
b le
đại_ úy</w>
ti mo
qa tar</w>
phần_ ba</w>
ng à</w>
u_th uyền</w>
thưởng_ thức</w>
r ào_
n_tr e</w>
bara ngay</w>
vi s</w>
tiếp_ tế</w>
n_l òng</w>
mp son</w>
giao_ tranh</w>
da le</w>
coi_tr ọng</w>
chào_ đón</w>
bà_ r
tá o_
trầm_ cảm</w>
s phi
por t_
no r</w>
n_k ẽ</w>
câu_ hỏi</w>
chính_ ủy</w>
_tuy ển</w>
._ o
sao_ chép</w>
ri a
phiếu_ bầu</w>
cửa_s ông</w>
điều_ hòa</w>
phi dae</w>
nh é</w>
nguyễn_hải_ nam</w>
ứng_ xử</w>
in o</w>
19 15</w>
x series</w>
văn_đ ế</w>
pp i</w>
làm_ bạn</w>
thi_ thể</w>
ta s</w>
p_th uật</w>
kha m</w>
đường_ lối</w>
u nd
phó_tổng_ thống</w>
luyến_ ái</w>
dân_ làng</w>
chúc_ mừng</w>
_t ế</w>
/ 12/
vũ _h
mala ya</w>
guate mala</w>
bi o
190 8</w>
._ thêm</w>
wa y
ra_ sao</w>
pi ctu
l ỡ</w>
khiế m_
kh ương</w>
công_ quốc</w>
z er</w>
tiền_ nhiệm</w>
kiên_ quyết</w>
ha y
bel l</w>
v nex
t úc_
nhuộ m</w>
ng idae</w>
jer sey</w>
bãi_ biển</w>
b ry
rober t</w>
ma xi
dòng_ dõi</w>
xó t_
na ceae</w>
tuyến_ tính</w>
hôm_ qua</w>
ị nh_
u p
nh ai</w>
mo s</w>
hà_ đông</w>
diễn_ giả</w>
a .
tàu_ điện_
_vo i</w>
_th ương</w>
16 0</w>
phi_ cơ</w>
i e
u fo</w>
trần_ quốc_
ra in</w>
phi_ vụ</w>
m ._
tàu_điện_ ngầm</w>
tinh_ tế</w>
nguyễn_h uệ</w>
mùa_ đông</w>
mo ne</w>
m ấu_
b o_
alexand ria</w>
._ vua</w>
tử _cung</w>
m pe
lừa_ đảo</w>
ci o</w>
by z
x en</w>
sơ _đồ</w>
ng ạn</w>
mb o</w>
cẩ u</w>
cô _dâu</w>
đá_v ôi</w>
tr úc</w>
ri t</w>
o ne
ly n
di an</w>
c ry
alek sand
19 4</w>
t ế
r ơ
phê_ phán</w>
pha_ trộn</w>
no l</w>
fal se</w>
_th anh</w>
xe_l ửa</w>
tr ướng</w>
thi_ đua</w>
nouvelle- aquitaine</w>
d í
yế u_thế</w>
rư ỡi</w>
pto le
phó_chủ _tịch</w>
philadel phia</w>
công_ lý</w>
trước_ mắt</w>
th ẳ
tự_ xưng</w>
tỉnh_ trưởng</w>
tra_ tấn</w>
quá _
ngày_ xưa</w>
mấu_ chốt</w>
tín_ nhiệm</w>
sinh_ dục</w>
s tro
ro w</w>
richar d</w>
súng_ máy</w>
nấu_ nướng</w>
mo ra
i ng
gregor y</w>
đảo_ ngược</w>
lề u</w>
la s_
k ỉ
friedri ch</w>
c t_
be at
ni ce</w>
da ta</w>
chi ên</w>
d ập</w>
ver _
so n
m tv</w>
cá _voi</w>
v iết_
ha i_m
đe_d o
đe_do ạ</w>
thích_th ú</w>
ho ng_
co mi
2- 3</w>
ta mi
nghiệp_ dư</w>
gi ven</w>
b y_
5 00.000</w>
ỡ_ng ỡ</w>
đ ỡ_
vân_ nam</w>
r &
phẫ u</w>
de u
d ẻo</w>
b ỡ_ngỡ</w>
é n</w>
vinh_ quang</w>
th ìn</w>
smar t
poké mon</w>
play sta
mét_ vuông</w>
ka i
f eli
ồ _
vi en
phá c_
new_yor k_
hộ_ chiếu</w>
3 60</w>
kiên_ giang</w>
ga ga</w>
f fi
es to
con ne
bo ro
tan za
lãnh_ địa</w>
ice land</w>
h ẻ
chất_ liệu</w>
ch t</w>
tâm_ trạng</w>
nguyên_ soái</w>
corpora tion</w>
b í
tá n_thành</w>
thu ầ
cu ồng</w>
ba c
để _ý</w>
tang_ lễ</w>
mơ _
giám_ hiệu</w>
xích_ đạo</w>
r ể</w>
giáo_ xứ</w>
g n
e p
cá _s
ca t</w>
alex andro
đại_ học_
mã_ số</w>
hữu_ hạn</w>
đoà n_trưởng</w>
premier _league</w>
h d</w>
g ã</w>
chọ n_
bế n_tre</w>
a ngo
w s</w>
tự_độ ng_hóa</w>
tể _tướng</w>
tr ống_
nh át</w>
man i</w>
7 .000</w>
đỡ_ đầu</w>
ti us</w>
ta ceae</w>
n q-
m ưa_
v ành</w>
cảm_ ứng</w>
sử_ sách</w>
ruộ ng_đất</w>
chánh_ án</w>
_t a
un da
tr ôi_
sứ_ giả</w>
ri ng</w>
d ạo</w>
croa tia</w>
bru nei</w>
ari zona</w>
tạm_ biệt</w>
toàn_ phần</w>
ng ắ
lá_c ờ</w>
luca nidae</w>
trường_ trung_học</w>
ki lô
briti sh_
be ta</w>
tưởng_ nhớ</w>
trình_ chiếu</w>
sto n_
si er
ou t</w>
e y</w>
tr ượt_
làm_ ăn</w>
bận_ rộn</w>
._ mi
tiện_ ích</w>
da vid
canh_ tác</w>
b ẩn</w>
4 0
tiền_ mặt</w>
th ắc_
dự _tính</w>
c er</w>
7 0-
vườn_ quốc_gia</w>
trầ n_đ
ngoại_ thương</w>
n_t ướng</w>
microso ft_
kháng_ sinh</w>
tố p</w>
su ma
ng_h à</w>
l ụa</w>
ck s</w>
ch ốn</w>
y l</w>
nam_ cực</w>
một_ ít</w>
slo va
si e</w>
khối_ u</w>
khu_ công_nghiệp</w>
i t_
bắc_ kỳ</w>
/ 5</w>
đá n</w>
ly_ khai</w>
la ser</w>
la m
khóa_ biểu</w>
a_s ức</w>
a c_
men tor</w>
ma h
go t_
ge l</w>
cổ _vũ</w>
clo rua</w>
biên_ tập_
a cro
._ video</w>
đu n</w>
z h
thắc_ mắc</w>
queen s
per ry</w>
c ấy</w>
_châu_ âu</w>
vậ y_
phiên_ tòa</w>
l _s
bi g_
zi mba
m á</w>
lây_ nhiễm</w>
l ở</w>
hai_m ươi</w>
d ru
i si
chữa_ trị</w>
c é
tr ầm</w>
ta h</w>
n_h ình_
g ìn</w>
công_ tử</w>
thời_ khóa_biểu</w>
9 _
thừa_ thiên</w>
ngôi_ vị</w>
me d</w>
manches ter</w>
họp_ báo</w>
ghi_ hình</w>
diễ u_
an_ táng</w>
._ thuật_ngữ</w>
sinh_ trưởng</w>
quý _h
m anh</w>
hộ p_th
5 _triệu</w>
ne sse
mu ỗi</w>
michi gan</w>
giết_ hại</w>
ga te</w>
công_ lao</w>
camer o
biên_tập_ viên</w>
ta ylor</w>
phạ t_
n ung</w>
lên_ trang</w>
ja zz</w>
ni t</w>
feder er</w>
ch en</w>
vật_ dụng</w>
thao_ tác</w>
mani la</w>
elec tro
á t_
whitney_ houston</w>
naru to</w>
do m</w>
v ọt</w>
nhập_ viện</w>
nguyễn_ ngọc_
mari a_
hội_đồng_ bộ_trưởng</w>
dị u</w>
chuyể n_hướng</w>
baby lon</w>
động_ tác</w>
ul t</w>
d iều</w>
chất_ độc</w>
_t ây</w>
wa t
thái_ thú</w>
sinh_ tồn</w>
ni an</w>
a a
thi êng</w>
_th ị_
ị n</w>
v ĩnh</w>
na ta
n ảy</w>
giáo_ dân</w>
g uy
d iệp</w>
ô n_đ
te s
minh_ mạng</w>
kiế m_
thủ ng</w>
nhà_ cửa</w>
yo ko
tuổi_ thọ</w>
r ừng_
cảm_ biến</w>
tiểu_ sử</w>
phương_ pháp_
ngoại_ quốc</w>
ho c</w>
go ld
ca st
bo m_
be c</w>
b we</w>
ro n_
ha sh
byz anti
viễn_ chinh</w>
t àng</w>
s ẫm</w>
hiện_ vật</w>
chu r
biểu_ đồ</w>
– _
thống_ chế</w>
ph or
mệnh_ danh</w>
j un
j ar
gu ada
._ e
óa_ học</w>
lắp_ ráp</w>
khiêu_ dâm</w>
giữ_ gìn</w>
air _
z a_
nhà_ cung_cấp</w>
maro c</w>
liệu_ pháp</w>
d .
an i</w>
tra_ cứu</w>
r ung</w>
qua_ lại</w>
lit va</w>
li s
bóng_ chuyền</w>
đóng_ cửa</w>
ó c_
tổ ng_h
thậ n_trọng</w>
mar u</w>
ma x</w>
ku ra</w>
biên_ phòng</w>
u z
tech no
chinh_ phạt</w>
1 _%</w>
vào_ khoảng</w>
tam_ quốc</w>
an a_
t ê
s ._
chri sto
điện_ tích</w>
từ_ từ</w>
l ụt</w>
khi nh_
ho ành</w>
edwar d_
bắt_ chước</w>
bu ồ
w ho</w>
twi tter</w>
nam_ tư</w>
n i_
lây_ lan</w>
in i</w>
c ẩn</w>
ban k
ph ế</w>
n_ nhiên</w>
lear ning</w>
fred eri
bà_r ịa</w>
b ờ_
ấn_ bản</w>
truyề n_tải</w>
triệt_ để</w>
o_l éo</w>
khé o_léo</w>
yêu_ mến</w>
ngắ n_hạn</w>
mo sco
k ỷ
g mi
f t
á_ quân</w>
mat ching</w>
l h
._ hơn</w>
du_ nhập</w>
chủ_ quan</w>
._ tới</w>
wor th</w>
thơ_ ấu</w>
th ôi_
sphi ngidae</w>
cá_s ấu</w>
colli ns</w>
a ki
v iền</w>
ph ức</w>
n ồi</w>
minh_ chứng</w>
lu ci
kỹ _lưỡng</w>
tiền_b ạc</w>
thất_ thủ</w>
spe ci
j _
huy_ hiệu</w>
đại_ tu</w>
xo ắn</w>
tr ận_
tiết_ mục</w>
giúp_ việc</w>
_th ai</w>
đ ắng</w>
ng ào</w>
vĩ nh_h
v ka
th í</w>
m ắm</w>
hợ p_thành</w>
mal ta</w>
bầu_ dục</w>
an der</w>
. vn</w>
tiếp_ liệu</w>
puerto_ rico</w>
lang_ thang</w>
ke s</w>
constanti no
chỉ _huy
13- 16</w>
- la</w>
nối_ ngôi</w>
c ta</w>
nhất_ trí</w>
khiế p</w>
je an_
huyề n_
chuẩn_ mực</w>
_h e
đệ _nh
đấu_ trường</w>
vil la</w>
ma c</w>
m ớ
khẩ u_trang</w>
giao_ hữu</w>
vati can</w>
thiết_ giáp_
la s
k yo
ch âm_
ba lla
anh_ chàng</w>
_th uận</w>
x vi</w>
thảm_ khốc</w>
thiên_ tai</w>
ra m
phiến_ quân</w>
pa ul
kaza kh
f 1</w>
b ấm</w>
r ớt</w>
kh ải_
_ điểm</w>
đối_ chiếu</w>
me li
camero on</w>
189 0</w>
xe m
vị nh_
rạ ch_
đàn_ bà</w>
u 23</w>
tiểu_ vương_quốc</w>
thiết_giáp_ hạm</w>
riêng_ tư</w>
n_tr ương</w>
la u</w>
l ồng</w>
b àng_
._ cuốn</w>
x ao</w>
wa r</w>
vu i_m
nhiệm_ kì</w>
ngôn_ ngữ_
gu il
cực_ đoan</w>
đường_ cong</w>
lu ậ
gi ọng_h
t_ hái</w>
kon_ tum</w>
gặ t_hái</w>
giọng_h át</w>
cộng_ hoà_
bó n</w>
đồ n_trú</w>
y ết</w>
xã_hội_ học</w>
tha i_
s no
ng òi</w>
lincol n</w>
dân_ thường</w>
di os</w>
biến_ dạng</w>
đ ẫm</w>
tự _vệ</w>
o i
nguy ệt_
mar y
ma cro
juven tus</w>
in de
d ur
ngày_ một</w>
bề_ ngoài</w>
boli via</w>
_d ân_
8 .000</w>
đề u_
ho p</w>
vui_m ừng</w>
sả nh</w>
ma donna</w>
g ạ
chì a_
._ do_vậy</w>
định_ vị</w>
đị nh_hình</w>
tr ù
te a
s har
_d u</w>
đặ n</w>
thời_ lượng</w>
seri e</w>
tr àn_
ro mania</w>
cách _chức</w>
chứng_ cứ</w>
thủ_đ ức</w>
pe ter_
nó n</w>
min ne
i ne
fes ti
f er</w>
bar ca</w>
ban_ giám_hiệu</w>
ro lli
quy_ nhơn</w>
jer usa
h ối</w>
bắc_ cực</w>
bạch_ kim</w>
b ú</w>
al l</w>
_l âm</w>
[_ [
8 0
v ấp</w>
thiế p</w>
sal va
s ùng</w>
o anh</w>
hoà_ bình</w>
h ơn_nữa</w>
th ằng</w>
sinh_ lý</w>
liệt_ sĩ</w>
ã i_
thân_ hình</w>
mi sso
chủ_nghĩa_ xã_hội</w>
s por
n ậm_
lâm_ nghiệp</w>
joseph _
4- 5</w>
trang_ sức</w>
s ương_
ngo ặt</w>
chi êm</w>
bạ ch_h
vụ n</w>
sy r
l ẻ</w>
_t ải</w>
trá c</w>
to ron
hành_ pháp</w>
giá n</w>
gay_ gắt</w>
d ._
c eo</w>
bạ t</w>
b ọ
_s ứ</w>
thẳng_ th
mo on</w>
liên_ho an</w>
la y</w>
f. k._
chợ _
bảo_ đại</w>
ban_ bí_thư</w>
._ mùa</w>
w en
u ef
olympi a</w>
hoa_ hồng</w>
giế ng</w>
c l</w>
s con
poin t</w>
mô_t ô</w>
me t</w>
giáo_ trình</w>
chọn_l ựa</w>
._ hãng</w>
vnex press</w>
thứ_t ư</w>
queens land</w>
mar ne</w>
anh_ chị_em</w>
2 1/2</w>
p gs</w>
chiến_ sự</w>
bộc_ lộ</w>
ạ m</w>
tanza nia</w>
ta na
nghèo_ khổ</w>
ba ss</w>
._ com</w>
ph ế
ni cho
lu xem
h -
football _league</w>
bản_l ĩnh</w>
ba z
thông_ số</w>
t nh
sáng_ lập_
nhân_dân_ tối_cao</w>
h e</w>
bu ồng</w>
a n_th
xe n_kẽ</w>
sơ n_đông</w>
ro i</w>
lý _h
zimba bwe</w>
tổng_ tư_lệnh</w>
ph ế_
na s
mã nh_
chiến_ công</w>
._ qua</w>
ti n
ne g
ll er
ca y</w>
nguyên_ mẫu</w>
fi a</w>
c- xin</w>
_t án</w>
22 /2</w>
._ cứ</w>
w y
thi_ cử</w>
nh ược_
lo w</w>
l ẽ</w>
hòa_ giải</w>
con_ tin</w>
co p
biể n_
ba d</w>
đầu_ quân</w>
í u</w>
vật_ học</w>
to yo
thường_ dân</w>
i u
a o
me ssi</w>
bla ck_
a ra</w>
thu ê_
săn_ bắt</w>
ka vka
hỏa_ hoạn</w>
190 4</w>
nữ _vương</w>
me i
mar y_
ci l</w>
v ã</w>
m õm</w>
bố c_
an tio
me thy
le o_
le ni
190 7</w>
ỉ a_
hà_ tiên</w>
ci r
tiệ p_
t ới_
no n-
mi r
giảm_ giá</w>
uef a_
trung_ úy</w>
ha ma</w>
h ở</w>
1_ ._
tr ọn_
po tter</w>
new ton</w>
chọn_ người</w>
b ò_
xa_ xôi</w>
trí _nhớ</w>
tr ào_
phòng_ tuyến</w>
i so</w>
hi ro
đ ục</w>
fer nan
es s</w>
vi k</w>
qu er
n_t àu</w>
hạ _lệnh</w>
c ày</w>
binh_ đoàn</w>
đơn_ độc</w>
ý_ muốn</w>
ng an</w>
cao_ độ</w>
c úc</w>
bắt_ gặp</w>
5 _%</w>
tổng_ đốc</w>
to w
si on</w>
ngưỡng_ mộ</w>
jerusa lem</w>
h en</w>
bất_ mãn</w>
tho ả
li n_
khmer _đỏ</w>
tóm_ tắt</w>
tiền_ sử</w>
t cn
sai_ sót</w>
mo na
m ùng</w>
giá _
h ỏ
tan_ vỡ</w>
e d_
da l
bel la</w>
ba n_hành_
ta xi</w>
nhân_ chứng</w>
m ê_
kích_ động</w>
colo rado</w>
biên_ hòa</w>
_d ài</w>
tứ_ xuyên</w>
tr y</w>
hi p
_diễ n</w>
3 000</w>
ra l</w>
nô m</w>
my r
li tt
char t</w>
ắ k</w>
to m
sa t</w>
p gs.ts</w>
nhận_ diện</w>
n ạt</w>
ki êu_
k us
hà_ bắc</w>
ư ới</w>
đ iên_
trung_ mỹ</w>
t ịch
nhân_ đạo</w>
c ở
ng c</w>
g õ</w>
che_ giấu</w>
điền_ kinh</w>
sát_ thủ</w>
ra ng
le na</w>
giáp_ ranh</w>
g ò</w>
công_ sức</w>
thuộc_ tính</w>
sơ _tán</w>
gu n
giải_ thoát</w>
axi t_
ameri ca</w>
3 7
v u_
thí_ điểm</w>
pho eni
kavka z</w>
bor neo</w>
18 70</w>
điều_ chế</w>
thập_ tự</w>
ngắn_ gọn</w>
lũ y</w>
kh uyết</w>
tẩ y_
t àn</w>
roo se
quá _tải</w>
le wi
le nin</w>
hành_ quyết</w>
g b</w>
d us</w>
cari b
al li
trung_ á</w>
chỉ nh_
5 0
yo shi
tú _tài</w>
roose vel
ni ca</w>
ho an_
trấ n_thủ</w>
thương_ mại_
sôi_ động</w>
quốc_ gia_
im_ lặng</w>
be nga
_d a
._ tiếng</w>
đề_ cao</w>
đại_ quân</w>
thi_ tuyển</w>
quy_ đổi</w>
kiềm_ chế</w>
for d_
costa_ rica</w>
bu si
l ạng</w>
truy _đ
s ung_
phân_ cấp</w>
ph àn_
n_t ình</w>
du n
bro ad
188 5</w>
đối_ địch</w>
phó_chủ _nhiệm</w>
ph iến</w>
o b
l ông_
hoa_hậu_ thế_giới</w>
cải_ tổ</w>
ai res</w>
ò _r
wil son</w>
thù_ địch</w>
t d</w>
sản_ sinh</w>
kazakh stan</w>
cộng_ sự</w>
ch ăng</w>
y el
học_ đường</w>
al fre
tường_ thuật</w>
re gi
gu am</w>
c loud</w>
ử ng</w>
ú i_
ta l_
gi ận_
g us</w>
di s</w>
chu ồng</w>
ama zon</w>
_h ồ</w>
ấm_ áp</w>
đ ao</w>
re d_
ni ck
ku wa
bờ_ biển</w>
3 6
w .
tu ấn_
thu a_
solo mon</w>
sang_ trọng</w>
hoạ n_
fu ji
ợ p_
đồ i_
t em</w>
m ày</w>
m g</w>
ke i
vòng_ quanh</w>
tàn_ bạo</w>
to à_
ti l
ri ch
gia_ hạn</w>
car tha
bao_ lâu</w>
trúng_ cử</w>
missi ssi
lành_ mạnh</w>
hi_ sinh</w>
70- 80</w>
18 -
vụ _trưởng</w>
thể _tích</w>
t ụng</w>
ro g
ra p</w>
ngắn_ ng
me sse
g ò_
di ne</w>
bố n_
ba ch</w>
pi e
tái_ hiện</w>
thu_ hẹp</w>
20 /2</w>
vắ c-xin</w>
qua r
phara on</w>
hà n_lâm</w>
giả n_
25 -
đó i_
kỳ _d
kenne dy</w>
k ệ</w>
công_ vụ</w>
._ nơi</w>
tài_ xế</w>
ph e_
khác_ thường</w>
hu n
b ỗng</w>
190 6</w>
ấ c</w>
hoàng_ sa</w>
cải_ biến</w>
bóng_ tối</w>
xử_ phạt</w>
trước_ tiên</w>
ox y_
new_ jersey</w>
j i_
a sa
_k ích</w>
trú _
n ạ</w>
gol f</w>
gala xy_
chiếu_ phim</w>
an s
misso uri</w>
mar gar
jo bs</w>
a ve
v í</w>
tim_ mạch</w>
sách_ vở</w>
siêu_ phẩm</w>
m ười_
i os</w>
gi ật_
ga n_
bạch_ cầu</w>
_t ài_
tr ẻ
ngắn_ng ủi</w>
n 1</w>
ley te</w>
fi re
c ò</w>
sáng_lập_ viên</w>
nu de</w>
lưu_ bang</w>
bắc_ ireland</w>
ba sti
tụ _tập</w>
tội_ lỗi</w>
thành_ quả</w>
thu ế_
ne s
khẩ n_trương</w>
hồng_ ngoại</w>
hào_ hứng</w>
dương_ tính</w>
tu ất</w>
thí nh_
riê ng_l
ra ng</w>
mở _đường</w>
c ước</w>
y ang</w>
han na</w>
d ỗ</w>
cá _tính</w>
bur gh</w>
: /
sti tu
smart phone</w>
bgd đt</w>
:/ /
tr ea
ne o
_s e
tuyể n_tập</w>
thổ _dân</w>
l ệ
ho ại</w>
cha in</w>
đại_ bàng</w>
trân_ trọng</w>
rời_ bỏ</w>
r ãnh</w>
la r</w>
ho án</w>
el li
ber nar
đồng_ tháp</w>
ánh_ tông</w>
ya ho
tiệp_ khắc</w>
nguyên_ vẹn</w>
khủng_ khiếp</w>
k eo</w>
đồ _vật</w>
ê- ri</w>
w re
tr ắng_
thợ _săn</w>
soma lia</w>
quy_ ước</w>
năng_ học</w>
na u
bộ_ ba</w>
b ồn</w>
riêng_l ẻ</w>
ph ôi</w>
nối_ tiếp</w>
for mes</w>
e ._
nh u</w>
kh ử
gu e
cụ t</w>
ca lli
n_t ưởng</w>
lo ve
kh ôn_
je an-
e us</w>
châu_ lục</w>
14 ,
đắ k
wa ter
ve c
r ải</w>
p si
p pe
mạch_ máu</w>
k ai</w>
ja mi
fa t</w>
._ thay</w>
ì _
w c</w>
lớn_ tuổi</w>
l í</w>
hội_ viên</w>
di_ dân</w>
ali ce</w>
đ ẹp_
thủ_ phạm</w>
p e_
mạo_ hiểm</w>
g g
_l ộc</w>
má c</w>
l ữ</w>
hộp_th ư</w>
cá _ch
quốc_ ca</w>
p m</w>
nor th_
gad ha
co a
bao_ bọc</w>
13 .
0, 000</w>
y_th uốc</w>
tâm_ trí</w>
t i_
mặt_ nạ</w>
l ăn</w>
kh ố</w>
d ào</w>
co n_tàu</w>
ác_ liệt</w>
sha re</w>
th ra
mi am
k wa
h ắc_
điểm_ nóng</w>
tự _t
thanh_h ải</w>
t ắc_
năm_ tháng</w>
no va
nam_ kỳ</w>
d ù_
a k</w>
thuyết_ trình</w>
truy_t ặng</w>
ra w</w>
d n</w>
chân_ thành</w>
a zer
r ập_
mosco w</w>
ff e
đắc_ lực</w>
hành_ nghề</w>
d c</w>
c ọ
15 .
tây_ âu</w>
sum mit</w>
roosevel t</w>
nh ũ
ck er
bò_ sát</w>
alex ander</w>
2- 1</w>
đồng_ thuận</w>
đồ_ uống</w>
đệ _tử</w>
trừ u_
to ản</w>
stu dio</w>
kh úc_
thầ y_thuốc</w>
thảm_ hoạ</w>
thu s</w>
pla y-
cướp_ bóc</w>
bả n_th
_d u
._ vây</w>
viễ n_tưởng</w>
th ầm</w>
s ạ
nhỏ_ bé</w>
đường_h ầm</w>
ten nesse
hòa_ nhập</w>
d ập_
t .
quân_ sĩ</w>
mãn_ châu</w>
da fi</w>
ac ti
_tr ang</w>
đặc_ sản</w>
điện_ áp</w>
viễn_ vọng</w>
k í</w>
el s</w>
e to
đè n_
thứ_ hai</w>
quý_ phi</w>
ng_h òa</w>
nam_ kinh</w>
n_đ iền</w>
ha mp
g à
dạ y_
wes ter
thứ_ năm</w>
t ủ</w>
ẩm_ nhiệt_đới</w>
r ò_r
cao_ quý</w>
c .
al pha</w>
_champi on
đại_ chiến</w>
tuy ền</w>
toron to</w>
rò_r ỉ</w>
n_l ong</w>
mississi ppi</w>
giải_ phẫu</w>
b ồ</w>
._ mỗi</w>
na r</w>
ki ev</w>
binh_ chủng</w>
b ính</w>
tịch _thu</w>
phân_ rã</w>
ngôn_ngữ_ học</w>
ngu y</w>
hoài_ thanh</w>
gi use</w>
chứng_ thực</w>
bước_ ngoặt</w>
báo_ động</w>
2 3,
ò i_
tậ p_th
thiên_ chúa_
s ão_
nhiếp_ ảnh</w>
nh ei
hải_ lý</w>
gadha fi</w>
co re</w>
ấn_ định</w>
viế ng</w>
trừu_ tượng</w>
t âu</w>
a xít</w>
v á</w>
tr ọ</w>
thảo_ nguyên</w>
th ri
l ượt_
fi ni
esto nia</w>
r -
quý_h iếm</w>
ph y</w>
n ắp</w>
x ơ</w>
truyền_ đạt</w>
ngọ t_
la ur
k ế_t
hi ll</w>
chí ch</w>
bù _đ
truy_t ìm</w>
tp .</w>
so ta</w>
n er_
hoạ ch_
gi e</w>
b e_
1. 0
đều_ đặn</w>
xuất_ xứ</w>
va r</w>
tiên_ tri</w>
mar x</w>
i do
10 5</w>
â l</w>
tương_ truyền</w>
nd i</w>
ji m
c ôn_
po st</w>
phá _
nhập_ ngũ</w>
lỗ i_
li c</w>
er e</w>
con_ nuôi</w>
a nh-
th y</w>
t ụt</w>
nh âm</w>
ng ươi</w>
la t
cú p_
ng ư</w>
m eri
hoàng_ thái_hậu</w>
ch en
bảo_ an</w>
t ục_
phi s</w>
pe ter</w>
m ắt_
đường_ thẳng</w>
tân_ bình</w>
tay_ chân</w>
ph en
p yo
ngh ênh</w>
c ôn</w>
ầ y_
hải_ sản</w>
công_ thương</w>
cae sar</w>
thi êu</w>
r& b</w>
mớ i_m
mới_m ẻ</w>
luxem bourg</w>
kính_ viễn_vọng</w>
giận_ dữ</w>
co la</w>
be an</w>
ap g</w>
ko ta</w>
alber t_
_c úng</w>
đặt_ chân</w>
đ iên</w>
tâm_ sức</w>
th ước</w>
t ỏ
pseu do
kiểm_ điểm</w>
khí _t
do ngh
diễ n_t
cra ft</w>
ch è</w>
cap e_
c õi</w>
ango la</w>
đồng_ loạt</w>
y_ tá</w>
x ạ
vi lle
v log</w>
tr ơn</w>
thế_ là</w>
net work</w>
ca si
4 50</w>
v ệ
la ho
gir l
benga l</w>
đường_ dây</w>
xúc_ tác</w>
mi th</w>
hàng_ hoá</w>
gad dafi</w>
tập_ kích</w>
tham_ chiếu</w>
nh ĩ
m ường</w>
iế c</w>
ít_ lâu</w>
tiếp_ giáp</w>
phúc_ kiến</w>
nhân_ cách</w>
f un
c u</w>
v tv
quảng_ tây</w>
mơ_ ước</w>
mi ka
kim_jong- il</w>
jo ur
f u</w>
chạ p</w>
ch ương_
trầ n_tr
thiên_ niên_
sao_ chổi</w>
sa mo
ni tơ</w>
lê_ quý
hà_ giang</w>
do mi
bạ o_động</w>
vũ_ văn_
mô i_tr
kho át</w>
kan e</w>
il -
chất_ béo</w>
che _ch
blu e</w>
ỏ m</w>
r a_sức</w>
nguyễ n_l
lịch _trình</w>
f fer
alba nia</w>
_c ốc</w>
đại_ phu</w>
z en
sa ki</w>
chỉ _dẫn</w>
ja ne
bat man</w>
b ẩm_
đ ố</w>
thi_ tuyển_sinh</w>
sa ô
par t</w>
ng ton_
l .</w>
khuyến_ nghị</w>
jo na
in te
chuyên_ viên</w>
._ lễ</w>
x ay</w>
ng_l ẽ</w>
ll a_
gre en</w>
g ả</w>
ca lo
đ o_
tinh_ vân</w>
k ỉ_
d ĩ</w>
her o
h ông</w>
grea t_
gi ục</w>
doanh_ trại</w>
d ạ</w>
chỉ_huy _trưởng</w>
au to
tự _lập</w>
ne n</w>
gen o
er o</w>
o ne_
môi_tr ường_
16 /2</w>
thá c_
po ds</w>
wal ker</w>
h ét</w>
di_ tản</w>
car d</w>
ad n</w>
w ea
us t</w>
er i</w>
trini dad</w>
suma tra</w>
kha ng_h
cala is</w>
bắt_ nạt</w>
đồ _d
ran i</w>
n ạ
i_l ội</w>
hash tag</w>
bơ i_lội</w>
' s
đánh_ đuổi</w>
z u</w>
vị_ hoàng_đế</w>
tượ ng_đài</w>
sou th_
quyền_ sở_hữu</w>
một_ mặt</w>
cứ u_tr
byzanti ne</w>
26 /2</w>
ng_đ ứng</w>
kiế p</w>
hor mone</w>
fe et</w>
slova kia</w>
mỹ_th o</w>
di ngs</w>
d d</w>
chữ _ký</w>
ằ n_
neu tron</w>
lo ve_
hồi_ ký</w>
hạ _long</w>
diễu_ hành</w>
danh_ tính</w>
aca de
3 8
xấu_ hổ</w>
vi n_
gia_ cát</w>
._ sa
x i_m
quan_t ài</w>
ma p</w>
ma di
le one</w>
go et
ch ry
c y_
as sa
24 ,
ta ble</w>
ng u</w>
ma to
cở i_
._ vài</w>
._ song</w>
x ôn_
vây_ hãm</w>
sta r_
nghiêm_ khắc</w>
1 _triệu</w>
xi_m ăng</w>
v ĩ_
qđ- ttg</w>
ninh_ thuận</w>
la dy_
g ân</w>
bả n_thảo</w>
ứng_ phó</w>
đầ m_
xôn_ xao</w>
s à
nhà_th ầu</w>
nhanh_ nh
mar k
gặp_ mặt</w>
dân_ lập</w>
cứu_tr ợ</w>
bình_ dân</w>
_s ta
ữ a_
đồ _đ
va da</w>
tương_ quan</w>
m_ho i</w>
hiế m_hoi</w>
gu n</w>
bộ_l uật</w>
tính_ mạng</w>
trà_ vinh</w>
tiết_ độ</w>
thương_ binh</w>
li êng</w>
kiểm_ duyệt</w>
in o
chu_ văn_
25 ,
200 .000</w>
15 ,
u_tr ưng</w>
ke y
hệ_ mặt_trời</w>
củ a_
._ nghiên_cứu</w>
ồi_ dào</w>
sa w</w>
pun k</w>
ni k</w>
ha mil
d ồi_dào</w>
xuất_ biên_chế</w>
u m
t ịnh_
t ney</w>
nguyễn_ xuân_
n ọ</w>
me tal</w>
v re</w>
lưỡng_ cư</w>
hon da</w>
e la
ô i_tr
ya ma</w>
tr àng_
lo w
bước_ đầu</w>
bal tic</w>
4 0.000</w>
20 .
190 9</w>
._ ka
ye men</w>
sứ _thần</w>
po si
flo w</w>
bộ _chỉ_huy</w>
thương_ lượng</w>
par thia</w>
nguyễn_tr ãi</w>
hội_ trường</w>
ch ật_
ca rey</w>
c ọ</w>
ta in</w>
nguy_ cấp</w>
mobi le</w>
internatio nal_
arthu r</w>
_l ớn</w>
tôn_ quyền</w>
tá t</w>
tr ăm_
_ch i
189 8</w>
đại_ hội_
v ...</w>
tr ừng</w>
thờ _cúng</w>
cu l
chi p</w>
x v</w>
trọn_ vẹn</w>
ri n
play- off</w>
gran d_s
gi dae</w>
ti p</w>
thâm_ nhập</w>
ma ster
lê _lợi</w>
k s
hàng_ ngũ</w>
festi val</w>
clu b</w>
chủ_ đạo</w>
ẩ n_n
é c</w>
tennesse e</w>
t ớ</w>
pha n_h
on y
di o_
che v</w>
tăng_ giá</w>
phá ch</w>
o pe
lưu_ lượng</w>
is t</w>
hã m_
hoang_ mang</w>
190 1</w>
189 5</w>
x é</w>
wa ys</w>
pro to
ko s</w>
jose ph</w>
han nah</w>
h ằng_
bá n_trú</w>
ani ma
ước_ lượng</w>
p ._
ng en</w>
nami bia</w>
mel bourne</w>
kuwa it</w>
il le</w>
e a_
dân_ dụng</w>
ba s
tí n_hữu</w>
gh t
cour t</w>
ch uộc</w>
c ăm_
c ài</w>
é _
pu l
pe dia</w>
nghỉ _dưỡng</w>
m ịn</w>
hiện_đại_ hóa</w>
eno s_
cana l</w>
bu il
bo y
ĩ a_
w on
v. v...</w>
h ran</w>
bo me
bi t
đầu_ mối</w>
vi_ tính</w>
há t_
hand made</w>
christo ph
c ờ_
14 .
wa s</w>
trang_ điểm</w>
al len</w>
/0 3/2012</w>
r ạch</w>
m ềm_
luật_ lệ</w>
khiêm_ tốn</w>
fer ra
ch y
bu ồm</w>
_d ĩ</w>
ẽ n</w>
xúc_ tiến</w>
tập_th ể
tiếp_ diễn</w>
ita ly</w>
cartha ge</w>
bất_ hợp_lý</w>
be li
18 60</w>
. com</w>
sá o</w>
natio nal_
ga r</w>
cọ p</w>
bài_ thơ</w>
air pods</w>
khiêu_ vũ</w>
j a_
cao_ đài</w>
bẩm_ sinh</w>
bu enos_
nhiễm_ bệnh</w>
ber i
_k m2</w>
1 a</w>
1 1-
tham_ số</w>
su b
pho to
nhà_ vệ_sinh</w>
n_h ại</w>
hội_ chợ</w>
23 /2</w>
1. 500</w>
serie_ a</w>
qu ậ
p v
khu ôn</w>
ar chi
a to
._ vùng</w>
xúc_ phạm</w>
l ệ_th
do ub
coun ty</w>
biên_ bản</w>
190 2</w>
l c</w>
hi đ
ge t</w>
cơ_ đốc_
bả ng_
ph ì</w>
ch an</w>
thể_ nào</w>
te p</w>
ph ấn_
lực_ học</w>
h ít</w>
dân_ quân</w>
duy _tân</w>
công_ nghiệp_
clin ton</w>
ca pe</w>
biến_ cố</w>
a ward</w>
đỉnh_ điểm</w>
vn ch</w>
th ệ</w>
ru n</w>
o an</w>
la p
ver s</w>
que en</w>
nh_h ải</w>
mb er</w>
fa ir
cộng_hòa_ xã_hội_chủ_nghĩa_
thuê_ bao</w>
so i</w>
di ên</w>
chiế n_h
trấn_ áp</w>
ng_h ồ</w>
kỹ_ năng_học</w>
gu in
da s</w>
rào_ cản</w>
r ._
mi tsu
giáo_ án</w>
bạ ch
ẵ n</w>
đồ_d ùng</w>
x h</w>
vi sa</w>
si le
quân_ thanh</w>
ni ng_
lãnh_ chúa</w>
26 ,
to n
ngộ_ độc</w>
li ves
hợp_ kim</w>
giả _sử</w>
cố_ ý</w>
0 5
x át</w>
m ạ</w>
lo o
l ít</w>
chu s</w>
bu la
azer bai
đánh_ cá</w>
đ ập_
whi te</w>
u m_
thiên_niên_ kỷ</w>
t to</w>
quanh_ năm</w>
ptole mai
on ta
nhà _sư</w>
je an</w>
hành_ hương</w>
hoàng_ tộc</w>
hiến_ chương</w>
de a
c le</w>
ă n_trở</w>
ngũ _cốc</w>
ko vic</w>
k iềm</w>
b úa</w>
2_ ,_
áo_ dài</w>
to ur
pi d</w>
l m</w>
dặ n</w>
đau_ đầu</w>
đa m</w>
p le</w>
no kia</w>
m ậu</w>
hài_ kịch</w>
c ưa</w>
_l ỗi</w>
thượng_đ ỉnh</w>
tho a</w>
mái_ tóc</w>
la ti
khoáng_ chất</w>
ít_ nhiều</w>
nhà_th anh</w>
kh ương_
briti sh</w>
rượu_ vang</w>
phục_ kích</w>
o ro
ni xon</w>
na ta</w>
fa mi
cy clo
20 25</w>
! _
wan da</w>
k y</w>
hài_ cốt</w>
hoài_ nghi</w>
á o-
vu i
ve lo
tuyệt_ vọng</w>
thẳng_th ắn</w>
syr phidae</w>
s car
ngày_ mai</w>
lo go</w>
giải_ mã</w>
gi ã</w>
cao_ tông</w>
c ọc</w>
b ._
a sia</w>
nhược_ điểm</w>
khoai_ tây</w>
_ch art</w>
ẻ _tr
thị_ giác</w>
ther ine</w>
machi ne</w>
m t</w>
hoá _học</w>
g ._
buenos_ aires</w>
ba_ đình</w>
đồ n_điền</w>
thiên_chúa_ giáo</w>
si m
sho p</w>
nu n
mó ng_
i_m ãi</w>
got_ talent</w>
c ỏ
27 ,
18 80</w>
ồng_ tr
độc_ thân</w>
s chi
nhậ n_l
i_m òn</w>
dân_ chủ
co le</w>
3 9
._ bản_thân</w>
ă n_đ
bánh_ mì</w>
blo ck
0 2/2012</w>
/ 10/
z y</w>
trú_ ẩn</w>
trung_ nguyên</w>
mã i_mãi</w>
l ường</w>
ha no
chìa_ khóa</w>
bo w
to a</w>
ninten do</w>
ngọt_ ngào</w>
ka m
tàn_ sát</w>
trữ _lượng</w>
p ro</w>
a s_
g tv
al bert</w>
_t ội</w>
v y
tor tri
công_ đồng</w>
_ch i</w>
_ y</w>
ống_ kính</w>
lla h</w>
cu ống</w>
vui hoc</w>
si e
nh í</w>
nguyễn_ văn_h
fi re</w>
za wa</w>
su m</w>
re u
nguyễn_ minh_
myan ma</w>
lo m
la i
com bank</w>
bù_đ ắp</w>
vùng_ xa</w>
v đ
sóng_ thần</w>
qu es</w>
biến_ chứng</w>
17 0</w>
._ vụ</w>
ôn_đ ới</w>
u li
tnh h</w>
te m
t ăm</w>
sát_ viên</w>
s p</w>
ri an</w>
o m
ga z
dongh anh</w>
cơ_ đốc</w>
con vuihoc</w>
chuyên_ trách</w>
ch ưởng</w>
bome donghanh</w>
18 .
đánh_ vần</w>
tước_ vị</w>
thủy_ ngân</w>
lê_ hoài_thanh</w>
cá i_
c ây_th
_đ ôn</w>
1 25</w>
từ_ ngữ</w>
tổ n_hại</w>
sz cze
nghi_ vấn</w>
mất_ mát</w>
mat the
mar k_
l ội</w>
g ye
el -
r o_
n ương_
jus ti
ch y</w>
x ưng_
o ver
mắc_ kẹt</w>
chữ _nhật</w>
15 .000</w>
vo de
thực_ trạng</w>
sương_ mù</w>
s ướng</w>
ox y
lla r</w>
g ìn_
ein stein</w>
dập_ tắt</w>
ca ceae</w>
ằ n_l
x ảo</w>
ukra ine</w>
thư_ giãn</w>
th ổ_
r ậm</w>
phát_ điện</w>
o s_
gìn_ giữ</w>
do ra
ch_t ụ</w>
as syria</w>
apo llo</w>
190 3</w>
đố n</w>
xá o_
nho_ giáo</w>
lá _
hoạn_ quan</w>
do ãn</w>
chiêm_ thành</w>
_th ừa</w>
u ra</w>
thiên_ đường</w>
hoan_ nghênh</w>
cơ_đốc_ giáo</w>
_h ãn</w>
xáo_ trộn</w>
xo ay_
tạ _
mật_ mã</w>
mãnh_ liệt</w>
mi r</w>
mi ch
lê_th ánh_tông</w>
lâm_ đồng</w>
le d</w>
h ệ
bắt_ đầu_
đ âm_
t ết_
quốc_ công</w>
ng ại_
lạc_ quan</w>
lou is
bản_ án</w>
_kh ẩu</w>
189 6</w>
đô la</w>
yêu_ quý</w>
vă n_tr
pha n_đ
ma sa
kar l_
h ô</w>
ché n</w>
ò_m ò</w>
x ẻ</w>
t ẩm</w>
k on</w>
i '
zam bi
wa k</w>
thi êng_
sa ch
re r</w>
n_đ ài</w>
cảnh_ sát_
_m ét</w>
mar tin_
le ti
hệ_ quả</w>
e v
cha t</w>
a pa
thiêng_ liêng</w>
t ò_mò</w>
phiên_ âm</w>
ng i
lên_ lớp</w>
ga i
d ã
co i_
25 /2</w>
12 -
tinh_ khiết</w>
sh i_
ri hanna</w>
pro je
mur ray</w>
di_ dời</w>
_sou th_
188 9</w>
điều_ dưỡng</w>
đ ùi</w>
th ằn_l
te l
t ơ
r s</w>
nguyễn_ ánh</w>
ne ll</w>
hấp_th u</w>
g ươm</w>
xót_ xa</w>
xó i_mòn</w>
se y
hai ti</w>
go m</w>
gi ai</w>
su ýt</w>
phẫ n_n
phẫn_n ộ</w>
nh óm_
me n_
mari e</w>
kha ng_
hình_ dung</w>
bổ _nh
vụ_ quốc_hội</w>
ph ượng_
ne fer
bu t</w>
ra pper</w>
mỹ_ phẩm</w>
chủ _thể</w>
chiến_ khu</w>
woo d
vô _danh</w>
th í_dụ</w>
r ạng</w>
phòng_ vệ</w>
nguyễn_ ,</w>
f. c.</w>
ba ha
2- 0</w>
vùng_ cao</w>
sa suke</w>
n ến</w>
m ài</w>
lợ n_
giá n_đ
ca l_
_v e
wi mble
truy_đ uổi</w>
truy_t ố</w>
c r</w>
186 2</w>
è ve</w>
tái_ hợp</w>
tiêu_ chảy</w>
thể_th ức</w>
thái_ học</w>
t ung_
o na
ni ght_
cu t</w>
xo á
t ể</w>
ka r</w>
gián_đ iệp</w>
e s_
da y_
bắc_ âu</w>
1, 2</w>
đặc_ cách</w>
tho ái</w>
phim_ ảnh</w>
nói_ dối</w>
bồi_ đắp</w>
._ thường</w>
tại_ chức</w>
tiểu_ đường</w>
se ar
li u</w>
kỉ _lục</w>
es tro
cứ _điểm</w>
ấn_ độ_
đất_ sét</w>
ro ma
pictu res</w>
n uốt</w>
l ồi</w>
b ha
_l ưu</w>
1 20
v ác</w>
t ày</w>
phi_ chính_phủ</w>
li mi
kháng_ thể</w>
nu m</w>
le e
gus ta
bình_ phước</w>
bi g
w we</w>
trụ _
te hran</w>
mul ti
mi ễ
b ồi</w>
b a_m
ander son</w>
đăng_ cai</w>
s íp</w>
ngày_ sinh</w>
le pi
a ta
tr ần_l
tr o_
suy_ đoán</w>
me s
b ôi</w>
16 .
vô_h ạn</w>
valen tine</w>
uni on</w>
suy _t
say_ mê</w>
o w
l ánh</w>
diễn_ văn</w>
b ọt</w>
b ưởi</w>
azerbai jan</w>
_t ử
v á
thằn_l ằn</w>
thiế u_th
pro ton</w>
chiếm_ đoạt</w>
bắt_đầu_ từ</w>
đoà n_thể</w>
vi_ sinh_vật</w>
the _s
hình_ tròn</w>
_t ang</w>
vec tơ</w>
v ặt</w>
te st</w>
t à_
ro sa
lo ne</w>
lla s</w>
lai_ châu</w>
không_ thể_nào</w>
đ ắt_
ô xít</w>
tr èo</w>
to ry</w>
to m_
quy ến</w>
phaol ô</w>
n .</w>
l ịch_
glu co
c ưng</w>
bú p_
189 9</w>
16 ,
vô _hình</w>
s ỏi</w>
pter o
kh ép</w>
h r</w>
ci a_
._ chi</w>
đóng_ băng</w>
ù _vậy</w>
ô -
vode ship</w>
tên_ gọi</w>
người_ nhà</w>
mo vi
jen ni
hợp_ tác_
học_ lực</w>
cán_ sự</w>
thượng_ hoàng</w>
th ắp</w>
lo v</w>
ho t_
t cha
po l</w>
ngày_ đêm</w>
ma x
diễn_t ả</w>
cộng_hòa_ séc</w>
bỏ_ hoang</w>
26 2</w>
đ ứt_
ì u</w>
thanh_ xuân</w>
nối_ liền</w>
ma ster</w>
in stitu
di visi
bại_ trận</w>
a zi
/ 11/
zo ne</w>
tra ck</w>
sy n
ri ch</w>
osa ka</w>
nóng_ bỏng</w>
ni us</w>
ho o
giả ng_đường</w>
af ri
3, 5</w>
186 1</w>
tia go</w>
ng_đ ại</w>
iể n_
di um</w>
cộng_hòa_ dân_chủ</w>
bạ ch_t
a ja
_m ô</w>
5 00
đài_ bắc</w>
v p
ro e</w>
onta rio</w>
mi ss
ma li
ji ma</w>
h es
giải_ đáp</w>
nh úng</w>
new _south_
nam_ nữ</w>
l iều_
he li
ff _
dân_ ca</w>
th ấu</w>
t ủy</w>
t ton</w>
nhập_ cảnh</w>
lưu_ huỳnh</w>
5 5
se leu
na p
mã o</w>
miam i</w>
l ượn</w>
bol she
đức_ mẹ</w>
so l</w>
quân_ lính</w>
minne sota</w>
chức_ danh_
búp_ bê</w>
bình_ an</w>
a dol
._ chiếc</w>
so me</w>
ne vada</w>
ma x_
._ tiếp</w>
thương_ gia</w>
nga ng_
l uộc</w>
hoàng_ thân</w>
hong_ kong</w>
gia_ tốc</w>
gi o</w>
chuyên_ đề</w>
ỉ a</w>
u_d ồi</w>
tra u_dồi</w>
te tra
i des</w>
hội_ thánh</w>
càn_ quét</w>
com muni
bur n</w>
bro o
ủ _
đại_ hội_đồng</w>
no w</w>
ne m</w>
bra d
._ công_việc</w>
sinh_ động</w>
na ka
ch ày</w>
cao_ học</w>
an_ sinh</w>
ặ n</w>
đánh_ dẹp</w>
trình_ viên</w>
techno logy</w>
pa ci
nhà_ ở</w>
mô -
kỉ_ niệm</w>
ken tu
hu r
hoạch_ định</w>
chết_ đuối</w>
28 ,
ver sa
s qua
di ng_
chu i</w>
._ thời</w>
._ hãy</w>
đ ứng_
z en</w>
voi vodeship</w>
tr ố
ti ễn_
sứ_ quân</w>
sul tan</w>
phân_ cực</w>
io t</w>
hoa_ văn</w>
cố _thủ</w>
cấp_ tính</w>
bea ch</w>
ự u_
ò _t
uz be
tr ữ</w>
suy _luận</w>
re li
màn_ ảnh</w>
lộ t</w>
i p</w>
cảnh_ cáo</w>
ch ồng_
đánh_ cắp</w>
yểm_ trợ</w>
u_th ầu</w>
tu a</w>
th ắt_
sôi_ nổi</w>
par d</w>
pa s-de-
in s</w>
_nh ạc</w>
wimble don</w>
thi s</w>
fa ce</w>
chạy_ đua</w>
bưu_ chính</w>
a ge</w>
._ giống</w>
đ è</w>
yor k
thiếu_th ốn</w>
phục_ sinh</w>
ngô _th
na t</w>
guada l
dụ _d
dễ _thương</w>
bã o_
đ ẻ_tr
xâm_ lấn</w>
vĩ _mô</w>
vi su
tv _
s cri
r ạc</w>
pomer ani
pas-de- calais</w>
giá _thành</w>
dụ_d ỗ</w>
block chain</w>
đại_ vương</w>
vo lu
ti tan</w>
thủy_ lợi</w>
thiên_ văn_
ro w
giáp_ xác</w>
3 20</w>
189 7</w>
ờ n</w>
xo ắn_
ru m</w>
pe ar
n v
mộ _d
l ơ
dây_ chuyền</w>
._ bài</w>
zer o</w>
van cou
trào_ lưu</w>
ta e
ru bi
op en</w>
nguyên_ âm</w>
liên_ thông</w>
chri s_
uy _h
tương_ phản</w>
tá i_th
n_t ắc</w>
c òi</w>
bành_ trướng</w>
đấ u_thầu</w>
trừ _
the s</w>
tch er</w>
t c
nước_ tiểu</w>
môi_ giới</w>
lan ds</w>
k ro
chào_ đời</w>
17 ,
phili p</w>
ph iệt</w>
car bo
balla d</w>
nh àn</w>
na no</w>
mo zambi
la te</w>
ho me</w>
ch_l ệ</w>
ch ậu</w>
188 4</w>
186 7</w>
._ tướng</w>
đẻ_tr ứng</w>
ú i</w>
uni ted_
tuổi_ tác</w>
trùng_ tu</w>
thi ng</w>
san tiago</w>
lạ p_
kha o_
hợp_ pháp_
ga m</w>
cư ỡng</w>
th ọ_
mậu_ dịch</w>
khuế ch_
kh ar
h iển</w>
ga me_
ch ọc</w>
đị ch_
ô xy</w>
xe l</w>
tiềm_ ẩn</w>
lập_ hiến</w>
gir ls</w>
cởi_ mở</w>
vô_ hiệu_
so li
s ma</w>
khu ất_
gtv t</w>
dung_ lượng</w>
chuộ t_
mo du
hy dra
cơ_ bắp</w>
chi_ bộ</w>
bài_ bản</w>
độ _dài</w>
đặc_ sắc</w>
r ỗi</w>
ng ọ</w>
ma ine</w>
liên_ doanh</w>
hạm_ trưởng</w>
ăn_ mặc</w>
tư_ mã
phát_ tán</w>
o anh_
new_south_ wales</w>
n_tr ang</w>
mary land</w>
kỳ _thị</w>
gio an_
es e</w>
d p</w>
cam p
so me
quốc_ ngữ</w>
ph à</w>
dis ney_
d son</w>
chu_ trình</w>
_d iện</w>
1- 0</w>
ố ng_h
tiễn_ biệt</w>
s g
phi lli
nhân_ tông</w>
n ạc</w>
ma -
lê_quý _đôn</w>
bàn_ chân</w>
a bi
y es</w>
tha ng_
th er_
s ê-ri</w>
r èn</w>
làm_ nên</w>
kentu cky</w>
he in
giảm_ sút</w>
bạo_ loạn</w>
188 8</w>
đề_ phòng</w>
văn_ kiện</w>
tr ồng_tr
ter i
pr o_
ngữ _hệ</w>
lãnh_ sự</w>
ly_ dị</w>
kĩ _năng</w>
kinh_ ngạc</w>
khí ch_lệ</w>
_s cho
2 2,
17 .
._ ví_dụ</w>
í a_
o ni
như ỡng</w>
lập_ trình_viên</w>
de z</w>
bé n</w>
đám_ tang</w>
tế_th ế_giới</w>
trồng_tr ọt</w>
to l
g ởi</w>
be ne
._ thuốc</w>
xanh_ lá</w>
x í_
tín_ chỉ</w>
ma in</w>
bo l</w>
ber na
ath ens</w>
10 /2</w>
sử_ học</w>
nh ô</w>
li m</w>
ca therine</w>
b ỗ
18 00</w>
xác_ thực</w>
rời_ rạc</w>
no el</w>
nh ạ</w>
n ya</w>
j an
fo unda
14 /2</w>
00 0.000</w>
tra i
tita nic</w>
th o</w>
qu ấn</w>
hình_ vuông</w>
guadal canal</w>
gió _
d er_
bù i_th
ba ck
_th iết</w>
xác_ ướp</w>
to ne</w>
sắp_ đặt</w>
sho rt</w>
re a</w>
lo t</w>
ki êm_
gi eo</w>
d ẹp_
x ứ
trung_ quốc_
ph iền</w>
na dal</w>
mu ra</w>
huy ện_
bước_ sóng</w>
ph ao</w>
iệ n_tử</w>
ck et</w>
ca -
bona t</w>
an da
đánh_ số</w>
v uốt</w>
thân_ thể</w>
tha t</w>
s ục</w>
quả n_
0 6
wre st
sla v</w>
phi_hành_ đoàn</w>
pe a
ng ói</w>
mil ler</w>
mi x</w>
ly n</w>
iệ m_
hối_ lộ</w>
gran t</w>
công_ kích</w>
chính_ thống_
champion ship</w>
ab c</w>
a yu
_tr ưng</w>
uni t</w>
tấm_ gương</w>
te d
hạ n_h
h ảo_
da o_
ca ssi
biên_ dịch</w>
_s tu
29 ,
ẩm_ ướt</w>
zam bia</w>
w ang</w>
nen sis</w>
mãn_ tính</w>
il les</w>
gó c_độ</w>
cô _đơn</w>
biểu_ kiến</w>
vừa_ mới</w>
th ầu</w>
sa hara</w>
gi n</w>
dinh_ thự</w>
cầu_ thang</w>
car ter</w>
ức_ trách</w>
ép_ buộc</w>
thống_ lĩnh</w>
ré né
p ine</w>
nhà_ch ức_trách</w>
gi o_
f da</w>
ada ms</w>
xu ng</w>
tiên_ hoàng</w>
py réné
phàn_ nàn</w>
l s
hộp_ sọ</w>
chuyên_ chở</w>
cao_ tuổi</w>
_đ ức_
2 20</w>
điều_ phối</w>
ta gne</w>
sou nd
sao_ kim</w>
sa_ đ
pa y
nhận_l ời</w>
formula_ 1</w>
fi fa_
c b
đặc_ khu</w>
đ ổng_
ân_ xá</w>
w o</w>
thoái_ vị</w>
t óm</w>
lí nh_
khát_ vọng</w>
hằng_ số</w>
gen ève</w>
d j</w>
bu l</w>
đệ_nh ị</w>
va s</w>
stan ford</w>
sa l</w>
phản_ kháng</w>
lạc_ hậu</w>
i ri
chữ _th
cha mp
bà n_thờ</w>
an_ voivodeship</w>
t le</w>
sha n
nhân_ giống</w>
ng à
mật_ thiết</w>
ch ải</w>
cc i</w>
bất_ bình</w>
đột_ nhiên</w>
z an
prin ce
n ã</w>
me d
ho t
gran d</w>
davi s</w>
cá p_
ur e</w>
thượng_ lưu</w>
t ắt_
m ẻ</w>
ea r</w>
cen ter</w>
bộ c</w>
đ ậm_
song_ ngữ</w>
sinh_ đôi</w>
nội_ thành</w>
ngh ẽn</w>
mỹ _nhân</w>
lớn_ mạnh</w>
le ster
e c
b ận</w>
yaho o</w>
x .</w>
võ _sư</w>
phé p_thuật</w>
mozambi que</w>
l ậu</w>
học_ vấn</w>
a mo
_th ân</w>
đạn_ dược</w>
đương_ nhiệm</w>
s che
jo kovic</w>
i ni
h r
diễn_ đạt</w>
chiếu_ sáng</w>
te ch</w>
r ách</w>
ph us</w>
nd y</w>
kry m</w>
ch ảo</w>
_l ại</w>
_ch ỉ</w>
_ch ua</w>
ắ ng_đ
xí_ nghiệp</w>
thú _y</w>
nga o</w>
mid d
hy po
dư ỡng_
chặ n_đ
chu ồn_
187 1</w>
tinh_ trùng</w>
r ung_
e z
cải_ lương</w>
chu_văn_ an</w>
s _c
r ủ</w>
lôi_ kéo</w>
hậu_ giang</w>
d ở</w>
a ka
định_ danh</w>
x ưa_
vội_ vàng</w>
tuổi_ thơ</w>
trụ_ cột</w>
hoàng_ anh</w>
d g
chuyên_ dụng</w>
1 15</w>
độc_ tố</w>
đối_ kháng</w>
xoắn_ ốc</w>
phật_ tử</w>
ok laho
khuếch_ đại</w>
i beria</w>
hà_t ây</w>
dar win</w>
ch ợt</w>
ca iro</w>
beat les</w>
10 2</w>
thượng_ tướng</w>
tha_ thứ</w>
si beria</w>
playsta tion</w>
pau lo</w>
ni cara
ma ra</w>
bà _trưng</w>
_d u_
/ 8/
nhất_ quán</w>
m ía</w>
le ne</w>
juni or</w>
ju an_
bản_ tin</w>
bao_ trùm</w>
30 _triệu</w>
suy _s
napo leon</w>
k èn</w>
hậu_ thuẫn</w>
vi na</w>
t ải_
sta li
o po
na ga</w>
188 7</w>
đường_ thủy</w>
vancou ver</w>
tô n_th
t ỷ
quý_ giá</w>
chế_độ_ quân_chủ</w>
đô _vật</w>
w ana</w>
song_ ca</w>
r wanda</w>
leo nar
khảo_ thí</w>
grand_s lam</w>
gi à_
bhu tan</w>
< _
/0 4</w>
đại_ nam</w>
ri o_
or s</w>
la dy</w>
ka li
ch ướng_
bánh_ xe</w>
đánh_ tan</w>
so l
ra h</w>
giả_ mạo</w>
cạ n_
bàn_ phím</w>
âm_ đạo</w>
thực_ hư</w>
se i</w>
micha el
lạ nh_l
khuy a</w>
jane iro</w>
i tu
gi un</w>
_k o
10 8</w>
ữ u_th
tân_ tinh</w>
tr úc_
thường_ trú</w>
nguyên_ thủ</w>
chu ồn</w>
bảo_ toàn</w>
bu ô
b ren
an ce</w>
a do
19 0</w>
tái_ định_cư</w>
py r
cạn_ kiệt</w>
đảm_ trách</w>
y ar
na o</w>
me ssi
chứa_ đựng</w>
ari sto
0, 5</w>
0 3/
._ ra
ya l</w>
x viii</w>
uy_h iếp</w>
thu ỷ
th iề
sơ n_h
pi ng</w>
mo uri
hoa_ sen</w>
3 _%</w>
20 -
188 3</w>
đánh_ phá</w>
ww w.
thượ ng_đế</w>
s- bo
no vo
nghệ _danh</w>
g g</w>
có_ ích</w>
ch_s ẽ</w>
ye on</w>
viện_kiểm_ sát_
v ề_
tình_ nhân</w>
tri c</w>
sáng_ tỏ</w>
re z</w>
po li</w>
po l
no te</w>
mơ _hồ</w>
hiệ n_hữu</w>
cốt_ yếu</w>
b đ
_nhân_ dân</w>
nh an</w>
mo ore</w>
mer ce
lú a_
h d
h a_
di_ chỉ</w>
wi ch</w>
tr âm</w>
str ea
sici lia</w>
s y</w>
nhắn_ tin</w>
ngó n_
n á
máy_ bay_
coun cil</w>
bất_ lực</w>
/ 6/
xá ch</w>
tái_ sinh</w>
mc car
kính_ trọng</w>
kiểm_ toán</w>
biể u_trưng</w>
điể u</w>
vi d</w>
si a_
s i_
new_york_ times</w>
khổng_ tử</w>
du_ mục</w>
tuyên_ thệ</w>
toà_ án</w>
t ley</w>
sạ ch_sẽ</w>
r òng</w>
phương_ tây</w>
i_l ăm</w>
học_ phần</w>
cô n_đồ</w>
_s ĩ_
18 40</w>
thừa_ hưởng</w>
si o
napo li</w>
m wc</w>
d ọn_
chó ng_
ch ồn</w>
triệu_ hồi</w>
s ớ</w>
quân_ ủy</w>
qu ạ</w>
nhị_ phân</w>
mar c
cảnh_ giác</w>
chiết_ giang</w>
đồi_ núi</w>
x ăm</w>
x ê_
tra i_
m pa
không_ đổi</w>
don '
d ạn</w>
c ống_
ba_m ươi</w>
thân_ phận</w>
r na</w>
le n_
kho an_
_tr ọng_
186 8</w>
v óc</w>
nề n_
io wa</w>
en e</w>
cà _chua</w>
ca le
b ử
_s a</w>
ắc_ xin</w>
đột_ nhập</w>
tur k
to tte
thú y_
qu ế_
le ss</w>
frank lin</w>
bo ys</w>
3 00
thanh_ bình</w>
phá p_th
ni er</w>
nhiếp_ ảnh_
muhamma d</w>
h u</w>
cộng_h ưởng</w>
cổ _tích</w>
ar ts</w>
_ tại</w>
3- 4</w>
18 48</w>
đông_ sơn</w>
tt- bgdđt</w>
suy_s ụp</w>
su ri
ri ver
nghị ch_
m mer
kha o</w>
k ẹp</w>
hđ nd</w>
goo d</w>
cá_h ồi</w>
đa_dạ ng_
west_ pomerani
trá ng_
thẳ ng_đứng</w>
nhà_ minh</w>
linh_ trưởng</w>
c 1</w>
a p</w>
nh ĩ_
mi c</w>
làm_ giàu</w>
lam_ sơn</w>
i a_
d s_
chất_ rắn</w>
biế m</w>
a se</w>
189 4</w>
đầu_ bếp</w>
đảng_ cộng_sản</w>
điện_ biên_
ù n_tắc</w>
thụ_ động</w>
sou th
so r</w>
kha li
188 6</w>
đồ_đ á</w>
đo_ đạc</w>
đ ưa_
thuầ n_hóa</w>
thuy ên_
s úc_
tối_ ưu_
lu ke</w>
dra gon</w>
den dro
ngụy_ trang</w>
mi chel
gra phi
cơ m_
bah rain</w>
hàm_ số</w>
h é</w>
d c
cấu_ thành</w>
cư_ ngụ</w>
chức_danh_ giáo_sư</w>
bre tagne</w>
war saw</w>
sara wak</w>
g óa</w>
friedri ch_
biết_ ơn</w>
đệ _trình</w>
wiki pedia</w>
sắc_ tố</w>
hợp_pháp_ hóa</w>
dọn_ dẹp</w>
dẫn_ xuất</w>
chan nel</w>
atlan ti
9 9
._ ha
xe_ khách</w>
te am</w>
swi ft</w>
lượt_ về</w>
d di
b ê_
ố ng_hóa</w>
điệ n_lực</w>
va_ đập</w>
nền_ móng</w>
ng uội</w>
hệ_th ống_hóa</w>
gi àn</w>
diệ p_
di êm_
công_ phu</w>
_tru ất</w>
xứ _sở</w>
vệ_ binh</w>
tập_ quán</w>
thường_ vụ_quốc_hội</w>
si ng</w>
sa_đ éc</w>
nước_ thải</w>
lộ t_
li b</w>
cấp_ bách</w>
ta t</w>
s ba
phế _truất</w>
phé p_đ
p t
n ão_
ka u
j e</w>
i da
constantino polis</w>
ca t
_tr uyện</w>
4 7
xo ài</w>
truy _kích</w>
thừa_ tướng</w>
phản_ diện</w>
mor gan</w>
kinh_ châu</w>
giả _thiết</w>
for t</w>
bi smar
ù n</w>
thành_ đô</w>
sơ_ cấp</w>
sco tt</w>
nh uệ</w>
nguyễn_ du</w>
m .
gi an
el le</w>
dương_ vật</w>
chấn_ động</w>
b ị
._ vua_
y i</w>
x í</w>
sams ung_
oklaho ma</w>
máy_bay_ trực_thăng</w>
le vel</w>
l ấn_
gio an</w>
chi_ viện</w>
ch ớp</w>
ch -
._ khác</w>
ỉa_ hè</w>
u tah</w>
tr ói</w>
tho át_
phân_ đoạn</w>
hải_ nam</w>
a nh
_đ ô</w>
18 50</w>
15 00</w>
đời_ vua</w>
v ỉa_hè</w>
trung_ lưu</w>
tru ng-
ne s_
cu lidae</w>
ch ê</w>
bị_ cáo_buộc</w>
điện_ biên</w>
v ỗ
th ước_
s cu
ce pha
a ti
18 ,
điệ n_thế</w>
y_th uận</w>
vòng_ loại</w>
tập_thể _dục</w>
mu r</w>
kế_t ục</w>
kho ái</w>
hình_ chữ_nhật</w>
harry_ potter</w>
d ĩ
cướp_ phá</w>
cac bonat</w>
bán_ dẫn</w>
bu ff
binh_ lực</w>
189 3</w>
ể _
độc_ tính</w>
vô _cơ</w>
tà u_thuyền</w>
s ley</w>
s chu
rạch_ giá</w>
phê rô</w>
phép_đ o</w>
pháp_th uộc</w>
mi ss_
m o_
học_ vị</w>
hiệu_ phó</w>
b el_
6 0
ấ n-
or i</w>
li ty</w>
bank plus</w>
ba ro
a in</w>
áo- hung</w>
tiểu_ vùng</w>
th eri
t ịnh</w>
so ns</w>
po s</w>
gmi na_
đô -la</w>
y_ tế_thế_giới</w>
n_thu ế</w>
hamil ton</w>
g p
be e
ba ta
189 2</w>
vù i</w>
ro se</w>
no va</w>
na m-
n òng_
lé n</w>
h ầm_
vũ_ đạo</w>
uỷ_ viên</w>
tạo_ dựng</w>
tcn .</w>
p sy
ng ưu</w>
lệ_ phí</w>
l ề</w>
el e</w>
du ras</w>
chiếm_ lĩnh</w>
bản_ năng</w>
alexandro s</w>
sier ra_
sh ei
r h
ng_đ ỡ</w>
linh_ kiện</w>
gra d</w>
d mi
cựu_ chiến_binh</w>
công_ sự</w>
aci d</w>
186 4</w>
186 3</w>
đông_ đúc</w>
đóng_ gói</w>
wi ll</w>
tái_th iết</w>
siêu_ tân_tinh</w>
nguyễn_t ấn_
ng ỏ</w>
kiên_ cố</w>
ki tô
kar ta</w>
gam ma</w>
bước_ tiến</w>
ber ry</w>
ế_t ắc</w>
đa_ năng</w>
wilhel m</w>
trung_ sơn</w>
timo r</w>
roy al_
phương_ châm</w>
l ắc</w>
l ậ
ib m</w>
ci ne
ch â
ca str
b ế_tắc</w>
8 /2</w>
đối_ lưu</w>
đấ ng</w>
vào_ cuộc</w>
hủy_ hoại</w>
của_ cải</w>
đông_ phi</w>
điều_ tiết</w>
ý _đồ</w>
v ắc_xin</w>
trạ ch_
suố i_
nin ja</w>
ng ừng_
mo to
chậm_ trễ</w>
chăm_ lo</w>
bản_ ngữ</w>
tỷ_ giá</w>
th ers</w>
ph lo
nh ả
mon tana</w>
khí_t ượng</w>
hưởng_ thọ</w>
cầm_ đầu</w>
tôn_ kính</w>
tr ân</w>
thực_ tập_
tháng_ tám</w>
si r_
jo sé
den t</w>
cast le</w>
ba t</w>
3 00.000</w>
._ đa_số</w>
địa_ ngục</w>
tr í_
người_ tình</w>
nguyên_ đán</w>
mouri nho</w>
bá ng</w>
đổ _lỗi</w>
nữ_ quyền</w>
ma ya</w>
lo ạn_
lewi s</w>
fi gh
trận_ địa</w>
toà n_thân</w>
fa bi
ex plo
dân_chủ _nhân_dân</w>
ch ót</w>
c ki
tư _sản</w>
qu ỳ
jes si
d ha
cá _th
5 000</w>
ăn_th ả</w>
thực_tập_ sinh</w>
thường_ lệ</w>
thiên_ tài</w>
sâu_ rộng</w>
se c</w>
khuyết_ điểm</w>
gh _
ch ăn_thả</w>
24 /10</w>
á -
thanh_ vân</w>
s ụt</w>
ru t</w>
pe dro</w>
lo ãng</w>
la mb
i ma
chủ_nghĩa_ cộng_sản</w>
bệnh_ lý</w>
bes t_
độ_ ẩm</w>
xoá y_thuận</w>
thăng_ tiến</w>
s l</w>
para guay</w>
nicara gua</w>
h 5
goog le_
g ạt</w>
ba_ mẹ</w>
thỏa_ hiệp</w>
sto r
phụ_ cấp</w>
o e
nhi_ đồng</w>
g ò
dani el_
ar ti
anh_ dũng</w>
a va
a b</w>
_t uyến</w>
._ trương_
xã _
ngự _sử</w>
nguyễn_th ị_th
litt le_
kiều_ bào</w>
hải_ vương</w>
cây_ xăng</w>
bê_ bối</w>
vi r</w>
vi er</w>
s we
khỏ a_
con_ voi</w>
co l</w>
cho lester
ben zo
4/ 2012</w>
._ mãi</w>
… _
vu ông_
tổ_ quốc_
thị_ lang</w>
so ny_
q h</w>
de ni
chuyển_ biến</w>
võ_ nguyên_
thầy_ trò</w>
ru n
phú_ quốc</w>
nhanh_nh ẹn</w>
fran k_
founda tion</w>
ea st_
cu m</w>
bolshe vik</w>
biểu_ quyết</w>
ba la
è m_
vũ _lực</w>
v s</w>
trong_ sáng</w>
phác_ thảo</w>
m ép</w>
lỗ _h
lives how</w>
g len
._ năm_
thật_ ra</w>
sĩ _tử</w>
giấc_ ngủ</w>
f ly
e vn</w>
củ i</w>
bismar ck</w>
be i
quản_l ý_
ph ar
paci fi
n_n ản</w>
lú a_m
in see</w>
goet z</w>
go ro
dow n
cru z</w>
chá n_nản</w>
_c ận</w>
x à</w>
tr ù</w>
phong_ chức</w>
p .
nạ p_
ngân_ hà</w>
lỗ_h ổng</w>
lo c
hình_ mẫu</w>
g ger</w>
ch ẳng_
ca sa
a er
_h ành_
/ 9/
._ khu</w>
._ bị</w>
đạo_ giáo</w>
west_pomerani an_voivodeship</w>
ve z</w>
u rani</w>
thu_ nhận</w>
qu es
n u</w>
et- loire</w>
._ t
tự _truyện</w>
trần_h ưng_
t w</w>
ne se</w>
mi no
diệt_ chủng</w>
._ vậy</w>
ve n_
tân_ cương</w>
to an</w>
so phi
ser ge
ler -
l le</w>
char lo
đ ắc</w>
wor ks</w>
s tru
phos pha
i c
ha li
for ce</w>
cộng_hoà_ mỹ</w>
c à</w>
bộ t_
bào_ tử</w>
đ úp</w>
v òi</w>
tr ắc</w>
thiên_ thạch</w>
ne pti
ju an</w>
et te</w>
et t</w>
2 _%</w>
12 8</w>
0 2/
ts k</w>
ngựa_ vằn</w>
nepti culidae</w>
lê_h ồng_
khai_ báo</w>
gh ts</w>
chất_ vấn</w>
chiế t</w>
bi_ kịch</w>
au x</w>
._ co
đơ n_lẻ</w>
v ướng</w>
trọng_ lực</w>
t ờ
ster oid</w>
s ell</w>
indi ana</w>
có i</w>
alexand er_
steph en_
phù _đ
nhiễ u_
nhiếp_ảnh_ gia</w>
luân_ lưu</w>
le ón</w>
chân_ trời</w>
buồn_ nôn</w>
bi g</w>
tiề n_đề</w>
s son</w>
phúc_ thẩm</w>
phù _du</w>
p ton</w>
ma y_
ly m
hậu_ cung</w>
en ti
da c
d j
bắc_ triều_tiên</w>
an o_
30 .
đội_ bóng</w>
trung_ hoa_
t ty</w>
niêm_ yết</w>
ngôn_ viên</w>
lỗi_ thời</w>
giải_ trình</w>
el o</w>
chống_ cự</w>
xê_ út</w>
washi ngton_
war t</w>
tr ỗi</w>
pe pti
ngừng_ bắn</w>
ngụ _ý</w>
n t
lo ren
l ựu_
khung_ cảnh</w>
en ne</w>
công_ binh</w>
am phi
._ tòa</w>
tí ch
q t</w>
nh ượng_
me d_
mari ana</w>
lên_ men</w>
hợp_tác_ xã</w>
e da</w>
diễn_ giải</w>
1. 4
đô _thành</w>
đ ấm</w>
õ ng</w>
y ale</w>
võ _sĩ</w>
tái_ chế</w>
thị_ phần</w>
o ng_
ng ỗng</w>
e mpi
do_ thái_
do va</w>
c ắm_
al o</w>
điện_biên_ phủ</w>
đ ỏ
trợ _thủ</w>
si an</w>
sa tur
phát_ xạ</w>
hẻ m</w>
hon duras</w>
chlo ro
ches ter</w>
ar t_
18 30</w>
tổng_ biên_tập</w>
ta o</w>
pa pu
ma nha
chi ll</w>
ba tt
a .</w>
ợ n</w>
ô n_hòa</w>
war s</w>
villa s-bo
sto re</w>
mu ra
la ke</w>
kết_ tội</w>
kh ốn_
i .
giam_ cầm</w>
đánh_ đập</w>
vội_ vã</w>
thương_ tích</w>
th ới_
szcze cin</w>
ph ải_
ng e
ly on</w>
hạng_ nhất</w>
gu er
dứt_ điểm</w>
ca u</w>
30 -
20 ,
vo ca
quốc_ nội</w>
pho ton</w>
e .</w>
co smo
3 4
2 40</w>
19 .
đồng_ đều</w>
tu ỳ</w>
sơn_ nam</w>
ra messe
nguy ền</w>
hòa_ hợp</w>
go n_
cầu_ hôn</w>
cây_ số</w>
bộ_ văn_hóa</w>
b ích_
_c a</w>
ặ t_
động_ học</w>
to p_
t tan</w>
nhật_ báo</w>
cholester ol</w>
bại_ quân</w>
bo ard</w>
vă ng</w>
va u
v â
t ê</w>
sa kura</w>
quân_ y</w>
l ler</w>
k è</w>
hi lla
gi ê-
dân_ biểu</w>
._ sang</w>
ro ll</w>
r ẫy</w>
n k
kh ốc_
k iệ
for bes</w>
_v ờ</w>
17 /2</w>
13 /2</w>
._ bạn</w>
định_ lượng</w>
đại_ bác</w>
đá_ ngầm</w>
đ ĩa_
xuố ng_cấp</w>
ti ca</w>
sá p</w>
m ệt</w>
giản_ dị</w>
e f</w>
con ti
về_ phần</w>
pa sca
ni c_
khốc_ liệt</w>
con_tr ưởng</w>
compu ting</w>
2 1,
đầu_ đạn</w>
z hu
villas-bo as</w>
thuộc_ hạ</w>
ta ra
s ko
khu_ tự_trị</w>
eni dae</w>
cửa_ ngõ</w>
cảm_ động</w>
b ã</w>
sao_ thổ</w>
phong_ cảnh</w>
nh ức_
h5 n1</w>
giả _vờ</w>
bắc_ mỹ</w>
thành_ trì</w>
stali ngrad</w>
qu ặ
phần_ nhiều</w>
ga wa</w>
e mon</w>
chuẩ n_hóa</w>
vùng_ miền</w>
thuốc_ nổ</w>
ta te</w>
s é</w>
ha cker</w>
h é
bal kan</w>
_đ ình</w>
định_ nghĩa_là</w>
ăn_ cỏ</w>
sinh_ khối</w>
que n_
ka wa
hi de
cướp_ biển</w>
cơ _ch
5 0_%</w>
vi ce</w>
thù y_
ri ne</w>
nh ộ
nex t</w>
ha b
formula_ 2</w>
carib bean</w>
_s er
._ si
động_ lực_học</w>
thuần_ chủng</w>
salva dor</w>
q h
nghị _luận</w>
fo und
_l ùng</w>
6 0.000</w>
ó w</w>
tràn_ ngập</w>
tiểu_ luận</w>
thân_ mật</w>
th iệp</w>
q s</w>
p li
j ung_
dàn_ dựng</w>
d ạt</w>
cleo pa
c ởi</w>
._ mối</w>
địa_ chủ</w>
x ót</w>
phản_ cảm</w>
o .
edi n
bi ll</w>
_v er
* _
ổ _đ
ông_ già</w>
yo ur_
vi -
trưởng_ đoàn</w>
sea ttle</w>
qu e_
ma l</w>
khẩu_ phần</w>
g t</w>
boro ugh</w>
_s te
đảng_ cộng_hòa</w>
w e_
quấy_ rối</w>
phy llo
nguyễn_ công_
luân_ công</w>
hồ_ nam</w>
g ánh_
dị _thường</w>
dona ld</w>
bec kham</w>
air ways</w>
18 65</w>
/ 7/
x vii</w>
spe ars</w>
s co_
ng ất_
n_h óa_
._ dựa</w>
tộc_ người</w>
s se</w>
ra fa
pa n_
mari time</w>
m- tp</w>
lo ạ
hình_ vẽ</w>
hoành_ tráng</w>
cá_th ia</w>
6 _%</w>
trả _
số_ hiệu</w>
re -
nguyên_ bản</w>
n_đ á</w>
hải_ tặc</w>
h '
bút_ danh</w>
20 30</w>
xanh_ lam</w>
tạo_ hình</w>
s d
ro ss</w>
phan xi
no mi
nhảy_ dù</w>
fi ji</w>
eri es</w>
e b
cư_ xử</w>
an t
đồng_h óa</w>
yêu_ sách</w>
ur s</w>
tiến_ cử</w>
r ộ</w>
phước_ long</w>
n_th ứ</w>
lưu_ truyền</w>
hi l
co ok</w>
bộ _đồ</w>
bur i</w>
._d ù_vậy</w>
đường_ biển</w>
tiếp_ viện</w>
th òi</w>
ta ji
sa ba
ma li</w>
for d
fa st</w>
dã_ man</w>
bối_ rối</w>
b ine</w>
8 0_%</w>
._ vị</w>
._ ngôi</w>
võ_nguyên_ giáp</w>
ta y
nghệ _nhân</w>
jo e</w>
hoà ng_đ
dạy_ dỗ</w>
bo ng_
ala n_
vĩnh_ cửu</w>
scan dal</w>
samo a</w>
hết_ mình</w>
da n_
2_,_ 3</w>
19 ,
ít_ ỏi</w>
vô_hiệu_ hóa</w>
từ_ liêm</w>
tí ch_tụ</w>
tu ồng</w>
to ại</w>
ra o</w>
qua ng_h
phong_ tước</w>
nội_ tạng</w>
lat via</w>
du l
be gin
._ ba
ẽ _
tr ượng</w>
phản_ chiếu</w>
nửa_ đêm</w>
ni e_
muni ch</w>
kéo_ theo</w>
d ì</w>
chung_ quanh</w>
ch al
ớ t_
đạo_ hồi</w>
đ ổng</w>
sốt_ rét</w>
ri bo
o la
nông_ sản</w>
mi lli
m iến</w>
khỏa_ thân</w>
khẩ n</w>
g à_
co ver</w>
chi n</w>
_th ứ</w>
vị _thành_
u p_
trung_ vệ</w>
t to
t sky</w>
so ft
qu i_
kh iết_
concer t</w>
ye v</w>
vị_thành_ niên</w>
tải_ trọng</w>
thông_ cáo</w>
thoái_ hóa</w>
ng ả</w>
chủ_nghĩa_ tư_bản</w>
bắc_ thái_bình_dương</w>
bill _
ala bama</w>
_c âu</w>
tú i_
tinh_ hoa</w>
t ý</w>
or _
new port</w>
man d</w>
kiếm_ ăn</w>
h ổ_
cha p
- 2</w>
x i_
tích_ phân</w>
trực_ quan</w>
phá _thai</w>
h ù
gợi_ cảm</w>
g ấp_
de la
d ọa</w>
vật_ tư</w>
s _cup</w>
phát_ ngôn_viên</w>
n_h àng</w>
lou isi
leni ngrad</w>
kỳ _thủ</w>
kiên_ nhẫn</w>
khoảng_ trống</w>
ha r</w>
h ổ
giật_ mình</w>
d ực</w>
bi z</w>
ar _
_kh ô</w>
_d anh_
động_ kinh</w>
địa_ chấn</w>
đa_dạng_ sinh_học</w>
đ iề
ăn_ mừng</w>
tro pi
ti ng_
thoả _thuận</w>
n_h ưng</w>
lúa_m ì</w>
i c</w>
hộ _khẩu</w>
189 1</w>
._ toàn_bộ</w>
tự_h ành</w>
tái_ bản</w>
sủ ng</w>
slo ve
siêu_ âm</w>
nh ục</w>
l ữ
kh éo</w>
ho od</w>
es a</w>
cự _ly</w>
4, 5</w>
nước_ sạch</w>
mục_ sư</w>
linh_ thiêng</w>
hợp_ xướng</w>
hu ệ
a ven
ống_h ệt</w>
đạo_ phật</w>
đình_ đám</w>
tình_ tiết</w>
to ku
thiệt_ thòi</w>
se d</w>
qu é
gi ống_hệt</w>
cổ_ động_viên</w>
cầu_ cứu</w>
_champion ship</w>
1 13</w>
/ 5/
ố m_
thân_ nhiệt</w>
p_ lại</w>
lu dwi
l ặc</w>
in_ ấn</w>
hoảng_ loạn</w>
gi ây_
ch ư_
báo_ hiệu</w>
be t</w>
_l ịch</w>
_h er
/ 4/
đương_ nhiên</w>
đông_ phương</w>
thanh_h à</w>
steve_ jobs</w>
s c</w>
nu cleo
k la
gi bra
gibra l
chào_ mừng</w>
1. 6
động_ cơ
ti vi</w>
thiếu_ sót</w>
s li
q g</w>
nq- cp</w>
na var
kháng_ nguyên</w>
in tel</w>
in dus
gần_ như</w>
ameri can</w>
3- 1</w>
đường_ bay</w>
điệp_ viên</w>
xà_ phòng</w>
su ka</w>
ry u
n_l ậu</w>
me tro
ma_ cao</w>
je ffer
công_ thần</w>
_l òa</w>
10 9</w>
đại_ trà</w>
ty pe</w>
th ỏa</w>
s ưng</w>
rolli ng_
rea gan</w>
ni ck</w>
mù _lòa</w>
mi êu</w>
luân_ chuyển</w>
ig h</w>
hạ _lưu</w>
h ân</w>
gran de</w>
fi sh</w>
chiến_h ạm</w>
b ẻ</w>
b ành</w>
vòng_ vây</w>
tr ên_
tiền_ phong</w>
su per</w>
o ce
k .</w>
in su
giao_ thương</w>
cây_ xanh</w>
chu_ đáo</w>
al l_
> >_
đô _hộ</w>
tuy _
ti t</w>
nh uy
n à</w>
mo zi
mo nd
i l_
di re
cứng_ rắn</w>
buô n_lậu</w>
british_ columbia</w>
188 2</w>
10 3</w>
vũ_h án</w>
tri_ ân</w>
to mo
sai lo
n_th uyết</w>
lê_th ị_
kết_ nạp</w>
bộ_l ĩnh</w>
12 7</w>
._ ủy_ban</w>
roo m</w>
phòng_ khám</w>
manha ttan</w>
lớn_ lao</w>
lu m
liên_hiệp_ anh</w>
kha n_h
id lib</w>
hạ o</w>
hành_ hạ</w>
chính_ đáng</w>
ba ll</w>
ro bin
ni ger</w>
n_đ ỏ</w>
kilô mét_vuông</w>
hoàng_h à</w>
bro w
_t í
20 /11</w>
wi scon
wal t_
tập_ kết</w>
thịnh_ hành</w>
thuyề n_
r ác_
p ru
nóng_ chảy</w>
n ể</w>
m ò</w>
eri c_
d d-
co me
b ế_
._ rồi</w>
ủ y_th
á _hậu</w>
th ạc</w>
prince ton</w>
o ka</w>
new_ mexico</w>
li ngton</w>
khan_h iếm</w>
hy un</w>
fla sh</w>
đề_ kháng</w>
truyề n_hình_
thảm_ thực_vật</w>
ngoại_ vi</w>
chù a_
c ẩm</w>
c tus</w>
_đ àm</w>
_c ưới</w>
4 _%</w>
4 8
đ úng_
tiên_ đoán</w>
thời_ cơ</w>
thú _nhận</w>
t ọa</w>
sh an</w>
quặ n_lòng</w>
o h
nguyễn_th ị</w>
ngh ịch
m ụ
lợn_ rừng</w>
tướng_ sĩ</w>
ruộ t_
phát_ thanh_
nguyễn_ quang_
m w</w>
hải_ đảo</w>
cho àng</w>
bro s</w>
ath ena</w>
ana to
1- 1</w>
đăng_ bạ</w>
th èm</w>
quân_ địch</w>
quy_ tụ</w>
qu ỵ</w>
p r</w>
mã nh</w>
l anh</w>
fir st_
en nis</w>
e cc
danh_ từ</w>
cẩm_ nang</w>
chú _thích</w>
cha e
bạ n_tình</w>
bi l
anh_ ngữ</w>
y n
to át</w>
tiết_ độ
po wer</w>
phân_ khu</w>
na tu
mo lo
mega n_
fel d</w>
enter pri
dani el</w>
bất_ tử</w>
billbo ard_
1 11</w>
ôi_tr ồng</w>
y_m úa</w>
vi ng
trộ m_
thu_ nhỏ</w>
phòng_ ngủ</w>
nu ôi_trồng</w>
nhả y_múa</w>
j on</w>
c ù_
._ n
._ lưu_
định_ giá</w>
trùng_ khánh</w>
trung_quốc_ đại_lục</w>
p g</w>
la_ liga</w>
l ỏ
chậm_ chạp</w>
ch iểu</w>
_tu ổi</w>
trần_quốc_ tuấn</w>
t ỵ</w>
re g
ra l
ju ra</w>
diễ m</w>
chuồn_ chuồn</w>
b ẩy</w>
a ta</w>
a di
đồng_ quê</w>
đồng_ cảm</w>
y u</w>
tết_ nguyên_đán</w>
t ệ_
t é
ster one</w>
hung_ thủ</w>
do llar</w>
d ép</w>
cal va
ca n_đ
al a_
wha t</w>
văn_t ự</w>
thời_ đại_số</w>
no n_
g ho
c us
bồ _câu</w>
bình_ yên</w>
đồ _s
wal la
tăng_ viện</w>
tái_ phát</w>
t ấ
seleu kos</w>
nổi_ giận</w>
hiế p</w>
công_ dân_số</w>
cây_ cối</w>
comple te</w>
ber t_
2 10</w>
đ en_
y_th áng</w>
v eri
trụ _trì</w>
tr âu_
thi êu_
quan_ quân</w>
nước_ mắm</w>
nghỉ_ việc</w>
na da</w>
mo ha
law rence</w>
ka ge</w>
c lo</w>
b ịt</w>
atlan ta</w>
_s how</w>
187 3</w>
xung_ kích</w>
vụ_ phó</w>
v- league</w>
tiết_độ _sứ</w>
til land
sở _trường</w>
sưu_ tầm</w>
san k
ra u
p_đ iệu</w>
op er</w>
o d
ng_l ẫy</w>
new found
lễ _cưới</w>
giao_ thức</w>
chóng_ mặt</w>
chính_ yếu</w>
1. 8
xếp_ hàng</w>
thanh_ hoá</w>
nguyễn_ -</w>
la t</w>
hoảng_ sợ</w>
gi ặt</w>
er ne
den burg</w>
cn tt</w>
_s ha
1. 5
ư_ pháp</w>
đại_ lượng</w>
s t-
quá ch_
phân_ tách</w>
nhị p_điệu</w>
nguyễn_ kim</w>
lo_ âu</w>
i o</w>
hy per
hiế p_
gio van
gia ng_hồ</w>
gar d</w>
e e</w>
ch ả</w>
app le_
2. 500</w>
đường_ ray</w>
xuất_ huyết</w>
viet tel</w>
ngoại_ thành</w>
khá n_đài</w>
hi sto
gram mar</w>
giám_ thị</w>
can_đ ảm</w>
b ế</w>
trạch_ đông</w>
papu a_
nha n_
hải_ quan</w>
el a_
chúng_ em</w>
b ùng</w>
an d_
2 30</w>
13 5</w>
._ de
đổ_ nát</w>
đường_ ống</w>
âm_ tiết</w>
uzbe kistan</w>
s ào</w>
phe_ phái</w>
nh_h ôn</w>
kr ông_
ge t_
cúm_ a</w>
cung_ đình</w>
á u</w>
y er
trượt_ tuyết</w>
thông_ thạo</w>
o ld
n_th iên</w>
kháng_ cáo</w>
huyện_ ủy</w>
công_ngh ệ
ch ầu</w>
10 _%</w>
tử _thần</w>
thám_ tử</w>
s ầu</w>
nhạc_ phẩm</w>
dor e</w>
cầu_ xin</w>
an_ ủi</w>
đí nh_hôn</w>
z an</w>
tần_ suất</w>
trấn_ giữ</w>
tilland sia</w>
ninten do_
nguyễn_ thanh_
bỏ_ cuộc</w>
._ se
ấn_độ_ giáo</w>
y i
u_th ân</w>
trường_ giang</w>
ni el
kitô _hữu</w>
f .</w>
bri an_
blan ca</w>
ada m</w>
ac_ milan</w>
25 .000</w>
19 -
vợ _con</w>
thân_ cận</w>
sống_ động</w>
si mon</w>
par k_
nor th
n_tr ách</w>
kh ép_
ga o</w>
d jokovic</w>
cầm_ quân</w>
._ tập</w>
vật_ phẩm</w>
ve y</w>
táo_ bạo</w>
te s_
slove nia</w>
miss _te
lê _d
itu nes</w>
ho ằng</w>
gibral tar</w>
g ang</w>
fo lia</w>
chạm_ trán</w>
che_ phủ</w>
calva dos</w>
_đ ẻ</w>
30 _%</w>
1. 7
._ chương_trình</w>
tuyên_ dương</w>
tra l</w>
tr ăn_trở</w>
sh el
pter i
pháp_ sư</w>
ni d</w>
k iệu</w>
_dân_ phố</w>
_ch ân</w>
16 6</w>
nguyên_ lão</w>
newfound land</w>
mo z
lan ca
kh iên</w>
ido l</w>
car di
associ ation</w>
af c</w>
30 ,
186 6</w>
ở _
uố n_
u_th ương</w>
tổ _dân_phố</w>
phân_ hóa</w>
p o_
nạp_ đạn</w>
ngữ_ âm</w>
ngh ẹ
nam_ châm</w>
na hi
khao_ khát</w>
kep ler-
d ra</w>
ce a</w>
bir mi
a xe
a tp</w>
187 6</w>
xa_ xưa</w>
vĩnh_h ưng</w>
ti me_
thị _h
show biz</w>
phi_ thường</w>
nhỏ _tuổi</w>
lôi_ cuốn</w>
lu zon</w>
guil era</w>
estro gen</w>
dư _thừa</w>
del ta</w>
chạm_ khắc</w>
c tv</w>
augus tus</w>
yên_ bình</w>
v ắt</w>
tổ _trưởng</w>
trần_ phú</w>
thụ_ tinh</w>
thiế c</w>
thiên_ tân</w>
số_ nguyên</w>
nước_ nhà</w>
nguyên_ sinh</w>
kh ôn</w>
hu ân</w>
giới_th ạch</w>
ef l</w>
cen tu
báo_ thù</w>
bàn_ bạc</w>
b est</w>
1. 200</w>
tiêm_ chủng</w>
sông_ băng</w>
ng_h ậu</w>
n_tr ào</w>
mu ôn</w>
man che</w>
l ung_
chính_ thể</w>
car l_
canh_ phòng</w>
c ừ</w>
bó p_
al bi
._ lượng</w>
v ãn</w>
un -
s na
mi -
m ắng</w>
lle t</w>
kinh_ tế_th
ki a_
for t_
fi sh
ba s</w>
đánh_ đắm</w>
xác_ lập</w>
x u_thế</w>
valen cia</w>
tậ n_h
tha n
phong_ tặng</w>
lịch_ sự</w>
lưỡ ng_hà</w>
ko u
gra y</w>
10 4</w>
tẩy_ chay</w>
tinh_ vi</w>
thế _tục</w>
ter na
pp o</w>
olympi c_
lom bar
hội_ an</w>
ham_ muốn</w>
chri st
and ré
am pho
._ na
to v</w>
te c</w>
n_l ẫn</w>
mon s</w>
cộng_ đồng_
ch ập</w>
ca st</w>
bắc_ hà</w>
bra hi
al l
đội_ xếp</w>
x ơ
u tc</w>
th in
sử _thi</w>
si ne</w>
peter burg</w>
papua_ new_guinea</w>
ll y_
ka wa</w>
he mi
castr o</w>
bỏ _t
ve nice</w>
tự_ học</w>
tường_ trình</w>
tây_ phi</w>
tân_ an</w>
r áo</w>
o man</w>
o l_
nam_ trung_bộ</w>
na cio
m ân</w>
k- pop</w>
f 0</w>
cố _đô</w>
cấp_ tiến</w>
cho áng_
# _
xỉ n</w>
thủ _thuật</w>
thể _lực</w>
thu ỵ
ri ta</w>
quốc_ khánh</w>
phu n_trào</w>
ph iện</w>
oxy_ hóa</w>
lương_ sơn</w>
da_ đỏ</w>
châu_ đốc</w>
bri d
ber ke
xe_l ăn</w>
truyền_ nhiễm</w>
tre -
tinh_ nhuệ</w>
thiên_ nga</w>
speci es</w>
sinh_ vật_học</w>
phù _sa</w>
kiểm_ chứng</w>
7 _%</w>
no bi
l ọ</w>
l ẫ
kinh_tế_th ị_trường</w>
ke y_
hi p</w>
gia_ sư</w>
ch àm</w>
car pa
bo ra
_tu ấn</w>
đắ k_
đẩy_ lui</w>
đầu_ lòng</w>
đầu_ gối</w>
đông_ đức</w>
van a</w>
va li
trường_ sơn</w>
qu ất</w>
para phra
nguyễn_văn_th iệu</w>
ng_l ẻo</w>
lỏ ng_lẻo</w>
l ốc</w>
g el
d ơi_
chợ _lớn</w>
._ li
đặ ng</w>
wri ght</w>
vật_ chủ</w>
trần_hưng_ đạo</w>
na n_
ide a</w>
dã_ chiến</w>
cuồng_ phong</w>
b bi
ủy_th ác</w>
tàu_ bè</w>
tiế c_
thế _tử</w>
te mp
quen_ biết</w>
phân_ định</w>
ph iền_
kí nh_h
iề ng</w>
hồi_ hộp</w>
g m</w>
dịch _t
da h</w>
bộ_t ư_pháp</w>
_c ường</w>
._ tân</w>
v ẹt</w>
thái_ cực</w>
sơ _khai</w>
so v</w>
ro yal</w>
phụ_ âm</w>
phép_ tính</w>
lo is</w>
ja ck_
conne cti
chủ _hộ</w>
_k ỵ</w>
á _châu</w>
vậy_ mà</w>
ti co
th êu</w>
nổi_ danh</w>
ni ne</w>
nhà_ riêng</w>
ngà y_tháng</w>
n v</w>
mor ri
li e_
lap top</w>
l ó
kết_ bạn</w>
j in
i lo
hạt_ trần</w>
hoạt_ tính</w>
hoa_ kỳ
harri son</w>
h l</w>
ga ng
e .
di vision</w>
bằng_ phẳng</w>
6 0_%</w>
187 8</w>
18- 24</w>
ờ m</w>
yo ur</w>
r ắ
quân_ phiệt</w>
oc ta
mo l</w>
m èo_
kh iể
i chi
hiếp_ dâm</w>
hea d</w>
er an</w>
dona ld
._ thật</w>
tối_ưu_ hóa</w>
th ẻ
r hy
n_l an</w>
lạc_ đà</w>
ha ra
g ry
bằng_ khen</w>
9 .000</w>
1 12</w>
tu s_
trọng_ dụng</w>
ra_ tay</w>
quản_lý_ số</w>
phú_ xuân</w>
mo ro
ma_ thuật</w>
li ng_
lan o</w>
i ra</w>
hối_ hận</w>
hình_ cầu</w>
gala xy</w>
dac ty
chiến_tr anh_
ar ena</w>
._ sở</w>
w he
tồn_ kho</w>
pala u</w>
p ://
mind set</w>
mar se
johan ne
chọ c_
chấp_ chính</w>
_c ương</w>
10 _
xu s</w>
u i</w>
tỉnh_ lộ</w>
tuyên_ chiến</w>
re y
n x
m ồng</w>
louisi ana</w>
l ốp</w>
dora emon</w>
cen tr
b ồng</w>
a co
4 0_%</w>
ớ p_
vă n_thành</w>
võ _t
tụ y</w>
p ô</w>
ji m_
har ris</w>
guar dian</w>
fro n
cỏ _khô</w>
cy to
ề n_
đ ả</w>
thư_ mục</w>
thánh_ đường</w>
sto c
pi dae</w>
nun ci
nguyễn_tấn_ dũng</w>
ng ẫm</w>
khô _c
k ạn</w>
cực_ kì</w>
cấ y_
ba se</w>
7_ ,_
ảo_ giác</w>
yên_ tĩnh</w>
wiscon sin</w>
thi_ hài</w>
tay_ phải</w>
no bu
ngăn_ cách</w>
nguyễn_ b
má t_
mon ta
l ò_
kho ái_
huyề n_b
do ra</w>
bo at</w>
b ra</w>
ăn_ khách</w>
wor d</w>
vuông_ góc</w>
tỏ _tình</w>
tận_h ưởng</w>
ra_ quân</w>
j ung</w>
hội_ thi</w>
edin burgh</w>
du b
da mas
da ceae</w>
be n_
ale x</w>
_nh ạt</w>
y ết_
wol f</w>
wo o</w>
tàn_ tích</w>
trang_ trọng</w>
tr iết</w>
ti g
ti beri
sto r</w>
s ẹo</w>
offi ce</w>
m ườ
kính_h iển_
kar l</w>
giải_ tỏa</w>
giả _tưởng</w>
_c ục</w>
/ 3/
._ pa
._ ca
đắk _l
đắ k</w>
đ h
tư ới</w>
tortri cidae</w>
thủ _d
thợ _
rus h
o to
non- it</w>
ng_l ọc</w>
n_tr ánh</w>
kết_ cục</w>
khuôn_ mẫu</w>
huy nh_
g- talent</w>
fi ca</w>
danh_ vọng</w>
co ck</w>
ba ker</w>
an ne_
0 8
ồ_ ạt</w>
tân_ phú</w>
thương_ yêu</w>
mệnh_ đề</w>
lâu_ nay</w>
gó t</w>
cây_ gỗ</w>
c ci
bo b</w>
b ề</w>
._ buổi</w>
tri ck</w>
thuyên_ chuyển</w>
ta liban</w>
lo ét</w>
ha pp
ei se
công_ đoạn</w>
bất_ bình_đẳng</w>
bro ok
a ba
7 47</w>
20 _%</w>
2 80</w>
17 89</w>
17 5</w>
tia_ x</w>
sà ng_lọc</w>
sa d
nor man</w>
meta cri
làm_ phản</w>
htt p://
giải_ nghệ</w>
gi b
for m</w>
cà n_long</w>
ch ưng</w>
c pu</w>
bắc_ kạn</w>
3 3
đứt_ gãy</w>
tử_ nạn</w>
triều_ chính</w>
ta ker</w>
sou l</w>
rus sel
nh ược</w>
huyền_b í</w>
di e_
chí_ linh</w>
aja x</w>
đ úc_
thi c</w>
s ếp</w>
nước_ ngầm</w>
no -
han ni
h áo_
f r
dis tri
bàn_ đạp</w>
bu da
21/ 11</w>
18 58</w>
đơn_ giả
tắc_ nghẽn</w>
tây_ phương</w>
ti me
n_đ ế</w>
kin son</w>
hiề n_lành</w>
diện_ mạo</w>
ci en
bo ri
bel le</w>
ba sel</w>
201 2
trang_ trải</w>
thị _th
th ính</w>
pteri gidae</w>
phá p-
phanxi cô</w>
ni tra
nh ường_
ng ưng_
na -
kep ler</w>
giây_ phút</w>
gene va</w>
châu_ thổ</w>
đ iềm</w>
xi de</w>
số_ nguyên_tố</w>
song_ sinh</w>
quản_l í</w>
năm_ nhuận</w>
natio nal</w>
hiệ p_th
hc v</w>
gre go
fal ko_
dư a_
casti le</w>
ar kansas</w>
_nh ỏ</w>
10 7</w>
zi o</w>
xâm_ lăng</w>
xu ồng</w>
văn_ miếu</w>
van t</w>
v ệt</w>
toyo ta</w>
thời_ sự</w>
thành_ đạt</w>
s ỡ</w>
por tland</w>
le in</w>
ho ward</w>
da_ trắng</w>
chuyên_ khoa</w>
0 7
xi n_
tệ_ nạn</w>
s so</w>
m yo
lặ ng_lẽ</w>
f m</w>
chúa_ tể</w>
caro l</w>
ca na</w>
bàn_ luận</w>
b è
a lo
uli thi</w>
triết_ gia</w>
thị_tr ường_
tay_ trái</w>
sai pan</w>
quan_ vũ</w>
nor th</w>
mạ t</w>
megan_ fox</w>
ja karta</w>
ib n</w>
gabri el</w>
ans wer</w>
25- 44</w>
12 .000</w>
._ đoạn</w>
ề nh</w>
voca bula
thanh_ trừng</w>
quản_l ý
no vel</w>
my s</w>
mari e_
l ẻ
hung_ dữ</w>
chur chill</w>
bạch _dương</w>
._ hắn</w>
vô_t ội</w>
th âm</w>
sa_ hoàng</w>
ro a
ra d
phản_ kích</w>
lê_th ái_
johanne sburg</w>
i p
công_ trường</w>
cha_ đẻ</w>
bất_ công</w>
ada m_
_h ình_
9 /2</w>
7 50</w>
đệ_t am</w>
xung_ phong</w>
vien na</w>
tư _hãn</w>
ta ke
si us</w>
quá ch_t
o ka
nguyễn_ phú
ig n</w>
gia_ cư</w>
g .</w>
dự _tuyển</w>
duyên_ dáng</w>
4 5
2 2.
đấu_ loại</w>
ăn_ mòn</w>
ái_ quốc</w>
vững_ vàng</w>
t ùng_
sti g
pi a</w>
o ise</w>
na nh</w>
metacri tic</w>
ma m
dàn_ xếp</w>
văn_ phong</w>
ty phlo
th ớt</w>
ph ô
mor i</w>
margar et</w>
lộ n_
kiêm_ nhiệm</w>
gó c_
ce l</w>
._ đoàn</w>
ă k</w>
vladimi r_
vi de
pe op
nòng_ cốt</w>
gol den_
giáo_ lý</w>
d ậu</w>
com pa
bé o_
xạ _thủ</w>
vocabula ry</w>
to ny_
thái_ tông</w>
the n_
su r</w>
s b
pe z</w>
n_h út</w>
mới_ lạ</w>
kịch _liệt</w>
kiệt_ sức</w>
khẩu_ đội</w>
che_ch ở</w>
ces ter</w>
bậ c_
_c ực</w>
._ nguyên_nhân</w>
v ứt</w>
thu ỷ_
ta -
sen ten
paraphra se</w>
nunci ation</w>
mar _
ki t</w>
j .
fa x</w>
diệt_ vong</w>
co le
ca in</w>
a bou
9 _%</w>
._ hàng</w>
._ bởi</w>
ở m</w>
ẩn_n áu</w>
tr ứng_
thu_ phục</w>
sở _dĩ</w>
no ãn</w>
ngữ_ cảnh</w>
ne y
mauri tius</w>
lựu_ đạn</w>
kim_ sơn</w>
ka sh
hồ_ bắc</w>
h iên</w>
gia_ lâm</w>
e lo
d ni
cứu_ hỏa</w>
co_ giật</w>
ch ang</w>
cen a</w>
al i_
_c lu
đắk_l ắk</w>
x ư
tôn_th ất_
trấ n_thành</w>
ti ger</w>
ko so
khôn_ ngoan</w>
josé _
fur t</w>
el len
antoni o_
0 4
tự_ ý</w>
ti ma
sy ste
si t</w>
re t</w>
quốc_ huy</w>
ptolemai os</w>
pro nunciation</w>
limi ted</w>
l ây</w>
g ấu_
ff e</w>
da_ cam</w>
chuẩ n_tướng</w>
ca y_
ba l_
b ực_
25 .
viện_kiểm_ sát</w>
thắt_ lưng</w>
se ne
ry l</w>
_th ú</w>
6, 5</w>
út_ nhát</w>
ve ctor</w>
trái_ phiếu</w>
pari s_
nước_ lớn</w>
nh út_nhát</w>
ngo ạn_
ng ư_
le v</w>
cu p_
ca ine</w>
00 _%</w>
đề_ bài</w>
va ng_d
vang_d ội</w>
to efl</w>
thang_ máy</w>
ta k
t ề
quốc_ dân_
or le
nghĩa_ đen</w>
lo ng_đ
gi ơ</w>
8 _%</w>
._ nước</w>
._ công_trình</w>
đ âu_
u .
s per
re al
phili p_
nguyễn_ hoàng</w>
ng ạt</w>
một_ phần_ba</w>
lý_t ự
khởi_ chiếu</w>
bồ _t
_h óa_
ẽ o</w>
đánh_ thuê</w>
đ ù
west min
v ũng</w>
v ka</w>
tr y_
neg ro</w>
ne tt</w>
ma o_
h ong</w>
g ốc_
g and
chính_ tả</w>
ce p
berke ley</w>
be th</w>
8 0.000</w>
vĩ_ độ</w>
v à
sti c</w>
ser ver</w>
ne z</w>
kết_ nghĩa</w>
g no
dương_ xỉ</w>
de a</w>
an na_
ac t</w>
_t ự</w>
_m w</w>
18 59</w>
ô_ đốc</w>
xa_ lạ</w>
v é
tt i_
tr ăng_
miễn_ cưỡng</w>
mi gu
ma tsu
khoa_học_ và_
i d_
ho n</w>
b ừng</w>
a tus</w>
a o_
_đ iện_tử</w>
12 6</w>
đánh_ thức</w>
tương_ dương</w>
sa vi
s cy
pla sma</w>
pla ce</w>
nhạc_ viện</w>
mi c
leo_ thang</w>
ken t</w>
hiể n_nhiên</w>
gọ n_
damas cus</w>
c ù
by te</w>
bi s</w>
5 50</w>
tự_ phát</w>
triệt_ thoái</w>
ng ô_t
la ngu
l ửa_
kính_ thiên_văn</w>
khiết_ đan</w>
ho lo
es te</w>
dứt_ khoát</w>
_th ư</w>
201 2_
đ t-
x í
victo ria_
sta l</w>
s ú
quầ y</w>
ph ồng</w>
me xi
m m
ki tô</w>
je t</w>
ger al
eng land</w>
connecti cut</w>
b ục</w>
_v ạn</w>
sou th</w>
s ữa_
rus sell</w>
peter sburg</w>
như _thể</w>
nghèo_ khó</w>
na o
khiể n_trách</w>
hoa_ quả</w>
f s
blu es</w>
_lea gue_
00 _
đ ụng</w>
tuầ n_hành</w>
trà n_lan</w>
to k</w>
sắc_ phong</w>
quốc_dân_ đảng</w>
pa d
nhật_ bản_
nhượng_ bộ</w>
mườ i_lăm</w>
lê _trung_
h ỗ</w>
cấy_ ghép</w>
biên_ độ</w>
đặc_ vụ</w>
whi te
tố _t
trọng_ trách</w>
tr ũng</w>
ti de</w>
sy stem</w>
so ng
quá _cố</w>
p est</w>
ng_l ái</w>
la ne</w>
vừa_ rồi</w>
tỷ _trọng</w>
tác_ hại</w>
tv b</w>
senten ce</w>
ra h
quốc_ tử_
l ợp</w>
kịch _tính</w>
khởi_ binh</w>
kh ắt_
jo sé</w>
i êm</w>
i van
hò n_
hai_ bà_trưng</w>
cơ_ tim</w>
ử i_
đ t
v ôi</w>
sma ck
phiên_ dịch</w>
ng_h àng</w>
khắt_ khe</w>
ide ae</w>
ha ve</w>
chánh_ văn_phòng</w>
buồ ng_lái</w>
ad ri
188 1</w>
18 31</w>
độc_ nhất</w>
u ro
tiểu_ á</w>
then_ chốt</w>
s ưa</w>
ra ja
quốc_ học</w>
ne l_
môi_trường_ học_tập</w>
m ào</w>
dấu_ tích</w>
dor f</w>
cử _chỉ</w>
_kh uyết</w>
_h ea
7 0_%</w>
187 2</w>
1/ 2012</w>
._ da
- de-
x ì</w>
war ri
vô_ địch_
rho des</w>
m ậ
kết_ tinh</w>
gi ã
chá o</w>
car los</w>
a guilera</w>
đồ_s ộ</w>
đưa_ đón</w>
đô _thị
z -
wa y_
ti es</w>
me a</w>
hậu_ lộc</w>
dự _khuyết</w>
chá n_
b ọc_
áo_ khoác</w>
to ei
prin ce</w>
po wer
pho ridae</w>
phan_th iết</w>
ngại_ vật</w>
nghịch _lý</w>
mạnh_ dạn</w>
il y_
h .
con tro
cn n</w>
chướng_ ngại_vật</w>
chi n
bình_ nguyên</w>
ban_hành_ quyết_định</w>
ab y
đơn_ nam</w>
za r</w>
tàn_ nhẫn</w>
sach sen</w>
ph no
ou t
nỗ i_
li ma</w>
ga tes</w>
cứu_ vớt</w>
ch ư
c ũ
bất_ hạnh</w>
3- 0</w>
._ lớp</w>
ộ m</w>
đ ũa</w>
phụ _kiện</w>
nhập_ vai</w>
luca s</w>
hy_ lạp_
gh e
fri en
eise nho
đích_th ực</w>
yo shi</w>
vene zia</w>
no i</w>
nhân_dân_ tệ</w>
ne- et-loire</w>
me tha
haw k</w>
tìm_ t
tìm_t òi</w>
thượng_ nguồn</w>
sơn_ dương</w>
sei ne-
se -
s go
mika ze</w>
mer cur
jo e_
jac que
j -
h ức</w>
elizabe th_
d. c.</w>
bo r</w>
7_ ,
0_ ielts</w>
ran d</w>
ph àm</w>
công_ thức_
comple tion</w>
bồ_t át</w>
bong_ bóng</w>
_ch ri
đường_ tròn</w>
tất_ yếu</w>
ngo an_
kho lm</w>
fo ne</w>
domini ca</w>
co ma</w>
bạch_ đằng</w>
andre w_
2 60</w>
._ ước_tính</w>
._ đảng</w>
._ lời</w>
._ ja
ze us</w>
tri a</w>
kyo to</w>
gye ong
gi c</w>
gener al_
d ật</w>
d ấy</w>
biểu_ thức</w>
ale xi
_tr ùng</w>
18 38</w>
1 16</w>
điện_ toán</w>
tội_ danh</w>
trần_ quang_
thường_ ngày</w>
sủ ng_
so s</w>
phụ _trợ</w>
nhị p_
mộ_d ung_
la b</w>
go u
gly co
franci s</w>
da kota</w>
colo r</w>
cao_ tổ</w>
axit_ amin</w>
_đ ổi</w>
_th ể
_th iên</w>
xo a</w>
tỉ _m
tập_ tính</w>
mind map</w>
l õm</w>
hạn_h án</w>
chúa_ giêsu</w>
bun des
ba pti
._ k
ụ t_
u- 20</w>
turk me
tu ệ</w>
trườ ng_h
thấu_ kính</w>
thiếu_ máu</w>
pi xel</w>
pi e</w>
oanh_ tạc</w>
ko r</w>
khuy ến</w>
ja ya</w>
i brahi
giao_ lộ</w>
g le</w>
ar te
a pe
6 4
18 06</w>
điệ n_trở</w>
vương_ hậu</w>
tu_ sửa</w>
thạ ch
se o
scan dina
r ót</w>
phoeni x</w>
nông_ trại</w>
nhật_ thực</w>
la gos</w>
jim my_
e vi
diễn_ nghĩa</w>
cú i</w>
a chi
đồ_ đạc</w>
đà n_hồi</w>
va y_m
th óc</w>
se co
po t</w>
phá_h uỷ</w>
mar s</w>
l ò
i_l ỏng</w>
h ó
gi òn</w>
begin ner</w>
_ động</w>
187 4</w>
10 6</w>
trông_ coi</w>
phương_ hướng</w>
nhà_ kính</w>
ngôn_ luận</w>
nghèo_ đói</w>
mong_ manh</w>
lạnh_l ùng</w>
li pid</w>
hea dings</w>
c p
ben tley</w>
u_tr í</w>
sơ _tuyển</w>
song_ phương</w>
se basti
ro bin</w>
re n_
ra c
n é</w>
li ễ
le t
chân_ lạp</w>
chiêm_ ngưỡng</w>
bảo_ dưỡng</w>
baha mas</w>
vin cent</w>
ts wana</w>
qué bec</w>
quá n_tr
ot to</w>
ngoạn_ mục</w>
li beria</w>
ga bon</w>
f ta</w>
diễ n_thuyết</w>
christi an_
bình_ thạnh</w>
at ta
_l ương</w>
đố t_
wi tz</w>
u ất</w>
tr ặc</w>
s òng_
ri ver</w>
nhân_ nghĩa</w>
nel son</w>
lea gue_
háo_ hức</w>
dễ _chịu</w>
cực_ bắc</w>
cô n_đảo</w>
chính_ trường</w>
chuyên_ chế</w>
ca i
an_ khánh</w>
è n_
to ba
thủy_ phi_cơ</w>
thủ _hạ</w>
thế_ này</w>
rác_ thải</w>
p us
na kho
mi na</w>
ly p
luy ện_
khép_ kín</w>
hilla ry_
ha o_
gương_ sáng</w>
fer gu
car los_
ab u_
_k ính</w>
15 /2</w>
._ thông_qua</w>
zu ki</w>
y n</w>
x box</w>
woo d_
vin cen
phụ _lục</w>
ph ỏng</w>
nước_ mặn</w>
ng ất</w>
na tion</w>
i v
hồ ng_l
hin du</w>
he art</w>
cây_th ân_
câu_ ly</w>
cra w
clar k</w>
ca r</w>
bay_ hơi</w>
_m c
đại_ bại</w>
điều_ ước</w>
war ner_
trục_ trặc</w>
tr ù_
ru g
r .</w>
ka la
h ạc</w>
h úc</w>
ch ố
ben fica</w>
a tion_
a f</w>
9. 0_ielts</w>
ăn_ cắp</w>
yu ki</w>
we ek
văn_ công</w>
vi êm_
vay_m ượn</w>
v ế</w>
trung_ đội</w>
th ục_
quá_ cảnh</w>
no bel
n ậm</w>
k u_
hải_ cẩu</w>
hoàng_ cung</w>
h ất</w>
giao_ thừa</w>
cá_m ú</w>
cao_ lãnh</w>
al g
_h à</w>
12/ 2011</w>
._ tùy</w>
xuân_ thu</w>
tê _liệt</w>
trọng_ yếu</w>
phân_ bón</w>
pa ys</w>
lạ nh_
lê_th ị
d l</w>
cột_ sống</w>
cú m</w>
báo_ giới</w>
bu ông</w>
ar no
24 .
11/ 9</w>
võ_ công</w>
th uột</w>
t sa
pen ta
long_ xuyên</w>
lo an_
_l ạnh</w>
áo_ giáp</w>
wi ck</w>
tình_ cảnh</w>
th ys</w>
stan dar
ro y</w>
ri er</w>
o a
n_t ennis</w>
má u_
lớn_ nhỏ</w>
lo nia</w>
l ờ</w>
ka ra</w>
gi ỗ</w>
eisenho wer</w>
chức_ vị</w>
chung_ sống</w>
bản_ tính</w>
b .
độ n</w>
đường_ mòn</w>
re na
pp a</w>
ph anh</w>
ni o
hen ri_
drea m</w>
cá m_
ck e</w>
ye o
thị_trường_ chứng_khoán</w>
thần_ linh</w>
thơ _ca</w>
m ờ
ky r
kinh_ tế_
hành_ xử</w>
ho me
cộng_hòa_ dân_chủ_nhân_dân</w>
ci s</w>
bả y_
bo y_
bo dy</w>
b ời</w>
đề n_b
x o</w>
việt_ quốc</w>
trung_ tính</w>
ti no</w>
thiên_ vương</w>
ter _city</w>
s iết</w>
ql vnch</w>
ora nge</w>
mu nd</w>
lá _m
cách_ biệt</w>
co pe
cha ri
can nes</w>
bo x_
_đ ũa</w>
18 12</w>
._ mo
trả _đũa</w>
sự_ vụ</w>
phan_ bội_
me x</w>
li ve_
ka mikaze</w>
her e</w>
goo d
franci s_
fil m</w>
en er
ecc ellen
cực_ đại</w>
ch óc</w>
._ hoa_kỳ</w>
điện_ năng</w>
tế -
toei c</w>
ro man
mala wi</w>
ma z
lời_ giải</w>
in sta
f s</w>
explo rer</w>
công_ dụng</w>
câu_ thơ</w>
cánh_ diều</w>
che_ khuất</w>
_h ạn</w>
đơn_giả n_hóa</w>
tô m_
thân_ mềm</w>
sh u</w>
po pu
o át</w>
nước_ hoa</w>
nhiệt_ huyết</w>
ng ắt</w>
na is</w>
l ách</w>
_ph ấn</w>
vật_ lộn</w>
thôn_ tính</w>
thiệu_ trị</w>
sông_ đà</w>
si ha
nh ụy</w>
mềm_ mại</w>
lập_ nghiệp</w>
ki ri
chữ _viết</w>
car l</w>
187 9</w>
._ sang_
đột_ quỵ</w>
đền_b ù</w>
đại_ đa_số</w>
đ ò</w>
viện_ phí</w>
tu -
m âm</w>
khoan_ dung</w>
k ình_
hiể n_
h ăng</w>
bản_ vẽ</w>
đón_ tiếp</w>
za tion</w>
sa b
quốc_tử_ giám</w>
n áo_
môn_ phái</w>
l è
hòa_ âm</w>
da y
cưỡng_ bức</w>
c ù</w>
_sĩ_ quan</w>
2 3.
ẻ_ ngoài</w>
thạ ch_h
the_ beatles</w>
s ồi</w>
pter a</w>
ng ers</w>
lo ck</w>
d áng_
cti ons</w>
châm_ biếm</w>
bur ki
bri sto
b- 52</w>
28 .
0 3/2012</w>
ắng_đ ọng</w>
xo a_
vin school</w>
tor s</w>
tiệ n_lợi</w>
thỉnh_ cầu</w>
thâm_ niên</w>
t í</w>
ster _
sao_ thủy</w>
p y</w>
môn_ sinh</w>
le t_
kiểu_ dáng</w>
ke l</w>
inde pen
fergu son</w>
cú _
co vid</w>
blu e_
andre w</w>
! _sơn</w>
x ốp</w>
wa i
v us</w>
under taker</w>
u d</w>
tàn_ dư</w>
thờ _ph
tha mp
th ối</w>
tas mania</w>
sa m_
phụ_ gia</w>
or gh
ngoại_ tình</w>
mu da</w>
me z</w>
ma u_
lo ad</w>
hướng_ nghiệp</w>
g y</w>
cup_ châu_âu</w>
ampho e</w>
18 20</w>
._ ho
v ốn_
tố_t ụng</w>
tb n_tennis</w>
são_ paulo</w>
p en</w>
orle ans</w>
ngh iền</w>
mật_ khẩu</w>
ma ta</w>
m ẩu</w>
l ắng_đọng</w>
kỳ_d iệu</w>
iể m_
da nu
c úng_
bú n</w>
b tc</w>
a ma</w>
._ nền</w>
đại_ tướng_quân</w>
đa_ phương_tiện</w>
tu ne</w>
toàn_ vẹn</w>
str ess</w>
ssa nd
rog er_
re si
ra y_
nga ng_hàng</w>
mở_ mang</w>
ku ala_
khả m</w>
kho_ báu</w>
k ị_
hóa_ đơn</w>
hài_ hòa</w>
ha t</w>
ha t-
f bi</w>
dâ y_th
do ro
chiết_ xuất</w>
birmi ngham</w>
._ la
._ chuyến</w>
àng_ không</w>
thuốc_ phiện</w>
ta in_
sco tt_
s ạt_
phân_ vùng</w>
ph ình</w>
pasca l</w>
par k
ng_đ iện</w>
marse ille</w>
manu el_
khá i</w>
ch on</w>
bir d</w>
26 .
18 32</w>
._ theo</w>
đồng_ tâm</w>
vĩ _tuyến</w>
quy_ chiếu</w>
ngập_ mặn</w>
nd t</w>
m út</w>
lê_ vă
làng_ nghề</w>
ci o_
che on</w>
_ch ar
18 41</w>
& t</w>
vo n
tn cd
thắng_ cảnh</w>
thành_ ngữ</w>
ng u_
màu_ mỡ</w>
m d
len non</w>
las _ve
khang_h i_
j ane</w>
cá_ch ép</w>
bóng_ vàng</w>
ba na</w>
a 2</w>
1, 3</w>
ồn_ ào</w>
đại_ nghĩa</w>
y en</w>
wat son</w>
ti cs</w>
te u
pier re</w>
j ang</w>
es -
d z
cảm_ tình</w>
bó p</w>
bo bb
_nh à</w>
xa_ xỉ</w>
robin son</w>
n ấm_
lê _t
khuy ên_
k ìm</w>
hoàng_ kim</w>
ghi_ điểm</w>
en ri
_v àng</w>
7, 5</w>
1. 9
._ cư_dân</w>
zo v</w>
sạt_ lở</w>
sa i_tr
ha t
go thic</w>
da i_
cầu_ nối</w>
cri ce
bế_ mạc</w>
a gri
_v ân</w>
_h ạch</w>
đình_ công</w>
y uri</w>
vô_ gia_cư</w>
u_d àng</w>
tử _tế</w>
thay a</w>
sp in</w>
s ổ_
ra ch
go t</w>
dị u_dàng</w>
chính_thống_ giáo</w>
biệt_ kích</w>
bara ck_
_tr iều_
18 75</w>
1 14</w>
ve y
uố n</w>
ph ông</w>
or o</w>
nh ộn</w>
nga_ hoàng</w>
mccar tney</w>
lu ng</w>
j .</w>
eng ine</w>
3 30</w>
z on
thước_ đo</w>
sta te</w>
sinh_ quyển</w>
s ầm_
ro dri
ngô_ quyền</w>
mùa_ xuân</w>
mi ya
ma b</w>
guy ana</w>
d ằn_
bu ga
aus tin</w>
ượ m</w>
đen_ tối</w>
rolling_ stone</w>
q _
phan_đ ình_
mẹ o</w>
moz art</w>
kì _thi</w>
khiếm_ khuyết</w>
chu_ du</w>
ch èn</w>
ca f</w>
b ong</w>
186 9</w>
._ đêm</w>
._ nói</w>
ằ m_
zo le</w>
xô -
tối_ ngày</w>
t ỏi</w>
sai_tr ái</w>
m ụ</w>
lưu_ niệm</w>
kiên_ cường</w>
chân_ lý</w>
u ông</w>
tốt_ bụng</w>
thái_ sơn</w>
su la
s á</w>
phóng_ thích</w>
par ty</w>
niên_ giám</w>
ng ần_
na mo</w>
me tro</w>
kh ả</w>
hoàng_ thái_tử</w>
gây_ mê</w>
công_ ty_
cuố n_hút</w>
coi_ thường</w>
đá_ quý</w>
wor k
vô _lý</w>
súng_ cối</w>
quar k</w>
phan_ văn_
nh âm_
ng e_
n_h ải</w>
máy_ in</w>
m s_
dương_ lịch</w>
bắc_ ngụy</w>
b ới</w>
a t_
18 54</w>
18 02</w>
ăn_ ở</w>
tân_ thành</w>
ra ma</w>
ma nh_
lệ_th uộc</w>
i ce</w>
hóa_ trị</w>
be ni
_c en
ế_th ị_trường</w>
xuất_ bản_
tr é
su ez</w>
stoc kholm</w>
nar d</w>
na te</w>
mal di
liên_ khu</w>
koso vo</w>
go d
giao_ thoa</w>
cơ_ch ế_thị_trường</w>
công_ty_ con</w>
chiêu_ mộ</w>
ch_l ạc</w>
camer on</w>
._ c
westmin ster</w>
vui_ nhộn</w>
vi an</w>
tuần_l ộc</w>
trả_ giá</w>
ther n_
pyréné es</w>
ner o</w>
l les</w>
không_ chiến</w>
j ed
chính_ quốc</w>
ch dc
18 46</w>
._ sách</w>
âm_ thầm</w>
thanh_ trì</w>
ster s</w>
se n_
sailo r_
lu ther</w>
l ẽ_
hoà n_tr
giang_ tô</w>
fa y
con_ dấu</w>
bộ_l uật_
bầu_ không_khí</w>
bi n_
anh_ tuấn</w>
14 5</w>
._ viên</w>
đồ_ gốm</w>
y l
van s</w>
que bec</w>
pi ra
phù_đ iêu</w>
mand y</w>
lh q</w>
khí_ đốt</w>
gh i
e va</w>
con tai
c âm</w>
8 8
sự -
phim_ truyện</w>
di dae</w>
del hi</w>
bạ t_
buôn_ ma_
bo he
ar ta
._ vòng</w>
xe _điện</w>
tà ng_hình</w>
trù ng_hợp</w>
th ắm</w>
sg k</w>
seine- maritime</w>
po u
nh ủ</w>
michael_ jackson</w>
lộ _diện</w>
hau te
ha n_
g ừng</w>
g ăm</w>
dia ze
d è
chứng_ bệnh</w>
chủ_ quản</w>
chính_ đảng</w>
ces s</w>
cam p</w>
b ơ</w>
_s he
ỉ m</w>
đă k
đông_ phổ</w>
xin_ phép</w>
thị t_
thương_ tâm</w>
n ỗ</w>
mã_ siêu</w>
m ốt</w>
lo -
eu phor
cứu_ viện</w>
cầ y</w>
charles ton</w>
bóng_ đá
ba by</w>
an_ bình</w>
_c ựu</w>
._ ta
._ bức</w>
đinh_ bộ_lĩnh</w>
đa_ thức</w>
trở_ đi</w>
trình_ làng</w>
to shi
sức_ chứa</w>
re sear
ng er
mệnh_ giá</w>
lạ t</w>
giới_ chức</w>
g ầm</w>
d ải_
ợ _
tổng_ sản_phẩm</w>
tỉ_m ỉ</w>
thông_ lệ</w>
taji kistan</w>
sống_ còn</w>
saô ne-et-loire</w>
r hi
ni cs</w>
nh ồi</w>
lưỡ i_l
lum pur</w>
khuất_ phục</w>
khai_ phá</w>
e g
chiêu_ thức</w>
cape_ town</w>
buôn_ma_ thuột</w>
b iệ
ẫ u</w>
viện_kiểm_sát_ nhân_dân_tối_cao</w>
visu al</w>
trẻ _trung</w>
t à</w>
quốc_ tế_
pier re_
nd đt</w>
hậu_ lê</w>
hu sse
ho g
formula_ 3</w>
cú_ pháp</w>
ca ste
buda pest</w>
ống_ dẫn</w>
đương_ đầu</w>
đâm_ chết</w>
x ịt</w>
tán_ xạ</w>
tiếp_ sức</w>
thờ_ph ụng</w>
th é
th iều</w>
n ớ
mũ _
lã _
ko l
ki êng</w>
jour nal</w>
gi ò</w>
fu l</w>
ck en
barack_ obama</w>
_đ ài</w>
_kh ắc_
7 /2</w>
._ thân</w>
độc_ ác</w>
vu l
tỉnh_ ủy_viên</w>
trạng_ nguyên</w>
tiêu_ hao</w>
thánh_ lễ</w>
th iệt</w>
nớ i_lỏng</w>
ngần_ ngại</w>
ma in
li nd
gặ m</w>
el l
e xi
di ana</w>
da u
công_ sở</w>
c 2</w>
an des</w>
18 15</w>
đất_ đá</w>
xanh_ lục</w>
ti er</w>
thiên_ tử</w>
sierra_ leone</w>
ra in
phan_bội_ châu</w>
ngôi_ vua</w>
nguyễn_phú _trọng</w>
ng_l ộc</w>
me tho
gu ez</w>
gluco se</w>
e ty</w>
dẫn_ chứng</w>
cao_ tầng</w>
._ thịt</w>
._ ta</w>
v ỏ
m ày_
l ấp_
hoàng_ mai</w>
ho p
ce -
bồ ng_
bu ông_
anti go
_t an</w>
đấu_ vật</w>
trung_ phi</w>
to l</w>
thủ _trưởng</w>
nh_l íu</w>
nh ậm</w>
n_t ội</w>
fer dina
dí nh_líu</w>
cấm_ vận</w>
ck e
c s_
al terna
._ vương_
ye vich_
wilhel m_
versa illes</w>
v ẻ_ngoài</w>
v h
se mi
sau d</w>
r ốt</w>
nh ậu</w>
lây_ truyền</w>
g v</w>
fo ur</w>
fa so</w>
eu ge
b ống</w>
1, 7</w>
wol f
thiếu_ úy</w>
ph anto
n_th anh</w>
mol dova</w>
lời_ lẽ</w>
hải_ chiến</w>
fan tas
d h</w>
1. 3
._ nhân_vật</w>
to ria</w>
thời_ chiến</w>
tháo_ chạy</w>
stre et</w>
ni e
ng ạo</w>
miss_te en</w>
m iệt_
li f
fu ku
bo tswana</w>
b ông_
._ bệnh</w>
ủy_ quyền</w>
ành_ chính</w>
trữ _tình</w>
tha n_đá</w>
por ts
nghị _lực</w>
nam_ tước</w>
n_t ỉa</w>
li êm_
khâm_ phục</w>
ferra ri</w>
dược_ học</w>
bắ n_tỉa</w>
bóng_đá _châu_âu</w>
27 .
187 7</w>
đồng_h ương</w>
điều_ luật</w>
vi_ phân</w>
ph o_
mo der
minh_ châu</w>
lưỡng_ tính</w>
hanni bal</w>
green land</w>
f ua</w>
de s_
bé _nhỏ</w>
_th ế_
đại_ thắng</w>
v v</w>
trọng_ thương</w>
o c</w>
ng ửa</w>
mor t</w>
ha s
cảnh_sát_ nhân_dân</w>
cleopa tra</w>
chủng_ loại</w>
bao_ hàm</w>
ang eli
4 00
ý_ nghĩ</w>
yoko suka</w>
xâm_ hại</w>
trân_ châu_
th iểm_
quân_ vương</w>
pu ra</w>
peop le</w>
ni ken</w>
mo se</w>
m í</w>
li ne_
kh âm</w>
i mp
ha ru
fo x
fo li
f 2</w>
ch _tr
bướ u</w>
bàn_ ghế</w>
bor n</w>
a wa
a te</w>
1 18</w>
._ nên</w>
._ 2</w>
trường_ lớp</w>
sử u</w>
phần_ tư</w>
pe p
o pen
nahi yah</w>
lưu_ động</w>
luận_ văn</w>
h ắc</w>
ga ra</w>
di us</w>
d v
_scho ol</w>
1 17</w>
. edu
đẹp_ mắt</w>
ya s</w>
uỷ_ ban</w>
tính_ tình</w>
to day</w>
thanh_ nhạc</w>
t òng</w>
sara h</w>
sa ng
rober ts</w>
nha n_đề</w>
nguyễn_ nhạc</w>
n ặc</w>
ma d</w>
li ttle</w>
la_ tinh</w>
l ọ
kur d</w>
im f</w>
hoang_ mạc</w>
h q-
ger man</w>
ca te
_h iến</w>
_c ạp</w>
2 70</w>
độ _nh
điện_ trường</w>
z he
yo ung_
wi ng</w>
u n_
turkme nistan</w>
thanh_ sơn</w>
th ê</w>
sông_ cửu_long</w>
quỹ _
phụ _cận</w>
per _
m ỏ
hậu_ trường</w>
enzy m</w>
cụ m_
cuồng_ nhiệt</w>
contai ner</w>
chiến_th uyền</w>
bản_ doanh</w>
._ me
s v
po well</w>
ng ứa</w>
indus tri
in a_
hi malaya</w>
gu l
frank furt</w>
ch es</w>
ch and
bất_ chấp_
ba ld
ar n</w>
an t</w>
ỡ_ng àng</w>
đạo_ hàm</w>
đình_ chiến</w>
ă n_tr
wal k</w>
việt_ kiều</w>
tràng_ an</w>
r í
quer cus</w>
quan_ sát_viên</w>
nhiễm_ độc</w>
ng ỡ_ngàng</w>
miễn_ là</w>
minh_h óa_
da te</w>
d eri
ck -
chấn_ chỉnh</w>
bán_ buôn</w>
_s ức</w>
yon ne</w>
văn_ lang</w>
trân_châu_ cảng</w>
sa ra</w>
proje ct</w>
nor mandy</w>
nhuy ễn</w>
m ỳ</w>
lí _do</w>
liên_ hoàn</w>
le igh</w>
k un
is ère</w>
h ốc</w>
gra ph</w>
giải_ oscar</w>
entertain ment_
e ng</w>
cho s</w>
6 50</w>
12 2</w>
._ để</w>
ộ t_
định_ kiến</w>
us er
tr ọ
thủy_ sinh</w>
sân_ cỏ</w>
smack down</w>
n ồi_
mana ge
i f</w>
hạnh_ kiểm</w>
f é
do_ thám</w>
cắm_ trại</w>
cao_ ốc</w>
bar bi
ayu t
abra ham</w>
2. 0</w>
đồng_ tác_giả</w>
x ăng_
võ_ văn_
súc_ vật</w>
r ha
qua ng_hợp</w>
po w
o na</w>
nổi_ trội</w>
n_th úc</w>
lamb orgh
khả_ quan</w>
ir _
euro pa_
ed wards</w>
chuyển_ dịch</w>
bất_ tỉnh</w>
b ật_
al pha
acade my</w>
a te
2 1_
ả -
đơn_ phương</w>
th iểm</w>
so und</w>
sa c
pháo_ hoa</w>
par te</w>
nông_ trường</w>
nhà m_
ne v</w>
má ng</w>
me ga</w>
le ton</w>
fa i
crice tidae</w>
caro line</w>
broad way</w>
9, 5</w>
1, 6</w>
điệp_ khúc</w>
đ êm_
vđ v</w>
sk y_
o bi
ni te</w>
ma de
lê_hồng_ phong</w>
lo n_
l_s tre
jeffer son</w>
is s</w>
gia_ công</w>
deu ts
._ tuy_vậy</w>
y ear</w>
xã_hội_ hóa</w>
su shi</w>
pe t</w>
nhàm_ chán</w>
nhà_tr ọ</w>
ne lla</w>
khu_ tập_thể</w>
hđ qt</w>
di sco
c z</w>
_d ung</w>
đông_ la_mã</w>
uefa_ champions_league</w>
tiện_ nghi</w>
sch war
s ưởi</w>
reu ters</w>
quyền_ anh</w>
par ker</w>
is hi
hoàn_ kiếm</w>
hi spa
el ler</w>
edi tion</w>
do ãn_
d ận</w>
chống_ trả</w>
chính_ kiến</w>
c ộ</w>
bđ s</w>
baz ơ</w>
ử _
zi g</w>
vi- rút</w>
ub tv
th re
sun ni</w>
siêu_ nhiên</w>
sil va</w>
s ô</w>
ri vi
r ẻ_
phụ _đề</w>
m son</w>
i ng_
hiđ rô</w>
fran ces
ben jami
arthu r_
12 3</w>
âm_ tính</w>
wa ter</w>
ven tu
tổ n</w>
tầm_ vóc</w>
tri poli</w>
th ập</w>
quốc_ oai</w>
phải_ chăng</w>
ph i_th
nu c
nhà_t ây_
nga_ châu</w>
ke vin_
ia ea</w>
cale donia</w>
c àn</w>
4 000</w>
1, 4</w>
đắt_ đỏ</w>
điều_ chuyển</w>
x box_
viet nam_
thẩm_ vấn</w>
sông_ hồng</w>
sing les
phi_hành_ gia</w>
pe nang</w>
mai_ phục</w>
lũ ng_
hộ t</w>
hei del
h ôi</w>
giáo_dục_ và_
dre am
colo mbo</w>
co tt</w>
bar i</w>
bao_ quát</w>
antho ny_
18 49</w>
xăng_ dầu</w>
trong_ sạch</w>
toba go</w>
tho mpson</w>
ta b
sức_ sống</w>
san tos</w>
pro fes
por ter</w>
người_ thường</w>
ma h</w>
lễ _tang</w>
kuala_ lumpur</w>
ka ter
hải_ đăng</w>
ho r</w>
gor ba
g áy</w>
ca non</w>
bi li
b ăm</w>
alg eria</w>
_t ea
18 22</w>
._ bo
y man</w>
x ê-
w ski</w>
trường_h ợp_
to ả</w>
thần_ phục</w>
ro se
ph on</w>
of_ me</w>
nguyễn_văn_ bình</w>
mel la</w>
las_ve gas</w>
ki ra</w>
kh ăn_
ka mp
gener ation</w>
ga ni
do_thái_ giáo</w>
d ệt_
con so
cha nel</w>
ch ụ
ch ồi</w>
ch ưởng_
as ter
18 35</w>
._ jo
._ giới</w>
đặc_ hiệu</w>
thái_ sư</w>
ste ven
ri um</w>
quân_ minh</w>
minh_hóa_ bơi</w>
khủng_ hoảng_
ga ta</w>
dòng_ tên</w>
doug las</w>
doub s</w>
cửa_ biển</w>
can_ ngăn</w>
bất_ động</w>
al t</w>
_đ à</w>
ê n-
xưa_ kia</w>
tỉnh_ táo</w>
tu ấ
totte nham</w>
sse r</w>
s cha
ni -
new castle</w>
na eus</w>
ma_ sát</w>
làm_ loạn</w>
luyện_ kim</w>
kre m
khâm_ sứ</w>
hội_ thoại</w>
gor don</w>
giải_ vây</w>
fa sci
e i</w>
_l ộ</w>
_d ành</w>
xử _l
x ô_
tuyến_ đầu</w>
tiếng_ mẹ
thánh_ ca</w>
ta u
phi_ mã</w>
o th</w>
nhân_ bản</w>
le s-
giáo_dục_và_ đào_tạo</w>
e_ ngại</w>
cộng_ tác_
bra h
ar ca
18 47</w>
áo_ choàng</w>
vi ng</w>
say_ xỉn</w>
s ạc</w>
ro us
phỏng_ đoán</w>
nguyên_ là</w>
ne d</w>
n_đ iệu</w>
mar ía</w>
k t</w>
hoàn_tr ả</w>
gi eo_
di t</w>
cạ o</w>
chry so
ch _nh
ce o_
c m
bộ_ não</w>
bgd đt-
_su ất</w>
_h ồng</w>
18 33</w>
ẫ n_
đại_ công_tước</w>
thúc_ giục</w>
tham_ vấn</w>
sing h</w>
quy_ phục</w>
o da</w>
nh ơ
nguyễn_ hoàng_
mala cca</w>
ly ca
li t</w>
li st</w>
li sa</w>
l ười</w>
gạ o_
cha k
cal vin</w>
bá i_
be th
aleksand r</w>
_ b
16 5</w>
15 5</w>
ây_th ơ</w>
x ào</w>
wo man</w>
v tv</w>
ri na</w>
quý _ly</w>
nhà_th ương</w>
nhà_ khoa_học_
ng ây_thơ</w>
mona co</w>
huy ệt</w>
ha lo
gla sgo
cả o</w>
co oper</w>
bước_ đi</w>
ber i</w>
al lo
_h ải</w>
_di on</w>
0_ độ</w>
._ màu</w>
xỉ u</w>
ver y</w>
tổng_ trấn</w>
tả _ng
thụ _phấn</w>
s pen
rừng_ núi</w>
ri der</w>
re mix</w>
r êu</w>
phép_ toán</w>
op ti
nồng_ nhiệt</w>
lễ _vật</w>
le z</w>
khiêu_ khích</w>
hòa_ ước</w>
huyết_ thanh</w>
hiện_ giờ</w>
fire fox</w>
em my</w>
ch ư</w>
cer co
bó c_
_d ụ</w>
win d
ve -
toky o_
sự _vật</w>
si mon_
per o
n_l ộc</w>
modu le</w>
medi a_
mag ne
kh ổ_
in fini
f ly</w>
công_nghệ_ sinh_học</w>
cá m</w>
b ùa</w>
_r ể</w>
_ch ữ</w>
xe_ cộ</w>
wa tch</w>
ti ni</w>
ta ra</w>
súng_ ngắn</w>
singles _chart</w>
quý _châu</w>
nitra t</w>
mar ía_
m pha
m bu
h o_
gu an
giấc_ mơ</w>
gió_ mùa</w>
fi li
en berg</w>
ed ge</w>
bắc_ sơn</w>
bu ồng_
đó ng_đ
tre o_
thành_ hoàng</w>
th ưa_
siha nou
s ắn</w>
rút_ gọn</w>
quán_ tính</w>
ple i
pa pi
nhường_ ngôi</w>
mari o_
ké m_
hảo_ tâm</w>
hùng_ biện</w>
h ăng_h
es tra
do m_
cy rus</w>
co o
ce le
c ter</w>
bánh_ chưng</w>
a is
_d avi
_c an</w>
19 /11</w>
18 51</w>
vùng_ sâu_
tù _trưởng</w>
so ur
r .
ngân_ khố</w>
mid way</w>
kim_jong- un</w>
jus tin_
gro und</w>
co v</w>
chí n_
ch or
bất_ thành</w>
ayut thaya</w>
18 36</w>
12 4</w>
._ thiết_kế</w>
._ su
đô_thị _hóa</w>
virgi n</w>
v o_
thừa_ thiên_
the bes</w>
th à</w>
po n</w>
phno m_
or g</w>
nghỉ_ mát</w>
ng ai</w>
nam_ tiến</w>
n ơ
mi ss</w>
men ts</w>
l ừng_
k ru
hi ro</w>
fiel d_
dor _
cựu_ học_sinh</w>
chi na</w>
bran denburg</w>
bona parte</w>
_th iên_
_l ụa</w>
9 0
18 42</w>
._ nguồn</w>
ưu_ việt</w>
xa_ hoa</w>
tương_ xứng</w>
tá m_
sh en
ri l</w>
philipp ine</w>
p le_
nh ồi_
nguy _kịch</w>
na se</w>
n_n ở</w>
man_ city</w>
không_ tưởng</w>
k ẻ_
insu lin</w>
gò_ công</w>
gây_ dựng</w>
et ta</w>
công_thức_ hóa_học</w>
._ nhân</w>
thế _trận</w>
thông_ cảm</w>
tho r</w>
te sto
ta tion</w>
t iệp</w>
ri ca
phân_ bộ</w>
len a_
ch_t án</w>
bắ c-
bi c</w>
._ lý_
yama to</w>
ya ng_
wal ter_
tuy ết_
sự- ký</w>
r ầm_
phạm_ vi_
n ôi</w>
mộ ng_
line _dion</w>
kho_ tàng</w>
gran d
gi ăng</w>
cộng_tác_ viên</w>
bào_ chữa</w>
bài_ tiết</w>
biế n_thiên</w>
_di vision</w>
18 14</w>
trái_ lại</w>
tay_ nghề</w>
ta il</w>
t we
rom mel</w>
ro r</w>
phế_ quản</w>
phó_t ế</w>
mất_ ngủ</w>
mong_ ước</w>
hệ_ quy_chiếu</w>
hăng_h ái</w>
ex press</w>
di on</w>
comi cs</w>
chức_ vụ_phó</w>
chú t_
bro thers</w>
am bro
_k iế
._ cảnh_sát</w>
đặc_ công</w>
đu a_
yếu_ ớt</w>
war s
vùng_sâu_ vùng_xa</w>
vi a_
v ạc</w>
tiếp_ đón</w>
t le
sông_ ngòi</w>
sá n</w>
si t
nam_ đảo</w>
marc us_
lá_m ầm</w>
lym pho</w>
kì m_
hải_ pháo</w>
dù_ sao</w>
conti nen
chủ_ ý</w>
bu san</w>
b b</w>
_t ỉ</w>
_d ar
._ thành_phần</w>
đ iếu</w>
đ b</w>
v sk</w>
tố c_
ti on
ro ll
rh ine</w>
máy_ phát_điện</w>
minh_ trị</w>
kh ứ
kh ô_
har d</w>
gil bert</w>
diễ n_tập</w>
chủ _t
chiến_ quốc</w>
c àng_
bử u</w>
18 39</w>
. vn
á- âu</w>
y on</w>
thu r</w>
sti ng</w>
s l
r ìu</w>
phổ _cập</w>
or lan
n ._
kh rush
kar e</w>
ga ul
eu cli
dẫ u</w>
coro na
chất_ nổ</w>
casi no</w>
c đ
bắt_ sống</w>
bậc_ thang</w>
bảo_ lưu</w>
_h en
18 53</w>
định_ mệnh</w>
đau_ lòng</w>
ôn_ sẻ</w>
x iếc</w>
tạo_ lập</w>
tàn_ quân</w>
t man</w>
su ôn_sẻ</w>
r ụi</w>
nh ỉ</w>
lư ỡng</w>
k ea
i_l ệ</w>
i se
hải_ cảng</w>
hãm_ hiếp</w>
giã n_nở</w>
ferdina nd</w>
cor p</w>
co s
c ào</w>
1_,_ 2_,_3</w>
1/ 4</w>
ăn_ chay</w>
y d</w>
tr ĩ</w>
thư_ pháp</w>
riêng_ rẽ</w>
p so
nhà_tây_ sơn</w>
mi ke_
ky o</w>
kiế n_th
hiện_th ời</w>
hab sburg</w>
h ấp</w>
gre en_
fir st</w>
di ol</w>
de d</w>
chuyên_ mục</w>
cen e</w>
ber muda</w>
ứng_ tuyển</w>
đại_ từ</w>
áp_ bức</w>
u e</w>
tại_ gia</w>
tinh_ bột</w>
sòng_ bạc</w>
ste wart</w>
scri pt</w>
sa p
quậ n_h
phụ_ chính</w>
ph ở</w>
pe ti
nội_ tâm</w>
nobi ta</w>
monte negro</w>
me m
ki e</w>
k v</w>
há n-
go ld</w>
gand hi</w>
franci sco_
ck i</w>
bạo_ hành</w>
bo go
and y_
ami ens</w>
_h òa_
._ to
r ốt_
po ra</w>
nhạc_ công</w>
nhân_ danh</w>
n ấy</w>
li ễn</w>
h ủ</w>
fo u
casa blanca</w>
13 4</w>
đông_ timor</w>
wal d</w>
tiếng_mẹ _đẻ</w>
phượng_ hoàng</w>
phân_ luồng</w>
ne bra
khát_ khao</w>
he e</w>
h òng</w>
f en</w>
cri sti
be ck</w>
ameri ca
_k ỷ</w>
14 1</w>
14 -
x âm</w>
thông_ tấn</w>
thá ch</w>
th âu</w>
tay_ đua</w>
ron ne</w>
ng õ
lu cy</w>
eng ine
do ne</w>
di êu_
d u_thuyền</w>
cu rie</w>
alber ta</w>
a za
_tr inh</w>
_t ĩnh</w>
1, 8</w>
uy a</w>
tàu_ hỏa</w>
soft ware</w>
samu rai</w>
r é</w>
quan_ viên</w>
phospha te</w>
pal er
oli ver</w>
o o
o ber
no kia_
nha gen</w>
ma ta
lừng_ danh</w>
hồi_ hương</w>
har t</w>
ff y</w>
b v</w>
a g</w>
5, 5</w>
._ mặc_dù</w>
tiên_ đề</w>
nghĩ nh</w>
mô- đun</w>
lady_ gaga</w>
ho ả</w>
guin ness</w>
g ni
cor n
ch ẵn</w>
ba ti
/ 1/
._ p
._ hầu_hết</w>
đoàn_ tụ</w>
zhu kov</w>
xấu_ xa</w>
xu a_
x ứ_
wel l
tống_ tiền</w>
tả_ng ạn</w>
tàu_ bay</w>
tuyển_ mộ</w>
s sus</w>
rơ i_lệ</w>
pháo_ kích</w>
ph ố
ni i</w>
ng_h óa_
natio nal
mộ _
moun t_
mo s
me nes</w>
khai_ sáng</w>
gi àng</w>
dẫ n_điện</w>
d h
coa st</w>
bắ p_
tổng_ doanh_thu</w>
tại_ nhà</w>
thập_ phân</w>
th ọ
phát_ sáng</w>
ngộ_ nghĩnh</w>
mo ham
lễ_ nghi</w>
kiểm_ lâm</w>
hol mes</w>
flo ra</w>
ea st</w>
d ẻ</w>
co sta</w>
chiều_ hướng</w>
bọc_ thép</w>
busi ness</w>
bohe mia</w>
_v ị</w>
_d ạng</w>
4 00.000</w>
._ le
ướ n</w>
xe_ bọc_thép</w>
vương_ phi</w>
vio lin</w>
tuyể n_thủ</w>
te x</w>
sủng_ ái</w>
ri m</w>
ph í
nhan_ sắc</w>
ng à_
hamp shire</w>
de metri
d _k
colu m
co ra
char lie</w>
bá _chủ</w>
trộm_ cắp</w>
thương_ nghiệp</w>
quản_lý _tài_
po i
oe cd</w>
nex t_
n ùng</w>
lột_ xác</w>
làm_ lễ</w>
k w
cù_ lao</w>
cen tre-
bal ti
assa d</w>
16 00</w>
10 0
1 1_
._ kế_hoạch</w>
đau_ buồn</w>
tự u_
tô n_thờ</w>
tuyên_ giáo</w>
to shi</w>
ther e
sư_ phụ</w>
se cre
nh_h ữu</w>
microsoft_ windows</w>
k ị</w>
johan n_
insta gram</w>
hồi_ âm</w>
hor n</w>
go th</w>
cac bo
biến_ chất</w>
b ự</w>
ap i</w>
a_s ổ</w>
1 18
/0 4/2012</w>
ty l
th âu_
sha w</w>
rio us</w>
pra desh</w>
nhà_ bếp</w>
ng i</w>
n_th ục</w>
n_l ễ</w>
lãnh_ vực</w>
kha m_
ha nh</w>
down load</w>
chế_t ác</w>
ce line_dion</w>
camp bell</w>
b p</w>
adol f
a h_
._ đáng</w>
._ do_
đánh_ bật</w>
ăn_ học</w>
yên_ thành</w>
u chi
trai ler</w>
serie_ b</w>
kính_hiển_ vi</w>
j an_
e y
dĩ _nhiên</w>
cực_ tím</w>
cứng_ nhắc</w>
bi s
ộ t</w>
đạn_ đạo</w>
ya ku
tượ ng_hình</w>
tây_ hồ</w>
tr ăn</w>
si i</w>
ra -
quan_ liêu</w>
phó ng_đại</w>
não_ bộ</w>
mù _chữ</w>
khoa_học_và_ công_nghệ</w>
ju n</w>
jose _
ji -
hiếu_ học</w>
giác_ quan</w>
dị _nhân</w>
do w</w>
công_ nương</w>
câu_ đối</w>
cla ssi
chống_ chọi</w>
chân_ tay</w>
_s âu</w>
3 2,
18 57</w>
18 21</w>
vô _kỵ</w>
tố _viên</w>
thao_ túng</w>
s to</w>
nhu ận_
mar cel
m ủ</w>
l td</w>
in n</w>
fre d</w>
ff el</w>
công_ tố_viên</w>
cây_ cảnh</w>
ci ng</w>
_t ổ</w>
15 2</w>
15 0.000</w>
0 9/
._ gần</w>
đô ng-
đ ãi_
ê nh_
z el</w>
xo ang</w>
x er
v ấn_
ura nium</w>
tur ner</w>
thánh_ giá</w>
per si
ni s
mer _
me y
kị_ binh</w>
khủng_hoảng_ kinh_tế</w>
khởi_ sự</w>
flo rence</w>
co n_thứ</w>
christi an</w>
benjami n_
ang el</w>
al- qa
a ero
._ và</w>
._ chu_
ă n_t
xuân_ lộc</w>
v ẩy</w>
ur u</w>
u k_
tụ _
thực_ thụ</w>
thức_ uống</w>
tch ell</w>
que z</w>
nhiễu_ loạn</w>
mara thon</w>
ma car
la y_
kus hi
ki ngs</w>
ki ds</w>
in for
hung_ nô</w>
ha llo
giai_ thoại</w>
di -
b ân</w>
_nh i</w>
_d '
7 0.000</w>
20 26</w>
vi la
tổng_h ành_
trượt_ băng</w>
tri x</w>
thuốc_ trừ
si r
sau di</w>
quý t</w>
quan_h ọ</w>
nội_ trợ</w>
nh ục_
mo sa</w>
mela no
manu el</w>
ma k
lãnh_ đạo_
l p</w>
ke t</w>
k le
il lu
heidel berg</w>
geo metri
basi c</w>
4_ ,_5</w>
._d ù_
._ đi</w>
í_ như</w>
wa ra</w>
tr ời_
thị _lực</w>
thất_ lạc</w>
số_ học</w>
sho u
s a_s
rầm_ rộ</w>
pho_ mát</w>
nh ối</w>
ng_đ ông</w>
mờ _nhạt</w>
minh_ đức</w>
ma le
m ăng</w>
khuế ch_tán</w>
h ệt</w>
giao_ chỉ</w>
dệt_ may</w>
chú _rể</w>
cha_ anh</w>
c ly
c co</w>
bo s</w>
be yon
3- 2</w>
18 34</w>
vân_ canh</w>
tựu_ trường</w>
tổng_hành_ dinh</w>
tế- xã</w>
trung_ kỳ</w>
sách_ đỏ</w>
nhỏ _nh
nguyễn_ văn_t
mi ke</w>
liên_ bang_
khắc_ họa</w>
i ._
gs .</w>
danu be</w>
chó p</w>
chuyên_ gia_
a ro
_v ang</w>
_nh o</w>
đá i_
vi sco
tây_ hạ</w>
tân_ binh</w>
tiền_t ố</w>
sta n_
mbi a_
làm_ thuê</w>
goro d</w>
giờ_ địa_phương</w>
di_ chúc</w>
danh_ tướng</w>
bàng_ hoàng</w>
bo nd</w>
biểu_ dương</w>
an ne
_nh uận</w>
đa_dạ ng_hóa</w>
đ k
vùng_ sâu</w>
u ae</w>
trại_ giam</w>
tiền_ giấy</w>
ti e</w>
thực_ lực</w>
ta lk</w>
or ne</w>
ngưng_ tụ</w>
mỹ_ latinh</w>
mi ên_
mer y</w>
ivan o
di r
da ily_
ca re
20 _
2. 0
12 /2</w>
điể n_
zz i</w>
tự_ giác</w>
thủ_ đoạn</w>
si r</w>
rung_ động</w>
pyo tr</w>
oc en</w>
ngất_ xỉu</w>
n_tho i</w>
mb le</w>
ma c_
le i</w>
hẻ o_l
ha d</w>
gu y</w>
e h
d a_m
cờ_ bạc</w>
cosmo pterigidae</w>
brook lyn</w>
đường_ sá</w>
wa t</w>
us b</w>
toá n_tử</w>
tiền_l ệ</w>
re tt</w>
phân_ hạch</w>
phi lo
nhức_ nhối</w>
nha_ khoa</w>
ma_ cà_
l ối_
khô_c ằn</w>
khiếm_ thị</w>
eu ler</w>
dư _
c ka
bu ru
bom_ nguyên_tử</w>
b ừa_
al s</w>
3 80</w>
18 45</w>
x ộn</w>
vi sta</w>
ubtv qh
ta nd</w>
s m_
s can</w>
quốc_ trưởng</w>
phái_ viên</w>
ori en
n_ r
la st_
hẻo_l ánh</w>
hậ u_th
haute s-
gi ông</w>
charlo tte</w>
bo ni
_tr ống</w>
_ch ú</w>
29 .
18 55</w>
._ so
._ kiểu</w>
v ỹ</w>
u t
tu n
quyết_ đoán</w>
ná n
nghèo_ nàn</w>
l ựu</w>
cậ n_đông</w>
chi_ cục</w>
centre- val</w>
c z
bố _cục</w>
2. 5
ưởng_ tượng</w>
thâu_ tóm</w>
t ẩu</w>
phi_ tần</w>
new_ caledonia</w>
ne ph
mr _đàm</w>
me cca</w>
ma_cà_ rồng</w>
lộn_ xộn</w>
li an</w>
l ại_
kì _
ch u_th
bộ _tướng</w>
bị_ động</w>
biên_ niên</w>
_v ai</w>
_s y
2 35</w>
đồ_ án</w>
x- men</w>
vệ_ tinh_
văn_ xuôi</w>
tổ_quốc_ việt_nam</w>
tông_ đồ</w>
thamp ton</w>
qu ét_
mạ n_
me lo
khởi_ phát</w>
khúc_ xạ</w>
hứng_ chịu</w>
hat- trick</w>
chia_ nhỏ</w>
ch alle
ber g
ai_ cập_
3 _triệu</w>
18 52</w>
trí_t ưởng_tượng</w>
thăng_ hoa</w>
tami l</w>
sơ _th
saô ne</w>
ro bo
quận_h uyện</w>
quang_ liêm</w>
phân_ lập</w>
ng_h ành</w>
ne e</w>
n_l ập</w>
mon d_
m '
la ris</w>
hoàng_ đạo</w>
gu r
e de
cri cket</w>
ca p</w>
ar i</w>
13 8</w>
._ mười</w>
động_ lượng</w>
đường_ dẫn</w>
đă k</w>
trung_ thu</w>
to go</w>
th y_
ta ke</w>
sk _
sinh_ lý_học</w>
sa id</w>
ports mouth</w>
pa s</w>
nhân_ công</w>
kỹ_ nghệ</w>
is lam</w>
i_th ăm</w>
hiểm_ trở</w>
formula_ 4</w>
c v</w>
bb le</w>
batt le
7 5
yo ga</w>
v ồng</w>
u ông_
thực_ đơn</w>
t òng_
sụ t_
so ft</w>
sha h</w>
rơ m</w>
re e
né gal</w>
mur phy</w>
mari o</w>
hu ệ_
h 00</w>
glasgo w</w>
europa_ league</w>
d ồn_
au reli
3 1,
đề_ xướng</w>
ông_ gia_nhập</w>
z za</w>
tho ạt_
re s
pepti de</w>
patri ck</w>
na mi</w>
n_đ ơn</w>
hỏ i_thăm</w>
co ng
christoph er_
bở i_l
4 6
2 1
14 4</w>
._ b
ă ng-
vol de
viện_ binh</w>
tây_ bắc_thái_bình_dương</w>
tz er</w>
tranh_ đấu</w>
thỏa_ đáng</w>
thưa_ thớt</w>
spar ta</w>
si mp
s ăn_đ
ra t
peter s</w>
nhà_ nghỉ</w>
new_ orleans</w>
n_th ông_
n ôn_
li ng
kyr gy
kel ly</w>
h ._
er -
di a_
con cor
bu s
bi e
al an</w>
_l ạc</w>
victo r</w>
ter o
ste ve</w>
sa_ pa</w>
quan_h ành_chính</w>
phổ_ quát</w>
nebra ska</w>
n_tr ạch</w>
m 3</w>
lyca enidae</w>
la w</w>
l u_
glo bal</w>
fer a</w>
eri ng</w>
co lla
ch ưng_
blu -
ba gh
ac tive</w>
đầu_ cơ</w>
tt y_
tho i</w>
testo sterone</w>
pi sa</w>
phi n</w>
phaol ô_
o ver</w>
nicho las</w>
ne ss
mi che
mat ch</w>
mar vel</w>
ma j
khái_ quát</w>
jame s
i w
hôn_ mê</w>
dự_ toán</w>
d ội</w>
clu b_
c ell</w>
bởi_l ẽ</w>
buồng_ trứng</w>
alex _
18 56</w>
._ cỡ</w>
đầu_ độc</w>
war ts</w>
un dai</w>
trịnh_ tùng</w>
thuốc_trừ _sâu</w>
thu_ gom</w>
tam_ kỳ</w>
sụ n</w>
pi the
ph ơi_
ph ích</w>
or en
o a</w>
nor d</w>
na k</w>
n_h ồ</w>
mer s</w>
lin naeus</w>
is to
hi gh</w>
fami ly</w>
davi s_cup</w>
d ầm</w>
càng_ ngày_càng</w>
be d
alfre d_
a_s ơn</w>
._ hiện_nay</w>
ủ ng</w>
zu cker
volde mort</w>
vi k
va si
tóm_ lại</w>
trương_ bảo_
trung_ âu</w>
pun ja
phi_th uyền</w>
nước_ rút</w>
nh ét</w>
mi s
mi ran
mat t_
ma fia</w>
hen ri
giải_ tích</w>
dầu_ thô</w>
dương_ cầm</w>
bóc_ lột</w>
bu ll</w>
aga in</w>
7. 0
3 /2</w>
đâu_ đó</w>
wester n_
un der</w>
u_tr inh</w>
thanh_ chương</w>
sử _liệu</w>
sát_ thương</w>
phóng_ sự</w>
m ỉm</w>
lộ ng_lẫy</w>
la ri
l .
ja son_
her mi
eli p</w>
de mo</w>
cơ_ mật</w>
cope nhagen</w>
ci ty_
biết_ bao</w>
ò e</w>
x el
trần_tr ọng_
trôi_ chảy</w>
tiểu_ khu</w>
tiếng_ tăm</w>
nga -
lừa_ dối</w>
lor d_
ko vsky</w>
fa r</w>
de ad</w>
cà_ rốt</w>
ch ten
_l ửng</w>
13 2</w>
đề n_
ý _th
xó a_sổ</w>
vô _sản</w>
tự _nh
tw o</w>
th ấp_
te d_s
te a</w>
sinh_ linh</w>
r ợ</w>
pa b
nhất_ thời</w>
ng_d ưng</w>
la den</w>
kiệ n_tướng</w>
khu_ ủy</w>
k ẽ</w>
ja va
ham burg</w>
cuộc_ chơi</w>
co n_thoi</w>
ba n_thưởng</w>
aristo tle</w>
_h óa_học</w>
18 24</w>
18 01</w>
úng_ động</w>
x uyến</w>
wars zawa</w>
tiến_ dũng</w>
scandina via</w>
s_ '_
r úng_động</w>
po mpe
phó_ viện_trưởng</w>
nhộ n_
nhị n</w>
n bc</w>
mercur y</w>
ma ng
lê _l
l ._
ky u</w>
ke e</w>
h s
gh an</w>
f ru
e ti
cho_ đến</w>
ch ắt</w>
18 37</w>
._ chị</w>
đa_ ngành</w>
thượ ng_h
sti s</w>
sici ly</w>
pháp_ lệnh</w>
ph er
paler mo</w>
morri son</w>
ma ng_
lặ p_lại</w>
lu na</w>
ki d</w>
khử _trùng</w>
ka l</w>
he ar
cen s</w>
al la
_đ ế</w>
> >
13 7</w>
đánh_ thuế</w>
vĩnh_ yên</w>
vi_ mô</w>
u ý</w>
tích _trữ</w>
tr _
thụ_ phong</w>
số _thực</w>
nội_ tại</w>
kỹ_thuật_ viên</w>
hot_ 100</w>
hautes- pyrénées</w>
euro pe
enterpri se</w>
de li
cha u
c en</w>
bổ_nh iệm_
buồn_ bã</w>
bur g-
bundes liga</w>
a_s co
13 6</w>
._ chiến_dịch</w>
way ne</w>
uy ển_
thiên_ hướng</w>
se ine</w>
quả n_thúc</w>
phạm_ ngọc_
ni ck_
ngô_ bảo_
mưu_ đồ</w>
lli n</w>
hồng_ cầu</w>
huy_ hoàng</w>
cung_ thánh</w>
cla ss</w>
beau ti
at m</w>
a zu
_tru mp</w>
_l ược</w>
8, 5</w>
._ sáu</w>
è res</w>
ush u</w>
u ế</w>
ry an_
ph en</w>
n .
movi e</w>
mo del_
mer y
king ston</w>
ht ml</w>
gali leo</w>
du n</w>
da_m àu</w>
chủ_ biên</w>
cho_ biết</w>
bre w</w>
a n_thần</w>
_tr ưởng_
7 0
._ phái</w>
đẩ u</w>
uy ển</w>
tr ệ</w>
thiểm_ tây</w>
phạt_ đền</w>
n_l ý</w>
music_ awards</w>
khu_ trục_
husse in</w>
hog warts</w>
dub lin</w>
cá_ biệt</w>
bệnh_ dịch</w>
berna be
ban ks</w>
a lu
_tr iều</w>
14 3</w>
._ suốt</w>
đẳng_ thức</w>
vo ro
tòa_ soạn</w>
truy_ nã</w>
tor res</w>
thương_ vụ</w>
thuốc_ độc</w>
thiện_ chí</w>
sty le</w>
s è
r hin
ni cus</w>
người_ đời</w>
dẹp_ loạn</w>
dương_ châu</w>
cử _động</w>
co -
_s ch
._ chất</w>
zo om</w>
tức_ thời</w>
tươi_ sáng</w>
thần_ tiên</w>
ter a</w>
ten nis</w>
re sor
po und</w>
phản_ bác</w>
ng_đ a</w>
mặt_ biển</w>
mát_ mẻ</w>
mon i</w>
m mer</w>
lã nh_hải</w>
hai_ phần_ba</w>
gia_ phả</w>
cộng_hòa_xã_hội_chủ_nghĩa_ việt_nam</w>
chính_ sự</w>
bổ_nh ào</w>
bé _
._ thông_tin</w>
v í_như</w>
tr út</w>
to ni</w>
re l</w>
ngược_ đãi</w>
n uối</w>
mi de</w>
le a</w>
khu ông</w>
hel i</w>
fre e</w>
công_ phá</w>
chiều_ cao</w>
canh_ gác</w>
b èo</w>
ai_cập_ học</w>
_clu b</w>
3 65</w>
23/ 12</w>
._ viện</w>
xê- út</w>
trôi_ dạt</w>
trung_ quân</w>
ti la</w>
si o</w>
sa -
ry an</w>
ol d_
ny mpha
ne p
lồng_ ghép</w>
gia n_hàng</w>
e ver</w>
e ffe
dung_ nham</w>
di êm</w>
cảnh_ tượng</w>
be e</w>
ba li</w>
a ne
6 /2</w>
._ ð
._ bảng</w>
w we
vietnam 's</w>
trung_ hòa</w>
sé négal</w>
s c
răng_ cưa</w>
re y_
pra ha</w>
nhộn_ nhịp</w>
mi tchell</w>
me so
lla h_
ka ka
gi ày_
e do</w>
cầu_ vồng</w>
con ca
co in</w>
an_h uy</w>
af c_
wi ld
tsu ki</w>
te lla</w>
se con
ngà_ voi</w>
nguyễn_th ành_
nguyễn_ trung_
kình_ địch</w>
ki n_
hưng_ thịnh</w>
hoàng_h ôn</w>
ho a
cổ _vật</w>
cận_ cảnh</w>
chữ_th ập_
chặn_đ ứng</w>
bóng_ bàn</w>
bao_ cao_su</w>
đông_ nam_bộ</w>
đ óm</w>
ó n_
thẳ m</w>
tea ser</w>
t x</w>
ste n</w>
so fia</w>
rạ ng_
re publi
ra ba
qua n_tr
n_t ự</w>
lãng_ quên</w>
le gen
hương_ sơn</w>
h tv
gi ống_
fran co</w>
fer _
câu_ đố</w>
bri ght</w>
asi an_
ar ms
ale ppo</w>
7- 8</w>
._ thứ</w>
zz o</w>
ya k-
tte n_
trình_ diện</w>
trung_ du</w>
thương_mại_ điện_tử</w>
thô _sơ</w>
se ver
san to</w>
pi ri
phòng_ không</w>
nguyễn_t ất_
n_l ộn</w>
mo o
mitsu bi
man da
lẫ n_lộn</w>
har d
empi re</w>
du -
cộng_ sinh</w>
chế_độ_ độc_tài</w>
c ược</w>
am_ hiểu</w>
_th ơ</w>
_ giả</w>
ảo_ thuật</w>
úi_ giờ</w>
ul tra
to ny</w>
thuận_ an</w>
sùng_ bái</w>
ri ght</w>
r ảnh_
po mmer
philipp e</w>
nq- ubtvqh
ni le</w>
i la</w>
hóa_ ra</w>
hàm_ ý</w>
gaz ine</w>
cần_ vương</w>
bất_chấp_ sự</w>
biểu_ mô</w>
antoni o</w>
a ya
._ g
đà ng_
u- 17</w>
ty l</w>
tu ý</w>
sơ_th ẩm</w>
si mpson</w>
s ên</w>
pin k</w>
p uy
nguyễn_tr ọng_
lương_ tâm</w>
emi nem</w>
el lo</w>
e tha
chu_ vi</w>
bùi_th ị_
buga tti_
ama zo
_v ỡ</w>
_t ật</w>
đố ng_đa</w>
ú y_
yếu_ đuối</w>
trá ch_
siêu_ sao</w>
ro u</w>
plei ku</w>
phúc_ khảo</w>
ngọc_ trai</w>
n ọc_
mo d</w>
ma jo
m ận</w>
m úi_giờ</w>
ký_t ên</w>
in si
gr dp</w>
ed s</w>
bảo_ lãnh</w>
bài_ văn</w>
beli ze</w>
an ura</w>
18 04</w>
0 16
._ '</w>
địa_ tầng</w>
tán_ dương</w>
thạch_ anh</w>
sig n</w>
s cor
ro m</w>
pi o</w>
phá p_thuật</w>
phong_ thủy</w>
ng ốc</w>
n_h ạ</w>
merce des</w>
maldi ves</w>
ma il
lê _đức_
lu is_
lor d</w>
ko m
ha ro
e thy
chật_ vật</w>
châu_ phi_
bãi_ chức</w>
bo a</w>
3 g</w>
19 /2</w>
._ do
đô _th
ăn_l ùng</w>
thừa_thiên_ huế</w>
pla ty
nhà_h óa_học</w>
nguyễn_ vă
mikha il_
lý _m
l áng</w>
j y
i e</w>
hiện_th ực_
giu se
ga ronne</w>
chức_ sắc</w>
chố ng_đỡ</w>
car l
a qui
zucker berg</w>
việ t-
tủ a</w>
tt o_
thăng_ chức</w>
sla v
sili c</w>
sa ig
rus h</w>
pa s
os car
nhei m</w>
nap les</w>
n ổ
lậ p_thể</w>
lưu_tr ú</w>
hợp_ lưu</w>
goo d_
ga za</w>
flo rua</w>
f us
e th</w>
da m_
chân_ thực</w>
cen tral</w>
bắc_ carolina</w>
ba d_
a sha</w>
_t úc</w>
_kh anh</w>
17 00</w>
đăng_ kí</w>
w hen</w>
u b</w>
tây_ úc</w>
trố n_tránh</w>
tiếc_ nuối</w>
s ặc_
s ăn_lùng</w>
s ành_
r án</w>
quy ện</w>
ph ố_
ngày_ hội</w>
mont go
minh_ mạng_
m ập</w>
m uội</w>
kho ét</w>
jessi ca</w>
je sus</w>
hei m</w>
eni we
da ryl</w>
chồng_ chéo</w>
bút_ chì</w>
]_ [</w>
0 8/
vòng_ cung</w>
thần_ kỳ</w>
suy_t àn</w>
samu el_
ro man</w>
phân_ hiệu</w>
phong_ bì</w>
phnom_ pe
nồi_ hơi</w>
magi ê</w>
ma gazine</w>
lê_vă n_luyện</w>
j o_
i van_
drea d
dr o_
der by</w>
co de
chống_ tăng</w>
bugatti_ vey
18 43</w>
._ cháu</w>
ww e_
w yo
tây_ an</w>
tinh_ dầu</w>
thể_ xác</w>
th ê
suy_ ngẫm</w>
sile sia</w>
sa x
quả_ bóng_vàng</w>
nho_ học</w>
ngoại_ tệ</w>
net te</w>
n_t ụng</w>
minh_ đế</w>
mai_ táng</w>
lơ _lửng</w>
lâm_ bệnh</w>
khá _giả</w>
ka men_
hiệu_ chỉnh</w>
geometri dae</w>
gar den</w>
eniwe tok</w>
e ur
chúa_ trời</w>
ca se</w>
ave ngers</w>
an y</w>
2. 6
._ thực_tế</w>
wi n_
vô_ nghĩa</w>
sa ban</w>
s u_
na vi
mi nd</w>
lê_trung_ hưng</w>
la tion</w>
khoa_học_ xã_hội</w>
ja pan</w>
iế u_
ida ho</w>
hung_ hăng</w>
g ắm</w>
emi ra
d 1</w>
cổ _t
cư ỡ
chuyên_ quyền</w>
cal cio</w>
buru ndi</w>
8/ 8</w>
18 25</w>
âm_ hưởng</w>
xa r</w>
velo p
to mato
ti na_
thủy_ văn</w>
t se
sa ssa
r ặng</w>
huyết_ tương</w>
dã y_
cor tico
conso le</w>
ci vi
christi na</w>
cha mpa
c ữu</w>
bài_ ca</w>
a 4</w>
4 4
2 d</w>
đông_ lạnh</w>
x an
vi_ hiến</w>
tố _chất</w>
tu_ hành</w>
trường_ thành</w>
trao_ trả</w>
thế_ chấp</w>
thu_ giữ</w>
o i</w>
mô n_đ
me h
mar e</w>
ma ka
lá _ch
liên_ tưởng</w>
l ơ</w>
khí_ cầu</w>
iết_ kế</w>
i ly
ho tep</w>
gi ấm</w>
el berg</w>
bỗ ng_
bóng_ chày</w>
ba lo
ba llet</w>
an na
ad mira
._ sư</w>
đông_ y</w>
vòng_ tay</w>
v í
univer sa
u bun
tạ_ ơn</w>
tân_ thế_giới</w>
trea l</w>
thất_ thoát</w>
thai_ nhi</w>
th ỉnh</w>
sắc_ thái</w>
ren t</w>
qua n_thoại</w>
phương_pháp_ học</w>
ng_h ồng</w>
nacio nal</w>
n_đ áo</w>
lữ _hành</w>
khởi_ điểm</w>
kh _
ke n_
hội_ họp</w>
hi a</w>
es ta
cu la</w>
com mand</w>
c úc_
bru n
đông_ anh</w>
vượt_ bậc</w>
trung_ tâm_
t ằm</w>
sức_ lực</w>
sáng_ suốt</w>
s ổ
poly mer</w>
pi t
ph ất</w>
nh ọc</w>
nghẹ t_
mo ney</w>
i q</w>
hiệ n_thân</w>
go vina</w>
giám_ định</w>
ch à_
can us</w>
b russel
7 37</w>
._ việt_nam</w>
._ quốc_hội</w>
._ nằm</w>
._ giá</w>
ợ m</w>
wa ng
vàng_ bạc</w>
vo ya
v ro
t m</w>
sul tan_
sha kes
pan ther</w>
nan cy</w>
na go
n ặc_
mo on_
miễ n_thuế</w>
m ây_
lò_ xo</w>
kor n</w>
kno w
kinh_tế_ học</w>
hình_ trụ</w>
go ku</w>
giai_ nhân</w>
gh ê_
di es</w>
da nao</w>
9/ 1</w>
9 9,
đại_ sảnh</w>
x vi
tràn_ đầy</w>
tr ổ</w>
tiêu_ hủy</w>
steph en</w>
shi p_
ro o</w>
ps ://
ph _
os lo</w>
o án</w>
jaco b</w>
hiệ n_tr
ga y</w>
er y
cô_ gái</w>
ch ói</w>
c a_m
andro id_
19 2</w>
1 200</w>
._ mặt</w>
._ hội</w>
đẹp_ trai</w>
ý_th ức_
x ước</w>
v ẻ
tống_ giang</w>
trung_ đoàn_bộ_binh</w>
tr ật</w>
ti ễu</w>
thời_ khắc</w>
th s</w>
ta ma
ro s
ph ò</w>
n_đ ốc</w>
n_b ỉ</w>
mon treal</w>
me ck
le tt</w>
lan a</w>
la_ loire</w>
giao_ tử</w>
en a_
con qu
ca ng</w>
bề n_bỉ</w>
bu v</w>
bru ce</w>
biện_ minh</w>
am é
14 2</w>
universi ty_
thu_ mua</w>
sổ_ sách</w>
pp e</w>
mr ._
mi lano</w>
k er_
iề ng_
is tan
gi ường_
ga ri
f r</w>
dor do
cấ n</w>
corona virus</w>
chi ld
ba ra</w>
af rica</w>
7 8
25 0.000</w>
20 23</w>
._ kỹ_thuật</w>
đôi_ chút</w>
ý_thức_ hệ</w>
é e</w>
xanh_ dương</w>
x h
us s_
thị_ chính</w>
thường_ tín</w>
sto ry</w>
pháo_ thủ</w>
ng ẫu</w>
me ni
man ca</w>
fal l</w>
e na
de ca
da w
coro na</w>
ck y_
ab be
a can
_tr ánh</w>
_t ele
_hi tler</w>
2 _triệu</w>
2 25</w>
._ tàu</w>
đồ_ ăn</w>
đại_ bản_doanh</w>
to wer</w>
thâm_ hụt</w>
swi tch</w>
su mer</w>
phủ_ quyết</w>
ph ạn</w>
ni s_
net fli
mật_ ong</w>
mon roe</w>
jo se</w>
i van</w>
hydro xy
hoành_ hành</w>
giả ng_hòa</w>
gi ằng_
ge of
cốt_ cán</w>
[...]
