#version: 0.2
n g</w>
t h
n g
n h
c h
t r
k h
n _
n h</w>
ng _
p h
ô ng</w>
g i
i _
ê n</w>
ư ờ
i ế
q u
t _
nh _
u _
kh ông</w>
i ệ
m ộ
ạ i</w>
u y
c _
l à</w>
ườ i</w>
ớ i</w>
m _
c ủ
củ a</w>
ư ợ
ư ơ
o ng</w>
mộ t</w>
n à
c á
c ó</w>
ng ười</w>
a y</w>
ấ y</w>
n ó
t i
â n</w>
_ th
v à</w>
ô i</w>
nó i</w>
đ ã</w>
ượ c</w>
ng h
ư ớ
a i</w>
o _
tr ong</w>
c h</w>
đ ược</w>
l ại</w>
h o
a nh</w>
ì nh</w>
r a</w>
ấ t</w>
i ề
s a
a _
ch o</w>
t a</w>
u ố
ả i</w>
v à
ầ n</w>
ế n</w>
ồ i</w>
ũ ng</w>
nh ư
a ng</w>
c ũng</w>
v ới</w>
nà y</w>
_ t
t ôi</w>
i ê
ô ng_
t iế
đ ến</w>
ữ ng</w>
ươ ng</w>
y _
nh ững</w>
ướ c</w>
l à
và o</w>
à ng</w>
ph ải</w>
ườ ng</w>
th ì</w>
i ên</w>
đ i</w>
cá c</w>
ấ t_
c o
ù ng</w>
nh ư</w>
â n_
â y</w>
ch ú
đ ó</w>
a n</w>
i nh</w>
ậ t</w>
i ể
b iế
_ l
đ ể</w>
ế t</w>
ò n</w>
m à</w>
ờ i</w>
đ ầ
đ ộ
th ấy</w>
như ng</w>
r ồi</w>
đ á
c òn</w>
â u</w>
uy ệ
đ ạ
h ai</w>
à i</w>
l ên</w>
ch ỉ</w>
iề u</w>
v ề</w>
v iệ
ậ n</w>
_ h
ươ ng_
là m</w>
m ình</w>
kh i</w>
ú c</w>
e m</w>
ứ c</w>
g ì</w>
ư a</w>
biế t</w>
á c</w>
ỏ i</w>
á i</w>
b ả
à nh</w>
ắ t</w>
ọ c</w>
ò ng</w>
ằ ng</w>
m ặ
ơ n</w>
à n</w>
ă ng</w>
co n</w>
a o</w>
tr ên</w>
l ã
ữ a</w>
c ó
nà o</w>
b ị</w>
n_ t
ă m</w>
_ v
s ẽ</w>
i nh_
đ ị
ậ y</w>
iệ n</w>
ừ ng</w>
c ô</w>
ộ i</w>
b á
a nh_
uyệ n</w>
ụ c</w>
đầ u</w>
s á
u ng</w>
sa u</w>
nh ân</w>
ph á
e o</w>
n_ th
ẫ n</w>
c ả</w>
ì n</w>
ì nh_
t ừ</w>
ơ i</w>
ạ n</w>
ắ n</w>
ọ ng</w>
à y</w>
â m</w>
nh ìn</w>
ự c</w>
sa o</w>
p _
ti ể
ố ng</w>
đ ây</w>
t ay</w>
c ả
t u
tiế ng</w>
cá i</w>
í nh</w>
ổ i</w>
c ùng</w>
đ ang</w>
ắ c</w>
ươ i</w>
a o_
_th ể</w>
ế _
t ới</w>
m ới</w>
ề n</w>
l úc</w>
ô n</w>
iê n_
uố ng</w>
việ c</w>
n ên</w>
c ông_
ư ở
ọ n</w>
ch iế
u ng_
n ăm</w>
mặ t</w>
_ s
ng o
r ất</w>
tr ước</w>
h à
th iế
u ộ
kh o
t o
ồ ng</w>
_ d
lã o</w>
th eo</w>
uố n</w>
ch uyện</w>
chú ng_
nh iều</w>
k iế
m ắt</w>
a n_
gi á
ố i</w>
có _thể</w>
đ ề
h ỏi</w>
nh iên</w>
h ọ</w>
đạ i_
ế u</w>
v ì</w>
ă n</w>
m ạ
á n</w>
ẳ ng</w>
ngh e</w>
n ữa</w>
g ã</w>
ng ươi</w>
s ự</w>
nà ng</w>
l o
v ẫn</w>
c ười</w>
a u</w>
ố i_
h ơn</w>
_ tr
t ại</w>
l ớ
ừ a</w>
ưở ng</w>
ứ ng</w>
m uốn</w>
ng ày</w>
ê u</w>
th á
a m</w>
ọ i</w>
ê n_
b ên</w>
ầ m</w>
qu a</w>
c ông</w>
độ ng</w>
gi ờ</w>
n ếu</w>
h ọc</w>
ử a</w>
ho à
_ n
ế t_
nh à</w>
x uống</w>
ượ ng</w>
qu y
ch àng</w>
k i
l u
ậ p</w>
h uy
n_ đ
_ đ
tiể u_
h ạ
th ế_
í ch</w>
ch ưa</w>
đề u</w>
kh ông_
l òng</w>
ă n_
ngh ĩ</w>
h ắn</w>
ố c</w>
v ừa</w>
mộ t_
b à</w>
ng uy
b ất_
th u
á t</w>
b ạ
ê m</w>
ầ n_
th ế</w>
n ay</w>
b a</w>
cá ch</w>
đị nh</w>
_ m
b ọn</w>
h ay</w>
n ó</w>
iệ u</w>
r ằng</w>
l ư
2 0
gi a</w>
nh ất</w>
kh ác</w>
l ần</w>
s ố</w>
đ o
x u
â m_
ắ m</w>
th ành</w>
đ ường</w>
t ạ
u_ l
h ạ</w>
bả o</w>
iề n</w>
ự c_
ch ẳng</w>
h iể
s inh</w>
t ên</w>
ố n</w>
v ô
ú ng</w>
ứ c_
ồ ng_
đá p</w>
à n_
tr ường</w>
đ âu</w>
_ ph
n ước</w>
l ạ
ắ ng</w>
l ấy</w>
đ ối_
í a</w>
tr ọng</w>
lớ n</w>
_ ch
â y_
gi ả
uộ c</w>
a ng_
ch ính</w>
v ậy</w>
chúng_ ta</w>
. .</w>
ỗ i</w>
ngo ài</w>
t ử</w>
kh á
ch ết</w>
ph ía</w>
kiế m</w>
ọ c_
t uy
ụ ng</w>
th ật</w>
iệ t</w>
b ằng</w>
ậ u</w>
ắ c_
nh au</w>
ờ i_
a y_
i ễ
t ố
ó ng</w>
m u
a m_
qu ân</w>
ặ p</w>
th ể</w>
ầ u</w>
đ ứng</w>
ạ y</w>
v iên</w>
e n</w>
iể m</w>
m ấy</w>
ườ ng_
v ị</w>
ướ ng</w>
i n</w>
iê u</w>
ng ay</w>
b ộ</w>
cả m_
. ..</w>
nh ận</w>
h iệ
th ứ</w>
qu an</w>
ch ân</w>
b u
ô n_
th anh_
á nh</w>
ấ u_
/ 3</w>
c ần</w>
d ư
n am</w>
nh ân_
â u_
l ời</w>
k inh_
ấ p</w>
t ình_
s ư</w>
h ã
a i_
20 1
k ỳ</w>
é t</w>
nh à
h iện</w>
t ừ
s ống</w>
c ơ
ó c</w>
l ý
kh iế
ướ c_
í nh_
m ọi</w>
ả n_
ti n</w>
ấ u</w>
ậ t_
t ì
á m</w>
đạ o</w>
x em</w>
_ c
_v ậy</w>
d o
đ ưa</w>
đ ặ
đ iều</w>
h ết</w>
ch uy
ê u_
là m_
kh ỏi</w>
c ứ</w>
đ ại</w>
n ơi</w>
ú t</w>
b ao_
chiế c</w>
p _t
b ước</w>
a n
qu á</w>
th o
đá nh</w>
t ự
b ạn</w>
ộ i_
ệ nh</w>
hiể u</w>
_ b
g ặp</w>
t ổ
m á
đ iểm</w>
l iền</w>
th i</w>
à nh_
ả y</w>
chú ng</w>
tr í</w>
ng ồi</w>
ph òng</w>
ch ạy</w>
v u
a r
ấ n</w>
phá p</w>
h àng</w>
c ao</w>
ch ủ</w>
đ ồng_
ng_ th
á o</w>
h ồ
tr ung_
iề u_
ấ m</w>
tì m</w>
à o</w>
d ùng</w>
ki a</w>
ả ng</w>
ạ t</w>
ch _
ả nh</w>
tiể u</w>
ph ong</w>
ti ên</w>
không_ thể</w>
ú i</w>
th ường</w>
x e</w>
h ô
g h
đ úng</w>
ị ch</w>
th ời_
ả o</w>
kh í</w>
như _vậy</w>
khiế n</w>
c àng</w>
th êm</w>
ỉ nh</w>
m ẹ</w>
nh ỏ</w>
d ân_
ng_ t
qu ay</w>
ợ i</w>
à i_
đ ất</w>
th ôi</w>
gi ới</w>
y êu</w>
giá o_
tiế p</w>
ụ c_
th ực_
ã i</w>
gi an</w>
n ữ</w>
th ành_
l ực</w>
h ọc_
dư ới</w>
ố c_
ườ i_
đ ệ</w>
v õ
ch ị
từ _t
l i
uy ền</w>
đ ồng</w>
phá t_
tr ời</w>
d o</w>
tr ở
ch ỗ</w>
ngh iệ
qu an_
th iên_
ắ p</w>
g ần</w>
ch á
iể n</w>
đầ u_
vô _
x in</w>
bá o</w>
_th ế</w>
ng_ h
ngh ĩ
gi a_
b é</w>
sá ng</w>
c âu</w>
ặ c</w>
d ự
e r
g ọi</w>
c ứ
r õ</w>
ử _l
s ợ</w>
huy nh</w>
th ần</w>
ho a</w>
c uộc</w>
ầ u_
t ừng</w>
l ắm</w>
ằ m</w>
ể n</w>
t ự</w>
th ủ</w>
kh ấu_
gi ữa</w>
ẹ p</w>
ă ng_
g ái</w>
ầ m_
ắ t_
ặ ng</w>
v ụ</w>
t ất_
ề n_
v ăn_
khấu_ trọng</w>
hã y</w>
chúng_ tôi</w>
b ình_
m ất</w>
hạ ng</w>
h ồ</w>
c ửa</w>
qu ả
c a</w>
mạ nh</w>
thiế u_l
d ân</w>
sá t</w>
s ư
m ôn</w>
tr ẻ</w>
tr á
h ợ
ch ị</w>
ph ương</w>
th ị
nh ất_
_ nhiên</w>
chú t</w>
ú c_
v ẻ</w>
đ êm</w>
ch ứ</w>
qu ả</w>
ch ủ
h ồi</w>
th ương</w>
th anh</w>
h ình</w>
k ẻ</w>
ti ền</w>
hà nh_
thá ng</w>
x a</w>
k é
ậ n_
th ân</w>
ệ nh_
b ài</w>
ho á</w>
ế n_
đ ời</w>
gi á</w>
x e
ứ a</w>
qu á
í t</w>
m inh</w>
ă m_
gi ọng</w>
c ậu</w>
à u</w>
ng_ l
d iễ
o _th
s o
ô i_
d ù</w>
th ông_
qu ốc_
b ỏ</w>
ồ n</w>
_h ội</w>
é p</w>
thá i_
c a
ấ n_
ố t</w>
ch ính_
d ám</w>
ch i</w>
c ao_
ạ ch</w>
việ t_
l iên_
l âu</w>
c ô
_ nh
độ t_
ti êu_
ch u
ch i
l ý</w>
ĩ nh</w>
v i_
m ỗi</w>
ử_l ăng</w>
ù a</w>
th ời</w>
c ây</w>
á c_
co n_
v ật</w>
s ĩ</w>
m ang</w>
bả n</w>
x ong</w>
c uố
gi ú
ó n</w>
dân_ trí</w>
đ ộ</w>
bả o_
và ng</w>
ph ục</w>
uyệ t</w>
t âm</w>
c ử
tất_ cả</w>
_ ng
tu ổi</w>
iệ ng</w>
ự a</w>
s ắc</w>
s ơn</w>
iế t</w>
chị u</w>
đ ẹp</w>
ng ạ
ng ờ</w>
t ình</w>
h ình_
ph ụ
gi ết</w>
đị ch</w>
kh ó</w>
giá o</w>
từ_t ử_lăng</w>
b ây_
th ư</w>
đ ôi</w>
đ á</w>
đ ủ</w>
b ình</w>
bây_ giờ</w>
ẩ m</w>
sa ng</w>
ơ n_
d ương_
ph ái</w>
tố t</w>
ị p</w>
ĩ nh_
th ủ
v ương</w>
s ức</w>
th ân_
thiếu_l ong</w>
gi ữ</w>
b ắt_
ẩ n</w>
giả i_
ph ương_
m ỹ</w>
b ốn</w>
nh ớ</w>
l ậ
ừ a_
xu ất_
b àn</w>
ph ần</w>
đ iệ
d ài</w>
ch ắc</w>
r a_
b ỗ
ả n</w>
a l
d ương</w>
h u
s ức_
sá ch</w>
tu y</w>
i n
đ à
đ iều_
việt_ nam</w>
th í
cảm_ thấy</w>
ý _
lu ôn</w>
c ầu</w>
đá ng</w>
cứ u</w>
ượ ng_
c ổ
thế_ nào</w>
đ ình</w>
_ r
mạ ng</w>
o ng_
m iệng</w>
gi ác</w>
ch í</w>
tr ận</w>
đ ừng</w>
n ổi</w>
thời_ gian</w>
e n
á ng</w>
th ể
p _l
t ính</w>
đ ấy</w>
s ự
t ăng</w>
đối_ với</w>
qu ốc</w>
n_t o
b à
đ ổi</w>
ả i_
thế_ giới</w>
nó i_
0 0</w>
nh ạ
ư ng</w>
_ x
khá ch</w>
việ n</w>
tr ở</w>
/ 2</w>
k ết_
v ương_
b ay</w>
nguy ên</w>
chá u</w>
nghiệ p</w>
đ ông</w>
thiế u_
h ành</w>
s inh_
hoà ng_
c ạ
k ỳ
th ích</w>
gi ả</w>
uy ên</w>
đ ọc</w>
b ắt</w>
v ọng</w>
iệ m</w>
t ư
ậ p_
ố ng_
th ầ
n_ l
t ỷ</w>
n úi</w>
t ế</w>
t âm_
đ em</w>
đặ t</w>
h ơi</w>
quy ết</w>
ng ựa</w>
tiế n</w>
è n</w>
kh ó
co i</w>
tr ước_
ho ặc</w>
biế n</w>
l ộ</w>
d iện</w>
lậ p_t
n ằm</w>
_ kh
ù ng_
ặ t</w>
à y_
ng ười_
k êu</w>
lập_t ức</w>
b ộ
trở _
ạ m</w>
t ỉnh</w>
u ật</w>
tạ o</w>
cả nh</w>
v i</w>
độ c</w>
ti êu</w>
ở i</w>
giú p</w>
ạ ng</w>
d ậy</w>
b iệt</w>
c ầm</w>
k ể</w>
ượ t</w>
ph i</w>
tr ương_
tiểu_ bảo</w>
v i
nguy ễ
quy ền</w>
ph ủ</w>
n_to àn</w>
đ àn_
ch ỉ
_s inh</w>
nh i</w>
d ục</w>
ph ản_
lư ng</w>
gi ống</w>
m a
đ u
th ầm</w>
ẩ n_
7 /3</w>
ch ưởng</w>
gi ải</w>
vi_ tiểu_bảo</w>
nghĩ a</w>
l a</w>
đầ y</w>
bỗ ng</w>
r o
n e
ph ố</w>
s ử
h ại</w>
k iện</w>
ứ ng_
tr ưởng</w>
như _thế</w>
ngh iê
mu ội</w>
đo àn</w>
ù i</w>
ph ó</w>
uộ c_
á y</w>
mặ t_
qu anh</w>
bá n</w>
t í
tr ang</w>
uố t</w>
công_ t
201 2</w>
d ẫn</w>
ậ m_
ch ung</w>
lo ại</w>
l ượng</w>
b ố</w>
và i</w>
lư u_
ch a</w>
k inh</w>
t ài_
hà _n
ợ t</w>
mu a</w>
tr ả
_ công</w>
đột_ nhiên</w>
m ày</w>
tr ông</w>
d ung</w>
_ ý</w>
l a
r ượ
ch o_
x o
kh u
b ệnh</w>
gi à</w>
h ướng</w>
đ ao</w>
tr ình</w>
cạ nh</w>
ch iêu</w>
d ự</w>
á ch</w>
l ạ</w>
c ư
t ư</w>
ổ i_
ấ y_
iê u_
ng ày_
/ 1
th uố
d a</w>
m ười</w>
đị a_
ng u
hà_n ội</w>
ọ t</w>
tạ i_
c u
thiế t_
ẩ y</w>
chuy ển</w>
tr iệu</w>
ti ên_
m ã
c ung</w>
â ng</w>
t o</w>
c ấp</w>
quy ết_
uy _
chú a</w>
ng ủ</w>
kh uy
m a</w>
đ ứa</w>
ti nh_
iệ u_
kiế n</w>
ẳ ng_
m ở</w>
_ nhân</w>
mặ c</w>
t e
ó ng_
d ụng</w>
phá t</w>
th uyền</w>
hợ p</w>
bao_ giờ</w>
nh anh</w>
hô m</w>
đ iện</w>
vô_ cùng</w>
n ội_
s ai</w>
độ i</w>
to àn</w>
ho àng</w>
th ẳng</w>
x ã
ph u</w>
ph u_
rượ u</w>
ớ m</w>
b ang</w>
l e
ị ch
_t ử</w>
ch ờ</w>
kh ả
h iệu</w>
b óng</w>
v ội</w>
lớ p</w>
tr ung</w>
bá o_
uyệ t_
th u</w>
g ây</w>
c ơ</w>
học_ sinh</w>
tr ái</w>
hô m_
ấ n_đ
b í
ki m_
đá nh_
ĩnh_ v
k iể
làm_ sao</w>
ứ t</w>
ng ọc_
gia_ đình</w>
ó i</w>
th am_
ấ p_
l ễ</w>
t ay_
v ũ
iê ng</w>
qu ang</w>
ô _t
b iể
qu ân_
1 9
t ối</w>
h ồng</w>
bắt_ đầu</w>
h ội</w>
kho ảng</w>
tr a</w>
ch âu</w>
đ en</w>
th ức</w>
đá m</w>
đo ạn</w>
t ập</w>
th ượng_
cuố i_
ch ú</w>
l ệnh</w>
giáo_ dục</w>
t ướng</w>
_l ời</w>
th ần_
_n ương</w>
tiế p_t
v ân</w>
cuối_ cùng</w>
x ảy</w>
má u</w>
n ước_
ử i</w>
xu ất</w>
c ổ</w>
v iết</w>
ch ừng</w>
chiế n</w>
xã _hội</w>
_th ành</w>
t ử
v ốn</w>
phu_ nhân</w>
c ố
l ên_
n ửa</w>
đặ c_
m àu</w>
ké o</w>
tr ị</w>
ch ữ</w>
tại_ sao</w>
s ong</w>
l ệnh_
ch _th
trả _lời</w>
r i
ò ng_
ho a_
h ậu</w>
gi ận</w>
ti ê
ộ ng</w>
í n</w>
ó m</w>
võ _công</w>
tr ai</w>
tiếp_t ục</w>
ạ t_
sư _ph
cô _nương</w>
đầu_ tiên</w>
ch u_
ẩ m_
độ c_
ã n</w>
do anh</w>
l inh</w>
n am_
ó t</w>
1 0</w>
ướ ng_
l ửa</w>
iệ t_
vu i_
é n</w>
b iển</w>
gi ang_
n ắm</w>
b ức</w>
đ ồ</w>
g ật</w>
hiệ n_
a_ s
th ất_
đ ông_
h ề</w>
n iên</w>
tr ăm</w>
n ỗi</w>
tr anh</w>
m ũ
n_th ân</w>
l ợ
đ ảo</w>
ỉ m</w>
h án</w>
ể n_
ch ế</w>
nh_ l
h iế
gi ó</w>
h ệ</w>
t ấm</w>
hoà n_toàn</w>
một_ cách</w>
tr ắng</w>
nh iêu</w>
tr ánh</w>
c uộc_
ẩ u</w>
ồ n_
l ập</w>
kh ổ</w>
cả m</w>
t uyệt_
đ a
m ươi</w>
th ở
diễ n</w>
_d ụng</w>
b inh</w>
kho ẻ</w>
s u
ớ i_
đ ức</w>
á i_
ữ u</w>
th ương_
tr iệu_
k ế</w>
tr ường_
một_ chút</w>
s ông</w>
tr uyền</w>
ậ m</w>
nh ảy</w>
v ấn_đ
vấn_đ ề</w>
d u_
có _l
v òng</w>
n_t âm</w>
đ ỡ</w>
y êu_
ẳ n</w>
tr uy
ch ơi</w>
ớ t</w>
bạ ch</w>
đạ o_
kh ẽ</w>
ư a_
v ai</w>
m ời</w>
thuố c</w>
l o_
th u_
h ùng</w>
ạ i_
th i_
n o
cả nh_
t ương_
s ớm</w>
ch iều</w>
ngạ c_
c ố</w>
nguyễ n_
th ay_
bạ c</w>
r u
ch ọn</w>
ph i_
x anh</w>
h ẳn</w>
t ưởng</w>
đ ả
th ằng</w>
l o</w>
gi ao_
h ết_
tr iển</w>
lư u</w>
ngh ị</w>
ch ặt</w>
ph á</w>
th ả
ch ợt</w>
thiế u</w>
ộ c</w>
đ ồ
nh ờ</w>
ph óng</w>
ti ền_
dự ng</w>
nguy ên_
gi ao</w>
đ ấu</w>
ti nh</w>
y ên</w>
cá nh</w>
ph ẩm</w>
sử _dụng</w>
t ức_
n ổi_
a m
_ch ức</w>
p _th
r ơi</w>
v ệ</w>
b ởi</w>
i m</w>
t ài</w>
ặ n</w>
m ừng</w>
đa u_
t ai</w>
x ét</w>
hôm_ nay</w>
d ừng</w>
ằ ng_
qu ần</w>
l ong</w>
m ai</w>
tr ang_
to àn_
d ịch</w>
ở i_
m ỉm</w>
v ợ</w>
m inh_
_ g
ế p</w>
trở _thành</w>
tho át</w>
ô m</w>
ồ m</w>
bu ổi</w>
ch ân_
v ì
tiê u_l
ph ép</w>
o n
r ời</w>
o r
ngạc_ nhiên</w>
trở_ lại</w>
ng ôi</w>
đ ỏ</w>
v ừa_
ng ọc</w>
b ị
đ ệ
è o</w>
t ôn_
ki m</w>
lệnh_ hồ
sự _
k ết</w>
y _t
à _
nhân_ ái</w>
é m</w>
lệnh_hồ _x
b ắc</w>
ế u_
lệnh_hồ_x ung</w>
h ư
s uốt</w>
th úc</w>
_v ẻ</w>
bao_ nhiêu</w>
một_ số</w>
b ổ
quyết_ định</w>
ả nh_
d anh</w>
n_t ử</w>
l ê
việ t</w>
k ỵ</w>
r iêng</w>
ph ân_
th ị</w>
sá u</w>
con_ người</w>
d anh_
u y</w>
ca o_th
xuất_ hiện</w>
th uộc</w>
ẹ n</w>
g ửi</w>
ng ài</w>
thở _d
iề n_
đ ường_
m ức</w>
201 1</w>
ph í</w>
ỷ _l
h uyện</w>
b ệnh_
ắ ng_
h ải</w>
k ý</w>
b ắn</w>
đà o_
th ạ
ng ọn</w>
ô_t ô</w>
th ắng</w>
n i
r e
đặc_ biệt</w>
ỡ ng</w>
l át</w>
v ang</w>
s ắp</w>
lợ i_
l an</w>
_m áy</w>
lã nh_
tổ _chức</w>
qu y_
th iên</w>
s i
mũ i</w>
thí _sinh</w>
ph ụ</w>
b ối</w>
đại_ học</w>
s e
thở_d ài</w>
m ẫ
tr ị
ng ừng</w>
tình_ yêu</w>
ạ n_
đu ổi</w>
hiệ p</w>
_n ữ</w>
t ính_
có_l ẽ</w>
ch ăng</w>
k ịp</w>
tr ò</w>
l ao</w>
s âu</w>
tố ng_
r a
ch ồng</w>
1 0
sư_ph ụ</w>
ho ạt_
ch ất</w>
v ùng</w>
s h
kh á</w>
m ở
kh ắc</w>
kh óc</w>
t a
ng a</w>
s ở</w>
_tr ường</w>
qu án</w>
tr ả</w>
ng ân</w>
kh u</w>
tiêu_l ĩnh_v
cơ _
nhạ c</w>
lu ận</w>
cá o</w>
tiểu_ đệ</w>
b o
l ợi</w>
ph ong_
tiêu_lĩnh_v u</w>
l ắc_
tr ầm_
vu i</w>
ấ m_
th ực</w>
m au</w>
ch i_
văn_ hoá</w>
m i
j o
_n ăng</w>
đệ _tử</w>
t ác_
v ăn</w>
r õ
l inh_
công_ tử</w>
m ã</w>
à m</w>
_s ĩ</w>
r út</w>
m ùa</w>
b èn</w>
công_t y</w>
lạ nh</w>
tr ượng</w>
n ặng</w>
l iệu</w>
h ội_
b ật</w>
ầ y</w>
c ầu_
qu ên</w>
th ử</w>
rõ _r
l âm_
m ối</w>
sức_ khoẻ</w>
đạ t</w>
thay_ đổi</w>
quốc_ gia</w>
r ừng</w>
ho à</w>
t óc</w>
ỏ ng</w>
nói_ chuyện</w>
ộ t</w>
_h uy
d ần</w>
h ồng_
chiế n_
đàn_ ông</w>
thiên_ hạ</w>
d ạ</w>
ngh i</w>
d ạy</w>
0 00</w>
tu ần</w>
d ường_
t ường</w>
k ích</w>
dường_ như</w>
c ung_
b ụng</w>
b a
nghiệ m</w>
p t</w>
ph úc</w>
tiế n_
bả y</w>
nhất_ định</w>
m a_
á o_
t ượng</w>
6 /3</w>
ợ p</w>
iê n_t
kh ai</w>
tr ần_
do anh_
qu a
tuy _nhiên</w>
giá m_
qu ản_
làm_ việc</w>
e l
y ếu</w>
b an</w>
_ ra</w>
h y_
b ố
thượng_ quan</w>
thực_ hiện</w>
tr ọ
kinh_ doanh</w>
_th ế_
l âm</w>
giả m</w>
n_th o
b ại</w>
m ục</w>
bà n_t
qu át</w>
đ ành</w>
b ờ</w>
ngh i_
t ấn_
ư u_
l uyện</w>
t ung</w>
t ám</w>
ti m</w>
ng ang</w>
nh óm</w>
m ãi</w>
nhà _
t ội</w>
k ính</w>
cơ _hội</w>
quả ng_
m ong</w>
ng ã</w>
c ương</w>
ch ục</w>
kiể m_
cảm_ giác</w>
h ầu_
hoạt_ động</w>
ã y</w>
é o</w>
lo ạn</w>
l ặng</w>
ỡ i</w>
nghiê m_
rõ_r àng</w>
nh ị</w>
lã o_
lắc_ đầu</w>
đ ơn_
thế_ này</w>
đ ợi</w>
b ao</w>
ộ p</w>
a _th
t ập_
ng ực</w>
độ ng_
ngo ại_
sức_ mạnh</w>
má y</w>
đ ế</w>
c ơn</w>
quan_ trọng</w>
đối_ phương</w>
tr úng</w>
xe m_
phá p_l
đ ón</w>
ch âu_
hồ n</w>
b an_
hoà n_
nh ập</w>
thầ y</w>
d ễ</w>
v ực</w>
n u
_th ật</w>
n ăng</w>
ệ _th
th ở</w>
s o</w>
m i</w>
m ụ</w>
t ây</w>
thị t</w>
có _vẻ</w>
c ũ</w>
vô_ kỵ</w>
tr ạng</w>
đo án</w>
m ục_
th ái</w>
tiên_ sinh</w>
to án</w>
s ản_
nh ẹ</w>
lạ nh_l
chu ẩn_
thể _th
ẻ _
ng àn</w>
thu ỷ
phát_ hiện</w>
bạ n_đ
kh ổ
_tr í</w>
h ải_
th pt</w>
c uốn</w>
ệ t</w>
b ác</w>
h ưởng</w>
ph út</w>
ch ức</w>
ch ung_
ch ống</w>
y ên_
đại_ sư</w>
ph ạm</w>
_d o</w>
v ị
ạ m_
tấn_ công</w>
ch ắn</w>
s uy_
bạn_đ ọc</w>
khả _năng</w>
gi ơ</w>
c âu_
ụ i</w>
ừ ng_
b ậ
ch ẳng_
_m ật</w>
đồng_ thời</w>
đại_ ca</w>
th ế
l ục_
ò i</w>
đ h</w>
b iên_
ph o
vu a</w>
trung_ quốc</w>
iệ n_
đ ề</w>
lạ c_
m à_
ho á
t uyệt</w>
d ị
t ô
c ực_
lu i</w>
d i_
đ au</w>
phát_ triển</w>
h ương</w>
d òng</w>
đ ẩy</w>
ch ắc_
l ương</w>
hết_ sức</w>
đ ổ</w>
c ặp</w>
c ăn</w>
một_ mình</w>
xu ân</w>
sá ng_
_huy nh</w>
xe _máy</w>
thể_th ao</w>
bàn_t ay</w>
a d
v ạn</w>
ỷ_l ệ</w>
nó ng</w>
ho ạ</w>
ượ c_
l á</w>
ư u</w>
c úi</w>
n ạn</w>
ưở ng_
h uyệt</w>
pháp_l uật</w>
đ ến_
anh_ em</w>
có _đ
x ây_
t ích</w>
kho a_
mặ c_
t ôn</w>
ch _t
b i
có_đ iều</w>
_l âm</w>
v ượt</w>
chá y</w>
s ơ
iê m</w>
ấ c</w>
x ung_
t ướng_
20 0
t àu</w>
th ay</w>
ch ăm_
ộ ng_
ỉ nh_
lên_ tiếng</w>
chuẩn_ bị</w>
bá c_
chuy ên_
ch ứng_
ậ u_
th ưa</w>
to à</w>
đ i_
cuố i</w>
qu ái</w>
x ưa</w>
biế t_
th ư
v õ</w>
t ất</w>
chi a</w>
giang_ hồ</w>
bu ồn</w>
l ang</w>
khuy ến_
thành_ phố</w>
x uyên</w>
phụ _nữ</w>
ắ p_
ph àm</w>
lý _
trá i_
công_ việc</w>
ụ p</w>
_l ực</w>
d ễ
v ội_
ố t_
á nh_
suy_ nghĩ</w>
dự _
bá t</w>
đ ỉnh</w>
t am_
từ_t ừ</w>
n ăm_
t t
u s
th ấp</w>
ho ả
sinh_ viên</w>
a_ h
m ay</w>
d ụ</w>
xây_ dựng</w>
qu en</w>
ph ục_
lạ c</w>
hành_ động</w>
ch ương_
điệ n_tử</w>
tự _nhiên</w>
l ai</w>
b inh_
kh ắp</w>
gi ật_
ạ o</w>
l e</w>
khó _kh
khó_kh ăn</w>
đại_ nhân</w>
đ âm</w>
quan_ hệ</w>
hạ _
đ ối</w>
đ ài</w>
nh ịp</w>
huy nh_
m o
võ _lâm</w>
ch ất_
c ăn_
h à</w>
đ ể
_th ương</w>
n_tho ại</w>
tiế t</w>
h ận</w>
ng ành</w>
thu ật</w>
sa u_
kh í
đề _
th ừa_
bảo_ vệ</w>
bậ c</w>
cao_th ủ</w>
t à
s iêu</w>
nhạ c_
_h ợp</w>
th ông</w>
nhân_ vật</w>
t am</w>
á p</w>
e r</w>
x ác</w>
kết_ quả</w>
ngh iên_
ầ n_th
hà ng_
l ắng</w>
thông_ tin</w>
_ động</w>
đ óng</w>
ngh ệ</w>
ho àn</w>
th ường_
n ét</w>
đàn_ bà</w>
ng_l ẽ</w>
l ộ
iế u</w>
th ơ</w>
tiế p_
iề m</w>
đ t</w>
x ác_
k ỹ</w>
c ường</w>
phản_ hồi</w>
ụ t</w>
gi ường</w>
ph ạm_
x ông</w>
tr anh_
biế n_
l ối</w>
lo ng_
ng ân_
xu ân_
ch _l
m ê</w>
đ ưa_
c ười_
th e
v ung</w>
qu ý</w>
chương_ trình</w>
l úc_
m ô
đ ăng</w>
ké m</w>
qu ỷ</w>
x ã</w>
liên_ quan</w>
ho ạch</w>
ườ n</w>
nghiên_ cứu</w>
l ệ</w>
g ó
_ nào</w>
huynh_ đệ</w>
n ội</w>
ch ùa</w>
lạnh_l ùng</w>
thu ỷ</w>
có _
m ưa</w>
y ến_
d ứt</w>
biể u_
n ữ
b ăng</w>
t ĩnh</w>
n_t ại</w>
x a_
g o
đị a</w>
giật_ mình</w>
m ar
ph ù
i m_
th ật_
m ỹ
ề n_th
m ón</w>
gi ấy</w>
m á</w>
âu_ dương_
chắc_ chắn</w>
gh ế</w>
đị nh_
nh ắc</w>
k ỹ
r ộng</w>
lúc_ nào</w>
v ân_
tu ần_
ng ón</w>
iể n_
tham_ gia</w>
trị nh_
mộ c</w>
tổ ng_
gi ới_
u ận</w>
chiế u</w>
uố i</w>
ph im</w>
th ậm_
_s ự</w>
ẫ y</w>
th ăm</w>
tr ốn</w>
l ục</w>
th uy
kho á</w>
bạ t_
thiế t</w>
c ốc</w>
mộ c_
tuy ển</w>
đ ập</w>
tr ình_
k ỷ
c o</w>
nh ị
è m</w>
b ắc_
tr ừ</w>
b uộc</w>
nghĩ a_
đ inh_
trở_ nên</w>
v ũ</w>
hã i</w>
à n_th
lo_ lắng</w>
ẫ m</w>
bả n_thân</w>
1 5
kh ủ
nh ằm</w>
c ướ
_s ở</w>
tr iều_
tr úc</w>
v ây</w>
n a</w>
ắ m_
ch a_
s ẵ
c ục</w>
v ận</w>
õ i</w>
x i
thậm_ chí</w>
bả n_
d ành</w>
tiế t_
yêu_ cầu</w>
ng ũ</w>
nh iệm</w>
ướ t</w>
h át</w>
ho ang_
v ận_
t ỏ</w>
t iện</w>
l ượt</w>
gi a
h ỗ
p a
ờ _
gi ỏi</w>
b a_
đ èn</w>
t ây_
s ản</w>
h ơn_
chỉ _
h ữu</w>
l a_
v ợ
t ối_
chiế m</w>
điệ n_thoại</w>
ú a</w>
r uộ
giáo_ chủ</w>
đ ào</w>
l ịch
_s ư</w>
m ôi</w>
c ụ</w>
th ú</w>
kh u_
mẫ u</w>
trá ch</w>
n ếu_
ch ứng</w>
câu_ chuyện</w>
nh ẹ
ngh ỉ</w>
an d
tr ương</w>
cơ m</w>
201 9</w>
k ế_
ch ém</w>
iê n_th
đ ương_
m e
b óng_
l y</w>
b ầu_
hiệ u_
lão_ phu</w>
bí _mật</w>
t an</w>
đ a_
c ử</w>
cuộc_ sống</w>
qu ỷ_lệ</w>
chủ _t
kinh_ hãi</w>
tr ần</w>
đ a</w>
t ận</w>
ầ ng</w>
ch ớ
n_ ng
hiện_ nay</w>
h út</w>
bác_ sĩ</w>
g d
th ì
đ ô
hơn_ nữa</w>
đưa_ mắt</w>
m ùi</w>
ù m</w>
c e
r ăng</w>
d ây</w>
nếu_ như</w>
qu a_
c ất_
b ởi_
ch e
/ 0
ti n_t
tiế c</w>
t iệ
ch ậm</w>
đ àn</w>
h ôn</w>
h i
p i
báo_ điện_tử</w>
má y_
2 0</w>
d e
đ ằng</w>
h ầu</w>
tuy ển_
hy_ vọng</w>
h ọ
ch ì
thanh_ ngân</w>
/ 2012</w>
qu ần_
ờ _đ
thiếu_ nữ</w>
quốc_ tế</w>
tr ại</w>
đ ốc</w>
ch o
/1 2</w>
ph ải_
yến_ phi</w>
tr ẻ_
cho_ nên</w>
m ay_
th ất</w>
qua n_tâm</w>
thu a</w>
uộ n</w>
l ùi</w>
biể u</w>
k iều</w>
b ữa</w>
tuy ên_
bất_ cứ</w>
ẫ n_
m ất_
b á</w>
c ực</w>
mộ _d
d ặ
t ả</w>
là ng</w>
d ao</w>
nh anh_
ánh_ sáng</w>
ng ầm</w>
kho a</w>
c ắt</w>
_h iểm</w>
ã o</w>
gi ang</w>
ạ c</w>
ù _
thành_ công</w>
s ố
ph ật</w>
b ó
_thế_ nào</w>
s ắt</w>
huy ền</w>
l ẫn</w>
đ ăng_
tình_ hình</w>
tr ực_
nh ỏ
ph ần_
huy ền_
ổ ng</w>
cơ_ quan</w>
iê m_
g ồm</w>
g óc</w>
tiế ng_
t ú
lý _h
h ổ</w>
ồ i_
hạ nh_
đ ất_
g ỗ</w>
n_ s
tinh_ thần</w>
chủ_t ịch</w>
x ử</w>
qu ận</w>
t ết</w>
_s ử</w>
t ặng</w>
d ầu</w>
bất_ ngờ</w>
đ iể
tì m_
ch ụp</w>
k í
lớ n_
h ộ</w>
n ương</w>
vội_ vàng</w>
c m</w>
th ẩm_
m ai_
kh ẳng_
người_ dân</w>
thực_ sự</w>
nh ật</w>
ch ảy</w>
_v ăn_
ho ang</w>
í t_
th a</w>
l ầm</w>
c ỏ</w>
kinh_ tế</w>
m ắc</w>
5 /3</w>
n ụ</w>
đầu_ tư</w>
bình_ thường</w>
sau_ này</w>
s a</w>
đ ỗ
bị _thương</w>
tiểu_ phàm</w>
t ao</w>
m ái</w>
_t ình</w>
như _thế_nào</w>
u ỷ</w>
k ình</w>
cá nh_
t er
ngu ồn</w>
l ời_
xung_ quanh</w>
k a
d ĩ
t ạ</w>
c á</w>
h ung_
khuyến_ học</w>
n iềm</w>
x ếp</w>
ngo ại</w>
tr ao</w>
tuy ết</w>
ượ n</w>
cướ p</w>
vì _thế</w>
s ơn_
_v ị</w>
n âng</w>
_ con</w>
m ật</w>
nhẹ _nh
l ấy_
do n</w>
nu ôi</w>
nh ận_
tố t_
à o_
t ổ</w>
nh ã</w>
ng ô
đ ô</w>
tiền_ bối</w>
t à</w>
n_th ành</w>
ch ữa</w>
th ống_
d uy_
t úi</w>
s ở
bu ồn_
tr iển_
l ôi_
tình_ trạng</w>
mạ ch</w>
d ịch
n_ b
tr ầm</w>
nguy _hiểm</w>
b ỏ
chú _ý</w>
m ười_
c ờ</w>
qu ý
đối_ phó</w>
y ê
lu ồng</w>
tr ải</w>
m ộ</w>
kh ai_
sá t_
tr òn</w>
khu_ vực</w>
chuy ến</w>
í u</w>
mu a_
o án</w>
kế_ hoạch</w>
l ương_
tiểu_ thư</w>
h ệ_th
5 0</w>
cư ới</w>
t ức</w>
l iễ
sự_ kiện</w>
m ỗ</w>
n_đ àn</w>
dự a</w>
h ậu_
truy ền_th
nước_ mắt</w>
ch óng</w>
c a_
hệ_th ống</w>
n ổ</w>
khu ôn_
bu ông</w>
hình_ như</w>
p _h
diễ n_đàn</w>
ti ễ
thiếu_l âm</w>
khá ch
t ộc</w>
h ô</w>
quá i_
ý_ kiến</w>
hợ p_
ụ ng_
a p
t àn_
cử a_s
x inh_
d ị</w>
k ỷ</w>
xo ay</w>
ngạ c</w>
mạ nh_
h ương_
x ương</w>
ch e</w>
hồ i_
tu i</w>
3 0</w>
ả o_
cực_ kỳ</w>
ú t_
d i</w>
khẳng_ định</w>
kh ẩu</w>
c ất</w>
lý _t
vì _vậy</w>
m iền</w>
d áng</w>
ự ng</w>
tr í
vợ _ch
thân_ hình</w>
x inh</w>
thị _trường</w>
l iên_t
ng ó</w>
t ú</w>
trước_ đây</w>
trường_ hợp</w>
ả y_
toàn_ bộ</w>
l am</w>
gi ấu</w>
cá t</w>
cửa_s ổ</w>
khoa_ học</w>
s ợ
sa i_
t ậ
d i
_g ắng</w>
giú p_
n inh</w>
vợ_ch ồng</w>
tổ ng_th
cố _gắng</w>
v e
l ặ
iế c</w>
to à
hạnh_ phúc</w>
ra_ tay</w>
duy_ nhất</w>
ạ p</w>
ngh ề</w>
t ai_
m ơ</w>
quản_ lý</w>
chủ _
ẩ n_th
đ ảng</w>
ớ n</w>
v a</w>
lư ỡi</w>
_ ho
. 000</w>
vui_ vẻ</w>
mà_ còn</w>
m ôn_
ng_h ộ</w>
tr ộ
ứ _
ch ớ</w>
á n_
thế_ là</w>
_đ ệ</w>
hình_ ảnh</w>
v ă
thủ _t
ch ẳ
cử a_
hoà _th
v ô</w>
ủ ng_hộ</w>
đo ạt</w>
ú ng_
giải_ thích</w>
b ày</w>
lu ật</w>
o n</w>
chi a_s
ảnh_ hưởng</w>
thanh_ vân</w>
trương_ tiểu_phàm</w>
ngo ài_
r ỡ</w>
lưu_ dụ</w>
chia_s ẻ</w>
ch ín</w>
t ân_
đ ơn</w>
v ỡ</w>
dĩ _nhiên</w>
ph ân</w>
tức_ giận</w>
t ăng_
ng ại</w>
l ính</w>
bệnh_ viện</w>
x úc</w>
lã nh</w>
y _th
đ e
mua_ bán</w>
mạ t</w>
d o_
gi ờ_
dễ _d
thiế p</w>
the o_
chi m</w>
ao_ động</w>
tự a</w>
iế ng</w>
anh_ hùng</w>
để _ý</w>
v ật_
cá n_
h àn</w>
3 0
vừa_ rồi</w>
hiể m</w>
thể _nào</w>
v ậ
trung_ tâm</w>
c anh</w>
ngân_ hàng</w>
ủ i</w>
th ạch</w>
s ân</w>
kh úc</w>
/ 1</w>
b í</w>
điều_ kiện</w>
b lo
đ ốt</w>
s ứ</w>
công_t ác</w>
quá ch_t
tho áng</w>
đả m_
b e
nổi_ tiếng</w>
h ay_
mộ_d ung_
n_th ức</w>
nh é</w>
thả m_
iễ n</w>
h ai_
kiểm_ tra</w>
t ần_
i r
dư ỡng</w>
cứ u_
tổ ng</w>
a n_toàn</w>
qu ang_
d ữ</w>
tổng_th ống</w>
àn_th u</w>
giáo_ viên</w>
không_ khí</w>
c ộng_
1 2</w>
ng ược</w>
kiể u</w>
quần_ áo</w>
bất_ giác</w>
nh ật_
2 7
n e</w>
ch ạm</w>
mặc_ dù</w>
m ề
ch ấn_
k iệt</w>
cánh_ tay</w>
h ảo</w>
lý _do</w>
l ẽ</w>
đương_ nhiên</w>
v ọt</w>
giờ_ đây</w>
dễ_d àng</w>
lý_h àn_thu</w>
_c ửa</w>
s óng</w>
b ẩm</w>
ng ăn_
đ ương</w>
lớn_ tiếng</w>
chính_ phủ</w>
n ấy</w>
công_ chúa</w>
1 6
ch ương</w>
e ng
tuyển_ sinh</w>
t ố</w>
đ ắc_
pho ng_h
n i</w>
_h ạ</w>
l iệt</w>
iễ n_
v âng</w>
m ê
qu e
d ấu</w>
im_ lặng</w>
tr ăng</w>
t ờ</w>
nh ạt</w>
b àn_
n ăng_
h ộp</w>
n_t ượng</w>
kiế n_
iệ p</w>
lo an</w>
chuy ển_
giải_ quyết</w>
phong_h àn</w>
g a
/1 1</w>
á ng_
tu ấn</w>
sư _huynh</w>
dặ m</w>
t ươi</w>
tuy ết_
ch ào</w>
á t_
nhẹ_nh àng</w>
cổ ng</w>
n ền</w>
ỡ ng_
m ây</w>
quy_ định</w>
giao_ diện</w>
m ảnh</w>
ru n</w>
cả i_
th iện</w>
b ất</w>
lợi_ hại</w>
quả _nhiên</w>
trước_ mắt</w>
ph ổ
nhân_ viên</w>
so ái</w>
l ăng</w>
cán_ bộ</w>
l ực_
lãnh_ đạo</w>
lấy_ làm</w>
v ết</w>
th iệu</w>
th ượng</w>
b ào</w>
ị u</w>
ng âm</w>
t o_
c à
v ườn</w>
iế n</w>
bởi_ vì</w>
hạ nh</w>
_t ay</w>
hà o</w>
đ à</w>
1 1
bạ ch
tr ợ
m ệnh</w>
v ẽ</w>
t ùng</w>
khuôn_ mặt</w>
gi ành</w>
gia o_th
c ẩn_th
điều_ tra</w>
lịch _sử</w>
cẩn_th ận</w>
sợ _h
ch ó</w>
tập_ trung</w>
ti ề
s úng</w>
_h àng</w>
bạt_ phong_hàn</w>
l ỗi</w>
thiếu_ niên</w>
d iệu</w>
g ạt</w>
l iên</w>
đ an</w>
sợ_h ãi</w>
quả _thật</w>
hiể u_
c ấm</w>
đăng_ ký</w>
chuy ên</w>
đ iền_
đ ựng</w>
b ò</w>
iệ m_
ng ư
iế p</w>
h ưng</w>
_m ã</w>
g ốc</w>
huy ết</w>
1 4
hiệ n_tại</w>
th ưởng</w>
ph ạt</w>
_th uật</w>
k iều_
to n</w>
thanh_ niên</w>
điể m_
_s ố</w>
khá c_
d âng</w>
th ú
ị t</w>
d u</w>
t ống</w>
kh ởi_
g ấp</w>
toà n_thân</w>
đề_ nghị</w>
chiế n_th
x ử_l
th âm_
t ấn</w>
ngh ệ
1 2
x ấu</w>
th ảo</w>
nhất_ là</w>
giám_ đốc</w>
m ồ
c ây_
ch_ nhiệm</w>
m ưu</w>
r ối</w>
giả n</w>
c ầm_
ch én</w>
x ứ</w>
gi ai_
diễ n_
blo g
k ín</w>
v ạn_
doanh_ nghiệp</w>
kho ản</w>
h ứ
th ơ
t ần</w>
ph òng_
d õi</w>
nguyên_ nhân</w>
dự_ án</w>
ch ậm_
tay_ trái</w>
s ử</w>
trá ch_nhiệm</w>
eng li
y ếu_
ng ũ
b ằng_
gh i</w>
d uy
l ôi</w>
ng ắn</w>
vị _trí</w>
tuần_ báo</w>
_th ực</w>
cá t_
thủ _đ
engli sh
quan_ sát</w>
h a_h
t ội_
ng ữ</w>
chú c</w>
b ấy_
v òng_
thu ận</w>
xử_l ý</w>
hà i_
đ òi</w>
_t ấm</w>
th ang</w>
l âu_
l ướt</w>
p da</w>
ả ng_
n ông_
english _sự</w>
blog _tấm</w>
thông_ báo</w>
_tr ưởng</w>
trọ ng_
ũ ng_
là nh</w>
_ph òng</w>
ne w
t ứ</w>
cơ _thể</w>
xinh_ đẹp</w>
thá nh</w>
tr à</w>
cử u_
ch ốn</w>
n d</w>
hà o_
m àn</w>
hoà ng_th
thực_ tế</w>
ơ i_
đến_ nỗi</w>
t ầng</w>
sa n</w>
_tr ợ</w>
không_ thể_nào</w>
bổ ng</w>
tự _
nh iễ
kh en</w>
ph ận</w>
lời_ nói</w>
ch ấp_
tạ m</w>
l ao_động</w>
b ãi</w>
d ã
thật_ sự</w>
th ôn</w>
hiện_ giờ</w>
i s
hoà_th ượng</w>
hoà i_
ho ả</w>
th ổi</w>
thanh_ âm</w>
tình_ cảm</w>
ã n_
ngh èo</w>
t ầm_
ự a_
ã ng</w>
gd đt</w>
m ong_
r ãi</w>
quả n</w>
cơ _sở</w>
hạ_ mạt</w>
n ở</w>
h ạn</w>
nh a</w>
l ăng_
th an</w>
_v ụ</w>
sản_ phẩm</w>
la ng
l iếc</w>
uố ng_
l ũ</w>
nó ng_
ph a</w>
địa_ phương</w>
ch ống_
h a
b ù
quy ền_
ngh ìn</w>
s ân_
th uộc_
t ái_
d ấu_
p o
thá nh_
qu ỳ</w>
n a
họ p</w>
gi ấc</w>
t ông</w>
đ ích</w>
_đ ồ</w>
tiế p_th
b s</w>
ê nh</w>
không_ chỉ</w>
k iên_
v ách</w>
h ả</w>
c k</w>
e t
s ắc_
ch ức_
ì a</w>
h ữ
_b ăng</w>
thầ y_
ằ n</w>
n ém</w>
qu ỷ
b ụi</w>
lo ạt</w>
n ợ</w>
_tr ình</w>
đ iề
c ụ
_l ạ</w>
s te
a_ hồ</w>
2 9
â t</w>
s ạch</w>
hiể n_
tiễ n</w>
t_ m
2 6
nh ỉ</w>
ruộ t</w>
tuy ến</w>
nghiê m</w>
tr ưởng_
c ân</w>
du_ học</w>
nhà _n
đào_ tạo</w>
khủ ng_
1 1</w>
lang don</w>
g ương_
x úc_
_ khí</w>
tí ch_
hỗ _trợ</w>
_th ì</w>
nhanh_ chóng</w>
th a
kinh_ ngạc</w>
ne t</w>
g u
nhà _v
á p_
d ọc</w>
qu ê</w>
đánh_ giá</w>
h iên</w>
là n</w>
công_ an</w>
cảnh_ sát</w>
tr ống</w>
ch ứa</w>
co i_
d ịp</w>
đá p_
chị u_
_t u
hai_ mươi</w>
đồng_ ý</w>
ế _t
có_ mặt</w>
giao_th ông</w>
phá _th
đ ình_
l ăn</w>
1 8
cha_ mẹ</w>
b ước_
p u
nghi_ ngờ</w>
đ óng_
giúp_ đỡ</w>
v n</w>
n ọ</w>
th ổ
v ỗ</w>
kiế m_
m iếng</w>
t ệ</w>
ữ a_
nhà _sư</w>
hoàng_ đế</w>
sự_ việc</w>
1 7
v ãn</w>
nhà_n ước</w>
ẹ o</w>
vui_ mừng</w>
thuố c_
đ ổ
ă ng_th
tr ời_
mạ c</w>
đ eo</w>
th ốt</w>
c k
t ác</w>
d ạng</w>
m ượn</w>
to an</w>
y ến</w>
l ọt</w>
_ch ịu</w>
h ướng_
nh iệm_
ch ế_
_t ưởng</w>
chủ _nhân</w>
mặt_ trời</w>
hà m_
nhân_ dân</w>
tr ùng</w>
2 4
ng uyện</w>
cá i_
đầ y_
đảm_ bảo</w>
t ưở
cuộc_ đời</w>
đơn_ giản</w>
t ớ</w>
trẻ_ em</w>
tiểu_ nhân</w>
ké o_
hà n_
m uộn</w>
c ừ
th ản_
g ác</w>
i l
k ính_
d ạ
b ội</w>
thế _thì</w>
gương_ mặt</w>
p .</w>
cá _nhân</w>
phải_ chăng</w>
h ộ
1 5</w>
hạ t</w>
p e
gi ây_
b ầu</w>
ho ảng</w>
chấp_ nhận</w>
_ bất_
m ôi_
ỏ i_
h ư</w>
s óc</w>
trương_ vô_kỵ</w>
n iệm</w>
s uy
d ù_
và o_
bỗ ng_
_c ơ</w>
huy ết_
tr eo</w>
s ống_
tình_ thế</w>
r ắn</w>
_v ương</w>
c ư</w>
n ắng</w>
chẳ ng_lẽ</w>
th ừa</w>
_ch ủ</w>
d ũng</w>
cho_ phép</w>
t t</w>
th ù</w>
cất_ tiếng</w>
đá o</w>
ngh ỉ
jo bs</w>
ươ c</w>
c an</w>
v ết_
b ài_
ổ n</w>
b út</w>
giới_ thiệu</w>
tr ò
mô t</w>
thái_ hậu</w>
ngh ị
đo àn_
bình_ tĩnh</w>
ch ặn</w>
g à</w>
ẹ t</w>
b ốc</w>
đ ức_
c li
sự _thật</w>
s âu_
gh i_
ị nh</w>
h ứa</w>
g ặ
v u_
ch ấp</w>
đau_ đ
u b
h ầm</w>
_tr ị</w>
th úc_
ộ n</w>
d iệ
h ối_
độ i_
trộ m</w>
v ấn</w>
ươ n</w>
kỳ _d
ch ỉnh</w>
ch ờ_đ
ằ m_
kh ối</w>
chờ_đ ợi</w>
thái_ độ</w>
lã _bất_
ai_ nấy</w>
iế t_
ch í
v ải</w>
nhị n</w>
n ô</w>
lã_bất_ vi</w>
b iện_
tương_ lai</w>
yê n_tâm</w>
gi an_
ng ắm</w>
iế m</w>
bóng_ đá</w>
tiêu_ điểm</w>
u_ d
tạ m_
mạ o</w>
dịch _vụ</w>
lực_ lượng</w>
kh inh</w>
cô _
ử ng</w>
s ợi</w>
d ần_
x ây</w>
_v iên</w>
l ẩm_
_ lại</w>
t ắt</w>
đ inh</w>
chị _
x ăng</w>
công_ nghệ</w>
ph ụng</w>
_b ình</w>
é t_
tu ỳ
nhà _th
ố n_
đau_đ ớn</w>
u a</w>
n ặ
_th ân</w>
ngoài_ ra</w>
lý _tr
h i_
2 8
k o
ngày_ càng</w>
tin_t ức</w>
s ắp_
i l</w>
th èm</w>
kh ô</w>
thể _h
khó i</w>
trầm_ ngâm</w>
t án</w>
m iễn_
sản_ xuất</w>
công_ lực</w>
l ựa_
tư _mã</w>
tích_ nhân</w>
b ọc</w>
r y</w>
quách_t ĩnh</w>
2 5
cả n</w>
lựa_ chọn</w>
kéo_ dài</w>
e s</w>
th ỉnh_
chất_ lượng</w>
tự a_hồ</w>
b er
ý_ nghĩ</w>
ò m</w>
tr ôi</w>
ng ô</w>
qu à</w>
lu ật_
l ừa</w>
s ảnh</w>
âu_dương_ hải</w>
_h ữu</w>
thông_ minh</w>
t ả
n át</w>
đ iên</w>
s ướng</w>
gi ật</w>
d iệt</w>
bả ng</w>
tưở ng_t
ph ản</w>
t ĩnh_
g an</w>
d ặn</w>
no n</w>
kh ắc_
h ắc</w>
hoàng_th ượng</w>
ph ùng_
d ược</w>
đ ỗ</w>
c ãi</w>
_th ủ</w>
t p.</w>
th ả</w>
thuộc_ hạ</w>
c ần_th
ổ n_
x ấu_
độ ng_t
nhất_ thời</w>
0 0
tìm_ kiếm</w>
t e</w>
ng uyệt</w>
2 3
ẻ o</w>
ươ i_
thế_ mà</w>
tr ưa</w>
ng ăn</w>
l ỗ</w>
á m_
tuyên_ bố</w>
h ẹn</w>
u ỷ
kh a</w>
1 3
c_ độ</w>
m ắn</w>
h ét</w>
chớ p</w>
hiế u_
l ầu</w>
xem_ ra</w>
e s
_ quái</w>
mộ ng</w>
t ỉnh_
ch ư
tiến_ hành</w>
đ ống</w>
m úa</w>
d a
_s ơn</w>
hiệu_ quả</w>
báo_ cáo</w>
v ùng_
ẩ ng</w>
ề _
tho ảng</w>
h ừ</w>
to ả</w>
thả o_
dần_ dần</w>
thân_ thể</w>
ữ ng_
thủ_t ướng</w>
hay_ là</w>
v e</w>
ế m</w>
qu y</w>
lý_tr ọc</w>
ó i_
t u</w>
ng ẩng</w>
tiếp_th eo</w>
vết_ thương</w>
cho_ dù</w>
kiế n_thức</w>
phụ _huynh</w>
ẫ u_
v ụ
ph ất</w>
sư _đệ</w>
ng ược_
giá m</w>
đ ỏ
n ãy</w>
thể_h iện</w>
c ộng</w>
quy ển</w>
n_ r
v ươn</w>
l ẽ
huy ề
c ự
p ar
ph en</w>
th ượ
ph ủ
chính_ thức</w>
nguyễ n_th
hư _tr
l ỗ
r ửa</w>
ho ạt</w>
nặ ng_
gi ận_
phương_ pháp</w>
theo_ dõi</w>
on e</w>
bạ ch_
bá ch</w>
nh ẫn</w>
kinh_ nghiệm</w>
th ức_
giá _trị</w>
/ 2011</w>
đ í
l ễ
môi_ trường</w>
đả m</w>
học_ tập</w>
ch iêu_
ch ợ</w>
kỳ _lạ</w>
v ững</w>
t ặc</w>
tr iều</w>
m ẹ
hu y</w>
r âu</w>
may_ mắn</w>
tự _do</w>
ng ắt</w>
chi a_
sẵ n</w>
n_t u
công_ bố</w>
b i_
r ớt</w>
đối_ thủ</w>
nh iệt</w>
thị _tr
nội_ lực</w>
đ ôi_
h ar
đ ùa</w>
truy ền_
us d</w>
c ột</w>
t ầm</w>
cu a</w>
kết_ thúc</w>
xi n_l
th ứ
2 1
tr ợ</w>
k e
trực_ tiếp</w>
đ ói</w>
quá _trình</w>
một_ hơi</w>
chính_ trị</w>
d ắt</w>
c ốt</w>
_th ù</w>
đau_ khổ</w>
_l uận</w>
gh ét</w>
th iên_th
tiệ c</w>
gh ê
kiế p</w>
đạ p</w>
th ước</w>
2 2
gặ p_
bá nh</w>
_h uy</w>
s iêu_
ng ôn</w>
bạ n_b
âm_ thanh</w>
xin_l ỗi</w>
bạn_b è</w>
nh ậm_
gi ặc</w>
tiếng_ nói</w>
thực_ ra</w>
uyệ n_
s ay</w>
mục_ đích</w>
b ớt</w>
đ ứt</w>
m ới_
gó p_
thì _ra</w>
tướng_ quân</w>
phản_ ứng</w>
à u_
h ôi</w>
m ơ
ha_h ả</w>
kh ích</w>
mồ _h
giáo_ sư</w>
nh u</w>
ngày_ mai</w>
thiết_ mộc</w>
te r</w>
thu ê</w>
bá t_
s ĩ
d ược_
đ ả</w>
tư _
h ứng</w>
chăm_ chú</w>
n_đ ồ</w>
d ò</w>
m ệ
b ếp</w>
máy_ bay</w>
k ịch</w>
đạ n</w>
hữ u_
hiển_ nhiên</w>
s ốt</w>
lý _thế_
cu ồng_
chiến_th ắng</w>
đông_ phương_
ú p</w>
kh ấu</w>
nh ắm_
d u_l
th ác</w>
lý_thế_ dân</w>
vũ _văn_
nh u_
hồ n_
_l ã
l ịch</w>
đồng_ hồ</w>
t p</w>
mồ_h ôi</w>
s ung</w>
ng ộ</w>
ch u</w>
từ _ch
tài_ chính</w>
so n</w>
nh ảy_
mặt_ đất</w>
thời_ điểm</w>
kh uyên</w>
a l</w>
ph óng_
h ắc_
tr ong_
nhiệm_ vụ</w>
ngo n</w>
m ực</w>
nước_ ngoài</w>
vậ y_
tưởng_t ượng</w>
ch ấm</w>
hợ p_t
h ùng_
triều_ tiên</w>
đ òn</w>
c ự</w>
từ_ch ối</w>
sẵ n_s
ể _
vậy_ mà</w>
sẵn_s àng</w>
ngược_ lại</w>
mục_ tiêu</w>
đ iệu</w>
tuyệt_ đối</w>
lẩm_ bẩm</w>
đ ời_
v inh_
một_ vài</w>
t y</w>
tất_ nhiên</w>
uố c</w>
h è</w>
thư _
in ter
b ức_
chu ẩn</w>
_b inh</w>
c ởi</w>
_ph ận</w>
đà m_
đ iền</w>
vô _t
o ạn</w>
t ươi_
ngày_ nay</w>
kh ẩn_
e l</w>
mà_ lại</w>
_m ẹ</w>
chiế n_đ
tốt_ nghiệp</w>
h cm</w>
ấ p_l
ý t</w>
chì m</w>
tr ắng_
bỏ _
cu ồng</w>
_th ị</w>
chị_ em</w>
chiến_ tranh</w>
tr ừng</w>
ng ưng</w>
bệnh_ nhân</w>
_ quyết</w>
liên_ hệ</w>
gi ọt</w>
phụ ng_
hoàng_ dung</w>
_ việc</w>
hôm_ qua</w>
ẩ u_
_ph i</w>
_th ông</w>
ặ t_
ng_t ối</w>
t ê
r an
liên_t ục</w>
g m
liên_ tiếp</w>
gi àu</w>
công_ phu</w>
bó ng_tối</w>
ph iên</w>
chấn_ động</w>
su ất</w>
_tr ì</w>
m ông_
kỳ _sĩ</w>
chăm_ sóc</w>
v u</w>
s ửa</w>
m ại</w>
tho ả
_h ồ</w>
thị_tr ấn</w>
thiết_ kỳ_sĩ</w>
ub nd</w>
g ãy</w>
liễ u_
hoàn_ cảnh</w>
triển_ khai</w>
môn_ phái</w>
bố _mẹ</w>
c i
l ề
chiến_đ ấu</w>
_h ình</w>
ó c_
thạ ch
qu ế</w>
chu ông</w>
ch ấn</w>
ông_ già</w>
t ứ
mẫ u_
th ò</w>
m ù</w>
mở _cửa</w>
nhà _trường</w>
kh anh</w>
nh ắm</w>
ẵ ng</w>
ê m_
độ t</w>
không_ những</w>
_v ũ</w>
nh iệt_
hư_tr úc</w>
d ữ
t ỏ
m ệt</w>
thí ch
h uống</w>
bao_ lâu</w>
h o</w>
ri a</w>
khổ ng_l
v ệ
th ẳ
đá m_
khổng_l ồ</w>
ch ả</w>
điều_ trị</w>
đất_ nước</w>
t ỉ</w>
đ ãi</w>
t ận_
th ọ</w>
v inh</w>
s ương</w>
ng ôi_
hiế m</w>
_l ượng</w>
t ô</w>
l ấp_l
ir an</w>
đối_ diện</w>
t u_
s ót</w>
h ỏi_
đầy_ đủ</w>
đ ụng</w>
n_th ương</w>
k iên</w>
c ận</w>
t âu</w>
nh ập_
hoà n_thành</w>
t ỉ
nội_ dung</w>
x âm_
ngu y</w>
m ắng</w>
ý_ nghĩa</w>
tiết_ lộ</w>
ap p
thất_ bại</w>
th ập</w>
tr inh</w>
tiêu_ phong</w>
ch ốc</w>
h iề
_th ần</w>
á y_
qu ét</w>
h i</w>
đu a</w>
ho an_
g ỡ</w>
đơn_ vị</w>
ít_ nhất</w>
g ương</w>
nghiê ng</w>
h á</w>
không_ gian</w>
d ung_
_c ập</w>
đu ôi</w>
tr ao_
ti a</w>
b ar
tr úc_
_th ư</w>
h ở</w>
x óm</w>
trá c_
r ộng_
ph i
m ẫn</w>
huy ên</w>
du_l ịch</w>
c ứng</w>
u ý</w>
bổ n</w>
thành_ viên</w>
f a
hành_ vi</w>
s t
khá nh</w>
chớ p_
c ành</w>
nh íu</w>
m ô</w>
đối_ tượng</w>
m óc</w>
c ước</w>
t ê</w>
r ối_
kho e</w>
i .
vũ _tr
đến_ nơi</w>
xem_ xét</w>
e m_
trái_ tim</w>
ph iền</w>
c am_
l ông</w>
tay_ phải</w>
binh_ khí</w>
ư ng_
tố c_độ</w>
lạ y</w>
thá p</w>
cung_ cấp</w>
t ph
võ _
so át</w>
b ông</w>
thạ ch_
ủ a</w>
vi d
kỹ _thuật</w>
ch âm</w>
thường_ xuyên</w>
đại_ diện</w>
tử _v
m ù
l eo</w>
l ệ
thuy ết_
s i</w>
phục_ vụ</w>
mề m</w>
lặ ng_lẽ</w>
li a</w>
ụ a</w>
danh_ sách</w>
ch ở</w>
n ối</w>
đ ấu_
thu ý
m ồm</w>
ph ả
hoà ng_h
t c</w>
nh o
r ốt_
n ạn_
lo ài</w>
ắ n_
khó _chịu</w>
_v ệ</w>
_s ạn</w>
tu ân</w>
biện_ pháp</w>
b ổ</w>
g ối</w>
khách _sạn</w>
b ái</w>
d u
ngh ệ_th
x ử
ph ú
tầm_ thường</w>
tình_ huống</w>
v a
n_th anh</w>
h ít</w>
d ẫn_
m át</w>
cảm_ ơn</w>
gó p</w>
_t âm</w>
1 3</w>
học_ trò</w>
kh ôn</w>
cụ _thể</w>
giả ng_
đ è
bấy_ giờ</w>
tức_ là</w>
_v ăn</w>
kho ảnh_
ch ứ
khiế p</w>
th iền</w>
s ài_
dị u_d
bất_ kỳ</w>
dịu_d àng</w>
b ệ
b ối_
tuy ền</w>
khoảnh_ khắc</w>
to p</w>
ra_ mắt</w>
đí ch_th
tạ p</w>
h ang</w>
th ôi_
_ như</w>
văn_ bình</w>
gh é</w>
mộc_ phong</w>
t ề</w>
n ão</w>
_ng ơi</w>
phù _hợp</w>
hoả ng_
d uyên</w>
đá y</w>
kho ái</w>
cần_th iết</w>
l ú
o u
_th ường</w>
đ iên_
a s</w>
d ập</w>
g òn</w>
_ an</w>
app le</w>
l y_
kh ắp_
hợp_t ác</w>
khắp_ nơi</w>
k ê</w>
m ưu_
ph ối_
tu ổi_
chỉ _huy</w>
xác_ định</w>
lu ôn_
đ ậu</w>
ng ự</w>
luôn_ luôn</w>
c ấp_
tr àn_
th iên_t
h ất</w>
_ giá</w>
kh ăn</w>
tr ì</w>
ph o</w>
tu ỳ</w>
đi_ lại</w>
_n iệm</w>
thẩm_ mộc_phong</w>
l ật</w>
tr ăm_
m ừng_
ch ắp</w>
thủ _hạ</w>
giá p</w>
l y
so ng_
bá nh_
tr án</w>
d ư</w>
do ãn_
t ốn</w>
th ê
bá m</w>
bá ch_
việ c_
tham_ dự</w>
ơ _ng
khá m_
c anh_
_ph ương</w>
thiết_ kế</w>
ba_ mươi</w>
r ực</w>
j a
0 7
u ni
v ĩnh_
chu i</w>
n_đ ại</w>
má y_t
gi ây</w>
y_t ế</w>
ho a_th
ng ạn</w>
chậm_ rãi</w>
khá n_
m ông</w>
cli p</w>
ng ốc</w>
khách _hàng</w>
nữ _sinh</w>
xe _
giận_ dữ</w>
phát_ giác</w>
hã ng</w>
d ối</w>
đặ ng_
phá n</w>
d e</w>
nạn_ nhân</w>
nghỉ _ngơi</w>
s ữa</w>
tác_ giả</w>
nhắm_ mắt</w>
th ét</w>
ho ài</w>
kh ang_
_đ ề</w>
hạ n_
ph an_
tr ào</w>
k y</w>
cô_ giáo</w>
k ẻ
sá nh</w>
đề _phòng</w>
đ ó
f i
tí ch
ng ữ
inter net</w>
đại_ gia</w>
tr i_
t ồ
nh ục</w>
d ính</w>
s àn</w>
_ch i_
trưởng_ lão</w>
ph ú</w>
ng ơ_ng
ì m</w>
tướng_ công</w>
ch ết_
th ống</w>
t ương</w>
g a</w>
thá o</w>
s e</w>
ằ ng_h
thơ m</w>
khá ch_
n ỗ
mẹ _con</w>
nh ường</w>
ng ột</w>
hiế u</w>
cố _ý</w>
bộ _
vừa_ mới</w>
má i_
ấ n_tượng</w>
t ỷ
sa y_
pu tin</w>
v ỏ</w>
thạ ch_th
p_l ực</w>
n .
ợ n</w>
ẫn_ n
quân_ sự</w>
giây_ lát</w>
d ốc</w>
v ã</w>
tuyết_ kỳ</w>
quân_ đội</w>
_ pháp</w>
vô _tình</w>
vi et
ph ò
nguy _cơ</w>
m ẽ</w>
thả m</w>
bộ _trưởng</w>
tử_v ong</w>
l ĩnh_v
xuất_ sắc</w>
ng ửa</w>
đ o</w>
x ương_
g ói</w>
_l iệu</w>
m ọc</w>
thủ_đ oạn</w>
ung_ thư</w>
c ỗ</w>
chịu_ đựng</w>
m y</w>
chủ _nh
nguy ê
phối_ hợp</w>
n ảy</w>
c ắn</w>
h ôn_
tồ n_tại</w>
nghiêm_ trọng</w>
ch _d
ăng_th ẳng</w>
ăn_ uống</w>
thức_ ăn</w>
c ăng_thẳng</w>
g e
chính_ sách</w>
ế ch</w>
_đ ại</w>
t àn</w>
_th iên_
ra_ lệnh</w>
tí n_
t_m ỏi</w>
n ề</w>
mệ t_mỏi</w>
ẫ u</w>
ải_ mái</w>
tho ải_mái</w>
m iếu</w>
lĩnh_v ực</w>
công_ trình</w>
ph úc_
t é
1 7</w>
tr ùm</w>
m ũ</w>
1 00</w>
thất_ vọng</w>
_s ơ</w>
văn_ phòng</w>
mạnh_ mẽ</w>
v o
k u
in e</w>
th ê</w>
b ực_
đ ằng_
dân_ tộc</w>
4 /3</w>
w a
tin_t ưởng</w>
c ú</w>
_tr ách</w>
tr ồng</w>
b ừng</w>
200 8</w>
1 /3</w>
kh e
bầu_ cử</w>
_th ức</w>
tr ấn</w>
nhật_ bản</w>
đ ê</w>
quảng_ cáo</w>
đồ _
biến_ sắc</w>
tâm_ sự</w>
to_ lớn</w>
chính_ xác</w>
đột_ ngột</w>
ng ay_
chuyên_ gia</w>
nhu_ cầu</w>
hiểu_ phong</w>
b iệt_
s ung_
mạ c_
cừ u</w>
chỉ_ đạo</w>
hiể m_
k a</w>
th ục</w>
giai_ đoạn</w>
d ày</w>
th ụ</w>
tác_ phẩm</w>
lộ n</w>
kh ôn_
bỗng_ nhiên</w>
trang_ chủ</w>
pa d</w>
gi ày</w>
ĩ a</w>
việc_ làm</w>
ấ p_th
t .
qu ỳ
b ơi</w>
tài_ sản</w>
ngôi_ sao</w>
l ần_
t ủ
k ị
_v ân</w>
cử u</w>
t á
ma_ giáo</w>
g ầm</w>
lư ới</w>
hội_ đồng</w>
kiều_ phong</w>
d ì</w>
vid eo</w>
khuy ết</w>
s uối</w>
v ời</w>
ẽ o</w>
th ổ</w>
mở _r
tai_ nạn</w>
mở_r ộng</w>
quá ch</w>
mạ o_
b ữa_
hu ế</w>
bà ng_
r ít</w>
bố _trí</w>
t ù</w>
thần_ sắc</w>
quy ên</w>
g ượng</w>
thanh_ tra</w>
th ăng</w>
bất_ luận</w>
2 5</w>
l i</w>
_v ấn</w>
tống_ cương</w>
kh inh_
t ụi</w>
t ẩu</w>
i pad</w>
hà _t
x ích</w>
đ âu_
b an
bầu_ trời</w>
_h ành</w>
c an_
t úc</w>
d ạo</w>
th ăm_
h ỏng</w>
_ mắt</w>
rốt_ cuộc</w>
c ắp</w>
do_ đó</w>
phá p_
c ớ</w>
qua n_t
lạ ng</w>
ban_ đầu</w>
máy_t ính</w>
cộng_ đồng</w>
nghệ_th uật</w>
m ật_
d ãy</w>
bước_ đi</w>
s ho
ch uộ
hạ t_
l an_
ng ấm_
chỉ_ tiêu</w>
k e</w>
thiếu_ gia</w>
gi ấy_
n_đ ổi</w>
t ưởng_
chi_ tiết</w>
cảm_ nhận</w>
c ân_
t ái</w>
kh ởi</w>
điệ n_
sử a_
l ơ
c ôn</w>
_d o
trao_ đổi</w>
ngấm_ ngầm</w>
nh i_
ng ẩn</w>
m an</w>
đầu_ óc</w>
cổ _ph
t ảng</w>
v í
thừa_ chí</w>
xúc_ động</w>
n én</w>
đặ c</w>
ph ức_
x ạ</w>
tr àn</w>
qua_ đời</w>
chia_ tay</w>
t ắm</w>
_t ố</w>
d áng_
sài_ gòn</w>
b éo</w>
thuy ết</w>
v ắng</w>
nhiễ m</w>
tr a_
l au</w>
ng ang_
c ar
v ẫy</w>
thú _vị</w>
ộ t_
ghê _g
ghê_g ớm</w>
trung_ nguyên</w>
lục_ tuyết_kỳ</w>
l ái</w>
ng_th ái</w>
é o_
nặng_ nề</w>
v ai_
ngu ỵ</w>
hã n</w>
f or
19 9
cư ỡi</w>
thông_ qua</w>
1 8</w>
trịnh_ vi</w>
thỉnh_ thoảng</w>
_ yên_
_v ật</w>
vũ_tr ụ</w>
al e
tự_ tin</w>
doanh_ doanh</w>
m ạn</w>
x á</w>
cá ch_
_d ụ</w>
, 000</w>
v ong</w>
l ăm</w>
kh ang</w>
hình_ thức</w>
đám_ cưới</w>
s _
đ iếm</w>
ng -
d ực</w>
hội_ nghị</w>
s y
bữa_ nay</w>
g ạo</w>
. ...</w>
ả m</w>
tr ừ
e _
v ay</w>
l ộc</w>
x é</w>
chứng_ kiến</w>
đ ẳng</w>
té _ra</w>
s ứ_
người_ yêu</w>
ngạ o</w>
l ừa_
hoa_ sơn</w>
hư ng_
kh ôi_
h iền</w>
ù n</w>
khủ ng</w>
vu a_
t ụ</w>
4 0</w>
phả n_đ
ng ớt</w>
ng_t ỏ</w>
ụ ng_t
đ ợt</w>
anh_ chàng</w>
â ng_
qu ỹ
m ến</w>
lo an_
cửa_ hàng</w>
n êu</w>
kinh_ hoàng</w>
gi ấ
phức_ tạp</w>
phản_đ ối</w>
m àn_
đ ai</w>
tr ừng_
hà n_đ
tính_ toán</w>
hiệ p_
lu ân</w>
c ạn</w>
s ờ</w>
giả _v
th ai</w>
an d</w>
an_ ủi</w>
giả_v ờ</w>
chớp_ mắt</w>
h ung</w>
2 /3</w>
v ụt</w>
f f</w>
ớ p</w>
/ 9</w>
nguyễn_th ị
gi am</w>
d ĩ</w>
nghĩa_ là</w>
lý _th
th ử
2 /2012</w>
ê nh_
kết_ luận</w>
x ét_
con_ bé</w>
vi_ phạm</w>
v ỗ
uy ết</w>
c ăm_
trước_ kia</w>
c ập</w>
ng ập</w>
hạn_ chế</w>
ố m</w>
có_ khi</w>
từ _b
tu ng_
h ổ
l ê</w>
c uộn</w>
_h ãn</w>
tình_ dục</w>
r ẽ</w>
thí _chủ</w>
29 /2</w>
khá m</w>
k êu_
b ồi_
7 8
t s</w>
ph u
nà o_
ng u_
chức_ năng</w>
bất_ quần</w>
n ấu</w>
w e
t ụ
tỏ _vẻ</w>
thầ n_th
chủ_ yếu</w>
tr i</w>
không_ chừng</w>
liễ u</w>
bất_ quá</w>
nhạc_ bất_quần</w>
trẻ_ con</w>
lề u</w>
ch ăn</w>
tr ạ
m e</w>
_lã nh_
như _băng</w>
ò i_
kh o</w>
đ ươc</w>
x ô</w>
lên_ đường</w>
hợp_ đồng</w>
0 %</w>
ngo an</w>
ứ t_
g ánh</w>
_l ệ</w>
n d
201 0</w>
lậ p_
que n_th
mừng_ rỡ</w>
bá _
c ắm</w>
bi a</w>
l òng_
đ iển</w>
hỗ n_
_b ụng</w>
phi_ thường</w>
y a</w>
r ồng</w>
d ũng_
lôi_ phi</w>
cao_ cường</w>
ra_ vẻ</w>
x à</w>
h ấp_
dù_ sao</w>
bao_ gồm</w>
h ảo_
ng ôn_
trung_ ương</w>
sáng_ tạo</w>
khu ê</w>
ú m</w>
r o</w>
kh úc_
đà _n
thiết_ bị</w>
g am
d ọn</w>
đà m</w>
lã ng_
năng_ lực</w>
nh ậ
h á
bỏ_ qua</w>
b ỏng</w>
ph ấn_
mỹ _nhân</w>
kh éo</w>
cử _động</w>
thạch _chi_
ph ẫu_
bù i_
1 6</w>
tìm_ hiểu</w>
_th ị
vô _l
al en
thạch_chi_ hiên</w>
đà_n ẵng</w>
hấp_ dẫn</w>
ổn_ định</w>
tăng_ cường</w>
hồ _sơ</w>
chung_ quanh</w>
_ ẩn</w>
vương_ gia</w>
o ai</w>
thì _th
nhân_ tài</w>
lã ng</w>
hành_ lang</w>
d ò
yêu_ thương</w>
b é
sá o</w>
người_ thân</w>
kh iển</w>
2 3</w>
th a_th
vô _số</w>
v er
tr àng</w>
kh ảo</w>
l én</w>
y o
m iên</w>
h ằng</w>
/1 0</w>
đ ẹ
khán_ giả</w>
việ n_
ti n_
b ề_
nhà_v ua</w>
ngh ịch</w>
phẫu_ thuật</w>
ch ép</w>
lợi_ dụng</w>
_t ính</w>
vai_ trò</w>
ph ấn</w>
k ỷ_l
n_t ĩnh</w>
n ộp</w>
r út_
di_ động</w>
như _thể</w>
hiề n_đ
ử a_
mề m_
t ỳ</w>
ờ _m
t àng</w>
l ữ
s ổ</w>
bá i_
lê _
â u_l
hợ p_l
tiến_ sĩ</w>
thản_ nhiên</w>
điệ p</w>
chế_ độ</w>
tậ p
lạ t</w>
hầu_ hết</w>
ph ật_
bạ o_
quen_th uộc</w>
tạ _t
tâm_ thần</w>
ph ổ</w>
th iệt_
x i</w>
thế_ kỷ</w>
hàn_đ ào</w>
lạc_ hi</w>
b ần_
mong_ muốn</w>
phá ch</w>
thực_ phẩm</w>
th âm</w>
r ung_
ch au</w>
kiểm_ soát</w>
bạ t</w>
tph cm</w>
loan_ loan</w>
giải_ pháp</w>
ch ữ
tr a
sắp_ xếp</w>
l ai_
l ắng_
d ồn</w>
tố _tố</w>
phương_ tiện</w>
j e
điều_ chỉnh</w>
hoà _bình</w>
chẳng_ những</w>
c e</w>
_c ực</w>
tổ n_thương</w>
ph ường</w>
chẳng_ thể</w>
n_đ ức</w>
biên_ hoang</w>
_ch ơi</w>
d ại</w>
khuy a</w>
biên_ hoang_
cái_ bang</w>
ó t_
ng .
b ằng_h
h y</w>
g r
v ả</w>
chi_ phí</w>
đá ng_
tr ói</w>
thống_ nhất</w>
đạ m</w>
một_ nửa</w>
tí n</w>
kho ang</w>
_t ài</w>
bằng_h ữu</w>
an_ ninh</w>
mũ i_
thừa_ nhận</w>
x anh_
que n_
lạ _l
hầu_ như</w>
buồn_ b
ung_ dung</w>
sh i
_th iên_th
g ót</w>
ch ào_
y_ phục</w>
nội_ công</w>
biên_hoang_ tập</w>
mái_ tóc</w>
vũ _khí</w>
tạ p_
biểu_ diễn</w>
ò _m
o k</w>
gi ục</w>
x en</w>
ý_ định</w>
tạm_ thời</w>
1 4</w>
6 0</w>
thế_ sung</w>
x ế
s ườn</w>
trợ n</w>
t í</w>
th am</w>
t é</w>
tạ_t ốn</w>
lạc_ dương</w>
đáp_ ứng</w>
chính_ quyền</w>
x ách</w>
khả _
kh ôi</w>
phá_th ạch</w>
dấu_ hiệu</w>
thân_ phận</w>
_h ương</w>
ợ i_
ph e</w>
vừa_ qua</w>
báo_ chí</w>
2 6</w>
đ ền</w>
đẹ p_
bố n_
th iệt</w>
l ường</w>
_m inh</w>
nh át</w>
h òn</w>
cá o_
tr ú</w>
căn_ cứ</w>
bả n_l
bá n_
cư ỡng</w>
khám_ phá</w>
thu ỳ</w>
kh ỉ</w>
tr ướng</w>
g ắn</w>
x ưa_
bất_ dịch</w>
tho át_
tính_ mạng</w>
o s
k ỵ
nh an_
m é</w>
s ơ</w>
kh e</w>
tr ông_
phùng_ phá_thạch</w>
b i</w>
tâm_ lý</w>
i s</w>
c ấu_
tr ực</w>
sở _hữu</w>
n ạp</w>
b ồ
tr uyện</w>
l ô</w>
bo m</w>
áp_ dụng</w>
d âm</w>
nh áy_
đ ồi</w>
e li
r ót</w>
ờ n</w>
đông_phương_ thanh_vân</w>
đ ài_
diễn_ viên</w>
_ nghiệm</w>
cá n</w>
cao_ ngạn</w>
bạ o</w>
tương_ tự</w>
to át</w>
giải_ thưởng</w>
ar d</w>
tr ân_
jo h
uy ến</w>
doãn_ hạ_mạt</w>
c au</w>
ọ t_
độ _vũ</w>
đó n_
thật_ ra</w>
_do ạ</w>
t ước</w>
ro i</w>
_ph ong</w>
nghĩ _bụng</w>
kỷ _yên_
g ục</w>
ỏ ng_
đạ t_
tiếng_ động</w>
thành_ lập</w>
nháy_ mắt</w>
hoang_ mang</w>
lăng_ độ_vũ</w>
lẽ _nào</w>
kỷ_yên_ nhiên</w>
ạ ng_
iê t</w>
ú i_
h ài</w>
b ụng_
v ơi</w>
lãnh_ như_băng</w>
i a</w>
tiểu_ hôi</w>
th ề</w>
t áo</w>
sung_ sướng</w>
khoa_ học_
đằng_ dực</w>
x í
t ang</w>
tr ống_
hướng_ dẫn</w>
r ũ</w>
_d anh</w>
mã nh</w>
ẫ m_
ng ất</w>
c s</w>
sai_ lầm</w>
e a
ch ôn</w>
tác_ dụng</w>
quảng_ bình</w>
ngu ỵ
h ễ</w>
liên_ lạc</w>
c ường_
8 0</w>
l ỡ</w>
thái_ tử</w>
bản_l ĩnh</w>
nh ãn</w>
lắng_ nghe</w>
_d ân</w>
t á</w>
đề_ xuất</w>
v ĩ
mở _m
n o</w>
b ưng</w>
3 /3</w>
đ uối</w>
thá c_
x ám</w>
tr u
m er
kh ốn_
châu_ âu</w>
kho ác</w>
học_ bổng</w>
v uốt</w>
xưa_ nay</w>
ng ô_t
k iề
d ây_
an na</w>
h ốt_
cư ỡng_
ẩ y_
c .
tuyệt_ vời</w>
_ph ê</w>
mu ôn</w>
tử _
tài_ năng</w>
nh ạn</w>
th iể
lý_ xuân_
c đ</w>
nh_l iệt</w>
số _lượng</w>
l ái_
tr ứng</w>
khủng_ khiếp</w>
ch ầm_
thu_ hút</w>
hiệu_ trưởng</w>
phần_ lớn</w>
cà _phê</w>
tr ẫm</w>
hu ỷ</w>
tâm_ hồn</w>
phụ _thân</w>
trước_ tiên</w>
vụ _việc</w>
h iền_
vương_ thế_sung</w>
b ến</w>
2 4</w>
mã nh_liệt</w>
biến_ hoá</w>
xác_ chết</w>
có_l ý</w>
bộ t</w>
nhanh_ nh
bá ch_l
_l òng</w>
âu_ thần</w>
tr ỏ</w>
ặ c_
r ẻ</w>
l ật_
k ể_
đ ùi</w>
triệu_ mục</w>
ho an</w>
g ậy</w>
tài_ liệu</w>
s o_
ầ y_
kể_ cả</w>
ch ửi</w>
thuyết_ phục</w>
thi_ thể</w>
ph iền_
điền_ bất_dịch</w>
thu ế</w>
t iệm</w>
đời_ sống</w>
đ ồn</w>
x ung</w>
n é
hu ỳ
truyền_ hình</w>
chẳng_ qua</w>
lạ nh_
vội_ vã</w>
tập_ đoàn</w>
b ề</w>
bà _
thời_ trang</w>
kh ống_
con_ số</w>
á p_lực</w>
v ĩnh_v
chầm_ chậm</w>
ngay_ lập_tức</w>
th iện_
vĩnh_v iễn</w>
th ình_
quyết_ tâm</w>
in do
lạ_l ùng</w>
khống_ chế</w>
b ì</w>
tr ấn_
t ách</w>
r e</w>
thuý _sơn</w>
t h</w>
đóng_ cửa</w>
r ung</w>
p p
ch án</w>
quả _thực</w>
m ổ</w>
ng_t úng</w>
kh âm_
giả ng</w>
n uốt</w>
hợp_l ý</w>
d ã</w>
cuộc_ chiến</w>
tà u_
l ắc</w>
khá ng_
biết_ đâu</w>
ầ n_t
t ật</w>
kẻ _thù</w>
k iêu_
ch _m
đe _doạ</w>
hối_ hận</w>
c l
o áng</w>
ngh iến</w>
c àn_
nổi_ giận</w>
di_ chuyển</w>
quốc_ hội</w>
sư_ph i_
chiế n_l
th iền_
phụ _trách</w>
từ _
ngo ái</w>
mông_ cổ</w>
mặt_ mũi</w>
h ẹp</w>
b ận</w>
nh ích</w>
_l an</w>
_d ương</w>
n ấp</w>
trọ ng_t
l ĩnh</w>
giấy_ phép</w>
cảm_ xúc</w>
ng_th ương</w>
nỗ _lực</w>
thuỷ _
x uống_
cổ _tay</w>
ng ờ_đ
m àu_
c ẩn</w>
_tr ang</w>
hiệ n_đại</w>
biế n_đổi</w>
sử ng_
góp_ ý</w>
ưở ng_th
t ỷ_lệ</w>
_nh ược</w>
ngờ_đ âu</w>
bình_ chi</w>
quá _kh
d ụng_
cứ ng_
hậu_ quả</w>
triều_ đình</w>
õ m</w>
nhận_ xét</w>
tiếp_ xúc</w>
kho ảng_
kho án</w>
nh ầm</w>
quen_ biết</w>
lần_ lượt</w>
e d
sửng_ sốt</w>
sư_phi_ huyên</w>
m ấy_
ti e</w>
một_ khi</w>
dân_ chúng</w>
giám_ sát</w>
thu ần</w>
cá m_
tiểu_ học</w>
c ro
n ương_
r ùng_
ng ước</w>
d ê</w>
đối_ mặt</w>
phá_th iên</w>
m_ t
tr e</w>
t ang_
ng ục</w>
dạ y_
lâm_ bình_chi</w>
h a</w>
19 7
tr ạm</w>
tay_ chân</w>
chu_ nhất_
th i
n_t ập</w>
làm_ chi</w>
v in
chiế m_
th ứ_
phò ng_th
ứng_ phó</w>
ằ n_
m ưa_
phân_ biệt</w>
d ẹp</w>
kh ốc</w>
dị u</w>
k èm</w>
ho ạ
th ây</w>
v iêm</w>
c ận_
cách_ mạng</w>
minh_ bạch</w>
ca_ sĩ</w>
đồng_ chí</w>
m ờ</w>
đầ m</w>
năm_ học</w>
v út</w>
m anh</w>
cười_ nhạt</w>
cha_ con</w>
a ng
ô _
qu ê
ngơ_ng ác</w>
_c ấp</w>
kỷ _niệm</w>
201 8</w>
ý _tưởng</w>
r eo</w>
l ông_
_s ung</w>
âm_ nhạc</w>
tiệ n_th
nh ặt</w>
x ỉ
mạo_ hiểm</w>
hoàn_ hảo</w>
kết_ hợp</w>
chú c_
n ằm_
bảo_ đảm</w>
c ai</w>
m ắt_
_ph ụng_t
tư _vấn</w>
bí _ẩn</w>
ng ây</w>
k ìa</w>
ã i_
_đ iểm</w>
hu ệ</w>
mẫu_ thân</w>
đả ng_
v ất_
n inh_
1 9</w>
bộ _phận</w>
thản_ chi</w>
r au</w>
lý_ uyên</w>
lệnh_ hồ</w>
quyền_ lực</w>
qu ãng</w>
chứng_ minh</w>
n_tu ổi</w>
nh ấc</w>
ng ập_
chuyển_ động</w>
nghệ _sĩ</w>
phân_ tích</w>
ọ p</w>
l iêu</w>
nhà _máy</w>
d uy</w>
tay_ áo</w>
hạ _l
v tc</w>
nh .
hoá _ra</w>
co m
nhà o</w>
m ỏng</w>
nghệ _an</w>
cung_ kính</w>
long_ vương</w>
xu ôi</w>
b ão</w>
căn_ bản</w>
hải_ phòng</w>
_ hoàng</w>
tr ần_th
ph ù</w>
h ệ
ch ánh</w>
trước_ nay</w>
_ bộ</w>
đồ _phụng_t
điều_ khiển</w>
nh ú
m ệnh_
buồn_b ã</w>
thu ận_
n é</w>
v ứt</w>
o an</w>
m_ chế</w>
đồ_phụng_t am</w>
thế _lực</w>
lấp_l ánh</w>
tiểu_ hoàn</w>
ũ i</w>
v ả
truyền_th ống</w>
y a
rút_ lui</w>
cầu_ thủ</w>
ng õ</w>
đ ơ
tuỳ _t
sinh_ tử</w>
2 2</w>
ph iếu</w>
tử _t
làm_ ăn</w>
du_ thản_chi</w>
b én</w>
cao_th âm</w>
đôi_ khi</w>
mar i
địa_ vị</w>
f i</w>
bổ _sung</w>
m ức_
h ù
thu ý_
tha y
x ưng</w>
bu ôn_
thanh_ thanh</w>
qu í</w>
so i</w>
õ ng</w>
ì n_
sa ng_
lo é</w>
bá o_th
mộ_dung_ phục</w>
linh_ san</w>
công_ nhân</w>
p er
b ưu_
v ăng</w>
nh a_
do_ dự</w>
bí ch_d
s ốc</w>
vất_ vả</w>
tr èo</w>
thu ẫn</w>
t ông_
d âu</w>
chứ ng_tỏ</w>
dữ _d
tr úng_
đo an</w>
kỳ _quái</w>
b ăng_
chủ _động</w>
thạch_ phá_thiên</w>
c àn</w>
yếu_ tố</w>
thần_ bí</w>
hành_ trình</w>
c am</w>
thay _thế</w>
1 ,
r ách</w>
bối_ rối</w>
khó _lòng</w>
chứng_ khoán</w>
cho_ hay</w>
m ét</w>
_tr ọng</w>
ra_ hiệu</w>
_ cáo</w>
s ỹ</w>
h uống_
sự_ nghiệp</w>
f on
: 0
lý _mật</w>
kho át</w>
bản_ lãnh</w>
vũ_văn_ hàn_đào</w>
t át</w>
ng uyệt_
thẳ m</w>
lái_ xe</w>
bá u</w>
uy ết_
t ế_
r ú</w>
ch_th ức</w>
c ậy</w>
may_ mà</w>
cổ n_
ọ n_
ngăn_ cản</w>
c ôn_
mo n</w>
ứng_ dụng</w>
r ào</w>
đ ĩa</w>
phương_ tú</w>
khá ng</w>
bị t</w>
bạ i_
_thiên_th iên</w>
v ang_
thu_ hồi</w>
th à</w>
lo ại_
duy _trì</w>
ph iên_
hiền_đ ệ</w>
0 9
ch_th ú</w>
tư_ cách</w>
hài_ lòng</w>
th ùng</w>
ngô_t am_
lã m</w>
biết_ bao_nhiêu</w>
b ế</w>
tà o_
mũi_ tên</w>
ch ạ
b ích</w>
nhạc_ linh_san</w>
hà m</w>
bích_d ao</w>
tr ụ</w>
trước_ hết</w>
thế_ gian</w>
lú ng_túng</w>
hạt_ nhân</w>
thiên_ phong</w>
dược_ sư</w>
ch ọc</w>
kỳ_d ị</w>
cảm_ kích</w>
né _tr
né_tr ánh</w>
mười_ hai</w>
l ẹ</w>
thị _vệ</w>
l ụa</w>
khí _
bất_ tất</w>
trò _
thái_ giám</w>
đo ạt_
ngày_ xưa</w>
_s ản</w>
s t</w>
gm t
bo ok</w>
xo a</w>
v ê</w>
mã n</w>
cự u</w>
đặ t_
chỉ _tr
nhanh_nh ẹn</w>
lộ c_
th ản</w>
ì _
vô_ địch</w>
thế _h
kỷ _thiên_thiên</w>
t an_
v án</w>
gi ế
báo_th ù</w>
ka tie</w>
dáng_ vẻ</w>
gặp_ mặt</w>
cơ_ bản</w>
kí ch_th
vỗ _tay</w>
biên_ giới</w>
v ĩnh</w>
v en
khu ất</w>
chất_ độc</w>
đ è</w>
bu ông_
b ầy</w>
al a
th ói_
nào_ ngờ</w>
hoài_ nghi</w>
gmt 7
vô _v
chúng_ mình</w>
_đ ương</w>
0 6
tr ễ</w>
s en
è o_
chu_nhất_ tiên</w>
_tr ương</w>
ăn_ mặc</w>
tí m</w>
thu ý</w>
k o</w>
n ửa_
hàng_ đầu</w>
m on
kho é</w>
h l
thí ch_thú</w>
so_ sánh</w>
ph ê
ỡ n</w>
nổi_ bật</w>
x ứng_
qu ỹ</w>
đ ổi_
_ch ất</w>
nhà_th ờ</w>
n ầy</w>
c ăng</w>
ạ nh</w>
phá i_
khoảng_ cách</w>
3 /2012</w>
l l
tích _cực</w>
h ằng_
quá_kh ứ</w>
nhỏ _nh
không_ trung</w>
_h ào</w>
gi ương</w>
năng_ lượng</w>
n am
màn_ hình</w>
âm_ mưu</w>
ực_ rỡ</w>
r ực_rỡ</w>
kh âu</w>
hứ ng_th
quy ến_
hứng_th ú</w>
bình_ nhi</w>
ngoại_ giao</w>
f o
m en</w>
ch ằm_
nhà_ khoa_học</w>
hàn_ quốc</w>
h ân_
phủ _
chằm_ ch
vận_ động</w>
quan_ điểm</w>
ph ượng</w>
chỉ _nhược</w>
quan_t ài</w>
tần_ nhi</w>
hiệ n_tượng</w>
ch ấm_
ch el
tốt_ đẹp</w>
cổn_ long_vương</w>
ale x
v ẹn</w>
năm_ xưa</w>
m èo</w>
dư _luận</w>
d ật</w>
g ào</w>
kh át</w>
ch ăm</w>
am_ mê</w>
đại_ sảnh</w>
i i</w>
ma u_l
thủ _pháp</w>
mau_l ẹ</w>
trình_ độ</w>
thay_ vì</w>
m ỏ</w>
k iệm</w>
tr ượng_
hàng_ loạt</w>
15 -
thế_h ệ</w>
qu ý_
x ế</w>
ngô_tam_ quế</w>
gặp_ gỡ</w>
v áy</w>
n_đ ộ</w>
thần_ công</w>
thi_ lễ</w>
chiến_l ược</w>
lợi_ ích</w>
giao_ dịch</w>
đáp_ án</w>
tự _nh
mức_ độ</w>
huống_ chi</w>
tổ _
t a_
thương_ mại</w>
tiện_th iếp</w>
d ời</w>
ba ck</w>
hiểu_ biết</w>
trò_ chuyện</w>
g s
khá nh_
cám_ ơn</w>
d inh_
tà o_th
_t ín</w>
phổ _
k ì</w>
uy ển</w>
tự_nh ủ</w>
bệ _hạ</w>
đoàn_ dự</w>
gi ở</w>
đ ao_
ng ọt</w>
vả _lại</w>
k ý_
bề_ ngoài</w>
đ iệt</w>
ă t</w>
tư _tưởng</w>
kêu_ gọi</w>
b en
kho an</w>
t -
s er
sự _thực</w>
d ở</w>
quỹ _nhân</w>
thủ_đ ô</w>
c an
5 00</w>
b ẫy</w>
_d ĩ</w>
v ững_
thí ch_
th ắng_
r ậm</w>
_nh i</w>
thác_ bạt_
l iều</w>
đ ôn_
ch ốc_
ẫn_n ộ</w>
đồng_ thanh</w>
quân_ bình</w>
ph ẫn_nộ</w>
nh o_
_đ oán</w>
to ạ</w>
n_th iệp</w>
minh_ chủ</w>
lạnh_l ẽo</w>
l ung_
địa_ bàn</w>
su y</w>
so ạn</w>
đánh_ bại</w>
dự_ kiến</w>
th ăng_
t i</w>
độc_ thủ</w>
v iễn</w>
ch a
o à</w>
nh u
n_ n
khiế u</w>
cử _
ca n_thiệp</w>
và ng_
quái_ nhân</w>
ị nh_
động_t ác</w>
n_t ắc</w>
lợ n</w>
w i
kh ô
t ục</w>
2 1</w>
ý_ muốn</w>
v ff</w>
dữ_d ội</w>
chiêu_ thức</w>
ỗ ng</w>
giế ng</w>
công_ nghiệp</w>
si ng
n -
ngh iên</w>
bắc_ kinh</w>
lư u_l
đoạt_ hồn_
trá ng</w>
ng ã
n_th iên</w>
m ì</w>
ấm_ áp</w>
v ở</w>
hạ c</w>
thói_ quen</w>
ruộ ng</w>
b ó</w>
xứng_ đáng</w>
t ủ</w>
phóng_ viên</w>
p_th ời</w>
l iệt_
đại_ tướng</w>
x ao</w>
kh anh_
k iệu</w>
x ót_
tr ọ</w>
chủ_nh ật</w>
ch é
t ử_lăng</w>
n ô
hoa_th iên_
đị ch
nh ắc_
đi_ nữa</w>
thân_ pháp</w>
chì a_
ượ t_
t ơ</w>
tiề m_
n áo_
s ốt_
s ôi_
ng ả</w>
nh ấn_
th ợ</w>
kho ăn</w>
ấn_đ ộ</w>
nh o</w>
le y</w>
l am_
g e</w>
biết_ bao</w>
đoạt_hồn_ kỳ</w>
nghĩ _ng
nghĩ_ng ợi</w>
kim_ cương</w>
_d ạng</w>
qu ạt</w>
new _
mở _mắt</w>
kh iêu_
yên_ lặng</w>
c ũng_
_h ồng</w>
th ấu</w>
m y
t ường_
s anh</w>
c ương_
ò_m ò</w>
hoa_thiên_ hồng</w>
cầu_ thang</w>
vi t
uy ển_
_th anh</w>
ờ_m ờ</w>
ng ao_
ng_h ồ</w>
kh ung</w>
tr ấ
ụ m</w>
tâm_ trạng</w>
quỷ _vương</w>
nh ã
lo_ sợ</w>
khác_ biệt</w>
b ốc_
b iên</w>
khai_ thác</w>
j u
sâu_ sắc</w>
li b
kiề m_chế</w>
cũng_ nên</w>
chìa_ khoá</w>
u ổng</w>
thượ ng_th
b út_
ăn_ khoăn</w>
nghĩ _lại</w>
tiề n_t
s ững</w>
nh ai</w>
b ăn_khoăn</w>
thích _hợp</w>
thành_ tích</w>
mộ_dung_ thuỳ</w>
m ép</w>
kho ẻ_
n út</w>
28 /2</w>
ph ảng_
công_ khai</w>
t ò_mò</w>
si a</w>
nh ượng</w>
xa_ x
phảng_ phất</w>
liên_t uyết_
biểu_ hiện</w>
kh ái</w>
dương_ thu</w>
chân_ tay</w>
tr út</w>
đ ắm</w>
á u</w>
cảm_ động</w>
1 .
ph í
hi v</w>
â y_th
quy ên_
hl v</w>
d ẫu</w>
l ình</w>
xấu_ hổ</w>
v iên_
trái_ đất</w>
th ờ</w>
p_h ọc</w>
lý_xuân_ hoa</w>
_h uyền</w>
tiêu_ dao</w>
thân_ thiết</w>
sân_ khấu</w>
m an
c ải</w>
s s</w>
khang_ hy</w>
c ỡ</w>
ví _dụ</w>
sau_ cùng</w>
vật_ chất</w>
ma il</w>
ươ m</w>
đắc_ ý</w>
chống_ đỡ</w>
h é</w>
d a_
uỷ _b
trung_ bình</w>
thông_ thường</w>
_ch í
27 /2</w>
gi ữ
_c ố</w>
/ 201
đầu_ hàng</w>
tiếp_ cận</w>
r ạp</w>
uố t_
f ran
tr o</w>
phát_ huy</w>
phu n</w>
o ba
chiế u_
bằng_ lòng</w>
su ýt</w>
ngô _
đ òi_
văn_ bản</w>
tự _t
điề m_
nh ậm</w>
liên_tuyết_ kiều</w>
có c</w>
thầ n_t
/ 8</w>
ưở i</w>
tiêu_ diệt</w>
nói_ nhỏ</w>
lạ i_
g ầy</w>
bách_l ý
trọ ng_thương</w>
truyền_th ông</w>
th ận_
gi ờ
chuộ t</w>
phá o</w>
_ đạo</w>
khác_ nào</w>
thi_ hành</w>
hoảng_ sợ</w>
an ne</w>
thời_ kỳ</w>
kị p_thời</w>
bao_ vây</w>
đòi_ hỏi</w>
bách_lý _băng</w>
chỉ_tr ích</w>
triển_ lãm</w>
nhận_ định</w>
_l iệt</w>
ó m_
thình_ lình</w>
r ắc_
h ớ
_n am</w>
xu a</w>
thu_ nhập</w>
x iết</w>
v ó</w>
th cs</w>
ph iến</w>
rắc_ rối</w>
nh ở</w>
thu ở</w>
hu ỷ
ch inh</w>
s v</w>
_ giải</w>
v ú</w>
t ên_
lo_ ngại</w>
sy ria</w>
qua_ lại</w>
h ông</w>
nh ăn</w>
khanh_ khách</w>
f er
ê t</w>
thủ_t ục</w>
địa_ điểm</w>
triệu_ nhã</w>
tr iết_
thận_ trọng</w>
2 8</w>
nói_ dối</w>
_ph ào</w>
em_ gái</w>
thở _phào</w>
ru n_
d ội</w>
lib ya</w>
thu ỵ
khổ ng_
nó c</w>
chấm_ dứt</w>
chi_ bằng</w>
dư ng</w>
tr ùng_
ng ửi</w>
ng u</w>
n_t ính</w>
/0 2/2012</w>
- 2008</w>
kí n_
dù_ cho</w>
đích_th ân</w>
đ am_mê</w>
v é</w>
duy ên_
ử u</w>
u ất</w>
nghiêm_ túc</w>
hã m</w>
nông_ dân</w>
ng_h ốt</w>
mỹ _nữ</w>
hà _
đáng_ kể</w>
hạ_ sát</w>
4 5</w>
lý _viên</w>
fa ce
gia_ tăng</w>
g s</w>
chú a_
xác_ nhận</w>
rối_ loạn</w>
hảo_ hán</w>
hoả ng_hốt</w>
h ối</w>
alex and
đạo_ đức</w>
tu ý</w>
hằng_ sơn</w>
hoa_ kỳ</w>
bần_ đạo</w>
tác_ động</w>
g ọn</w>
k ế_t
_đ ơn</w>
đ iêu</w>
thá m_
l ầm_
hoà nh_
th ề
c ủ</w>
g ấp_
đồ _đệ</w>
ă c</w>
ru n_r
c ong</w>
ngoại_ trừ</w>
n_t ích</w>
g p</w>
v ặn</w>
tử u</w>
trường_ học</w>
ch à</w>
ệ n</w>
đ ấm</w>
tổ _hợp</w>
kh ẩu_
đ êm_
từ_ khoá</w>
lạ t_
x ót</w>
g ad
hình_ thành</w>
_th uỷ</w>
tiết_ kiệm</w>
co de
r ác</w>
hu ấn_
vu ông</w>
m uối</w>
_ng ựa</w>
tt tt</w>
bí _thư</w>
biểu_ tình</w>
rộng_ rãi</w>
10 50</w>
tươi_ cười</w>
trăm_ năm</w>
ngư ỡng_
ngh ẹ
vă n_t
tranh_ cãi</w>
s ảng</w>
khả o_
l ang_
ngo an_
miễn_ cưỡng</w>
ý _thức</w>
quá n_
b tttt</w>
th ẩm</w>
ng ồi_
n ắp</w>
ca r</w>
g õ</w>
a c</w>
to án_
sát_ hại</w>
l ò</w>
nhà_th ơ</w>
yê n_tĩnh</w>
tr ắc_
t_ uni
07 -2008</w>
s ấm</w>
nh ánh</w>
coi_ thường</w>
ặt_ dân</w>
t_uni code
t_unicode _đ
t_unicode_đ ặt_dân</w>
mặt_ n
m u</w>
fon t_unicode_đặt_dân</w>
15- 07-2008</w>
tính_ cách</w>
nghi_ lâm</w>
đ ẻ</w>
w o
tr âu</w>
th ỉnh</w>
h anh</w>
người_ nhà</w>
ho us
đ ậu_
thì_th ầm</w>
i ta
k ệ</w>
bất_ động</w>
b ồi</w>
_h ọc</w>
face book</w>
thành_ ra</w>
giải_ trí</w>
_ch ế</w>
s n</w>
p m</w>
mở_m iệng</w>
cưỡng_ chế</w>
_ph ái</w>
nhà_ ngươi</w>
200 9</w>
mã i_
s ăn</w>
3 00</w>
ẻ n</w>
địch _vân</w>
qu ấn</w>
m ò</w>
i -
ch iêm_
thiền_ sư</w>
nhú n_
thi_ đấu</w>
run_r ẩy</w>
cử_ chỉ</w>
th iê
n ồng_
b ành_
võ _sĩ</w>
tho ại</w>
th í</w>
n i_
20 0</w>
m .
tiểu_ bạch</w>
b ùng</w>
trời_ đất</w>
ng_l ặng</w>
k ý
h s</w>
thương_ hiệu</w>
ph ối</w>
ph iệt</w>
ngôn_ ngữ</w>
n an</w>
trị nh</w>
tr ưng</w>
xo á</w>
xuất_ bản</w>
th ép</w>
19 8
tử_t ế</w>
từ _th
ng_h ạn</w>
huỳ nh_
chẳ ng_hạn</w>
c õi</w>
nh ọn</w>
k g</w>
sơ _h
kh ố</w>
tôn_ giáo</w>
trung_ tà</w>
nh an</w>
mặt_n ạ</w>
v ạ
d án</w>
cao_ minh</w>
sư_ph ạm</w>
ch ó
_m ãn</w>
đường_ phố</w>
l ận</w>
chạ y_
ch ai</w>
sơ_h ở</w>
phát_ biểu</w>
lạt_ ma</w>
k iêm</w>
gh ép</w>
chel se
t ề
t iện_
s -
ngh ênh</w>
c ấm_
è n_
u r
hư _h
công_ chức</w>
ượ m</w>
ng_l ĩnh</w>
ch ê</w>
n ướng</w>
l ược</w>
gi àu_
ph a
l ô
g ạch</w>
_h ơi</w>
_h iếp</w>
thuy ền_
qu í
người_ lớn</w>
d ầu_
x u_
_b é</w>
kỳ _
kho an_
d àn</w>
đa_ tạ</w>
tính_ tình</w>
c úc</w>
ph ỏng_
g en
à ng_
tr ụ
r ượt</w>
khoẻ_ mạnh</w>
d iên_
đóng_ góp</w>
màu_ sắc</w>
v ad
trình_ diễn</w>
kim_ hoa</w>
đô _thị</w>
s co
phải_ biết</w>
số _
dã _c
xa_ xa</w>
v ác</w>
e t</w>
cộng_ hoà</w>
y or
thư_ viện</w>
khôi_ phục</w>
tr inh_
phương_ trượng</w>
m óng</w>
thiếu_ soái</w>
liễu_ mi</w>
tổng_ số</w>
thuý_ ái</w>
bạ c_
k ịch
hy_ sinh</w>
phát_ sinh</w>
ch ơi_
th ắc_
/ 4</w>
thúc_ bảo</w>
h ấ
bắt_ buộc</w>
tập _thể</w>
trình_ bày</w>
con_ cái</w>
ăn_ nói</w>
thảm_ hoạ</w>
uỷ_b an</w>
tạp_ chí</w>
/0 3/2012</w>
mười_ lăm</w>
r ảo</w>
ph ai</w>
do ạ</w>
vad im</w>
kh éo_
ý t_
vào_ khoảng</w>
quyến_ rũ</w>
học_ viện</w>
hạ _thủ</w>
nhậ n_thức</w>
ngu ồn_
miễn_ phí</w>
cảnh_ tượng</w>
nh ốt</w>
ngăn_ chặn</w>
hình_ dung</w>
buôn_ bán</w>
v ĩ</w>
l ân</w>
địa_ chỉ</w>
n y</w>
đ ổng</w>
vô _s
trả _thù</w>
t ịnh</w>
số _phận</w>
khí _thế</w>
_th ích</w>
tôn_ quách</w>
khiế p_
k ì
0 8
ch inh_
bá_ quang</w>
a_ gam
bà _con</w>
hiệp_ sĩ</w>
gia_ kỳ</w>
qu anh_
lên_ ngôi</w>
giả m_
_đ ông</w>
ph one</w>
năm_ ngoái</w>
nhà _lãnh_
bưu_ điện</w>
8 /3</w>
sinh_ hoạt</w>
s ạ
phần_ mềm</w>
nhà_lãnh_ đạo</w>
gm t</w>
_ph ạm</w>
khác_ thường</w>
công_ nhận</w>
kiến_ trúc</w>
har ry</w>
w hi
tự _hào</w>
đ ậy</w>
trạ ng_thái</w>
tr ẻ
th ô
kh ép</w>
cơ _hồ</w>
ph ắt</w>
nh ìn_
d ật_
trầm_ trọng</w>
quản_ trung_tà</w>
l úa</w>
châu_ á</w>
_ng ại</w>
v ạch</w>
hiể n</w>
hi_ bạch</w>
s s
khu ất_
jo ng-
tôn_ trọng</w>
th ắp</w>
đại_ biểu</w>
đào_ gia_kỳ</w>
t ân</w>
tư _thế</w>
thái_ lan</w>
g ắt</w>
bu ồm</w>
kho m</w>
trang_ phục</w>
khâm_ phục</w>
bụng_ bảo_
bụng_bảo_ dạ</w>
ho ành</w>
điều_ hành</w>
_ph ụ</w>
nh ủ</w>
ra_ chiều</w>
la_ sát</w>
giới_ hạn</w>
củ i</w>
tiến_ bộ</w>
thắc_ mắc</w>
t ấc</w>
c ẩm_
tu ôn</w>
ng ộ
cao_ lớn</w>
rung_ động</w>
ng ần_
đối_ xử</w>
điền_ bá_quang</w>
âu_dương_ thống</w>
phong_ cách</w>
li c</w>
thị nh</w>
qu ấy_
m in
chelse a</w>
ng_l ong</w>
_l ạc</w>
1 -
đ ên</w>
s h</w>
b ể</w>
đ ắt</w>
thanh_ hoá</w>
th ẻ</w>
k iệt_
hoàng_ cung</w>
bó p</w>
lu ân_
cạ nh_
r ô
nhấn_ mạnh</w>
l ùn</w>
chằm_ch ằm</w>
ch ọi</w>
đại_ lý</w>
ngh e
vô _hình</w>
bà y_t
phổ_ biến</w>
nh ổ</w>
_b iệt</w>
đột_ lợi</w>
ng ự
công_ bằng</w>
bốn_ mươi</w>
ban_ ngày</w>
ngập_ ngừng</w>
h ú</w>
bày_t ỏ</w>
t ù
ra_ đời</w>
kh âu_
giấ c_
tư _hãn</w>
trí _tu
ng ẫm_
ng uyện_
h ân</w>
đ ắp</w>
oba ma</w>
bất_ chấp</w>
kh ơi</w>
tội_ nghiệp</w>
th ấp_th
sở _dĩ</w>
tr ân</w>
tha_th ứ</w>
s ét</w>
g ar
_th uận</w>
thiếu_ phụ</w>
chung_ kết</w>
_đ ường</w>
m an_
g ần_
ngẫm_ nghĩ</w>
z i
so phi
2 7</w>
đ ếm</w>
v en</w>
r ộ</w>
quỳ nh</w>
n ối_
giá ng</w>
tình_ cảnh</w>
tr uy</w>
mặt_ mày</w>
cát_ tư_hãn</w>
hung_ thủ</w>
d iệt_
ầ n_đ
đề _cập</w>
ông_ bà</w>
ă ng_t
è _nh
công_ dân</w>
quái_ dị</w>
lai_ lịch</w>
kh iêm_
xế p_h
thu ỳ
d òng_
xo ay_
thừa_ cơ</w>
thương_ yêu</w>
r ét</w>
khẩn_ trương</w>
chân_ thành</w>
cho àng</w>
_t i</w>
tức_ thì</w>
co n
nhỏ _bé</w>
thị nh_
ph ùng</w>
nói_ năng</w>
ng ọt_
diệ p_
th ù
ch ế_t
v n
os car</w>
điểm_ huyệt</w>
tr ơ</w>
cảnh_ báo</w>
đại_ vương</w>
tủ m_t
tủm_t ỉm</w>
ướ t_
võ _đương</w>
p v</w>
k ề</w>
n ông</w>
giây_ phút</w>
d iêm_
_t ộc</w>
_ch ung</w>
tiên_ lãng</w>
cạnh_ tranh</w>
x ảo</w>
par is</w>
lo u
thời_ tiết</w>
quan_ chức</w>
o g
động_ sản</w>
đ ẫm</w>
đa_ số</w>
xo áy</w>
s en</w>
ph ước</w>
ngày_ đêm</w>
chốc_ lát</w>
đội_ ngũ</w>
nhà_v ăn</w>
ga s</w>
kh ớp</w>
e w
cừ u_
đ úng_
vận_ chuyển</w>
sư u_
rùng_ mình</w>
mới_ đây</w>
l iệng</w>
ng_h ợp</w>
m àng</w>
d iêu_
_s o
t ốc</w>
p ro
lâu_ nay</w>
sơn_ la</w>
r ầu</w>
n ỡ</w>
gu e</w>
chiến_ trường</w>
th ự</w>
th er
nh úc_
tr á</w>
r iê
cả ng</w>
_th i</w>
truyền_th ụ</w>
nhúc_ nhích</w>
chúng_ nó</w>
_ch âu</w>
ớ m_
đạo_ huyền</w>
_ng ọc</w>
mãi_ mãi</w>
hô _h
a_gam es</w>
xem_ chừng</w>
mười_ tám</w>
hồ _đồ</w>
thư _sinh</w>
kh a_
hài_ nhi</w>
dinh_ dưỡng</w>
bu ồng</w>
đ âm_
s ập</w>
qu ảng</w>
bất_ động_sản</w>
_h ải</w>
quê _hương</w>
o án_
g ai</w>
_chí _minh</w>
trời_ ơi</w>
trang_ bị</w>
kinh_ vũ</w>
cải_ thiện</w>
ri d</w>
d ứt_
_ng ạn</w>
đo á</w>
th ảy</w>
rộng_ lớn</w>
à m_
g ợi_
_th ẹn</w>
cất_ bước</w>
tho ng_th
sáng_ rực</w>
thong_th ả</w>
o li
lưu_ ý</w>
độc_ lập</w>
ồn_ ào</w>
sức_ lực</w>
kỹ _năng</w>
giá ng_
bộ_ mặt</w>
đ ắc</w>
g ằn</w>
_l ương</w>
nhắc_ nhở</w>
hầu_ hi_bạch</w>
cười_ cười</w>
_l ea
sứ_ giả</w>
l iều_
uy _hiếp</w>
năm_ mươi</w>
kinh_ tuấn</w>
cảnh_ giác</w>
xe _ngựa</w>
th ập_
phổ _thông</w>
kim_ bình_nhi</w>
hồ _chí_minh</w>
trí_tu ệ</w>
thời_ đại</w>
th ận</w>
ngo ảnh</w>
kh iêng</w>
tưởng_ chừng</w>
lã o_th
e o_
hỗn_ loạn</w>
xuân_ thu</w>
tĩnh_ chi</w>
lo n
trượng_ phu</w>
l ánh</w>
chu_ cơ</w>
c o_
r ập</w>
phiên_ bản</w>
mê nh_
is ra
n ến</w>
_tu ần</w>
thời_ khắc</w>
mô _hình</w>
tạ _huyền</w>
nhà _hàng</w>
ng ào</w>
3 2</w>
tr ác</w>
nghị _quyết</w>
giải_ phóng</w>
u ân</w>
tạm_ biệt</w>
l uyệ
ch en</w>
lâm_ hồng</w>
trung_ thành</w>
th iêu_
ch ấ
toàn_ cầu</w>
chư a
như ng_
ệ ch</w>
động_ viên</w>
l ột</w>
m âu_
isra el</w>
bu ôn</w>
_ quan</w>
qu ỉ</w>
n_th ờ</w>
hiế n</w>
đau_ lòng</w>
ủ ng</w>
u_l ong</w>
h ổng</w>
g ây_
giấc_ ngủ</w>
văn_ học</w>
trung_ niên</w>
quy_ mô</w>
en ni
h òng</w>
chưa _thể</w>
to àn_th
sophi e</w>
lâm_ kinh_vũ</w>
bài_ học</w>
al _m
nguyễn_ văn_
l ót</w>
ch ộp</w>
ọ ng_
tâm_ trí</w>
b ay_
thê _th
se a_games</w>
nh ắn</w>
bình_ dương</w>
a u
vua_ khang_hy</w>
le s</w>
bình_ thản</w>
ụ t_
đối_ đầu</w>
thanh_ toán</w>
r ùa</w>
nam_ nữ</w>
nh ức</w>
ngh iệt</w>
h ò</w>
c -
phát_ động</w>
đồng_ tiền</w>
b uộ
đại_ thần</w>
ki hô
hành_ tinh</w>
ử i_
th ắ
th iệu_
h ò
vĩ _đại</w>
s to
một_ mặt</w>
_l ong</w>
0 5
tạ o_
th ối</w>
lông_ mày</w>
thực_ lực</w>
nh iế
n úi_
al l</w>
khuy ên_
ă n_t
kihô tê</w>
độc_ đáo</w>
tiêu_ dùng</w>
gia_ nhập</w>
bất_ đồng</w>
ũ a</w>
thổ _ti</w>
thúc_ đẩy</w>
kí ch_
khe n_ng
k ể
huy _động</w>
ch ốt</w>
/ 7</w>
v ắng_
khen_ng ợi</w>
vụ n</w>
tr ượt</w>
pa u
vòng_ tay</w>
che _
chủ _trương</w>
thuỷ _thủ</w>
phản_ kích</w>
ơ m</w>
đ ắng</w>
nhưng_ mà</w>
w il
ha_h a</w>
dấu_ vết</w>
tr ọn</w>
nhận_ lời</w>
mã _đề</w>
w indo
trái_ lại</w>
s ầu</w>
or e</w>
gian_ lận</w>
alexand ra</w>
t ắc</w>
luật_ sư</w>
thiên_ nhiên</w>
sa _
hạ m</w>
danh_ tiếng</w>
gi ê
danh_ hiệu</w>
tho á
lạc_ nhạn</w>
căn_ hộ</w>
_h ỏi</w>
vô_ ích</w>
luyệ n_tập</w>
chúc_ mừng</w>
tuyệt_ vọng</w>
thuận_ lợi</w>
hi_ vọng</w>
vô_v i</w>
_ho ại</w>
_ch í</w>
thủ ng</w>
mã _
đảng_ viên</w>
sống_ chết</w>
tiền_ bạc</w>
sa _th
k ẽ</w>
g ươm</w>
co m</w>
hồi_ hộp</w>
g i</w>
đấu_ tranh</w>
phản_ ánh</w>
ng à
hốt_ hoảng</w>
hoàng_h ậu</w>
b el
đ ê
t ít</w>
đôn_ kihôtê</w>
t ịch</w>
qu i_
ita lia</w>
chân_ dung</w>
v iễn_
h ố</w>
b e</w>
công_t ôn_
tự _động</w>
l en</w>
ch át</w>
an to
no i</w>
khí_ giới</w>
cổ_ph iếu</w>
_t ú</w>
đạo_ sĩ</w>
s ẻ</w>
_b ích</w>
âm_ thầm</w>
yếu_ ớt</w>
hương_ chủ</w>
g o</w>
vi l
s ương_
m ồi</w>
thượ ng_t
th ưởng_th
cổ _quái</w>
quảng_ trường</w>
new_ yor
tranh_ chấp</w>
ly m
+ 7</w>
ờ _v
đột_ quyết</w>
t ne
r ủ</w>
nh ô</w>
tỉnh_ táo</w>
phần_ nào</w>
h ì
gia_ cát_
windo w
n_đ an</w>
d ày_
24 /2</w>
tự _chủ</w>
nh ọc</w>
diễn_ biến</w>
đại_ hội</w>
quản_ trị</w>
mâu_ thuẫn</w>
k m</w>
binh_ sĩ</w>
7 0</w>
thu_ thập</w>
r ư
lịch _sự</w>
khổng_ minh</w>
_m ạ</w>
thoả _mãn</w>
mơ _hồ</w>
tiêu_ biểu</w>
sho w</w>
k ẹt</w>
bảo_ ngọc</w>
thoá _mạ</w>
hiệ n_th
h ẻ
cổ_ph ần</w>
r ước</w>
thưởng_th ức</w>
t ới_
ngộ _
ce lo
c òi</w>
một_ ít</w>
h ái</w>
tiế u</w>
iê c</w>
cố t_
đ úc</w>
lư ỡ
khẩn_ cấp</w>
cao_ cấp</w>
hạ o</w>
huấn_ luyện</w>
c ục_
má u_
t an
huyề n_t
cô _đơn</w>
chuyên_ môn</w>
thảm_ khốc</w>
o an_
mặt_ nước</w>
con_ nhỏ</w>
ar sen
điề n_đan</w>
th ang_
hớ n_
gi eo</w>
b b
ng_h ải</w>
đ ứng_
tr i
th ợ
dặ n_
_đ ộ</w>
tào_th áo</w>
tr ắc</w>
ngọt_ ngào</w>
_ph ục_
tâm_ tình</w>
nghiê ng_
tại_ chỗ</w>
c ối</w>
vương_ quốc</w>
o ai_
_l a</w>
thiể u</w>
sống_ sót</w>
nguyễ n_đ
m ầm_
vậ n_t
r áng</w>
l á
khổ _sở</w>
ch ẽ</w>
tiêu_ tiêu</w>
o anh</w>
m âu</w>
l l</w>
k ênh</w>
ngư ỡng</w>
giải_ cứu</w>
kh ất_
cả n_
0 ,000</w>
m ỡ</w>
lư ỡng</w>
l ắp_
hư _ngạn</w>
dễ _chịu</w>
è_nh ẹ</w>
nh è_nhẹ</w>
ch ùm</w>
_ch ân</w>
l ẳ
gần_ g
_ng uyện</w>
vo i</w>
thần_th ái</w>
s âm</w>
chỉ _điểm</w>
thầy_ giáo</w>
nhà _t
g áy</w>
vă n_đ
dẫn_ đầu</w>
bất_ thường</w>
c ùng_
vận_ dụng</w>
tống_ khuyết</w>
xuất_ phát</w>
x ưởng</w>
v ù
trước_ sau</w>
giá c_
cao_ điểm</w>
b ận_
theo_ đuổi</w>
sang_ trọng</w>
l ặn</w>
y_ như</w>
tương_ đối</w>
quý _vị</w>
hạ_l ệnh</w>
chủ _đề</w>
chu ỗi</w>
ch ặt_
s ực</w>
diệ n_tích</w>
đà o_th
t â
phật_ giáo</w>
0 .000</w>
đ ậm</w>
tràn_ đầy</w>
r èm</w>
l í
gần_g ũi</w>
ca m
_t ướng</w>
kho ái_
trừ _phi</w>
r ộn</w>
chặt_ chẽ</w>
ch ạp</w>
nh uận</w>
cổ _h
ch ồn</w>
b ỉ</w>
đất_ đai</w>
ng ời</w>
vă n_th
t ịch
nửa_ đêm</w>
chỉ nh_
ch ê
l ội</w>
gi à
g ật_
bất_ chợt</w>
celo na</w>
buồn_ cười</w>
đạo_ tử</w>
võ_ nghệ</w>
_ nhỏ</w>
ư ỡng</w>
_t ải</w>
sa n_
qu ì</w>
ph ế</w>
sự _cố</w>
f a</w>
trầm_ lạc_nhạn</w>
tiểu_ san</w>
run_ run</w>
al_m ad
đài_ loan</w>
re al_mad
ạ c_
xu_ hướng</w>
ch èo</w>
ch iều_
ai_ ai</w>
thầy_ trò</w>
ngh ênh_
cảnh_ giới</w>
độc_ giả</w>
đ ẩy_
ì u</w>
tu ấn_
n ảy_
kiên_ quyết</w>
giàu_ có</w>
ch ật_
tôn_ ân</w>
tiếp_ nhận</w>
lạ m_
hồi_ phục</w>
biểu_ tượng</w>
_th ừa</w>
3 5</w>
tàn_ nhẫn</w>
thăm_ dò</w>
nh ét</w>
mất_ tích</w>
ít_ ra</w>
uy _lực</w>
thiên_ địa</w>
ru s</w>
tuyệt_ diệu</w>
thảo_ luận</w>
o i</w>
_đ ình</w>
lym pi
v ầng</w>
s ôi</w>
r è
nh eo</w>
lương_ thực</w>
l ượn</w>
arsen al</w>
thuỷ _chung</w>
lâu_ dài</w>
f f
độc_ ác</w>
phương_ án</w>
c ẩu</w>
chu_ đáo</w>
xót_ xa</w>
v ao</w>
t óm_
khâu_ tiểu_san</w>
đắc_ tội</w>
vô _h
nh àn</w>
l éo</w>
khuyến_ khích</w>
h an
công_ viên</w>
s ớm_
ngo ãn</w>
l ách</w>
d iệu_
b è</w>
x í</w>
vệ _sinh</w>
ma_ tuý</w>
hoàn_ huyền</w>
dương_ hư_ngạn</w>
cao_ đẳng</w>
đại_ sứ</w>
s ưa</w>
th ắt</w>
o lympi
g an_
cười_ kh
tài_ xế</w>
tuy _vậy</w>
_r ơi</w>
vui_ lòng</w>
chiến_ sĩ</w>
b ần_t
v alen
t ấu</w>
nu ôi_
khủng_ bố</w>
/1 2
v ái</w>
ra_ sức</w>
r ụng</w>
pho ng_t
mạ ng_
_th uộc</w>
x an
tương_ đương</w>
phạm_ vi</w>
o f</w>
mầm_ non</w>
l ồng_
cứu_ mạng</w>
19 6
đỗ _phục_
v ặt</w>
thoát_ thân</w>
phú _
buồn_ rầu</w>
b ấm</w>
b ra
đỗ_phục_ uy</w>
tô lic</w>
thạch_th ất</w>
kích_th ích</w>
đ an_
tạ _nam</w>
phụng_ phi</w>
n ín</w>
hớn_ hở</w>
ỗ i_
thá ng_
b úa</w>
v an_
trợ _
thẳ ng_th
tho ái_
n ã
d ụ
đỏ _b
đỏ_b ừng</w>
ngưỡng_ mộ</w>
n ai</w>
tướng_ mạo</w>
l ò
quy _t
ng_l ẫy</w>
s p
m iêu</w>
b iêt</w>
trò _chơi</w>
tr iệ
mộ_d ung</w>
mơ _
hào_ kiệt</w>
_tr ung</w>
nh ũng</w>
tiêu_ chuẩn</w>
ngo n_
n ao</w>
ho i</w>
h e
đ uốc</w>
ngoan_ ngoãn</w>
i phone</w>
hết_ lòng</w>
hôn_ nhân</w>
đ ính</w>
tả _hữu</w>
quyên_ nhi</w>
p_ b
nhún_ vai</w>
n áo</w>
m_ c
sạ ch_
kỷ_l uật</w>
ngoại_ ngữ</w>
y_th ì</w>
x ê
t ôm</w>
h âm_
_th anh_
tuần_ lễ</w>
th ẹn</w>
kiến_ khang</w>
h am</w>
cung_ nữ</w>
whi tne
nh ãn_
dặn_ dò</w>
d a_th
thề m</w>
nguyện_ vọng</w>
n_l uyện</w>
m ảng</w>
l ư</w>
hứ a_
c ọp</w>
bắt_ tay</w>
thấp_th oáng</w>
sân_ bay</w>
kịch _liệt</w>
kín_ đáo</w>
kh ương</w>
go og
t_ miệng</w>
n ốt</w>
lý_t ưởng</w>
liều_ mạng</w>
cổ _
lo_ âu</w>
rè n_luyện</w>
cải_ cách</w>
th ối_
ng ất_
h ao</w>
c âm</w>
real_mad rid</w>
l an
hoá _giải</w>
góp_ phần</w>
cơ_ quan_
tăng_ trưởng</w>
thần_ kỳ</w>
thương_ tâm</w>
tr ì
phòng_th ủ</w>
k em</w>
tê n_tuổi</w>
giả o_
buộ t_miệng</w>
ỏ m</w>
sắc_ bén</w>
goog le</w>
thứ_ sáu</w>
nóng_ nảy</w>
cản_ trở</w>
động_t ĩnh</w>
hàng_ hoá</w>
l ảo_
k i</w>
ca c</w>
en a</w>
b ô
triệu_ minh</w>
mai_ phục</w>
hous ton</w>
dễ _thương</w>
t ứ_
s u</w>
ng ưu</w>
xuất_ khẩu</w>
thá ch_thức</w>
như _
hì _h
cổ_h ọng</w>
ngày_ trước</w>
nghĩa_ phụ</w>
new s
lảo_ đảo</w>
kh ước_
nh ược</w>
hỏi_ thăm</w>
đạ c</w>
tr ạch</w>
to à_
sạch_ sẽ</w>
kỹ _sư</w>
hà_t ĩnh</w>
bé _nhỏ</w>
_ph ú</w>
trưởng_ thành</w>
tiểu_ thuyết</w>
ng ơ</w>
mênh_ mông</w>
b àng</w>
nh ung</w>
n a_
chu_ thiên</w>
v ò</w>
lon don</w>
đ ục</w>
mềm_ mại</w>
mu ôn_
b iện</w>
triệu_ mẫn</w>
nh am</w>
diễ m</w>
bần_t ăng</w>
_l ý</w>
thất_ kinh</w>
quá ch_
qu ật</w>
ph ất_
nói_ chung</w>
k ề
g ợi</w>
ti a_
r ỉ</w>
bả n_đồ</w>
cố _tình</w>
bình_ yên</w>
b uốt</w>
tự u</w>
chú t_
_tu ổi</w>
đổi_ mới</w>
tràn_ ngập</w>
thuốc_ lá</w>
sáng_ mai</w>
n_đ oán</w>
thác_bạt_ khuê</w>
ngọc_ sơn</w>
da_th ịt</w>
c ợt</w>
c u</w>
b ặt</w>
xuất_ thân</w>
_đ ốc</w>
y ể
ngh èo_
_x ét</w>
mất_ mạng</w>
bảo_ tàng</w>
tr ù
ph iêu_
mi lan</w>
_c ao</w>
ăn_ n
x ứng</w>
tối_ đa</w>
phỏng_ vấn</w>
m ị
kỷ_l ục</w>
c .</w>
ar i
nhỏ _tuổi</w>
hay_ biết</w>
tr iệt_
qu ay_
môn_ hạ</w>
bu r
ấp_ úng</w>
tôn_ bất_
p .
nh ăn_
l ị
chủ_nh iệm</w>
xa_ lạ</w>
ch ữa_
_th í</w>
_m an</w>
gr ay</w>
th ấm</w>
nh ững_
new_yor k</w>
jong- il</w>
ch ói</w>
t ụng</w>
t ăm</w>
chu ồn</w>
ẫn_n ại</w>
vô_l ễ</w>
nh ẫn_nại</w>
ng ừa</w>
m c</w>
_t ích</w>
ở m</w>
v a_
tr ải_
m ốt</w>
hành_ sự</w>
thiên_th ần</w>
giang_ nam</w>
toán_ học</w>
cam_ kết</w>
phương_ thức</w>
con_ cháu</w>
b ẻ</w>
le r</w>
bu ồ
đại_ tá</w>
trí _
ng a
tên_ lửa</w>
c s
v ơ</w>
tr uy_
tinh_ tú</w>
linh_ hồn</w>
ra_ mặt</w>
nhà _cửa</w>
n âng_
m ập</w>
g ắng_
g ra
toàn_ diện</w>
l ay_
ba r</w>
ề n_t
bất_ kể</w>
ch ổ</w>
trá nh_
_n ạn</w>
ủ i_
đạo_ diễn</w>
a i
sự _tình</w>
trung_ hoa</w>
sai_ phạm</w>
c ài</w>
_t ập</w>
quý _phái</w>
nh ĩ
hy_ bạch</w>
b ê
ô c</w>
tr ật_
quá _
kỳ_d iệu</w>
_c ương</w>
vùng_ đất</w>
cửu_ chỉ</w>
đình_ phương</w>
trải_ nghiệm</w>
n ặc</w>
t b
n al
h c
th uyên</w>
pe ter</w>
nhảy_ vọt</w>
m ẻ</w>
khá t_
ban_ đêm</w>
nguyê n_tắc</w>
d iện_
c ần_
b ọt</w>
đạt_ chí</w>
tôn_bất_ tà</w>
khó c_
_c ung</w>
thê_th ảm</w>
ng ton</w>
h ỉ</w>
o m</w>
l óc</w>
iễ m</w>
tố _cáo</w>
ho án</w>
d s</w>
toàn_ cảnh</w>
no m</w>
càn_ khôn</w>
bù n</w>
hiệ u_l
bất_ hạnh</w>
b ô</w>
đường_ hầm</w>
đinh_ xuân_thu</w>
uy _tín</w>
ng_ d
p re
cư u_
điề n_l
lo áng</w>
khủng_ hoảng</w>
kh ả</w>
tr à
nhà_ đầu_tư</w>
ng ói</w>
huyề n_đức</w>
d ài_
3 4</w>
thái_ bình</w>
phục_ hồi</w>
gh ê</w>
cho ạng</w>
thái_ sư</w>
s z
l é
không_ lẽ</w>
n_n ản</w>
chá n_nản</w>
nóng_ bỏng</w>
ma u_
g ấu</w>
chuyên_ nghiệp</w>
tú m</w>
t ồn</w>
l ỏng</w>
bức_ bách</w>
đích_th ực</w>
thoả _thuận</w>
qu ất</w>
x ả</w>
sát_ khí</w>
lôi_ cửu_chỉ</w>
_c ôi</w>
vương_ tử</w>
tình_ nguyện</w>
lễ _hội</w>
bằng_ chứng</w>
ố p</w>
bắt_ giữ</w>
viet nam
tiễ n_
ng_l ợi</w>
mồ _côi</w>
joh n</w>
whitne y_
thu ậ
r ắc</w>
ă n_th
n ộ</w>
m 2</w>
du_ khách</w>
căn_ bệnh</w>
3 8</w>
đo an_
trắc_ nghiệm</w>
trật_ tự</w>
phát_ hành</w>
phi_ thân</w>
n ếp</w>
khéo_ léo</w>
đại_ quân</w>
tt e</w>
g ay_
bỏ _rơi</w>
đề u_
y .
trị _giá</w>
th ụ
ta gs
quy_ chế</w>
kí p</w>
kiếm_ thuật</w>
dày_ đặc</w>
2 9</w>
vào_ cuộc</w>
vi rus</w>
th ục_
o l</w>
ngữ _văn</w>
kết_ hôn</w>
g ân</w>
c ay_
th ù_
k ế
d ồn_
trương_ thuý_sơn</w>
tiểu_ trừng</w>
thương_ lượng</w>
t ệ
t ý</w>
l ây</w>
giai_ nhân</w>
kh ất</w>
ườ m</w>
x à
thắng_ bại</w>
long_ dương</w>
hoàng_ tử</w>
đ iếu</w>
whitney_ houston</w>
r i</w>
những_ ai</w>
nhẹ_nh õm</w>
n âu</w>
huy ền_th
đồng_ nghiệp</w>
nh àn_
s ùng_
cuồng_ sinh</w>
h uố
ghi_ nhận</w>
for d</w>
_ng uyệt</w>
ă ng
dũng_ cảm</w>
bộ c_
đạo_ lý</w>
lẳ ng_lặng</w>
ch ậu</w>
c ống</w>
b ướ
đêm_ tối</w>
n iên_
huố ng_hồ</w>
bạo_ lực</w>
x ôn_
vũ_văn_ hoá
thất_ thanh</w>
phụ _
khiếp_ sợ</w>
cá ch
b ời</w>
ễ n</w>
vận_ khí</w>
trác_ cuồng_sinh</w>
k ê
giảng_ dạy</w>
b ẩn</w>
tung_ sơn</w>
e u
c uống</w>
th ằng_
th ìn</w>
s ầm</w>
ỉ _
ưu_ tiên</w>
động_ cơ</w>
trá t_
mệnh_ lệnh</w>
lẽ _ra</w>
cơ _chế</w>
l d
cu ồn_
x a
tự _tử</w>
thê _lương</w>
lớ p_học</w>
ho ạn</w>
cuồn_ cuộn</w>
ng ẫu_
ng ạt</w>
hành_ chính</w>
ca_ khúc</w>
nhiệt_ độ</w>
nh ì</w>
ngọc_ nghiên</w>
g ò</w>
bức_ xúc</w>
trầm_ mặc</w>
l ấp</w>
hầu_ hy_bạch</w>
giới_ tính</w>
gh ế_
b ồng</w>
r ỗng</w>
qu ăng</w>
kỳ_d ao</w>
hội_ thảo</w>
hành_ hạ</w>
_c ốc</w>
lạ p</w>
hàng_ xóm</w>
bấy_ nhiêu</w>
ban_ nha</w>
tụ _tập</w>
ph ô
k ẹo</w>
bộ t_
thắ ng_lợi</w>
giảng_ viên</w>
b ú
a n_th
đại_ sự</w>
w or
trịnh_ khắc_
ti ne</w>
quốc_ phòng</w>
quản_ gia</w>
0 4</w>
đ ăm_
xấu_ xa</w>
uy ên_
qu e</w>
ngã _hành</w>
tây_ ban_nha</w>
khả_ đạt_chí</w>
gi ết_
_d ung</w>
bộ _dạng</w>
anh_ chị</w>
sinh_ nhật</w>
n_th u
ma o_th
hàm_ dương</w>
giả n_
xe _hơi</w>
k ìm</w>
cứ _việc</w>
xôn_ xao</w>
sa o_
mộ ng_
lòng_ dạ</w>
bạ ch_l
a t
n ếm</w>
g ù</w>
bởi_ vậy</w>
nhậm_ ngã_hành</w>
_l ôi</w>
_d âu</w>
ù a_
áo_ quần</w>
ng ắ
l anh_
khảo_ sát</w>
ai_ cập</w>
hi u</w>
cấp_ cứu</w>
coi_ trọng</w>
chậm_ chạp</w>
ước_ mơ</w>
bộ c</w>
tranh_ thủ</w>
tham_ nhũng</w>
kh ải</w>
_b ỏ</w>
21 /2</w>
t án_
r ạng_
nguồn_ gốc</w>
khuy ết_
b ầm</w>
y ế
quỳ nh_
o a</w>
áo_ dài</w>
xoay_ chuyển</w>
tình_ cờ</w>
thâm_ hậu</w>
22 /2</w>
âu_dương_ phong</w>
tu ng_t
ngạ i_
m ạ</w>
x u</w>
tổ ng_hợp</w>
người_ mẫu</w>
m ắc_
m òn</w>
là nh_
diễ m_
đỗ _thiên_
g õ
viet nam</w>
hổ _thẹn</w>
hành_ tung</w>
tư _d
tôn_ giả</w>
to é</w>
ngắ n_ng
me s
đặt_ chân</w>
th êu</w>
kính_ trọng</w>
tr ảo</w>
t óm</w>
3 1
tập_ kích</w>
trịnh_khắc_ sảng</w>
toà_ án</w>
si mon</w>
lỗ i_
cầm_ thanh</w>
chế_t ạo</w>
_đ iển</w>
thẳng_th ắn</w>
t ản</w>
đè n_
s úc_
e u</w>
kể _ra</w>
kh iên</w>
ch ước</w>
b ậy</w>
đỗ_thiên_ ngạc</w>
đề _tài</w>
p lu
liên_ kết</w>
xâm_ nhập</w>
tô _như</w>
bàn_ bạc</w>
thầy_ cô</w>
ng ọ</w>
chuy ền</w>
thằng_ cha</w>
thân_ mật</w>
th iêu</w>
n_đ ồn</w>
ki a_
hu ấn</w>
ch_th ủ</w>
bar celona</w>
tia_ sáng</w>
nhân_ nghĩa</w>
hâm_ mộ</w>
chỉ _thị</w>
ban_ hành</w>
v ạt</w>
phong_ trào</w>
m ị</w>
hô_h ấp</w>
a s
5 %</w>
đột_ biến</w>
tr ọc</w>
dương_ công_
co l
_ định</w>
n ang</w>
my sz
b ùng_
v én</w>
m ớ</w>
h ưởng_
chủ _ý</w>
chủ _trì</w>
chu ồng</w>
tr ục</w>
hì_h ì</w>
toàn_th ể</w>
nhà_ báo</w>
coi_ chừng</w>
ập_ bát</w>
s ảnh_
bực_ mình</w>
b ừa</w>
20 /2</w>
t v
m_ đ
m iễn</w>
g ả</w>
cơ_quan_ chức_năng</w>
bỗng_ dưng</w>
ả m_
mysz ka</w>
_c ửu</w>
t ồi_
t ánh</w>
nh ũ
công_ lập</w>
ban k
_t o
trộ n</w>
nhiễ u</w>
l ờ_mờ</w>
hoa_ hậu</w>
x ong_
t ăng_th
r an</w>
d iệp</w>
đầu_ gối</w>
tay_ mặt</w>
ngọc_ trí</w>
ng ư</w>
chắc_ hẳn</w>
d ỗ</w>
chiến_ dịch</w>
ce s</w>
trực_ tuyến</w>
m ỗi_
là o</w>
kinh_ khủng</w>
ch uộc</w>
ph àm_
m ừ
lơ _l
g ầy_
0 4
sảnh_ đường</w>
nhà _tr
lê _văn_
lã i_
bà_ già</w>
: 5
vô _dụng</w>
điên_ cuồng</w>
tr uỷ</w>
kỵ _binh</w>
a_s ĩ
u 23</w>
te en</w>
phấn_ khởi</w>
ha fi</w>
g ởi</w>
cl b</w>
bất_ lợi</w>
vào_ vai</w>
ng_t ác</w>
gõ _cửa</w>
b ội_
xa_x ôi</w>
mộ_dung_ chiến</w>
lợi_ nhuận</w>
i d</w>
chu_ chỉ_nhược</w>
ch ì</w>
t .</w>
ng ụm</w>
l a_h
bao_ trùm</w>
tuyệt_ kỹ</w>
quy_ hoạch</w>
qu ầy</w>
nà n</w>
kích_ động</w>
gi ó
d inh</w>
cao_ nhân</w>
đả o_
nu de</w>
ngân_ sách</w>
nghiêm_ nghị</w>
d ao_
bất_ đắc_
quái_ vật</w>
n ức_
chữ _
9 0</w>
ầm_ ầm</w>
ng ó
l ứa</w>
dược_ vương</w>
ch am
ọ n_l
ti n_đồn</w>
nghẹ n_ng
nghẹn_ng ào</w>
n_th ưởng</w>
n ồi</w>
h èn_
giá _
bất_ lực</w>
4 00</w>
ther ine</w>
lãi_ suất</w>
inh_ nhi</w>
hải_ quân</w>
định_ thần</w>
trợ_ giúp</w>
th âu</w>
danh_ dự</w>
chung_ cư</w>
b ét</w>
_t ự</w>
đâu_ đó</w>
gia n_t
bận_ rộn</w>
lã i</w>
l ồng</w>
hoàng_h ôn</w>
2 ,
đầu_ ra</w>
kị ch_
hoan_ hô</w>
gi am_
gd -
công_ kích</w>
thị _
thạch_th anh_
sĩ _quan</w>
s út</w>
l iêm</w>
khe _kh
dương_ châu</w>
chức_ vụ</w>
chính_ đạo</w>
xét_ nghiệm</w>
vợ _con</w>
tả _lãnh_
mỗi_ một</w>
mao_th ập_bát</w>
b úng</w>
alen t</w>
m ỏi</w>
_tr ữ</w>
u p</w>
rượ u_
n úp</w>
làm_ vậy</w>
gad hafi</w>
dư ỡng_
_m ục</w>
3 6</w>
đông_ đảo</w>
đau_ đầu</w>
z u
ou l</w>
nhiễ m_
giấ y_t
dự _đoán</w>
tả_lãnh_ thiền</w>
th ừ
l ượm</w>
giấy_t ờ</w>
d an
chì a</w>
ố ng_h
đón_ tiếp</w>
điền_l inh_nhi</w>
u ất_
thủ ng_th
t áng</w>
quan_ niệm</w>
lão_th ân</w>
cân_ nhắc</w>
ử u_
sing ap
h ệt</w>
h y
gi ãn</w>
bắt_ gặp</w>
x ăng_
r ỗi</w>
lãng_ mạn</w>
chinh_ phục</w>
đô -
lo ạng_
hùng_ vương</w>
c ẩm</w>
b ắp</w>
xe_ đạp</w>
r ủa</w>
hình_ sự</w>
0 1</w>
tú _tú</w>
to ria</w>
t anh</w>
k ẹp</w>
thạch_thanh_ tuyền</w>
động_ đậy</w>
đ ọng</w>
v áng</w>
thảo_ nguyên</w>
l ăn_
cô _dâu</w>
_ng ọc_
tiểu_ bàn</w>
su ýt_
ch ửi_
biệt_ thự</w>
b ẩm_
che _ch
ít_ nhiều</w>
vi e</w>
tam_ lại_
t alent</w>
d ải</w>
cưu_ ma_
cư _dân</w>
xuống_ nước</w>
trọng_ đại</w>
thư _phòng</w>
thuốc_ độc</w>
sắp_ đặt</w>
ngắn_ng ủi</w>
n n</w>
l and</w>
h an</w>
bóng_ dáng</w>
đại_ chiến</w>
m en
kh ẩn</w>
cận_ nam</w>
đ ật</w>
s mar
ký_ ức</w>
gh en</w>
u ông_
c õng</w>
r ợn</w>
mấy_ chốc</w>
m or
f an</w>
bình_ luận</w>
ý _chí</w>
tín_ hiệu</w>
thái_ dương</w>
in ter</w>
hình_ dáng</w>
cấu_ trúc</w>
can_ đảm</w>
đ ắn</w>
quỷ _
nh ói</w>
người_ bệnh</w>
do_ vậy</w>
bộ_ đội</w>
_h ậu</w>
tam_lại_ tử</w>
gi ở
võ_ đang</w>
thanh_ thành</w>
f t</w>
ban k</w>
_đ àm</w>
_l ĩnh</w>
ế_ đế</w>
thá o_
khoan_ khoái</w>
chân_ chính</w>
c úng</w>
ẽ n</w>
singap ore</w>
n ấu_
cục_ diện</w>
_d iệt</w>
đồ _chơi</w>
tú i_
loạng_ choạng</w>
hành_ khách</w>
dương_ tiêu</w>
_m ôn</w>
tr ẻo</w>
th ố
linh_ hoạt</w>
c p</w>
ự u</w>
ĩ u</w>
đ iển_
tuỳ_t iện</w>
mặt_ khác</w>
bộ _lạc</w>
biết_ điều</w>
ụ p_
tổng_ giám_đốc</w>
tr ai_
ng_th ầm</w>
h ẹ
dự_ định</w>
t ơ
ph ồng</w>
l ã</w>
buông_ tha</w>
_h ằng</w>
xăng_ dầu</w>
lo ng_l
ắ ng_t
điện_ ảnh</w>
xung_ đột</w>
v an
từ_b ỏ</w>
ngh ề_
lật_ đật</w>
hoà n_độ</w>
tính_ chất</w>
_h iệu</w>
19 5
triệu_ chứng</w>
cưu_ma_ trí</w>
v al
r ống</w>
hấ p_t
v ẳng</w>
tranh_ luận</w>
sưu_ tập</w>
s ô</w>
nghề_ nghiệp</w>
kh ê</w>
l ẻn</w>
kh ung_
hương_ ngọc_sơn</w>
ch ao</w>
3 3</w>
2 -
x ư
truy _t
s ủa</w>
ngẫu_ nhiên</w>
ngu_ ngốc</w>
bầu_ không_khí</w>
vô _danh</w>
v ấ
say_ mê</w>
li a_
kiế n_thành</w>
doanh_ nhân</w>
19 4</w>
ă ng_h
ng ãi</w>
cho áng_
_ph út</w>
_h ồn</w>
đổ ng_
ta xi</w>
hộ _t
học_ phí</w>
giờ _phút</w>
dị _thường</w>
tuy ên</w>
nổi_ dậy</w>
kết_ nối</w>
hư u</w>
mau_ chóng</w>
khe_kh ẽ</w>
hiệ t_
tài_ trí</w>
lời_ lẽ</w>
kh iêm</w>
h ột</w>
giáng_ sinh</w>
a b
/ 6</w>
động_t âm</w>
tu_ hành</w>
ngh iện</w>
b ửu_
b ôi</w>
201 9
sương_ mù</w>
m ốc</w>
g ắ
c ai_
đồ_ đạc</w>
x ắn</w>
vietnam net</w>
tr ư
s ăn_
nông_ nghiệp</w>
mừ ng_thầm</w>
gh e
gd- đt</w>
chủ ng</w>
go et
cao_ tăng</w>
tế_ bào</w>
trừng_ phạt</w>
nghiêm_ khắc</w>
lang_ thang</w>
h ụt</w>
y ết_
s ói</w>
bí _quyết</w>
_th ảo</w>
điều_ động</w>
bắt_ cóc</w>
a us
đ ế
v ắt</w>
tống_ đại_nhân</w>
nổi_ danh</w>
ng ây_
lo n</w>
an_ long</w>
đàm_ dược_sư</w>
r ầm_
hưng_ phấn</w>
cao_ hứng</w>
c ắt_
bi_ phong</w>
_h à</w>
đị ch_thủ</w>
tội_ phạm</w>
b ồ</w>
tư_d uy</w>
r ên_
nh ựa</w>
l in</w>
c ằm</w>
thiên_th iên</w>
sa_ mạc</w>
dứt_ khoát</w>
tiền_ lương</w>
sa n
ch ay</w>
16 /2</w>
s ter
c út</w>
phản_ bội</w>
ph ổi</w>
lơ_l ửng</w>
chậm_ trễ</w>
_nh ớ</w>
é p_
tuyệt_ thế</w>
rạng_ rỡ</w>
ngữ _
mo u
hiệt_ lợi</w>
cro ss</w>
ch ọn_l
bảo_ hiểm</w>
window s</w>
văn_ minh</w>
thời_ cơ</w>
kia_ mà</w>
hấp_t ấp</w>
hà_t ất</w>
anh_ tuấn</w>
7 5</w>
ng ần</w>
nam_ tử</w>
n_b ó</w>
gắ n_bó</w>
e mail</w>
dữ _liệu</w>
ngh iền</w>
x ổ</w>
vui_ sướng</w>
hoàng_ gia</w>
dân_ chủ</w>
ch áo</w>
_l y</w>
tham_ quan</w>
gia_ luật_
_x ác</w>
4 2</w>
xấu_ xí</w>
tội_ lỗi</w>
phù _
mặc_ dầu</w>
26 /2</w>
thành_ tựu</w>
suýt_ nữa</w>
đá t</w>
v iễ
triệu_ chi</w>
tr e
gi ỡn</w>
bản_ chất</w>
â p</w>
hôn_ mê</w>
chu a_
bất_ bình</w>
xan tr
thích_ khách</w>
_đ ài</w>
ướ n</w>
vương_ phủ</w>
qu i</w>
kinh_ điển</w>
củ a_
v an</w>
m ăt</w>
d âm_
tai_ hoạ</w>
sáng_ suốt</w>
p an
gi ai</w>
wa shi
tống_ bi_phong</w>
lu ỵ</w>
_h ại</w>
đồng_ bào</w>
nho_ nhỏ</w>
m ồng</w>
_ho ả</w>
tối_ cao</w>
thực_ hư</w>
ta_ đây</w>
n ể</w>
bất_đắc_ dĩ</w>
trang_ trí</w>
pháp_ bảo</w>
tậ p_l
phương_ hướng</w>
pau l</w>
mẫ n_
hoà n_t
vũ _văn</w>
quân_ sĩ</w>
nho áng</w>
m ô_t
lý_ nguyên_
làm_ phiền</w>
h eo</w>
tránh_ né</w>
sa_th ải</w>
phòng_ bị</w>
c ay</w>
tập_l uyện</w>
l and
ám_ ảnh</w>
trá ng_
s óng_
tuổi_ trẻ</w>
sá ch
náo_ nhiệt</w>
nhan_ sắc</w>
3 ,
đ i
ăn_ mày</w>
vị t</w>
k ar
hiện_ diện</w>
h đ
thố ng_lĩnh</w>
nhạ y_
ng ửng</w>
m âm</w>
hầu_ hạ</w>
a _thế</w>
th an_
phạm_ tội</w>
l ay</w>
nảy_ sinh</w>
khắc_ phục</w>
khoa_học_ tự_nhiên</w>
v ượt_
ph iêu</w>
nhạc_ sĩ</w>
n ứt</w>
hu ệ
tình_ báo</w>
rõ_r ệt</w>
quân_ tử</w>
kiên_ nhẫn</w>
_v ọng</w>
trúc_ phong</w>
tiền_t ệ</w>
thống_ kê</w>
t úc_
lấp_l oáng</w>
l ẻ</w>
hứ a_sĩ
c n</w>
đồ_ ăn</w>
vòng_ quanh</w>
tư _nhân</w>
trung_ nguyệt</w>
thần_ kinh</w>
nông_ thôn</w>
n_th iện</w>
n_ vẹn</w>
khiế t</w>
hứa_sĩ _công</w>
h er
b ri
_th u
đ ùa_
ste vie</w>
hạ _h
bá n_đ
b ẩy</w>
đặ n</w>
phi li
nh ục_
giê ng</w>
công_ lao</w>
ỡ _ng
uộ m</w>
nhiệt_ tình</w>
m ô_tô</w>
ke ng</w>
hưởng_ ứng</w>
s ta
ad am</w>
we b</w>
m ao</w>
một_ tí</w>
hứ a_h
cà ng_
a k
_l ập</w>
thủng_th ẳng</w>
tho ái</w>
hào_ quang</w>
23 /2</w>
tạ ng</w>
thanh_ thế</w>
ướ i_
tổ n</w>
cơ m_
chẳng_ mấy_chốc</w>
ng_h ô</w>
a se
trung_ học</w>
p or
giám_ thị</w>
công_ văn</w>
_ gia</w>
r ể</w>
hiếu_ kỳ</w>
g ấm</w>
doanh_ trại</w>
a f
đối_ địch</w>
viện_ trợ</w>
thử _th
thử_th ách</w>
ste ve
cộng_ sản</w>
bàn_ chân</w>
đ ẽ</w>
trúng_ tuyển</w>
r ọi</w>
r ên</w>
hù ng_t
xe _tải</w>
tâm_ linh</w>
k ẻo</w>
c âu_l
7 9
trang_ điểm</w>
nhũ n</w>
li ne
e i
m b
l ắp</w>
thầ y_th
ph ơi</w>
_l ợi</w>
thiên_t ôn</w>
long_l anh</w>
h am
_t uyệt</w>
t ấp</w>
r en
ni_ cô</w>
_ hoa</w>
r ảnh</w>
tự _th
ph ẳng</w>
d iêu</w>
bu ýt</w>
_huy ết</w>
15 0</w>
ậ n_th
ư _thư</w>
tiế ng_t
tiếng_t ăm</w>
thủ _
l ao_
khúc_ khích</w>
tối_ qua</w>
t ải</w>
pi on
nương_ nương</w>
gi ống_h
f u
tự_ sát</w>
trần_ cận_nam</w>
ph út_
chống_ cự</w>
bình_ nguyên</w>
ngọc_ chân</w>
lo a</w>
hẻ m</w>
cấp_ bách</w>
tự _x
nh ấn</w>
mặt_ trăng</w>
mù _m
ck er</w>
tống_ kha</w>
r úng_
giống_h ệt</w>
ch âm_
ợ m</w>
ấ n_t
vit toria</w>
đ àng</w>
tố p</w>
rư ỡi</w>
phong_ phú</w>
b ền_
đẩy_ mạnh</w>
đôi_ chút</w>
x éo</w>
ch ư</w>
v ùi</w>
tin_ cậy</w>
thành_ phần</w>
say_ sưa</w>
nữ _hoàng</w>
x ô
thư_ ký</w>
t u_l
ng ao</w>
hoà n_thiện</w>
ng ùng</w>
kháng_ cự</w>
chân_ trời</w>
bực_ bội</w>
đẹp_ đẽ</w>
v uốt_
rúng_ động</w>
kiến_ nghị</w>
hiế p</w>
t ụt</w>
lý _l
dồn_ dập</w>
cảnh_ cáo</w>
c ưng</w>
_l ạnh</w>
tử u_
phá o_
công_ cụ</w>
ph im_
k y
biến_ cố</w>
: 00</w>
văn_đ ế_đế</w>
quyền_ lợi</w>
nhập_ khẩu</w>
ng ượng_
làm_ nên</w>
ka therine</w>
h ộc</w>
y ếm</w>
phi_ cơ</w>
kh am</w>
_th ống</w>
lộ n_
đè n_đ
m s</w>
huyề n_thoại</w>
ch ạm_
ộ c_
vòng_ tròn</w>
minh_ hoạ</w>
hàng_ rào</w>
cần_th ơ</w>
4 1</w>
õ i_
thứ _trưởng</w>
thanh_ danh</w>
tam_ phong</w>
ri ch
quyết_ liệt</w>
mô_t ả</w>
l ựa</w>
giữ _g
giữ_g ìn</w>
em_ trai</w>
động_ vật</w>
tr ú
t ột_
m iêu_
go t_
ghi_ nhớ</w>
biế c</w>
_ph ép</w>
để _tâm</w>
tuyển_ dụng</w>
trụ _sở</w>
thầy_th uốc</w>
ngao_ bái</w>
đào_ tẩu</w>
y_th áng</w>
tiêu_ cực</w>
nh ấp_
nguyệt_ đàm</w>
kh ối_
bái_ kiến</w>
đỗ _cửu</w>
thể _d
sá ng_l
nam_ giới</w>
bao_ phủ</w>
v òm</w>
v .
tu ệ
nội_ bộ</w>
cây_ cối</w>
ề nh</w>
nh ược_
d iệm</w>
đ ấ
xế p_
vận_t ải</w>
vòng_ vây</w>
thiệt_ mạng</w>
sinh_ sống</w>
d uyệt</w>
a c
tiểu_ quyên</w>
thần_t ình</w>
dự _trữ</w>
th ải</w>
phủ_ nhận</w>
hân_ hoan</w>
ca_ nhạc</w>
đ ỉnh_
trọng_t ài</w>
thông_ cảm</w>
s úc</w>
r òng</w>
_l inh</w>
đình_ chỉ</w>
vật_ lý</w>
trúng_ độc</w>
qu ẩn</w>
n_th ất</w>
h ơi_
càng_ ngày_càng</w>
bàn_t án</w>
. 9
đồng_ loạt</w>
tự_x ưng</w>
tối_ thiểu</w>
tung_t ích</w>
th ậ
lâu_ đài</w>
ew a</w>
tóm_ lại</w>
thần_ tiên</w>
gi ã</w>
/0 4</w>
thủ _lĩnh</w>
th e</w>
song_ song</w>
bắt_ chước</w>
_ anh</w>
25 /2</w>
tiêu_ nguyệt_đàm</w>
khốn_ khổ</w>
b ành</w>
vũ_văn_hoá _cập</w>
sốt_ ruột</w>
ch uyện_
ti êm</w>
l ừ
h ăng</w>
e le
d ỗi</w>
đá ng_lẽ</w>
phấn_ chấn</w>
j am
hàm_ răng</w>
lay_ động</w>
got_ talent</w>
nhìn_ nhận</w>
n ẩy</w>
lý_t ịnh</w>
kh ốn</w>
4 4</w>
đánh_ bạc</w>
thử _nghiệm</w>
canh_ gác</w>
3 /
vô _lượng</w>
truyền_th uyết</w>
sứ_ quán</w>
nh ơn</w>
anh_ kiệt</w>
ả _r
độ n</w>
tuyên_ truyền</w>
n ăn_n
n ã</w>
cân_ bằng</w>
chư _vị</w>
ợ t_
đ ùng</w>
ám_ sát</w>
vân_ nam</w>
tr âm</w>
mu a_s
jo anne</w>
con_ mẹ</w>
c õi_
_tr i</w>
ăn_ cắp</w>
tr u_
quang_ minh</w>
hứa_h ẹn</w>
gi ăng</w>
d er
3 8
vị nh</w>
tồi_ tệ</w>
tiễn_ biệt</w>
thu ần_
th ính</w>
phương_ diện</w>
mua_s ắm</w>
hà _th
cham pion
ượng_ đế</w>
xếp_h ạng</w>
vân_ ngọc_chân</w>
tho a</w>
năn_n ỉ</w>
thân_ thiện</w>
th ắt_
n ắm_
l ốc</w>
kh ùng</w>
hã m_
bệ ch</w>
đối_ thoại</w>
xét_ xử</w>
ngạ o_
lừa_ gạt</w>
tập_ trận</w>
th ọ
mạ t_
ự t</w>
tr ên_
nhăn_ nh
m ẩu</w>
hộ _pháp</w>
_lea gue</w>
ph ượng_
nhà _s
liên_ minh</w>
giúp_ việc</w>
d iêm</w>
w c</w>
nh uộm</w>
kiêu_ ngạo</w>
hung_ dữ</w>
bình_ an</w>
x á
vă n_thanh</w>
tai_ mắt</w>
ng_l ượng</w>
ch ần_
r ủi_
ngà y_tháng</w>
lặ c_
giá n</w>
điể u</w>
z a
trân_ ân</w>
thánh_ thượng</w>
thi_ tuyển</w>
rủi_ ro</w>
n_th ủ</w>
l ây_
h ển</w>
c ũ
3 1</w>
ươ u</w>
ú y</w>
tống_ ngọc_trí</w>
tr ữ</w>
như _hải</w>
nh âm_
vô_t ận</w>
v er</w>
triệ u_long</w>
ro ber
nh uy
động_ lòng</w>
th ôn_
m ậu_
hộ_t ống</w>
công_ chúng</w>
ch ập</w>
ao_ chi</w>
đào_ như_hải</w>
tăng_th ư_thư</w>
so ạt</w>
l ỏi</w>
bệnh_ tật</w>
nhân_ lực</w>
m in</w>
lưu_l ao_chi</w>
xuất_ gia</w>
vấ n_thiên</w>
t ào</w>
ngọc_ nữ</w>
hoá _học</w>
dò _xét</w>
bản_ quyền</w>
đ ò</w>
tr uyệ
th ao_
n an_
hoàn_t ất</w>
h ầm_
dụng_ cụ</w>
chu_ triệu_long</w>
v ía</w>
thiệt_ hại</w>
địa_ ngục</w>
áo_ khoác</w>
tr o
r ất_
r en</w>
nhà _b
ma thi
m ầu</w>
hiện_ trường</w>
bảo_ kiếm</w>
đ ắ
vô _c
trung_ phụng</w>
thủ _phạm</w>
nh ĩ</w>
m anh_
khu ẩn</w>
b ực</w>
liên_ hoàn</w>
giá p_
be c
đâm_ ra</w>
ã o_
tiế p_l
thích _phương</w>
s c
phụ _thuộc</w>
chiến_th uyền</w>
_v ương_
_m i</w>
ững_ sờ</w>
tu ột</w>
s ững_sờ</w>
từ_b iệt</w>
trái_ cây</w>
phá _h
le n_l
l ậu</w>
c úm</w>
x chia</w>
quả _quyết</w>
nằm_ xuống</w>
nhất_ thiết</w>
ngọc_ yến</w>
b ồn_
đạo_ hạnh</w>
v ợt</w>
sửa_ đổi</w>
ph ức</w>
nói_ thẳng</w>
lý_t uân</w>
l ũng</w>
hà n_s
dự _thảo</w>
_d ành</w>
20 20</w>
đ ũa</w>
tình_ nhân</w>
thống_ trị</w>
r âu_
quan_ trung</w>
phương_ di</w>
phá_h uỷ</w>
n_l ao</w>
l ung</w>
khách_ quan</w>
hoà _nh
chữa_ trị</w>
thông_ điệp</w>
thiện_ nhu</w>
học_ hành</w>
gia_ sư</w>
cạ o</w>
bá ch
5 3</w>
3 -
washi ngton</w>
trang_ trại</w>
ng ậm_
khách_ khí</w>
lớ n_lao</w>
l ở</w>
khởi_ tố</w>
khách_ sáo</w>
gi r
chống_ đối</w>
_ mặt</w>
ây_th ơ</w>
wo o
tổ _sư</w>
ne y</w>
mục_ trường</w>
khất_ đan</w>
hàn_s ấm</w>
and ro
đ u</w>
xantr ô</w>
v ốn_
hồng_ thất</w>
bàng_ hoàng</w>
_t ông</w>
_l ang</w>
200 7</w>
trá ch_m
sư _tử</w>
ngoại_ trưởng</w>
một_ hai</w>
lớ n_tuổi</w>
khiêm_ tốn</w>
d en
ụp_ đổ</w>
truyệ n_ng
truyện_ng ắn</w>
s ụp_đổ</w>
n ạt</w>
n áy</w>
lý_nguyên_ cát</w>
cô xchia</w>
trắng_ bệch</w>
thời_ hạn</w>
thiê n_tử</w>
tb n</w>
ro nal
giản_ dị</w>
đ iêu_
ng ây_thơ</w>
giao_ lưu</w>
dư _th
_t ư</w>
_h ồng_
uy ể
s ẹo</w>
phi_ mã</w>
lừa_ đảo</w>
v ỉ
tiên_ phong</w>
r ừng_
t al
ngơ_ng ẩn</w>
h ơ
chỉ_ giáo</w>
ch ưng</w>
nguyễ n</w>
m ang_
ba ng
b ự</w>
_c ụ</w>
tỷ _phú</w>
tú _tuần</w>
tr êu</w>
r ĩ</w>
phá _hoại</w>
k an
ase an</w>
_t át</w>
_ph ủ</w>
khôn_ ngoan</w>
tph one</w>
qu ặn</w>
ngữ_ yên</w>
một_ triệu</w>
m wc</w>
lệ ch</w>
ai_ ngờ</w>
_l ộ</w>
ô tô</w>
s ọ</w>
nỗ i_
mười_ ba</w>
hành_ lý</w>
fo x</w>
d ở
d ượng_đế</w>
ch _c
xỉ u</w>
tần_ vương</w>
năm_ tháng</w>
ngăn_ trở</w>
khó _
hướng_ vấn_thiên</w>
giả _
bá _t
đồng_ mỗ</w>
đô- la</w>
đ ờ</w>
ào_ ào</w>
v ũng</w>
th ót</w>
người_ đời</w>
ền_t ảng</w>
đinh_ điển</w>
đ ãng</w>
thành_ thử</w>
r ôi</w>
no r</w>
new s</w>
n_th anh_
n ền_tảng</w>
b ạ</w>
đ ăng_t
tĩnh_ lặng</w>
tr ơn</w>
thiết_ lập</w>
s ếp</w>
hoàng_ dược_sư</w>
ch ải</w>
c ò</w>
smar tphone</w>
hàm_ đan</w>
cải_ trang</w>
sư ng</w>
sâu_ xa</w>
ng ừ</w>
lạnh_ nhạt</w>
khiêu_ chiến</w>
h ủ</w>
cảm_ ứng</w>
aus tra
định_ hướng</w>
đe m_
thạ c_
ngũ _
đối_ tác</w>
áy_ náy</w>
quảng_ nam</w>
ch ừng_
đường_ lối</w>
tr ục_
thái_ phó</w>
thá t</w>
th ô</w>
r ụt</w>
nuôi_ dưỡng</w>
li ne</w>
a n_tâm</w>
vang_ dội</w>
sa _s
nức_ nở</w>
mo bi
khóc_ lóc</w>
cho_ xong</w>
bài_ tập</w>
4 7</w>
yên_ ổn</w>
tham_ khảo</w>
hạ_h ầu_
hoa_ hồng</w>
thú _
nhất_ quyết</w>
l ượng_
tính_ năng</w>
tài_ nguyên</w>
s ông_
nhân_ loại</w>
nh ẩm</w>
ngọc_ lan</w>
ngh ẹn</w>
cười_kh ẩy</w>
tề _h
tiện_ nghi</w>
t v</w>
nhập_ viện</w>
m ác</w>
h ổn_
cáo_ từ</w>
ý _niệm</w>
vương_ ngữ_yên</w>
trở _ngại</w>
giảm_ giá</w>
g ãi</w>
d àn_
cây_ số</w>
ch ói_
c la
đệ m</w>
xinh_ xắn</w>
uyể n_thanh</w>
ser ge
n ôn</w>
dã_c ẩu</w>
champion s
b ìa</w>
14 /2</w>
ộ n_
xâm_ phạm</w>
chào_ hỏi</w>
anh_ trai</w>
am in</w>
thanh_ long</w>
s ừng_
ph ẫn</w>
làm_ quen</w>
hào_ hứng</w>
0 3
sơ _bộ</w>
phương_ chứng</w>
hù ng_h
đô _la</w>
trọng_ yếu</w>
n_t ay</w>
mộc_ uyển_thanh</w>
hư _v
th ầm_
nà y_
như _thường</w>
n ôn_
khước_ hoàn_độ</w>
k iểm</w>
hà n_l
d ưới_
động_ đất</w>
yên_ lòng</w>
valen tine</w>
tiếp_l ời</w>
n_th ảo</w>
mathi as</w>
h ao_
dụng_ ý</w>
bối_ cảnh</w>
v í</w>
tr òng</w>
c ấu</w>
bao_ công</w>
toàn_ quốc</w>
quy_ trình</w>
n ấm</w>
lo ài_
khả _hãn</w>
đ ói_
thuyền_ trưởng</w>
thu_ xếp</w>
sắc_ đẹp</w>
mu ỗi</w>
ầm_ ĩ</w>
í ch_
n iêm_
lương_ tâm</w>
cầu_ hoá</w>
che_ch ở</w>
u ẩn</w>
tới_ tấp</w>
toàn_ cầu_hoá</w>
mạ ch_m
m_ ch
kính_ cẩn</w>
khá i_
bướ m</w>
đồng_ tử</w>
tàn_ sát</w>
tu_ viện</w>
thượng_ đế</w>
lo ạn_
chuyên_ ngành</w>
cao_ su</w>
_c ường</w>
thành_ thật</w>
sửa_ chữa</w>
h òm</w>
b ão_
_ đầu</w>
tr ươc</w>
nh ện</w>
m ala
h ang_
d ạn</w>
bồ _tát</w>
b ới</w>
_th ái</w>
_ kỳ</w>
đổ ng_th
thái_ cực</w>
ru ồi</w>
loài_ người</w>
cười_ rộ</w>
chọn_l ựa</w>
c ú
điểm_ nóng</w>
tuỳ_t ùng</w>
t ắt_
ngần_ ngừ</w>
cô_ độc</w>
ê n_th
s iết</w>
phát_ tác</w>
i m
hợp_ nhất</w>
du_ học_sinh</w>
d ầy</w>
liên_ miên</w>
l ỡ
hoà_th ị
c eo</w>
b đ
b ù</w>
_s ỹ</w>
r ộ
ph ỏng</w>
l ọ</w>
h n</w>
enni s</w>
d ìu</w>
bank plu
v iêc</w>
tỉnh_ ngộ</w>
tinh_ tế</w>
thân_ binh</w>
thám_ tử</w>
t ục_
sáng_l ập</w>
lệ _hằng</w>
câu_l ạc_
/12 /2011</w>
t ơi</w>
steve _
phổ _ho
kỳ _thực</w>
ki s
giở _tr
câu_lạc_ bộ</w>
3 7</w>
h í</w>
ch ăng_
_t e
_b ệnh</w>
đ ụng_
vô_s ong</w>
nó n</w>
nguyê n_tử</w>
n ít</w>
gi ầy</w>
do ãn</w>
đồng_ tình</w>
vốn_ dĩ</w>
v èo</w>
tỉ _lệ</w>
s ky</w>
r ương</w>
nguy _cấp</w>
giở_tr ò</w>
g er
đại_ dương</w>
m ụ
hối_ hả</w>
hoá _trang</w>
hoà_thị _bích</w>
cây_ xăng</w>
_n ão</w>
10 /2</w>
đô _đốc</w>
tập _hợp</w>
ma r</w>
m_ n
lễ _vật</w>
la s</w>
ghi_ chép</w>
chiếu_ cố</w>
ch ầu</w>
bất_ tử</w>
a_h è</w>
thạ o</w>
r ắn_
h ờ
chủ_ nghĩa</w>
chăm_ chăm</w>
che_ giấu</w>
í ch
tận_ mắt</w>
tha_th iết</w>
t áo_
ng ỡ_ng
hư_v ô</w>
ch ồng_
_v ạn_
th ẫm</w>
p in</w>
nhăn_nh ó</w>
nghiêng_ mình</w>
lý_th uyết</w>
la_h ét</w>
bar ca</w>
6 4</w>
đăng_t ải</w>
vinh_ quang</w>
tận_ dụng</w>
thực_ hành</w>
h ọng</w>
g ánh_
địa_ lý</w>
tội_ ác</w>
n ạ
huỷ _diệt</w>
d _
ché m_
bà n_thờ</w>
_h ội_
yếu_ đuối</w>
hoàng_ giáo</w>
gi ùm</w>
d ừa</w>
_t ôn</w>
tí ch_th
ph ẩm_
nh ớ
mes si</w>
loại_ trừ</w>
dạy_ học</w>
bình_ sinh</w>
0 1
te s</w>
phòng_ chống</w>
mơ _m
mi ss
ch éo</w>
_s ợ</w>
đe n_
ý _đồ</w>
nh ộn_
kinh_ động</w>
d ang</w>
bộ _đồ</w>
bạ ch_th
_m ệnh</w>
4 3</w>
đón_ nhận</w>
vững_ chắc</w>
v ượng</w>
tín_ nhiệm</w>
ph ì</w>
n ép</w>
g tv
d ưa</w>
chết_ đuối</w>
cao_th ức</w>
_t ứ</w>
_ nghi</w>
đại_ trượng_phu</w>
u_l inh</w>
sơ _s
sôi_ nổi</w>
nh ữ
hổn_ hển</w>
âm_ u</w>
vỉ a_hè</w>
vệ _
văn_ võ</w>
trường_ sinh</w>
trương_ tam_phong</w>
to a</w>
quân_ sư</w>
cầu_ xin</w>
bồn_ chồn</w>
bả n_tính</w>
_x íu</w>
_t ỳ</w>
_t ừ</w>
_c ử</w>
ướ p</w>
điều_ hoà</w>
trí _nhớ</w>
trong_ sáng</w>
tr iệt</w>
th ung_
m ài</w>
chăng_ nữa</w>
_ph ục</w>
w ar
u_l a</w>
ph àn_
ph an</w>
nghiêm_ trang</w>
n_đ ông</w>
con_ em</w>
chân_ tướng</w>
t ẩm</w>
lý_t ư</w>
hộ _vệ</w>
choáng_ váng</w>
_th iên</w>
_kh ôn</w>
đem_ lòng</w>
xe_ buýt</w>
ch ảy_
tổ n_
ngon_ lành</w>
khiế u_
0 -
vận_ hành</w>
r ao</w>
kinh_ dị</w>
khung_ cảnh</w>
f e
dưới_ trướng</w>
ca me
uố i_
l uống_
i c</w>
gtv t</w>
è m_
vuốt_ ve</w>
tiêu_ tan</w>
t i_
so ng_th
ronal do</w>
ma c
kỳ _vọng</w>
h iên_
g à
d n</w>
trí _thức</w>
s úng_
ph e
mưu_ đồ</w>
l ĩnh_
cao_ siêu</w>
bao_ bất_đồng</w>
we b
truy_t ìm</w>
thung_ lũng</w>
r t</w>
p_h ành</w>
p_ báo</w>
bị _cáo</w>
xi n_
x ăm</w>
tạ _an</w>
thi_ cử</w>
nhuy ễn</w>
mù i_
hiện_th ực</w>
4 8</w>
ắng_t ai</w>
đ ã
tạ t</w>
nhân_ từ</w>
mã nh_
chảy_ máu</w>
đội_ trưởng</w>
đánh_ thức</w>
đo ản_
va_ chạm</w>
tr ào_
t ị
sư _đạo</w>
o .
ja ke</w>
ân_ hận</w>
tha n_th
qu ắc</w>
ngô _l
ng ờ_v
co r
tổ_ quốc</w>
than_th ở</w>
riê ng_t
ngờ_v ực</w>
địa_ đạo</w>
đại_ phu</w>
tho ắt</w>
th ình</w>
si nh.
m ỉ
bất_ an</w>
xong_ xuôi</w>
từ_b i</w>
s i_
ng ợi</w>
chúng_ em</w>
bình_ minh</w>
_c ôn</w>
tâ y_t
tu ệ</w>
th ấu_
ng ặt</w>
lặ ng_
g ran
đầ u_l
ô -
t uốt</w>
qu ế
phong_ độ</w>
nội_ thương</w>
nghi_ hoặc</w>
m ây_
ch ọc_
bình_ định</w>
4 6</w>
đao_ kiếm</w>
xu ẩn</w>
kho át_
h án_
cuồng_ phong</w>
c ẩn_
ben t
đ ốn</w>
thảm_ thiết</w>
nh ếch</w>
ngỡ_ng àng</w>
n_t iện</w>
kiế n_đức</w>
báo_ động</w>
b iên_t
vil la
sát_ thủ</w>
ne sia</w>
in i</w>
fer r
chân_ nhân</w>
b ât</w>
_th ần_
đà ng_
vi c</w>
tu_l uyện</w>
sắp_ sửa</w>
r ậm_
nh e</w>
ng ỏ</w>
mệ t_
h am_
cá ch_thức</w>
_ k
ồ _
thượng_th ư</w>
thương_ nghị</w>
thí _nghiệm</w>
sá ng_tác</w>
steve_ jobs</w>
nhật_ ký</w>
h áo_
/0 4
d ục_
đ iềm</w>
v ỡ
mơ_ ước</w>
ma tt</w>
khoa_học_ xã_hội</w>
dương_ tử</w>
củ ng_
chí _
8 8
tr êu_
r ồi_
ph ì
mù_m ịt</w>
khôn_ lường</w>
b ây</w>
xo á
u_l ộ</w>
thù _h
th iêng</w>
s ứ
m iệt</w>
l d</w>
x ỉ</w>
tổng_ cộng</w>
tu ân_
t ennis</w>
n_th ần</w>
công_ cộng</w>
came ra</w>
a .</w>
tây_ hạ</w>
mi cro
diện_ mạo</w>
con_ nít</w>
châu_ mỹ</w>
austra lia</w>
_v ở</w>
chém_ giết</w>
b ân</w>
_c ấu</w>
độc_ cô
t ướ
phong_ toả</w>
hùng_t ín</w>
_th ú</w>
tí n_l
tiề u_
m ăng</w>
c ù
ap o
đ anh</w>
trấ n_tĩnh</w>
nhạy_ cảm</w>
n da</w>
hoảng_ loạn</w>
gắng_ gượng</w>
tâm_ tư</w>
tài_ khoản</w>
l í</w>
hoả _
gi ã
dật_ tài</w>
có_ ích</w>
s ụp</w>
l ẫ
l ũ
hò _h
ho ặc_
d el
cá p</w>
biể u_lộ</w>
_x ã</w>
_ch i</w>
3 9</w>
201 3</w>
. .
âm_ quý_phái</w>
yêu_ mến</w>
thuỷ _nguyệt</w>
nóng_ lòng</w>
ngang_ nhiên</w>
n ể_
mất_ hút</w>
công_ cuộc</w>
ả_r ập</w>
y_ học</w>
võ ng</w>
r u</w>
p a</w>
gam e</w>
b ẽ
_h ầu</w>
đội_ tuyển</w>
xe _l
tăng_ giá</w>
phi_ công</w>
mới_ mẻ</w>
khởi_ động</w>
hành_ quân</w>
d iên</w>
chiêm_ ngưỡng</w>
bởi_ thế</w>
and re
_m ai</w>
ấn_đ ấu</w>
tung_ toé</w>
trống_ rỗng</w>
tr ích</w>
t ần_th
pi er
nhân_ sự</w>
nh óc</w>
ngh e_
ng áy</w>
một_ ngàn</w>
lý_t ử
l i_
f al
cướ p_
ch ăn_
_c àng</w>
đàm_ phán</w>
thái_ sơn</w>
s ục</w>
ph ấn_đấu</w>
may_ ra</w>
m ời_
lợi_ thế</w>
duyên_ dáng</w>
cảnh_ vật</w>
chịu_ thua</w>
bồi_ dưỡng</w>
đ ế_
v éo</w>
không_ tài_
ar i</w>
9 9
tổ_ tiên</w>
r ồ</w>
nhà_b ếp</w>
m ùng</w>
k o_
indo nesia</w>
há _h
há_h ốc</w>
ch uối</w>
xư ng_hô</w>
t s
se oul</w>
ph ó
l ân_
hiên_ ngang</w>
giả _như</w>
tín_l ăng</w>
tín_ dụng</w>
r ầm</w>
lưu_ thông</w>
làm_ đẹp</w>
hoặc_ giả</w>
hoàng_ phủ_
andro id</w>
ủ ng_
vô_l ý</w>
tá n_thưởng</w>
tá n_thành</w>
te l</w>
ro n</w>
quá t_
lãnh_ tụ</w>
cầu_ nguyện</w>
chỉ _d
đồng_ nai</w>
đoàn_ kết</w>
đ ốc_
ă n_đ
thỉnh_ giáo</w>
sử _
ng i
n ô_t
m ịch</w>
chá nh_
bộ _máy</w>
_tr ần</w>
í m</w>
sa m
r ễ</w>
giao_ đấu</w>
ú _
v ệt</w>
tr ổ</w>
thi_ lang</w>
th ỏ</w>
ngo ạn</w>
kim_ lan</w>
iệ c</w>
hồng_ ngọc</w>
củng_ cố</w>
cảm_ tạ</w>
ch ừ</w>
ch ối_
tống_ sư_đạo</w>
thực_ chất</w>
không_tài_ nào</w>
giám_ mục</w>
g ọn_
c ốc_
bà _cụ</w>
đ ỗi</w>
trân_ trọng</w>
nhận_ biết</w>
mai_ hoa</w>
chuộ ng</w>
_ch ương</w>
ứ a_
áp_ đảo</w>
và nh</w>
s ào</w>
h ót</w>
di a</w>
xúc_ phạm</w>
r ẫy</w>
phản_ công</w>
er i
ch ĩa</w>
_nh iệm</w>
ưu_ đãi</w>
trong_ trẻo</w>
pháp_l ý</w>
villa s-
villas- bo
t ẩy</w>
n ôi</w>
máy_ ảnh</w>
l ơn</w>
gó c_độ</w>
cô n_đồ</w>
2 .
tư _đồ</w>
ti on</w>
thường_ ngày</w>
thu a_
phi_ huyên</w>
ni a</w>
l anh</w>
5 5</w>
đột_ phá</w>
liên_ bang</w>
l ữ</w>
h ốt</w>
có _th
châu_ âu_
chuy ể
/1 1
tiêu_ dật_tài</w>
hoàn_ nhan_
chấ p_hành</w>
nể_ mặt</w>
ng ỡ</w>
hiệ p
gi ựt</w>
da fi</w>
chút_ ít</w>
ch ập_
y_t á</w>
tiêu_ thụ</w>
t ịnh_
riêng_t ư</w>
ngạ nh</w>
hương_ cốc</w>
_lã nh</w>
_d uyên</w>
8 /2</w>
vi_ tính</w>
học_ hỏi</w>
gật_ gật</w>
ch ồm</w>
_ph ạt</w>
đ ăm</w>
vô_t ội</w>
ph ơ</w>
ngày_ một</w>
lị a</w>
hẹ n_
giả _sử</w>
ch ót</w>
c ưa</w>
6 5</w>
ứng_ viên</w>
đề_ án</w>
đẹp_ trai</w>
kh àn</w>
in o</w>
d ằn</w>
bánh_ xe</w>
b ến_
_th ụ</w>
7 1</w>
serge i</w>
nh am_
mộc_ kiếm_
giải_ thoát</w>
gay_ gắt</w>
d ính_
bất_ mãn</w>
bảo_ vật</w>
xem_ lại</w>
tinh_ thông</w>
thứ _b
sách _vở</w>
hết_ thảy</w>
hà _lan</w>
e _ngại</w>
bố p</w>
u_l ượng</w>
thử _hỏi</w>
th ốn</w>
no kia</w>
ngần_ ngại</w>
chế_ biến</w>
_kh ắc</w>
đánh_ máy</w>
to n_
quát_ tháo</w>
qu ên_
g v</w>
villas-bo as</w>
thầ n_tượng</w>
t úng</w>
l ườm</w>
f pt</w>
cứng_ rắn</w>
13 /2</w>
nhị _
đầu_ đuôi</w>
yêu_ quý</w>
văn_t ự</w>
tỏ _tình</w>
kho ác_
giám_ khảo</w>
diên_ khánh</w>
cung_ cấm</w>
ầ ng_
đào_ phương</w>
suy _đoán</w>
quảng_ ngãi</w>
mê _m
lậ p_l
in es</w>
hành_ lễ</w>
hoan_ hỉ</w>
bồi_ thường</w>
tự_th áp</w>
luống_ cuống</w>
kim_ tự_tháp</w>
f ed
u .
phili pp
nghe_ nói</w>
l ìa</w>
4 -
tra_ xét</w>
s àng</w>
r ong</w>
nhỏ _xíu</w>
ngu_ xuẩn</w>
mê _
ki e</w>
đông_ tử</w>
vàng_ bạc</w>
trộ m_
r á
l ẩn_
i a
hư_h ỏng</w>
hà_n am</w>
cảm_ tình</w>
cli n
buồ n_th
x h</w>
s ừng</w>
_x ưa</w>
á _
v ượn</w>
từ_th iên</w>
sơ _sinh</w>
h en
goet z</w>
chu a</w>
che l</w>
a -
từ_th iện</w>
tầm_ mắt</w>
quy ệt</w>
n ết</w>
hiếu_ chính</w>
bá ch_t
âu_ yếm</w>
u n</w>
rên_ rỉ</w>
re o_
ng ậm</w>
lý_ giải</w>
l õi</w>
hiệp _hội</w>
gia_ nhân</w>
c ào</w>
ợt_ nhạt</w>
v o</w>
nh ợt_nhạt</w>
lâm_ tĩnh</w>
gợi_ ý</w>
đ ùng_
vit amin</w>
tuổi_ tác</w>
thái_ úy</w>
thá m</w>
cường_ địch</w>
_n át</w>
vậ y_thì</w>
văn_ chương</w>
v iếng</w>
u ổi</w>
tuỳ _ý</w>
thiệu_ đông_tử</w>
song_th ân</w>
quá_ đáng</w>
o o
lừ ng_lẫy</w>
k _
hoạ _sĩ</w>
d ạt</w>
d õ
c ọ</w>
_n inh</w>
4 ,
đồng_ môn</w>
v ướng</w>
thanh_ thị</w>
nh ợt</w>
kiều_ bào</w>
gi ễ
g re
anto ine</w>
ổ m</w>
trực_ thăng</w>
thiên_ cơ</w>
t z</w>
sinh_ vật</w>
không_ tưởng</w>
khiế m_
học_ viên</w>
chất_ vấn</w>
c ập_
7 7</w>
17 /2</w>
trần_ hiếu_chính</w>
t r</w>
làm_ trò</w>
hiế n_
h ăm_
giang_ văn_thanh</w>
_đ iều_
ỷ u</w>
v ắ
mã _văn_
ho c</w>
fed er
ưng_ thuận</w>
tối_ tăm</w>
thừa_ tướng</w>
th ai_
t ượng_
qu ật_
lý_tử _thông</w>
iế u_
hung_ ác</w>
xê -
x ê</w>
tiế c_
mã n_
m ỏi_
bánh_ mì</w>
bác_ sỹ</w>
đấ ng</w>
điện_ hạ</w>
lia_ lịa</w>
khuất_ phục</w>
giết_ hại</w>
dạy_ bảo</w>
ang_ quân</w>
x ì</w>
tỷ _thí</w>
to r</w>
th ơi</w>
sở _trường</w>
r ạng</w>
r ã
nh ọc_
ma u
chuyện_ trò</w>
chi_ tiêu</w>
đ ẳng_
đ êu</w>
thẩm_ định</w>
quyết_ chiến</w>
phù _thuỷ</w>
nam_ hải_
hình_ dạng</w>
h ừ
d ai</w>
bền_ vững</w>
bạ ch_t
a bi
ưu_ thế</w>
v ần</w>
thần_ trí</w>
phần_ trăm</w>
p h</w>
mã_văn_ phi</w>
k en
e vn</w>
bệnh_ hoạn</w>
bạ n_
binh_ mã</w>
_ công_
tr ưng_
tr ăng_
tho ạt</w>
n ách</w>
miss _te
lạ _thường</w>
cổ _xưa</w>
chiến_th uật</w>
ca_ ngợi</w>
đạ m_
tr ật</w>
người_ tình</w>
lãng_ phí</w>
khu ỷu</w>
kho ả
kh ưu_
hầu_ hạo</w>
ảm_ đạm</w>
đổng_th ục_
v ụng_
th ói</w>
ng àn_
mù _l
mù_l oà</w>
khởi_ đầu</w>
hiếu_ thành</w>
gi ặt</w>
đường_ bộ</w>
tho ạt_
quyết_ đấu</w>
nhảy_ xổ</w>
ng_h iến</w>
h ắt</w>
đàng_ hoàng</w>
ác_ mộng</w>
tướng_ sĩ</w>
thái_ nguyên</w>
t ế
r ay</w>
quần_ chúng</w>
lôi_ kéo</w>
kỹ _càng</w>
h ỷ</w>
dung_ mạo</w>
c ày</w>
_d uyệt</w>
tranh_ đấu</w>
thiể u_
người_ người</w>
lu ồn</w>
kinh_ thành</w>
h ả
d ằn_
_đ ồng</w>
00 ,000</w>
p _viên</w>
l áo</w>
kính_ phục</w>
căm_ hận</w>
đều_ đặn</w>
thuỷ _sản</w>
th ẳng_
ng_d ạc</w>
n uốt_
mo i</w>
hiế m_
h ờn</w>
dõ ng_dạc</w>
dân_ cư</w>
thí m</w>
th ấm_
sá ng_tỏ</w>
nô _lệ</w>
m ao_
há ch_l
giả _th
cự _tuyệt</w>
s ổ
s ti
nghênh_ tiếp</w>
mari uy
iễ u</w>
cụ m</w>
cư _sĩ</w>
điệ u_
quan_ quân</w>
lắp_ bắp</w>
h .</w>
ch iên</w>
vật_ liệu</w>
thư c</w>
s sa
nhạc_ sơn</w>
kịch_ bản</w>
bao_ la</w>
6 -
sco tt</w>
nhạ o</w>
kinh_ phí</w>
_t ầng</w>
xo è</w>
thị _thần</w>
thương_ tích</w>
nội_ vụ</w>
nguyễ n_t
n_s óng</w>
m al
lồng_ ngực</w>
là n_sóng</w>
dự ng_
0 ,
đồng_ hành</w>
tàn_ ác</w>
r ạch</w>
ph ì_
mặc_ kệ</w>
là _lạ</w>
l ơ</w>
h ấp</w>
bực_ tức</w>
b la
a da</w>
phì_ cười</w>
m ợ</w>
dị _
chỉ_d ẫn</w>
_m ỉ</w>
_l ao</w>
_h ùng</w>
5 0%</w>
đồ n_đại</w>
quảng_ ninh</w>
phù_ kiên</w>
p_th iên_
n_l út</w>
l ặp</w>
tri_ thức</w>
sơn_ động</w>
siêu_ thị</w>
lỗ _h
bậ n_tâm</w>
_c ận</w>
đ ới</w>
ô _nh
tí n_đồ</w>
thanh_ y</w>
sho w
nhân_ gian</w>
kh ương_
a g
_v ăn_t
uy _thế</w>
tr ơ
sôi_ động</w>
quy_t ắc</w>
chủ_ nghĩa_
đến_ cùng</w>
thứ_ bảy</w>
s ấn</w>
s ải</w>
r ã</w>
khả _ngọc</w>
g ẫy</w>
đẳng_ cấp</w>
đăm_ đăm</w>
v á</w>
rậm_ rạp</w>
ra chel</w>
r át</w>
ph ệ
le t</w>
l ừng</w>
huy ên_
dòng_ họ</w>
vui_ chơi</w>
phản_ chiếu</w>
nô_t ỳ</w>
mơ_m àng</w>
v ù</w>
t ắm_
o anh_
nằm_ mơ</w>
m ầy</w>
eli nor</w>
cầm_ đầu</w>
tr ạc</w>
tiêu_ chí</w>
lâm_ chấn_
l ắng_tai</w>
h ươu</w>
_v inh</w>
200 6</w>
trò n_
thượng_ hoàng</w>
phong_ lưu</w>
kinh_ châu</w>
d y</w>
bất_ bại</w>
_h ộ</w>
y ou
thá n_
n è</w>
ge or
diệt_ tuyệt</w>
cương_ quyết</w>
/ 2010</w>
đ ốm</w>
ó p</w>
th ưa_
m r
ll ar
họ _hàng</w>
hắc_ bạch
7 9</w>
đời_ nào</w>
đánh_ cắp</w>
ph a_
nh ắn_
ng ắm_
ho nda</w>
c t
vương_ ngọc_yến</w>
nghe _ng
mùi_ vị</w>
cừu_ thiên_
chá n_
đông_phương_ bất_bại</w>
tuyệt_ đỉnh</w>
tu s</w>
thôi_ thì</w>
o p
minh_ giáo</w>
dương_công_ khanh</w>
chứng_ nhận</w>
c n
bước_ tiến</w>
_s ắc</w>
đ ố</w>
vù _v
vù_v ù</w>
tan_ vỡ</w>
ngó n_
ch ar
_tr ộn</w>
thạch_th anh</w>
lành_ mạnh</w>
lo ng_th
l ơi</w>
kê u_la</w>
khó_ coi</w>
khu ôn</w>
hoàng_ kim</w>
du ỗi</w>
bất_ tỉnh</w>
b ãi_
0 3</w>
đối_ đãi</w>
điềm_ đạm</w>
reo_ hò</w>
phong_ cảnh</w>
p_thiên_ hoàn</w>
nhất_ tề</w>
m .</w>
lê _thị
hợp_ pháp</w>
cấm_ vệ</w>
bộc_ lộ</w>
bách_ xuyên</w>
_th ác</w>
27 30
độc_ thân</w>
uộ t</w>
tha o_th
kích_th ước</w>
hãm_ hại</w>
giai_ cấp</w>
ci a</w>
đỗ _
triệu_ đức_
thuậ n_tiện</w>
r ô</w>
r ào_
philipp ines</w>
nhu ệ</w>
nh ât</w>
nghe_ng óng</w>
lâm_chấn_ nam</w>
cơ _cấu</w>
ch ợ
c en
ò m_
tề_h ạo</w>
tất_ huyền</w>
tây_ nam</w>
o 0
n ad
lu ỹ</w>
kim_ loại</w>
d ậ
an_ bài</w>
ẩn_ nấp</w>
trư _cốc</w>
rồi_ đây</w>
mưa_ gió</w>
m ơi</w>
lé n_lút</w>
gi ỏ</w>
d ụi</w>
cu p_
bà_ bà</w>
_l ưỡng</w>
ổn_ ngang</w>
v óc</w>
triệu_đức_ ngôn</w>
t ẩu_
o0 o</w>
ng ổn_ngang</w>
loại_ bỏ</w>
g ầm_
bá _thông</w>
đồng_ đạo</w>
ya ho
x ì
tự _ý</w>
nắm_ bắt</w>
ng_l iêng</w>
ng ùi</w>
n_to à</w>
l âu_l
d è
ch ực</w>
bổ n_
bái_ tử
th ắm</w>
r à
dã _man</w>
vũ _
t ồi</w>
n an
m óc_
gran t</w>
chu_ du</w>
_l o
đột_ nhập</w>
y_ giờ</w>
x ơ</w>
thiê ng_liêng</w>
se y</w>
r ầy</w>
m_c ỏi</w>
kết_ nghĩa</w>
ké m_cỏi</w>
bái_tử _đình</w>
bàn_ luận</w>
biên_t ập</w>
_tr ưng</w>
_l uật</w>
ù n_tắc</w>
văn_ mẫn</w>
thanh_ tú</w>
su s</w>
nữ _nhi</w>
nhiế p_thiên_hoàn</w>
nh ả</w>
mê_ hoặc</w>
ký _t
k í</w>
g ăm</w>
cửa_ hiệu</w>
căn_ dặn</w>
báo_ đáp</w>
bài_ toán</w>
_d ễ</w>
8 00</w>
vắng_ vẻ</w>
s óc_
ư _nhân</w>
đồ _vật</w>
đại_ minh</w>
x ảo_
tôn_ kính</w>
truy _cập</w>
tr u</w>
thất_ sắc</w>
li n
l ọc</w>
giao_ tiếp</w>
_c ổ</w>
tr iết</w>
t ía</w>
phản_ kháng</w>
nghi_ vấn</w>
mong_ manh</w>
g ái_
cổ _đông</w>
chống_ chọi</w>
_ kiều</w>
6 00</w>
0 2</w>
đoản_ kiếm</w>
thủ _lãnh</w>
r anh</w>
l h
giận_ dỗi</w>
de s</w>
chỉ_ định</w>
đại_ khái</w>
thứ _tự</w>
sân_ chơi</w>
ngũ _hành</w>
hỏi_ han</w>
hoàng_phủ_ tinh</w>
fal ko_
_ng a</w>
_h ưng</w>
4 9</w>
đại_ trúc_phong</w>
đánh_ dấu</w>
y sia</w>
vô _b
va ti
trung_ uý</w>
r anh_
ng ẩn_
kinh_ sợ</w>
dân_ số</w>
chì m_
binh_ lính</w>
xe_ khách</w>
x ướng</w>
vùng_ xa</w>
tây_t ạng</w>
thán_ phục</w>
t ăm_
se x</w>
n iệm_
ho ạn_
h ận_th
_l ỗ</w>
_b ố</w>
/ 5</w>
trên_ dưới</w>
quốc_ tuấn</w>
qu ậy</w>
nã y_giờ</w>
me gan_
kiểm_ điểm</w>
chập_ ch
b ồng_
b ơ</w>
_đ o
tích_th ư_nhân</w>
t ắc_
động_ lực</w>
_thị _trường</w>
5 -
đồng_ minh</w>
đ ẩu</w>
xử _phạt</w>
v ới_
ste ve</w>
r ât</w>
nh ơ</w>
khu a</w>
chẳng_ trách</w>
b ừa_
b ênh</w>
ản_ xuất</w>
vận_ mệnh</w>
uy ến_
triệt_ để</w>
s ặc</w>
lý_ kiến_thành</w>
kiên_ trì</w>
ch ận</w>
ớ _ng
ắng_ giọng</w>
trẻ _trung</w>
thống_ khổ</w>
sinh_ mạng</w>
o r</w>
no el</w>
nh áy</w>
megan_ fox</w>
m p
kh an</w>
i b
h ắng_giọng</w>
c ắm_
bả o_th
vinh_ dự</w>
v ớ</w>
từ _chức</w>
s ẫm</w>
phê _bình</w>
kh ao</w>
d ép</w>
d ào</w>
ch ao_
đ iếc</w>
tố c_
trịnh_ trọng</w>
thẩm_ quyền</w>
thuỷ_ tinh</w>
ta n_t
nguyễn_đ ức_
lừa_ dối</w>
hi_ sinh</w>
feder er</w>
cấu_ kết</w>
chu_ bá_thông</w>
đỏ _
đa_ dạng</w>
tướ ng_lĩnh</w>
tài_ trợ</w>
sở _thích</w>
phàm_ bình</w>
nh ăng</w>
một_ mạch</w>
máy_ móc</w>
l áng_
h ăng_h
gia_cát_ dật</w>
công_ sức</w>
cay_ đắng</w>
can ada</w>
ti vi</w>
phân_ phối</w>
n_th ông</w>
ớ_ng ẩn</w>
xương_ bình</w>
xã _hội_
thơ m_
si te</w>
ngất_ xỉu</w>
ng ớ_ngẩn</w>
bí ch
_h u
w al
tuyệt_ luân</w>
tr ì_
thiên_ đường</w>
thiên_ lý</w>
th a_hồ</w>
so ft</w>
s im</w>
nhậ p_học</w>
l ó
gi ề
cập_ nhật</w>
bản_ năng</w>
201 5</w>
ởi_ mở</w>
điểm_ chuẩn</w>
y ết</w>
triệu_ tập</w>
c ởi_mở</w>
ba_ mẹ</w>
a li
_h ạn</w>
ă p</w>
ác_ độc</w>
xác_ minh</w>
tỉ _mỉ</w>
truy _đ
tiêu_ hoá</w>
thân_ hành</w>
nhà _ch
huyết_ đao</w>
hoang_ dã</w>
giá n_đ
ấp_th uận</w>
thâm_ tâm</w>
sửa_ soạn</w>
rà _so
rà_so át</w>
r ầu_
ngẩn_ ngơ</w>
ma_ quỷ</w>
m ờ_mờ</w>
hà_ giang</w>
ch ấp_thuận</w>
canh_ giữ</w>
x uyến</w>
v ờ</w>
tâm_ nguyện</w>
r è</w>
r iết</w>
ng_t ộc</w>
manh_ mối</w>
kho ét</w>
gi ường_
dị ch_
du_ bạch
du_bạch _phong</w>
ch ẩ
xử _trí</w>
tứ_ kết</w>
tạ _
trường_ giang</w>
thổ _lộ</w>
thuỵ _sĩ</w>
n_t ừ</w>
k ình_
chiếm_ đoạt</w>
bó p_
b ơ
điển_ hình</w>
ú _phương</w>
tiểu_ siêu</w>
thời_ giờ</w>
mala ysia</w>
lâu_ thiên_tôn</w>
khí _lực</w>
chú _trọng</w>
ché p_
ch ảo</w>
bất_ ổn</w>
ẩn_ hiện</w>
đô _thống</w>
v ăng_
tho ả</w>
qu ần_đ
phủ _binh</w>
ng át</w>
l ộng</w>
cam_ tâm</w>
bằng_ không</w>
bà y_
đẹp_ mắt</w>
từ_t ốn</w>
th ừng</w>
s ỏi</w>
mạch_m áu</w>
chu ôi</w>
bi_ thương</w>
_c an</w>
đau_ nhói</w>
đ út</w>
vati can</w>
tổn_ hại</w>
ti na</w>
thượng_t ú_phương</w>
phong_ bì</w>
mỹ _lệ</w>
d ọn_
cư _x
26 2</w>
ố m_
thị _xã</w>
nha_ môn</w>
nh ằn</w>
nh ậu</w>
mi s
iễ m_
bắc_ phủ_binh</w>
bảo_ toàn</w>
b ụ
í _nghiệm</w>
ân_ oán</w>
ph ước_
mộc_ hợp</w>
d ô</w>
tung_ hoành</w>
le a
dọn_ dẹp</w>
cá _tính</w>
cuố ng_
châu_ phi</w>
bổ _nhiệm</w>
1 /2</w>
xa_ cách</w>
trung_ cấp</w>
thanh_ thư</w>
sá ch_
ruộ t_
một_ lòng</w>
mu r
lớn_ nhỏ</w>
lộ _trình</w>
hoành_ hành</w>
d ao_động</w>
chứ a_
đường_ sắt</w>
phút_ chốc</w>
phòng_th í_nghiệm</w>
hiền_ lành</w>
_l ệnh</w>
_l iên</w>
tống_ phàm_bình</w>
trăm_ ngàn</w>
ngoài_ mặt</w>
lư ỡng_
luật_ pháp</w>
l ờ</w>
chiế t</w>
đúng_ đắn</w>
tử _thi</w>
tại_ chức</w>
thì _
sai_ sót</w>
r _
ngọc_ đường</w>
n_th uỷ</w>
lũ _l
hiệu_l ực</w>
chẩ n_đoán</w>
ch ùi</w>
đồng_ bọn</w>
m ắng_
ho t</w>
giáo_ hoàng</w>
bần_ bật</w>
bất_ thình_lình</w>
_d iễn</w>
_b ang</w>
đ ôn</w>
ác_ liệt</w>
văng_ vẳng</w>
tu ỵ</w>
t ộc_
phân_ chia</w>
như_ không</w>
mắt_ thấy</w>
lạm_ phát</w>
li ke</w>
b in</w>
ứng_ biến</w>
woo d</w>
tiếp_ ứng</w>
quý _tộc</w>
nhà_ xuất_bản</w>
micro soft</w>
lấy_ lòng</w>
l ọi</w>
_đ iện</w>
_v iết</w>
x ẩy</w>
tiềm_ năng</w>
tinh_ vi</w>
thang_ máy</w>
sam sung</w>
o x
ngh ía</w>
mong_ đợi</w>
huyền_t ông</w>
g al
_tr ung_
21 /11</w>
đ v</w>
ôn_ hoà</w>
to ạ
thay_ mặt</w>
nhảy_ múa</w>
cảm_ tưởng</w>
binh_ lực</w>
be l</w>
đạo_ nhân</w>
yếu_ kém</w>
thạc_ sĩ</w>
phá p_th
làm_ nhục</w>
kỹ _lưỡng</w>
gi ò</w>
chịu_ khó</w>
bảo_ hộ</w>
_x uyên</w>
thiêu_ đốt</w>
quả _nhân</w>
quy ến</w>
nh iếp</w>
kiên_ cố</w>
khô _kh
khí _hậu</w>
h ấp_th
ch ướng_
web site</w>
u_ ám</w>
trát_ mộc_hợp</w>
s ặc_
o ải</w>
ngoài_ trời</w>
chứng_ chỉ</w>
đau_ thương</w>
xếp_h àng</w>
tự _nguyện</w>
trọng_t ôn_
sơn_ cốc</w>
phong_ ba</w>
ph ố
ne s</w>
l ề</w>
hoá _giá</w>
ber g</w>
đột_ kích</w>
đội_ hình</w>
ân_ cần</w>
lãnh_ thổ</w>
hình_ bóng</w>
hài_ cốt</w>
h ước</w>
cực_ điểm</w>
cuồng_ nhiệt</w>
z e
trái_ phép</w>
th ao</w>
p_b ê</w>
go r</w>
f e</w>
dẫn_ dắt</w>
d è</w>
chép_ miệng</w>
bú p_bê</w>
ẵ m</w>
thá t_
n_tho ại_
mạ ch_
m c
câu_ thơ</w>
a t</w>
_s ở
và n</w>
tr ố</w>
tinh_ diệu</w>
thắt_ lưng</w>
thân_ thế</w>
thi_ công</w>
rung_ chuyển</w>
quế _tử</w>
phiền_ phức</w>
nữ _tỳ</w>
mặt_ bằng</w>
_ho ạn</w>
/ 2009</w>
tr ận_
tiết_ mục</w>
tiế n_độ</w>
quý_ giá</w>
mỹ _
do ã
cứu_ viện</w>
_kh ẩu</w>
5 2</w>
v ớ
tạ c</w>
tài_ nghệ</w>
sơ n_t
ng_t ường</w>
làm_ loạn</w>
cu te</w>
chủ_ quyền</w>
c ấ
0 2/2012</w>
nhậm_ thanh_thị</w>
ng ốc_
mười_ bảy</w>
k ĩ
4 6
u m</w>
s ỡ</w>
quán_ trọ</w>
nhất_ tiếu</w>
giả _d
đo àn_th
tr ội</w>
tháng_ giêng</w>
miss_te en</w>
hy_ lạp</w>
ci ty</w>
c ộ
bi ll</w>
_ch ính_
8 8</w>
đầ m_đ
đầm_đ ìa</w>
điệ n_thoại_
vi a</w>
trà _trộn</w>
tinh_ nhuệ</w>
rùng_ rợn</w>
quý _phi</w>
phân_ vân</w>
ph ế_
d ge</w>
c ụt</w>
x ẹt</w>
uỷ _viên</w>
thành_ hình</w>
nhà_s ản_xuất</w>
liên_ quân</w>
hoả _hoạn</w>
bại_ trận</w>
bđ s</w>
tương_ dương</w>
trang_ web</w>
t ản_
nh ác</w>
m í</w>
lan_ can</w>
trang_ sức</w>
tổng_ công_ty</w>
thối_ lui</w>
r ó
quỷ _vương_
n ộ
huyên_ náo</w>
d ụng_t
c ọc</w>
9 /2</w>
đặc_ điểm</w>
phi_ dương</w>
lo ang_
khúc_ ngạo</w>
hoàng_h à</w>
h ưởng_th
d iều</w>
b o</w>
vi c
tí ch_t
thôi_ bác</w>
rất_ đỗi</w>
r ơm</w>
lãnh_ đạm</w>
lung_ tung</w>
l ảnh</w>
kh ẻ</w>
e c
dạ _d
doanh_ thu</w>
biế u</w>
al -
ầ u_l
vương_ phi_dương</w>
m ỏng_
m ĩ
bán_ kết</w>
biể n_
0 2
ỉ u</w>
ăn_ xin</w>
va ngi
vangi ăng</w>
v ớt</w>
thực_ tiễn</w>
thần_th ánh</w>
ngư _dân</w>
lý _luận</w>
dự_ báo</w>
dụng_t âm</w>
d ùm</w>
đông_ hải</w>
thăng_ long</w>
oai_ phong</w>
nhà_ nghỉ</w>
nhà_ nghiên_cứu</w>
ngo ã
ng_t àu</w>
g ro
d al
chỉ _số</w>
a d</w>
tiểu_ quế_tử</w>
m ím</w>
hô _d
hài_ hước</w>
gi ọng_
bảo_ tồn</w>
_ho ãn</w>
x ộn</w>
t x</w>
p en
ngắm_ nghía</w>
n ạc</w>
n ưa</w>
lắc_ lư</w>
du_ tiểu_quyên</w>
cùng_ cực</w>
đùng_ đùng</w>
điểm_ tâm</w>
sa nh_
rich ard</w>
phổ_ho ằng</w>
ng ụ</w>
hành_ thích</w>
giả_d ối</w>
giả _bộ</w>
đị ch_
và i_
tỷ _số</w>
trọ n_vẹn</w>
th èm_
r ải</w>
như _đ
har ve
của_ cải</w>
vệ_ tinh</w>
trả _giá</w>
thiên_ kiều</w>
sắc_ diện</w>
ngạc_ thần</w>
l íu</w>
j us
huyền_ bí</w>
d d
cung_ điện</w>
bàng_ nghĩa</w>
a th
x ứ
thường_ trực</w>
t_ thở</w>
qua_ mặt</w>
oán_ hận</w>
nghẹ t_thở</w>
new s_
mỏi_ mệt</w>
mô n_đồ</w>
h é
do w
chấ n_thương</w>
ca li
đối_ đáp</w>
tinh_ binh</w>
n_r én</w>
n s</w>
b ê</w>
xỉ a</w>
sáng_ ngời</w>
show bi
ró n_rén</w>
nam_ sinh</w>
kho áng_
k ét</w>
điện_thoại_ di_động</w>
ê _
tổ n_thất</w>
tịch _m
thừ a_th
thát_ đát</w>
e p</w>
ch óng_
c úp</w>
b ờ
_s a</w>
xỉ n</w>
x ài</w>
x in
trọ ng_lượng</w>
quay_ cuồng</w>
pre mi
nh iên_
lộn_ xộn</w>
huyền_ hoàng_giáo</w>
chần_ chừ</w>
c ỏ
định_ cư</w>
tịch_m ịch</w>
thù_h ận</w>
hạ m_
h ăn</w>
giang_ sơn</w>
chiến_ mã</w>
trúc_ anh</w>
tr uyện_
quấy_ nhiễu</w>
ng_th ần</w>
n_ hút</w>
mù a_
mi cha
m iệt_
l ả
h ực</w>
du_ kích</w>
cơ_ mà</w>
ch óc</w>
bổn_ phận</w>
al _
đại_ nham</w>
xung_ hư</w>
tâm_ huyết</w>
tu_ sĩ</w>
tiêu_ hậu</w>
sinh_ học</w>
nam_hải_ ngạc_thần</w>
mưu_ kế</w>
h ờ</w>
ch ri
an_ b
v ấn_
hạm_ đội</w>
hung_ hiểm</w>
cứu_ chữa</w>
cho ang</w>
đồ _long</w>
lật_ đổ</w>
ho ãn</w>
h ê</w>
gi ăng_
5 6</w>
âu_dương_ khắc</w>
z z
v eo</w>
thừa_ kế</w>
tham_ vọng</w>
s à
qu àng</w>
ng_t ay_
k ẻ_
hiệ n_thân</w>
công_ đường</w>
ư a_th
tí ch_l
thủ _thành</w>
s ấm_
r ốt</w>
nhắm_ nghiền</w>
ng à</w>
n í
mỉ a_
minh_ hoá</w>
m_ bẫy</w>
khuy nh_
i ro
hội_ đồng_
hắc_ thát</w>
huy _chương</w>
gad dafi</w>
cạ m_bẫy</w>
ý _tứ</w>
trầm_ tư</w>
m ậu</w>
liên_ luỵ</w>
hung_ hãn</w>
dạ_d ày</w>
triệu_ thiên</w>
sa i
mỉa_ mai</w>
in e
hiếm_ hoi</w>
gấp_ rút</w>
gian_t ặc</w>
bạn_ hữu</w>
an is
x íu</w>
viên_ chức</w>
t ì</w>
quang_ cảnh</w>
phá n_đoán</w>
mạng_ lưới</w>
khuyến_ cáo</w>
hồi_ giáo</w>
g t</w>
10 0%</w>
vệ _sĩ</w>
trừ _kh
trừ_kh ử</w>
trùng_ trùng</w>
thần_t ốc</w>
số _liệu</w>
s ái</w>
quy_ củ</w>
nội_ thất</w>
lý _trí</w>
giề ng</w>
cái_ thế</w>
c ặ
từ ng_
nhiế p_
n ắng_
khởi_ hành</w>
hà _v
h ắng</w>
g ắng</w>
d ậm</w>
cup_ châu_âu_
cup_châu_âu_ bóng</w>
ch ỗ
_tr ường_
_l am</w>
201 1-
vụng_ về</w>
trấ n_thành</w>
ti me
showbi z</w>
nhân_ dịp</w>
n ẻo</w>
iề u_l
ch ếch</w>
20 00</w>
đối_ lập</w>
trung_ đông</w>
thượng_ phong</w>
m ải</w>
ch ôn_
b óc</w>
b âng_
ai ds</w>
vô _sự</w>
lưu_ chính_
kết_ giao</w>
bùng_ nổ</w>
7 .
thường_ lệ</w>
b anh</w>
_s ăn</w>
thoái_ lui</w>
t ử_l
sát_ nhân</w>
p al
ng ắn_
chung_ linh</w>
đỉnh_ cao</w>
đ h
vài_ ba</w>
v ạ</w>
sân_ nhà</w>
mềm_ nhũn</w>
làm_ khó</w>
i t</w>
g àng</w>
f c</w>
dạ _
cầu_ cứu</w>
cao_ quý</w>
b ền</w>
ân_ ni</w>
xử _cơ</w>
riê ng_
ngọc_ tiêu_l
hình_ phạt</w>
ch ặng</w>
bại_ lộ</w>
tr ần_t
premi er
ng_tay_ áo</w>
mạ i_
m iệ
hưởng_th ụ</w>
diệu_ kế</w>
buồn_th ảm</w>
thể _xác</w>
phượng_ hoàng</w>
ngay_ ngắn</w>
l ùm</w>
không_ trách</w>
không_ kích</w>
hồng_ lan</w>
hăng_h ái</w>
gật_ gù</w>
giá_ cả</w>
chú _thích</w>
che_ kín</w>
c ột_
bent ley</w>
_lea gu
ăn_ trộm</w>
z il</w>
viễ n_thông</w>
v y</w>
tổng_ kết</w>
tái_ hiện</w>
t à_
phương_ nghị</w>
ninh_ đạo_
như _ý</w>
go m</w>
d ệt</w>
bình_ đẳng</w>
200 4</w>
đinh_ bất_
th òi</w>
t ầng_
nhiệm_ kỳ</w>
hoan_ nghênh</w>
già _n
củ ng</w>
con_ trẻ</w>
ỡ i_
tranh_ giành</w>
sá ch_l
sách_l ược</w>
qu ần_th
olympi a</w>
ngọc_tiêu_l ang_quân</w>
luật_ lệ</w>
hung_ hăng</w>
e m
d ẻ</w>
châu_ báu</w>
ọ i_
đậu_ kiến_đức</w>
viện_ phí</w>
tr on</w>
ti m_
ng er</w>
iể u</w>
gọn_ gàng</w>
bị _can</w>
ăn_ ở</w>
vô_t ư</w>
trang_ nghiêm</w>
thần_th ông</w>
sợ _s
ph ác</w>
o s</w>
nh ức_
n áu</w>
khát_ vọng</w>
già_n ua</w>
_tr uyền</w>
_ giới</w>
đồng_ tính</w>
đề _cử</w>
đại_ lộ</w>
truy_đ uổi</w>
quy ền_th
làm_ bạn</w>
li e</w>
khưu_ xử_cơ</w>
cu ả</w>
b ung</w>
ệ _sinh</w>
ướt_ đẫm</w>
vô_h ạn</w>
thanh_ lan</w>
r ăng_
ng õ
diệ p_th
a_ hoàn</w>
_ph ẩm</w>
vân_ trung_
pho ng_thái</w>
nhà_v ệ_sinh</w>
lo e</w>
kinh_ đô</w>
gấp_ bội</w>
dẫn_ dụ</w>
d ong</w>
bankplu s</w>
_ng ụ</w>
15 /2</w>
điềm_ tĩnh</w>
vi e
tự _d
trần_th ị
tr âu_
thương_ vong</w>
quỷ_vương_ tông</w>
hang_ động</w>
b ro
an_b ân_ni</w>
a .
ồ m_
định_ dật</w>
hiểm_ trở</w>
h ứng_
gi òng</w>
b ịch</w>
8 /2011</w>
việt_ kim</w>
sợ_s ệt</w>
nh í</w>
n_đ ồng</w>
n ở
ấn_t ú</w>
đức_ nặc</w>
tr ốn_
thương_ hại</w>
th ố</w>
tan_ nát</w>
p _v
ngàn_ vạn</w>
liên_ hoan</w>
hoà ng_l
h ậm_
cử _nhân</w>
ố ng_tay_áo</w>
sa u
nh h</w>
m ĩ</w>
lưu_ hắc_thát</w>
liên_ xô</w>
kế_t iếp</w>
kinh_ hoảng</w>
khái_ niệm</w>
ir c</w>
el l</w>
d ấy</w>
cư_x ử</w>
bổ _
bạch_ quân_
_m inh_
_l ỗi</w>
4 9
ủ n</w>
ước_ tính</w>
đứng_ tuổi</w>
đại_ huynh</w>
đôi_ lúc</w>
đám_ tang</w>
tr ôi_
sai_ khiến</w>
phục_ khiên</w>
phóng_ hoả</w>
như _v
nghiệ p
huỳ nh</w>
h ỡi</w>
dấu_ ấn</w>
d ường</w>
b re
/04 /2012</w>
đ ợi_
đ ơ</w>
to yo
nổi_ nóng</w>
nhỏ_nh ẹ</w>
nghiệ p_
mê _hồn</w>
miêu_ tả</w>
kết_ cục</w>
khủ ng_long</w>
hc v</w>
fran kie</w>
dạy_ dỗ</w>
du_ vũ
_c ục</w>
việt_ john</w>
r áp</w>
phá n_
phiền_ não</w>
nấu_ ăn</w>
nd đt</w>
hoá _chất</w>
c ù</w>
bạch_quân_ nghi</w>
điên_ rồ</w>
tu ấn_tú</w>
trợ _lý</w>
trường_ thanh</w>
thượng_th ừa</w>
s ắm</w>
nói_ riêng</w>
m i_
lý _lan</w>
l uyến</w>
h ác_
e n_
cố ng_hiến</w>
5 8</w>
ứng_ xử</w>
vũ _đ
v ây_
thi_ sĩ</w>
quốc_ vương</w>
hồn_ nhiên</w>
hậm_ hực</w>
g er</w>
ứ ng_long</w>
ể_ oải</w>
ằng_h ắng</w>
ước_ hẹn</w>
ư c</w>
u ể_oải</w>
thượng_t ướng</w>
nội_ tình</w>
một_ mực</w>
l è
k s</w>
dân_ lập</w>
cao_ tốc</w>
ai_ lại</w>
đánh_ lừa</w>
tranh_ đoạt</w>
n_t ình</w>
mari anne</w>
l ít</w>
ju ven
ch ông</w>
b ục</w>
_t án</w>
_d ại</w>
vin a
uyển_ chuyển</w>
ti tan
thủ _cấp</w>
t ù_
mẹ _
lộ t_
lão_ trượng</w>
l ở
huyền_ nạn</w>
giải_ độc</w>
cửa_ mở</w>
cổ _thụ</w>
c ờ_
b ửa</w>
đ ứt_
ò n_
vũ ng_tàu</w>
thái_ bình_dương</w>
thiên_ âm_
sừng_ sững</w>
mật_ thiết</w>
lộ ng_lẫy</w>
lạc_ quan</w>
g ập</w>
đ t
x ắc</w>
từng_ trải</w>
tốt_ lành</w>
tầng_ lớp</w>
tu ý
nh ối</w>
môn_ học</w>
bó _tay</w>
_điều_ hành</w>
_t ất</w>
200 5</w>
vân_ dịch
tậ p_h
tàn_ bạo</w>
r òng_
qu ấy</w>
pp i</w>
phát_ minh</w>
kh ăng</w>
hách_l iên_
_m ỹ</w>
tâm_ phúc</w>
nh_l ệch</w>
mật_ mã</w>
m ồ</w>
m ày_
lưu_chính_ phong</w>
họ p_báo</w>
hoa_th iết_
chê nh_lệch</w>
bo bb
ặ m</w>
áo_ choàng</w>
tử _cung</w>
trốn_ tránh</w>
sing er</w>
ni e</w>
mộc_kiếm_ bình</w>
l ố
l ịnh</w>
hắc_bạch _tử</w>
hoà _
g or
diệp_th anh</w>
cho_ rồi</w>
ch anh</w>
đường_ dây</w>
vương_ thông_
trường_ hanh</w>
thuốc_ mê</w>
thoả _
ph iê
nghĩa_ trang</w>
lo_ liệu</w>
ham_ muốn</w>
bừa_ bãi</w>
b u</w>
_ch ừng</w>
ữ u_
đồng_ đội</w>
đ ắm_
x úm</w>
thập_ niên</w>
r y_
ngoại_ quốc</w>
mặ n</w>
khu ông</w>
hà _đông</w>
hiệu_l ệnh</w>
giang_ nam_
d ét</w>
cổ _vũ</w>
cha t</w>
tận_ lực</w>
trông_ nom</w>
rộ n_r
rầu_ rĩ</w>
n ồng</w>
kh ăng_
kh a
dự _liệu</w>
dung_ nhan</w>
cử _tri</w>
chuyể n_đổi</w>
c à</w>
b ơm</w>
af gh
thuỷ _sinh</w>
th ốt_
quái_ lạ</w>
ng óng</w>
hoa_ hoa</w>
chăm_ chỉ</w>
anis tan</w>
_ho án</w>
7 2</w>
ô_nh iễm</w>
xuất_ huyết</w>
x ay</w>
trăm_ họ</w>
thiệt_ thòi</w>
song_ phương</w>
ly_ kỳ</w>
lu i_
la_ tinh</w>
j enni
ho ay</w>
cô dét</w>
chào_ đón</w>
_văn_t ú</w>
_t iện</w>
4 .
v ong_
tức_ tối</w>
trừng_ trừng</w>
phò _mã</w>
mắt_ xanh</w>
lạm_ dụng</w>
kh ay</w>
hò_h ét</w>
g áp</w>
d ơ</w>
cầu_ giấy</w>
1 20</w>
ưa_th ích</w>
vinh_ phụ
thỉnh_ cầu</w>
thơ _
sinh_ mệnh</w>
nguyên_ vẹn</w>
khai_ mạc</w>
cả _th
chúa_ công</w>
_m ẫu</w>
đồng_ phục</w>
w ard</w>
trung_ châu</w>
tiê n_tử</w>
thác_bạt_ nghi</w>
tho n</w>
ser i
pho ng_l
ph ao</w>
n ổ
n ại</w>
lu ận_
land ry</w>
giải_ đáp</w>
bàn_ ghế</w>
5 ,
đồ _lôi</w>
ít_ lâu</w>
vững_ vàng</w>
tự_d ưng</w>
tào_ ứng_long</w>
thứ_b ẩy</w>
q h</w>
n_l ộn</w>
n_l ẻ</w>
m ờ_
lưu_ tâm</w>
lou d</w>
ferr ari</w>
b ỉnh</w>
7 0
ậ p_th
ảy_ may</w>
ân_ tố_tố</w>
văn_ nghệ</w>
tỉnh_ giấc</w>
tuy ể
tr ỗi</w>
tiệ c_
thương_ xót</w>
nh ẫ
ng s</w>
n x
m ảy_may</w>
lý _văn_tú</w>
khốn_ kiếp</w>
h ức</w>
giao_ tình</w>
_b í</w>
úng_ tay</w>
xo a_
vắng_ mặt</w>
vinh_phụ ng_tường</w>
trường_ sa</w>
truy_ sát</w>
triển_ diệp_thanh</w>
sức_ ép</w>
nh úng_tay</w>
mất_ mặt</w>
ly_ hôn</w>
liệt_ sĩ</w>
l ọt_
l uyện_
dậ y_thì</w>
_v ân_
xu ồng</w>
vùng_ vẫy</w>
trang_ tương</w>
toyo ta</w>
thú_ nhận</w>
ninh_đạo_ kỳ</w>
lẫ n_lộn</w>
kh ao_
juven tus</w>
gợi_ cảm</w>
dựng_ đứng</w>
cách _biệt</w>
7 6
đại_ hoàng</w>
đông_ á_
vu_ trường_thanh</w>
viên_ ngoại</w>
thu_ phục</w>
po iro
nước_ bọt</w>
ngày_ ngày</w>
lo mon</w>
lo ay_
j es
hã nh</w>
anh_ đào</w>
201 7</w>
đị a_thế</w>
đại_ cao_thủ</w>
ô_ quyển</w>
âu_ dương</w>
tuân_ thủ</w>
te h
sớm_ muộn</w>
sư _
r ết</w>
nhạ t_
loay_ hoay</w>
gấp_ gáp</w>
a a
tiê ng</w>
thư_ giãn</w>
qu ẻ</w>
poiro t</w>
k h</w>
im_ bặt</w>
d ĩnh_
cả_th ảy</w>
c ãi_
ụt_ rè</w>
để _dành</w>
võ ng_
tt i</w>
titan ic</w>
thiên_âm_ tự</w>
r ụt_rè</w>
ng ấm</w>
n ới</w>
lễ _phép</w>
ha cker</w>
a_th ượng</w>
đông_á_ eu</w>
tây_ phương</w>
ri nho</w>
nh_l ương</w>
nghị ch_
ng_l ự</w>
m ướn</w>
lưỡ ng_lự</w>
lư ng_
jam es</w>
hô _hoán</w>
cho áng</w>
ch ít</w>
ch è</w>
c ắn_
bột_ bột</w>
đề n_
vương_thông_ huệ</w>
tử _nạn</w>
tụ _h
thực_ tình</w>
nhức_ nhối</w>
l ù
i ra
huỷ _hoại</w>
giáo_ hội</w>
gia_ tộc</w>
gar in</w>
30 .000</w>
20 /11</w>
thối_ tha</w>
qu ạ</w>
phiê n_toà</w>
ph ê</w>
nh ướng</w>
mặt_ biển</w>
hoa_ viên</w>
bá n_lẻ</w>
bao_ bọc</w>
b ồn</w>
_d i
7 00</w>
đâu_ đâu</w>
mi ko</w>
dò _hỏi</w>
ch ối</w>
ch âu_l
đỏ _r
đỏ_r ực</w>
áo_ bào</w>
ve y
thiểu_ số</w>
tham_ lam</w>
nỗi_ lòng</w>
nhẫ n_tâm</w>
nhà_ giáo</w>
n_th ị</w>
mở _đường</w>
hiền_ muội</w>
ba_ lan</w>
àn_ khàn</w>
w all</w>
thiên_th ạch</w>
r ành_
mở _đầu</w>
kh àn_khàn</w>
hách_liên_ bột_bột</w>
chiến_ binh</w>
che n_
afgh anistan</w>
_ là</w>
vu_ ô_quyển</w>
tô _
thảm_ hại</w>
te abi
teabi ng</w>
sh i</w>
phí m</w>
o ái</w>
mặt_ hàng</w>
dũng_ mãnh</w>
ch ích</w>
ar d
_t ăng</w>
3 .
đ ực</w>
đ èo</w>
x ao_
tuyên_ vĩnh</w>
trách_m óc</w>
phòng_ ngừa</w>
lỗ_h ổng</w>
l ừng_
kiệt_ sức</w>
k iêu</w>
joh n_
hùng_ vĩ</w>
cao_ ốc</w>
tệ _hại</w>
r án</w>
phòng_ vệ</w>
nguyên_ khí</w>
mer ce
lanh_ lảnh</w>
hết_ lời</w>
giải_ tán</w>
công_ nhiên</w>
cuố c</w>
chi m_
_huy ết_
vật_ dụng</w>
tổng_ cục</w>
tác_ chiến</w>
tàn_ độc</w>
r ải_
o n_
nhà _h
ngoại_ ô</w>
l ấn_
kho anh_
hồ _thanh_
hùng_h ậu</w>
g ala
đồ _s
u s</w>
tiên_ tiến</w>
thiếu_ gì</w>
sóng_ gió</w>
pier re</w>
như_đ iên</w>
nguy ền</w>
n .</w>
ma _th
l _
gi ắt</w>
chú a_thượng</w>
bụ i_
b y</w>
_th u_
trái_ ngược</w>
thiên_ chí</w>
t_m ẻ</w>
sáng_ chế</w>
sinh_ linh</w>
phi_ trường</w>
ngây_ ngất</w>
nguyên_ do</w>
ng ứa_
lục_ bất</w>
lò _s
kim_ lăng</w>
khoanh_ tay</w>
gian_ khổ</w>
bra zil</w>
đào_ hoa</w>
í ch_l
thù_ oán</w>
sức_ sống</w>
sơ _mi</w>
qu ít</w>
lò_s ưởi</w>
linh_ thanh_tra</w>
hư_h ành_
gà o_th
bắc_ ninh</w>
bắc_ giang</w>
bạch _h
ph ới</w>
ngu ôi</w>
mau ra</w>
m ảnh_
khốn_ nạn</w>
hác_ trường_hanh</w>
h èn</w>
côn_ luân</w>
bo n</w>
_m a</w>
1 .000</w>
0 5</w>
tinh_ trùng</w>
thái_ quá</w>
t nhh</w>
sự -
nam_ định</w>
hư_hành_ chi</w>
gào_th ét</w>
d iếm</w>
ệ m</w>
vị n</w>
thú _thần</w>
thì_th ào</w>
săn_ sóc</w>
nghĩa_ khí</w>
ng án</w>
n_thu ần</w>
n_tho ả</w>
lỗi_ lầm</w>
_đ ậu</w>
/1 0
x ẻ</w>
tự _phụ</w>
tôn_ sư</w>
to á
on line</w>
nguyễn_ nguyễn_
nghĩa_ vụ</w>
mã n_ng
lề _đường</w>
kiể u_
hu ỵ
hoà _hợp</w>
h ói</w>
_v ẩn</w>
_nh ĩ
đánh_ đập</w>
đa_ phần</w>
y ve
tiêu_ thiên</w>
th ịch</w>
sự- ký</w>
nào_ là</w>
nghiêm_ ngặt</w>
ng ượng</w>
ne r</w>
la n_to
ch iêc</w>
_ kích</w>
20 %</w>
tỉ _vương</w>
trương_ tĩnh_chi</w>
thốt_ nhiên</w>
sáng_ kiến</w>
sy l
quá _đ
nguy _
láng_ giềng</w>
lan_to ả</w>
khuyết_ tật</w>
háo_ hức</w>
hành_ sơn</w>
d ơi</w>
c ẳng</w>
7 /2</w>
đơ n_thuần</w>
u i</w>
thể _chất</w>
t ỵ</w>
no bel</w>
n apo
lẩm_ nhẩm</w>
lá ch_
vi r
tình_ nghĩa</w>
thu_ hà</w>
phòng_ ngự</w>
phát_ ngôn</w>
phá _sản</w>
nghĩ nh</w>
ng ợm</w>
miệ ng_
bạch_ tiêu_thiên</w>
/11 /2011</w>
xo ã</w>
tuổi_ đầu</w>
tuy _
r y
nôn_ nóng</w>
l ùng</w>
l ly</w>
ku miko</w>
e a</w>
cổ _tích</w>
cao_ dương</w>
bất_ công</w>
bút_ chì</w>
bà o_
ổ n_thoả</w>
võ _phục</w>
tiểu_ thi</w>
rắn_ độc</w>
nhộn_ nhịp</w>
lên_ tiếng_nói</w>
je sus</w>
huyết_ áp</w>
giá _lạnh</w>
f re
ch loe</w>
ẫ y_
sơ n_đông</w>
ste r</w>
ngộ_ nghĩnh</w>
nam_ á</w>
mất_ mát</w>
l ấn</w>
l iêu_
kiên_ cường</w>
hồ_thanh_ ngưu</w>
h tc</w>
e x
an o</w>
_h iệp</w>
đau_ xót</w>
đ ưng</w>
ăn_th ua</w>
xu a_
vi gor</w>
u ông</w>
tắm_ rửa</w>
sơn_ trang</w>
s ảng_
nội_ tâm</w>
mr _đàm</w>
m ầm</w>
là o_
giả_ mạo</w>
dân_ gian</w>
cây_ cỏ</w>
chủ_ quan</w>
bình_ phục</w>
b al
5 4</w>
ử _
v p
tàn_ phá</w>
tra_ hỏi</w>
thất_ nghiệp</w>
thái_ tổ</w>
như_v ầy</w>
ng út</w>
iê ng_
giáo_ huấn</w>
f lo
bốc_ thiên_chí</w>
báo_ hiệu</w>
bec kham</w>
b ề
7 ,
10 :
đồ_s ộ</w>
đề _cao</w>
đí ch_
thẩm_ mỹ</w>
thí _dụ</w>
st an
siêu_ phong</w>
s_ a
ng ừ
n ệm</w>
mệt_ nhọc</w>
kỵ _mã</w>
khả_ nghi</w>
gir l
giang_ đô</w>
bình_ phong</w>
b ú</w>
_s anh</w>
_c âu</w>
v ôi</w>
tứ _ph
t ợn</w>
sĩ _tử</w>
quang_ liêm</w>
q g</w>
mạnh_ dạn</w>
mai_ siêu_phong</w>
lưu_ hành</w>
in a</w>
học_ đường</w>
_m áu</w>
trông_ coi</w>
trung_ thổ</w>
thành_ thực</w>
lách_ cách</w>
kế_ sách</w>
ira q</w>
gia_ cầm</w>
chuyển_ nhượng</w>
bác_ học</w>
biên_ bản</w>
_th ọ</w>
t x
phụng_ hoàng</w>
phân_ công</w>
no n_
l ầy</w>
khí _huyết</w>
gs .
xếp_ bằng</w>
tân_ khách</w>
thu ỵ</w>
nhỏ_nh ắn</w>
nghị _định</w>
nghiệp _vụ</w>
n ê</w>
man_ city</w>
lương_ thiện</w>
ly_ khai</w>
khiêu_ khích</w>
ca s
ờ_m ịt</w>
đỗ _t
trung_ thực</w>
tr ườ
tiền_ đạo</w>
th iệp</w>
ste phen</w>
phân_ tán</w>
p la
nhiên_ liệu</w>
nh ộn</w>
m ờ_mịt</w>
lương_ thảo</w>
hô i_
d ỡ</w>
bị nh</w>
bị a</w>
bê _b
b è
ar gen
xứ _sở</w>
vi_ khuẩn</w>
v ãng</w>
t óc_
nh ẫn_
n ươc</w>
n ơ
cử u_long</w>
cá u_
ướng_ bỉnh</w>
tượng_ trưng</w>
tác_ phong</w>
r áo</w>
pi ppi</w>
ph ịch</w>
ng ông_
ng áp</w>
kh âm</w>
hợ p_lực</w>
hoàng_ thái_hậu</w>
d ới</w>
d ẫm</w>
b ướng_bỉnh</w>
/0 1
đạo_ huyền_
đại_ đội</w>
thiết_ thực</w>
s ó
nhân_ tạo</w>
my an
liên_t ưởng</w>
kết_ bạn</w>
hệ _điều_hành</w>
hiện_th ời</w>
f ad
e bo
cứu_ giúp</w>
c ấy</w>
bí _hiểm</w>
binh_ pháp</w>
_ph iếu</w>
11 /9</w>
y_t ớ</w>
xí ch_
vân_dịch _lam</w>
tức_ thời</w>
tứ_ph ía</w>
thái_ hân</w>
thiếu_ thốn</w>
thi_ trắc_nghiệm</w>
sc and
ruộ ng_
ri s</w>
quanh_ co</w>
qu ỵ</w>
nghiêm_ chỉnh</w>
hẹn_ hò</w>
gánh_ vác</w>
g en</w>
bỏ _phiếu</w>
bu ga
a o
5 1</w>
đả _kích</w>
đoàn_ chính_
đ â
xá _lợi</w>
thua_ kém</w>
s ưởi</w>
rải_ rác</w>
quy_ luật</w>
lập_ công</w>
lê _th
lê _h
lu c</w>
kế _thừa</w>
du_vũ _cường</w>
chu_ điên</w>
bộ _hạ</w>
b ừng_
b ang_
ang i
_l ô</w>
đồ i_
đầu_ mối</w>
điềm_ nhiên</w>
tri_ kỷ</w>
thường_ hà</w>
th ât</w>
phòng_ bệnh</w>
lý_xuân_ hồng</w>
cờ_ bạc</w>
bộ _binh</w>
a n_t
đại_ hoạ</w>
v ãi</w>
quần_đ ảo</w>
nhà_h át</w>
ng ủ
mới_ lạ</w>
m ẹo</w>
lục_ soát</w>
l è</w>
d ù
cầu_ hôn</w>
cấ p_t
ca l
bệnh_ tình</w>
bất_ trắc</w>
vùng_ sâu_
vùng_sâu_ vùng_xa</w>
vi s
thực_ tập</w>
phù ng_t
n 1</w>
lung_ linh</w>
kinh_ hồn</w>
hảo_ tâm</w>
h í
giăng_ vangiăng</w>
b tc</w>
đăng_ quang</w>
yve tte</w>
tối_ om</w>
m ít</w>
cao_th ấp</w>
_ phách</w>
é c</w>
tôn_ vinh</w>
triết_ lý</w>
tiến_ triển</w>
thanh_ lâu</w>
t ồn_
sa_s ầm</w>
myan mar</w>
lôi_ cuốn</w>
len_l én</w>
l ác</w>
hoa_ yêu</w>
ghê _r
ghê_r ợn</w>
dã _tâm</w>
chu ỳ</w>
bạch _vạn_
_đ ùa</w>
_d iễm</w>
tr ần_đ
thị _phi</w>
thăm_ hỏi</w>
d an</w>
ch ật</w>
bừng_ bừng</w>
bạch_vạn_ kiếm</w>
điều_ dưỡng</w>
wil li
th ính_
tay_ vợt</w>
s cu
r ủi</w>
nước_ nhà</w>
nghị _lực</w>
lắc_ lắc</w>
ho r
g d</w>
bảo_ khố</w>
đau_ buồn</w>
tường_ tận</w>
thái_ thú</w>
rối_ bời</w>
quá ng</w>
khả _thi</w>
kháng_ chiến</w>
chập_ch ờn</w>
champions _league</w>
ch ướng</w>
_d iệu_
ích_ kỷ</w>
y_ dược</w>
ví _như</w>
v ấp</w>
quách_ khai</w>
nh ứt</w>
n t</w>
n eo</w>
linh_ cảm</w>
c re
bất_ thần</w>
bá u_
yế n_t
tây_ bắc</w>
s ủng_
s ùng</w>
phản_ cảm</w>
o a_
gra ve</w>
đại_ việt</w>
đ ính_
vô_c ớ</w>
thúc_ giục</w>
thám_ thính</w>
s òng</w>
nh ang</w>
ngày_ kia</w>
nga y_t
mặt_ trận</w>
mơ_ mộng</w>
kế_t oán</w>
kiêu_ hãnh</w>
khát_ khao</w>
ch _đồ</w>
đất_ liền</w>
x ít</w>
tĩnh_ mịch</w>
nguyên_ liệu</w>
ngo ặt</w>
l ụt</w>
khối_ lượng</w>
khao_ khát</w>
gi ô
eu ro</w>
_ sách</w>
yể m_
xem_ thường</w>
tư ng_
thu_ cúc</w>
te in</w>
sủng_ ái</w>
scand al</w>
phiêu_ lưu</w>
n ợ
hàng_ ngũ</w>
hi llar
cũ _
ch ả
tiêu_ tán</w>
thương_ cảm</w>
thân_ vương</w>
thiên_t ài</w>
th inh</w>
phi_ yến</w>
nghiêm_ mật</w>
mãn_ng uyện</w>
m o</w>
lăn_ lộn</w>
liên_ hợp_
k eo</w>
h ách</w>
bất_ hối</w>
báu_ vật</w>
b uộc_
tưng_ bừng</w>
th iểm</w>
song_ hiệp</w>
r am
nguyễn_ hữu_
ngo ai</w>
mại_ dâm</w>
hồng_ cơ</w>
h 30</w>
dân_ sự</w>
dáng_ điệu</w>
bút_ ông</w>
_ch ế
ồ_ ạt</w>
đe n_t
u ẩn_
tuyệt_ nhiên</w>
thô _lỗ</w>
th ớt</w>
th óc</w>
náo_ loạn</w>
nhất_ trí</w>
ma d
liên_hợp_ quốc</w>
l ối_
giao_ chiến</w>
g ì
cải_ tạo</w>
cạ n_
bảo_ mật</w>
b ói</w>
đạm_ chân</w>
v ế</w>
v iêt</w>
tận_ hưởng</w>
tuyết_ sơn</w>
tim_ mạch</w>
thủ _thuật</w>
nói_ gì</w>
nâng_ cấp</w>
nhân_ ký</w>
nh ớn</w>
la mb
huy _hoàng</w>
d ay</w>
cơ _chế
cơ_chế _thị_trường</w>
chi_ nhánh</w>
bất_ tiện</w>
biến_ động</w>
b ật_
_h àm</w>
11 :
đề n_b
đầ y_tớ</w>
đạo_huyền_ chân_nhân</w>
nguyễn_thị _
l ảng</w>
khó _dễ</w>
hạ _tầng</w>
cảm_ hứng</w>
cũ_ kỹ</w>
_ giáo</w>
9 9</w>
8 5</w>
đen_t ối</w>
y_ khoa</w>
xoá _bỏ</w>
tuấn_ mã</w>
thình_ thịch</w>
sảng_ khoái</w>
nhất_ nhất</w>
ngượng_ ngùng</w>
khuyết_ điểm</w>
dụ _hàm</w>
chủ _lực</w>
vùng_ biển</w>
r ạ
m_ s
m ú
lạ _mặt</w>
hồi_ âm</w>
hiền_đ iệt</w>
chuyển_ hướng</w>
bách_t ính</w>
bobb y</w>
_ cười</w>
điểm_ số</w>
xo e</w>
v el
uông_ dụ_hàm</w>
tái_ nhợt</w>
t ôi_
r ền</w>
nguyên_ soái</w>
l ịnh_
hoàn_ chỉnh</w>
dứt_ điểm</w>
b v</w>
b ru
_ng ữ</w>
2 /
19 /11</w>
ị n</w>
đình_ đám</w>
đa_ khoa</w>
việt_ kiều</w>
vir gi
tuổi_ thơ</w>
tt i_
thuộc_ lòng</w>
thu_ hoạch</w>
tho i</w>
se l</w>
r âm</w>
ngô _chi_
lừng_ danh</w>
châu_ nhân_ký</w>
_th ơ</w>
đinh_ đang</w>
tậ n_tâm</w>
nh âm</w>
ngang_ ngược</w>
mới_ rồi</w>
lưu_ bị</w>
hoả _côn</w>
dầu_ khí</w>
chứa_ đựng</w>
cali for
đổ _bộ</w>
đè n_l
t_m ắng</w>
quá t_mắng</w>
nh ẵ
ngự _
nghị _luận</w>
n íu</w>
khán_ như</w>
giá _như</w>
công_ thức</w>
đổ _nát</w>
định_ tĩnh</w>
đa_ long</w>
đ ít</w>
tố _thư</w>
trúc_ pháp_
th ệ</w>
sa m</w>
ri a_
p s</w>
n ấc</w>
kỵ _sĩ</w>
kho áng</w>
i n_
huyền_t ừ</w>
dương_ quảng</w>
cố _vấn</w>
cảnh_ sắc</w>
cát_ hiểu_phong</w>
ch an
c òng</w>
bu m</w>
b ùa</w>
_s úng</w>
đê _tiện</w>
yể u_
tốt_ bụng</w>
tuy ến_
thuỷ _sanh</w>
th ô_
t ám_
số_ một</w>
khăng_ khăng</w>
ja ck
học_ kỳ</w>
hiển_ hạc</w>
hiế p_
b ỉ
_th ượng</w>
6 3</w>
w a</w>
v ọng_
u_ thuỷ</w>
u nd
to ky
ph anh</w>
mạch_ kỳ</w>
mariuy t</w>
hoạn_ nạn</w>
bình_ chọn</w>
_t ội</w>
27 3</w>
đoàn_chính_ thuần</w>
xâm_ hại</w>
x ốc</w>
tủ i_
tính_ nết</w>
truy_ kích</w>
trong_ sạch</w>
thiện_ cảm</w>
th ẫ
lào_ cai</w>
liên_ hồi</w>
l en
hạ _thần</w>
hã i_
g ã
g ân_
chuyển_ biến</w>
ban_ nãy</w>
b y
5 7</w>
v ướng_
u -
tây_ vực</w>
trần_ hải</w>
tiếng_ vang</w>
thẫ n_thờ</w>
thảo_ nào</w>
r ắ
r ang</w>
ninh_ bình</w>
ngay_t ức_
lũ_l ụt</w>
giải_ toả</w>
doãn_ trừng</w>
09 :
vũ_tr ang</w>
súc_ sinh</w>
nh ao</w>
ngoại_ lệ</w>
khinh_ thường</w>
giam_ giữ</w>
gi ếm</w>
fi fa</w>
biết_ ơn</w>
_m ô</w>
_ đại_
ẫ ng</w>
đặt_ hàng</w>
đơn_ độc</w>
yên_ trí</w>
uẩn_ khúc</w>
to r
tiếp_ đón</w>
thiên_ ma_
tam_ cô</w>
sắc_ màu</w>
nghi_ lễ</w>
lea gue</w>
ku rt</w>
hiểm_ nghèo</w>
gian_ nan</w>
có_th ai</w>
thường_ vụ</w>
phê _duyệt</w>
ph ỉ</w>
ng ựa_
mê _man</w>
h all</w>
g ở</w>
er ne
e k</w>
diễ n_t
d ô
chỉ_ bảo</w>
chi_ trả</w>
06 2019</w>
đại_ giang</w>
xí ch_l
uni ce
thoả_ đáng</w>
thiêu_ hoả_côn</w>
phu_ quân</w>
nước_ da</w>
nho ẻn</w>
nh in</w>
ngạ ch_đồ</w>
mị t_m
mu i</w>
m ập_
lú a_
làm_ ơn</w>
chúng_ sinh</w>
ư _
tái_ hợp</w>
trúc_pháp_ khánh</w>
trình_ làng</w>
thực_ thi</w>
thiên_ si</w>
t ăng_t
nhạ n_
n_ lòng</w>
n ỏ</w>
harve y</w>
giang_nam_ song_hiệp</w>
chuyên_ viên</w>
ba_ lô</w>
b ần</w>
ath ena</w>
argen tina</w>
_c ốt</w>
đợi_ chờ</w>
đ ố
x ỏ</w>
võ _sư</w>
unice f</w>
tâm_ địa</w>
thanh_ quản</w>
riêng_ biệt</w>
nổ _súng</w>
nhục_ nhã</w>
nhâm_ thìn</w>
ng ột_
linh_ mục</w>
l ẫm_
khả m</w>
dự _tính</w>
dò m_
dã _t
cất_ giấu</w>
công_ đoàn</w>
chu_ kỳ</w>
_v ai</w>
xu i</w>
tăng_t ốc</w>
thành_ quả</w>
thiên_ trúc</w>
ni l</w>
nh ảm</w>
ngô_chi_ vinh</w>
n ịnh_
g ượng_
dè _d
dè_d ặt</w>
chóng_ mặt</w>
bất_ cập</w>
b ệ</w>
ủ _r
đ k
xương_ sống</w>
thành_ thị</w>
sanh_ xuân</w>
quốc_ lộ</w>
ng ưu_
mar tin</w>
lạ ng_
kho ai_
chế_ ngự</w>
ch òm</w>
đặc_ trưng</w>
đại_ dũng</w>
êm_ ái</w>
v âng_
tài_ ba</w>
tru_ tiên</w>
s ờ
quách_t ỉnh</w>
phù _hộ</w>
pho ng_th
kh ấn</w>
h ề
g ừ</w>
bo ong</w>
b or
a_h át</w>
đá i</w>
w ay</w>
v iết_
tự_ ái</w>
tức_ cười</w>
tà n_t
th ờ_
t ùng_
phàn_ nàn</w>
gala x
cá u</w>
buga tti_
- 8</w>
đánh_ rơi</w>
vô _luận</w>
tiền_ mặt</w>
thế_ ra</w>
th en</w>
t áp</w>
súc_ vật</w>
qu ặc</w>
nồng_ nặc</w>
ngạo_ mạn</w>
mãn_ châu</w>
m ắm</w>
ko vic</w>
gh ì</w>
cá _m
chăn_ nuôi</w>
chân_ thật</w>
bề_ mặt</w>
bàn_ giao</w>
buồn_ ngủ</w>
_t à</w>
tào_th u_
suy _tư</w>
sho p</w>
r ành</w>
quý_ khách</w>
nổi_ loạn</w>
lên_ lớp</w>
kì m_
e mi
d iều_
ch er</w>
an_ nguy</w>
_ph ù</w>
7 3</w>
12 /2</w>
độc_ ma</w>
đồng_ nghĩa</w>
địa_ hình</w>
điểm_ cao</w>
tình_ thương</w>
năng_ động</w>
nguyên_ văn</w>
nguy_ kịch</w>
nam_ bút</w>
lý _mục</w>
hình_ thù</w>
hillar y_
danh_ vọng</w>
chuy ê
c t</w>
bugatti_ vey
đầu_ đà</w>
đạo_ phúc</w>
đại_ nghĩa</w>
tuyết_ nghi</w>
thật_ thà</w>
thu_ dọn</w>
nhi_ đồng</w>
li sa</w>
l ì</w>
kh ựng</w>
kh ét_
fi le</w>
cử _hành</w>
chỉnh_ tề</w>
b ặm</w>
đồng_ cỏ</w>
đền_b ù</w>
âm_ hiển_hạc</w>
v. v</w>
tu be</w>
tiề m</w>
ra u_
quanh_ quẩn</w>
nhậm_ dao</w>
kình_ địch</w>
khó _nh
khó_nh ọc</w>
khí ch_l
h iêu</w>
giá n_
gi ấu_
công_ sai</w>
bình_ quân</w>
ẩn_ cư</w>
vâng_ dạ</w>
tưởng_t ư
ngo ạn_
nghi_ thức</w>
mu ô
khinh_ bỉ</w>
ch ang</w>
c ựa</w>
c ang</w>
b ĩu</w>
_đ ức</w>
_d iện</w>
6 /2</w>
5 /2012</w>
ông_ tin</w>
v óc_
phù _dung</w>
kh ăn_
hữu_ ích</w>
cứu_ vãn</w>
cân_ đối</w>
_v ô
để _mắt</w>
đế m_
đại_ uý</w>
ám_ chỉ</w>
tính_ khí</w>
tàn_ khốc</w>
tr ề</w>
t ết_
nam_ cương</w>
mất_ ngủ</w>
kiều_ loan</w>
k s
hỏi_ đáp</w>
cung_ ứng</w>
ch ưa_
bách_ hoa</w>
ự u_
đếm_ xỉa</w>
đúng_ ra</w>
đèn_l ồng</w>
tiều_ tuỵ</w>
thất_ lễ</w>
th âu_
sự _vật</w>
nhược_ điểm</w>
n_l ẽn</w>
làm_ phản</w>
l ó</w>
ké o_th
hillary_ clin
giáo_ đồ</w>
cười_ mát</w>
cao_ phong</w>
c y</w>
bẽ n_lẽn</w>
đại_ chu_thiên</w>
yêu_ đương</w>
xúc_ xắc</w>
xót_ thương</w>
vô_ nghĩa</w>
v .</w>
tào_thu_ đạo</w>
sấm_ sét</w>
s ụt_
phùng_t ích
ph é
nghệ_th ông_tin</w>
lôi_ thôi</w>
là ng_
i u</w>
hãi_ hùng</w>
e _d
bức_ xạ</w>
biển_ cả</w>
a k</w>
ế_t ắc</w>
đại_ hữu</w>
x ú</w>
to_ tướng</w>
tiế n_tho
thờ_ ơ</w>
thiên_ hà</w>
say_ xỉn</w>
nhìn_ chung</w>
ngạ ch_l
lý_th u_thuỷ</w>
kéo_th eo</w>
ké p</w>
i g
huynh_ trưởng</w>
gi ụa</w>
eli c</w>
công_ nghệ_thông_tin</w>
ch ùng</w>
ch òi</w>
b ế_tắc</w>
_s tre
9 5</w>
00 .000</w>
ế_ trung</w>
tưởng_tư _thừa</w>
thành_ đạt</w>
on i
nó i.
m -
e -
chứ ng_th
am_ thắng</w>
đi ê</w>
v in</w>
uyển_ tinh</w>
trọng_ trách</w>
trơ _tr
thiên_ văn</w>
th ầu</w>
sơ _ý</w>
nước_ biển</w>
mạ nh_lương</w>
hân_ hạnh</w>
diêm_ vương_
bi_ kịch</w>
âm_ dương</w>
w es
tôn_ quyền</w>
quyết_ đoán</w>
phục_ kích</w>
một_ chiều</w>
kỹ _nữ</w>
khích_l ệ</w>
khu âng</w>
hội_ họp</w>
d ồi_
cự u_
cơ n_s
chân_ tình</w>
b ưu</w>
angi elic</w>
y ce</w>
vương_ tích
ta r</w>
ph ò</w>
nh ẽo</w>
ngọc_ anh</w>
dồi_ dào</w>
ch _đ
bẩm_ sinh</w>
ượ ng_hải</w>
x iề
vương_tích _hương</w>
tiếp_ đãi</w>
phùng_tích _phạm</w>
l iên_th
khu_ phố</w>
bả n_thảo</w>
_ph ân_
_m ãng</w>
tố n_
ngô_ bảo_
chính_ đáng</w>
andre i</w>
đ am</w>
xử _tử</w>
vô_ ý</w>
vóc_ dáng</w>
v òi</w>
u ấn</w>
tổng_ bí_thư</w>
trở_ mặt</w>
t iệt</w>
no r
nh áo</w>
n ê
h ũ</w>
gia_ súc</w>
cải_ tiến</w>
chuyển_ giao</w>
ch ổi</w>
ch uốc</w>
bắt_ nguồn</w>
bóng_ ma</w>
b ẩn_th
_đ ất</w>
đ ằng_hắng</w>
you tube</w>
x i_
trắng_ xoá</w>
ti on
t ao_
r ê</w>
quân_ nhân</w>
qu ẳng</w>
par t</w>
nh ầm_
nghi_ hoà</w>
lo_ nghĩ</w>
l ấm_
je an</w>
ho ằng_
h ốc</w>
gr and
c điê</w>
c ài_
bắt_ nạt</w>
bẩn_th ỉu</w>
_ địa</w>
đình_ phụng</w>
sa to</w>
s tr
phấn_ khích</w>
người_ xưa</w>
lưu_ giữ</w>
ki n</w>
bá ch_th
_s ĩ
_l ôi_
đắc_ lực</w>
đã _đ
xu ông</w>
thu ỷ_l
r àng_
quý t</w>
ph ăng</w>
ngại_ ngùng</w>
ngh ịch
n son</w>
merce des</w>
m àng_
lục_ đại_hữu</w>
ko h
cu ôc</w>
c ồn</w>
_l ân</w>
đông_ nam_á</w>
xo n</w>
u ội</w>
tận_ cùng</w>
tư_ bản</w>
tư ới</w>
tá n_t
thể_d iện</w>
th ốc</w>
phạm_ thị
bạch _dương</w>
_t úc</w>
đ o_
vừa_ ý</w>
uố n_
tàu_ ngầm</w>
thế_ trận</w>
thanh_ xuân</w>
quốc_ dân</w>
phả n_t
phú_ quý</w>
năng_ khiếu</w>
nhầm_ lẫn</w>
nguyê n_t
lập_ trường</w>
liên_t ấn</w>
khổ _
ia ea</w>
hoang_ vu</w>
hoa_ tiên</w>
giả _t
dư _hồng</w>
cơ _thiên_
b ong</w>
23 /12</w>
đèn_đ uốc</w>
đá _
v ẹo</w>
tr ù</w>
thức_ giấc</w>
say_ đắm</w>
s ành_
quan_t am_thắng</w>
phân_ loại</w>
nhiễm_ trùng</w>
nh ấp</w>
jo kovic</w>
hào_ khí</w>
gh ẹo</w>
dư_th ượng_hải</w>
bị a_
_l ão</w>
xa_x ăm</w>
x áo_
thừ a_thế</w>
t át_
ngông_ cuồng</w>
lên_ án</w>
kinh_ sư</w>
kim_ bất_
hoài_ lâm</w>
h ớp</w>
cơ_thiên_ khuyết</w>
công_ trường</w>
chôn_ cất</w>
cao_ cả</w>
bịa_ đặt</w>
biế ng</w>
_thiên_th u</w>
_ph ật</w>
10 %</w>
đá n</w>
đa_ tình</w>
trừng_ trị</w>
trấ n_thủ</w>
triều_ đại</w>
th iệ
te x
pho to
lạnh_ ngắt</w>
kh ốc_
hồi_ tưởng</w>
el _
bửu_ châu</w>
bu s</w>
bang ko
7 4</w>
6 ,
đất_ trời</w>
điên_ đảo</w>
vị _tất</w>
viễn_ kiều</w>
thể_d ục</w>
l u</w>
kim_bất_ hoán</w>
khởi_ nghĩa</w>
iề m_
hạ_ mình</w>
hàng_ không</w>
hàn_l âm</w>
bâng_ khuâng</w>
al bum</w>
yaho o</w>
tú _anh</w>
tráng_ sĩ</w>
thập_ kỷ</w>
r áo_
quyền_th ế</w>
phản_ nghịch</w>
phát_ tài</w>
nặng_ tr
nhị p_
ngừ i</w>
ng_t ưởng</w>
n õ
mỏng_ manh</w>
m à
lỗ _mãng</w>
h inh</w>
el d</w>
bản_ sao</w>
_t ử
_m ay</w>
8 9</w>
ẩn_ chứa</w>
ấu_ chốt</w>
đào_th ục_
tư_ không_
tuy_ rằng</w>
trì_ sanh_xuân</w>
th ẹ
sa l
m ấu_chốt</w>
lộc_ sơn</w>
khí a_
khía_ cạnh</w>
j an
hải_ dương</w>
giảo_ kim</w>
cơn_s ốt</w>
chơi_ đùa</w>
_th u</w>
ác_ nhân</w>
xanh_ biếc</w>
tiếp_th u</w>
thực_ trạng</w>
s ảo</w>
ro bi
phi_ tần</w>
or gh
nhắn_ tin</w>
lo à</w>
liên_ can</w>
lamb orgh
khổ ng</w>
gây_ chuyện</w>
g el</w>
diễn_t ả</w>
chữ _viết</w>
califor nia</w>
biến_ chứng</w>
ủ _độ</w>
ờ_đ ẫn</w>
đào_thục_ nhi</w>
đ ờ_đẫn</w>
tổ _thiên_thu</w>
tái_ ngộ</w>
tiêu_ sái</w>
sơn_t ây</w>
s ào_
ph ô</w>
nghịch_ ngợm</w>
line _di
kh o_
hiệp_ định</w>
f ê
dự _phòng</w>
chớp_ nhoáng</w>
ce line_di
bố _con</w>
ber na
_nh i_
9 /
vang_ vọng</w>
trần_th ủ_độ</w>
tra_ tấn</w>
tiên_ liệu</w>
thảo_ dược</w>
thâm_ trầm</w>
t ơi_
rầm_ rộ</w>
qu ỉ
mou rinho</w>
hội_ chứng</w>
hăm_ doạ</w>
hoàng_ thành</w>
dòm_ ngó</w>
chân_ lý</w>
ch ừa</w>
bả _vai</w>
biểu_ thị</w>
yên_ nhiên</w>
v ẩy</w>
tổng_ binh</w>
th ưởng_
th õng</w>
số_ ít</w>
phân_ tâm</w>
nhà _kh
na h</w>
n ắn</w>
n uối</w>
l iều_l
khẳng_ khái</w>
hội_ nhập</w>
chẳng_ là</w>
ch ơ</w>
celine_di on</w>
_nh ạt</w>
3 5
2730 9
đồng_ bằng</w>
đông_ đúc</w>
đ ản</w>
x âu</w>
tử _thần</w>
tương_ trợ</w>
thế_ dân</w>
thái_ tôn</w>
thanh_ bình</w>
nhận_ diện</w>
giáo_ khoa</w>
gia_ lai</w>
f an
danh_ nghĩa</w>
căm_ ghét</w>
cây_ bút</w>
ca -
biên_ chế</w>
_th ánh</w>
_m ưu</w>
10 0,000</w>
đỗ _hưng</w>
vân_ soái</w>
thể _lực</w>
thẹ n_th
th iêt</w>
sá nh_
st ar
r éo</w>
quan_ lại</w>
pe ter
nguy ền_
lộc_ công</w>
liều_l ĩnh</w>
l ười</w>
kỳ _bí</w>
cảm_ khái</w>
bách_ hoa_
berna be
bay_ bổng</w>
_đ ông_
10 -
đ ược_
xo ảng</w>
u l
trần_ quốc_tuấn</w>
trai_ gái</w>
thiên_t ai</w>
the _
ph ơi_
o t</w>
nóng_ ruột</w>
niên_ hiệu</w>
nguyền_ rủa</w>
lê _d
h ự</w>
giúp_ sức</w>
cười_ gằn</w>
chìm_ đắm</w>
c ữu</w>
bộ _môn</w>
_kh uất</w>
độ _
đỗ_t ất_
í n_
uỷ _thác</w>
to ria_
thu ê
so n_
ràng_ buộc</w>
phạm_ dao</w>
o_ lánh</w>
ngoã _cương</w>
m éo_
lơ _đ
lây_ nhiễm</w>
khẩu_ khí</w>
i ii</w>
hồ _
hẻ o_lánh</w>
hơi_ sức</w>
hình_ tượng</w>
giễ u</w>
girl s_a
ele an
cửa_ ải</w>
cà _m
chứng_ cứ</w>
chật_ hẹp</w>
chung_ thất</w>
che _khuất</w>
a ir
6 6</w>
ơ ng</w>
vạn_ vật</w>
tứ _xuyên</w>
tù_ và</w>
thân_ yêu</w>
r ằm</w>
r ảnh_
nhã _lan</w>
ng_l ăng</w>
mộc_ cao_phong</w>
lý_t ú
khấu_ đầu</w>
giấu_ giếm</w>
girls_a loud</w>
gi ông</w>
gi ày_
cổ _đại</w>
cla u
chứng_th ực</w>
8 3</w>
200 ,000</w>
vạn_ nhất</w>
van_ xin</w>
trấn_ an</w>
triết_ học</w>
tiểu_ đường</w>
tan_t ành</w>
phí _công_
nha_ trang</w>
nh át_
ngăn_ ngừa</w>
kỳ _thị</w>
g ợn</w>
công_ suất</w>
cô _t
chăm_ lo</w>
chi_ cục</w>
c ờ
c a_hát</w>
b .</w>
_l ấp</w>
19 /2</w>
ư ỡn</w>
đ ong</w>
ô m_
v -
tố ng_l
tư _th
tàn_ phế</w>
thật_ tình</w>
thầ y_t
thánh_ chỉ</w>
suy _tính</w>
r ặng</w>
r ác_
qu ét_
lữ _bố</w>
lý_tú _ninh</w>
loang_ loáng</w>
khuyên_ giải</w>
hùng_ mạnh</w>
g ò_m
dằn_ mặt</w>
d re
ch ưởng_
bàn_ cờ</w>
_v ẫn</w>
_nh ục</w>
_l ạt</w>
đắ n_đ
đắn_đ o</w>
tức_ khắc</w>
trả m_
thuỷ _tr
s k
quân_ lính</w>
qu ẹo</w>
nhân_ chứng</w>
nhà_tr ọ</w>
kim_ đính</w>
hầm_ hầm</w>
h át_
erne st</w>
cáo_ biệt</w>
c c
bay_ lượn</w>
30 %</w>
ớ t_
đỗ_tất_ thư</w>
đ ĩnh</w>
tứ _chi</w>
tối_ sầm</w>
trong_ ngoài</w>
tiêu_l ĩnh</w>
te ng</w>
quấy_ rầy</w>
quí _vị</w>
phụng_ mệnh</w>
phổ _trí</w>
ngộ_ xuân</w>
lưỡ i_
lo ren</w>
l ồ
hữu_ nghị</w>
hữ u_lượng</w>
hà_v ỹ</w>
h ằn</w>
gi à_
dương_ khang</w>
cài_ đặt</w>
b ế
197 5</w>
áp_ giải</w>
vật_ thể</w>
uy ê
tương_ ứng</w>
trêu_ chọc</w>
tri_ phủ</w>
s ỉ</w>
n ên_
kỳ_ quặc</w>
hờ _h
hờ_h ững</w>
bình_ thuận</w>
_nh ung</w>
ác_ tăng</w>
tốn_ kém</w>
tù _binh</w>
táo_ bạo</w>
trưng_ bày</w>
thông_ thiên_phong</w>
phong_t ế_trung</w>
ngoài_ miệng</w>
lưu_ trữ</w>
koh ler</w>
khắc_ nghiệt</w>
khiế t_
k ỉ
giới_ luật</w>
e v
con_ nuôi</w>
ch ường</w>
ch ênh_
bình_ tây_
b ắ
8 -
đo ạn_
thở _h
thở_h ắt</w>
tha c</w>
suy _ng
suy_ng ẫm</w>
quảng_ trị</w>
q t</w>
q .</w>
phí_công_ lượng</w>
ngh ếch</w>
mã o</w>
mong_ ước</w>
h .
gia_ trang</w>
dính_ líu</w>
chí_ ít</w>
cha_ xứ</w>
bangko k</w>
_ph ổ</w>
200 3</w>
đều_ đều</w>
vinh_ danh</w>
v òi_
tu ý_
t ây_th
suy_ giảm</w>
r ụi</w>
ng ụ
mon d</w>
la_ hán</w>
khuôn_ viên</w>
hoà_nh ập</w>
hoa_ quả</w>
gò_m á</w>
bấy_ lâu_nay</w>
_d ục</w>
độ ng_thái</w>
v ườ
tự _vẫn</w>
trương_ phi</w>
t en
r à</w>
kho ai</w>
cư u</w>
b èo</w>
_v oi</w>
10 4</w>
0 8</w>
/01 /2012</w>
đương_ đầu</w>
x ẻo</w>
thanh_ nhã</w>
ph ả</w>
nhấp_ nháy</w>
nh ổm</w>
lê _đ
le _
l ượt_
l iêm_
kh ac</w>
huyền_ ảo</w>
cầm_ cự</w>
bằng_ phẳng</w>
biết_ chừng</w>
đường_ thuỷ</w>
đánh_ cá</w>
xao_ xuyến</w>
võng_ cơ</w>
từ_ giã</w>
tạo_ hoá</w>
tiểu_ thuý</w>
tiêu_ tiễn</w>
thâm_ nhập</w>
thuỳ _trang</w>
t ày</w>
ro o
phát_ xuất</w>
oo o</w>
nhân_ đạo</w>
ngoạn_ mục</w>
mật_ độ</w>
má t_
mur ray</w>
m ấp_
l ena</w>
h úc</w>
f ar
c âm_
ba l</w>
_t á</w>
_r ể</w>
đi_ chăng_nữa</w>
u ế</w>
tạ _yên_
tính_ mệnh</w>
si e</w>
ro ma</w>
qu ầng</w>
par is
nhị_ nguyễn_
lộc_ trượng_
làm_ tình</w>
hạ c_
h en</w>
công_ vụ</w>
đấu_ trường</w>
đương_ thời</w>
vừa_ phải</w>
vu_ anh</w>
v iền</w>
tư _chất</w>
tu ồng</w>
tiếc_ nuối</w>
thượ ng_l
thiên_ địa_
r ình_
phiền_ muộn</w>
nh ót</w>
ngồi_ xếp_bằng</w>
ngã _ng
mã _số</w>
khéo_ tay</w>
go l
d t</w>
bur u</w>
_l ớn</w>
_ch ính</w>
30 4</w>
vị _thế</w>
tạ_yên_ khách</w>
trấn_ áp</w>
tiê p</w>
sinh_ đôi</w>
rốt_ cục</w>
nhiệt_ huyết</w>
lệ _hoa</w>
lưng_ chừng</w>
lãnh_ giáo</w>
li ver
ký_ kết</w>
khiếu_ nại</w>
de sh</w>
d ùng_
cẩn_ trọng</w>
_h ướng</w>
/1 9
ẩm_ ướt</w>
đại_ bác</w>
đùa_ giỡn</w>
xe_l ăn</w>
x ịt</w>
tuyển_ chọn</w>
tu ỷ</w>
thẩm_ vấn</w>
quý_ báu</w>
phát_ thanh</w>
ng ứa</w>
nam_ cung_
má ch</w>
lớn_ mạnh</w>
lê_văn_ luyện</w>
khốc_ liệt</w>
không_ khéo</w>
ho l
giảo_ hoạt</w>
dữ _t
dữ_t ợn</w>
cứu_ hộ</w>
bà _trưng</w>
túi_ xách</w>
tr ổ
tiến_ công</w>
th ừ</w>
s ú
s ùi</w>
po ol</w>
nh òm</w>
lý_l ẽ</w>
khổ _tâm</w>
hết_ mình</w>
hương_ vị</w>
dương_ nghiệp</w>
cửu_ chân</w>
cửa_ kính</w>
bỉ _nhân</w>
bi_ thảm</w>
_ph ượng</w>
3 %</w>
2 %</w>
ần_th ưởng</w>
vớ _vẩn</w>
phất_ trần</w>
ph ần_thưởng</w>
núi_ non</w>
ng ành_
mấy_ mươi</w>
dân_ làng</w>
do _th
d à</w>
chị_ em_
chua_ xót</w>
_đo àn</w>
_s ức</w>
_b ao</w>
9 7</w>
4 32</w>
ù n_
yến_t iệc</w>
vỡ _l
trọng_t âm</w>
trương_ tử
toky o</w>
thiên_ gia</w>
phái_ đoàn</w>
p_l an</w>
nh ỡ</w>
n_thanh_ nhã</w>
mạnh_ tay</w>
má t_mẻ</w>
m ường_
lộc_trượng_ khách</w>
lan_ truyền</w>
hình_ thế</w>
hoang_ đường</w>
har v
h ựu</w>
gi àn</w>
cầm_ quyền</w>
cà_m au</w>
bị _động</w>
bất_ đồ</w>
_ch ỉ_
8 2</w>
08 :
đáng_ giá</w>
vân_ trường</w>
tức_ mình</w>
tắt_ thở</w>
tô n_đ
trổ _tài</w>
rối_ rít</w>
ra_ quân</w>
p ri
p -
nhọc_ nhằn</w>
như ỡng</w>
n át_
mái_ chèo</w>
la u
kỷ _
khoác_ áo</w>
hai_ bà_trưng</w>
h ỡi_
d ượng</w>
d ơ
c t.
báo_ giới</w>
_t uyển</w>
7 -
x ưng_
x ơ
vương_ hột</w>
v ồng</w>
u ỹ</w>
tậ p_th
tướng_ quốc</w>
thạ ch_l
thiên_địa_ hội</w>
thi_ thoảng</w>
sách_ giáo_khoa</w>
ro bo
ngô _thị
ngo ạ
n ập</w>
lối_ thoát</w>
l ẻ
kis tan</w>
k ra
hoành_ tráng</w>
ga c</w>
g k</w>
ebo la</w>
e_d è</w>
d jokovic</w>
chị_em_ ruột</w>
chí n_
b ềnh</w>
b ì
2 .000</w>
ương_ hải</w>
đại_ bàng</w>
đường_ đường</w>
đường_ nét</w>
yêu_ kiều</w>
tình_ tiết</w>
trác_ kiều</w>
thành_ đô</w>
po p</w>
ph ập_
nh ượng_
nan_ đà</w>
n_t ài</w>
mú a_
m úc</w>
long_ tuyền</w>
l ười_
khai_ sinh</w>
cơ_ nghiệp</w>
cái_ trò</w>
ca ch</w>
_ về</w>
10 00</w>
tập_th ể
tiê n_thiên</w>
tin_ học</w>
thực_ tại</w>
thứ _lỗi</w>
r ưng</w>
quay_ phim</w>
phong_ thuỷ</w>
o c
l õm</w>
l ìm</w>
hoả _t
gs. ts</w>
dương_công_ bảo_khố</w>
doã n_thanh_nhã</w>
cừu_thiên_ nhận</w>
cư _tr
chữ_ ký</w>
chạm_ trán</w>
chơi_ lễ</w>
7 %</w>
6 2</w>
20 2</w>
ống_ kính</w>
đi_ sâu</w>
ênh_ vực</w>
vỗ _về</w>
tị ch_
tho ang_
thoang_ thoảng</w>
sư_ cô</w>
l uyến_
hấp_th ụ</w>
dư_th ương_hải</w>
danh_ từ</w>
bảo_ trọng</w>
bảo_ quản</w>
b ênh_vực</w>
_ph ần</w>
trợ _cấp</w>
phụ _cận</w>
ph ơ
ng_l ý</w>
lè ne</w>
kỳ _sơn</w>
khô_kh an</w>
jus tin</w>
iê u_l
do_th ám</w>
di o</w>
chết_ chóc</w>
bụng_ dạ</w>
6 8</w>
ăn_t ay</w>
ân_ nhân</w>
yết_ hầu</w>
wor ld
v ồ</w>
tần_th uỷ
trao_ tặng</w>
t ấp_
run_ sợ</w>
phục_ nan_đà</w>
phòng_ không</w>
ngh ẹt</w>
lập_l uận</w>
kiểm_ định</w>
ir e</w>
g ốc_
elean or</w>
cổ _động</w>
bỏ_ hoang</w>
9 /1</w>
2 50</w>
đau_ nhức</w>
xương_ cốt</w>
v ỹ</w>
tấp_ nập</w>
tuần_ tra</w>
trung_ học_
tru ật_
tri_ huyện</w>
thân_ mến</w>
th ờ
te l
tai_ hại</w>
ranh_ giới</w>
phẩm_ chất</w>
n_đ ãi</w>
linh_ chi</w>
kis singer</w>
gi ẫm</w>
d ẻo</w>
d ại_
cận_ cảnh</w>
côn_ trùng</w>
b ọ
_n ợ</w>
1 %</w>
ứ u</w>
đại_ lễ</w>
đà _lạt</w>
đa n_thanh</w>
à n_t
tế_ nhị</w>
tập_thể _dục</w>
to ạc</w>
thầy_ cô_giáo</w>
tam_ giác</w>
quả ng_lăng</w>
quách_t ương</w>
nữ _thần</w>
nhân_ tâm</w>
nhân_ số</w>
nhàn_ nhã</w>
ng ù
ng ai</w>
n t
loạn_ xạ</w>
el vis
d ặng</w>
d í</w>
che _đ
cao_ độ</w>
ả -
đặc_ thù</w>
đơn_ uyển_tinh</w>
ào_ ạt</w>
viên_ viên</w>
uy _phong</w>
tô _phi</w>
ta y
t ước_
nắng_ nóng</w>
nhu ệ
n ể
màn_ kịch</w>
không_ lưu</w>
giám_ hiệu</w>
giang_ hải_
dương_ văn_
cố _định</w>
cố _nhiên</w>
che_đ ậy</w>
bánh_ bao</w>
bá_t ánh</w>
ể nh</w>
đông_ dương</w>
vô_b iên</w>
tự _lập</w>
thanh_ tuyền</w>
r úc</w>
quốc_ công</w>
phong_t ục</w>
o m_s
om_s òm</w>
lị m</w>
lưu_ nhất_
lãnh_ huyết_
liver pool</w>
l ắm_
kh ép_
hạ ng_
gượng_ gạo</w>
căm_ thù</w>
chuẩn_ xác</w>
chiều_ tối</w>
bồi_ hồi</w>
bí ch_
bách_hoa_ sơn_trang</w>
_b àng</w>
26 /12</w>
10 1</w>
đào_ căn_
đào_căn_ tiên</w>
đoan_ trang</w>
tinh_ xảo</w>
só ng_thần</w>
s ước</w>
r é</w>
l ặc</w>
l ùa</w>
hung_ thần</w>
giờ _h
cư_tr ú</w>
cá _
com bank</w>
chú _rể</w>
chào_ đời</w>
chiến_ hạm</w>
bỏ_ mạng</w>
_ph í</w>
7 6</w>
tư_ pháp</w>
thư _thái</w>
thiên_ chính</w>
tham_ kiến</w>
si nh
r èn</w>
o a
ngữ _khí</w>
ngh ễ</w>
n ốt_
n ung</w>
lực_ sĩ</w>
l uộc</w>
iên_ châu</w>
hành_ hung</w>
di_ tích</w>
bảo_ trì</w>
biết_ mấy</w>
ba sel</w>
_tr ạch</w>
_s ứ</w>
định_ mệnh</w>
đích_ xác</w>
z a</w>
xe _c
x ôi</w>
thông_ tư</w>
th p
tang_ lễ</w>
quỳnh_ anh</w>
n ện</w>
mong_ mỏi</w>
im_ lìm</w>
hà n_th
gắng_ sức</w>
fad e
dĩnh_ thuỷ</w>
co u
ch iêm</w>
bang la
_t ẩu</w>
_chính_ trị</w>
đắ k
uy _danh</w>
tê _liệt</w>
tho i_
nhú n</w>
liên_ hoan_
liên_hoan_ phim</w>
l ầu_
kh ăn_tay</w>
kh êu_
hối_ lộ</w>
hậu_ bối</w>
giường_ bệnh</w>
cố _thủ</w>
chính_ diện</w>
bạch_l iên</w>
bách_ khoa</w>
6 7</w>
xâm_ lược</w>
vương_ huyền_
vân_ canh</w>
tột_ cùng</w>
tạp_ hoá</w>
tô n_t
tích_l uỹ</w>
tròn_ xoe</w>
trinh_ sát</w>
sặc_ sỡ</w>
s se
r ình</w>
phần_ nhiều</w>
pa kistan</w>
ngu ội</w>
làm_ bàn</w>
học_ vấn</w>
huỷ _bỏ</w>
hous e</w>
dư _
d ấp</w>
con_ tin</w>
ằn_ học</w>
đồng_ bộ</w>
đảo_ lộn</w>
vương_ hãn</w>
trần_ viên_viên</w>
thiếu_ tá</w>
th óp</w>
tay_ trong</w>
rô linh</w>
ngăn_ cách</w>
mẹ_ kiếp</w>
m ủ</w>
lý_t ự
la_ võng_cơ</w>
hứa_ khai_
ho ại</w>
gia_ bang</w>
cố p</w>
chật_ vật</w>
chua_ chát</w>
bước_ đầu</w>
bé _con</w>
bangla desh</w>
_t ang</w>
ẩm_ thực</w>
ư u_l
úc_ xá</w>
xuống_ đường</w>
võ _thuật</w>
tự _vệ</w>
từ _ngữ</w>
trống_ ngực</w>
thiên_ sư</w>
sá p</w>
re al</w>
pháp_ sư</w>
ph ẫu</w>
ngọc_ đỉnh</w>
nghĩa_ hiệp</w>
kiều_ diễm</w>
hã nh_
ho ằng</w>
h ằn_học</w>
da vid
công_ nghệ
chi_ phối</w>
ch ử</w>
ca_ tụng</w>
c ươi</w>
bốn_ phương</w>
b ăt</w>
1 /
ẩ n_t
định_ đoạt</w>
ô n_tập</w>
án_ mạng</w>
trả m</w>
tiểu_ hương</w>
thống_ lãnh</w>
t ỳ
t ể
sống_ động</w>
sh a</w>
quỷ _quái</w>
nấu_ nướng</w>
nhỏ m</w>
nhà u</w>
go n</w>
du_ ngoạn</w>
cô _lập</w>
c a_s
bộ _chính_trị</w>
bấy_ lâu</w>
b ịp</w>
1. 9
ẳ n_
đã_đ ành</w>
đâu_ đây</w>
ô _h
vận_t ốc</w>
v ưa</w>
uyển_ nhi</w>
u_ mến</w>
tự_t ại</w>
trì u_mến</w>
trái_ phiếu</w>
tiểu_ quận</w>
thành_ hôn</w>
nhị _cổ</w>
ngậm_ ngùi</w>
lột_ xác</w>
lặng_ yên</w>
la_ mã</w>
l _stre
kinh_ thiên_
iể u_
ghê _t
ghê_t ởm</w>
g ắp</w>
g ài</w>
fi ca</w>
e du
e d</w>
ch ơ
c is
bình_tây_ vương</w>
bá_ đạo</w>
buồn_b ực</w>
đâu_ đấy</w>
tru ồng</w>
sưu_ tầm</w>
quanh_ năm</w>
nho ài</w>
ngh ê</w>
mất_ công</w>
mar y</w>
kim_ dung</w>
i r</w>
học_ giả</w>
g ò
elvis _đậu</w>
dan te</w>
chấn_ kỳ</w>
bửu_ khoa</w>
an_ khánh</w>
_ già</w>
3 9
thân_ xác</w>
ròng_ ròng</w>
ph ồn_
p_b óc</w>
ngọc_ tình</w>
ngay_tức_ khắc</w>
ng òi</w>
n ơi_
n anh</w>
môi_ giới</w>
má ng</w>
luân_ hồi</w>
hồng_ hào</w>
hđ qt</w>
h s
gián_đ iệp</w>
g ạ
dị _nhân</w>
cướ p_bóc</w>
chống_ trả</w>
chúa_ trời</w>
bạch _m
ben fica</w>
_b ắc</w>
ả- rập</w>
đ ượm</w>
ô n_t
tiến_ cử</w>
thành_ thân</w>
thiết_ tha</w>
so ny</w>
phi_ ngựa</w>
nh ồi</w>
ngạo_ nghễ</w>
ng ớ</w>
n_đ ài</w>
khôn_ xiết</w>
hồi_ sinh</w>
hiể n_thị</w>
ghe n_t
dụ _d
bát_ quái</w>
b ơi_
b ong_
8 .000</w>
3 /2</w>
ế_t ích</w>
ả o_th
động_ địa</w>
điể m.
xảo_ quyệt</w>
xua_ đuổi</w>
x ạ
x ông_
sơ _
rober t_
nói_ láo</w>
ngưỡng_ cửa</w>
lưu_nhất_ chu</w>
la de</w>
l ốp</w>
l ệ_th
l ả</w>
kinh_thiên_ động_địa</w>
kh ố
hô_d iên_t
gầy_ gò</w>
cắt_ giảm</w>
bi g
đạo_ pháp</w>
đu n</w>
văn_ sĩ</w>
vn thu
v ơ
v iế
tần_thuỷ _hoàng</w>
tí _ho
tí_ho n</w>
tiểu_ hổ</w>
thạch_ như</w>
thân_ nhân</w>
r ứt</w>
r ì
pro tein</w>
nương_ tựa</w>
nh ẽ</w>
lạng_ sơn</w>
làm_ giàu</w>
l ẩn</w>
l ét</w>
hồng_ hộc</w>
falko_ goetz</w>
dụ_d ỗ</w>
dã_t ốc_
cơ _mật</w>
chằm_ch ặp</w>
chán_ ghét</w>
chen_ chúc</w>
ch ài</w>
cam ry</w>
bụng_ dưới</w>
b ôn</w>
_n an</w>
5 9</w>
. 0
đ ắt_
trực_ giác</w>
thạch_ đầu</w>
th ụt</w>
tam_ nương</w>
t ấm_
t ảo</w>
sắc_ sảo</w>
suy _s
s ầu_
s ành</w>
nho à</w>
ngập_ tràn</w>
min i</w>
ma l</w>
ko ko</w>
khí _công</w>
kho e_
k èn</w>
hối_ tiếc</w>
ghế_ ngồi</w>
ct. ly</w>
chính_ quy</w>
chao_ ôi</w>
bùng_ phát</w>
blo g</w>
a p</w>
a nh
_r iêng</w>
_c up</w>
đụng_ chạm</w>
đền_ đáp</w>
đ ọ</w>
ăn_ chơi</w>
x úi_
trở _tay</w>
tiên_ đế</w>
thẹn_th ùng</w>
sinh_ động</w>
s ắn</w>
s à</w>
ru ổi</w>
qu ai_
ngo a</w>
ngang_ hàng</w>
mis ca</w>
lặ p_
khoe_ khoang</w>
hạt_ giống</w>
d ột</w>
cổ _điển</w>
bất_ tận</w>
vi -
u r</w>
tuỳ _thuộc</w>
trừng_ quan</w>
tr iền</w>
thổ _ph
thấu_ hiểu</w>
thanh_ thản</w>
o ang</w>
nước_ hoa</w>
nh ẩy</w>
m ọi_
m ươi_
l ính_
hu ân_
ck _
4 %</w>
ấm_ ức</w>
đinh_ ninh</w>
x ám_
vp f</w>
vi de
vi ch</w>
tủ _lạnh</w>
trầm_ tĩnh</w>
triển_ chiêu</w>
tr ót</w>
th ít</w>
sáng_ sủa</w>
phóng_ xạ</w>
phong_ vân</w>
nã o_
nh ao_
ngù n_ng
ngùn_ng ụt</w>
khai_ trương</w>
danh_ tính</w>
cá p_t
chấn_ sơn</w>
chuyển_ hoá</w>
chuyê n_tâm</w>
chi_ tiên</w>
bản_ án</w>
buồn_ phiền</w>
b ò
an a</w>
_ph úc</w>
đầu_ bếp</w>
đảm_ nhiệm</w>
điệ p_
ăn_ mừng</w>
yểu_ điệu</w>
v é
tự_t iện</w>
thống_ đốc</w>
thương_ tiếc</w>
thuê _bao</w>
thoạt_ tiên</w>
sào_ huyệt</w>
r úm</w>
phái_ đẹp</w>
phá c_
ph ạn</w>
nội_ địa</w>
ni xon</w>
ngô_l ập_th
n_th ánh</w>
mở_m àn</w>
m and
lu ậ
hay_ ho</w>
harv ard</w>
hao_ tổn</w>
cửu_ trùng</w>
chừng_ như</w>
chiếm_ đạo</w>
bản_ nhạc</w>
_đ âu</w>
19 -8</w>
11 /1</w>
ầ n_tử</w>
đặc_ sắc</w>
vô_s ắc</w>
tr àng_
ti ng</w>
sốt_ xuất_huyết</w>
rừng_ núi</w>
rượ i</w>
r ưng_
quách_t ường</w>
phất_ phơ</w>
phản_t ặc</w>
ngọc_ sương</w>
ngạch_l uân</w>
ngoại_ thương</w>
lên_ cơn</w>
l ì
khổ _não</w>
hãnh_ diện</w>
d am</w>
cứu_ hoả</w>
am s</w>
a v
2011- 2012</w>
ắt_ g
ưu_ điểm</w>
đ ậm_
tinh_ hà</w>
tham_ mưu</w>
th i.
rì _r
nà y.
n_t ẩu</w>
móc_ túi</w>
lục_ tục</w>
giáo_ phái</w>
gi ằng_
gh ét_
dã_c ẩu_
công_ hiệu</w>
chúng_ mày</w>
bạch_ y</w>
đầu_l âu</w>
ái_ ngại</w>
tụ_h ọp</w>
tr ăn_
time s</w>
r inh</w>
phụ_ hoạ</w>
nghe _đâu</w>
n ịnh</w>
mụ n</w>
mệnh_ danh</w>
mu l
le y_
kha_ ngạch_luân</w>
hơ p</w>
han ni
g ửi_
g ắt_g
es s</w>
d òm</w>
cao_ to</w>
bô n_tẩu</w>
_c ứu</w>
7 8</w>
đức_ cha</w>
đăm_ chiêu</w>
đài_ truyền_hình</w>
đe n_s
đen_s ì</w>
vương_ đạm_chân</w>
tán_ loạn</w>
tái_ mét</w>
thu_ nạp</w>
th ỏ
tex as</w>
t ật_
ro me</w>
quân_ bảo</w>
oli via</w>
oan_ uổng</w>
ni gel</w>
ngô_lập_th ân</w>
ng ẫm</w>
mỹ _phẩm</w>
minh_ phượng</w>
m ỏm</w>
kh ỉnh</w>
d ối_
c ược</w>
bình_ dân</w>
0 7</w>
ẩn_ náu</w>
ạm_ vỡ</w>
đào_ chi_tiên</w>
ùn_ ùn</w>
w w
v ạm_vỡ</w>
tụ _hội</w>
trì _hoãn</w>
thì_th ôi</w>
t ter</w>
s á</w>
s po
quan_ công</w>
nhân_ văn</w>
ngư ng_t
mông_ lung</w>
j er
c ẩu_
6 .
xí ch_m
trù ng_hợp</w>
to ại</w>
thành_ bại</w>
quốc_ anh</w>
phi a</w>
nhượng_ bộ</w>
nhà_t ù</w>
ngưng_t ụ</w>
n_ màng</w>
mỹ _thuật</w>
muôn_ ngàn</w>
ka t</w>
k ỉ</w>
gầm_ gừ</w>
ghi_ điểm</w>
gh e</w>
cá_m ập</w>
chất_ liệu</w>
chó p</w>
_d u</w>
xử _sự</w>
vừa_ lòng</w>
trịnh_ thạch_như</w>
trăn_ trở</w>
trang_ trọng</w>
thuỵ _điển</w>
nối_ liền</w>
ngốc_ nghếch</w>
ngắn_ gọn</w>
không_ trí</w>
h ê
h u</w>
cố _ch
châu_ du</w>
c cn</w>
bù _đ
bugatti_vey ron</w>
ba_ má</w>
_ng ân</w>
x y</w>
tổng_ thể</w>
trọng_ dụng</w>
thương_ binh</w>
thăm_ thẳm</w>
sứ _mệnh</w>
p e</w>
nhao_ nhao</w>
khét_ tiếng</w>
hé lène</w>
huệ _huy</w>
hiện_ hữu</w>
eli za
dư ỡ
càn_ quét</w>
bình_ nhưỡng</w>
_th ành_
_m âu</w>
199 0</w>
ỉ a</w>
đại_ lương</w>
x x</w>
vic toria_
tô_ tinh_hà</w>
sa r
r ổ</w>
r ẻ_
quá _sức</w>
ph in</w>
nu ông_
mang_ tiếng</w>
kinh_ thánh</w>
gi ỗ</w>
fa che</w>
dối_ trá</w>
d ấ
chung_ ly_
bộ _tộc</w>
băng_ bó</w>
ar di
a 1</w>
_m ùa</w>
vui_ nhộn</w>
tài_ giỏi</w>
thực_ vật</w>
thẩm_ phán</w>
sinh_ sản</w>
ri ta</w>
qua_ ngày</w>
phú _thọ</w>
phi_ đao</w>
nồng_ nhiệt</w>
ng ar
mê_m ẩn</w>
m iên_
lạc_ đà</w>
lú n</w>
kho anh</w>
khai_ giảng</w>
il lu
hữu_ hiệu</w>
gi an
du_l iên_châu</w>
cáp_t át_
coi_ bộ</w>
chung_ ly</w>
chia_ rẽ</w>
cao_ tôn_giả</w>
_đ ẻ</w>
đường_ cong</w>
ân_ tình</w>
x iêu_
vô _phương</w>
vie w</w>
u m_t
um_t ùm</w>
tương_ tác</w>
tr ãi</w>
thu ật_
phê _
nâng_ đỡ</w>
nuông_ chiều</w>
ng ài_
mặc_ cảm</w>
mon k</w>
g ai_
c ạy</w>
b úp</w>
an_ ngọc_tình</w>
0 o
ở n</w>
đổ _d
với_ lại</w>
vật_ lộn</w>
vinh_ hạnh</w>
thân_ cận</w>
quả _phụ</w>
phú_ yên</w>
no bel
nh ơn_
lưỡ ng_hồ</w>
ló ng_l
lâu_ đời</w>
lân_ cận</w>
hanni bal</w>
giả_th uyết</w>
giao_th ừa</w>
gi ằng</w>
chốc_ chốc</w>
bất_ giới</w>
bá _đương</w>
a_ la</w>
độc_ cô</w>
đ -
xê- út</w>
vui_ buồn</w>
tưởng_ bình</w>
thầy_t u</w>
sinh_ dục</w>
sai_ bảo</w>
s l</w>
pha n_th
nguyễn_đ ình_
n_th ể</w>
liên_ châu</w>
la p
k ỉnh</w>
cấp_ độ</w>
công_tôn_ ngọc_sương</w>
chủ _ch
bột_ nhi_
ủ_r ũ</w>
đông_ minh_
điệu_ bộ</w>
y u
xa_ xưa</w>
window s
tích _hợp</w>
t ể</w>
pu chia</w>
nhấp_ nhô</w>
mỹ _mỹ</w>
lên_ xuống</w>
k iêng</w>
hạng_ mục</w>
hà _hà</w>
giảng_ giải</w>
giao_ tranh</w>
cảnh_ ngộ</w>
_d ùng</w>
_ch ăng</w>
_b ài</w>
6 9</w>
đồ _dùng</w>
trực_ thuộc</w>
thanh_ quang</w>
râu_ tóc</w>
phạm_ văn_
pha t</w>
nữ _giới</w>
nguồn_ lực</w>
ngh ẽn</w>
nam_ an_khánh</w>
lóng_l ánh</w>
lí _do</w>
kim_ hoàn</w>
không_ động</w>
eliza be
e la</w>
dũng_ khí</w>
chú i</w>
đại_ pháp</w>
điề n_t
tiểu_ đồng</w>
th a_
ter s</w>
t and</w>
quân_ chủ</w>
nho m</w>
ngũ _đ
ngô_l ục_
kỳ_ ảo</w>
khó i_
khánh_ hoà</w>
hiểm_ độc</w>
hiền_ hoà</w>
d ỗ
cận_ vệ</w>
bỗng_ chốc</w>
am_ hiểu</w>
_v ãng</w>
đổ_d ồn</w>
đặc_ tính</w>
đá i_
tr ụi</w>
tr át</w>
thẩm_ tường</w>
quá _độ</w>
phê_ phán</w>
phân_ tử</w>
n_đ ường</w>
kẻ_ gian</w>
je ff</w>
gi ậm</w>
cuố n_hút</w>
chung_ly_ triết</w>
chan el</w>
đổng_thục_ trinh</w>
định_ nhàn</w>
điên_ khùng</w>
xe_c ộ</w>
việt_ minh</w>
v ê
trống_ trải</w>
triển_ vọng</w>
thiếu_ sót</w>
tay_ không</w>
quá _tải</w>
quy ện</w>
quang_ trung</w>
ph ông</w>
ngư ng_
ng_th ốt</w>
n ơ</w>
m y_
kiên_ định</w>
han nah</w>
c úc_
ban_ giám_hiệu</w>
b õ</w>
al a</w>
_r èn</w>
30 .
độc_ hại</w>
tịch_ ứng</w>
tú _sĩ</w>
thực_ lòng</w>
thần_ diệu</w>
thả ng_thốt</w>
t te
qu ế_
nhảy_ nhót</w>
nh ường_
ngành_ nghề</w>
lẫm_ liệt</w>
lo ad</w>
kim_ thống</w>
hội_ trường</w>
hiến_ pháp</w>
galax y_
chúng_ bay</w>
chân_ thực</w>
chu_ toàn</w>
bảo_ bối</w>
b ả</w>
a grave</w>
_t ại</w>
đinh_bất_ tứ</w>
đ ống_
w in
vù n_
vùn_ vụt</w>
thị _lang</w>
suy_ yếu</w>
sh ar
r ợ</w>
phô _trương</w>
nhỏ_nh ặt</w>
ngôi_ vị</w>
ngô_lục_ kỳ</w>
nguyễn_t ấn_
ngoại_ hình</w>
ngo ắt</w>
hờ n_
h ẳn_
giọng_ điệu</w>
gian_t ế</w>
cắn_ răng</w>
cầm_ tù</w>
clau dia</w>
ck er
ch an</w>
bồi_ bổ</w>
bù_đ ắp</w>
bán_đ ứng</w>
b ón</w>
0o 0</w>
ậ p_t
độc_ nhất</w>
âm_ dương_
xuất_ chúng</w>
x ấp</w>
trần_ trường_
trần_ gian</w>
tràn_ trề</w>
tr ăn</w>
tr eo_
s ẳn</w>
s ũng</w>
s mi
quốc_ hưng</w>
p ê
nội_ thị</w>
nối_ tiếp</w>
như _tr
ngọc_ dương_tử</w>
n_ kẽ</w>
n ịu</w>
kết_ liễu</w>
khởi_ công</w>
i el
huyề n_tử</w>
dấ n_thân</w>
cõi_ đời</w>
cát_ thiên_phong</w>
cuộc_ chơi</w>
bổ_ ích</w>
_ giác</w>
ẻ o_
đ ồn_
tậ p_t
tư _sản</w>
robi n_
ph ở</w>
m er</w>
giác_ viễn</w>
g ớm</w>
cả nh_l
công_ đức</w>
ca_s ỹ</w>
c ừ</w>
6 1</w>
đại_ tống</w>
xâm_ chiếm</w>
w an
vô _duyên</w>
tr ườn</w>
tiệc_ rượu</w>
thư a_th
re u
r é
lâm_ nguy</w>
kêu_ gào</w>
hoảng_ hồn</w>
hoàn_nhan_ hồng_
hoà _giải</w>
cất_ giữ</w>
chửi_ bới</w>
ca p
bát_ vương</w>
3 d</w>
đầy_ rẫy</w>
vượt_ trội</w>
trần_trường_ lâm</w>
trai_ trẻ</w>
thu_ nhận</w>
suy _th
suy_th oái</w>
rảnh_ rỗi</w>
nhậm_ huyền</w>
nhãn_ quang</w>
ngoại_ thành</w>
lạnh_ giá</w>
len_l ỏi</w>
không_ quân</w>
cột_ sống</w>
cáo_ buộc</w>
cu -
chữ_ cái</w>
chú _tâm</w>
cao_ chiếm_đạo</w>
băng_ giá</w>
/ 7
độc_ quyền</w>
tưởng_ nhớ</w>
tán_ dương</w>
tr ại_
quyền_ cước</w>
kho an_th
kh ải_
gia_ minh</w>
di_ lặc_
biế m</w>
_d ịch</w>
điền_ mỹ_mỹ</w>
đ ỡ
xu i_
v ẻ
tống_l ỗ</w>
tập_h uấn</w>
nhà_th ầu</w>
m ọn</w>
m w</w>
lữ _kh
loại_ hình</w>
lanh_ lợi</w>
l â
kiếm_ khách</w>
hấ p_h
hài_ hoà</w>
hoa_ vân</w>
gia_ hạn</w>
dã_cẩu_ đạo_nhân</w>
cà _sa</w>
bán_đ ấu_
bá_t ước</w>
_đ ắc</w>
4 /2</w>
đắc_ thắng</w>
vừa_ nãy</w>
v ố
tử_ nguyên</w>
trung_ quân</w>
thôi_ thúc</w>
th ấp_
sửa_ sang</w>
sớm_ mai</w>
ph ủi</w>
ngh iễm_
mấp_ máy</w>
lui_ tới</w>
l iếm</w>
khâm_ sai</w>
hội_đồng_ quản_trị</w>
hải_ ngoại</w>
hưng_ yên</w>
cẩm_ nang</w>
bán_đấu_ giá</w>
biên_ phòng</w>
_n ang</w>
_m a_
_kh ắc_
_d ương_
3 .9
đề m</w>
ít_ ỏi</w>
ác_ ý</w>
y e
vương_ tiễn</w>
trung_ gian</w>
tranh_ cử</w>
tiểu_ huyền_tử</w>
thành_ danh</w>
o ang_
nhân_ tình</w>
nhàn_ rỗi</w>
nhiệt_ đới</w>
ngô _kh
n s
m ễ
li m_
l ẩy_
jes se</w>
in i_
hu ân</w>
dò _la</w>
ck s</w>
chủ_ch ốt</w>
chuộ t_
ch -
canh_ phòng</w>
c er
b ính</w>
_l ặc_
_kh ai</w>
_ch uyển</w>
đồ_ tiên</w>
đường_ mòn</w>
đích_th ị</w>
z e</w>
yết_ kiến</w>
vân_ dương_tử</w>
vui_ tươi</w>
tù _nhân</w>
oán_ trách</w>
nhà_ quê</w>
ng ạch</w>
m ải_
lạ y_
khoả _thân</w>
hạ_hầu_ cương</w>
hò _r
huỵ ch</w>
huyền_ diệu</w>
hoả _khí</w>
cầu_ vồng</w>
bến_ xe</w>
30 /12</w>
24 /1</w>
đánh_ cuộc</w>
đ ành_
tú _tài</w>
tiềm_ ẩn</w>
thủ _thế</w>
thảm_ bại</w>
thuỷ _điện</w>
thu_ hẹp</w>
t ar
nạ p_lan</w>
nham_ hiểm</w>
nguyên_ bản</w>
nd a_
lẩy_ bẩy</w>
lão_ luyện</w>
l ăm_
k er</w>
hốt_ nhiên</w>
hải_ quan</w>
hu ýt_
góp_ mặt</w>
f la
dật_ chi</w>
chiến_ công</w>
champions _leagu
ch òng_
cao_ kiến</w>
anh_ chị_em</w>
a ven
_g an</w>
đứng_ đắn</w>
trụ _trì</w>
trào_ dâng</w>
thuỷ_tr iều</w>
th ọc</w>
rư ới</w>
ra_ dáng</w>
nhát_ gan</w>
min a
lục_ cao_
bạch _c
1, 5</w>
. ....</w>
đo àn_t
x ào</w>
tưởng_ niệm</w>
tàn_ hồn</w>
tuyết_ hoa</w>
trừng_ quang</w>
to_ tiếng</w>
thần_ linh</w>
tang_ kết</w>
qu ơ</w>
ngũ _phù</w>
n ar
giữ _
cá ch_l
chiêm_ thành</w>
ch ăc</w>
ch an_
bằng_ an</w>
b ứt_
_t ạng</w>
5 /12</w>
ầ n_tu
đ ây_
yế n_đ
tệ _nạn</w>
tô _phổ</w>
trộm_ cắp</w>
trương_tử _thanh</w>
thu ần_th
t y
st .</w>
quý nh</w>
quí _
phập_ phồng</w>
nghị _sĩ</w>
n_th ế</w>
m_đ óm</w>
làm_ gì</w>
l ôn</w>
khiêm_ nhường</w>
huy _
hu ế_
h âu</w>
gó c_
dịch _chuyển</w>
ch ặ
_l uyện</w>
đổ _v
đống_ đa</w>
đ ày</w>
xáo_ trộn</w>
v ạc</w>
v ú_
tăng_ lữ</w>
thống_ khoái</w>
thăng_ bằng</w>
sĩ _khí</w>
quân_ dân</w>
ng ườ
mờ_ ảo</w>
mạnh_ khoẻ</w>
lão_ hoá</w>
kỷ _h
kỳ _cục</w>
hô _lôi_
hò_r eo</w>
giảng_ đường</w>
dự_ bị</w>
dã _thú</w>
cảnh_l ăng</w>
chứng_ bệnh</w>
bồ _câu</w>
bo m_
bao_ giờ_h
b ập_
and er
đặng_ bách_xuyên</w>
đông_ bắc</w>
đo m_đóm</w>
đi_ đôi</w>
êm_ đềm</w>
yo u</w>
vạn_ chấn_sơn</w>
trò _đùa</w>
tiê n_t
thành_ trì</w>
quân_ phục</w>
nx b</w>
ly_ dị</w>
lamborgh ini_
hơn_ bao_giờ_h
hơn_bao_giờ_h ết</w>
hô_lôi_ phương</w>
hiề m_
giả o</w>
có ng</w>
cao_ bằng</w>
cam_ chịu</w>
bàn_t ính</w>
_thu ật_
_c uộc</w>
3 30.000</w>
ái_ tình</w>
y_th uật</w>
trọng_tôn_ long</w>
trường_ thuỷ</w>
trác_ nhượng</w>
to_ gan</w>
tiếp_th ị</w>
thuần_th ục</w>
tan_ rã</w>
q a
ph iề
mẫn_ nhu</w>
ma s</w>
m ù_
lưu_ truyền</w>
li xi
l òi</w>
k ĩ</w>
hành_ xử</w>
h ùm</w>
du_ trường_thuỷ</w>
cười_ phá</w>
công_ thương</w>
chư _tướng</w>
bánh_ chưng</w>
b ủ
_đ ảng</w>
5 .000</w>
ảo_ ảnh</w>
đạo_ giáo</w>
xo ắn</w>
thôi_ miên</w>
thì_ giờ</w>
s tra
nồng_ nàn</w>
ng_th inh</w>
nam_ nhi</w>
n ay_
lặ ng_thinh</w>
lý_h ọc</w>
l ổ</w>
kháng_ sinh</w>
hợ p
giao_ phong</w>
dòng_ dõi</w>
dàn_ xếp</w>
da vi
d ập_
cơm_ nước</w>
cơ _trí</w>
che _lấp</w>
bơi_ lội</w>
bá _chủ</w>
bb c</w>
8 4</w>
ảo_ giác</w>
đẩy_ lùi</w>
đu i</w>
ôn_t ồn</w>
vô_t âm</w>
vô _thượng</w>
v on
tử _hình</w>
tà ng_
tuyệt_ chiêu</w>
r in
oang_ oang</w>
niêm_ phong</w>
ne x
hồn_ vía</w>
h anna</w>
dịch_ giả</w>
chối_ từ</w>
bột_nhi_ thiếp</w>
đèn_đ ỏ</w>
đ ơi</w>
vang_ động</w>
tt k</w>
triệu_ tiền_t
tr ói_
thị_tr ường_
thích _trường_
thiên_ sơn</w>
sá p_
olympi c</w>
nha_ dịch</w>
lượng_ thứ</w>
ký _hiệu</w>
khiêu_ vũ</w>
ho è</w>
giã y_
di_ truyền</w>
chỉnh_ đốn</w>
bẩm_ báo</w>
bản_ sắc</w>
_ xuân</w>
9 3</w>
đặ ng_th
đè _n
yến_đ a_la</w>
trách_m ắng</w>
thị _nữ</w>
thư _từ</w>
th ấ
s t_
rộn_r àng</w>
r ồ
phỏng_ đoán</w>
lục_cao_ hiên</w>
lưu_ manh</w>
la_ liệt</w>
giao_ cấu</w>
geor ge
diệt_ trừ</w>
cứng_ đờ</w>
0 9</w>
đổng_thục_ ni</w>
đè_n én</w>
ôn_ giả</w>
v ỏ
v ãn_
ton_ nga</w>
t ẩy_
se c</w>
s ấp</w>
rã nh</w>
ri hanna</w>
quá_đ ỗi</w>
nước_ ngọt</w>
nhị _nương</w>
nhu ận_
nguyê n_thuỷ</w>
n_tu ông</w>
m út</w>
l áng</w>
khẩu_ hiệu</w>
không_ văn</w>
hà_th ái_
hillary_clin ton_nga</w>
h o_
ghe n_tuông</w>
dị_ ứng</w>
cầu_ mong</w>
cơ _b
chu_ thông</w>
ang e
ốn_ nháo</w>
ảo_ tưởng</w>
vạ n_tu
vương_ minh</w>
u_ nhàu</w>
tối_ hậu</w>
tr iêu_
thoi_ thóp</w>
thiếu_ nguyên</w>
thiế n_
thiến_ như</w>
thao_th iết</w>
ta -
rắ n_r
nh ốn_nháo</w>
nh ãi</w>
mặc_ kha</w>
ma_ quái</w>
ma i-
làm_ chứng</w>
liệt_ hà</w>
linh_ động</w>
hành_ trang</w>
hành_ nghề</w>
gmt7 ngày</w>
gi o</w>
f one</w>
dỗ _dành</w>
d ub
cánh_ diều_
cuộc_ gọi</w>
cao_ ngạo</w>
bầu_ bạn</w>
bong_ bóng</w>
b ửu</w>
b ắp_
ak h</w>
22 /11</w>
địa_ phận</w>
đất_ đá</w>
xuân_ thân</w>
x ộc</w>
t ầu</w>
t t_
s ủng</w>
quần_th ần</w>
ngh inh</w>
ng ầu</w>
m ượt</w>
lạc_ thuỷ</w>
hoàng_ my</w>
diệp_ nhị_nương</w>
d ầm</w>
cu ba</w>
chá n_ng
ch iêng</w>
bá _phụ</w>
3 60</w>
ượ p</w>
đá ng_lý</w>
ác_ chiến</w>
vườ n_
tư_th ục</w>
thiếu_ nhi</w>
t âng_
sơ_s uất</w>
sá m_
su per
phục_ tùng</w>
nhớ _nhung</w>
nhị _tẩu</w>
nghênh_ ngang</w>
n_t ướng</w>
mạc_ đại</w>
lôi_ đình</w>
khả _dĩ</w>
khu ê
kh am_
hỏi_ nhỏ</w>
hàn_ kiệt</w>
f es
châu_ tấn</w>
che _phủ</w>
_l iêm</w>
10 .000</w>
đông_phương_ ngọc</w>
vĩnh_ hưng</w>
vu_ dung</w>
tú _phương</w>
tuyệt_ sắc</w>
thành_ khẩn</w>
th ộn</w>
sa nd
s ỉ
p ô
ngũ _sắc</w>
n ườ
ma z
m ì
m ât</w>
lơ_đ ãng</w>
lixi tê</w>
k en</w>
in di
hoang_ vắng</w>
fê lixitê</w>
cơ_b ắp</w>
cs gt</w>
chồng_ chất</w>
chó _săn</w>
chính_ thống</w>
ca f
c ọng</w>
_h ạnh</w>
28 /12</w>
động_ kinh</w>
đ ẽo</w>
đ iêm</w>
viế ng_th
viếng_th ăm</w>
tử_l an</w>
tỉnh_ uỷ</w>
trọ ng_th
tiểu_ lăng</w>
tiên_ tri</w>
thành_ uỷ</w>
ta do
re s</w>
ra -
r ắm</w>
phi_ yến_đa_la</w>
ngã_ng ửa</w>
m ó</w>
long_th iên_
khí _chất</w>
g mail</w>
dũng_ sĩ</w>
dây_ chuyền</w>
dài_ hạn</w>
cách _chức</w>
chung_ quy</w>
bỏ _cuộc</w>
bất_ tài</w>
bảo_ định_
an -
7 0%</w>
ột_ dạ</w>
ảng_ xoảng</w>
đỏ_ ửng</w>
xếp_ đặt</w>
tô _thiên_
tô_thiên_ bình</w>
th è</w>
sánh_ vai</w>
sám_ hối</w>
ro ll
quan_ viên</w>
phì _ph
nhãn_ lực</w>
n o_
mị n</w>
mông_ ngao</w>
lu y</w>
long_thiên_ lộc</w>
lo ảng_xoảng</w>
khoái_ lạc</w>
j on
hộ _thân</w>
hồi_ tỉnh</w>
gia_ quyến</w>
gi a_th
d ẫu_
chấn_ chỉnh</w>
ch ợp</w>
ch ột_dạ</w>
bộ p</w>
b ọ</w>
đổ_v ỡ</w>
định_ nghĩa</w>
đông_ nam</w>
đ ượ
xinh_ tươi</w>
xanh_ xao</w>
u_ uất</w>
thịnh_ nộ</w>
th ày</w>
quỷ_ tiên_sinh</w>
quyến_ luyến</w>
nội_ tạng</w>
nườ m_n
nườm_n ượp</w>
ng_t âm</w>
ng_h ực</w>
n ao_
lỗ _diệu_
long_ an</w>
l õng</w>
kỳ _tích</w>
ki ng</w>
hừ ng_hực</w>
hạ_l ong</w>
ele c
d ùi</w>
com p
chào_ mừng</w>
băng_ tuyết</w>
biến_ chuyển</w>
b ăm</w>
_kh ái</w>
_d ạ</w>
6 %</w>
ẻ m</w>
vũ _kh
vô_v iêm</w>
victoria_ beckham</w>
tỷ _như</w>
tươi_ đẹp</w>
tràn_ lan</w>
thịnh_ vượng</w>
thương_ gia</w>
t ât</w>
siêu_ phàm</w>
s ỏ</w>
r in</w>
nh ái</w>
ne u
diêu_ mãnh</w>
diên_ chiêu</w>
chênh_ chếch</w>
cam puchia</w>
cai_ quản</w>
bạch _đ
b ran
_t ắc</w>
_r o
_kh à</w>
_b ão</w>
0 6</w>
, 5</w>
y -
ven e
tống_ tiền</w>
tái_ phát</w>
tàu_ hoả</w>
trẻ _thơ</w>
thần_ y</w>
thú _thật</w>
s tu
per sie</w>
lỗ_diệu_ tử</w>
khí _khái</w>
khu y</w>
hợp_ đáp_
hoàn_nhan_hồng_ liệt</w>
ham mond</w>
giảm_ thiểu</w>
doanh_ chính</w>
cây_ xanh</w>
chân_ truyền</w>
ch _b
_lặc_ miệt</w>
ị _
ậ c</w>
ũng_ nịu</w>
đoàn_ diên_khánh</w>
triệ u_l
trinh_ tiết</w>
thượng_th ặng</w>
the _th
thanh_ minh</w>
phạm_ nhân</w>
n ũng_nịu</w>
m uốt</w>
lục_ địa</w>
linh_ vị</w>
gián_ tiếp</w>
dịch _bệnh</w>
cơ _duyên</w>
cánh_diều_ vàng</w>
chức_ vị</w>
chết_ tiệt</w>
chói_ lọi</w>
bình_ ổn</w>
bá ng</w>
_h ẹp</w>
9 1</w>
đại_ trí</w>
y_ hệt</w>
u b</w>
tâm_ can</w>
thượ ng_hải</w>
thiếu_ danh</w>
qu ạnh</w>
nước_ miếng</w>
nhỏ_nh oi</w>
nhậm_ thiếu_danh</w>
ngọc_ thanh_
mua_ chuộc</w>
ma_ lôi</w>
lê _ngọc_
lo ã
khám_ xét</w>
khoác_ lác</w>
khoa_ trương</w>
k ẽ
hạ ch</w>
hoá _thân</w>
h ớt</w>
giảm_ sút</w>
gi de
diễ u</w>
di s
cửu_ nạn</w>
cà _r
chung_ công</w>
3 4
virgi nie</w>
v ẩn</w>
v ất</w>
trân_ châu</w>
thế _tử</w>
thơ_ ấu</w>
phu_ phụ</w>
illu mina
hồi_ ức</w>
hận_th ù</w>
gir l</w>
gi ời</w>
e _thẹn</w>
dã _lặc_miệt</w>
cà u_nhàu</w>
cai_ trị</w>
bằng_ cấp</w>
22 /12</w>
11 /2</w>
đại_ ma</w>
xuất_ xứ</w>
w ho</w>
vu n_
thích_trường_ phát</w>
th ẻ
rã _r
quá _cố</w>
niêm_ yết</w>
ng ách</w>
mấy_ ai</w>
lap top</w>
l ũng_
khuyên_ nhủ</w>
illumina ti</w>
hoàng_ chung_công</w>
gia_ đinh</w>
diễn_ xuất</w>
chửi_ rủa</w>
can xi</w>
c ỏi</w>
_th iến</w>
88 7.
887. 104</w>
22 .9
.0 50</w>
ước_ chừng</w>
úc_ bảo</w>
x án</w>
tạ nh</w>
tình_ tứ</w>
truyền_th ần</w>
trung_ đoàn</w>
trang_ đài</w>
thức_ tỉnh</w>
thông_ hiểu</w>
thâu_ tóm</w>
the_th é</w>
tay_ lái</w>
t ề_
t ằm</w>
sống_ còn</w>
số _mệnh</w>
sú ng_l
s v
r êu</w>
nà i</w>
ngân_ phiếu</w>
n_đ ời</w>
lư _tuần</w>
k ị</w>
h tt
gide on</w>
fade tte</w>
cướp_ đoạt</w>
bồ _đ
bảo_định_ đế</w>
bê_b ối</w>
b ệt</w>
aven tado
ao_ ước</w>
_ng uyệt_
_ quán</w>
26 38</w>
1.9 80</w>
đầu_ tử</w>
vết_ tích</w>
vel t</w>
v íu</w>
triệu_tiền_t ôn</w>
ti_ vi</w>
thực_ khách</w>
thất_ thủ</w>
thạ nh</w>
rưng_ rưng</w>
quê _mùa</w>
nhạc_ thừa</w>
ng ợp</w>
mở _to
mở_to ang</w>
mĩ m</w>
khuôn_ khổ</w>
k el
giam_ cầm</w>
gia_luật_ hồng_cơ</w>
di_ sản</w>
cừu_ hận</w>
cất_ cánh</w>
chế_ giễu</w>
chuyên_ khoa</w>
can_ quy</w>
biên_ cương</w>
a cker</w>
_đ ỏ</w>
đồng_ cảm</w>
đầ m_
xe n_l
xen_l ẫn</w>
vô_s ỉ</w>
tự _thân</w>
tài_ hoa</w>
thủ_ tiêu</w>
thành_ thạo</w>
quyền_ sở_hữu</w>
phân_ nửa</w>
nhân_ ảnh</w>
nhân_ tố</w>
lỗi_ lạc</w>
lạnh_ toát</w>
giải_ mã</w>
d ì
công_ thần</w>
bác_ bỏ</w>
buồn_ nôn</w>
anh_ dũng</w>
a z
_n ương_
_g à</w>
_ hoà</w>
8 1</w>
38 .050</w>
úi_ dụi</w>
x ào_
vô_ vàn</w>
tổng_ đốc</w>
trần_ truồng</w>
tháo_ chạy</w>
ruộng_ đất</w>
quấy_ rối</w>
premier _league</w>
m ờ
la my</w>
k -
gân_ cốt</w>
g b</w>
du_ thuyền</w>
d úi_dụi</w>
cắm_ đầu</w>
cá ng</w>
chính_ nghĩa</w>
bách_ chiến</w>
ba -
a ta</w>
9 x</w>
70 22</w>
6 22.9
622.9 25</w>
30. 202</w>
3.9 77</w>
23 3.977</w>
14 :
ya ma
v ẫy_
trí_ óc</w>
triệu_ vân</w>
tiên_ nữ</w>
thiên_ môn</w>
t y_
r ạ</w>
nhạt_ nhẽo</w>
ngột_ ngạt</w>
n_l ợi</w>
mới_ đầu</w>
mắng_ chửi</w>
lặ n_l
ly nda_
ký_t úc_xá</w>
khối_ u</w>
khí_ phách</w>
k ông</w>
f ri
dù _vậy</w>
cơ va</w>
cơ _sở
ca lo</w>
_l iễu</w>
- 4</w>
đại_ sứ_quán</w>
đan_ nhi</w>
áp_ đặt</w>
tất_ yếu</w>
trọng_ điểm</w>
thất_ lạc</w>
thoạt_ đầu</w>
t w</w>
săn_ bắn</w>
siêu_ mẫu</w>
sa t</w>
quét_ dọn</w>
ng_h ờ</w>
miễn_ là</w>
lặn_l ội</w>
lynda_ trang_đài</w>
kh ứa</w>
hữ ng_hờ</w>
giật_ thót</w>
g ìn_
chị t</w>
biệt_ lặc_
_x ô</w>
15 :
ợ c</w>
điệ p_viên</w>
trá ch_c
thủ _d
thổ n_thức</w>
thần_ phong</w>
thao_ túng</w>
th úi</w>
so fa</w>
rã_r ời</w>
nho_ sinh</w>
ngự_ tiền</w>
nguyễn_tấn_ dũng</w>
n á
một_ cái</w>
lưu_l uyến</w>
liên_ hiệp</w>
linh_ thiêng</w>
in ch</w>
hoá _sinh</w>
gìn_ giữ</w>
gu ardi
công_ sở</w>
chả _trách</w>
chi ca
c. i.
bất_ khả</w>
_r ộ</w>
ảo_th uật</w>
đạ n_
điêu_ khắc</w>
xa_ hoa</w>
vạn_tu ế</w>
v c
tí n_ng
tín_ng ưỡng</w>
tài_ phiệt</w>
trương_ tuyền</w>
tiệ n_lợi</w>
thân_ tín</w>
thành_ tâm</w>
thiên_ chúa_
t ắn</w>
t z
t q</w>
si l
r ò
o -
niệm_ từ</w>
ngứa_ ngáy</w>
m ền</w>
la u_
kiên_ giang</w>
khương_ duy</w>
khiếm_ khuyết</w>
hệ _t
hèn_ hạ</w>
hà _kh
hy und
h ủ
dẫu_ sao</w>
duy _t
dal las</w>
cẩn_ mật</w>
chê _cười</w>
ch ửng</w>
canh_ chừng</w>
200 1</w>
06 /03/2012</w>
đại_ hãn</w>
vô_ lại</w>
tần_ vô_viêm</w>
trầm_ linh</w>
trách_c ứ</w>
thuý_ an</w>
sống_ lưng</w>
sáp_ nhập</w>
spo on</w>
s in
quỷ_ kế</w>
quật_ cường</w>
nghiệ p.
n ùng</w>
m ân_
lâu_l a</w>
kỳ _tài</w>
khổ _luyện</w>
dầu_ mỏ</w>
bàng_ quan</w>
b úi</w>
_đ au</w>
199 7</w>
05 /03/2012</w>
0 16
tám_ hướng</w>
tà _đ
tinh_ nghịch</w>
thù_ địch</w>
thái_ bảo</w>
suy _luận</w>
phương_ tám_hướng</w>
pháp_th uật</w>
o la</w>
ngô_kh ảm</w>
ng ấn</w>
mar ke
khác_ gì</w>
khe n_thưởng</w>
hề _h
hình_ tròn</w>
h ắt_
de l</w>
d ây_th
cổ _truyền</w>
căm_ giận</w>
bốn_ phương_tám_hướng</w>
buộc_ tội</w>
biến_ ảo</w>
b ai</w>
_x á</w>
6 /
5 /2</w>
ực_ cười</w>
đương_ kim</w>
tột_ độ</w>
tả _
tái_ sinh</w>
trông_ cậy</w>
thương_ nhớ</w>
thái_ tông</w>
quảng_ châu</w>
qu ây</w>
photo shop</w>
núi_ rừng</w>
nguy _nan</w>
n ực_cười</w>
mọi_ khi</w>
m eo</w>
l ảng_
khuyên_ can</w>
j i
gia_ phong</w>
g ội</w>
cải_ biến</w>
cây_ cổ_thụ</w>
cn tt</w>
bất_ định</w>
bất_ hoà</w>
b mw</w>
_m ọn</w>
đồng_ tháp</w>
đồ _th
ái_ nữ</w>
á n_ng
vắ ng_lặng</w>
tậ n_tình</w>
trần_ văn_
trú _ngụ</w>
thất_ thần</w>
thạ ch_t
thiên_chúa_ giáo</w>
s ô
reu ters</w>
nhà_tr ắng</w>
ngo ạm</w>
nam_ hải</w>
hoài_ đức</w>
hoa_ lệ</w>
hiệ p_lực</w>
h êt</w>
dĩ _vãng</w>
d ar
chất_ béo</w>
ale x</w>
_v ơ</w>
2019 đáp</w>
đảm_ nhận</w>
đông_ phương</w>
à _khà</w>
y .</w>
vệ _binh</w>
vi_ thần</w>
trấn_ giữ</w>
truyền_ đạt</w>
tiện_ nhân</w>
suy_s ụp</w>
se r</w>
s uối_
robo t</w>
năm_ tuổi</w>
mục_ niệm_từ</w>
lâu_l âu</w>
khám_ nghiệm</w>
ke n_
im f</w>
hàm_ lượng</w>
hiếp_ dâm</w>
có t</w>
chu ỷ</w>
_s ong_
199 8</w>
ắt_ hẳn</w>
ưu_ tú</w>
đế_ quốc</w>
tử_ chiến</w>
tể _tướng</w>
tần_th úc_bảo</w>
tươi_ tắn</w>
tr ượt_
tiến_ quân</w>
ste in</w>
rượu_ vang</w>
ra p
phong_l inh</w>
phiề n_to
phiền_to ái</w>
nhân_ cách</w>
nhà_kh o</w>
nghèo_ khổ</w>
l ánh_
l ar
kẻ _c
hệ _trọng</w>
hoá _
h ích</w>
e f
diệp_ chi</w>
di_ tản</w>
da_ gà</w>
cương_ vị</w>
ch êt</w>
ban_ mai</w>
_c ứng</w>
19 45</w>
đùa_ cợt</w>
tx cơva</w>
treo_ cổ</w>
thứ _sử</w>
thanh_ tịnh</w>
t &
q l
nghi_ ngút</w>
ng_t ình</w>
minh_ chứng</w>
khuynh_ hướng</w>
khoan_th ai</w>
iết_ thủ</w>
hôn_ quân</w>
hoạ ch_
ghi_ bàn</w>
g ăng</w>
diêm_vương_ tôn_giả</w>
cách_l y</w>
cá _voi</w>
chửi_ mắng</w>
anh_ cả</w>
_t ung</w>
/201 6</w>
ứng_ chiến</w>
đổ _máu</w>
đoàn_ văn_
yên_ bình</w>
x iên</w>
vô _thức</w>
tư _liệu</w>
tiểu_ tiên</w>
tiên_ cơ</w>
thị_trường_ chứng_khoán</w>
thăm_ viếng</w>
thì a</w>
t_ lạt</w>
t& t</w>
s ton</w>
phục_ binh</w>
ph ắc</w>
n ịt</w>
màn_ ảnh</w>
ma c</w>
lợ t_lạt</w>
lạc_ lõng</w>
liên_ đoàn</w>
lam_ ngọc_đường</w>
kho_ tàng</w>
danh_ giá</w>
cầu_ khẩn</w>
cam_ đoan</w>
bản_ xứ</w>
_h iền</w>
00 :0
ốt_ đài</w>
vene zu
tiểu_ tốt</w>
tiến_ trình</w>
th o</w>
quá _chừng</w>
quyền_ hạn</w>
phát_ tán</w>
ngũ_đ ài_
ngăn_ kéo</w>
n_t ông</w>
mer y
làm_ thinh</w>
lou is</w>
lo gi
hạ_ cánh</w>
go á</w>
g ặt</w>
co n_đ
bát_ ngát</w>
buồ n_t
5 .
15 /12</w>
đổ _xô</w>
đề _đốc</w>
á n_th
venezu ela</w>
tr ứ
tiềm_ lực</w>
tinh_ hoàn</w>
tinh_ hoa</w>
s ù
phương_ tử</w>
nam_ bắc</w>
mù_ quáng</w>
kề m</w>
hôn_ lễ</w>
huyền_ hoa</w>
giá_ mà</w>
gia_ vị</w>
dã_tốc_ cai</w>
du_ dương</w>
du ệ</w>
dow n
d ấn</w>
d s
cụ _già</w>
cung_ nga</w>
chạy_ đua</w>
cho_ qua</w>
bu ồng_
bi ll
_th ạch</w>
_ch ú</w>
31 /1</w>
ẻ ng</w>
ấm_ cúng</w>
đụng_ độ</w>
đông_ tây</w>
ép_ buộc</w>
xác_ thực</w>
vô _lực</w>
vide o_
tê _dại</w>
trầm_ lặng</w>
thích_ nghi</w>
thuỳ _dung</w>
sh a
seri e_
r ứa</w>
r ăn</w>
nạ p_
no te</w>
ni côn</w>
nhà _g
mai_ táng</w>
lợi_ hanh</w>
lưu_l ạc</w>
li ng</w>
kỹ _thuật_
kiệt_ lực</w>
khẩn_ cầu</w>
hà_th iết_thủ</w>
huýt_ sáo</w>
hi u_
h út_
chính_ trị
c ấn</w>
bán_ hoa</w>
b ông_
ai_ oán</w>
_ nhất</w>
8 7</w>
đoàn_t ụ</w>
áo_ giáp</w>
xi t</w>
tường_ thuật</w>
tiếp_t ay</w>
thổ _dân</w>
thỏ _th
thỏ_th ẻ</w>
t m
sành_ điệu</w>
sp or
nở _rộ</w>
nguyễn_ xuân_
ngoại_ tình</w>
m p</w>
lý_tự _thành</w>
l ley</w>
hoá _đơn</w>
h ứ</w>
diêu_ hưng</w>
d úi</w>
d _b
cấp_t ốc</w>
cô_t ô</w>
cha_ anh</w>
bao_ cao_su</w>
_b à
5 00,000</w>
1 10</w>
vô _vị</w>
tô _khôn</w>
th an
t ưng</w>
t òng</w>
qua_ loa</w>
phế_ bỏ</w>
mậu_ công</w>
mất_ hồn</w>
m ỏ
linh_ thứ
l iệu_
il l</w>
hứa_khai_ sơn</w>
hàm_ ý</w>
ch_ động</w>
cao_ ngất</w>
c ạch</w>
c i</w>
biến_ dạng</w>
ban_ chấp_hành</w>
an tôn</w>
_l ưu</w>
9 2</w>
ớ c</w>
động_ mạch</w>
định_ kỳ</w>
đô la</w>
đoàn_ viên</w>
đa_ nghi</w>
ăn_ học</w>
zi o</w>
thuý _nga</w>
t ày_
si on</w>
quý _m
phút_ giây</w>
nhà_ ăn</w>
nguyễ n_l
nghèo_ khó</w>
n_đ ất</w>
mờ _nhạt</w>
mery l_stre
me ga
mar gar
lầm_ bầm</w>
lương_ đô</w>
lh q</w>
kiểm_ lâm</w>
khinh_ miệt</w>
ken ne
hạ_l ưu</w>
hà _thành</w>
hoàng_ anh</w>
gh ìm</w>
e _sợ</w>
cực_ đoan</w>
côn_ sơn</w>
cô _hầu</w>
cá m</w>
chiến_ sỹ</w>
ch_l ạc</w>
_l ai</w>
9 6</w>
00 0,000</w>
ạt_ nhân</w>
đánh_ phá</w>
đàm_ vĩnh_hưng</w>
đa n_thần</w>
x ó</w>
vãn_ hồi</w>
vnthu quan</w>
v ay_
uni ver
từ _liêm</w>
tống_ thanh_thư</w>
trông_ chờ</w>
truy _tố</w>
tiêu_ hao</w>
thuỷ_ tiên</w>
sóc_ trăng</w>
quy êt</w>
quan_ âm</w>
phá _
nh ạ</w>
người_ máy</w>
meryl_stre ep</w>
kỷ _thiến</w>
kỳ _phi</w>
kỳ _công</w>
k ịt</w>
k .</w>
hoàng_l iên</w>
giả_th iết</w>
d ậu</w>
d ra
co lo
chưa_ biết_chừng</w>
can_ ngăn</w>
bộ_ óc</w>
biệt_lặc_ cổ
đinh_ nhất_
vương_huyền_ ứng</w>
tưở i</w>
trẻ _n
trẻ_n ít</w>
thanh_ nguyên</w>
ph ăng_
nhỏ _mọn</w>
nguỵ _mâu</w>
nghiễm_ nhiên</w>
n er
mày_ râu</w>
hợp_đáp_ an</w>
họ c
ho anh</w>
giáo_ sĩ</w>
diễm_ lệ</w>
cu p</w>
chuyên_ trang</w>
cho ảng</w>
/201 4</w>
ổ ng_
đối_ kháng</w>
đại_ cục</w>
đè _b
đè_b ẹp</w>
đàm_ luận</w>
đe o_
đe n_đ
vô_ cảm</w>
trắng_ muốt</w>
ra oul</w>
phổ _côn</w>
ph anh_
nhậm_ chức</w>
nguyễn_th anh_
lý_h ốt_đài</w>
la d
er o
_b út</w>
đầy_ ắp</w>
đoàn_th ể</w>
è re</w>
xe_l ửa</w>
vỡ_l ẽ</w>
tử_ xuân</w>
tử _thương</w>
tồn_ vong</w>
tuỳ _
tiểu_ trúc_phong</w>
tiên_ đoán</w>
thầm_ thì</w>
th án</w>
quốc_ sư</w>
ngũ_đài_ sơn</w>
nguyễn_ ngọc_
nguyên_ đán</w>
n ỉ</w>
ma ssa
m ễ</w>
khởi_ nghiệp</w>
khó m</w>
khiết_ đan</w>
khinh_ khi</w>
hoạt_ bát</w>
chiến_ tranh_
chiế t_
_đ ời</w>
_h èn</w>
24 /12</w>
/0 3</w>
óng_ ánh</w>
ám_ hại</w>
v ưu_
uất_ ức</w>
trợ _thủ</w>
truy ền_t
thanh_ thiếu_niên</w>
rober t</w>
núi_ lửa</w>
niên_ kỷ</w>
nh ung_
máy_t ính_
lý_th ú</w>
l la
ku na
khổ _đau</w>
k iềm</w>
hộ p_
hol ly
giai_ điệu</w>
gi ữa_
cảm_ phục</w>
chung_ thân</w>
chu_ đan_thần</w>
bu ff
b ôn_
_th ải</w>
đỏ _ho
vạn_ khuê</w>
vương_ bá</w>
vũ _công</w>
tường_ vi</w>
tư _lệnh</w>
trong_ trắng</w>
thương_ nhân</w>
tháng_ ngày</w>
th ước_
nhân_ sĩ</w>
ngây_ ngô</w>
mar k_
khí ch_động</w>
k re
j an</w>
iế p_
hư_tr uyền</w>
hoàn_nhan_ khang</w>
di_ cư</w>
danh_ bất_
danh_bất_ hư_truyền</w>
cực_ nhọc</w>
bó c_
bê _tông</w>
b on
as sa
am ster
_h ạng</w>
2 /2</w>
ư_ ký</w>
đổi_ thay</w>
đê _hèn</w>
đào_ hoa_tiên</w>
đà _lôi</w>
áp_ chế</w>
yêu_ ma</w>
uyên_ ương</w>
tổng_th ư_ký</w>
tơi_ bời</w>
tt y</w>
tiếp_ viện</w>
thông_ suốt</w>
thuỷ _sư</w>
t su
sâu_ đậm</w>
phệ _huyết_
nước_ tiểu</w>
ng_l ệ</w>
m ịt</w>
lễ _
lắp_ đặt</w>
lần_ mò</w>
lê _đình</w>
la _thành</w>
hồng_ liên</w>
hận_th iên_
huyền_ trinh</w>
gia ve</w>
cực_ kì</w>
cứng_ cỏi</w>
công_nghệ _cao</w>
ch iện</w>
xi co</w>
u_ cợt</w>
tiểu_ linh</w>
thợ _rèn</w>
thẳng_ tay</w>
sơ _tán</w>
ro om</w>
nốt_ ruồi</w>
nhỏ _hẹp</w>
lật_ tẩy</w>
lầm_ lẫn</w>
kỳ _hạn</w>
hận_thiên_ nữ</w>
hình_ vẽ</w>
hoa_ văn</w>
giễ u_cợt</w>
giả _dạng</w>
fran cis
chối_ cãi</w>
bảo_ hiểm_
_l ỗ
ằ ng_th
đối_ ngoại</w>
á .</w>
xa vi</w>
vô _sinh</w>
thở_d ốc</w>
thổ _nhĩ
t òng_
súng_l ục</w>
s ạt_
quá _lời</w>
ngôn_ như_băng</w>
mộ _bình</w>
lịnh_ chấn_kỳ</w>
lưu_ chuyển</w>
lâm_ trận</w>
kỳ_ anh</w>
khánh_ thành</w>
khiếm_ thị</w>
i la</w>
hổ _phách</w>
hồ _ly</w>
họ c.
dị _dạng</w>
cảm_ thông</w>
chần_ chờ</w>
châm_ chọc</w>
c ộp</w>
/201 3</w>
độc_ địa</w>
đ ới_
vũ _lực</w>
viet tel</w>
tái_ tạo</w>
trung_ thu</w>
tiền_ sử</w>
tiêu_l iệt_
thụ _th
thượng_ lưu</w>
thí _điểm</w>
thâm_ độc</w>
th ò
teh ran</w>
sinh_ lý</w>
ri e</w>
quái_ gở</w>
phát_ sóng</w>
ph er
ná cđiê</w>
na to</w>
mê _cung</w>
mã _s
miên_ man</w>
lê _v
làm_ ngơ</w>
lan_ hoa_
i d
hoả_ tiễn</w>
hoàn_ xỉ</w>
cách_ mạng_
cá p_
co_ rúm</w>
ar a
_x át</w>
_n ã</w>
_c a</w>
ấn_ định</w>
địa_ chấn</w>
đá o_
x ép</w>
vũ _v
v- league</w>
tỉ _thí</w>
triều_ dương</w>
tiêu_liệt_ vũ</w>
thảm_ sát</w>
ph ớt_
nhộn_ nhạo</w>
n ức</w>
mãnh_ thú</w>
mai_ sơn</w>
m_c ồm</w>
lồ m_cồm</w>
lĩnh_ nam</w>
la_ ó</w>
l ồi</w>
kiề u_linh</w>
hà_thái_ xung</w>
hu ê</w>
hoa_ khôi</w>
h e</w>
g ăp</w>
cu- ba</w>
chủ ng_
cas ino</w>
caf é</w>
bảo_th ủ</w>
bả ng_
_t ả</w>
đường_ cao_tốc</w>
đo ản</w>
ân_ lê_đình</w>
x ấp_
vỗ _ng
vỗ_ng ực</w>
võ_ quan</w>
tri ck</w>
thành_ ý</w>
te d</w>
quảng_ đại</w>
qu ôc</w>
oanh_ tạc</w>
nhân_ hậu</w>
nh uố
n_đ ơn</w>
mong_ chờ</w>
l ẹ
l .</w>
k ong</w>
iế n_
học_ sĩ</w>
huyền_th ứ</w>
h ùa</w>
fes ti
eu ro
ed ward</w>
chu_ văn_
chica go</w>
che ng</w>
bồ _đề</w>
b ỉ_
_đ ứng</w>
đ úp</w>
đ b
ô m_ch
xã_hội_ chủ_nghĩa</w>
xoa_ dịu</w>
x ả
x âm</w>
v ông</w>
tương_ kiến</w>
tính_ chuyện</w>
trí_ quang</w>
toạ _lạc</w>
tiết_ thần_y</w>
tiếp_ diễn</w>
thưa_th ớt</w>
thô_ bạo</w>
tam_ đại</w>
ta li
s ằng_
phúc_ lợi</w>
nặng_tr ĩu</w>
nói_ xấu</w>
nh nn</w>
ngọc_ thành</w>
làm_ thịt</w>
le ng_
kim_ ngân</w>
ja c
hội_ viên</w>
gặ m</w>
g ắm</w>
d ế</w>
cố_ch ấp</w>
côn_ lôn</w>
c ty</w>
07 :
độc_ dược</w>
xấp_ xỉ</w>
xương_ văn</w>
vu_ yêu</w>
vil le</w>
v ẹ
thiên_ nga</w>
thi_ đua</w>
so u
sang_ sảng</w>
phúc_ kiến</w>
làm_ thuê</w>
leng_ keng</w>
le x</w>
l z
kha_ trấn</w>
hào_ phóng</w>
hung_ tợn</w>
hiểm_ ác</w>
gol f</w>
g án</w>
em ma</w>
e is
công_ giáo</w>
chính_ tâm</w>
ch ày</w>
bệnh_ lý</w>
bành_ liên_
ban_ công</w>
_x ì</w>
7 /12</w>
201 6</w>
/0 8/2011</w>
đường_ sá</w>
xê- va</w>
tẩu_ thoát</w>
tú p</w>
thượng_ đỉnh</w>
suy _xét</w>
so ạ
râu_ ria</w>
phệ_huyết_ châu</w>
phần_ phật</w>
p t
o è</w>
nhường_ nhịn</w>
nhà_g a</w>
nguyên_ lý</w>
n_l ong</w>
lo anh_
loanh_ quanh</w>
lang_ quân</w>
la ur
kính_ bentley</w>
kí ch_c
khẩn_ yếu</w>
k ênh_
hô_h ố</w>
giằng_ co</w>
giả_t ạo</w>
gia_ tài</w>
g li
du_ đại_nham</w>
down load</w>
ché n_thánh</w>
bực_ dọc</w>
bỉ_ ổi</w>
bán_ chạy</w>
biên_ soạn</w>
ử ng_
đại_ thắng</w>
đại_ bại</w>
v p</w>
tương_ đồng</w>
tô m_
tuổi_ thọ</w>
trá ng_lệ</w>
trào_ lưu</w>
truật_ xích</w>
tiến_ hoá</w>
thổ_nhĩ _kỳ</w>
sản_ sinh</w>
quá_ ư</w>
qua n_th
qu ấn_
phé p_t
nỗi_ niềm</w>
nhuệ _khí</w>
n án</w>
n v
n iêm</w>
mã_ cát</w>
mar k</w>
m ơn_
lãng_ tử</w>
lung_ lay</w>
hội_ tụ</w>
hư _
hơi_ nước</w>
hà ng_h
giáo_ dục_
giám_ mã</w>
ghi_ âm</w>
g ác_
d ãi</w>
chất_ phác</w>
chiế c_
bướ u</w>
bú n</w>
b ươc</w>
an e</w>
_kh ôi</w>
_b ộc</w>
8 ,
ỵ u</w>
ở _bà
ở_bà n_tay</w>
ống_ nghe</w>
ần_ quân</w>
đỏ_ho e</w>
đ ung_
đung_ đưa</w>
xi_ măng</w>
v ênh</w>
v ât</w>
tỉ a</w>
tàu_ chiến</w>
trục_ xuất</w>
tr à_
to sh</w>
so ẹt</w>
sai_ trái</w>
nước_ lớn</w>
nó ng_h
nhậm_ tuấn</w>
như_tr ở_bàn_tay</w>
nan_ giải</w>
n_to án</w>
n iềm_
m b</w>
long_ trọng</w>
lo s_
khôi_ ngô</w>
hỗn_ độn</w>
hào_ hiệp</w>
hoạt_ hình</w>
dấu_ tích</w>
dại_ dột</w>
dây_ xích</w>
di_ chúc</w>
da s
d l</w>
co ng_
chức_ danh</w>
chơi_ bời</w>
_tr ẻ</w>
đảm_ đương</w>
đào_ cốc</w>
đo ạ
xung_ phong</w>
v ề
từ _trường</w>
tr ồ</w>
tr ối</w>
tr ù_
ti n
thực_ đơn</w>
thượng_ du</w>
thiếu_ hụt</w>
soạ n_thảo</w>
phụ t</w>
nô _bộc</w>
nóng_h ổi</w>
nhân_ các</w>
nhà _băng</w>
ngón_ trỏ</w>
ngh ịu</w>
n ản_
mây_ mù</w>
dã _
dân_ tộc_
d ẫy</w>
bối_ hải_
bạc_ phơ</w>
b .
_b ẩn</w>
27 .
201 4</w>
ồn_ một</w>
x iêu</w>
u p
tập_ quán</w>
tá n_đồng</w>
tiếp_ kiến</w>
thp t.
t ò
sổ _sách</w>
phan_ ma_lôi</w>
pa z
nội_ trú</w>
nh úng</w>
ngô _h
men t</w>
ma _thường</w>
m ồn_một</w>
khu ỵu</w>
khiếp_ đảm</w>
kan o_
hàm_ hồ</w>
gd đh</w>
d ìa</w>
căm_ tức</w>
công_ dã_c
có _hạn</w>
c r
bảo_ tượng</w>
bel lamy</w>
ba_ đình</w>
_đ ình_
_v ía</w>
16 /12</w>
đấu_ giá</w>
đông_ cung</w>
đ ắng_
x ế_
wi ki
tống_ kim_cương</w>
trong_ lành</w>
trang_ thiết_bị</w>
tr óc_
toàn_ quyền</w>
thương_ tổn</w>
t ờ
su v</w>
phải_ chi</w>
nội_ thành</w>
nh áp</w>
nh àng</w>
ngại_ hổ</w>
ng u_d
khôn_ khéo</w>
hà ng_hải</w>
giám_ định</w>
gd p</w>
do nal
chết_ thật</w>
bước_ đường</w>
_th ập_
_ch uẩn</w>
ứng_ cử
đại_ biến</w>
ân_ ái</w>
vương_ quốc_anh</w>
vù i_
tiền_ vệ</w>
thủ _th
thánh_ giá</w>
thái_ hư</w>
thiết_ tâm</w>
s ớ</w>
rung_ rinh</w>
nhà _phân_
ngo èo</w>
ma il
lo ang</w>
kh ứ</w>
dáng_ dấp</w>
diễ u_
chủ_nghĩa_ xã_hội</w>
bối_hải_ thạch</w>
bu a</w>
ar t</w>
ậ u_l
ươ n_
x ước</w>
vi_ nhất_tiếu</w>
triều_ chính</w>
sa_s út</w>
s ữa_
nhập_ môn</w>
ngang_ dọc</w>
ng_h ậu</w>
mộ_dung_ bảo</w>
mị n_màng</w>
máu_ me</w>
m ận</w>
kỳ _binh</w>
khoái_ chí</w>
hoàn_ kiếm</w>
ho t
hiện_ hành</w>
goet z
giãy_ giụa</w>
giác_ ngộ</w>
g ọt</w>
falko_ goetz
ei le
cung_ đình</w>
ca val
_t ục</w>
_t iết</w>
_b ar
/201 5</w>
ưu_ ái</w>
zu cker
x ạc</w>
trợ _lực</w>
thất_ thường</w>
sto n_
r ần</w>
phản_ xạ</w>
ph ệt</w>
paz ini</w>
p_h òi</w>
nóng_ nẩy</w>
nghe _ra</w>
ngao_ nguỵ_mâu</w>
mạ ch
kiế ng</w>
khu ấy</w>
joh nson</w>
in tosh</w>
hệ_t ccn</w>
hẹ p_hòi</w>
dương_ thiết_tâm</w>
danh_ mục</w>
cả _gan</w>
chớp_ chớp</w>
chòng_ chọc</w>
c ũi</w>
8 6</w>
đỏ _l
đầu_ độc</w>
xô _đ
xô_đ ẩy</w>
xa_ rời</w>
v ót</w>
tối_ ưu</w>
tâng_ bốc</w>
tuyết_ như</w>
sẵ n_lòng</w>
qu ai</w>
phe _ph
nh -
m ía</w>
m m</w>
m iết</w>
li ve
ký_ giả</w>
kiế t</w>
in i
hà _bắc</w>
hiệu_ ứng</w>
gia_ truyền</w>
fi eld</w>
cầm_ thú</w>
chồng_ con</w>
bộ _luật</w>
bất_ phụ</w>
an s</w>
_m á</w>
9 00</w>
. com</w>
ứng_cử _viên</w>
ượng_ nhân</w>
đại_ chúng</w>
đ ât</w>
ăn_n ăn</w>
vú_ già</w>
thần_ lực</w>
sỉ _nhục</w>
so i_
s ắt_
r ơ
phì _thuỷ</w>
phe_ph ẩy</w>
n_đ iệu</w>
mạo_ danh</w>
m ăc</w>
lẽ _
la go
l uống</w>
hỗn_ chiến</w>
hyund ai</w>
hu ý</w>
giải_ trừ</w>
gi ũ</w>
ch ế
c đv</w>
bất_ hiếu</w>
_đông_ dương</w>
_s oạn</w>
5 /
16 :
đao_ phủ</w>
đ ung</w>
yên_ yên</w>
ví ch-
tích_t ụ</w>
trườ ng.
trâu_ diễn</w>
thợ _
st le</w>
scu lley</w>
olympi c_
n_t ội</w>
mẫn_ quân</w>
mai_ phương_
mac intosh</w>
hội_ an</w>
hết_ hồn</w>
e va</w>
dô ia</w>
d y
cường_ đạo</w>
chỗ _đứng</w>
caval li</w>
bụi_ bặm</w>
bất_ nghĩa</w>
bách _bệnh</w>
ar thu
_s ói</w>
3 g</w>
200 2</w>
đông_ y</w>
đâu_ vào_
zucker berg</w>
vừa_ vặn</w>
v ít</w>
tuyên_ ngôn</w>
thấp_th ỏm</w>
sáng_ quắc</w>
su ông</w>
quỷ _thần</w>
quán_ anh</w>
ph ần_tử</w>
ng_h ọng</w>
ng ừng_
n á</w>
linh_ tính</w>
kiểm_ sát</w>
khoai_ tây</w>
k êt</w>
k m
hu n
dưỡ ng_thương</w>
dương_văn_ can</w>
cộ ng_tác</w>
công_t ôn</w>
công_ thác</w>
chiếc_ bóng</w>
bec kham_
đạo_ cô</w>
xuống_ cấp</w>
xuân_ vũ</w>
w eng
v đv</w>
tô _chỉ_
tô_chỉ_ quỳnh</w>
tây_ nguyên</w>
tàn_t ật</w>
trầm_ trồ</w>
sơ_ bát</w>
ráo_ riết</w>
r ông</w>
quản_ lý_
qu ở
ni_ huệ_huy</w>
nhất_ thống</w>
muôn_ vàn</w>
le o_
kiế n_t
ki ns</w>
giữa_ chừng</w>
gia_ cát</w>
g ang</w>
das wood</w>
công_ sơn</w>
chặ n_đ
ba_ quân</w>
78 79</w>
ờ m</w>
đại_ đa_số</w>
vương_ tố_thư</w>
v ừng</w>
v iê
u_ minh</w>
tích_t ắc</w>
tu ất</w>
trắng_ trẻo</w>
trung_ thần</w>
thậ p_t
th ấy_
sạt_ lở</w>
phụ _vương</w>
nhạc_ phụ</w>
nhân_ thế</w>
nhuố m</w>
ngụ _ý</w>
ngô_bảo_ châu</w>
news _v
muô n_đời</w>
mon t
m ình_
m g</w>
lê _hồng_
kỳ _lân</w>
khoa_học_ gia</w>
k iệ
iel ts</w>
hư _danh</w>
hoàng_ sa</w>
gan_ dạ</w>
cát_ nhĩ
càn_ rỡ</w>
chặn_đ ứng</w>
châm_ biếm</w>
ch ứt</w>
bầu_ dục</w>
_l oi</w>
7 /2012</w>
đánh_ đuổi</w>
đinh_ bội</w>
xích_m ích</w>
xà _phòng</w>
xu ôi_
x ạo</w>
vân_trung_ hạc</w>
vi sa</w>
tình_ ái</w>
triệu_ hồi</w>
tr ơi</w>
thường_ niên</w>
th ỏi</w>
quyền_ quý</w>
nà i_
nhảy_ dựng</w>
nguyễn_ minh_
nghĩa_ địa</w>
nam_ dương</w>
lỡ _lời</w>
kéo_ lại</w>
khu ấy_
i ng
hoan_ hỷ</w>
el li
cơ _biệt</w>
c ỡi</w>
bào_ chữa</w>
biên_ bất_phụ</w>
ằn_ ngoèo</w>
ần_đ ông</w>
đơn_ hoành_
đèn_ pin</w>
xa_x ỉ</w>
x ú
x ù</w>
vũ_kh í
tài_ tình</w>
trọng_ viễn</w>
trác_ linh</w>
trong_ vắt</w>
thâm_ mạt_
thâm_mạt_ hoàn</w>
thái_ uý</w>
sằng_ sặc</w>
sai f</w>
rá ch_
ri ck</w>
qu ẹt</w>
phục_ sinh</w>
ph ần_đông</w>
ph ình</w>
năng_ suất</w>
ngạ n_
ngo ằn_ngoèo</w>
me xico</w>
lẽ_ phải</w>
khoan_ dung</w>
jong- un</w>
hồ _nghi</w>
hậu_ vệ</w>
hoàn_ vũ</w>
hoa_thiết_ cán</w>
guardi ola</w>
galaxy_ note</w>
cl ar
_lo ại</w>
_l ong_
định_ bụng</w>
đơn_hoành_ chương</w>
x iêm_
vân_ nhi</w>
tậ n_tay</w>
tiểu_ long</w>
thành_ công_lực</w>
sáng_ trưng</w>
str ess</w>
quảng_ bá</w>
nh út_
ngồi_ phệt</w>
nguy _hại</w>
ng ơi</w>
nad u</w>
n ẻ</w>
mềm_ lòng</w>
lợ p</w>
lên_ giọng</w>
l ượ
kh ơi_
ke ang
hu ơ</w>
ghế_ bành</w>
g ảy</w>
g ay</w>
den ko</w>
công_ danh</w>
chán_ng án</w>
bạch_m i_
beckham_ benfica</w>
_t ai</w>
_b ề</w>
_ quyền</w>
_ hoá</w>
đại_ đường</w>
đưa_ đón</w>
xúc_ cảm</w>
xích_ phát_
xe _tăng</w>
x ơi</w>
tống_ viễn_kiều</w>
tông_ kiệt</w>
tr ặc</w>
tiền_ đại_
tiêu_ tông_kiệt</w>
thị _trưởng</w>
thiên_ ma</w>
r ợp</w>
nhút_ nhát</w>
nhà _c
nhi_ xích</w>
nguyên_ lai</w>
ngh inh_
napo li</w>
n úng</w>
mật_ vụ</w>
mo sco
lu lz
khả o_th
is h</w>
học_ thuật</w>
hoa_thiết_ can</w>
cấu_ tạo</w>
cường_ độ</w>
cung_ cách</w>
cs đt</w>
chỗ _
_s inh_
_ph ương_
_c ây</w>
9 /2011</w>
ướt_ sũng</w>
xích_phát_ đại_ma</w>
weng er</w>
và nh_
u e
tứ_ đại_
tà _ma</w>
trắng_ tinh</w>
ti c</w>
t em</w>
sự _thể</w>
sản_ lượng</w>
song_ toàn</w>
quỹ _đạo</w>
phật_ tử</w>
phản_ bác</w>
phát_ âm</w>
ngày_ sinh</w>
ng ọn_
ng ả
mê _tín</w>
ma_ kiếm</w>
m õ</w>
lồng_ lộng</w>
lẻ _loi</w>
lãng_ quên</w>
làm_ gương</w>
ký_t ên</w>
khoáng_ sản</w>
jack son</w>
huân_ chương</w>
hoạ _đồ</w>
hoàng_th iên</w>
gh ềnh</w>
d ai_
ch ô</w>
b ít</w>
_ph i_
25 /12</w>
23 /1</w>
đen_ kịt</w>
đ en
uyển_ phụng</w>
uy_ nghi</w>
tần_ chung</w>
to a
ti ne
thần_ long</w>
thâm_ sâu</w>
ter ry</w>
ta_ na</w>
sư _đoàn</w>
sân_ cỏ</w>
rộng_ mở</w>
n v</w>
máy_ vi_tính</w>
lắm_ chuyện</w>
ku nadu</w>
khuy ển</w>
hỗn_ hợp</w>
hẳn_ hoi</w>
hôi_ thối</w>
d ầu_l
cãi_ vã</w>
chó _đẻ</w>
chi u</w>
ch ầu_
cao_ vút</w>
c.i. a.</w>
be cks</w>
an_ lạc</w>
aa cute</w>
định_ kiến</w>
đại_ nạn</w>
đà _phật</w>
đi_ đứng</w>
ă n_tho
ân_ thụ</w>
vé _số</w>
tt er
trường_ thành</w>
thống_ soái</w>
thâm_ tình</w>
t en</w>
sinh_ tồn</w>
pháo_ hoa</w>
ph ẳ
ph il
nhãn_ hiệu</w>
ng âm_
n_l ấn</w>
m t</w>
lệ _phí</w>
lười_ biếng</w>
l ửa_
kề m_chế</w>
kim_ nguyên_
hồng_ kông</w>
gi ẻ</w>
g ừng</w>
dã _h
cổ _nhân</w>
có_ một_
chấp_ pháp</w>
av g</w>
_đ iệu</w>
_l u
4 s</w>
đo án_
đ ĩ
ác_ quỷ</w>
xe _đ
vi- rút</w>
v ầy</w>
trơ_tr ọi</w>
trác_ tuyệt</w>
tr iền_
thần_ chú</w>
thông_ tri</w>
thu ần_tu
sao_ chép</w>
q -
phước_ oai</w>
phăng_ phắc</w>
nõ n</w>
ngô_thị _diễn</w>
mưu_ trí</w>
mobi fone</w>
lặng_ im</w>
lo áng_
l ựu_
kề _cận</w>
kính_ đức</w>
khởi_ sự</w>
không_ hai</w>
giáo_ lý</w>
eri cu
diễm_ nữ</w>
cỏ _cây</w>
căm_ phẫn</w>
có_một_ không_hai</w>
che n_lấn</w>
ch ằng_
c ật_
bla ck
biết_ chừng_
b ứt</w>
b ợ</w>
an_t áng</w>
_ph ỏng</w>
46 8.000</w>
16 5
ớ _
ườ m_
ư _sinh</w>
đầu_ cơ</w>
ăn_tho ắt</w>
ô_t ục</w>
vương_ hoằng</w>
vân_ anh</w>
vo l
v ã
tứ _tung</w>
trần_ lão_
trương_ khang_
trú _ẩn</w>
trung_ nghĩa</w>
tho ăn_thoắt</w>
th ô_tục</w>
t òi</w>
quy_t ân_thụ</w>
phòng_ khám</w>
nể _nang</w>
nhỏ _
nhã _nh
ngọc_thanh_ điện</w>
ng_t ây</w>
ng ai_
n ong</w>
lãnh_huyết_ diễm_nữ</w>
lo ng_h
kể _l
khảo_th í</w>
khoát_ nhi_xích</w>
hư ng_th
huấn_ luyện_
d ửng_
d ăm</w>
d â
cực_ độ</w>
cần_ ta</w>
bảo_ trợ</w>
biết_chừng_ nào</w>
ba_ lê</w>
b ể
_d ưỡng</w>
199 4</w>
199 2</w>
ực_ tiên</w>
ốm_ yếu</w>
yêu_ quái</w>
xo an</w>
x uố
ver oni
tà_đ ế_
trần_lão_ mưu</w>
trí ch_d
thuần_tu ý</w>
thi_ thố</w>
thanh_ lương</w>
r ìu</w>
r ìa</w>
qu ế_t
o_th ủ</w>
o l
nh ăm</w>
n_đ iền</w>
làm_ tròn</w>
la _th
kể_l ể</w>
khoả n_đãi</w>
i sa
hấp_h ối</w>
hoàn_ mỹ</w>
ericu zio</w>
ch ùn</w>
car oli
biệt_ hiệu</w>
au di</w>
_v ang</w>
9 0%</w>
12 :
địa_ đồ</w>
đại_ thụ</w>
đào_th ực_tiên</w>
áo_ lót</w>
v ọ
tương_ phản</w>
tâm_ niệm</w>
tuần_ phủ</w>
tuyệt_ mỹ</w>
tru_ tiên_
to tte
tiền_ sảnh</w>
thánh_ hoả</w>
tho ng_d
thong_d ong</w>
thiên_ long</w>
t c_
se nga</w>
s chi
r ỉ
phùng_ chân</w>
phê _chuẩn</w>
pháp_th ụ</w>
nước_ sạch</w>
nhấn_ chìm</w>
nhà _riêng</w>
m ỳ</w>
m ìn</w>
lẩn_ trốn</w>
lulz sec</w>
lu e
học_ lực</w>
e ver
dĩ a</w>
dính_ dáng</w>
du ẫ
di e</w>
cửa_ miệng</w>
cát_nhĩ _đ
c ằn_
bảo_ an</w>
bạch _mai</w>
17 /12</w>
06 6</w>
ễ n_
ấp_ ủ</w>
ưu_ tư</w>
đinh_nhất_ bạch</w>
vu ông_
vang_ lừng</w>
tận_ trung</w>
tạo_ dựng</w>
tiệ p</w>
th ửa</w>
sơ_s ài</w>
s ầm_
quý _ly</w>
phản_ loạn</w>
p i</w>
oli ve
nương_ tay</w>
n òng</w>
mộ ng_hồ</w>
mobi le</w>
lắp_ ráp</w>
lâm_ phùng_chân</w>
linh_ lung_
kì _d
hạ_ quân_bình</w>
hi_ di</w>
gián_đ oạn</w>
gian_ hàng</w>
g am</w>
der ek</w>
cao_ tuổi</w>
ca u_
c ra
êm_ dịu</w>
z ni
y_ bạ</w>
u_ buồn</w>
tà_đế_ xá_lợi</w>
tuyên_ dương</w>
trương_khang_ niên</w>
te le
t ấn_t
sà i
so lomon</w>
se i
ro se
qui_ định</w>
phương_ anh</w>
nội_ ngoại</w>
nặng_ nhọc</w>
nên_ chăng</w>
nhi_ khất</w>
ngô n_từ</w>
na sa</w>
mosco w</w>
micha el</w>
lầm_ lỗi</w>
lơ _là</w>
loáng_ thoáng</w>
la di
khuy ển_
kho ải</w>
huyết_ khí</w>
hiểm_ nguy</w>
h ơ</w>
d ằng</w>
chu_ xán</w>
cau_ có</w>
_thiên_ nhân_viên</w>
3 .000</w>
05 2019</w>
ề u</w>
xiề ng</w>
x uyên_
veroni ka</w>
v ét</w>
tự _trọng</w>
tôn_ huynh</w>
trận_ địa</w>
triền_ miên</w>
tiệ p_
tiểu_ đoàn</w>
thế_ sự</w>
thuyền_ buồm</w>
rap tor</w>
r ơi_
quý _h
phan_ long</w>
paris _
nuốt_ chửng</w>
ng_h ùng</w>
na tion
mạ n_
mưu_ sinh</w>
mer s</w>
lũng_ đoạn</w>
linh_ nghiệm</w>
l ằn</w>
kẽ m</w>
khuyến_ mại</w>
huấn_luyện_ viên</w>
giám_ đốc_
dửng_ dưng</w>
dây_ cót</w>
diệt_ vong</w>
d ể</w>
cười_ ồ</w>
căn_ cơ</w>
cuống_ cuồng</w>
can_ dự</w>
bậ y_bạ</w>
bất_ nhẫn</w>
bùi_ ngùi</w>
bà _tử</w>
biệt_ danh</w>
_v i_
_l ộc</w>
_ kim_
30 0,000</w>
đột_ quỵ</w>
ôm_ ấp</w>
wo zni
vạn_ hương</w>
trường_ phong</w>
trích_d ẫn</w>
toà _soạn</w>
thầy_ lang</w>
tc_ news</w>
ta in
r ịt</w>
qu è</w>
phương_ hồng_
ngượng_ nghịu</w>
m ửa</w>
lê nh_
l đ</w>
kuna đu</w>
hồng_ tử_xuân</w>
cực_ khổ</w>
chế_ nhạo</w>
chí _tôn</w>
bí ch_t
bran don</w>
b er</w>
/ 4
xế_ chiều</w>
vân_ cửu_long</w>
v ụng</w>
tửu_ điếm</w>
trụ _c
thích_ ứng</w>
thanh_ lịch</w>
te _
su zu
r ạn_
quản_lý_ nhà_nước</w>
quan_t ây</w>
news_v tc_news</w>
n ế
miệt_ mài</w>
miễn_ dịch</w>
m ổ
lago denko</w>
kìm_ nén</w>
khởi_ binh</w>
kh ít</w>
jo se
hoảng_ công_thác</w>
hiểm_ yếu</w>
dâm_ ô</w>
cổ _thiên_nhân_viên</w>
câu_ đối</w>
chuẩn_ mực</w>
ch ội</w>
c ụp</w>
_đ iền</w>
_h è</w>
8 %</w>
5 0
vân_ thiên</w>
tây_ hồ</w>
trụ_c ột</w>
trương_ tam</w>
truy _cứu</w>
tiêu_ đề</w>
ro yce</w>
phu_ thê</w>
nóng_ bức</w>
nha_ a</w>
nghỉ _hè</w>
một_ phép</w>
lựu_ đạn</w>
lộc_ đan_nhi</w>
li ga</w>
l li
kết_ tội</w>
hồng_ anh</w>
hướng_ vân_thiên</w>
h ẫng</w>
g đ</w>
g ô</w>
d ay_
cổ _m
cấp_ uỷ</w>
cõi_ lòng</w>
b ẹp</w>
_h ạ
199 9</w>
19 80</w>
10 /12</w>
ễ nh</w>
vô_t uyến</w>
tả_ pháp_thụ</w>
trần_ đại_dũng</w>
toa n_tính</w>
to_ béo</w>
to ét</w>
sứ_ mạng</w>
sáng_ loáng</w>
phương_ kỳ</w>
nếu_ mà</w>
nguỵ _trưng</w>
nguyễn_ quang_
ng_h ình</w>
ng óc</w>
khôn_ cùng</w>
kh ờ</w>
k er
hạ _sơn</w>
hùng_ hồn</w>
giang_hải_ lưu</w>
gh t</w>
col le
chỉnh_ sửa</w>
bất_ kính</w>
bà_ cô</w>
bi_ ai</w>
bernabe u_
amster dam</w>
27. 066</w>
1 19
ức_ trách</w>
độc_ thần</w>
đồng_ hương</w>
đường_ kính</w>
ích_l ương</w>
x ẻng</w>
video_ putin</w>
tuần_ hoàn</w>
thư _lại</w>
s ắng</w>
quế_t ích_lương</w>
quái_ đản</w>
quan_ ải</w>
phủ _đệ</w>
phong_th anh</w>
nạp_ nha_a</w>
nhân_ tiện</w>
nhà_ch ức_trách</w>
nghỉ _việc</w>
nghi_ thanh</w>
kre m
kha ch</w>
kh iển_
k iêng_
im_ phăng_phắc</w>
hắc_ ám</w>
h ăm</w>
d .
b ấc</w>
đại_ đao</w>
điển_ trai</w>
điều_ khoản</w>
âm_ kỳ</w>
àn_ phong</w>
xã _
xa_ giá</w>
x é
vạn_ độc_
vun_ vút</w>
tổng_ biên_tập</w>
thường_ tình</w>
si las</w>
shi ma</w>
ruột_ gan</w>
qu ắt</w>
phụ _tá</w>
par k</w>
olive tti</w>
o án_th
ngự _sử</w>
nghèo_ nàn</w>
n y_
mạc_ ngạo</w>
mô _phỏng</w>
lục_ quán_anh</w>
lòng_ thành</w>
km /
kinh_ nguyệt</w>
k- pop</w>
k or
hình_ vuông</w>
hoả_t ốc</w>
ha y
h ường</w>
gánh_ chịu</w>
dịch _lâm</w>
ch ẩn</w>
c c</w>
bồng_ bềnh</w>
báo_ danh</w>
an_ nhiên</w>
a tt
_l ục</w>
3/ 7/2012</w>
18 /2</w>
đoàn_văn_ vươn</w>
ám_ hiệu</w>
yo ga</w>
xào_ xạc</w>
vạ ch
uỷ _tôn</w>
tẩu_ hoả</w>
tương_ tư</w>
tông_ tích</w>
tâm_ thái</w>
trục_ trặc</w>
trọng_tôn_ huyền_hoa</w>
tr ậ
thủ_ khoa</w>
thủ _công</w>
t n</w>
sốt_ sắng</w>
s gk</w>
po li</w>
phu c</w>
o át</w>
nhữ ng_tưởng</w>
nh ón</w>
ng_th ững</w>
mịt_m ù</w>
mi_ mi</w>
lữ ng_thững</w>
lả _tả</w>
lăng_ sơ_bát</w>
chu_ vi</w>
c ựa_
binh_ quyền</w>
bao_ xa</w>
b h
. tôi</w>
đông_ đô</w>
ăn_ chay</w>
x én</w>
vận_ động_viên</w>
vây_ hãm</w>
tâ p</w>
trịnh_ đáng</w>
sài gòn</w>
sinh. khoảng</w>
r an_
ngọc_ linh</w>
ng_h ành</w>
lập_l oè</w>
lão_ bộc</w>
khách_ khứa</w>
kho i</w>
i v</w>
hăm_ hở</w>
huyết_ mạch</w>
hiền_ huynh</w>
giang_ ninh</w>
g an
do r
diễn_ văn</w>
cả o</w>
cười_kh à_khà</w>
cl ericuzio</w>
chính_ thị</w>
chiều_ chuộng</w>
c âp</w>
bất_ nhân</w>
bất_ lương</w>
bá n_t
_ng ập</w>
_d e
30 /1</w>
vạch _trần</w>
tối_ ngày</w>
tăm_ tối</w>
thổ_ph ồn</w>
t anh_
sinh_ trưởng</w>
sa in
rắn_ chắc</w>
rò _r
rò_r ỉ</w>
phụng_ trúc</w>
nửa_ chừng</w>
nông_ cạn</w>
nhu_ hoà</w>
ngo ác</w>
nghĩa_ quân</w>
ng ót</w>
margar et</w>
lamborghini_ aventado
kịch_ chiến</w>
ho a
giá _thành</w>
giao_ phó</w>
g ơ
fran k
dân_ ca</w>
cười_ sằng_sặc</w>
c ật</w>
c ăm</w>
bắc_ kiếm</w>
bạch_h àn_phong</w>
bàn_ phím</w>
bankplu s
_x ẻ</w>
_ làng</w>
ẩn_ vơ</w>
đạt_ ma</w>
áo_ cà_sa</w>
v ẩn_vơ</w>
tửu_ quán</w>
trung_học_ phổ_thông</w>
totte nham</w>
thổ _huyết</w>
thánh_ địa</w>
rách_ rưới</w>
rá ch
paris_ cánh_diều_vàng</w>
p_th ịt</w>
nhân_ phẩm</w>
nguyễn_đức_ tâm</w>
nguy _ngập</w>
nghiêm_ tiểu_long</w>
ng ào_
n_t âm_
mặc_ nhiên</w>
mây_ khói</w>
lý _nh
linh_thứ u</w>
kỳ _thật</w>
khả_ ái</w>
hai_ mươi_
gmt7 sáng</w>
giữ_ mình</w>
dòng_ chảy</w>
d ụa</w>
d ằng_
cứ a</w>
cám_ dỗ</w>
cá _s
bắ p_thịt</w>
bạch_th ế_
bạch_l ong</w>
_v ui</w>
4 .000</w>
ắn_ kết</w>
đảng_ uỷ</w>
đại_ lượng</w>
y von
xì _x
van_ persie</w>
thời_ sự</w>
thpt. sau</w>
sung_ mãn</w>
su shi</w>
r ưởi</w>
phải_ trái</w>
pho ton</w>
nhất_ chỉ</w>
mục_ kích</w>
mũ _
mer y</w>
lệnh_ ái</w>
linh_ tinh</w>
khinh_ bạc</w>
k no
hữ u_l
hu ý
h al
gửi_ gắm</w>
giáp_ công</w>
giàu_ sang</w>
di_ thể</w>
cừu_thiên_ nhậm</w>
con_ ngươi</w>
chằng_ chịt</w>
chật_ chội</w>
chá y_
c m
bình_ thời</w>
bé _b
bành_liên_ hổ</w>
_d inh_
_ bà</w>
20 /1</w>
đồ n_điền</w>
ôm_ch ầm</w>
vùng_ cao</w>
vui_ thích</w>
v ờn</w>
tạo_ hình</w>
trạ ch
tr ầu</w>
thèm_ khát</w>
thám_ hiểm</w>
suy _dinh_
s pi
r ờ
ph ập</w>
nuốt_ lời</w>
ninh_ thuận</w>
nghiê p</w>
mổ _xẻ</w>
mắc_ kẹt</w>
mẫ n_t
mưa_ tuyết</w>
miệng_ lưỡi</w>
lý_ hoá_sinh</w>
lây_ lan</w>
khôi_ hài</w>
khai_ phong</w>
hữu_ dụng</w>
hợp _thành</w>
g ùi</w>
er e</w>
dương_ vật</w>
dân_tộc_ thiểu_số</w>
do ạ
di_lặc_ giáo</w>
cặ n_kẽ</w>
chữa_ cháy</w>
chứng_ cớ</w>
chị_ gái</w>
chuyển_ mình</w>
chiếu_ rọi</w>
bốc_ lửa</w>
bạch_thế_ kính</w>
bạch_ nhạn</w>
bé_b ỏng</w>
_m ê</w>
_ người</w>
độc_ chất</w>
đại_ thanh</w>
đại_ hoá</w>
đe n_ng
đen_ng òm</w>
âu_dương_ hi_di</w>
xa_ lánh</w>
u n
trứ _danh</w>
trị _tội</w>
tr ồi</w>
to m</w>
thợ _săn</w>
thảm_ kịch</w>
thông_ thiên</w>
thâm_ ý</w>
thoái_ hoá</w>
tam_ công</w>
rình_ rập</w>
quốc_ trung</w>
phục_ long_
nội_ chiến</w>
niềm_ nở</w>
nhà_ quản_lý</w>
ngào_ ngạt</w>
nguyên_ tiêu</w>
nghiêm_ minh</w>
n_b iên</w>
lòng_ đường</w>
hợp_ ý</w>
hệ _số</w>
hèn_ nhát</w>
hoàng_ mai</w>
cửu_ dương</w>
cát_nhĩ_đ an</w>
ca stle</w>
b ở</w>
b st</w>
199 5</w>
ột_ soạt</w>
đồ ng
xét_ lại</w>
xã _tắc</w>
vương_ phi</w>
vĩnh_ phúc</w>
tự _đắc</w>
tóm_ tắt</w>
tuỳ_ cơ_
tuỳ_cơ_ ứng_biến</w>
thấp_ kém</w>
thú_ y</w>
sinh_ lực</w>
s ột_soạt</w>
r ữa</w>
quán_ triệt</w>
pi e</w>
phục_long_ đỉnh</w>
p gs</w>
nhà_t u</w>
mã _t
lâm_ đồng</w>
kẻ_c ướp</w>
kim_ hoa_
ki m
khắc_ khổ</w>
khiển_ trách</w>
hung_ nô</w>
g ốm</w>
g ắn_kết</w>
e da</w>
dân_ thường</w>
danh_ tướng</w>
cựa_ quậy</w>
cổ _vật</w>
cáu_ kỉnh</w>
càn_ long</w>
chiến_tranh_ lạnh</w>
bankplus _hướng</w>
1 /12</w>
ơ n_đức</w>
đạo_ nghĩa</w>
đăng_ kí</w>
đàn_ em</w>
điệ n_biên</w>
ô_h ay</w>
yvon ne</w>
vô _thường</w>
tộc_ trưởng</w>
trống_ không</w>
trung_ tá</w>
trong_ veo</w>
tr ino</w>
toàn_th ắng</w>
thúc_ mưu</w>
th ụp</w>
tam_ bí</w>
sâu_ rộng</w>
rách _nát</w>
phụ _cấp</w>
phong_ kiến</w>
nhuận_ phủ</w>
nh ờ_v
nh ơ
nghiêm_ bình</w>
mã ng</w>
lần_ lần</w>
lạc_ kỳ_phi</w>
li_ ti</w>
kịch _tính</w>
kính_ nể</w>
k i_
hừ m</w>
hợ t</w>
hỗ n</w>
hoài_ bão</w>
h éo</w>
cơ_ khí</w>
công_ lý</w>
chủ ng_tộc</w>
chân_ mày</w>
bắc_ hiệp</w>
bất_ chính</w>
bàng_ quang</w>
b ưởi</w>
_s ơn_
_l ò</w>
199 3</w>
đỗ _bích</w>
đại_ loại</w>
ánh_ đào</w>
vô _tri</w>
univer si
tạ_ ánh_đào</w>
tô t</w>
tán_t ỉnh</w>
trạ ch_
tr ĩ</w>
thế_ chấp</w>
thú _vui</w>
thân_ thích</w>
thuy ên_
t ã</w>
su m_
roll s-
r ời_
no n_n
non_n ớt</w>
nhà m_
ngậm_ miệng</w>
n_t ổ
mẫu_ hậu</w>
mũi_ nhọn</w>
m óng_
linh_lung_ kiều</w>
le ak
khép_ kín</w>
khai_ quật</w>
kh ịt</w>
k è</w>
iêm_ võ</w>
hồng_ thuỷ</w>
holly wood</w>
giang_ hoài</w>
e _m
chí _khí</w>
chuyên_ đề</w>
ch ỏ</w>
c d</w>
bôn_ ba</w>
bão_ táp</w>
6 /2012</w>
4 0%</w>
địa_ chủ</w>
đắm_ đuối</w>
đáo_ để</w>
điện_ lực</w>
đ ự
xuất_ viện</w>
xe_ ôm</w>
vô_v ọng</w>
tử_v i</w>
tê nácđiê</w>
truy _nã</w>
thầm_ kín</w>
thuốc_ nổ</w>
thuyết_ trình</w>
th _
san_ hô</w>
sa combank</w>
r ạc</w>
quán_ quân</w>
nhờ_v ả</w>
n_đ ưa</w>
máu_ huyết</w>
minh_ mẫn</w>
me _
m ẩy</w>
m iế
lượt_ đi</w>
lành_ lạnh</w>
le s
l ốt</w>
km/ h</w>
hưng_th ịnh</w>
hđ nd</w>
h p</w>
d ặc</w>
cự _ly</w>
cổ_ kính</w>
chó _má</w>
chiếm_ lĩnh</w>
b ính_
a_ châu</w>
_thu ần</w>
_ph u</w>
_d iên</w>
9 -
8 0%</w>
31 /12</w>
ẩn_t àng</w>
đường_ hoàng</w>
á n_thanh</w>
vũ_văn_hoá _cốt</w>
tự_t ận</w>
tội_ danh</w>
tịch _thu</w>
tạm_ trú</w>
tạ _diễm</w>
tình_ ý</w>
tái_ xanh</w>
tái_ diễn</w>
tiế p_viên</w>
thuốc_ men</w>
thiếu_ thất</w>
t_ mắt</w>
se t</w>
s .</w>
rác_ thải</w>
phùng_ mậu</w>
nước_ mắm</w>
nói_ tóm_lại</w>
nhẹ _t
ngô_h án_thanh</w>
ng_l âng</w>
ng ọ
mất_ trí</w>
la _thiên</w>
kích_c ỡ</w>
kim_ lôi</w>
khắc_ khoải</w>
khuyến_ mãi</w>
hộ _
hoạch_ định</w>
eile en</w>
dục_ vọng</w>
dần_ dà</w>
chọc_ giận</w>
chuyển_ tiếp</w>
bốc_ hơi</w>
bích _hồng</w>
bi ata</w>
_tu ấn</w>
_h iếu</w>
14 /11</w>
đói_ rách</w>
đi_ tiểu</w>
đ ét</w>
đ ãi_
y_th ẳng</w>
xích_l ô</w>
việt_ cẩm</w>
vay_ mượn</w>
tần_ hoài</w>
tươi_ tỉnh</w>
tìm_ tòi</w>
trạ ng_
truyền_ cảm</w>
tiết_ chế</w>
thuyền_ bè</w>
thu ôc</w>
thang_ bà_tử</w>
sinh_ sự</w>
san_ francis
qu ắp</w>
phán_ xét</w>
per ắc</w>
o ne
nhẹ_t ênh</w>
nh ờn</w>
nga y_thẳng</w>
nad al</w>
n ặn</w>
m ứt</w>
lã _nương_
lã_nương_ dung</w>
lâ ng_lâng</w>
hung_ tàn</w>
hoà _khí</w>
h ú
g lô
d er</w>
cư ỡ
cu ội</w>
chiếm_ cứ</w>
chi_ phái</w>
chi_ chít</w>
b ở
b ướng</w>
_l ỏng</w>
để _chế</w>
đầu_ bảng</w>
đường_ đột</w>
á _châu</w>
x ược</w>
tỉnh_ thành</w>
tắc_ nghẽn</w>
tê _t
tu a</w>
trác_ mã</w>
triệu_ tam_cô</w>
tri poli</w>
tiến_ sỹ</w>
thiếu_ tướng</w>
thanh_ dương</w>
sát_ cánh</w>
s ụt</w>
nhà_th iết_
nhà_thiết_ kế</w>
nguyễn_ trãi</w>
ng ặt_
n_tu ỵ</w>
n ền_
ma đơ
lộn_ nhào</w>
lĩnh_ hội</w>
lý_ yên_yên</w>
la_th ăng</w>
kỷ_h iểu_
kỷ_hiểu_ phù</w>
kh ống</w>
hạ p</w>
hành_ hình</w>
hoàn_ hồn</w>
h ời_
giọng_ lưỡi</w>
gian_ trá</w>
cứu_ trợ</w>
cầm_ chân</w>
cáp_tát_ nhi</w>
chính_trị _gia</w>
bưu_ thiếp</w>
bù n_đất</w>
be xi</w>
ba lo
xuống_ tay</w>
x ao_động</w>
vướng_ mắc</w>
uộ i_
tất_ thảy</w>
tường_ trình</w>
trả _đ
trả_đ ũa</w>
trưởng_ phòng</w>
tiên_ sư</w>
thời_ buổi</w>
thiể m_
than_ vãn</w>
tam_ bảo</w>
siêu_ âm</w>
ro v</w>
po d</w>
phệ _hồn</w>
nar o</w>
mô n_đ
mont go
lục_ tiên_sinh</w>
kho ảnh</w>
khinh_ khỉnh</w>
hời_ hợt</w>
hồi_ ký</w>
htt p
h el
giải_ trình</w>
gia_ chủ</w>
geor ge</w>
dị _thần_
d .</w>
cưỡng_ bức</w>
cưỡ ng_h
chữ _số</w>
c xin</w>
ba_ hoa</w>
_th ái_
_t ôi</w>
_b á</w>
/ 8
ặ ng_
đối_ chiếu</w>
đế _vương</w>
đàm_ đạo</w>
đen phin</w>
vỏ n_vẹn</w>
tập_ kết</w>
tuyến_ nương</w>
tiểu_ hồng</w>
thất_ công</w>
thuần_ khiết</w>
qu ây_
phạm_ minh</w>
phơi_ bày</w>
phan_ nam</w>
nợ _n
nợ_n ần</w>
mộc_ hoa_
lạc_ thú</w>
k u</w>
hậu_ đường</w>
hu ýt</w>
giường_ nằm</w>
cầm_ quân</w>
cô m</w>
bảo_ lãnh</w>
bar a
b ôi_
1 20
đằng_ đằng</w>
[...]
