#version: 0.2
n g</w>
t h
n g
n h
c h
t r
k h
n _
n h</w>
ng _
p h
ô ng</w>
g i
i _
ê n</w>
ư ờ
i ế
q u
t _
nh _
u _
kh ông</w>
i ệ
m ộ
ạ i</w>
u y
c _
l à</w>
ườ i</w>
ớ i</w>
m _
c ủ
củ a</w>
ư ợ
ư ơ
o ng</w>
mộ t</w>
n à
c á
c ó</w>
ng ười</w>
a y</w>
ấ y</w>
t i
n ó
_ th
â n</w>
v à</w>
ô i</w>
nó i</w>
đ ã</w>
ượ c</w>
ng h
ư ớ
o _
a i</w>
c h</w>
tr ong</w>
l ại</w>
đ ược</w>
h o
a nh</w>
ì nh</w>
r a</w>
ấ t</w>
a _
i ề
s a
ch o</w>
t a</w>
u ố
ả i</w>
v à
ầ n</w>
ế n</w>
ồ i</w>
ũ ng</w>
nh ư
a ng</w>
c ũng</w>
v ới</w>
nà y</w>
_ t
i ê
t ôi</w>
ô ng_
t iế
ữ ng</w>
đ ến</w>
y _
nh ững</w>
ươ ng</w>
ướ c</w>
l à
và o</w>
à ng</w>
ph ải</w>
ườ ng</w>
th ì</w>
i ên</w>
đ i</w>
c o
cá c</w>
ấ t_
ù ng</w>
nh ư</w>
â n_
ch ú
â y</w>
ậ t</w>
i ể
đ ó</w>
b iế
a n</w>
i nh</w>
_ l
ế t</w>
ò n</w>
đ ể</w>
m à</w>
ờ i</w>
đ ầ
th ấy</w>
đ ộ
như ng</w>
r ồi</w>
đ á
c òn</w>
uy ệ
â u</w>
à i</w>
h ai</w>
l ên</w>
ch ỉ</w>
iề u</w>
v ề</w>
đ ạ
v iệ
ậ n</w>
_ h
ươ ng_
là m</w>
kh i</w>
m ình</w>
ú c</w>
e m</w>
ứ c</w>
g ì</w>
biế t</w>
á c</w>
ỏ i</w>
ư a</w>
á i</w>
b ả
à nh</w>
ắ t</w>
ọ c</w>
ò ng</w>
ằ ng</w>
m ặ
ơ n</w>
à n</w>
co n</w>
tr ên</w>
ă ng</w>
l ã
ữ a</w>
nà o</w>
c ó
b ị</w>
n_ t
a o</w>
ă m</w>
_ v
i nh_
s ẽ</w>
ậ y</w>
iệ n</w>
ừ ng</w>
ộ i</w>
a nh_
b á
c ô</w>
uyệ n</w>
đ ị
ụ c</w>
s á
đầ u</w>
sa u</w>
nh ân</w>
n_ th
ph á
e o</w>
ẫ n</w>
c ả</w>
u ng</w>
ì n</w>
ì nh_
t ừ</w>
ạ n</w>
ắ n</w>
ọ ng</w>
à y</w>
ơ i</w>
nh ìn</w>
ự c</w>
p _
sa o</w>
ti ể
â m</w>
ố ng</w>
t ay</w>
t u
đ ây</w>
c ả
tiế ng</w>
cá i</w>
í nh</w>
ổ i</w>
c ùng</w>
ắ c</w>
a o_
_th ể</w>
đ ang</w>
ề n</w>
ế _
t ới</w>
m ới</w>
l úc</w>
ươ i</w>
iê n_
uố ng</w>
ô n</w>
việ c</w>
c ông_
n ên</w>
ư ở
ọ n</w>
ch iế
u ng_
mặ t</w>
n ăm</w>
_ s
ng o
h à
r ất</w>
tr ước</w>
th iế
kh o
u ộ
t o
ồ ng</w>
_ d
lã o</w>
th eo</w>
uố n</w>
ch uyện</w>
chú ng_
k iế
nh iều</w>
m ắt</w>
a n_
h ọ</w>
gi á
ố i</w>
có _thể</w>
đ ề
nh iên</w>
h ỏi</w>
ế u</w>
v ì</w>
m ạ
á n</w>
ẳ ng</w>
ă n</w>
ngh e</w>
n ữa</w>
g ã</w>
đạ i_
s ự</w>
nà ng</w>
l o
ố i_
v ẫn</w>
c ười</w>
h ơn</w>
a u</w>
t ại</w>
n a
l ớ
_ tr
ừ a</w>
ưở ng</w>
ng ươi</w>
ứ ng</w>
m uốn</w>
th á
ng ày</w>
ọ i</w>
ê u</w>
ê n_
b ên</w>
ầ m</w>
c ông</w>
qu a</w>
gi ờ</w>
độ ng</w>
n ếu</w>
h ọc</w>
ho à
ử a</w>
ế t_
nh à</w>
x uống</w>
ượ ng</w>
qu y
k i
ch àng</w>
l u
h uy
ậ p</w>
_ n
tiể u_
ă n_
h ạ
th ế_
í ch</w>
ch ưa</w>
đề u</w>
kh ông_
_ đ
l òng</w>
ngh ĩ</w>
h ắn</w>
ng uy
ầ n_
ố c</w>
b à</w>
v ừa</w>
mộ t_
th u
2 0
á t</w>
b ạ
b ất_
ê m</w>
n_ đ
th ế</w>
cá ch</w>
_ m
đị nh</w>
b a</w>
b ọn</w>
n ay</w>
h ay</w>
n ó</w>
iệ u</w>
gi a</w>
l ư
r ằng</w>
s ố</w>
nh ất</w>
kh ác</w>
l ần</w>
x u
â m_
ắ m</w>
t ạ
th ành</w>
u_ l
h ạ</w>
đ ường</w>
bả o</w>
iề n</w>
ự c_
h iể
ch ẳng</w>
t ên</w>
s inh</w>
đ o
t a
ng_ h
v ô
ố n</w>
ứ c_
ú ng</w>
ng_ th
tr ường</w>
. .</w>
à n_
đá p</w>
_ ph
n ước</w>
l ạ
ắ ng</w>
l ấy</w>
í a</w>
đ ối_
đ âu</w>
tr ọng</w>
lớ n</w>
_ ch
â y_
gi ả
uộ c</w>
ch ính</w>
v ậy</w>
chúng_ ta</w>
ỗ i</w>
ngo ài</w>
kh á
ch ết</w>
t ử</w>
ph ía</w>
kiế m</w>
ọ c_
t uy
ụ ng</w>
th ật</w>
iệ t</w>
b ằng</w>
ậ u</w>
đ ồ
ờ i_
ắ c_
nh au</w>
i ễ
t ố
ó ng</w>
m u
. ..</w>
ầ u</w>
qu ân</w>
ặ p</w>
đ ứng</w>
ạ y</w>
v iên</w>
iể m</w>
e n</w>
m ấy</w>
na m</w>
v ị</w>
ướ ng</w>
20 1
i n</w>
b ộ</w>
th ể</w>
cả m_
h ồ
ng ay</w>
nh ận</w>
b u
qu an</w>
ch ân</w>
ô n_
á nh</w>
th ứ</w>
/ 3</w>
ấ u_
d ư
h iệ
c ần</w>
th anh_
nh ân_
â u_
k inh_
l ời</w>
t ình_
ấ p</w>
h ã
k ỳ</w>
é t</w>
iê u</w>
nh à
t ừ
h iện</w>
m a
c ơ
s ư</w>
s ống</w>
ó c</w>
l ý
kh iế
ướ c_
í nh_
m ọi</w>
ả n_
ti n</w>
ậ t_
ấ u</w>
t ì
á m</w>
x em</w>
d o
_v ậy</w>
_ c
ch uy
ê u_
h ết</w>
kh ỏi</w>
là m_
đ ưa</w>
c ứ</w>
đ ặ
đạ o</w>
n ơi</w>
đ iều</w>
ú t</w>
b ao_
p _t
chiế c</w>
b ước</w>
qu á</w>
t ự
ộ i_
b ạn</w>
l a
đá nh</w>
ệ nh</w>
hiể u</w>
th o
_ b
th a
ng_ t
g ặp</w>
t ổ
c a
m á
đ iểm</w>
l iền</w>
à nh_
ả y</w>
tr í</w>
chú ng</w>
v u
ng ồi</w>
ng_ l
ph òng</w>
ấ n</w>
ch ạy</w>
phá p</w>
th i</w>
ị ch</w>
đ ại</w>
c ao</w>
ch ủ</w>
tr ung_
á o</w>
h àng</w>
iề u_
ấ m</w>
à o</w>
tì m</w>
ch _
ạ t</w>
d ùng</w>
ki a</w>
ả ng</w>
h ô
ả nh</w>
tiể u</w>
không_ thể</w>
ph ong</w>
ú i</w>
th ường</w>
x e</w>
ườ ng_
g h
ti ên</w>
th ời_
ả o</w>
kh í</w>
như _vậy</w>
khiế n</w>
c àng</w>
ỉ nh</w>
m ẹ</w>
th êm</w>
d ân_
nh ỏ</w>
qu ay</w>
ợ i</w>
à i_
đ úng</w>
th ôi</w>
đ ất</w>
gi ới</w>
giá o_
ụ c_
tiế p</w>
y êu</w>
th ực_
ã i</w>
n ữ</w>
gi an</w>
th ành_
h ọc_
ố c_
dư ới</w>
ườ i_
v õ
l i
ch ị
từ _t
uy ền</w>
d o</w>
phá t_
tr ời</w>
ngh iệ
tr ở
ch ỗ</w>
đ ệ</w>
ch á
qu an_
th iên_
ắ p</w>
iể n</w>
g ần</w>
vô _
x in</w>
bá o</w>
b é</w>
đ ồng</w>
đầ u_
gi a_
_th ế</w>
ngh ĩ
sá ng</w>
ặ c</w>
a ng_
d ự
e r
ầ u_
g ọi</w>
c ứ
c âu</w>
r õ</w>
v ăn_
ử _l
l ực</w>
s ợ</w>
huy nh</w>
c uộc</w>
ề n_
th ần</w>
l ắm</w>
t ừng</w>
ho a</w>
a i_
ể n</w>
ằ m</w>
th ủ</w>
kh ấu_
ẹ p</w>
gi ữa</w>
t ự</w>
s ư
g ái</w>
ầ m_
ắ t_
ặ ng</w>
a n
v ụ</w>
t ất_
khấu_ trọng</w>
b ình_
chúng_ tôi</w>
qu ả
hã y</w>
m ất</w>
hạ ng</w>
c ửa</w>
mạ nh</w>
thiế u_l
sá t</w>
ch ị</w>
m ôn</w>
d ân</w>
tr ẻ</w>
th ị
ti ền</w>
tr á
ph ương</w>
_ nhiên</w>
nh ất_
ú c_
chú t</w>
v ẻ</w>
c a</w>
qu ả</w>
ch ứ</w>
ch ủ
h ồi</w>
h ình</w>
thá ng</w>
k ẻ</w>
hà nh_
k é
ệ nh_
ậ n_
b ài</w>
ho á</w>
th ương</w>
x a</w>
ế n_
x e
gi á</w>
đ ời</w>
ch i
qu á
đ êm</w>
ứ a</w>
í t</w>
th ân</w>
ă m_
gi ọng</w>
c ậu</w>
à u</w>
ch u
s o
d iễ
o _th
ô i_
qu ốc_
th ông_
d ù</w>
b ỏ</w>
m inh</w>
thá i_
_h ội</w>
é p</w>
c ô
ợ p</w>
ấ n_
ố t</w>
ch ính_
c ao_
việ t_
d ám</w>
ạ ch</w>
l iên_
_ nh
ti êu_
l âu</w>
độ t_
l ý</w>
ĩ nh</w>
m ỗi</w>
v i_
gi ú
a r
th anh</w>
ử_l ăng</w>
ù a</w>
ồ n</w>
c ây</w>
0 0</w>
á c_
ă ng_
ch i</w>
co n_
v ật</w>
s ĩ</w>
bả n</w>
m ang</w>
c uố
x ong</w>
dân_ trí</w>
ó n</w>
bả o_
đ ộ</w>
và ng</w>
uyệ t</w>
ph ục</w>
tu ổi</w>
_ ng
c ử
tất_ cả</w>
s ơn</w>
iệ ng</w>
ự a</w>
s ắc</w>
iế t</w>
chị u</w>
đ ẹp</w>
ng ạ
ng ờ</w>
t âm</w>
h ình_
ph ụ
gi ết</w>
kh ó</w>
giá o</w>
b ình</w>
từ_t ử_lăng</w>
ơ n_
b ây_
đ ủ</w>
bây_ giờ</w>
đ á</w>
ẩ m</w>
d ương_
ph ái</w>
tố t</w>
ĩ nh_
ị p</w>
th ủ
s ức</w>
v ương</w>
thiếu_l ong</w>
sa ng</w>
th ư</w>
gi ữ</w>
ph ương_
đ iệ
b ắt_
ẩ n</w>
t ình</w>
giả i_
th ân_
m ỹ</w>
b ốn</w>
đ ôi</w>
nh ớ</w>
l ậ
xu ất_
ừ a_
b àn</w>
ph ần</w>
sá ch</w>
d ài</w>
ch ắc</w>
r a_
h u
b ỗ
ả n</w>
tu y</w>
s ức_
d ương</w>
l e
việt_ nam</w>
đ iều_
th í
c u
cảm_ thấy</w>
ý _
c ầu</w>
v i
lu ôn</w>
đị ch</w>
ph o
cứ u</w>
thế_ nào</w>
c ổ
á ng</w>
_ r
mạ ng</w>
m iệng</w>
t ư
ch í</w>
gi ác</w>
đ ình</w>
tr ận</w>
ượ ng_
thời_ gian</w>
n ổi</w>
đá ng</w>
n e
th ể
p _l
s ự
đ ấy</w>
qu ốc</w>
đối_ với</w>
ả i_
b à
n_t o
t ăng</w>
thế_ giới</w>
đ ổi</w>
nó i_
việ n</w>
_ x
nh ạ
khá ch</w>
/ 2</w>
tr ở</w>
v ương_
k ết_
chá u</w>
t ính</w>
gi a
nguy ên</w>
b ay</w>
nghiệ p</w>
ố ng_
thiế u_
hoà ng_
đ ừng</w>
s inh_
k ỳ
c ạ
th ích</w>
đồ ng_
gi ả</w>
v ọng</w>
b ắt</w>
đ ọc</w>
iệ m</w>
kh uy
ậ p_
nguy ễ
t ế</w>
t ỷ</w>
n úi</w>
h ành</w>
ư ng</w>
quy ết</w>
đặ t</w>
t âm_
tiế n</w>
đ em</w>
kh ó
h ơi</w>
ng ựa</w>
è n</w>
th ầ
co i</w>
ho ặc</w>
l ộ</w>
tr ước_
biế n</w>
d iện</w>
n_ l
à y_
lậ p_t
giú p</w>
t ỉnh</w>
n ằm</w>
ặ t</w>
ng ười_
b ộ
k êu</w>
lập_t ức</w>
ạ m</w>
trở _
u ật</w>
cả nh</w>
ù ng_
_ kh
tạ o</w>
ở i</w>
r o
ạ ng</w>
ti êu</w>
d ậy</w>
b iệt</w>
nh i</w>
c ầm</w>
tr ương_
ượ t</w>
k ể</w>
đ u
ch ỉ
tiểu_ bảo</w>
ph i</w>
quy ền</w>
ph ủ</w>
n_to àn</w>
đ àn_
độ c</w>
_s inh</w>
à o_
d ục</w>
ph ản_
gi ống</w>
lư ng</w>
v i</w>
201 2</w>
th ầm</w>
ẩ n_
đ ông</w>
nghĩ a</w>
7 /3</w>
ch ưởng</w>
đ a
vi_ tiểu_bảo</w>
gi ải</w>
đầ y</w>
ph ố</w>
bỗ ng</w>
s ử
k iện</w>
ứ ng_
h ại</w>
tr ưởng</w>
như _thế</w>
ngh iê
x o
mu ội</w>
ù i</w>
ph ó</w>
uộ c_
á y</w>
mặ t_
bá n</w>
qu anh</w>
tr ang</w>
võ _
công_ t
i n
uố t</w>
t í
ợ t</w>
d ẫn</w>
b ố</w>
ậ m_
lo ại</w>
lư u_
và i</w>
h ồ</w>
t ài_
/ 1
k inh</w>
ch a</w>
c ư
t e
tr ả
mu a</w>
đột_ nhiên</w>
đo àn</w>
m ày</w>
_ ý</w>
r ượ
m ã
kh u
tr ông</w>
b ệnh</w>
ch o_
gi à</w>
d ung</w>
hà _n
tr ình</w>
h ướng</w>
cạ nh</w>
d ự</w>
l ạ</w>
ng u
ch ung</w>
á ch</w>
ổ i_
d a</w>
ấ y_
hà_n ội</w>
iê u_
ch iêu</w>
ng ày_
r i
tạ i_
m ười</w>
th uố
chuy ển</w>
ọ t</w>
thiế t_
ẩ y</w>
tr iệu</w>
uy ên</w>
ti ên_
uy _
â ng</w>
c ấp</w>
chú a</w>
quy ết_
t o</w>
_ nhân</w>
ng ủ</w>
th ời</w>
ti nh_
iệ u_
đ ứa</w>
kiế n</w>
m ở</w>
đị a_
ó ng_
mặ c</w>
l a</w>
d ụng</w>
phá t</w>
ạ i_
th uyền</w>
bao_ giờ</w>
nh anh</w>
đ ao</w>
tha m_
hô m</w>
1 9
ho àng</w>
n ội_
vô_ cùng</w>
s ai</w>
to àn</w>
l ượng</w>
x ã
r a
độ i</w>
ph u_
ớ m</w>
ị ch
rượ u</w>
đ iện</w>
b ang</w>
_t ử</w>
th ẳng</w>
ch ờ</w>
m o
t ư</w>
kh ả
h a
h iệu</w>
ph u</w>
b óng</w>
ta y_
v ội</w>
uyệ t_
lớ p</w>
tr ung</w>
bá o_
m a</w>
g ây</w>
ki m_
c ơ</w>
th u</w>
học_ sinh</w>
tr ái</w>
hô m_
b í
ng ọc_
v ũ
ấ n_đ
gia_ đình</w>
đá nh_
k iể
ĩnh_ v
làm_ sao</w>
ứ t</w>
ấ p_
ó i</w>
th ần_
ô _t
qu ang</w>
b iể
qu ân_
iê ng</w>
h ồng</w>
t ối</w>
a_ s
ch âu</w>
bắt_ đầu</w>
h ội</w>
c ung</w>
kho ảng</w>
ti ê
ch ú</w>
cuố i_
giáo_ dục</w>
th ức</w>
đ en</w>
l ệnh</w>
_l ời</w>
th ượng_
t ướng</w>
l ễ</w>
_n ương</w>
đá m</w>
tiế p_t
má u</w>
cuối_ cùng</w>
ử i</w>
x ảy</w>
n ước_
xu ất</w>
c ổ</w>
tr a</w>
e n
v iết</w>
ch ừng</w>
_th ành</w>
xã _hội</w>
chiế n</w>
v ốn</w>
phu_ nhân</w>
c ố
l ên_
ạ t_
n ửa</w>
ộ ng</w>
đặ c_
tr ị</w>
tại_ sao</w>
m àu</w>
b a
ké o</w>
í n</w>
t ử
ch ữ</w>
ò ng_
ch _th
l ệnh_
s ong</w>
trả _lời</w>
na m_
ó m</w>
gi ận</w>
ch ẳ
h ậu</w>
sư _ph
võ_ công</w>
tiếp_t ục</w>
7 8
1 0</w>
cô _nương</w>
v ân</w>
đầu_ tiên</w>
ẩ m_
ch u_
tr ai</w>
do anh</w>
ã n</w>
ướ ng_
ó t</w>
iệ t_
l ửa</w>
vu i_
đo ạn</w>
é n</w>
b iển</w>
n o
0 00</w>
n ắm</w>
đ ảo</w>
b ức</w>
l inh</w>
ho a_
g ật</w>
độ c_
hiệ n_
h ề</w>
n iên</w>
tr ăm</w>
n ỗi</w>
m ũ
tr anh</w>
n_th ân</w>
th ất_
ể n_
ỉ m</w>
đ ồ</w>
ch ế</w>
nh_ l
h án</w>
h ệ</w>
gi ó</w>
h iế
l ập</w>
t ấm</w>
hoà n_toàn</w>
một_ cách</w>
tr ắng</w>
c uộc_
tr ánh</w>
ẩ u</w>
qu a
t uyệt_
ợ i_
s u
cả m</w>
kh ổ</w>
kho ẻ</w>
diễ n</w>
th ở
_d ụng</w>
á i_
ớ i_
nguyễ n_
th ương_
ữ u</w>
tr iệu_
k ế</w>
đ ỡ</w>
ồ n_
ng_h ồ</w>
m ươi</w>
tr uy
một_ chút</w>
tr uyền</w>
ậ m</w>
s e
có _l
v ấn_đ
vấn_đ ề</w>
d u_
nh ảy</w>
v òng</w>
n_t âm</w>
đ ức</w>
y êu_
b inh</w>
l o_
ẳ n</w>
ch ơi</w>
nh iêu</w>
bạ ch</w>
ớ t</w>
ộ c</w>
ư a_
th u_
n i
kh ẽ</w>
t ập</w>
m ời</w>
r u
th i_
s ông</w>
cả nh_
thuố c</w>
à m</w>
t ương_
s ớm</w>
l o</w>
đạ o_
ch iều</w>
ngạ c_
c ố</w>
tha y_
m i
bạ c</w>
h ùng</w>
v ai</w>
ch ọn</w>
ph i_
x anh</w>
h ẳn</w>
iề n_
gi ao_
th ằng</w>
tr iển</w>
lư u</w>
h ết_
ngh ị</w>
th ả
ch ặt</w>
ph á</w>
thiế u</w>
đ ông_
ch ợt</w>
t ưởng</w>
ti ền_
nh ờ</w>
đ ả
b o
ph óng</w>
dự ng</w>
nguy ên_
h ợ
y ên</w>
ph ẩm</w>
g a
s i
sử _dụng</w>
cá nh</w>
đ ấu</w>
t ức_
n ổi_
p _th
_ch ức</w>
gi ao</w>
v ệ</w>
b ởi</w>
đa u_
m ừng</w>
t ài</w>
ặ n</w>
r ơi</w>
x ét</w>
hôm_ nay</w>
m inh_
d ừng</w>
ằ ng_
qu ần</w>
to àn_
d ịch</w>
l ê
1 0
ở i_
v ợ</w>
m ỉm</w>
m ai</w>
r e
ế p</w>
trở _thành</w>
tho át</w>
ch ân_
bu ổi</w>
ồ m</w>
v ì
tiê u_l
ph ép</w>
r ời</w>
ngạc_ nhiên</w>
201 1</w>
trở_ lại</w>
à _
đ ỏ</w>
ng ọc</w>
v ừa_
ki m</w>
ô m</w>
b ị
è o</w>
k ết</w>
đ ệ
lệnh_ hồ
sự _
nhân_ ái</w>
h ư
y _t
t ôn_
ả nh_
lệnh_hồ _x
ộ t</w>
ng ôi</w>
é m</w>
d anh_
b ắc</w>
lệnh_hồ_x ung</w>
ế u_
s uốt</w>
th úc</w>
h uyện</w>
một_ số</w>
_v ẻ</w>
bao_ nhiêu</w>
ti nh</w>
b ổ
quyết_ định</w>
n_t ử</w>
u y</w>
i m</w>
việ t</w>
_ g
d anh</w>
k ỵ</w>
r iêng</w>
sá u</w>
th ị</w>
ph ân_
con_ người</w>
g ửi</w>
ca o_th
xuất_ hiện</w>
th uộc</w>
ẹ n</w>
b ệnh_
ng ài</w>
ph í</w>
tr ang_
thở _d
l ong</w>
m ức</w>
ỷ _l
ắ ng_
k ý</w>
th ạ
b ắn</w>
v a
ô_t ô</w>
ng ọn</w>
đặc_ biệt</w>
ỡ ng</w>
th ắng</w>
j o
s ắp</w>
l ợi_
l át</w>
h ải</w>
_m áy</w>
lã nh_
tổ _chức</w>
qu y_
đại_ học</w>
b ối</w>
ph ụ</w>
mũ i</w>
thí _sinh</w>
đu ổi</w>
tr ị
v ang</w>
thở_d ài</w>
m ẫ
t ai</w>
ạ n_
tình_ yêu</w>
ng ừng</w>
th iên</w>
_n ữ</w>
có_l ẽ</w>
tr ò</w>
k ịp</w>
sư_ph ụ</w>
t ính_
s âu</w>
ch ồng</w>
ho ạt_
ch ất</w>
v ùng</w>
l ao</w>
m ở
kh á</w>
kh ắc</w>
kh óc</w>
kh u</w>
s ở</w>
qu án</w>
ng a</w>
cá o</w>
h ợp</w>
cơ _
tr ả</w>
tiêu_l ĩnh_v
ng ân</w>
nhạ c</w>
lu ận</w>
tố ng_
tiểu_ đệ</w>
ch ăng</w>
l an</w>
l ợi</w>
tiêu_lĩnh_v u</w>
n_th o
l ắc_
tr ầm_
ch i_
vu i</w>
văn_ hoá</w>
ấ m_
th ực</w>
_tr ường</w>
m ã</w>
v ăn</w>
tr ần_
_n ăng</w>
đệ _tử</w>
đồ ng_th
l inh_
r õ
t ác_
công_ tử</w>
hiệ p</w>
_s ĩ</w>
r út</w>
công_t y</w>
m ùa</w>
b èn</w>
n ặng</w>
lạ nh</w>
tr ượng</w>
tu ần</w>
c ầu_
l iệu</w>
m au</w>
h ội_
ầ y</w>
b ật</w>
l âm_
sức_ khoẻ</w>
qu ên</w>
th ử</w>
rõ _r
m ối</w>
pho ng_
ho à</w>
thay_ đổi</w>
quốc_ gia</w>
ph úc</w>
ỏ ng</w>
r ừng</w>
d ạ</w>
_h uy
nói_ chuyện</w>
chiế n_
d ần</w>
đàn_ ông</w>
thiên_ hạ</w>
d ạy</w>
t óc</w>
d ường_
t ường</w>
m e
k ích</w>
s h
dường_ như</w>
c ung_
p t</w>
b ụng</w>
nghiệ m</w>
m a_
tiế n_
bả y</w>
nhất_ định</w>
á o_
6 /3</w>
iê n_t
đạ t</w>
kh ai</w>
tuy _nhiên</w>
do anh_
qu ản_
giá m_
b ố
làm_ việc</w>
y ếu</w>
tr ọ
_ ra</w>
kinh_ doanh</w>
h y_
thực_ hiện</w>
thượng_ quan</w>
ngh i</w>
_th ế_
t ượng</w>
quả ng_
giả m</w>
b ại</w>
ngh i_
m ục</w>
bà n_t
qu át</w>
ư u_
b ờ</w>
t ấn_
đ ành</w>
l uyện</w>
ng ã</w>
t ám</w>
ng ang</w>
nh óm</w>
m ãi</w>
t ung</w>
nhà _
k ính</w>
t ội</w>
m ong</w>
cơ _hội</w>
kiể m_
ch ục</w>
n u
h ầu_
hoạt_ động</w>
cảm_ giác</w>
c ương</w>
ã y</w>
é o</w>
ta m</w>
l ặng</w>
lo ạn</w>
b i
ỡ i</w>
nghiê m_
rõ_r àng</w>
nh ị</w>
t ô
lã o_
ti m</w>
lắc_ đầu</w>
thế_ này</w>
ộ p</w>
ồ ng_
l âm</w>
m i</w>
bạ n_đ
e l
ngo ại_
đ ón</w>
t ập_
ng ực</w>
sức_ mạnh</w>
hoà n_
đ ợi</w>
má y</w>
phá p_l
quan_ trọng</w>
c ơn</w>
tr úng</w>
đối_ phương</w>
xe m_
ch âu_
b an_
đ ơn_
ệ _th
nh ập</w>
thầ y</w>
s o</w>
d ễ</w>
v ực</w>
d a
bạn_đ ọc</w>
_th ật</w>
đ ế</w>
th ở</w>
m ụ</w>
o r
thị t</w>
có _vẻ</w>
c ũ</w>
ạ m_
vô_ kỵ</w>
tr ạng</w>
t ây</w>
n ăng</w>
m ục_
to án</w>
tiên_ sinh</w>
s ản_
đo án</w>
thể _th
nh ẹ</w>
ẻ _
lạ nh_l
chu ẩn_
thu ỷ
ng àn</w>
phát_ hiện</w>
ạ o</w>
đ ô
kh ổ
_tr í</w>
th ái</w>
c uốn</w>
b ác</w>
ệ t</w>
th pt</w>
h ưởng</w>
n e</w>
ch ức</w>
ph út</w>
ch ung_
ch ống</w>
y ên_
20 0
b an</w>
đ ường_
ph ạm</w>
_d o</w>
v ị
tấn_ công</w>
ch ắn</w>
s uy_
đại_ sư</w>
khả _năng</w>
c âu_
ụ i</w>
ừ ng_
́ t</w>
b ậ
b ao</w>
th ư
_m ật</w>
iệ n_
đ ào_
đại_ ca</w>
th ế
đồng_th ời</w>
độ ng_
l ục_
ò i</w>
b iên_
ho á
đ h</w>
lạ c_
vu a</w>
trung_ quốc</w>
m à_
t uyệt</w>
h ải_
d ị
a_ h
c ực_
d i_
hồ n</w>
phát_ triển</w>
đ ề</w>
xu ân</w>
n_tho ại</w>
d òng</w>
lu i</w>
ch ắc_
đ au</w>
đ ẩy</w>
s ơ
hết_ sức</w>
c ặp</w>
một_ mình</w>
xe _máy</w>
_huy nh</w>
2 7
đ ổ</w>
sá ng_
thể_th ao</w>
c ăn</w>
ho ạ</w>
bàn_t ay</w>
v ạn</w>
ượ c_
ỷ_l ệ</w>
n ạn</w>
nó ng</w>
l á</w>
ư u</w>
c úi</w>
pháp_l uật</w>
kho a_
có _đ
h uyệt</w>
anh_ em</w>
ưở ng_
x ây_
t ích</w>
đ ến_
mặ c_
có_đ iều</w>
v ượt</w>
ch _t
_l âm</w>
chá y</w>
ấ c</w>
t ướng_
x ung_
lý _
th ay</w>
ộ ng_
t àu</w>
ch ăm_
t ôn</w>
ỉ nh_
bá c_
lên_ tiếng</w>
chuy ên_
chuẩn_ bị</w>
l ương</w>
ậ u_
ch ứng_
tr ườ
cuố i</w>
gi ơ</w>
to à</w>
tham_ gia</w>
biế t_
qu ái</w>
đ i_
x ưa</w>
chi a</w>
v õ</w>
t ất</w>
gia ng_hồ</w>
bu ồn</w>
khuy ến_
phụ _nữ</w>
thành_ phố</w>
l e</w>
x uyên</w>
h ương</w>
ắ p_
ph àm</w>
trá i_
công_ việc</w>
á nh_
ụ p</w>
th ưa</w>
ta m_
_l ực</w>
d ễ
́ c</w>
dự _
v ội_
ố t_
u s
suy_ nghĩ</w>
l ang</w>
bá t</w>
n ăm_
ch ương_
từ_t ừ</w>
t e</w>
ho ả
sinh_ viên</w>
th ấp</w>
p a
xây_ dựng</w>
qu en</w>
điệ n_tử</w>
d ụ</w>
ph ục_
hành_ động</w>
lạ c</w>
_th ương</w>
tự _nhiên</w>
b inh_
m ô
khó _kh
khó_kh ăn</w>
kh ắp</w>
gi ật_
đại_ nhân</w>
đ ỉnh</w>
hạ _
quan_ hệ</w>
nh ịp</w>
huy nh_
đ âm</w>
c ăn_
ch ất_
n a</w>
võ _lâm</w>
đ ể
đ ài</w>
tiế t</w>
h à</w>
ph ạm_
h ận</w>
ng ành</w>
kh í
sa u_
x ã</w>
m ay</w>
ầ n_th
đề _
th ừa_
nhạ c_
thu ật</w>
bảo_ vệ</w>
s iêu</w>
bậ c</w>
cao_th ủ</w>
á p</w>
_h ợp</w>
nhân_ vật</w>
1 5
kết_ quả</w>
x ác</w>
ngh iên_
thông_ tin</w>
hà ng_
l ắng</w>
ngh ệ</w>
th e
đ óng</w>
_ động</w>
ng_l ẽ</w>
xu ân_
n ét</w>
iế u</w>
đàn_ bà</w>
phản_ hồi</w>
điệ n_thoại</w>
th ông</w>
iề m</w>
c ường</w>
d e
tiế p_
ho àn</w>
đ t</w>
x ác_
a l
k ỹ</w>
tr anh_
ụ t</w>
gi ường</w>
ẳ ng_
x ông</w>
ng ân_
iê m</w>
biế n_
g o
lo ng_
ch _l
qu ý</w>
chương_ trình</w>
m ê</w>
đ ưa_
c ười_
l ộ
l úc_
ké m</w>
qu ỷ</w>
i r
nghiên_ cứu</w>
liên_ quan</w>
ho ạch</w>
th ơ</w>
_ nào</w>
thu ỷ</w>
g ó
đ ối</w>
ch ùa</w>
n ội</w>
huynh_ đệ</w>
đ à
v ung</w>
ụ ng_
lạnh_l ùng</w>
có _
biể u_
m ưa</w>
y ến_
n ữ
d ứt</w>
ph ù
t ĩnh</w>
n_t ại</w>
đ ăng</w>
x a_
m ỹ
i m_
giật_ mình</w>
/ 2012</w>
ề n_th
gi ấy</w>
v ân_
th ật_
m ón</w>
m á</w>
âu_ dương_
k ỹ
chắc_ chắn</w>
tu ần_
̀ ng</w>
gh ế</w>
nh ắc</w>
lúc_ nào</w>
r ộng</w>
iể n_
trị nh_
ng ón</w>
u ận</w>
gi ới_
̣ t</w>
mộ c</w>
đị a</w>
chiế u</w>
th ậm_
huy ền_
uố i</w>
ph im</w>
_s ự</w>
th uy
ẫ y</w>
x i
ườ n</w>
tr ốn</w>
l ục</w>
c ốc</w>
thiế t</w>
kho á</w>
bạ t_
k ỷ
th ăm</w>
mộ c_
tr ình_
nh ị
b ắc_
tuy ển</w>
v ũ</w>
/ 0
đ ập</w>
è m</w>
tr ừ</w>
nghĩ a_
à n_th
b uộc</w>
trở_ nên</w>
hã i</w>
lo_ lắng</w>
bả n_thân</w>
ẫ m</w>
b ăng</w>
tr iều_
kh ủ
c ướ
_s ở</w>
tr úc</w>
nh ằm</w>
ch a_
ắ m_
c ục</w>
chỉ _
s ẵ
thậm_ chí</w>
v ận</w>
õ i</w>
bả n_
d ành</w>
tiế t_
nh iệm</w>
l ệ</w>
yêu_ cầu</w>
ng ũ</w>
t t
ướ t</w>
ng_h ộ</w>
h át</w>
qu ần_
v ận_
t ỏ</w>
ch e
t iện</w>
h ỗ
b a_
l ượt</w>
p i
gi ỏi</w>
ờ _
t ây_
s ản</w>
ng_h ợp</w>
ủ ng_hộ</w>
l a_
h ơn_
tổ ng_
v e
đ èn</w>
v ợ
h ữu</w>
t ối_
l ối</w>
c ụ</w>
chiế m</w>
ú a</w>
r uộ
giáo_ chủ</w>
l ịch
hồ ng_
_s ư</w>
th ú</w>
kh u_
ch ứng</w>
mẫ u</w>
n ếu_
trá ch</w>
câu_ chuyện</w>
nh ẹ
c e
ngh ỉ</w>
iê n_th
h i
n d</w>
k ế_
201 9</w>
cơ m</w>
đ ương_
ch ém</w>
b óng_
́ i</w>
b ầu_
bí _mật</w>
hiệ u_
lão_ phu</w>
v ây</w>
2 0</w>
chẳ ng_
̣ c</w>
cuộc_ sống</w>
c ử</w>
tr ần</w>
chủ _t
qu ỷ_lệ</w>
3 0
ầ ng</w>
kinh_ hãi</w>
ch o
hiện_ nay</w>
ch ớ
n_ ng
l y</w>
đ a_
bác_ sĩ</w>
t an</w>
th ì
h út</w>
hơn_ nữa</w>
đưa_ mắt</w>
m ùi</w>
m ôi</w>
ù m</w>
nếu_ như</w>
qu a_
b ởi_
c ất_
ti n_t
tiế c</w>
t iệ
ch ậm</w>
báo_ điện_tử</w>
g d
má y_
/1 2</w>
ph ần_
h ọ
h ầu</w>
tuy ển_
d ây</w>
hy_ vọng</w>
h ôn</w>
ch ì
đ àn</w>
thanh_ ngân</w>
quốc_ tế</w>
ờ _đ
thiếu_ nữ</w>
tr ại</w>
ph ải_
đ ốc</w>
tr ẻ_
ợ n</w>
cho_ nên</w>
yến_ phi</w>
̀ i</w>
qua n_tâm</w>
ma y_
ẫ n_
k a
k iều</w>
biể u</w>
l ai</w>
thu a</w>
uộ n</w>
l ùi</w>
tuy ên_
b ữa</w>
bất_ cứ</w>
kho a</w>
n_ s
m ất_
gi ang</w>
c ực</w>
b á</w>
mộ _d
d ặ
là ng</w>
nh anh_
ánh_ sáng</w>
ng ầm</w>
c ắt</w>
_h iểm</w>
ồ i_
tr ực_
d ao</w>
ã o</w>
s ố
ạ c</w>
ù _
đ ăng_
thành_ công</w>
t ả</w>
huy ền</w>
_thế_ nào</w>
ph ật</w>
b ó
th ường_
_v ăn_
l ẫn</w>
nh ỏ
tình_ hình</w>
ổ ng</w>
ng ô
v e</w>
t ận</w>
đ ất_
cơ_ quan</w>
1 6
iê m_
hạ nh_
s ắt</w>
g óc</w>
tiế ng_
g ồm</w>
lý _h
t ú
qu ận</w>
c m</w>
chủ_t ịch</w>
đ ằng</w>
g ỗ</w>
tinh_ thần</w>
x ử</w>
t ết</w>
_s ử</w>
t ặng</w>
d i
ng a
bất_ ngờ</w>
d ầu</w>
h ổ</w>
tì m_
ma i_
k í
ch ụp</w>
h ộ</w>
lớ n_
tr ương</w>
đ iể
vội_ vàng</w>
th ẩm_
n ương</w>
kh ẳng_
người_ dân</w>
nh ật</w>
thực_ sự</w>
ch ảy</w>
í t_
m ắc</w>
kinh_ tế</w>
l ầm</w>
u ỷ</w>
đầu_ tư</w>
5 /3</w>
c ỏ</w>
s a</w>
n ụ</w>
bình_ thường</w>
đị nh_
t à
sau_ này</w>
th a</w>
bị _thương</w>
t er
tiểu_ phàm</w>
ho a
đ ào</w>
như _thế_nào</w>
_t ình</w>
m ái</w>
cá nh_
r ăng</w>
t ạ</w>
k ình</w>
l ời_
d ĩ
ngu ồn</w>
xung_ quanh</w>
n iềm</w>
c á</w>
khuyến_ học</w>
b e
h ung_
đ ê
ngo ại</w>
x ếp</w>
tuy ết</w>
ượ n</w>
cướ p</w>
5 0</w>
vì _thế</w>
tr ao</w>
_ con</w>
nu ôi</w>
ho ang</w>
_v ị</w>
l ấy_
nhẹ _nh
n âng</w>
m ật</w>
nh ận_
n_th ành</w>
t ổ</w>
tố t_
nh ã</w>
y ê
do n</w>
tiền_ bối</w>
th ống_
d uy_
t à</w>
d ịch
ch ữa</w>
1 2
t úi</w>
s ở
bu ồn_
tổ ng_th
t ao</w>
tr iển_
b ỏ
tình_ trạng</w>
l ôi_
mạ ch</w>
m ười_
nguy _hiểm</w>
tr ầm</w>
chú _ý</w>
qu ý
c ờ</w>
đối_ phó</w>
sá t_
lu ồng</w>
kh ai_
tr ải</w>
khu_ vực</w>
m ộ</w>
n_ b
tr òn</w>
mu a_
chuy ến</w>
o án</w>
l ương_
í u</w>
kế_ hoạch</w>
3 0</w>
h ệ_th
tiểu_ thư</w>
cư ới</w>
sự_ kiện</w>
giú p_
t ức</w>
c a_
m ỗ</w>
h ậu_
ch óng</w>
truy ền_th
hệ_th ống</w>
nước_ mắt</w>
dự a</w>
n ổ</w>
diễ n_đ
d i</w>
p _h
khu ôn_
diễn_đ àn</w>
hình_ như</w>
quá i_
s ơn_
bu ông</w>
khá ch
ti ễ
thiếu_l âm</w>
ý_ kiến</w>
h ương_
hợ p_
l iễ
mạ nh_
t àn_
t ộc</w>
cử a_s
d ị</w>
ả o_
x inh_
k ỷ</w>
ngạ c</w>
xo ay</w>
ch e</w>
x ương</w>
ú t_
cực_ kỳ</w>
kh ẩu</w>
khẳng_ định</w>
vì _vậy</w>
lý _t
c ất</w>
m iền</w>
a m</w>
trườ ng_hợp</w>
iệ p</w>
tr ường_
vợ _ch
th ất</w>
d áng</w>
tr í
ự ng</w>
x inh</w>
tu i</w>
thị _trường</w>
thân_ hình</w>
l iên_t
hồ i_
đ ỗ
trước_ đây</w>
ng ó</w>
ả y_
̀ n</w>
t ú</w>
khoa_ học</w>
toàn_ bộ</w>
gi ấu</w>
t ậ
n inh</w>
cá t</w>
1 4
cửa_s ổ</w>
sa i_
vợ_ch ồng</w>
_g ắng</w>
cố _gắng</w>
ta i_
chủ _
to à
hạnh_ phúc</w>
l ặ
iế c</w>
ạ p</w>
ra_ tay</w>
ngh ề</w>
duy_ nhất</w>
quản_ lý</w>
á n_
ẩ n_th
m ôn_
p o
ớ n</w>
. 000</w>
ứ _
lư ỡi</w>
_ ho
vui_ vẻ</w>
mà_ còn</w>
tr ộ
s ợ
ch ớ</w>
thủ _t
_đ ệ</w>
hình_ ảnh</w>
k e
thế_ là</w>
cử a_
đ e
hoà _th
n i</w>
t ân_
ú ng_
1 1
lu ật</w>
d o_
giải_ thích</w>
đo ạt</w>
b ày</w>
chi a_s
ảnh_ hưởng</w>
v ô</w>
h ô</w>
ngo ài_
thanh_ vân</w>
bệnh_ viện</w>
trương_ tiểu_phàm</w>
r ỡ</w>
lưu_ dụ</w>
chia_s ẻ</w>
ch ín</w>
_s ố</w>
́ n</w>
dĩ _nhiên</w>
v ỡ</w>
y _th
tức_ giận</w>
ng ại</w>
mua_ bán</w>
l ính</w>
x úc</w>
mạ t</w>
lã nh</w>
gi ờ_
ao_ động</w>
dễ _d
thiế p</w>
v ật_
iế ng</w>
tự a</w>
anh_ hùng</w>
chi m</w>
/ 1</w>
để _ý</w>
v ậ
the o_
thể _nào</w>
cá n_
ngân_ hàng</w>
hiể m</w>
h àn</w>
trung_ tâm</w>
vừa_ rồi</w>
m ơ</w>
ủ i</w>
b lo
ha y_
kh úc</w>
b í</w>
s ân</w>
điều_ kiện</w>
th ạch</w>
t ần_
s ứ</w>
công_t ác</w>
h ai_
quá ch_t
ma r
đả m_
nổi_ tiếng</w>
nh é</w>
1 2</w>
đ ốt</w>
đ ơn</w>
iễ n</w>
cứ u_
n_th ức</w>
thả m_
mộ_d ung_
kiểm_ tra</w>
đ ô</w>
dư ỡng</w>
nh ật_
a n_toàn</w>
tổng_th ống</w>
tr o
tổ ng</w>
giáo_ viên</w>
d ữ</w>
àn_th u</w>
c ộng_
không_ khí</w>
kiể u</w>
ng ược</w>
quần_ áo</w>
k iệt</w>
bất_ giác</w>
mặc_ dù</w>
pho ng_h
h ảo</w>
a g
th ơ
2 9
ch ạm</w>
m ề
ch ấn_
l ẽ</w>
cánh_ tay</w>
đương_ nhiên</w>
lý _do</w>
iễ n_
v ọt</w>
m ê
giờ_ đây</w>
v âng</w>
dễ_d àng</w>
lý_h àn_thu</w>
_c ửa</w>
s óng</w>
chính_ phủ</w>
b ẩm</w>
ng ăn_
n ấy</w>
lớn_ tiếng</w>
ph ân</w>
công_ chúa</w>
h a_h
tuyển_ sinh</w>
0 0
/1 1</w>
t ố</w>
ch ương</w>
e ng
_h ạ</w>
đ ắc_
đ ảng</w>
qu e
im_ lặng</w>
d ấu</w>
kiế n_
t ờ</w>
tho áng</w>
b àn_
nh ạt</w>
n_t ượng</w>
h ộp</w>
chuy ển_
tu ấn</w>
giải_ quyết</w>
t ăng_
phong_h àn</w>
7 9
sư _huynh</w>
á t_
tuy ết_
lo an</w>
dặ m</w>
2 6
ch ào</w>
cổ ng</w>
t ươi</w>
nhẹ_nh àng</w>
tr ăng</w>
giao_ diện</w>
n ền</w>
quy_ định</w>
th ê
cả i_
m ảnh</w>
ru n</w>
́ ng</w>
b ất</w>
d u</w>
th iện</w>
lợi_ hại</w>
ph ổ
quả _nhiên</w>
nhân_ viên</w>
so ái</w>
1 8
hạ nh</w>
trước_ mắt</w>
lãnh_ đạo</w>
cán_ bộ</w>
th ượng</w>
ng ư
l ực_
b ào</w>
v ết</w>
lấy_ làm</w>
c anh</w>
iế n</w>
c à
ị u</w>
t o_
ă ng_l
bởi_ vì</w>
bạ ch
v ườn</w>
th iệu</w>
_t ay</w>
hà o</w>
ỡ ng_
d iệu</w>
gia o_th
t ùng</w>
m ệnh</w>
ng âm</w>
v ẽ</w>
khuôn_ mặt</w>
gi ành</w>
c ẩn_th
cẩn_th ận</w>
lịch _sử</w>
điều_ tra</w>
sợ _h
ch ó</w>
tập_ trung</w>
_h àng</w>
s úng</w>
ti ề
bạt_ phong_hàn</w>
l ỗi</w>
thiếu_ niên</w>
_th uật</w>
1 1</w>
hiể u_
g ạt</w>
đăng_ ký</w>
sợ_h ãi</w>
c ấm</w>
quả _thật</w>
đ ựng</w>
iệ m_
m ây</w>
b ò</w>
k iều_
iế p</w>
hiệ n_tại</w>
ngh ệ
to n</w>
huy ết</w>
ph ạt</w>
g ốc</w>
_m ã</w>
th ưởng</w>
m ồ
á ng_
thanh_ niên</w>
l iệt</w>
th ú
khá c_
chiế n_th
h ưng</w>
d âng</w>
ị t</w>
kh ởi_
đề_ nghị</w>
t ống</w>
g ấp</w>
toà n_thân</w>
x ử_l
điể m_
th ảo</w>
th âm_
t ấn</w>
c ây_
x ấu</w>
giám_ đốc</w>
, 000</w>
gi ai_
nhất_ là</w>
ch_ nhiệm</w>
m ưu</w>
r ối</w>
giả n</w>
gi ang_
c ầm_
o n</w>
ch én</w>
diễ n_
blo g
x ứ</w>
v ạn_
doanh_ nghiệp</w>
k ín</w>
kho ản</w>
h ứ
ph òng_
ả ng_
nguyên_ nhân</w>
t ần</w>
d õi</w>
dự_ án</w>
ch ậm_
eng li
th ôn</w>
trá ch_nhiệm</w>
chú c</w>
s ử</w>
d uy
gh i</w>
tay_ trái</w>
t ội_
ng ũ
đ inh_
cá t_
b ằng_
y ếu_
tuần_ báo</w>
l ăng</w>
ng ắn</w>
engli sh
vị _trí</w>
_th ực</w>
la m</w>
ng ữ</w>
quan_ sát</w>
thủ _đ
đ à</w>
hà i_
v òng_
b ấy_
thu ận</w>
_t ấm</w>
xử_l ý</w>
thông_ báo</w>
p da</w>
english _sự</w>
blog _tấm</w>
đ òi</w>
n ông_
a m_
l âu_
_tr ưởng</w>
ne w
ho ang_
l ướt</w>
là nh</w>
hoà ng_th
ũ ng_
_ph òng</w>
cơ _thể</w>
tr à</w>
t ứ</w>
cử u_
thá nh</w>
xinh_ đẹp</w>
hà o_
ch ốn</w>
thực_ tế</w>
o n
m àn</w>
p e
_tr ợ</w>
không_ thể_nào</w>
ơ i_
hoà i_
l ôi</w>
đến_ nỗi</w>
t ầng</w>
nh iễ
l ao_động</w>
tự _
tạ m</w>
b ãi</w>
b ù
ph ận</w>
kh en</w>
ch ấp_
d ã
bổ ng</w>
lời_ nói</w>
thật_ sự</w>
hiện_ giờ</w>
l iên</w>
ho ả</w>
2 4
ã n_
hoà_th ượng</w>
2 5
th ổi</w>
thanh_ âm</w>
tình_ cảm</w>
t ầm_
ngh èo</w>
ự a_
̣ i</w>
mo ng_
ã ng</w>
ð o
ne t</w>
r ãi</w>
quả n</w>
cơ _sở</w>
hạ_ mạt</w>
_v ụ</w>
i s
h ạn</w>
gd đt</w>
trọ ng_
hà n_
tr ời_
n ở</w>
sản_ phẩm</w>
1 5</w>
la ng
an d
l iếc</w>
th an</w>
l ũ</w>
uố ng_
ð ại</w>
địa_ phương</w>
ch ống_
quy ền_
s ân_
t ái_
nó ng_
ngh ìn</w>
h ả</w>
thá nh_
d ấu_
s te
_th iên_
th uộc_
gi ấc</w>
họ p</w>
qu ỳ</w>
không_ chỉ</w>
b s</w>
h ữ
tiế p_th
đ ích</w>
ì a</w>
c k</w>
k iên_
v ách</w>
l ăng_
s ắc_
c o</w>
v ă
c ụ
ch ức_
thầ y_
sa n</w>
đ ương</w>
qu ỷ
_b ăng</w>
n ợ</w>
lo ạt</w>
n ém</w>
b ụi</w>
ằ n</w>
p p
̣ n</w>
_tr ình</w>
ph a</w>
_l ạ</w>
tuy ến</w>
chuy ên</w>
s ạch</w>
a_ hồ</w>
hiể n_
tiễ n</w>
ruộ t</w>
nh ỉ</w>
nhà _n
đào_ tạo</w>
du_ học</w>
tr ưởng_
khủ ng_
giúp_ đỡ</w>
g ương_
lang don</w>
x úc_
t_ m
hỗ _trợ</w>
ă ng_th
_th ì</w>
1 7
tí ch_
nhanh_ chóng</w>
1 3
kinh_ ngạc</w>
t ông</w>
nhà _v
á p_
đánh_ giá</w>
d ọc</w>
qu ê</w>
cảnh_ sát</w>
công_ an</w>
p u
là n</w>
co i_
ặ ng_
nghiê m</w>
2 8
tr ống</w>
_t u
ch ứa</w>
d ịp</w>
đá p_
chị u_
ị nh</w>
ế _t
giao_th ông</w>
hai_ mươi</w>
đồng_ ý</w>
v n</w>
m ơ
có_ mặt</w>
cha_ mẹ</w>
b ước_
2 3
phá _th
l ăn</w>
kiế m_
đ óng_
nghi_ ngờ</w>
ch ư
n ọ</w>
v ỗ</w>
m iếng</w>
e t
t ệ</w>
h ừ</w>
ữ a_
nhà_n ước</w>
sự_ việc</w>
thuố c_
_đ ồ</w>
nhà _sư</w>
y ến</w>
ẹ o</w>
v ãn</w>
vui_ mừng</w>
mạ c</w>
t ác</w>
th ốt</w>
d ạng</w>
đ eo</w>
m ượn</w>
h ướng_
_ch ịu</w>
nh iệm_
ch ế_
l ọt</w>
hà m_
tr ùng</w>
mặt_ trời</w>
chủ _nhân</w>
nhân_ dân</w>
_t ưởng</w>
cá i_
_ khí</w>
ng uyện</w>
đầ y_
p .</w>
đảm_ bảo</w>
t ưở
trẻ_ em</w>
cuộc_ đời</w>
tiểu_ nhân</w>
đơn_ giản</w>
t ớ</w>
ké o_
d ũng</w>
d ạ
c ừ
m uộn</w>
th ản_
g ác</w>
k ính_
th ổ
thế _thì</w>
hoàng_ đế</w>
b ội</w>
cá _nhân</w>
phải_ chăng</w>
gương_ mặt</w>
h ộ
b ầu</w>
hạ t</w>
gi ây_
ho ảng</w>
/ 2011</w>
m ôi_
chấp_ nhận</w>
ộ n</w>
ỏ i_
s óc</w>
huy ết_
trương_ vô_kỵ</w>
_ bất_
n iệm</w>
h ư</w>
s uy
chẳ ng_lẽ</w>
d ù_
và o_
a cu
t t</w>
bỗ ng_
78 7
_v ương</w>
s ống_
r ắn</w>
tình_ thế</w>
n ắng</w>
th ừa</w>
_ch ủ</w>
b ài_
cho_ phép</w>
tr eo</w>
th ù</w>
ngh ỉ
cất_ tiếng</w>
jo bs</w>
đá o</w>
b út</w>
ổ n</w>
v ết_
tr ò
giới_ thiệu</w>
thái_ hậu</w>
ngh ị
n ăng_l
acu te</w>
bình_ tĩnh</w>
s âu_
ẹ t</w>
ch ặn</w>
g à</w>
v u_
sự _thật</w>
g ặ
b ốc</w>
gh i_
c li
nguyễ n_th
h ứa</w>
đau_ đ
ch ấp</w>
ê nh</w>
_tr ị</w>
d iệ
g e
u b
h ối_
x ây</w>
c an</w>
độ i_
th úc_
iế t_
v ấn</w>
trộ m</w>
kỳ _d
ch ỉnh</w>
ch í
ch ờ_đ
kh ối</w>
_c ơ</w>
ằ m_
c ân</w>
t ươ
k o
chờ_đ ợi</w>
thái_ độ</w>
lã _bất_
ai_ nấy</w>
nhị n</w>
v ải</w>
lã_bất_ vi</w>
dịch _vụ</w>
b iện_
tiêu_ điểm</w>
tương_ lai</w>
iề m_
h ắc</w>
gi an_
yê n_tâm</w>
tạ m_
iế m</w>
bóng_ đá</w>
r y</w>
ng ắm</w>
n ô</w>
mạ o</w>
cô _
u_ d
no n</w>
lực_ lượng</w>
kh inh</w>
_b ình</w>
ử ng</w>
s ợi</w>
d ần_
_v iên</w>
_ lại</w>
công_ nghệ</w>
to an</w>
ố n_
chị _
l ẩm_
t ắt</w>
é t_
x ăng</w>
ph ụng</w>
tu ỳ
ươ n</w>
nhà _th
đau_đ ớn</w>
u a</w>
_th ân</w>
h i_
ngoài_ ra</w>
lý _tr
ngày_ càng</w>
tin_t ức</w>
s ắp_
th èm</w>
thể _h
m iễn_
sản_ xuất</w>
đ a</w>
khó i</w>
l ựa_
trầm_ ngâm</w>
công_ lực</w>
t án</w>
tích_ nhân</w>
lựa_ chọn</w>
b ọc</w>
tư _mã</w>
quách_t ĩnh</w>
cả n</w>
kéo_ dài</w>
chất_ lượng</w>
th ỉnh_
b er
lu ật_
tự a_hồ</w>
ý_ nghĩ</w>
ò m</w>
qu à</w>
mô ̣t</w>
l ừa</w>
âu_dương_ hải</w>
s ảnh</w>
bả ng</w>
tr ôi</w>
ng ô</w>
i l</w>
_h ữu</w>
g an</w>
thông_ minh</w>
kh ô</w>
tr a
t ả
n át</w>
s ướng</w>
t p.</w>
gi ật</w>
tưở ng_t
d iệt</w>
nh a</w>
i l
ph ản</w>
kh ắc_
t ĩnh_
d ặn</w>
c ần_th
2 2
1 7</w>
ph ùng_
hoàng_th ượng</w>
d ược</w>
_th ủ</w>
c ãi</w>
th ả</w>
ổ n_
thuộc_ hạ</w>
x ấu_
độ ng_t
nhất_ thời</w>
thế_ mà</w>
h iên</w>
ng uyệt</w>
j a
tìm_ kiếm</w>
ề _
ẻ o</w>
á m_
tr ưa</w>
m ắn</w>
l ỗ</w>
u ỷ
tuyên_ bố</w>
h ẹn</w>
qu ang_
c ư</w>
c_ độ</w>
v ùng_
chớ p</w>
h ét</w>
n d
xem_ ra</w>
hiế u_
_ quái</w>
mộ ng</w>
f a
l ầu</w>
m úa</w>
_s ơn</w>
hay_ là</w>
hiệu_ quả</w>
tiến_ hành</w>
báo_ cáo</w>
t ỉnh_
đ ống</w>
thả o_
ẩ ng</w>
thủ_t ướng</w>
to ả</w>
ng ăn</w>
dần_ dần</w>
thân_ thể</w>
ữ ng_
ó i_
m ẹ
p ar
lý_tr ọc</w>
ế m</w>
ng ẩng</w>
ẫ u_
tiếp_th eo</w>
c ộng</w>
vết_ thương</w>
kiế n_thức</w>
t u</w>
phụ _huynh</w>
cho_ dù</w>
sư _đệ</w>
v ụ
đ ỗ</w>
ð ại_
ph ất</w>
ng ược_
giá m</w>
ph ủ
đ ỏ
thể_h iện</w>
n ãy</w>
l ẽ
c ự
th ang</w>
quy ển</w>
th ượ
1 3</w>
n_ r
bạ ch_
ph en</w>
chính_ thức</w>
hư _tr
ho ạt</w>
n ặng_
l ỗ
r ửa</w>
theo_ dõi</w>
bá ch</w>
phương_ pháp</w>
gi ận_
hu y</w>
v ươn</w>
tư _
nh ẫn</w>
n_t u
kinh_ nghiệm</w>
đ í
th ức_
l ễ
kiế p</w>
giá _trị</w>
môi_ trường</w>
ch iêu_
may_ mắn</w>
kh a</w>
kỳ _lạ</w>
học_ tập</w>
gh ê
ch ợ</w>
tr iều</w>
v ững</w>
t ặc</w>
chi a_
xi n_l
ng ắt</w>
tự _do</w>
thị _tr
sẵ n</w>
h ar
đả m</w>
r âu</w>
qu y</w>
us d</w>
nh iệt</w>
công_ bố</w>
b i_
r ớt</w>
đối_ thủ</w>
truy ền_
nội_ lực</w>
t ầm</w>
th ứ
kết_ thúc</w>
c ột</w>
đ ôi_
đ ùa</w>
trực_ tiếp</w>
tr ợ</w>
v o
2 1
chính_ trị</w>
vô _l
quá _trình</w>
một_ hơi</w>
_th ù</w>
th iên_th
c ốt</w>
d ắt</w>
đ ứt</w>
đau_ khổ</w>
xin_l ỗi</w>
gh ét</w>
đ ói</w>
tiệ c</w>
̉ a</w>
th ước</w>
gặ p_
ch a
đạ p</w>
bá nh</w>
78 4
_h uy</w>
s iêu_
bạ n_b
bạn_b è</w>
âm_ thanh</w>
ng ôn</w>
uyệ n_
nh ậm_
s ay</w>
t ê
gi ặc</w>
thực_ ra</w>
tiếng_ nói</w>
t h</w>
mục_ đích</w>
m ới_
b ớt</w>
thì _ra</w>
gó p_
à u_
tướng_ quân</w>
d u
phản_ ứng</w>
kh ích</w>
giáo_ sư</w>
mồ _h
ha_h ả</w>
ngày_ mai</w>
s ĩ
hữ u_
thiết_ mộc</w>
bá t_
t p</w>
d ược_
k ịch</w>
h ứng</w>
nh u</w>
te r</w>
m ệ
d ò</w>
ra ve</w>
chăm_ chú</w>
máy_ bay</w>
chiến_th ắng</w>
b ếp</w>
hiển_ nhiên</w>
vũ _văn_
s ốt</w>
kh ấu</w>
lý _thế_
hồ n_
d u_l
th ác</w>
̃ ng</w>
đạ n</w>
nh ắm_
ú p</w>
th i
nh u_
_l ã
lý_thế_ dân</w>
l ịch</w>
uố c</w>
đồ ng_hồ</w>
tài_ chính</w>
so n</w>
ng ộ</w>
mồ_h ôi</w>
từ _ch
đ ình_
nh ảy_
thu ê</w>
thời_ điểm</w>
ph óng_
mặt_ đất</w>
h ắc_
tro ng_
ð iền_
nước_ ngoài</w>
n_đ ồ</w>
hợ p_t
nhiệm_ vụ</w>
vậ y_
m ực</w>
triều_ tiên</w>
khuy ên</w>
kh a
l ơ
tưởng_t ượng</w>
ri a</w>
ch ấm</w>
từ_ch ối</w>
vậy_ mà</w>
c ự</w>
sẵ n_s
đ ả</w>
ể _
mục_ tiêu</w>
ngược_ lại</w>
sẵn_s àng</w>
s ung</w>
đ òn</w>
đ ời_
tuyệt_ đối</w>
lẩm_ bẩm</w>
v inh_
tất_ nhiên</w>
một_ vài</w>
in ter
đ iệu</w>
thư _
h cm</w>
t y</w>
h è</w>
b ức_
cu ồng_
_th ị</w>
chu ẩn</w>
o ạn</w>
ngo n</w>
vô _t
_ph ận</w>
tho ảng</w>
_b inh</w>
c ởi</w>
tươ i_
ngày_ nay</w>
chiế n_đ
_m ẹ</w>
kh ẩn_
g m
bỏ _
tốt_ nghiệp</w>
mà_ lại</w>
đ ức_
ấ p_l
3 2</w>
h i</w>
_ công</w>
ý t</w>
̀ nh</w>
liên_ hệ</w>
tr ắng_
chì m</w>
r an
chị_ em</w>
tr ừng</w>
chiến_ tranh</w>
cu ồng</w>
phụ ng_
_ quyết</w>
bệnh_ nhân</w>
gi ọt</w>
ng_t ối</w>
̉ i</w>
đ iên</w>
hoàng_ dung</w>
_ph i</w>
_ việc</w>
_th ông</w>
ẩ u_
hôm_ qua</w>
hoàn_ cảnh</w>
ặ t_
ẵ ng</w>
danh_ sách</w>
liên_t ục</w>
c i
liên_ tiếp</w>
l y
gi àu</w>
công_ phu</w>
bó ng_tối</w>
chăm_ sóc</w>
_tr ì</w>
su ất</w>
ngu y</w>
chấn_ động</w>
m ông_
ng ưng</w>
kỳ _sĩ</w>
̀ u</w>
thị_tr ấn</w>
m ại</w>
đ ổ
s ửa</w>
ph iên</w>
tho ả
liễ u_
_h ồ</w>
ub nd</w>
thiết_ kỳ_sĩ</w>
d e</w>
g ãy</w>
triển_ khai</w>
bố _mẹ</w>
_h ình</w>
môn_ phái</w>
ó c_
l ề
chiến_đ ấu</w>
qu ế</w>
_th ần</w>
ông_ già</w>
thạ ch
mẫ u_
ch ấn</w>
th ò</w>
m ù</w>
t ứ
mở _cửa</w>
nh iệt_
nhà _trường</w>
kh anh</w>
ph i
nh ắm</w>
chu ông</w>
â ́
không_ những</w>
hư_tr úc</w>
d ữ
_v ũ</w>
m ệt</w>
nh o
t ỏ
thí ch
bao_ lâu</w>
điều_ trị</w>
h uống</w>
v ệ
khổ ng_l
đá m_
th ẳ
ch ả</w>
khổng_l ồ</w>
đất_ nước</w>
x óm</w>
t ỉ</w>
ng ôi_
đ ãi</w>
t ận_
hiế m</w>
h ùng_
đầy_ đủ</w>
l ấp_l
ir an</w>
h ỏi_
đối_ diện</w>
t u_
s ót</w>
n_th ương</w>
đ ụng</w>
v inh</w>
nh ập_
nội_ dung</w>
c ận</w>
hoà n_thành</w>
s ương</w>
s s
x âm_
ý_ nghĩa</w>
m ắng</w>
tiết_ lộ</w>
thất_ bại</w>
ho an_
e r</w>
t âu</w>
th ập</w>
á y_
tiêu_ phong</w>
ch ốc</w>
t ỉ
qu ét</w>
_l uận</w>
g ỡ</w>
_th ư</w>
ít_ nhất</w>
đơn_ vị</w>
h á</w>
ti a</w>
không_ gian</w>
tr úc_
tr ao_
nghiê ng</w>
đ an</w>
g ương</w>
d ung_
_c ập</w>
b ar
h ở</w>
u ý</w>
trá c_
r ộng_
th ọ</w>
m ẫn</w>
khá nh</w>
du_l ịch</w>
đu a</w>
0 7
c ứng</w>
ph a
bổ n</w>
hành_ vi</w>
chớ p_
c ành</w>
nh íu</w>
h ôi</w>
đối_ tượng</w>
a pp
m óc</w>
e m_
vũ _tr
r ối_
thành_ viên</w>
c ước</w>
1 00</w>
thạ ch_
kỹ _thuật</w>
đến_ nơi</w>
xem_ xét</w>
l i</w>
m ù
ủ a</w>
ca m_
trái_ tim</w>
đu ôi</w>
so át</w>
ph iền</w>
tay_ phải</w>
cung_ cấp</w>
ư ng_
tố c_độ</w>
thá p</w>
ph ú
binh_ khí</w>
vi d
lạ y</w>
đại_ diện</w>
l ệ
thường_ xuyên</w>
tử _v
l eo</w>
l ông</w>
ch u</w>
thuy ết_
phục_ vụ</w>
mề m</w>
hoà ng_h
lặ ng_lẽ</w>
li a</w>
c k
ph ả
0 9
â ́t</w>
ụ a</w>
ch ở</w>
thu ý
n ối</w>
m ồm</w>
n ạn_
t c</w>
ắ n_
r ốt_
kho e</w>
lo ài</w>
ị nh_
_s ạn</w>
ngh ệ_th
khó _chịu</w>
d ẫn_
_v ệ</w>
2 /2012</w>
khách _sạn</w>
biện_ pháp</w>
b ổ</w>
g ối</w>
x ử
b ái</w>
n_th anh</w>
cụ _thể</w>
m ô</w>
m e</w>
cảm_ ơn</w>
tầm_ thường</w>
_v ăn</w>
tình_ huống</w>
h ít</w>
gó p</w>
giả ng_
m át</w>
_ an</w>
_t âm</w>
học_ trò</w>
h ầm</w>
tức_ là</w>
khiế p</w>
đ è
b ông</w>
bấy_ giờ</w>
ch ứ
ng ơ
s ài_
y o
kho ảnh_
l y_
huy ên</w>
th iền</w>
b ệ
ch âm</w>
dị u_d
bất_ kỳ</w>
dịu_d àng</w>
th ôi_
b ối_
tuy ền</w>
ra_ mắt</w>
n ão</w>
tạ p</w>
to p</w>
khoảnh_ khắc</w>
_ như</w>
đí ch_th
ươ ̀i</w>
_ng ơi</w>
văn_ bình</w>
gh é</w>
d uyên</w>
mộc_ phong</w>
kho ái</w>
t ề</w>
phù _hợp</w>
_th ường</w>
cần_th iết</w>
l ú
co ́</w>
kh ôn</w>
cu ̉a</w>
g òn</w>
tr inh</w>
d ập</w>
đ iên_
m ưu_
k iên</w>
hợp_t ác</w>
c ấp_
tu ổi_
kh ắp_
app le</w>
v ĩnh_
khắp_ nơi</w>
đá y</w>
đ inh</w>
xác_ định</w>
ph ối_
chỉ _huy</w>
nguy ê
lu ôn_
th iên_t
luôn_ luôn</w>
ng ự</w>
đ ươ
_ giá</w>
tr àn_
v u</w>
h ất</w>
tr ì</w>
đ ấu_
đ ậu</w>
_ph ương</w>
kh ăn</w>
_n iệm</w>
đi_ lại</w>
tu ỳ</w>
tr ăm_
thẩm_ mộc_phong</w>
l ật</w>
giá p</w>
f i
do ãn_
bá nh_
m ừng_
ch ắp</w>
thủ _hạ</w>
bá ch_
tr án</w>
e l</w>
t ốn</w>
s a_
tham_ dự</w>
bá m</w>
việ c_
v a</w>
thiết_ kế</w>
khá m_
c anh_
t ô</w>
ph an_
tu ân</w>
má y_t
ba_ mươi</w>
r ực</w>
y_t ế</w>
khá n_
ng ạn</w>
t é
chậm_ rãi</w>
chu i</w>
khách _hàng</w>
u ni
w e
cli p</w>
nữ _sinh</w>
ng ốc</w>
n .
xe _
t ê</w>
ph o</w>
tr ợ
giận_ dữ</w>
phát_ giác</w>
nạn_ nhân</w>
hã ng</w>
d ối</w>
ho ài</w>
nghỉ _ngơi</w>
phá n</w>
h iề
s ữa</w>
n_đ ại</w>
nhắm_ mắt</w>
th ét</w>
hạ n_
tr ào</w>
m ông</w>
cô_ giáo</w>
đ ó
ph ú</w>
sá nh</w>
k ẻ
đông_ phương_
d ính</w>
a s</w>
tí ch
đề _phòng</w>
đại_ gia</w>
ng ữ
_đ ề</w>
tác_ giả</w>
inter net</w>
t ồ
_ch i_
ch ết_
tr i_
mẹ _con</w>
tướng_ công</w>
nh ục</w>
s àn</w>
trưởng_ lão</w>
ngơ _ng
ì m</w>
n ỗ
khá ch_
đ iền_
ằ ng_h
thá o</w>
ung_ thư</w>
thơ m</w>
t ỷ
2 5</w>
thạ ch_th
bộ _
ấ n_tượng</w>
vừa_ mới</w>
th ống</w>
pu tin</w>
nh ường</w>
ng ột</w>
má i_
cố _ý</w>
sa y_
p_l ực</w>
v ỏ</w>
ph ò
hiế u</w>
bộ _trưởng</w>
tuyết_ kỳ</w>
v ã</w>
ẫn_ n
vi et
quân_ đội</w>
nguy _cơ</w>
giây_ lát</w>
quân_ sự</w>
i .
d ốc</w>
m ẽ</w>
vô _tình</w>
nguyễn_th ị
_ pháp</w>
thả m</w>
xuất_ sắc</w>
l ĩnh_v
tử_v ong</w>
_l iệu</w>
x ương_
ng ửa</w>
va ̀</w>
gi ây</w>
g ói</w>
chủ _nh
thủ_đ oạn</w>
m ọc</w>
c ỗ</w>
chịu_ đựng</w>
quảng_ cáo</w>
w a
h ôn_
phối_ hợp</w>
nghiêm_ trọng</w>
n ảy</w>
c ắn</w>
ăng_th ẳng</w>
tồ n_tại</w>
h o</w>
chính_ sách</w>
c ăng_thẳng</w>
ăn_ uống</w>
thức_ ăn</w>
ch _d
ế ch</w>
tí n_
kh e
ph úc_
khuy ết</w>
ra_ lệnh</w>
n ề</w>
t_m ỏi</w>
mệ t_mỏi</w>
j e
ẫ u</w>
ph u
ð an</w>
văn_ phòng</w>
công_ trình</w>
ải_ mái</w>
tho ải_mái</w>
m iếu</w>
lĩnh_v ực</w>
k u
_s ơ</w>
tr ùm</w>
m ũ</w>
thất_ vọng</w>
dân_ tộc</w>
mạnh_ mẽ</w>
t .
qu ỹ
b ực_
a _th
4 /3</w>
tin_t ưởng</w>
_tr ách</w>
c ú</w>
nhật_ bản</w>
tr ồng</w>
c ir
200 8</w>
_th ức</w>
bầu_ cử</w>
b ừng</w>
1 /3</w>
tr ấn</w>
in e</w>
giai_ đoạn</w>
biến_ sắc</w>
đồ _
tâm_ sự</w>
qu ỳ
chính_ xác</w>
nga y_
mạ c_
chuyên_ gia</w>
to_ lớn</w>
1 8</w>
„ ð
b iệt_
ð inh_
hiể m_
. ...</w>
đột_ ngột</w>
nhu_ cầu</w>
hà _t
hiểu_ phong</w>
k ê</w>
m y</w>
cừ u</w>
s ung_
chỉ_ đạo</w>
k a</w>
tác_ phẩm</w>
hu ế</w>
d ày</w>
cir c</w>
th ụ</w>
_v ân</w>
trang_ chủ</w>
gi ày</w>
bỗng_ nhiên</w>
tài_ sản</w>
kh ôn_
ĩ a</w>
việc_ làm</w>
ấ p_th
vid eo</w>
l ần_
ngôi_ sao</w>
th ục</w>
t á
pa d</w>
k ị
hội_ đồng</w>
t ủ
lư ới</w>
tai_ nạn</w>
ma_ giáo</w>
kiều_ phong</w>
cử u</w>
v ời</w>
g ầm</w>
d ư</w>
mở _r
d ì</w>
s uối</w>
mở_r ộng</w>
ẽ o</w>
th ổ</w>
mạ o_
bà ng_
quá ch</w>
b ữa_
hoả ng_
huy ề
r ít</w>
t ù</w>
bố _trí</w>
_v ấn</w>
thần_ sắc</w>
g ượng</w>
bất_ luận</w>
tống_ cương</w>
t ẩu</w>
đà m_
kh inh_
b an
t ụi</w>
x ích</w>
ng_th ái</w>
i pad</w>
đ âu_
bầu_ trời</w>
_h ành</w>
27 3</w>
c an_
thanh_ tra</w>
t úc</w>
d ạo</w>
do_ đó</w>
th ăm_
h ỏng</w>
_ mắt</w>
s ho
c ắp</w>
rốt_ cuộc</w>
máy_t ính</w>
phá p_
ban_ đầu</w>
qua n_t
cộng_ đồng</w>
m ật_
c ớ</w>
lạ ng</w>
hạ t_
nghệ_th uật</w>
4 0</w>
bước_ đi</w>
l an_
d ãy</w>
ch uộ
_d o
nh i_
thiếu_ gia</w>
chỉ_ tiêu</w>
gi ấy_
ng ấm_
chi_ tiết</w>
_th ị
t ái</w>
n_đ ổi</w>
19 9
c ân_
kh ởi</w>
cảm_ nhận</w>
trao_ đổi</w>
t ưởng_
sử a_
ngấm_ ngầm</w>
cổ _ph
đầu_ óc</w>
c ôn</w>
điệ n_
v í
ng ẩn</w>
la ̀</w>
t àn</w>
t ảng</w>
ộ t_
ð ào_
xúc_ động</w>
thừa_ chí</w>
n én</w>
qua_ đời</w>
ph ức_
lộ n</w>
h ang</w>
x ạ</w>
chia_ tay</w>
b éo</w>
tr àn</w>
t ắm</w>
_t ố</w>
t s</w>
nhiễ m</w>
sài_ gòn</w>
m an</w>
d áng_
thuy ết</w>
l au</w>
v ắng</w>
tr a_
s _
thú _vị</w>
lục_ tuyết_kỳ</w>
v ẫy</w>
ghê _g
ghê_g ớm</w>
trung_ nguyên</w>
nặng_ nề</w>
ng ười</w>
é o_
hã n</w>
vũ_tr ụ</w>
v ai_
ngu ỵ</w>
thông_ qua</w>
doanh_ doanh</w>
cư ỡi</w>
s y
_đ ại</w>
le n
trịnh_ vi</w>
_d ụ</w>
x á</w>
thỉnh_ thoảng</w>
đặ c</w>
_v ật</w>
_ yên_
tự_ tin</w>
m ạn</w>
ả m</w>
hoa ng_t
78 8
đám_ cưới</w>
cá ch_
hình_ thức</w>
l ộc</w>
ng -
tr ừ
hội_ nghị</w>
hư ng_
kh ang</w>
d ực</w>
bữa_ nay</w>
so ng_
kh ôi_
g ạo</w>
1 6</w>
h iền</w>
té _ra</w>
x é</w>
s ứ_
người_ yêu</w>
chứng_ kiến</w>
ngạ o</w>
l ừa_
hoa_ sơn</w>
quy ên</w>
vu a_
0 ,000</w>
ù n</w>
v ay</w>
ng_th ể</w>
khủ ng</w>
ðo àn_
2 3</w>
t ụ</w>
phả n_đ
ng ớt</w>
l ái</w>
ng_t ỏ</w>
m ến</w>
lo an_
anh_ chàng</w>
â ng_
gi ấ
cửa_ hàng</w>
đ ợt</w>
đ ẳng</w>
bù i_
phức_ tạp</w>
phản_đ ối</w>
g a</w>
kinh_ hoàng</w>
f or
m àn_
tr ừng_
c ạn</w>
hiệ p_
tính_ toán</w>
giả _v
s ờ</w>
b ơi</w>
an_ ủi</w>
2 /3</w>
chớp_ mắt</w>
giả_v ờ</w>
v ụt</w>
/ 9</w>
f f</w>
ớ p</w>
k e</w>
đ iếm</w>
h ung</w>
th ử
nghĩa_ là</w>
d ĩ</w>
l òng_
x ét_
ê nh_
c ập</w>
kết_ luận</w>
vi_ phạm</w>
trước_ kia</w>
hạn_ chế</w>
con_ bé</w>
v ỗ
l ăm</w>
c ăm_
ố m</w>
ng ập</w>
có_ khi</w>
từ _b
tu ng_
tình_ dục</w>
lý _th
h ổ
khá m</w>
c uộn</w>
_h ãn</w>
tay_ áo</w>
thí _chủ</w>
nà o_
̣ ng</w>
r ẽ</w>
g u
b ồi_
me s</w>
29 /2</w>
k êu_
bất_ quần</w>
_n ẵng</w>
chức_ năng</w>
r o</w>
l la
bá _
ng u_
n ấu</w>
không_ chừng</w>
_l ệ</w>
tỏ _vẻ</w>
thầ n_th
s ca
nhạc_ bất_quần</w>
chủ_ yếu</w>
bất_ quá</w>
0 %</w>
trẻ_ con</w>
th ai</w>
1 9</w>
lề u</w>
_lã nh_
tr ạ
̀ m</w>
ò i_
như _băng</w>
lên_ đường</w>
_l ượng</w>
hợp_ đồng</w>
ứ t_
g ánh</w>
x ô</w>
đà _nẵng</w>
201 0</w>
đặ ng_
lậ p_
que n_th
ngo an</w>
lu ân</w>
mừng_ rỡ</w>
ng ôn_
t ụ
bi a</w>
a le
79 0
c ắm</w>
b ỏng</w>
lê _
hỗ n_
_b ụng</w>
phi_ thường</w>
h ảo_
d ũng_
1 4</w>
dù_ sao</w>
trung_ ương</w>
h ấp_
r ồng</w>
đa ̃</w>
kh úc_
cao_ cường</w>
ra_ vẻ</w>
lôi_ phi</w>
bao_ gồm</w>
nh ậ
y a</w>
thiết_ bị</w>
khu ê</w>
sáng_ tạo</w>
ú m</w>
x à</w>
th ăng</w>
uy ết</w>
lã ng_
d ọn</w>
/1 0</w>
ph ẫu_
bỏ_ qua</w>
năng_l ực</w>
ph ấn_
h á
mỹ _nhân</w>
v ong</w>
kh éo</w>
cử _động</w>
tìm_ hiểu</w>
b é
thạch _chi_
thạch_chi_ hiên</w>
liễ u</w>
2 6</w>
ag rave</w>
o ai</w>
vương_ gia</w>
hấp_ dẫn</w>
yêu_ thương</w>
hồ _sơ</w>
h ằng</w>
ổn_ định</w>
tăng_ cường</w>
ơ ́i</w>
f o
chung_ quanh</w>
_ ẩn</w>
lã ng</w>
e _
v er
nhân_ tài</w>
thì _th
phẫu_ thuật</w>
hành_ lang</w>
sá o</w>
người_ thân</w>
tr àng</w>
d ò
ti n_
tha _th
r e</w>
kh iển</w>
đ ẹ
vô _số</w>
l ữ
việ n_
khán_ giả</w>
kh ảo</w>
l én</w>
di_ động</w>
_t ính</w>
b ề_
6 0</w>
t ph
nhà_v ua</w>
ngh ịch</w>
hiề n_đ
vai_ trò</w>
lợi_ dụng</w>
ch ép</w>
ph ấn</w>
k ỷ_l
r út_
n_t ĩnh</w>
m er
ử a_
như _thể</w>
n ộp</w>
ph ường</w>
4 32</w>
mề m_
tậ p
t ỳ</w>
ờ _m
tph cm</w>
hợ p_l
tiến_ sĩ</w>
s ổ</w>
la i_
bá i_
â u_l
lạc_ hi</w>
sh i
hầu_ hết</w>
chế_ độ</w>
ó t_
thản_ nhiên</w>
ph ật_
ng .
tâm_ thần</w>
ph ổ</w>
lạ t</w>
bạ o_
thực_ phẩm</w>
tạ _t
quen_th uộc</w>
th iệt_
đ ơ
thế_ kỷ</w>
kh o</w>
b ần_
phá ch</w>
mong_ muốn</w>
m s</w>
r ô
kiểm_ soát</w>
gia m</w>
giải_ pháp</w>
r ung_
ch ữ
loan_ loan</w>
x i</w>
l ắng_
hoà _bình</w>
bạ t</w>
sắp_ xếp</w>
c e</w>
phương_ tiện</w>
điều_ chỉnh</w>
tố _tố</w>
d ồn</w>
_c ực</w>
chẳng_ những</w>
tổ n_thương</w>
s ta
chẳ ng_thể</w>
_ch ơi</w>
m iên</w>
khuy a</w>
d ại</w>
biên_ hoang</w>
o áng</w>
cái_ bang</w>
hà _
b ồ
v ả</w>
b ằng_h
chi_ phí</w>
đá ng_
n ô
một_ nửa</w>
tr ói</w>
thống_ nhất</w>
an_ ninh</w>
_t ài</w>
biên_ hoang_t
mũ i_
ch ào_
bằng_h ữu</w>
o k</w>
thừa_ nhận</w>
que n_
lạ _l
tạ p_
_th iên_th
x anh_
hầu_ như</w>
ch ăn</w>
buồn_ b
g ót</w>
đạ m</w>
ung_ dung</w>
8 0</w>
y_ phục</w>
quảng_ bình</w>
nội_ công</w>
biên_hoang_t ập</w>
vũ _khí</w>
mái_ tóc</w>
đ iền</w>
biểu_ diễn</w>
ò _m
đươ ̣c</w>
gi ục</w>
x en</w>
ý_ định</w>
tạm_ thời</w>
thế_ sung</w>
_m inh</w>
x ế
tr ợn</w>
s ườn</w>
_h ương</w>
78 9
à m_
t í</w>
đ ườ
pho ne</w>
chính_ quyền</w>
tạ_t ốn</w>
t é</w>
2 4</w>
lạc_ dương</w>
cá o_
báo_ chí</w>
đáp_ ứng</w>
khả _
x ách</w>
dấu_ hiệu</w>
bố n_
phá_th ạch</w>
vừa_ qua</w>
tr u
thân_ phận</w>
ph e</w>
tr ú</w>
đẹ p_
th iệt</w>
l ường</w>
h òn</w>
nh át</w>
bá n_
căn_ cứ</w>
bả n_l
cư ỡng</w>
ặ c_
đ ền</w>
khám_ phá</w>
thu ỳ</w>
kh ỉ</w>
tr ướng</w>
g ắn</w>
x ưa_
tho át_
tính_ mạng</w>
bất_ dịch</w>
nh an_
k ỵ
m é</w>
điệ p</w>
tâm_ lý</w>
kh ôi</w>
tr ực</w>
tr ông_
sở _hữu</w>
ch au</w>
phùng_ phá_thạch</w>
c ấu_
n ạp</w>
áp_ dụng</w>
tr uyện</w>
bo m</w>
tr i</w>
nh áy_
đ ồi</w>
_ nghiệm</w>
̀ o</w>
l ê</w>
jo h
đ ùi</w>
d âm</w>
ờ n</w>
ú i_
r ót</w>
đông_phương_ thanh_vân</w>
tr ân_
giải_ thưởng</w>
diễn_ viên</w>
bạ o</w>
to át</w>
doãn_ hạ_mạt</w>
cao_ ngạn</w>
cá n</w>
ọ t_
ð ằng_
tương_ tự</w>
k y</w>
t ang</w>
độ _vũ</w>
đó n_
thật_ ra</w>
_ph ong</w>
_do ạ</w>
ng_th ương</w>
lẽ _nào</w>
nghĩ _bụng</w>
ỏ ng_
kỷ _yên_
kh e</w>
g ục</w>
ro i</w>
hoang_ mang</w>
nháy_ mắt</w>
h ài</w>
tiếng_ động</w>
thành_ lập</w>
lăng_ độ_vũ</w>
kỷ_yên_ nhiên</w>
t ước</w>
c au</w>
ạ ng_
x í
b ụng_
lãnh_ như_băng</w>
c s</w>
y a
tiểu_ hôi</w>
th ề</w>
sung_ sướng</w>
khoa_ học_
hướng_ dẫn</w>
ðằng_ dực</w>
tr ống_
t áo</w>
ẫ m_
r ũ</w>
m pi
_d anh</w>
ấ y</w>
mã nh</w>
kh ốn_
1 ,
sai_ lầm</w>
ng ất</w>
tác_ dụng</w>
a y_
ngu ỵ
liên_ lạc</w>
h ễ</w>
thái_ tử</w>
lắng_ nghe</w>
_d ân</w>
l ỡ</w>
bản_l ĩnh</w>
kho ang</w>
c .
v ĩ
t á</w>
t àng</w>
đề_ xuất</w>
nh ãn</w>
đ ài_
đ uối</w>
tha m</w>
mở _m
3 /3</w>
thá c_
th iê
s t</w>
x ám</w>
b ưng</w>
châu_ âu</w>
thuỷ _
học_ bổng</w>
tuyệt_ vời</w>
ng ô_t
kho ác</w>
ch ôn</w>
v uốt</w>
b ô
xưa_ nay</w>
h ốt_
h ù
d ây_
ẩ y_
cư ỡng_
_ph ê</w>
n êu</w>
tài_ năng</w>
hu ỳ
an na</w>
nh ạn</w>
th iể
đ ai</w>
số _lượng</w>
lý_ xuân_
th âm</w>
l ái_
tr ứng</w>
ch ầm_
nh_l iệt</w>
phần_ lớn</w>
khủng_ khiếp</w>
hiệu_ trưởng</w>
thu_ hút</w>
hu ỷ</w>
cà _phê</w>
tr ẫm</w>
i s</w>
phụ _thân</w>
tâm_ hồn</w>
vụ _việc</w>
trước_ tiên</w>
c đ</w>
h iền_
như ̃ng</w>
vương_ thế_sung</w>
b ến</w>
hà n_đ
tí n</w>
có_l ý</w>
̣ p</w>
âu_ thần</w>
mã nh_liệt</w>
biến_ hoá</w>
bộ t</w>
bá ch_l
_l òng</w>
xác_ chết</w>
nhanh_ nh
tr ỏ</w>
r ẻ</w>
p or
k ể_
tài_ liệu</w>
l ật_
ð ịch</w>
đồ n</w>
triệu_ mục</w>
kể_ cả</w>
s o_
g ậy</w>
ầ y_
x ung</w>
thi_ thể</w>
ch ửi</w>
đời_ sống</w>
thuyết_ phục</w>
ph iền_
2 1</w>
truyền_ hình</w>
n é
điền_ bất_dịch</w>
thu ế</w>
t iệm</w>
chẳng_ qua</w>
: 0
_l an</w>
o u
lạ nh_
vội_ vã</w>
tập_ đoàn</w>
b ề</w>
thời_ trang</w>
ngay_ lập_tức</w>
con_ số</w>
th ình_
kh ống_
chầm_ chậm</w>
bà _
á p_lực</w>
a d
v ĩnh_v
t ách</w>
b ì</w>
quyết_ tâm</w>
vĩnh_v iễn</w>
tr ấn_
th iện_
lạ_l ùng</w>
khống_ chế</w>
in do
t i</w>
thuý _sơn</w>
ch án</w>
m ổ</w>
kh âm_
e li
̀ y</w>
đóng_ cửa</w>
t ật</w>
quả _thực</w>
hợp_l ý</w>
cuộc_ chiến</w>
biết_ đâu</w>
ầ n_t
tà u_
giả ng</w>
ng_t úng</w>
th ô
n uốt</w>
d ã</w>
k iêu_
cá m_
th iền_
hối_ hận</w>
quốc_ hội</w>
kẻ _thù</w>
di_ chuyển</w>
c àn_
đe _doạ</w>
l ắc</w>
l ô</w>
chiế n_l
nổi_ giận</w>
ngh iến</w>
từ _
sư_ph i_
r ung</w>
phụ _trách</w>
ch _m
ngo ái</w>
mông_ cổ</w>
h ẹp</w>
mặt_ mũi</w>
b ận</w>
nh ích</w>
giấy_ phép</w>
e d
2 2</w>
n ấp</w>
cảm_ xúc</w>
trọ ng_t
c ẩn</w>
nỗ _lực</w>
_d ương</w>
m àu_
ng ờ_đ
x uống_
_tr ang</w>
t ỷ_lệ</w>
cổ _tay</w>
biế n_đổi</w>
tiểu_ học</w>
kh ô
hiệ n_đại</w>
kho án</w>
góp_ ý</w>
_l o
sử ng_
ngờ_đ âu</w>
ưở ng_th
_nh ược</w>
quá _kh
hậu_ quả</w>
bình_ chi</w>
uy ến</w>
õ m</w>
kho ảng_
cứ ng_
m ấy_
nhận_ xét</w>
19 7
lần_ lượt</w>
triều_ đình</w>
tiếp_ xúc</w>
nh ầm</w>
s s</w>
quen_ biết</w>
sư_phi_ huyên</w>
sửng_ sốt</w>
một_ khi</w>
giám_ sát</w>
_ph ụng_
ti e</w>
dân_ chúng</w>
thu ần</w>
c ro
d ụng_
tr ần_th
n ương_
r ùng_
đối_ mặt</w>
phá_th iên</w>
ng ước</w>
v iêm</w>
th ứ_
dạ y_
tay_ chân</w>
ng ục</w>
lâm_ bình_chi</w>
tr ạm</w>
m ưa_
n_t ập</w>
chu_ nhất_
ca_ sĩ</w>
phò ng_th
làm_ chi</w>
chiế m_
l ĩnh</w>
ag u
ứng_ phó</w>
ằ n_
phân_ biệt</w>
d ẹp</w>
c ường_
kh ốc</w>
dị u</w>
k èm</w>
ma ri
ho ạ
ng ang_
đồng_ chí</w>
qu ê
k ìa</w>
c ận_
đ iển</w>
v út</w>
ng õ</w>
minh_ bạch</w>
cách_ mạng</w>
l l</w>
m ờ</w>
d uy</w>
0 6
năm_ học</w>
kỷ _niệm</w>
cha_ con</w>
a acute</w>
201 8</w>
nghệ _an</w>
cười_ nhạt</w>
âm_ nhạc</w>
ngơ_ng ác</w>
_c ấp</w>
ar d</w>
đầ m</w>
ý _tưởng</w>
ã i_
l ông_
_s ung</w>
tiệ n_th
nh ặt</w>
hoàn_ hảo</w>
chú c_
kết_ hợp</w>
x ỉ
mạo_ hiểm</w>
tư _vấn</w>
t ương</w>
n ằm_
bảo_ đảm</w>
r eo</w>
n inh_
m ắt_
bí _ẩn</w>
r au</w>
mẫu_ thân</w>
_đ iểm</w>
hu ệ</w>
ng ây</w>
quỹ _nhân</w>
v ất_
nh .
bộ _phận</w>
nghệ _sĩ</w>
d ụ
quyền_ lực</w>
khá ng_
thản_ chi</w>
lý_ uyên</w>
chứng_ minh</w>
lệnh_ hồ</w>
ng ập_
qu ãng</w>
n_tu ổi</w>
chuyển_ động</w>
nh ấc</w>
phân_ tích</w>
nhà _máy</w>
ọ p</w>
hạ _l
v tc</w>
hải_ phòng</w>
hoá _ra</w>
nhà o</w>
m ỏng</w>
hàn_đ ào</w>
/0 2/2012</w>
long_ vương</w>
h ệ
cung_ kính</w>
b ão</w>
thu ận_
xu ôi</w>
l ô
co m
đồ _phụng_
căn_ bản</w>
ch ánh</w>
ph ù</w>
l ượ
trước_ nay</w>
m ệnh_
_ bộ</w>
điều_ khiển</w>
nh ú
buồn_b ã</w>
t a_
n é</w>
v ứt</w>
v ả
truyền_th ống</w>
thế _lực</w>
lấp_l ánh</w>
ũ i</w>
tiểu_ hoàn</w>
hoả ng_h
đồ_phụng_ tam</w>
đ â
thu ý_
cầu_ thủ</w>
sinh_ tử</w>
rút_ lui</w>
ho an</w>
f i</w>
tử _t
tuỳ _t
làm_ ăn</w>
đ i
ph iếu</w>
d ê</w>
_ hoàng</w>
đôi_ khi</w>
du_ thản_chi</w>
b én</w>
p er
cao_th âm</w>
b ưu_
địa_ vị</w>
t â
bổ _sung</w>
m ức_
tử _
tha y
bu ôn_
thanh_ thanh</w>
qu í</w>
bá o_th
ì n_
c ôn_
õ ng</w>
sa ng_
lo é</w>
mộ_dung_ phục</w>
công_ nhân</w>
linh_ san</w>
bí ch_d
nh a_
s ốc</w>
do_ dự</w>
so i</w>
tr úng_
thu ẫn</w>
5 00</w>
vất_ vả</w>
tr èo</w>
kỳ _quái</w>
dữ _d
chứ ng_tỏ</w>
̉ ng</w>
hành_ trình</w>
chủ _động</w>
thạch_ phá_thiên</w>
c àn</w>
20 0</w>
thay _thế</w>
s ỹ</w>
chứng_ khoán</w>
b ăng_
ạ nh</w>
yếu_ tố</w>
thần_ bí</w>
t ông_
x ưng</w>
r ách</w>
khó _lòng</w>
cho_ hay</w>
bối_ rối</w>
_tr ọng</w>
m ét</w>
_ cáo</w>
ì _
th ùng</w>
ra_ hiệu</w>
m_ t
ng uyệt_
sự_ nghiệp</w>
tr e</w>
1 -
t át</w>
lý _mật</w>
lái_ xe</w>
kho át</w>
ch_th ức</w>
bản_ lãnh</w>
t ế_
thẳ m</w>
ứng_ dụng</w>
ọ n_
r ú</w>
cổ n_
bá u</w>
h uống_
c ậy</w>
uy ết_
r ào</w>
may_ mà</w>
ngăn_ cản</w>
b ích</w>
bạ i_
khá ng</w>
hiền_đ ệ</w>
â ̀n</w>
phương_ tú</w>
ph iên_
_thiên_th iên</w>
lo ại_
hạt_ nhân</w>
duy _trì</w>
bị t</w>
thu_ hồi</w>
ch_th ú</w>
hà m</w>
ngô_t am_
lã m</w>
tư_ cách</w>
t ào_
hài_ lòng</w>
biết_ bao_nhiêu</w>
b ế</w>
trước_ hết</w>
mũi_ tên</w>
bích_d ao</w>
nhạc_ linh_san</w>
đ ĩa</w>
tr ụ</w>
thiên_ phong</w>
lú ng_túng</w>
thế_ gian</w>
th à</w>
t ục</w>
g r
dược_ sư</w>
v ĩnh</w>
kỳ_d ị</w>
đả ng_
mười_ hai</w>
cảm_ kích</w>
_th anh</w>
né _tr
né_tr ánh</w>
ngày_ xưa</w>
m y
l ẹ</w>
thị _vệ</w>
l ụa</w>
khí _
h a</w>
bo ok</w>
́ p</w>
trò _
mã n</w>
ch ọc</w>
bất_ tất</w>
_s ản</w>
đo ạt_
thái_ giám</w>
t an_
s ơ</w>
lộ c_
gm t
cự u</w>
thế _h
đặ t_
s i</w>
thu ý</w>
chỉ _tr
vô_ địch</w>
th ản</w>
nhanh_nh ẹn</w>
v ăng</w>
kỷ _thiên_thiên</w>
f on
báo_th ù</w>
xo a</w>
v án</w>
ka tie</w>
gi ế
dáng_ vẻ</w>
cơ_ bản</w>
n -
m en</w>
kí ch_th
gặp_ mặt</w>
biên_ giới</w>
th ói_
mo n</w>
vỗ _tay</w>
chất_ độc</w>
độ t</w>
qu ỹ</w>
nào_ ngờ</w>
khu ất</w>
ha_h a</w>
ch ạ
tr i
bu ông_
b ầy</w>
hoài_ nghi</w>
è o_
gmt 7
đ è</w>
vô _v
chúng_ mình</w>
đạ t_
tí m</w>
tr ễ</w>
ph ê
k o</w>
t -
o an</w>
n ửa_
hàng_ đầu</w>
_tr ương</w>
nổi_ bật</w>
chu_nhất_ tiên</w>
ăn_ mặc</w>
so_ sánh</w>
i ta
tạ _
thí ch_thú</w>
kho é</w>
g s
ỡ n</w>
3 /2012</w>
_ch ất</w>
m anh</w>
x ứng_
khoảng_ cách</w>
tích _cực</w>
đ ổi_
phá i_
nhà_th ờ</w>
n ầy</w>
h ằng_
quá_kh ứ</w>
năng_l ượng</w>
_h ào</w>
nhỏ _nh
c ăng</w>
a ng
không_ trung</w>
khá nh_
cám_ ơn</w>
âm_ mưu</w>
màn_ hình</w>
ph ượng</w>
ực_ rỡ</w>
r ực_rỡ</w>
ngoại_ giao</w>
hứ ng_th
bình_ nhi</w>
quy ến_
h ân_
hứng_th ú</w>
phủ _
su y</w>
vận_ động</w>
nhà_ khoa_học</w>
hàn_ quốc</w>
ch ằm_
x a
quan_ điểm</w>
ch ấm_
chằm_ ch
ch el
quan_t ài</w>
i i</w>
chỉ _nhược</w>
ale x
h l
đ ao_
tần_ nhi</w>
hiệ n_tượng</w>
d ật</w>
cổn_ long_vương</w>
w i
dư _luận</w>
v ẹn</w>
tốt_ đẹp</w>
n o</w>
m èo</w>
g ào</w>
thay_ vì</w>
năm_ xưa</w>
m_ mê</w>
kh át</w>
k iệm</w>
15 -
đại_ sảnh</w>
qu ý_
hàng_ loạt</w>
trình_ độ</w>
ma u_l
m ỏ</w>
0 8
thế_h ệ</w>
ch ăm</w>
thủ _pháp</w>
mau_l ẹ</w>
tr ượng_
gặp_ gỡ</w>
chiến_l ược</w>
x ế</w>
ngô_tam_ quế</w>
đáp_ án</w>
v áy</w>
giao_ dịch</w>
d âu</w>
thi_ lễ</w>
phổ _
nh u
tự _nh
tổ _
thần_ công</w>
lợi_ ích</w>
d inh_
thương_ mại</w>
mức_ độ</w>
s er
huống_ chi</w>
gi ương</w>
tiện_th iếp</w>
ba ck</w>
hiểu_ biết</w>
d ời</w>
trò_ chuyện</w>
_t ín</w>
tà o_th
k ì</w>
bệ _hạ</w>
vả _lại</w>
tự_nh ủ</w>
tr e
x ót_
ch à</w>
ng ọt</w>
k ý_
gi ở</w>
ðoàn_ dự</w>
bề_ ngoài</w>
tư _tưởng</w>
kêu_ gọi</w>
l iêu</w>
uy ển</w>
sự _thực</w>
d ở</w>
thủ_đ ô</w>
đồ ng_t
thí ch_
_d ĩ</w>
b ẫy</w>
v ững_
2 8</w>
to ạ</w>
thác_ bạt_
r ậm</w>
ẫn_n ộ</w>
ph ẫn_nộ</w>
dự_ kiến</w>
quân_ bình</w>
l iều</w>
ch ốc_
đồng_th anh</w>
nh o_
n_th iệp</w>
minh_ chủ</w>
địa_ bàn</w>
so ạn</w>
lạnh_l ẽo</w>
l ung_
đánh_ bại</w>
đ ôn_
_đ oán</w>
_nh i</w>
và ng_
v ở</w>
k iềm_
v iễn</w>
n_ n
khiế u</w>
công_ nghiệp</w>
n_t ắc</w>
ca n_thiệp</w>
động_t ác</w>
l ợn</w>
cử _
quái_ nhân</w>
v ff</w>
dữ_d ội</w>
chiêu_ thức</w>
ý_ muốn</w>
mu ôn</w>
ỗ ng</w>
th ườ
giế ng</w>
bắc_ kinh</w>
lư u_l
th ắng_
thói_ quen</w>
la m_
n_đ ộ</w>
đoạt_ hồn_
ng ã
m ì</w>
trá ng</w>
phóng_ viên</w>
n_th iên</w>
ấm_ áp</w>
ruộ ng</w>
hạ c</w>
chủ_nh ật</w>
xứng_ đáng</w>
tr ọ</w>
t ủ</w>
p_th ời</w>
b ó</w>
kh anh_
m .
k iệu</w>
ch é
t ử_lăng</w>
l iệt_
ga d
kh âu</w>
hoa _thiên_
_h ồng</w>
nh ắc_
chì a_
đại_ tướng</w>
đi_ nữa</w>
thân_ pháp</w>
le y</w>
tiề m_
nh ấn_
n áo_
kho an</w>
x ao</w>
s ốt_
kha ng_h
độc_ thủ</w>
s ôi_
ng ả</w>
kim_ cương</w>
c ương_
vũ_văn_ hàn_đào</w>
new _
đoạt_hồn_ kỳ</w>
trời_ ơi</w>
th ợ</w>
_s o
kho ăn</w>
biết_ bao</w>
nghĩ _ng
nghĩ_ng ợi</w>
_d ạng</w>
yên_ lặng</w>
mở _mắt</w>
qu ạt</w>
b en
kh iêu_
c ũng_
d im</w>
th ấu</w>
ò_m ò</w>
uy ển_
nh ã
hoa_thiên_ hồng</w>
hi v</w>
cầu_ thang</w>
ngh iên</w>
d a_
/ 201
ờ_m ờ</w>
ng ao_
tr ấ
ấn_đ ộ</w>
quỷ _vương</w>
28 /2</w>
tâm_ trạng</w>
thượ ng_th
kho ẻ_
c l
1 .
u ổng</w>
b ốc_
lo_ sợ</w>
khác_ biệt</w>
khai_ thác</w>
đ iệt</w>
j u
sâu_ sắc</w>
chìa_ khoá</w>
nghĩ _lại</w>
kiềm_ chế</w>
cũng_ nên</w>
b út_
đo àn_
ăn_ khoăn</w>
tiề n_t
li b
s ững</w>
ngô _
b ăn_khoăn</w>
thành_ tích</w>
mộ_dung_ thuỳ</w>
biểu_ hiện</w>
_ch í
3 00</w>
thích _hợp</w>
m ép</w>
lạ i_
si a</w>
s e</w>
nh ượng</w>
n út</w>
ph ảng_
công_ khai</w>
t ò_mò</w>
xa_ x
v ê
phảng_ phất</w>
liên_t uyết_
l ình</w>
chân_ tay</w>
nh ai</w>
kh ái</w>
đ ắm</w>
dương_ thu</w>
_h uyền</w>
á u</w>
ví _dụ</w>
tr út</w>
ph í
sân_ khấu</w>
cảm_ động</w>
p_h ọc</w>
hl v</w>
quy ên_
d ẫu</w>
xấu_ hổ</w>
v iên_
trái_ đất</w>
c ải</w>
thân_ thiết</w>
lý_xuân_ hoa</w>
tiêu_ dao</w>
th ờ</w>
vật_ chất</w>
khang_h y</w>
c ỡ</w>
đầu_ hàng</w>
trung_ bình</w>
thông_ thường</w>
sau_ cùng</w>
ma il</w>
f ran
chống_ đỡ</w>
/ 8</w>
đắc_ ý</w>
văn_ bản</w>
đ ế_
h é</w>
27 /2</w>
uỷ _b
gi ữ
tiếp_ cận</w>
r ạp</w>
_c ố</w>
o ba
chiế u_
ch _vân</w>
uố t_
la ̣i</w>
phát_ huy</w>
bằng_ lòng</w>
đ òi_
tự _t
su ýt</w>
có c</w>
truyền_th ông</w>
nh ậm</w>
gi ờ
phu n</w>
liên_tuyết_ kiều</w>
ưở i</w>
tiêu_ diệt</w>
th ận_
h e
thầ n_t
nói_ nhỏ</w>
g ầy</w>
bách_l ý
trọ ng_thương</w>
s anh</w>
chuộ t</w>
phá o</w>
đ iềm_
ch ê
thình_ lình</w>
g s</w>
khác_ nào</w>
thời_ kỳ</w>
thi_ hành</w>
đòi_ hỏi</w>
ó m_
kị p_thời</w>
hoảng_ sợ</w>
bao_ vây</w>
an ne</w>
triển_ lãm</w>
chỉ_tr ích</w>
bách_lý _băng</w>
_ đạo</w>
v ới</w>
nhận_ định</w>
r ắc_
_l iệt</w>
h ớ
4 5</w>
v ú</w>
thu_ nhập</w>
xu a</w>
rắc_ rối</w>
f er
th cs</w>
x iết</w>
v ó</w>
t ên_
ph iến</w>
hu ỷ
ð ang</w>
thu ở</w>
nh ở</w>
g e</w>
sy ria</w>
_ giải</w>
nh a
lo_ ngại</w>
kh ung</w>
địa_ điểm</w>
v ang_
thủ_t ục</w>
thu ỵ
qua_ lại</w>
khanh_ khách</w>
_th uỷ</w>
tr iết_
triệu_ nhã</w>
thận_ trọng</w>
ơ ̉</w>
nói_ dối</w>
lib ya</w>
_ph ào</w>
ru n_
em_ gái</w>
thở _phào</w>
khổ ng_
d ội</w>
chấm_ dứt</w>
chi_ bằng</w>
đo an</w>
n_t ính</w>
nó c</w>
tr ùng_
duy ên_
- 2008</w>
ng ửi</w>
kí n_
đa m_mê</w>
ử u</w>
v é</w>
dù_ cho</w>
đích_th ân</w>
v iê
u ất</w>
nghiêm_ túc</w>
m in</w>
hã m</w>
fa ce
nông_ dân</w>
đáng_ kể</w>
mỹ _nữ</w>
k ế_t
chú a_
k ê
rối_ loạn</w>
hạ_ sát</w>
gia_ tăng</w>
lý _viên</w>
hoa_ kỳ</w>
đạo_ đức</w>
hảo_ hán</w>
xác_ nhận</w>
s v</w>
n y</w>
hoảng_h ốt</w>
_đ ơn</w>
tu ý</w>
g ọn</w>
b iê
tác_ động</w>
lạ t_
hằng_ sơn</w>
h ối</w>
bần_ đạo</w>
vă n_t
l ầm_
hoà nh_
thá m_
th ề
nh ăn</w>
g ấp_
c ủ</w>
k y
x ót</w>
ru n_r
ngoại_ trừ</w>
n_t ích</w>
đồ _đệ</w>
trường_ học</w>
g p</w>
v ặn</w>
c ong</w>
ệ n</w>
tử u</w>
tổ _hợp</w>
tiết_ kiệm</w>
kh ẩu_
từ_ khoá</w>
đ ấm</w>
hình_ thành</w>
bí _thư</w>
đ iề
r ác</w>
co de
hu ấn_
m uối</w>
biểu_ tình</w>
vu ông</w>
tt tt</w>
_ng ựa</w>
rộng_ rãi</w>
trăm_ năm</w>
2 7</w>
10 50</w>
o sca
đê m_
ð ông_
w o
tươi_ cười</w>
ngư ỡng_
19 8
u r
s ảng</w>
ngh ẹ
tranh_ cãi</w>
khả o_
ý _thức</w>
quá n_
b i</w>
na l</w>
miễn_ cưỡng</w>
to án_
ngo an_
ng_l ĩnh</w>
ng ồi_
huỳ nh_
nghi_ lâm</w>
b tttt</w>
n ắp</w>
th ẩm</w>
g õ</w>
sát_ hại</w>
nhà_th ơ</w>
l ò</w>
tr ắc_
nh ánh</w>
_h ọc</w>
yê n_tĩnh</w>
t_ uni
m u</w>
07 -2008</w>
h ông</w>
coi_ thường</w>
ặt_ dân</w>
th ỉnh</w>
t_uni code
t_unicode _đ
t_unicode_đ ặt_dân</w>
s ấm</w>
ho us
fon t_unicode_đặt_dân</w>
15- 07-2008</w>
mặt_ n
tính_ cách</w>
k g</w>
ca m</w>
người_ nhà</w>
face book</w>
đ ậu_
b ồi</w>
b ùng</w>
ươ m</w>
đ ẻ</w>
ê m_
tr âu</w>
thì_th ầm</w>
k ệ</w>
ươ ́c</w>
mã i_
giải_ trí</w>
bất_ động</w>
_ch ế</w>
thành_ ra</w>
n i_
trời_ đất</w>
_ph ái</w>
p m</w>
mở_m iệng</w>
cưỡng_ chế</w>
200 9</w>
̉ n</w>
nhà_ ngươi</w>
đị ch_vân</w>
sư_ph ạm</w>
qu ấn</w>
v ạ
ngôn_ ngữ</w>
m ò</w>
ch iêm_
ẻ n</w>
thi_ đấu</w>
thiền_ sư</w>
nhú n_
b ành_
run_r ẩy</w>
ng_h ạn</w>
k ý
cử_ chỉ</w>
chẳ ng_hạn</w>
ca r
trị nh</w>
th í</w>
võ _sĩ</w>
tho ại</w>
thương_ hiệu</w>
ph ối</w>
h s</w>
tiểu_ bạch</w>
s -
ng_l ặng</w>
xuất_ bản</w>
ph iệt</w>
a_ ga
đ iê
xo á</w>
đa_ tạ</w>
từ _th
t r</w>
lạt_ ma</w>
0 5
tử_t ế</w>
tr o</w>
c õi</w>
sơ _h
nh ọn</w>
kh ố</w>
tôn_ giáo</w>
kỳ _
trung_ tà</w>
mặt_n ạ</w>
gh ép</w>
ch ai</w>
cao_ minh</w>
người_ lớn</w>
d án</w>
chạ y_
đường_ phố</w>
ch ó
_h ơi</w>
nh an</w>
chel se
_m ãn</w>
sơ_h ở</w>
l ận</w>
è n_
t iện_
phát_ biểu</w>
o g
công_ chức</w>
c ấm_
x u_
ngh ênh</w>
hư _h
gm t</w>
_l e
khoẻ_ mạnh</w>
thuy ền_
qu í
n ướng</w>
k h</w>
gi àu_
d ầu_
c úc</w>
t ơ</w>
g ạch</w>
_h iếp</w>
d àn</w>
_b é</w>
đô _thị</w>
tr ụ
s co
kho an_
tính_ tình</w>
đóng_ góp</w>
ph ỏng_
d iên_
tổng_ số</w>
r ượt</w>
màu_ sắc</w>
thanh_ hoá</w>
nguyễn_ văn_
na l
cộng_ hoà</w>
trình_ diễn</w>
kim_ hoa</w>
dã _c
thư_ viện</w>
l ược</w>
à ng_
phải_ biết</w>
b iên</w>
v ác</w>
tr inh_
số _
alex and
z i
xa_ xa</w>
tr ưng</w>
khôi_ phục</w>
_th ích</w>
y or
thiếu_ soái</w>
t ề
/ 4</w>
th ắc_
phương_ trượng</w>
liễu_ mi</w>
m óng</w>
tập _thể</w>
bạ c_
thuý_ ái</w>
s n</w>
ng u</w>
hy_ sinh</w>
ch ơi_
đo ́</w>
nh o</w>
k ịch
thảm_ hoạ</w>
phát_ sinh</w>
h ấ
con_ cái</w>
tạp_ chí</w>
thúc_ bảo</w>
bắt_ buộc</w>
ð ột</w>
trình_ bày</w>
ụ m</w>
ăn_ nói</w>
ng_l ong</w>
th ép</w>
/0 3/2012</w>
địa_ chỉ</w>
uỷ_b an</w>
mười_ lăm</w>
nhậ n_thức</w>
miễn_ phí</w>
va dim</w>
r ảo</w>
học_ viện</w>
do ạ</w>
quyến_ rũ</w>
ne s</w>
kh éo_
bá_ quang</w>
ý t_
vào_ khoảng</w>
ngu ồn_
hạ _thủ</w>
cảnh_ tượng</w>
bưu_ điện</w>
nh ốt</w>
ngăn_ chặn</w>
hình_ dung</w>
số _phận</w>
buôn_ bán</w>
v ĩ</w>
k ì
5 3</w>
ð ây</w>
tội_ nghiệp</w>
trả _thù</w>
khí _thế</w>
bà _con</w>
tôn_ quách</w>
t ịnh</w>
khiế p_
ch inh_
vô _s
w hi
s ạ
năm_ ngoái</w>
nhà _lãnh_
hiệp_ sĩ</w>
gia_ kỳ</w>
tr ẻ
sinh_ hoạt</w>
qu anh_
phần_ mềm</w>
nhà_lãnh_ đạo</w>
lên_ ngôi</w>
giả m_
_ph ạm</w>
8 /3</w>
khác_ thường</w>
c ẩm_
kiến_ trúc</w>
har ry</w>
ngh e
công_ nhận</w>
tự _hào</w>
s ăn</w>
le s</w>
trạ ng_thái</w>
kh ép</w>
hiể n</w>
d ật_
cơ _hồ</w>
đ ậy</w>
v en
ph ắt</w>
nh ìn_
khu ất_
đại_ biểu</w>
trầm_ trọng</w>
g ần_
châu_ á</w>
quản_ trung_tà</w>
l úa</w>
_ng ại</w>
v ạch</w>
hi_ bạch</w>
tr uy</w>
jo ng-
tư _thế</w>
tôn_ trọng</w>
ðiền_ bá_quang</w>
trang_ phục</w>
thái_ lan</w>
th ắp</w>
ng ộ
khâm_ phục</w>
đào_ gia_kỳ</w>
thắc_ mắc</w>
s h</w>
g ắt</w>
kho m</w>
bu ồm</w>
́ ch</w>
ho ành</w>
bụng_ bảo_
bụng_bảo_ dạ</w>
nh ủ</w>
điều_ hành</w>
giới_ hạn</w>
dư ng</w>
_ph ụ</w>
ra_ chiều</w>
củ i</w>
ô _
la_ sát</w>
tiến_ bộ</w>
li c</w>
cao_ lớn</w>
rung_ động</w>
phong_ cách</w>
đối_ xử</w>
tu ôn</w>
ng ần_
_l ạc</w>
âu_dương_ thống</w>
qu ấy_
chelse a</w>
i -
lu ân_
_th uận</w>
nhấn_ mạnh</w>
k iệt_
cạ nh_
b ể</w>
thu ỳ
th ẻ</w>
phổ_ biến</w>
ng_h ải</w>
n an</w>
hoàng_ cung</w>
bó p</w>
đ ắt</w>
l ùn</w>
đ ă
chằm_ch ằm</w>
ch ọi</w>
vô _hình</w>
ng ự
giấ c_
ð ồng</w>
v â
h ú</w>
công_ bằng</w>
bà y_t
_b iệt</w>
nh ổ</w>
ngập_ ngừng</w>
n ồng_
gi ê
bốn_ mươi</w>
ban_ ngày</w>
đột_ lợi</w>
t ù
ng uyện_
bày_t ỏ</w>
quỳ nh</w>
kh âu_
ra_ đời</w>
la nd</w>
tư _hãn</w>
trí _tu
sở _dĩ</w>
oba ma</w>
ng ẫm_
_đ ông</w>
bất_ chấp</w>
đ ắp</w>
tha_th ứ</w>
th ấp_th
́ nh</w>
s ét</w>
chung_ kết</w>
thiếu_ phụ</w>
m an_
ngẫm_ nghĩ</w>
ông_ bà</w>
na m
n ối_
tình_ cảnh</w>
so phi
công_ dân</w>
chân_ thành</w>
r ộ</w>
m ă
giá ng</w>
g ar
ph ùng</w>
mặt_ mày</w>
hung_ thủ</w>
d iệt_
cát_ tư_hãn</w>
đ ếm</w>
r ét</w>
đề _cập</w>
quái_ dị</w>
ph ước</w>
è _nh
v n
mã _
d òng_
diệ p_
xế p_h
thương_ yêu</w>
lai_ lịch</w>
kh iêm_
b ê
h ân</w>
xo ay_
thừa_ cơ</w>
khẩn_ trương</w>
cho àng</w>
̉ m</w>
thị nh_
_t i</w>
động_ sản</w>
tức_ thì</w>
p v</w>
nhỏ _bé</w>
ng ọt_
nói_ năng</w>
ch ế_t
osca r</w>
cảnh_ báo</w>
điểm_ huyệt</w>
th ù
hồ ng_l
b ra
d iêm_
tủ m_t
tủm_t ỉm</w>
p ro
ướ t_
k ề</w>
cạnh_ tranh</w>
a m
tiên_ lãng</w>
giây_ phút</w>
_đ ường</w>
_t ộc</w>
_ch ung</w>
par is</w>
thời_ tiết</w>
kh ớp</w>
x ảo</w>
quan_ chức</w>
nhà_v ăn</w>
lo u
_h ải</w>
đ ẫm</w>
đ úng_
đội_ ngũ</w>
đa_ số</w>
ga s</w>
cừ u_
xo áy</w>
v en</w>
ngày_ đêm</w>
hài_ nhi</w>
chốc_ lát</w>
b ơ
sư u_
p h</w>
d iêu_
_ng ọc</w>
vận_ chuyển</w>
sơn_ la</w>
rùng_ mình</w>
m àng</w>
ch ê</w>
787 9</w>
t ốc</w>
mới_ đây</w>
l iệng</w>
r iê
co n
bất_ động_sản</w>
̃ n</w>
ð úng</w>
th er
lâu_ nay</w>
r ầu</w>
n ỡ</w>
cả ng</w>
chiến_ trường</w>
tr á</w>
nh úc_
_th i</w>
_chí _minh</w>
th ự</w>
truyền_th ụ</w>
th ận</w>
chúng_ nó</w>
ớ m_
nhúc_ nhích</w>
n ông</w>
mãi_ mãi</w>
hô _h
_ch âu</w>
đê ̉</w>
xem_ chừng</w>
mười_ tám</w>
a_ga mes</w>
đạo_ huyền</w>
qu ảng</w>
kinh_ vũ</w>
kh ơi</w>
hồ _đồ</w>
quê _hương</w>
kh a_
dinh_ dưỡng</w>
bu ồng</w>
thị nh</w>
thư _sinh</w>
o án_
s ập</w>
ri d</w>
ma n
cải_ thiện</w>
_l ương</w>
trang_ bị</w>
g ợi_
d ứt_
_ng ạn</w>
7 0</w>
đ âm_
th ảy</w>
rộng_ lớn</w>
giá ng_
_th ẹn</w>
hồ _chí_minh</w>
cất_ bước</w>
đo á</w>
tho ng_th
thong_th ả</w>
sáng_ rực</w>
lưu_ ý</w>
ồn_ ào</w>
u ân</w>
sức_ lực</w>
độc_ lập</w>
ð ịnh_
kỹ _năng</w>
bộ_ mặt</w>
g ằn</w>
s t
nhắc_ nhở</w>
hầu_ hi_bạch</w>
cười_ cười</w>
5 5</w>
v iễn_
sứ_ giả</w>
phổ _thông</w>
l iều_
cảnh_ giác</w>
đại_ vương</w>
uy _hiếp</w>
thời_ đại</w>
th ập_
năm_ mươi</w>
kinh_ tuấn</w>
kim_ bình_nhi</w>
xe _ngựa</w>
xuân_ thu</w>
tạm_ biệt</w>
_le agu
trí_tu ệ</w>
như ng_
ngo ảnh</w>
tưởng_ chừng</w>
lã o_th
kh iêng</w>
hỗn_ loạn</w>
tĩnh_ chi</w>
phiên_ bản</w>
mê nh_
lo n
is ra
trượng_ phu</w>
l ánh</w>
chu_ cơ</w>
c o_
tr ác</w>
r ập</w>
nghị _quyết</w>
mô _hình</w>
n ến</w>
giải_ phóng</w>
_tu ần</w>
thời_ khắc</w>
nhà _hàng</w>
ng ào</w>
tạ _huyền</w>
l uyệ
lâm_ hồng</w>
ch ấ
ă n_t
trung_ thành</w>
toàn_ cầu</w>
chư a
th iêu_
s to
ủ ng</w>
ệ ch</w>
động_ viên</w>
r ư
m âu_
isra el</w>
l ột</w>
_ quan</w>
đau_ lòng</w>
qu ỉ</w>
n_th ờ</w>
giấc_ ngủ</w>
ỡ i_
g ây_
văn_ học</w>
u_l ong</w>
h ổng</w>
lâm_ kinh_vũ</w>
ch en</w>
4 8
hiế n</w>
trung_ niên</w>
quy_ mô</w>
chưa _thể</w>
/1 2
h òng</w>
to àn_th
h ò</w>
bình_ dương</w>
bài_ học</w>
sophi e</w>
l ót</w>
ch ộp</w>
+ 7</w>
tâm_ trí</w>
ba y_
thê _th
thanh_ toán</w>
se a_games</w>
nh ắn</w>
3 5</w>
ụ t_
vua_ khang_hy</w>
bình_ thản</w>
đối_ đầu</w>
c -
s en</w>
ngh iệt</w>
nam_ nữ</w>
ð ức</w>
r ùa</w>
nh ức</w>
hành_ tinh</w>
da m</w>
ọ ng_
ượ t_
phát_ động</w>
0 4</w>
đồng_ tiền</w>
ng à
h ò
b uộ
ử i_
ki hô
ch át</w>
đại_ thần</w>
th ối</w>
tạ o_
pa u
nhưng_ mà</w>
nh iế
một_ mặt</w>
lông_ mày</w>
/ 7</w>
n úi_
vĩ _đại</w>
tiêu_ dùng</w>
thực_ lực</w>
khuy ên_
ũ a</w>
w il
độc_ đáo</w>
kihô tê</w>
gia_ nhập</w>
th iệu_
kí ch_
k ể
thổ _ti</w>
thúc_ đẩy</w>
khe n_ng
huy _động</w>
v ắng_
ch ốt</w>
đê ́n</w>
khen_ng ợi</w>
ð ó</w>
vụ n</w>
tr ượt</w>
vòng_ tay</w>
e w
chủ _trương</w>
che _
luật_ sư</w>
đ ắng</w>
thuỷ _thủ</w>
phản_ kích</w>
vô_ ích</w>
h ì
dấu_ vết</w>
alexand ra</w>
trái_ lại</w>
tr ọn</w>
t ắc</w>
s ầu</w>
nhận_ lời</w>
mã _đề</w>
hạ m</w>
w indo
nguyễ n_đ
h ă
gian_ lận</w>
căn_ hộ</w>
chúc_ mừng</w>
thiên_ nhiên</w>
t ân</w>
re al
lạc_ nhạn</w>
danh_ tiếng</w>
danh_ hiệu</w>
_h ỏi</w>
tuyệt_ vọng</w>
tho á
luyệ n_tập</w>
hi_ vọng</w>
_ho ại</w>
thuận_ lợi</w>
co m</w>
_ch í</w>
vô_v i</w>
đảng_ viên</w>
thủ ng</w>
sống_ chết</w>
́ m</w>
đ ắc</w>
sa _th
l en</w>
k ẽ</w>
f e
tiền_ bạc</w>
hoàng_h ậu</w>
qu i_
k iêm</w>
g ươm</w>
đấu_ tranh</w>
t ịch</w>
hồi_ hộp</w>
phản_ ánh</w>
hốt_ hoảng</w>
t ít</w>
h ố</w>
chân_ dung</w>
đôn_ kihôtê</w>
quản_ trị</w>
ita lia</w>
công_t ôn_
0 4
t ấc</w>
sho w</w>
hương_ chủ</w>
tự _động</w>
_t ú</w>
_b ích</w>
quảng_ trường</w>
khí_ giới</w>
cổ_ph iếu</w>
âm_ thầm</w>
s ẻ</w>
s ương_
́ u</w>
yếu_ ớt</w>
đạo_ sĩ</w>
thượ ng_t
t ne
new_ yor
m ồi</w>
â y_th
th ưởng_th
i a</w>
cổ _quái</w>
ờ _v
tranh_ chấp</w>
r ủ</w>
phần_ nào</w>
gia_ cát_
d ày_
_đ ương</w>
tỉnh_ táo</w>
windo w
bảo_ ngọc</w>
24 /2</w>
đột_ quyết</w>
tự _chủ</w>
mâu_ thuẫn</w>
h ẻ
diễn_ biến</w>
nh ô</w>
binh_ sĩ</w>
thu_ thập</w>
lịch _sự</w>
khổng_ minh</w>
_m ạ</w>
tiêu_ biểu</w>
mơ _hồ</w>
k ẹt</w>
k m</w>
cổ_ph ần</w>
đại_ hội</w>
thoả _mãn</w>
ngộ _
thoá _mạ</w>
r ước</w>
hiệ n_th
ce lo
bu ôn</w>
an to
n_đ ức</w>
cố t_
thưởng_th ức</w>
t ới_
c òi</w>
o anh</w>
nh ọc</w>
một_ ít</w>
má u_
h ái</w>
b el
ar se
đ úc</w>
tiế u</w>
khẩn_ cấp</w>
cao_ cấp</w>
hạ o</w>
chuyên_ môn</w>
c ục_
huấn_ luyện</w>
b b
_th uộc</w>
cô _đơn</w>
huyề n_t
con_ nhỏ</w>
thảm_ khốc</w>
mặt_ nước</w>
ru s</w>
hớ n_
gi eo</w>
tr ắc</w>
vậ n_t
l á
đ ứng_
ðiền_ ðan</w>
o an_
ngọt_ ngào</w>
nghiê ng_
m ầm_
dặ n_
tào_th áo</w>
th ợ
ph ô
_ph ục_
tâm_ tình</w>
c ối</w>
_th anh_
tại_ chỗ</w>
vương_ quốc</w>
o ai_
_l a</w>
đ o</w>
thiể u</w>
sống_ sót</w>
r áng</w>
khổ _sở</w>
ch ẽ</w>
tiêu_ tiêu</w>
ð àm</w>
_đ ộ</w>
tuyệt_ diệu</w>
m ỡ</w>
kh ất_
ngư ỡng</w>
giải_ cứu</w>
cả n_
l ắp_
k ênh</w>
hồ ng_th
dễ _chịu</w>
vă n_th
thầy_ giáo</w>
lư ỡng</w>
hư _ngạn</w>
_ng uyện</w>
è_nh ẹ</w>
nh è_nhẹ</w>
l ẳ
ch ùm</w>
nhà _t
gần_ g
g áy</w>
thần_th ái</w>
quý _vị</w>
chỉ _điểm</w>
bất_ thường</w>
c ùng_
3 8</w>
v ù
dẫn_ đầu</w>
_l ong</w>
tống_ khuyết</w>
trừ _phi</w>
cao_ điểm</w>
xuất_ phát</w>
x ưởng</w>
vận_ dụng</w>
theo_ đuổi</w>
0 .000</w>
giá c_
b ận_
19 6
đ ậm</w>
trước_ sau</w>
l í
diệ n_tích</w>
chủ _đề</w>
sang_ trọng</w>
l ặn</w>
gi à
ch ặt_
̣ nh</w>
y_ như</w>
vo i</w>
r èm</w>
hạ_l ệnh</w>
g en
chu ỗi</w>
ð ào</w>
s ực</w>
phật_ giáo</w>
b ỉ</w>
s âm</w>
_t ướng</w>
tràn_ đầy</w>
kho ái_
ke r</w>
gần_g ũi</w>
ch inh</w>
_ nhỏ</w>
r ộn</w>
chặt_ chẽ</w>
ch ạp</w>
3 6
đất_ đai</w>
nh uận</w>
_th ịt</w>
2 9</w>
xót_ xa</w>
tương_ đối</w>
g ật_
cổ _h
ch ồn</w>
t ịch
nửa_ đêm</w>
chỉ nh_
bất_ chợt</w>
buồn_ cười</w>
sa n_
l ội</w>
celo na</w>
ư ỡng</w>
đạo_ tử</w>
võ_ nghệ</w>
tr ân</w>
ta ng_
ch iều_
_t ải</w>
_m ad
00 ,000</w>
xu_ hướng</w>
tu ấn_
qu ì</w>
ph ế</w>
độc_ giả</w>
tiểu_ san</w>
sự _cố</w>
trầm_ lạc_nhạn</w>
run_ run</w>
f a</w>
ạ c_
real _mad
n a_
thầy_ trò</w>
h an
ch èo</w>
ai_ ai</w>
ì u</w>
ngh ênh_
hồi_ phục</w>
cảnh_ giới</w>
ca m
đ ẩy_
r u</w>
n ảy_
kiên_ quyết</w>
d iệu_
mất_ tích</w>
lạ m_
giàu_ có</w>
ch ật_
thăm_ dò</w>
_đ ình</w>
_th ừa</w>
tôn_ ân</w>
tiếp_ nhận</w>
thảo_ luận</w>
o ly
biểu_ tượng</w>
tàn_ nhẫn</w>
nh ét</w>
ít_ ra</w>
uy _lực</w>
thê ̉</w>
cứu_ mạng</w>
nh àn</w>
r è
g o</w>
v ầng</w>
bu ồ
nh eo</w>
m_ c
lương_ thực</w>
arse nal</w>
t óm_
phương_ án</w>
l ượn</w>
thuỷ _chung</w>
s ôi</w>
lâu_ dài</w>
độc_ ác</w>
c ẩu</w>
x ê
s u</w>
khâu_ tiểu_san</w>
khuyến_ khích</w>
chu_ đáo</w>
đắc_ tội</w>
đại_ sứ</w>
vô _h
hà_t ĩnh</w>
công_ viên</w>
c ai</w>
t ấu</w>
l éo</w>
vui_ lòng</w>
hoàn_ huyền</w>
_r ơi</w>
vệ _sinh</w>
th ắt</w>
s ớm_
ngo ãn</w>
ma_ tuý</w>
l ách</w>
b è</w>
x í</w>
dương_ hư_ngạn</w>
chiến_ sĩ</w>
cao_ đẳng</w>
tài_ xế</w>
tuy _vậy</w>
oly mpi
g an_
cười_ kh
_tr ung</w>
va len
s ô
phú _
nu ôi_
mầm_ non</w>
mạ ng_
b ần_t
3 4</w>
ng ời</w>
khủng_ bố</w>
v an_
thiên_ địa</w>
k i</w>
đài_ loan</w>
v ái</w>
ra_ sức</w>
r ụng</w>
o f</w>
n ai</w>
tương_ đương</w>
phạm_ vi</w>
n ín</w>
kích_th ích</w>
h iê
đỗ _phục_
v ặt</w>
thá ng_
buồn_ rầu</w>
b ấm</w>
đỗ_phục_ uy</w>
tô lic</w>
thạch_th ất</w>
thoát_ thân</w>
ộ c_
tạ_ nam</w>
phụng_ phi</w>
hớn_ hở</w>
3 1
ỗ i_
thẳ ng_th
n ã
b úa</w>
trợ _
nh ũng</w>
_ch ân</w>
đỏ _b
đỏ_b ừng</w>
ngưỡng_ mộ</w>
mơ _
m c</w>
tướng_ mạo</w>
trò _chơi</w>
quy _t
ng_l ẫy</w>
tiêu_ chuẩn</w>
tr iệ
pho ng_t
mộ_d ung</w>
hào_ kiệt</w>
ngoại_ ngữ</w>
m iêu</w>
hôn_ nhân</w>
784 1</w>
y_th ì</w>
r i</w>
ngo n_
sạ ch_
ngoan_ ngoãn</w>
i phone</w>
hết_ lòng</w>
cổ _
tả _hữu</w>
quyên_ nhi</w>
p_ b
nhún_ vai</w>
đ uốc</w>
n áo</w>
kỷ_l uật</w>
: 4
t ường_
whi tne
tuần_ lễ</w>
h âm_
th ẹn</w>
th ăng_
kiến_ khang</w>
hì _h
cung_ nữ</w>
nh ãn_
n ăng_
sân_ bay</w>
n_l uyện</w>
m ảng</w>
go og
dặn_ dò</w>
cải_ cách</w>
thề m</w>
t ôm</w>
nguyện_ vọng</w>
kh ương</w>
hứ a_
th ắ
c ọp</w>
bắt_ tay</w>
thấp_th oáng</w>
n ốt</w>
kịch _liệt</w>
kín_ đáo</w>
đ ính</w>
t_ miệng</w>
lý_t ưởng</w>
liều_ mạng</w>
tăng_ trưởng</w>
th ối_
lo_ âu</w>
vê ̀</w>
rè n_luyện</w>
ng ất_
cơ_ quan_
real_mad rid</w>
thứ_ sáu</w>
thương_ tâm</w>
như _
hoá _giải</w>
góp_ phần</w>
g ai</w>
thần_ kỳ</w>
phòng_th ủ</w>
m âu</w>
l ư</w>
b ă
đườ ng_h
quá ch_
goog le</w>
tê n_tuổi</w>
giả o_
buộ t_miệng</w>
ỏ m</w>
t ứ_
t ơ
sắc_ bén</w>
hàng_ hoá</w>
_l ý</w>
nóng_ nảy</w>
ng ưu</w>
hous ton</w>
cản_ trở</w>
động_t ĩnh</w>
xuất_ khẩu</w>
l ảo_
dễ _thương</w>
đ àm</w>
tr ạch</w>
triệu_ minh</w>
thá ch_thức</w>
mai_ phục</w>
la y_
bé _nhỏ</w>
new s
to à_
cổ_h ọng</w>
ngày_ trước</w>
nghĩa_ phụ</w>
lảo_ đảo</w>
kh ước_
ð ược</w>
tiểu_ thuyết</w>
sạch_ sẽ</w>
nh ược</w>
kỹ _sư</w>
hỏi_ thăm</w>
d s</w>
_ph ú</w>
đạ c</w>
mênh_ mông</w>
chu_ thiên</w>
b àng</w>
trưởng_ thành</w>
diễ m</w>
mu ôn_
v ò</w>
nh ung</w>
mềm_ mại</w>
b iện</w>
lon don</w>
triệu_ mẫn</w>
nói_ chung</w>
bần_t ăng</w>
ti a_
thất_ kinh</w>
ph ất_
đ ục</w>
r ỉ</w>
qu ật</w>
nh am</w>
k ề
bả n_đồ</w>
p .
l l
g ợi</w>
bình_ yên</w>
b uốt</w>
y ể
s ti
cố _tình</w>
đổi_ mới</w>
tự u</w>
thuốc_ lá</w>
sáng_ mai</w>
chú t_
b ặt</w>
_tu ổi</w>
̣ u</w>
tràn_ ngập</w>
tr ù
n_đ oán</w>
thác_bạt_ khuê</w>
ngọc_ sơn</w>
da _thịt</w>
c ợt</w>
c .</w>
xuất_ thân</w>
ph iêu_
ngh èo_
bảo_ tàng</w>
_x ét</w>
tối_ đa</w>
mất_ mạng</w>
mi lan</w>
_c ao</w>
x ứng</w>
phỏng_ vấn</w>
hay_ biết</w>
787 1</w>
ăn_ n
ph àm_
ng ton</w>
m ị
kỷ_l ục</w>
tr iệt_
s ăn_
qua y_
nhỏ _tuổi</w>
hoa _th
_h à</w>
va ̀o</w>
tôn_ bất_
môn_ hạ</w>
l ị
ấp_ úng</w>
nh ăn_
chủ_nh iệm</w>
ch ữa_
ð iền</w>
đồ ng_h
xa_ lạ</w>
tr ì
ng ừa</w>
_th í</w>
_m an</w>
v a_
new_yor k</w>
gr ay</w>
th ấm</w>
m ốt</w>
m ập</w>
jong- il</w>
ch ói</w>
3 6</w>
trí _
toán_ học</w>
t ụng</w>
chu ồn</w>
_t ích</w>
ở m</w>
ẫn_n ại</w>
vô_l ễ</w>
tr ải_
tha ng_
s ưa</w>
nh ững_
nh ẫn_nại</w>
thiên_th ần</w>
phương_ thức</w>
le r</w>
hành_ sự</w>
tho ái_
giang_ nam</w>
cam_ kết</w>
đại_ tá</w>
đại_ lý</w>
thu ậ
con_ cháu</w>
ợ t_
tên_ lửa</w>
tr à
b ẻ</w>
ð ạo</w>
l ò
ha m</w>
c s
k em</w>
đạo_ diễn</w>
pha ̉i</w>
linh_ hồn</w>
tr uy_
tinh_ tú</w>
nhà _cửa</w>
n âng_
ba r</w>
ra_ mặt</w>
g ắng_
toàn_ diện</w>
p re
c ần_
ề n_t
bất_ kể</w>
ch ổ</w>
_n ạn</w>
ủ i_
trá nh_
trung_ hoa</w>
n ặc</w>
tr ật_
sự _tình</w>
nh ĩ
c ài</w>
_t ập</w>
ta gs
sai_ phạm</w>
quý _phái</w>
_c ương</w>
thái_ bình</w>
quá _
kỳ_d iệu</w>
khá t_
hy_ bạch</w>
a u
x ư
không_ lẽ</w>
d iện_
vùng_ đất</w>
pe ter</w>
h c
cửu_ chỉ</w>
trải_ nghiệm</w>
iễ m</w>
3 8
nguyê n_tắc</w>
t ăm</w>
nhảy_ vọt</w>
m ẻ</w>
khó c_
ban_ đêm</w>
tôn_bất_ tà</w>
t b
b ọt</w>
_c ung</w>
đạt_ chí</w>
toàn_ cảnh</w>
thê_th ảm</w>
s z
l óc</w>
càn_ khôn</w>
bất_ hạnh</w>
tố _cáo</w>
no m</w>
ng_ d
ho án</w>
bù n</w>
_ng uyệt</w>
l é
khủng_ hoảng</w>
hiệ u_l
vi rus</w>
uy _tín</w>
nhà_ đầu_tư</w>
cư u_
đường_h ầm</w>
kh ả</w>
y .
lo áng</w>
h ao</w>
g ấu</w>
d ài_
c la
ng ói</w>
_c ôi</w>
căn_ bệnh</w>
r ắc</w>
phục_ hồi</w>
o acute</w>
ma u_
cho ạng</w>
thái_ sư</w>
mồ _côi</w>
chuyên_ nghiệp</w>
nóng_ bỏng</w>
n_n ản</w>
joh n</w>
chá n_nản</w>
x u</w>
tú m</w>
thoả _thuận</w>
l ỏng</w>
bức_ bách</w>
đích_th ực</w>
qu ất</w>
lễ _hội</w>
bằng_ chứng</w>
3 3</w>
ố p</w>
x ả</w>
tình_ nguyện</w>
sát_ khí</w>
m in
lôi_ cửu_chỉ</w>
vương_ tử</w>
tiểu_ trừng</w>
h ỉ</w>
du_ khách</w>
bắt_ giữ</w>
ă n_th
tiễ n_
ng_l ợi</w>
bỏ _rơi</w>
whitne y_
k ế
trắc_ nghiệm</w>
trật_ tự</w>
m 2</w>
th ụ
phát_ hành</w>
n ộ</w>
n ếp</w>
kết_ hôn</w>
phi_ thân</w>
kí p</w>
khéo_ léo</w>
đại_ quân</w>
vào_ cuộc</w>
trị _giá</w>
o à</w>
ga y_
dày_ đặc</w>
ca y_
đề u_
x an
th ục_
quy_ chế</w>
ngữ _văn</w>
n  
mã _số</w>
kiếm_ thuật</w>
a n_th
thị _
th ù_
t ý</w>
trương_ thuý_sơn</w>
thương_ lượng</w>
t ệ
giai_ nhân</w>
d ồn_
h uố
kh ất</w>
hoàng_ tử</w>
ườ m</w>
thắng_ bại</w>
huy ền_th
whitney_ houston</w>
những_ ai</w>
nhẹ_nh õm</w>
long_ dương</w>
27 30
for d</w>
đồng_ nghiệp</w>
s p
nh àn_
cuồng_ sinh</w>
c ống</w>
bộ c_
b ướ
s ùng_
ghi_ nhận</w>
lẳ ng_lặng</w>
la ̀m</w>
dũng_ cảm</w>
đạo_ lý</w>
n iên_
cá ch
ch ậu</w>
đêm_ tối</w>
x ôn_
ng_t ai</w>
huố ng_hồ</w>
bạo_ lực</w>
b ời</w>
2 ,
vũ_văn_ hoá
thất_ thanh</w>
phụ _
ng_t âm</w>
khiếp_ sợ</w>
b ồng</w>
đ iếu</w>
b ẩn</w>
ễ n</w>
vận_ khí</w>
trác_ cuồng_sinh</w>
th ìn</w>
t te</w>
giảng_ dạy</w>
ử _
động_ cơ</w>
tung_ sơn</w>
lẽ _ra</w>
ưu_ tiên</w>
trá t_
th ằng_
s ầm</w>
mo n
hành_ chính</w>
e circ</w>
cơ _chế</w>
c uống</w>
x à
thê _lương</w>
t ăng_th
mệnh_ lệnh</w>
tự _tử</w>
s sa
ho ạn</w>
giới_ tính</w>
cu ồn_
788 9</w>
ng ẫu_
ng  
lớ p_học</w>
cuồn_ cuộn</w>
viet nam
ng ạt</w>
kỳ_d ao</w>
hội_ thảo</w>
g ò</w>
ca_ khúc</w>
bức_ xúc</w>
ban_ nha</w>
: 5
w or
nhiệt_ độ</w>
nh ì</w>
ngọc_ nghiên</w>
_c ốc</w>
trầm_ mặc</w>
o m</w>
l ấp</w>
hầu_ hy_bạch</w>
hành_ hạ</w>
hàng_ xóm</w>
gh ế_
r ỗng</w>
qu e</w>
ng_th anh</w>
lạ p</w>
cấp_ cứu</w>
bấy_ nhiêu</w>
tụ _tập</w>
b ú
a l</w>
qu ăng</w>
ng_th ẳng</w>
ng_th ang</w>
k ẹo</w>
giảng_ viên</w>
bộ t_
_d ung</w>
uy ên_
tây_ ban_nha</w>
thắ ng_lợi</w>
quốc_ phòng</w>
gi ết_
xấu_ xa</w>
trịnh_ khắc_
quỳ nh_
quản_ gia</w>
đ ăm_
th uyên</w>
đại_ sự</w>
ngã _hành</w>
n_th u
lê _văn_
giả n_
xe _hơi</w>
sinh_ nhật</w>
mộ ng_
khả_ đạt_chí</w>
ca ́c</w>
anh_ chị</w>
_ng ọc_
s ter
ngũ _
g ra
bộ _dạng</w>
22 /2</w>
ma o_th
khuy ết_
hàm_ dương</w>
xôn_ xao</w>
sa o_
n_l inh_
la n
k ìm</w>
cứ _việc</w>
bởi_ vậy</w>
bạ ch_l
ai_ cập</w>
_d âu</w>
ước_ mơ</w>
lòng_ dạ</w>
l in</w>
g ù</w>
tham_ nhũng</w>
n ếm</w>
đ ê</w>
tổ ng_hợp</w>
nhậm_ ngã_hành</w>
n ê
khảo_ sát</w>
_l ôi</w>
ù a_
áo_ quần</w>
ng ắ
l anh_
e u
no ́i</w>
hi u</w>
coi_ trọng</w>
chậm_ chạp</w>
ng er</w>
n âu</w>
kh ải</w>
bộ c</w>
p lu
_b ỏ</w>
9 0</w>
tranh_ thủ</w>
te n
r ạng_
nguồn_ gốc</w>
21 /2</w>
y ế
người_ mẫu</w>
b ầm</w>
tình_ cờ</w>
m ạ</w>
ð ến</w>
áo_ dài</w>
xoay_ chuyển</w>
thâm_ hậu</w>
nhân_ nghĩa</w>
m òn</w>
diễ m_
âu_dương_ phong</w>
tu ng_t
ngạ i_
m ắc_
hì_h ì</w>
viet nam</w>
t án_
t v
ng ơ</w>
là nh_
liên_ kết</w>
l ăn_
4 00</w>
đỗ _thiên_
tư _d
g õ
hổ _thẹn</w>
hành_ tung</w>
đặt_ chân</w>
tôn_ giả</w>
toà_ án</w>
to é</w>
th ây</w>
ngắ n_ng
gh ê</w>
kính_ trọng</w>
t óm</w>
si mon</w>
cu ̃ng</w>
b ậy</w>
đè n_
tập_ kích</w>
trịnh_khắc_ sảng</w>
tr ảo</w>
th êu</w>
lỗ i_
cầm_ thanh</w>
coi_ chừng</w>
chế_t ạo</w>
trực_ tuyến</w>
thẳng_th ắn</w>
t ản</w>
s úc_
ð ình_
c âm</w>
đề _tài</w>
kể _ra</w>
ch ước</w>
5 %</w>
3 4
đỗ_thiên_ ngạc</w>
xâm_ nhập</w>
tô _như</w>
ng ọ</w>
hu ấn</w>
chuy ền</w>
bàn_ bạc</w>
b ùng_
thầy_ cô</w>
thằng_ cha</w>
thân_ mật</w>
ch_th ủ</w>
bar celona</w>
phong_ trào</w>
n_đ ồn</w>
ki a_
hô_h ấp</w>
ban_ hành</w>
đột_ biến</w>
ð ổ
tia_ sáng</w>
hâm_ mộ</w>
chỉ _thị</w>
v ạt</w>
my sz
m ị</w>
dương_ công_
â ̣n</w>
tr ọc</w>
tr ư
chu ồng</w>
tr ục</w>
nhà_ báo</w>
e u</w>
chủ _trì</w>
v én</w>
m ớ</w>
l d
chủ _ý</w>
a t
t .</w>
h n</w>
_ định</w>
tr ơ</w>
toàn_th ể</w>
bực_ mình</w>
ập_ bát</w>
w al
s ảnh_
hoa_ hậu</w>
ả m_
d inh</w>
cơ_quan_ chức_năng</w>
b ừa</w>
_t o
20 /2</w>
mysz ka</w>
m_ đ
m iễn</w>
hù ng_h
h ưởng_
gad ha
g ả</w>
r an</w>
bỗng_ dưng</w>
nh ũ
công_ lập</w>
_c ửu</w>
t ồn</w>
t ồi_
t ánh</w>
d iệp</w>
trộ n</w>
l ờ_mờ</w>
chuy ê
chiến_ dịch</w>
ban k
_đ ốc</w>
đả o_
nhiễ u</w>
đầu_ gối</w>
tay_ mặt</w>
ngọc_ trí</w>
là o</w>
i d</w>
chắc_ hẳn</w>
ce s</w>
xo ng_
valen ti
gi ó
d ỗ</w>
đâ ̀u</w>
te en</w>
m ỗi_
kinh_ khủng</w>
ch uộc</w>
m ừ
lơ _l
lã i_
hoan_ hô</w>
g ầy_
bà_ già</w>
b ội_
đà o_th
sảnh_ đường</w>
nhà _tr
ðo ạn</w>
vô _dụng</w>
g ởi</w>
điên_ cuồng</w>
tr uỷ</w>
kỵ _binh</w>
cl b</w>
a_s ĩ
vào_ vai</w>
u 23</w>
phấn_ khởi</w>
bất_ lực</w>
bất_ lợi</w>
th ừ
ng_t ác</w>
lợi_ nhuận</w>
gõ _cửa</w>
giá _
gadha fi</w>
xa_x ôi</w>
s si
quy_ hoạch</w>
mộ_dung_ chiến</w>
d ao_
chu_ chỉ_nhược</w>
ch ì</w>
bao_ trùm</w>
ng ụm</w>
tuyệt_ kỹ</w>
qu ầy</w>
nà n</w>
ngân_ sách</w>
kích_ động</w>
cao_ nhân</w>
0 1</w>
quái_ vật</w>
nu de</w>
nghiêm_ nghị</w>
l a_h
hải_ quân</w>
chữ _
chung_ cư</w>
bất_ đắc_
/1 1
ọ n_l
n ức_
h èn_
gh e
_t ự</w>
ầm_ ầm</w>
ng ó
n ồi</w>
dược_ vương</w>
ti n_đồn</w>
ther ine</w>
nghẹ n_ng
nghẹn_ng ào</w>
n_th ưởng</w>
lãi_ suất</w>
v an
danh_ dự</w>
9 9
định_ thần</w>
xét_ nghiệm</w>
trợ_ giúp</w>
hoàng_h ôn</w>
b ét</w>
bận_ rộn</w>
đâu_ đó</w>
lã i</w>
len t</w>
l ồng</w>
kị ch_
gia n_t
gia m_
_h ằng</w>
đầu_ ra</w>
m ỏi</w>
k iê
đau_ đầu</w>
tả _lãnh_
s út</w>
gd -
công_ kích</w>
đ ư
vợ _con</w>
thạch_th anh_
sĩ _quan</w>
nhiễ m_
khe _kh
dương_ châu</w>
chức_ vụ</w>
chính_ đạo</w>
mỗi_ một</w>
mao_th ập_bát</w>
b úng</w>
điề n_linh_
rượ u_
_tr ữ</w>
_m ục</w>
ử u_
đô ̀ng</w>
tả_lãnh_ thiền</w>
n úp</w>
làm_ vậy</w>
giấ y_t
dự _đoán</w>
đông_ đảo</w>
hùng_ vương</w>
giấy_t ờ</w>
2 -
th an_
si nga
ou l</w>
lượ m</w>
gi ãn</w>
cân_ nhắc</w>
chì a</w>
c ẩm</w>
c u</w>
b ẩm_
ố ng_h
đón_ tiếp</w>
điền_linh_ nhi</w>
u ất_
t áng</w>
quan_ niệm</w>
lão_th ân</w>
lãng_ mạn</w>
r ỗi</w>
h ệt</w>
bắt_ gặp</w>
ð ông</w>
z u
x ăng_
to ria</w>
n n</w>
chinh_ phục</w>
tam_ lại_
lo ạng_
hình_ sự</w>
h y
b ắp</w>
xe_ đạp</w>
tú _tú</w>
r ủa</w>
m en
k ẹp</w>
cô _dâu</w>
c p</w>
ð ức_
thạch_thanh_ tuyền</w>
o li
đ ọng</w>
thảo_ nguyên</w>
cư _dân</w>
động_ đậy</w>
v áng</w>
t anh</w>
r y_
por e</w>
tiểu_ bàn</w>
su ýt_
ch ửi_
biệt_ thự</w>
d ải</w>
d an
che _ch
đô -
ít_ nhiều</w>
vi e</w>
ta lent</w>
o a</w>
cưu_ ma_
xuống_ nước</w>
trọng_ đại</w>
thư _phòng</w>
thuốc_ độc</w>
tam_lại_ tử</w>
sắp_ đặt</w>
ngắn_ng ủi</w>
ký_ ức</w>
kh ê</w>
bóng_ dáng</w>
bình_ luận</w>
đại_ chiến</w>
s mar
kh ẩn</w>
cận_ nam</w>
_h ậu</w>
đ ật</w>
ma ̀</w>
gh en</w>
f t</w>
ban k</w>
_đ iển</w>
u ông_
người_ bệnh</w>
mấy_ chốc</w>
f an</w>
do_ vậy</w>
c õng</w>
thái_ dương</w>
r ợn</w>
quỷ _
can_ đảm</w>
_th u
tín_ hiệu</w>
ng ư</w>
cấu_ trúc</w>
_l ĩnh</w>
200 ,000</w>
ý _chí</w>
th âu</w>
in ter</w>
hình_ dáng</w>
bộ_ đội</w>
nh ói</w>
mo u
thá o_
gi ở
đ ắn</w>
thanh_ thành</w>
c úng</w>
singa pore</w>
n ấu_
khoan_ khoái</w>
chân_ chính</w>
_đ àm</w>
_d iệt</w>
ự u</w>
ẽ n</w>
điện_ ảnh</w>
hành_ khách</w>
h ẹ
cục_ diện</w>
a i
đồ _chơi</w>
tú i_
th ố
loạng_ choạng</w>
kiế n_thành</w>
dương_ tiêu</w>
tr ẻo</w>
linh_ hoạt</w>
4 7
ĩ u</w>
dư ỡng_
19 4</w>
tuỳ_t iện</w>
mặt_ khác</w>
bộ _lạc</w>
biết_ điều</w>
5 7
ụ p_
tr ai_
ng_th ầm</w>
lo ng_l
dự_ định</w>
ph ồng</w>
buông_ tha</w>
xăng_ dầu</w>
xung_ đột</w>
triệu_ chứng</w>
ngh ề_
l ã</w>
từ_b ỏ</w>
r ơ
lật_ đật</w>
hoà n_độ</w>
3 1</w>
201 1-
tổng_ giám_đốc</w>
tính_ chất</w>
_h iệu</w>
li a_
kh ung_
cưu_ma_ trí</w>
r ống</w>
nghề_ nghiệp</w>
hấ p_t
ấ n_t
v ẳng</w>
tranh_ luận</w>
sưu_ tập</w>
bầu_ không_khí</w>
/ 6</w>
ngẫu_ nhiên</w>
ng ãi</w>
l ẻn</w>
hương_ ngọc_sơn</w>
biê ́t</w>
truy _t
s ủa</w>
ngu_ ngốc</w>
g i</w>
doanh_ nhân</w>
_h ồn</w>
ỉ _
vô _danh</w>
say_ mê</w>
học_ phí</w>
dị _thường</w>
đế_ đế</w>
nổi_ dậy</w>
mau_ chóng</w>
giáng_ sinh</w>
cho áng_
_ph út</w>
ươ ̀ng</w>
â ̣t</w>
ta xi</w>
lư ỡ
kh iêm</w>
hộ _t
giờ _phút</w>
b ửu_
ð ồng_
kết_ nối</w>
chủ ng</w>
bất_ đồng</w>
vietnam net</w>
nông_ nghiệp</w>
ngh iện</w>
khe_kh ẽ</w>
hiệ t_
bí _quyết</w>
201 9
tài_ trí</w>
lời_ lẽ</w>
h ột</w>
_th ảo</w>
ợ m</w>
động_t âm</w>
tu_ hành</w>
k ar
ca i_
a us
đồ_ đạc</w>
tế_ bào</w>
sương_ mù</w>
m ốc</w>
iề u_l
g ắ
x ắn</w>
mừ ng_thầm</w>
lo n</w>
li ne</w>
huyền_ ðức</w>
trừng_ phạt</w>
go et
gd- đt</w>
ch ao</w>
cao_ tăng</w>
c út</w>
y ết_
nghiêm_ khắc</w>
la ng_thang</w>
h ụt</w>
c ắt_
bắt_ cóc</w>
b ồ</w>
điều_ động</w>
ng ây_
g rave</w>
8 8
3 ,
v ắt</w>
tống_ đại_nhân</w>
tiền_ lương</w>
nổi_ danh</w>
f f
ch ă
an_ long</w>
đị ch_thủ</w>
tội_ phạm</w>
r ầm_
hưng_ phấn</w>
cao_ hứng</w>
bi_ phong</w>
thiên_th iên</w>
h ươ
bảo_ hiểm</w>
anh_ tuấn</w>
tư_d uy</w>
sa_ mạc</w>
r ên_
nh ựa</w>
c ằm</w>
16 /2</w>
đ ế
tr ơ
s ói</w>
dứt_ khoát</w>
e t</w>
phản_ bội</w>
ph ổi</w>
na ̀y</w>
ch ọn_l
_nh ớ</w>
é p_
rạng_ rỡ</w>
phù _
lơ_l ửng</w>
cro ss</w>
chậm_ trễ</w>
văn_ minh</w>
vi t
tuyệt_ thế</w>
ngữ _
hiệt_ lợi</w>
window s</w>
hà_t ất</w>
dữ _liệu</w>
thời_ cơ</w>
kia_ mà</w>
hấp_t ấp</w>
_m ôn</w>
tội_ lỗi</w>
nam_ tử</w>
n_b ó</w>
hoàng_ gia</w>
gắ n_bó</w>
e mail</w>
̀ a</w>
e o_
x ổ</w>
ngh iền</w>
ng_t ín</w>
ng ần</w>
dân_ chủ</w>
ch áo</w>
3 7</w>
10 0,000</w>
vui_ sướng</w>
tham_ quan</w>
l ân</w>
3 5
gia_ luật_
_x ác</w>
xấu_ xí</w>
mặc_ dầu</w>
4 6
26 /2</w>
thành_ tựu</w>
suýt_ nữa</w>
tuy ên</w>
ke ng</w>
củ a_
bất_ bình</w>
xan tr
triệu_ chi</w>
hôn_ mê</w>
gi ỡn</w>
bản_ chất</w>
o i</w>
chu a_
thích_ khách</w>
sa n
kinh_ điển</w>
ướ n</w>
vương_ phủ</w>
pau l</w>
tai_ hoạ</w>
sáng_ suốt</w>
d âm_
ta_ đây</w>
_h ại</w>
đồng_ bào</w>
wa shi
tống_ bi_phong</w>
lu ỵ</w>
_l y</w>
15 0</w>
đo an_
trang_ trí</w>
thực_ hư</w>
nho_ nhỏ</w>
m ồng</w>
_ho ả</w>
tối_ cao</w>
sá ch
n ể</w>
bất_đắc_ dĩ</w>
pháp_ bảo</w>
hoà n_t
tậ p_l
phương_ hướng</w>
nho áng</w>
mẫ n_
đ iển_
vũ _văn</w>
tuổi_ trẻ</w>
thần_ kinh</w>
quân_ sĩ</w>
m ô_t
lý_ nguyên_
làm_ phiền</w>
tránh_ né</w>
sa_th ải</w>
s óng_
phòng_ bị</w>
ám_ ảnh</w>
tập_l uyện</w>
thống_ kê</w>
h eo</w>
c n</w>
b e</w>
trá ng_
nhạc_ sĩ</w>
b ri
náo_ nhiệt</w>
nhan_ sắc</w>
ăn_ mày</w>
vị t</w>
la nd
hiện_ diện</w>
c ay</w>
thố ng_lĩnh</w>
phạm_ tội</w>
nhạ y_
ng ửng</w>
hầu_ hạ</w>
a _thế</w>
khắc_ phục</w>
v ượt_
nảy_ sinh</w>
nông_ thôn</w>
n ứt</w>
khoa_học_ tự_nhiên</w>
kh ang_
h er
tình_ báo</w>
trúc_ phong</w>
tiền_t ệ</w>
rõ_r ệt</w>
hu ệ
_v ọng</w>
t úc_
quân_ tử</w>
qu i</w>
kiên_ nhẫn</w>
đồ_ ăn</w>
thủ _
nh iê
minh_ hoạ</w>
lấp_l oáng</w>
l ẻ</w>
hứ a_sĩ
vòng_ quanh</w>
tư _nhân</w>
trung_ nguyệt</w>
n_th iện</w>
n_ vẹn</w>
khiế t</w>
hứa_sĩ _công</w>
hạ _h
bá n_đ
đ ùa_
ð ã</w>
we b</w>
ste vie</w>
phi li
nh ục_
h ê
b ẩy</w>
1 /2012</w>
đặ n</w>
uộ m</w>
nhiệt_ tình</w>
l ay</w>
công_ lao</w>
ỡ _ng
z a
m ô_tô</w>
hưởng_ ứng</w>
a dam</w>
5 6
/12 /2011</w>
ss i</w>
ng_l ực</w>
hứ a_h
́ o</w>
một_ tí</w>
cà ng_
_đ ài</w>
giê ng</w>
cơ m_
ướ i_
đ ùng</w>
thủ ng_thẳng</w>
tho ái</w>
hào_ quang</w>
23 /2</w>
tạ ng</w>
thanh_ thế</w>
chẳng_ mấy_chốc</w>
ch iê
tổ n</w>
_l ợi</w>
võ _đương</w>
trung_ học</w>
ng_h ô</w>
v ắ
r ể</w>
giám_ thị</w>
cộng_ sản</w>
công_ văn</w>
x ô
hiếu_ kỳ</w>
g ấm</w>
doanh_ trại</w>
bàn_ chân</w>
đối_ địch</w>
viện_ trợ</w>
trúng_ tuyển</w>
thử _th
thử_th ách</w>
ste ve
m âm</w>
784 3</w>
đ ẽ</w>
tâm_ linh</w>
sử _
r ọi</w>
xe _tải</w>
l ắp</w>
k ẻo</w>
hư u</w>
c âu_l
trang_ điểm</w>
nhũ n</w>
thầ y_th
th ấy</w>
ph iêu</w>
ng_h à</w>
thiên_t ôn</w>
r ên</w>
long_l anh</w>
_t uyệt</w>
„ ta</w>
ậ n_th
tự _th
t ấp</w>
ph ơi</w>
ni_ cô</w>
0 3
   
r ảnh</w>
ph ẳng</w>
hẻ m</w>
bu ýt</w>
_huy ết</w>
v ấ
bình_ nguyên</w>
_l inh</w>
: 00</w>
ư _thư</w>
tiế ng_t
tiếng_t ăm</w>
t ải</w>
khúc_ khích</w>
f u
a se
tự_ sát</w>
tối_ qua</w>
nương_ nương</w>
l ao_
gi ống_h
trần_ cận_nam</w>
ph út_
mặt_ trăng</w>
chống_ cự</w>
ch âm_
ngọc_ chân</w>
cần_th ơ</w>
cấp_ bách</w>
c ker</w>
vit toria</w>
tự _x
o circ</w>
ni a</w>
nh ấn</w>
mù _m
x éo</w>
tống_ kha</w>
r úng_
giống_h ệt</w>
nam_ giới</w>
đẩy_ mạnh</w>
ðo àn</w>
tố p</w>
thê ́</w>
thành_ phần</w>
rư ỡi</w>
phong_ phú</w>
nữ _hoàng</w>
h đ
b ền_
đôi_ chút</w>
t u_l
mpi on
m ao</w>
̃ a</w>
v ùi</w>
tin_ cậy</w>
say_ sưa</w>
thư_ ký</w>
mu ô
hoà n_thiện</w>
bực_ bội</w>
_th ống</w>
ng ùng</w>
kháng_ cự</w>
kh ối_
d en
chân_ trời</w>
_ k
đẹp_ đẽ</w>
v uốt_
rúng_ động</w>
ph im_
kiến_ nghị</w>
hiế p</w>
t ụt</w>
lo a</w>
dồn_ dập</w>
cảnh_ cáo</w>
_l ạnh</w>
tử u_
phá o_
nhập_ khẩu</w>
em_ trai</w>
công_ cụ</w>
phi_ cơ</w>
ka therine</w>
biến_ cố</w>
quyền_ lợi</w>
ng ượng_
làm_ nên</w>
y ếm</w>
v an</w>
smar t
o l</w>
đè n_đ
ðồng_ mỗ</w>
lộ n_
huyề n_thoại</w>
d iêu</w>
động_ vật</w>
õ i_
thứ _trưởng</w>
sư ̣</w>
ch ạm_
vòng_ tròn</w>
v .
trụ _sở</w>
quyết_ liệt</w>
hàng_ rào</w>
vận_t ải</w>
văn_ đế_đế</w>
tuyển_ dụng</w>
tr ú
thanh_ danh</w>
tam_ phong</w>
mô_t ả</w>
l ựa</w>
go t_
giữ _g
giữ_g ìn</w>
tu ệ
t ột_
ri ch
m iêu_
ghi_ nhớ</w>
biế c</w>
_ph ép</w>
để _tâm</w>
thể _d
thầy_th uốc</w>
thi ̀</w>
sá ng_l
nh ược_
ngao_ bái</w>
đào_ tẩu</w>
y_th áng</w>
tiêu_ cực</w>
th iêu</w>
nội_ bộ</w>
nh ấp_
nguyệt_ ðàm</w>
d iệm</w>
bái_ kiến</w>
cây_ cối</w>
bao_ phủ</w>
ề nh</w>
đ an_
vật_ lý</w>
v òm</w>
sinh_ sống</w>
l ứa</w>
co l
790 1</w>
xế p_
vòng_ vây</w>
thông_ cảm</w>
3 /
tiểu_ quyên</w>
thiệt_ mạng</w>
ho i</w>
d uyệt</w>
a f
đ ấ
thần_t ình</w>
th ải</w>
s úc</w>
phủ_ nhận</w>
dự _trữ</w>
ca_ nhạc</w>
đ àng</w>
tóm_ lại</w>
khốn_ khổ</w>
hân_ hoan</w>
đình_ chỉ</w>
trọng_t ài</w>
r òng</w>
h ơi_
tr u_
thần_ tiên</w>
qu ẩn</w>
ng ao</w>
lý _l
càng_ ngày_càng</w>
bàn_t án</w>
ơ ̀</w>
đồng_ loạt</w>
v iễ
tự_x ưng</w>
tối_ thiểu</w>
tung_t ích</w>
trúng_ độc</w>
n_th ất</w>
lâu_ đài</w>
ew a</w>
bình_ an</w>
thủ _lĩnh</w>
th ọ
ro nal
gi ã</w>
b ành</w>
25 /2</w>
/0 4</w>
đá ng_lẽ</w>
ú y</w>
song_ song</w>
bắt_ chước</w>
̣ y</w>
tiêu_ nguyệt_ðàm</w>
r t</w>
vũ_văn_hoá _cập</w>
sốt_ ruột</w>
m p
ch uyện_
thu ần_
l ừ
e s</w>
d ỗi</w>
thử _nghiệm</w>
phấn_ chấn</w>
kh ốn</w>
hàm_ răng</w>
got_ talent</w>
đ ỉnh_
nh ơn</w>
lay_ động</w>
ự t</w>
tuyên_ truyền</w>
nhìn_ nhận</w>
n ẩy</w>
lý_t ịnh</w>
ð ổng</w>
truyền_th uyết</w>
n ang</w>
con_ mẹ</w>
canh_ gác</w>
anh_ kiệt</w>
ả _r
ăn_ cắp</w>
vô_l ượng</w>
u p</w>
sứ_ quán</w>
hà _th
chư _vị</w>
c ưng</w>
c õi_
độ n</w>
đánh_ bạc</w>
đ iêu</w>
ă ng
ph ượng_
n ăn_n
n ã</w>
h ơ
cân_ bằng</w>
_tr i</w>
ám_ sát</w>
vân_ nam</w>
mu a_s
jo anne</w>
hứa_h ẹn</w>
giá n</w>
vị nh</w>
th ắt_
th ính</w>
quang_ minh</w>
ne y</w>
h an</w>
tồi_ tệ</w>
tiễn_ biệt</w>
phương_ diện</w>
ngạ o_
n ắm_
mua_s ắm</w>
cha mpion
b ôi</w>
xếp_h ạng</w>
vân_ ngọc_chân</w>
tr ên_
năn_n ỉ</w>
d er
ượng_ đế</w>
đối_ thoại</w>
xét_ xử</w>
thân_ thiện</w>
so ạt</w>
l ốc</w>
kh ùng</w>
gi ăng</w>
bệ ch</w>
7 5</w>
tập_ trận</w>
nhà _s
lừa_ gạt</w>
hã m_
ồ _
mạ t_
mi ss
e le
nhăn_ nh
m ẩu</w>
hộ _pháp</w>
giúp_ việc</w>
_leagu e</w>
4 2</w>
nh uộm</w>
kiêu_ ngạo</w>
điể u</w>
x á
w c</w>
ro ber
r en</w>
ng_l ượng</w>
lặ c_
l ồng_
hung_ dữ</w>
c ũ
bệnh_ tật</w>
vă n_thanh</w>
thánh_ thượng</w>
th ậ
tai_ mắt</w>
r ủi_
ch ần_
rủi_ ro</w>
nh âm_
ngà y_tháng</w>
n an_
l ây_
trân_ ân</w>
tr ữ</w>
thi_ tuyển</w>
ng_l ối</w>
n_th ủ</w>
h ển</w>
h ăng</w>
ve r</w>
tống_ ngọc_trí</w>
tr uyệ
th e</w>
như _hải</w>
nh uy
vô_t ận</w>
hoá _học</w>
ao_ chi</w>
_c ụ</w>
4 4</w>
3 .
triệ u_long</w>
m ậu_
be c
động_ lòng</w>
lưu_l ao_chi</w>
hộ_t ống</w>
công_ chúng</w>
ch ập</w>
3 9</w>
đào_ như_hải</w>
vi na
tăng_th ư_thư</w>
nhân_ lực</w>
l ỏi</w>
hà n_s
a circ</w>
xuất_ gia</w>
vấ n_thiên</w>
thiệt_ hại</w>
th ôn_
th ao_
t ào</w>
ngọc_ nữ</w>
hoàn_t ất</w>
hiện_ trường</w>
dụng_ cụ</w>
dò _xét</w>
bản_ quyền</w>
ma thi
liên_ hoàn</w>
h ầm_
e i
chu_ triệu_long</w>
_v ương_
v ía</w>
thủ _phạm</w>
m ầu</w>
bảo_ kiếm</w>
đ ò</w>
áo_ khoác</w>
r ất_
no r</w>
nhà _b
khu ẩn</w>
giá p_
_m i</w>
địa_ ngục</w>
ã o_
trung_ phụng</w>
nh ĩ</w>
ng_l ệ</w>
m anh_
d iêm</w>
b ực</w>
đ ắ
phá _h
l ây</w>
_t e
4 9
đâm_ ra</w>
tiế p_l
thích _phương</w>
quảng_ nam</w>
phụ _thuộc</w>
hoà _nh
chiến_th uyền</w>
ững_ sờ</w>
tu ột</w>
s ững_sờ</w>
nguyễ n</w>
l ậu</w>
kh am</w>
đ ũa</w>
v ợt</w>
từ_b iệt</w>
trái_ cây</w>
r en
phá_h uỷ</w>
ph ức</w>
nằm_ xuống</w>
nói_ thẳng</w>
ngọc_ yến</w>
c úm</w>
20 20</w>
x chia</w>
quả _quyết</w>
nhất_ thiết</w>
le n_l
khách_ quan</w>
g ân</w>
dự _thảo</w>
chi ̉</w>
b ồn_
đạo_ hạnh</w>
tình_ nhân</w>
sửa_ đổi</w>
r âu_
ng ậm_
lý_t uân</w>
chữa_ trị</w>
ch ao_
_d ành</w>
thống_ trị</w>
tho a</w>
quan_ trung</w>
phương_ di</w>
n_l ao</w>
l ũng</w>
học_ hành</w>
gia_ sư</w>
bá ch
truyệ n_ng
truyện_ng ắn</w>
trang_ trại</w>
thông_ điệp</w>
thiện_ nhu</w>
cạ o</w>
wo o
washi ngton</w>
sư _tử</w>
se ̃</w>
ni s</w>
một_ triệu</w>
l ở</w>
khởi_ tố</w>
khách_ sáo</w>
khách_ khí</w>
à o_th
xantr ô</w>
lớ n_lao</w>
chống_ đối</w>
_ mặt</w>
4 17</w>
ây_th ơ</w>
tổ _sư</w>
mục_ trường</w>
một_ hai</w>
hàn_s ấm</w>
gi r
_t ông</w>
_l ang</w>
200 7</w>
v ốn_
ngoại_ trưởng</w>
n ạt</w>
hồng_th ất</w>
bàng_ hoàng</w>
and ro
4 5
trá ch_m
thời_ hạn</w>
lớ n_tuổi</w>
khiêm_ tốn</w>
giao_ lưu</w>
c â
ụp_ đổ</w>
vô _c
s ụp_đổ</w>
nỗ i_
n_th anh_
n áy</w>
lý_nguyên_ cát</w>
cô xchia</w>
trắng_ bệch</w>
tb n</w>
giản_ dị</w>
787 5</w>
ð ừng</w>
thiê n_tử</w>
ng_th ân</w>
ng ây_thơ</w>
lừa_ đảo</w>
dư _th
_t ư</w>
_t át</w>
v ỉ
tư ̀</w>
tr âm</w>
r ừng_
phi_ mã</w>
cu ̀ng</w>
̣ m</w>
tiên_ phong</w>
s ẹo</w>
ngơ_ng ẩn</w>
ai_ ngờ</w>
_ anh</w>
uy ể
chỉ_ giáo</w>
tỷ _phú</w>
phá _hoại</w>
new s</w>
ba ng
b ự</w>
tú _tuần</w>
tr êu</w>
s ọ</w>
r ĩ</w>
qu ế
qu ặn</w>
mi ̀nh</w>
kh iên</w>
giả _
ch _c
aus tra
ase an</w>
khôn_ ngoan</w>
_l ộ</w>
ngữ_ yên</w>
n ư
mười_ ba</w>
m wc</w>
lệ ch</w>
liên_ minh</w>
h ỡi_
d ở
bá _t
ar i
ô tô</w>
ti êm</w>
hành_ lý</w>
fo x</w>
d ượng_đế</w>
784 5</w>
xỉ u</w>
tần_ vương</w>
năm_ tháng</w>
ngăn_ trở</w>
mo bi
la y
khó _
hướng_ vấn_thiên</w>
da l</w>
b ạ</w>
́ a</w>
đô- la</w>
đ ờ</w>
ào_ ào</w>
v ũng</w>
th ót</w>
người_ đời</w>
k an
_ph ủ</w>
ền_t ảng</w>
đă ng_t
vi ta
tĩnh_ lặng</w>
thành_ thử</w>
s ếp</w>
n ền_tảng</w>
_th ái</w>
thiết_ lập</w>
t v</w>
smart phone</w>
nh ớ
hoàng_ dược_sư</w>
ch ải</w>
c ò</w>
sâu_ xa</w>
cảm_ ứng</w>
cải_ trang</w>
cáo_ từ</w>
ng ừ</w>
lạnh_ nhạt</w>
khiêu_ chiến</w>
h ủ</w>
định_ hướng</w>
thạ c_
a c</w>
đối_ tác</w>
áy_ náy</w>
ch ừng_
đườ ng_lối</w>
tài_ nguyên</w>
tr ục_
thái_ phó</w>
thá t</w>
r ụt</w>
nuôi_ dưỡng</w>
bài_ tập</w>
a n_tâm</w>
vang_ dội</w>
s ông_
nức_ nở</w>
ngọc_ lan</w>
khóc_ lóc</w>
hạ_h ầu_
hoa_ hồng</w>
cho_ xong</w>
anh_ trai</w>
yên_ ổn</w>
thú _
tham_ khảo</w>
r _
u .
tề _h
nhập_ viện</w>
nhất_ quyết</w>
3 -
đệ m</w>
đe n_
đe m_
í ch_
tính_ năng</w>
s a_s
ronal do</w>
nhân_ loại</w>
ngh ẹn</w>
cười_kh ẩy</w>
tiện_ nghi</w>
nà y_
nh ẩm</w>
n_th ảo</w>
m ác</w>
hàm_ ðan</w>
h ổn_
dã_c ẩu</w>
đ ãng</w>
ý _niệm</w>
vương_ ngữ_yên</w>
trở _ngại</w>
tr ơn</w>
th ầm_
ser ge
giảm_ giá</w>
g ãi</w>
d àn_
cây_ số</w>
ch ói_
xâm_ phạm</w>
xinh_ xắn</w>
uyể n_thanh</w>
n ôn</w>
champion s
b ìa</w>
789 7</w>
14 /2</w>
ộ n_
thanh_ long</w>
hào_ hứng</w>
chào_ hỏi</w>
v í</w>
sơ _bộ</w>
s ừng_
ph ẫn</w>
o ne</w>
làm_ quen</w>
chu ́ng</w>
đô _la</w>
phương_ chứng</w>
d ưới_
động_ đất</w>
v ơ</w>
trọng_ yếu</w>
quy_ trình</w>
n_t ay</w>
mộc_ uyển_thanh</w>
lê _h
k iểm</w>
hư _v
bối_ cảnh</w>
valenti ne</w>
như _thường</w>
n ấm</w>
n ôn_
khước_ hoàn_độ</w>
yên_ lòng</w>
tiếp_l ời</w>
mathi as</w>
h ao_
dụng_ ý</w>
tr òng</w>
nha ̀</w>
mu ỗi</w>
lo ài_
khả _hãn</w>
bao_ công</w>
toàn_ quốc</w>
thuyền_ trưởng</w>
sắc_ đẹp</w>
hà n_l
c ấu</w>
đ ói_
u ẩn</w>
thu_ xếp</w>
lương_ tâm</w>
_c ường</w>
0 2</w>
ầm_ ĩ</w>
n iêm_
mạ ch_m
i  
cầu_ hoá</w>
che_ch ở</w>
bank plu
10 /2</w>
tới_ tấp</w>
toàn_ cầu_hoá</w>
m_ ch
kính_ cẩn</w>
khá i_
chuyên_ ngành</w>
bồ _tát</w>
bướ m</w>
tàn_ sát</w>
tu_ viện</w>
lo ạn_
hoả _
cao_ su</w>
c ú
b ão_
v èo</w>
thành_ thật</w>
sửa_ chữa</w>
h òm</w>
chọn_l ựa</w>
nh ện</w>
loài_ người</w>
d ạn</w>
b ới</w>
6 3</w>
điểm_ nóng</w>
thái_ cực</w>
ru ồi</w>
m_ n
m ụ
cười_ rộ</w>
cô_ độc</w>
tuỳ_t ùng</w>
t ắt_
sư ng</w>
ngần_ ngừ</w>
liên_ miên</w>
l ung</w>
hợp_ nhất</w>
hoà_th ị
du_ học_sinh</w>
t ục_
s ky</w>
s iết</w>
phát_ tác</w>
l ỡ
d ầy</w>
c eo</w>
b ù</w>
xi n_
sáng_l ập</w>
d ìu</w>
_s ỹ</w>
/11 /2011</w>
tinh_ tế</w>
r ộ
ph ỏng</w>
l ọ</w>
đồng_ tử</w>
tỉnh_ ngộ</w>
thân_ binh</w>
thám_ tử</w>
lệ _hằng</w>
l ồ
kỳ _thực</w>
h í</w>
câu_l ạc_
ð àm_
phổ _ho
nguyê n_tử</w>
giở _tr
câu_lạc_ bộ</w>
vi lla
ma r</w>
gi ầy</w>
do ãn</w>
ch ăng_
_b ệnh</w>
í ch
vô_s ong</w>
ph ì</w>
nó n</w>
n ít</w>
_ đầu</w>
đồng_t ình</w>
đ ụng_
vốn_ dĩ</w>
tỉ _lệ</w>
tập _hợp</w>
r ắn_
r ương</w>
nguy _cấp</w>
giở_tr ò</w>
di a</w>
cây_ xăng</w>
_ hoa</w>
t áo_
steve _
ngh i
lễ _vật</w>
hối_ hả</w>
hoá _trang</w>
hoà_thị _bích</w>
co ̀n</w>
chiếu_ cố</w>
ch ầu</w>
bất_ tử</w>
a_h è</w>
_v ạn_
_n ão</w>
. .
thạ o</w>
ph e
ghi_ chép</w>
chủ_ nghĩa</w>
ð ể</w>
thực_ hành</w>
h ờ
chăm_ chăm</w>
che_ giấu</w>
bi ̣</w>
đại_ dương</w>
tận_ mắt</w>
tha_th iết</w>
phòng_ chống</w>
ng ỡ_ng
lý_th uyết</w>
hư_v ô</w>
h ọng</w>
_h ội_
0 -
địa_ lý</w>
đăng_t ải</w>
vệ _
tận_ dụng</w>
th ẫm</w>
nhăn_nh ó</w>
nh ữ
nghiêng_ mình</w>
la_h ét</w>
g ánh_
bar ca</w>
vinh_ quang</w>
tội_ ác</w>
p pi
p in</w>
huỷ _diệt</w>
ché m_
n ạ
n da</w>
hoàng_ giáo</w>
gi ùm</w>
g tv
dạy_ học</w>
bà n_thờ</w>
_t ôn</w>
yếu_ đuối</w>
th ô</w>
d ừa</w>
_s ợ</w>
v ượng</w>
tín_ nhiệm</w>
tí ch_th
te s</w>
ph ẩm_
me ssi</w>
loại_ trừ</w>
bình_ sinh</w>
mơ _m
chết_ đuối</w>
ch éo</w>
bạ ch_th
_m ệnh</w>
_l ập</w>
đón_ nhận</w>
ý _đồ</w>
w ar
nh ộn_
kinh_ động</w>
bộ _đồ</w>
_t ừ</w>
âm_ u</w>
vững_ chắc</w>
sơ _s
n ép</w>
d el
cu ô
chí _
cao_th ức</w>
_t ứ</w>
đại_ trượng_phu</w>
đ iêu_
ð êm</w>
vỉ a_hè</w>
sôi_ nổi</w>
lo a
hổn_ hển</w>
_c ử</w>
ướ p</w>
đ ã
văn_ võ</w>
trường_ sinh</w>
trương_ tam_phong</w>
trí _nhớ</w>
quân_ sư</w>
m ài</w>
cầu_ xin</w>
bồn_ chồn</w>
bả n_tính</w>
_x íu</w>
_t ỳ</w>
điều_ hoà</w>
trong_ sáng</w>
tr iệt</w>
th ung_
chăng_ nữa</w>
ca me
_th iên</w>
6 4</w>
u_l a</w>
t ẩm</w>
ph àn_
nghiêm_ trang</w>
gtv t</w>
con_ em</w>
co r
chân_ tướng</w>
ch ảy_
_ph ục</w>
_kh ôn</w>
xe_ buýt</w>
t i_
lý_t ư</w>
hộ _vệ</w>
choáng_ váng</w>
_th ần_
đem_ lòng</w>
we b
uố i_
vận_ hành</w>
tổ n_
thượng_ đế</w>
ngon_ lành</w>
khung_ cảnh</w>
khiế u_
d n</w>
kinh_ dị</w>
dưới_ trướng</w>
ch ồng_
l ĩnh_
l uống_
bị _cáo</w>
_m ai</w>
789 9</w>
19 5
è m_
vuốt_ ve</w>
tiêu_ tan</w>
s úng_
kỳ _vọng</w>
h iên_
g er
cao_ siêu</w>
ca n
ð ệ</w>
trí _thức</w>
o .
nhật_ ký</w>
nhân_ từ</w>
mưu_ đồ</w>
ja ke</w>
tạ _an</w>
truy_t ìm</w>
thung_ lũng</w>
p_h ành</w>
p_ báo</w>
ma c
hiện_th ực</w>
en a</w>
9 7
̃ i</w>
ð ương</w>
x ăm</w>
thi_ cử</w>
nhuy ễn</w>
mù i_
mã nh_
k s</w>
chảy_ máu</w>
2 .
ắ ng_tai</w>
đo ản_
va_ chạm</w>
tạ t</w>
t ị
ni c</w>
ngô _l
bu r
đội_ trưởng</w>
đánh_ thức</w>
ân_ hận</w>
tổng_ cộng</w>
tổ_ quốc</w>
tr ào_
h ừ
tha n_th
sư _đạo</w>
riê ng_t
ng ờ_v
d _
tr ước</w>
than_th ở</w>
s i_
qu ắc</w>
ngờ_v ực</w>
ne r</w>
h án_
địa_ đạo</w>
tu ệ</w>
tho ắt</w>
th ình</w>
si nh.
ng ợi</w>
m ỉ
bất_ an</w>
bình_ minh</w>
xong_ xuôi</w>
từ_b i</w>
ng ặt</w>
ne sia</w>
chúng_ em</w>
_c ôn</w>
tâ y_t
th ấu_
nghi_ hoặc</w>
lặ ng_
kho át_
c ẩn_
bình_ định</w>
0 3</w>
xu ẩn</w>
t uốt</w>
phong_ độ</w>
nội_ thương</w>
m ây_
ch ọc_
đao_ kiếm</w>
n_t iện</w>
l d</w>
iễ u</w>
in i</w>
cuồng_ phong</w>
ben t
b iên_t
đại_ phu</w>
thảm_ thiết</w>
sát_ thủ</w>
nh ếch</w>
ngỡ_ng àng</w>
fer r
cá ch_thức</w>
báo_ động</w>
kiế n_đức</w>
chân_ nhân</w>
vi c</w>
tu_l uyện</w>
thí _nghiệm</w>
sắp_ sửa</w>
r ậm_
mệ t_
l i_
d ục_
b đ
austra lia</w>
4 6</w>
/0 4
đầ u_l
v ỡ
thượng_th ư</w>
thương_ nghị</w>
sá ng_tác</w>
steve_ jobs</w>
ph ì
mơ_ ước</w>
h áo_
g ran
ca ́i</w>
ng ỏ</w>
củ ng_
công_ cộng</w>
ca na
a .</w>
ma tt</w>
khoa_học_ xã_hội</w>
dương_ tử</w>
đ ốn</w>
xo á
tu ân_
tr êu_
s ứ
r ồi_
mù_m ịt</w>
m iệt</w>
khôn_ lường</w>
c ù
u_l ộ</w>
thù _h
ten nis</w>
x ỉ</w>
th iêng</w>
_v ở</w>
_ch i</w>
_c ấu</w>
tây_ hạ</w>
mi cro
ga me</w>
diện_ mạo</w>
con_ nít</w>
châu_ mỹ</w>
đà ng_
chém_ giết</w>
came ra</w>
bố p</w>
_x ã</w>
_th ú</w>
tài_ khoản</w>
phong_ toả</w>
o ng_
hù ng_tín</w>
vô_l ý</w>
vi n
tí n_l
tiề u_
ng_th ần</w>
l í</w>
hoảng_ loạn</w>
hiế n_
trấ n_tĩnh</w>
ro n</w>
r ầm</w>
nhạy_ cảm</w>
gắng_ gượng</w>
gi ã
có_ ích</w>
ch ăn_
ðinh_ xuân_thu</w>
y_ học</w>
võ ng</w>
viê ̣c</w>
tâm_ tư</w>
l ẫ
dật_ tài</w>
cá p</w>
bà _cụ</w>
201 3</w>
ú _
t ướ
s ụp</w>
na ̀o</w>
m ời_
l ũ
hò _h
ho ặc_
biể u_lộ</w>
ả_r ập</w>
âm_ quý_phái</w>
yêu_ mến</w>
thuỷ _nguyệt</w>
nóng_ lòng</w>
ngang_ nhiên</w>
mất_ hút</w>
e a
công_ cuộc</w>
bởi_ thế</w>
b ẽ
_h ầu</w>
788 3</w>
đội_ tuyển</w>
ð ường</w>
v éo</w>
p a</w>
chiêm_ ngưỡng</w>
and re
ð iều</w>
tăng_ giá</w>
thái_ sơn</w>
pi er
phi_ công</w>
nhân_ sự</w>
ngh e_
mới_ mẻ</w>
khởi_ động</w>
hành_ quân</w>
hà_ nam</w>
h ang_
gi ̀</w>
cướ p_
chá nh_
ấn_đ ấu</w>
ðình_ phương</w>
tung_ toé</w>
trống_ rỗng</w>
tr ích</w>
t ần_th
nh óc</w>
ng áy</w>
một_ ngàn</w>
may_ ra</w>
lý_t ử
lê _thị
bồi_ dưỡng</w>
_c àng</w>
đàm_ phán</w>
s ục</w>
ph ấn_đấu</w>
lợi_ thế</w>
duyên_ dáng</w>
d ưa</w>
cảnh_ vật</w>
chịu_ thua</w>
tổ_ tiên</w>
m ăng</w>
làm_ đẹp</w>
không_ tài_
k o_
há _h
te l</w>
t s
se oul</w>
r ồ</w>
nhà_b ếp</w>
m ùng</w>
l ân_
indo nesia</w>
há_h ốc</w>
ch ô
ch uối</w>
ủ ng_
xư ng_hô</w>
u n</w>
tín_ dụng</w>
trân_ trọng</w>
th ê</w>
ph ó
nhị _
li ne
hoàng_ phủ_
hiên_ ngang</w>
giả _như</w>
gi ai</w>
đoàn_ kết</w>
í m</w>
tín_l ăng</w>
r ao</w>
lưu_ thông</w>
hoặc_ giả</w>
độc_ cô
tá n_thưởng</w>
tá n_thành</w>
to n_
quá t_
n ô_t
lãnh_ tụ</w>
j en
f al
cầu_ nguyện</w>
chỉ _d
andro id</w>
_tr ần</w>
thỉnh_ giáo</w>
na n
m ịch</w>
bộ _máy</w>
_ch ương</w>
_ nghi</w>
thi_ lang</w>
th ỏ</w>
ngo ạn</w>
kim_ lan</w>
iệ c</w>
hồng_ ngọc</w>
giao_ đấu</w>
củng_ cố</w>
ch ừ</w>
c ốc_
v ệt</w>
v ơ
tr ổ</w>
thực_ chất</w>
cảm_ tạ</w>
ch ối_
tống_ sư_đạo</w>
r ễ</w>
nhận_ biết</w>
mai_ hoa</w>
không_tài_ nào</w>
giám_ mục</w>
g ọn_
đ ỗi</w>
da fi</w>
chuộ ng</w>
ứ a_
áp_ đảo</w>
và nh</w>
s ào</w>
phản_ công</w>
pháp_l ý</w>
n ể_
h ót</w>
dị _
_nh iệm</w>
xúc_ phạm</w>
vũ _
r ẫy</w>
cô n_đồ</w>
ch ĩa</w>
ưu_ đãi</w>
xe _l
trong_ trẻo</w>
t ẩy</w>
hiệ p
villa s-
villas- bo
máy_ ảnh</w>
k _
ha m_
gó c_độ</w>
đồng_ nai</w>
thường_ ngày</w>
đột_ phá</w>
thu a_
sa m
phi_ huyên</w>
va l
s ha
liên_ bang</w>
h ốt</w>
châu_ âu_
chuy ể
tiêu_ dật_tài</w>
ti on</w>
t ịnh_
hẹ n_
hoàn_ nhan_
chấ p_hành</w>
ch ay</w>
c  
_th ụ</w>
_n inh</w>
đ ốc_
y_t á</w>
riêng_t ư</w>
nể_ mặt</w>
ng ỡ</w>
la ng_
gi ựt</w>
chút_ ít</w>
ch ập_
_d uyên</w>
ứng_ viên</w>
vi_ tính</w>
tiêu_ thụ</w>
ngạ nh</w>
hương_ cốc</w>
gật_ gật</w>
_lã nh</w>
8 /2</w>
ườ ng_t
vô_t ội</w>
học_ hỏi</w>
giả _sử</w>
g v</w>
ch ồm</w>
c en
ngày_ một</w>
lị a</w>
ch ót</w>
b ến_
5 00,000</w>
đề_ án</w>
đẹp_ trai</w>
đánh_ máy</w>
ð ao</w>
serge i</w>
kh àn</w>
in o</w>
hà _lan</w>
d ằn</w>
bánh_ xe</w>
thứ _b
sách _vở</w>
nh am_
mộc_ kiếm_
giải_ thoát</w>
gay_ gắt</w>
d ính_
chế_ biến</w>
bất_ mãn</w>
bảo_ vật</w>
xem_ lại</w>
tinh_ thông</w>
thử _hỏi</w>
hết_ thảy</w>
e _ngại</w>
_kh ắc</w>
th ốn</w>
qu ên_
ph ơ</w>
no kia</w>
ngần_ ngại</w>
quát_ tháo</w>
ed er
có _th
villas-bo as</w>
thầ n_tượng</w>
t úng</w>
l ườm</w>
cứng_ rắn</w>
13 /2</w>
0 1
ầ ng_
đ ăm</w>
quảng_ ngãi</w>
l â
đầu_ đuôi</w>
ðào_ phương</w>
yêu_ quý</w>
văn_t ự</w>
tự_th áp</w>
tỏ _tình</w>
kim_ tự_tháp</w>
kho ác_
giám_ khảo</w>
gad dafi</w>
f pt</w>
diên_ khánh</w>
cung_ cấm</w>
bồi_ thường</w>
_v ăn_t
3 9
ă ̀ng</w>
suy _đoán</w>
mê _m
mê _
lậ p_l
hành_ lễ</w>
hoan_ hỉ</w>
787 3</w>
17 /2</w>
nghe_ nói</w>
luống_ cuống</w>
ki e</w>
a bi
s àng</w>
ngu_ xuẩn</w>
l ìa</w>
_ph ạt</w>
/0 1/2012</w>
á _
từ_th iện</w>
tra_ xét</w>
r á
nhỏ _xíu</w>
ng_th ục_
la m
hư_h ỏng</w>
cli n
buồ n_th
_x ưa</w>
4 8</w>
đông_ tử</w>
x h</w>
vàng_ bạc</w>
trộ m_
tha i_
sơ _sinh</w>
so ng_h
rô ̀i</w>
l ẩn_
kho ả
hiệp _hội</w>
cảm_ tình</w>
vita min</w>
s ừng</w>
lâm_ tĩnh</w>
vậ y_thì</w>
v ượn</w>
từ_th iên</w>
iế u_
h en
goet z</w>
che l</w>
tầm_ mắt</w>
quy ệt</w>
n_đ ông</w>
n ết</w>
lý_ giải</w>
hiếu_ chính</w>
gia_ nhân</w>
f eder
bá ch_t
đá t</w>
đ ượ
đ ùng_
âu_ yếm</w>
rên_ rỉ</w>
re o_
r ong</w>
ng ậm</w>
c ào</w>
ợt_ nhạt</w>
tuổi_ tác</w>
thá m</w>
nh ợt_nhạt</w>
l õi</w>
hoạ _sĩ</w>
h ả
gợi_ ý</w>
văn_ chương</w>
thái_ úy</w>
t ă
quá_ đáng</w>
mã n_
cường_ địch</w>
c ọ</w>
_n át</w>
4 -
v iếng</w>
tuỳ _ý</w>
thiệu_ đông_tử</w>
thiên_ cơ</w>
so ng_thân</w>
lừ ng_lẫy</w>
kiều_ bào</w>
d ạt</w>
d õ
b ất</w>
đồng_ môn</w>
đô _đốc</w>
v ướng</w>
trực_ thăng</w>
thanh_ thị</w>
nh ợt</w>
khiế m_
học_ viên</w>
gi ễ
de s</w>
c ập_
b ân</w>
anto ine</w>
ổ m</w>
x ì</w>
t z</w>
sinh_ vật</w>
không_ tưởng</w>
chất_ vấn</w>
_đ iều_
trần_ hiếu_chính</w>
t ượng_
làm_ trò</w>
h ăm_
giang_ văn_thanh</w>
bác_ sỹ</w>
790 7</w>
ỷ u</w>
tối_ tăm</w>
ng_h iến</w>
mã _văn_
g re
d y</w>
ưng_ thuận</w>
điện_ hạ</w>
thừa_ tướng</w>
qu ật_
mù _lo
mù_lo à</w>
lý_tử _thông</w>
hung_ ác</w>
bạ ch_t
bánh_ mì</w>
ðông_ phương_
xê -
vi ̀</w>
tiế c_
ng i
m ỏi_
r ã
nguyễ n_t
nam_ hải_
lia_ lịa</w>
khuất_ phục</w>
giết_ hại</w>
dạy_ bảo</w>
chi_ tiêu</w>
4 7</w>
đấ ng</w>
tỷ _thí</w>
tr ưng_
to r</w>
sở _trường</w>
r ạng</w>
nh ọc_
l áo</w>
chuyện_ trò</w>
bạ n_
b ây</w>
an o
ô -
thẩm_ định</w>
quyết_ chiến</w>
phù _thuỷ</w>
ng àn_
ma u
hình_ dạng</w>
e vn</w>
bền_ vững</w>
ang_ quân</w>
ưu_ thế</w>
v ần</w>
thần_ trí</w>
th ói</w>
phần_ trăm</w>
o o
mã_văn_ phi</w>
miss _te
cổ _xưa</w>
chiến_th uật</w>
ca_ ngợi</w>
bệnh_ hoạn</w>
binh_ mã</w>
tư _đồ</w>
tho ạt</w>
người_ tình</w>
n ách</w>
lạ _thường</w>
hầu_ hạo</w>
h .</w>
đường_ bộ</w>
tr ật</w>
thái_ nguyên</w>
lãng_ phí</w>
khu ỷu</w>
kh ưu_
gi ặt</w>
ferr ar
ch ợ
0 5</w>
ảm_ đạm</w>
ð ị
v ụng_
quần_ chúng</w>
mo r
le t</w>
khởi_ đầu</w>
hiếu_ thành</w>
đàng_ hoàng</w>
tho ạt_
thiể u_
nhảy_ xổ</w>
ho ̣</w>
h ắt</w>
c ày</w>
ác_ mộng</w>
tướng_ sĩ</w>
quyết_ đấu</w>
lôi_ kéo</w>
kỹ _càng</w>
dung_ mạo</w>
_d uyệt</w>
tranh_ đấu</w>
người_ người</w>
lu ồn</w>
kinh_ thành</w>
giả _th
d ằn_
cụ m</w>
thuỷ _sản</w>
r ay</w>
p _viên</w>
kính_ phục</w>
căm_ hận</w>
a e
0 ,
đều_ đặn</w>
th ẳng_
nô _lệ</w>
ng_d ạc</w>
n uốt_
m ao_
hiế m_
h ờn</w>
dõ ng_dạc</w>
dân_ cư</w>
đạ m_
vật_ liệu</w>
thí m</w>
th ấm_
t ế
sá ng_tỏ</w>
s ổ
nh i
mari uy
há ch_l
cự _tuyệt</w>
b la
„ nếu</w>
„ hạng</w>
„ chuyện</w>
đ ẳng_
uy ê
nhạc_ sơn</w>
nghênh_ tiếp</w>
li n
kịch_ bản</w>
cư _sĩ</w>
cu a</w>
6 5</w>
điệ u_
sco tt</w>
quan_ quân</w>
lắp_ bắp</w>
dự ng_
ca ̉</w>
bao_ la</w>
_t ầng</w>
3 7
điê ̀u</w>
ð ồ</w>
nội_ vụ</w>
no ́</w>
h ấp</w>
5 0%</w>
4 ,
thương_ tích</w>
n_s óng</w>
lồng_ ngực</w>
là n_sóng</w>
kinh_ phí</w>
1 19
xo è</w>
thị _thần</w>
nhạ o</w>
nh  
k en
đồng_h ành</w>
tàn_ ác</w>
siêu_ thị</w>
r ạch</w>
ph ì_
mặc_ kệ</w>
là _lạ</w>
bực_ tức</w>
_v inh</w>
_l ao</w>
ô _nh
ð i</w>
quảng_ ninh</w>
phì_ cười</w>
m ợ</w>
kh ương_
chỉ_d ẫn</w>
_m ỉ</w>
đồ n_đại</w>
phù_ kiên</w>
p_th iên_
n_l út</w>
l ặp</w>
h ỷ</w>
tí n_đồ</w>
tri_ thức</w>
sơn_ động</w>
sho w
quế _tử</w>
lỗ _h
bậ n_tâm</w>
_c ận</w>
thanh_ y</w>
nhân_ gian</w>
i m
đến_ cùng</w>
uy _thế</w>
tr ì_
sôi_ động</w>
quy_t ắc</w>
ppi nes</w>
chủ_ nghĩa_
bất_ bại</w>
đẳng_ cấp</w>
thứ_ bảy</w>
s ấn</w>
s ải</w>
ra chel</w>
r ã</w>
khả _ngọc</w>
g ẫy</w>
đăm_ đăm</w>
vui_ chơi</w>
v á</w>
th ưa_
t ắm_
rậm_ rạp</w>
r át</w>
ph ệ
huy ên_
dòng_ họ</w>
a b
200 6</w>
v ù</w>
tr ăng_
phản_ chiếu</w>
o anh_
nô_t ỳ</w>
n è</w>
mơ_m àng</w>
eli nor</w>
e s
tiêu_ chí</w>
phong_ lưu</w>
nằm_ mơ</w>
m ầy</w>
hắc_ bạch
cầm_ đầu</w>
c n
b ãi_
_h ùng</w>
/ 2010</w>
ăng_l ong</w>
ð ỗ
x ê</w>
tr ạc</w>
lâm_ chấn_
l ắng_tai</w>
l ơ</w>
ge or
trò n_
thượng_ hoàng</w>
thá n_
nh ắn_
kinh_ châu</w>
hươ u</w>
bo r
_đ ồng</w>
_h ộ</w>
4 1</w>
đ ốm</w>
ó p</w>
võ_ ðang</w>
r ào_
diệt_ tuyệt</w>
cương_ quyết</w>
ch ar
00 0,000</w>
đời_ nào</w>
ph a_
họ _hàng</w>
đánh_ cắp</w>
thôi_ thì</w>
ng ắm_
ho nda</w>
chá n_
c t
_ công_
vương_ ngọc_yến</w>
vù _v
vù_v ù</w>
tuyệt_ đỉnh</w>
tr iết</w>
nghe _ng
mùi_ vị</w>
cừu_ thiên_
0 2/2012</w>
tu s</w>
tan_ vỡ</w>
minh_ giáo</w>
dương_công_ khanh</w>
chứng_ nhận</w>
ch ư</w>
bước_ tiến</w>
_s ắc</w>
ngó n_
_tr ộn</w>
_tr ưng</w>
uộ t</w>
thạch_th anh</w>
lành_ mạnh</w>
kê u_la</w>
khó_ coi</w>
khu ôn</w>
hoàng_ kim</w>
du ỗi</w>
bất_ tỉnh</w>
độc_ thân</w>
đối_ đãi</w>
điềm_ đạm</w>
ðông_phương_ bất_bại</w>
reo_ hò</w>
phong_ cảnh</w>
p_thiên_ hoàn</w>
nhất_ tề</w>
hợp_ pháp</w>
d ậ
cấm_ vệ</w>
cơ _cấu</w>
ci a</w>
bộc_ lộ</w>
bách_ xuyên</w>
_th ác</w>
đ ới</w>
ò m_
x ảo_
vùng_ xa</w>
tề_h ạo</w>
thuậ n_tiện</w>
tha o_th
phili ppines</w>
kích_th ước</w>
giai_ cấp</w>
chu a</w>
đ ố</w>
x ì
triệu_ đức_
tiểu_ quế_tử</w>
nhu ệ</w>
nghe_ng óng</w>
lâm_chấn_ nam</w>
hữ u_l
hãm_ hại</w>
ho ạn_
tất_ huyền</w>
tây_ nam</w>
o 0
mưa_ gió</w>
lu ỹ</w>
kim_ loại</w>
an_ bài</w>
_l ưỡng</w>
ổn_ ngang</w>
ẩn_ nấp</w>
trư _cốc</w>
rồi_ đây</w>
nắm_ bắt</w>
ng ổn_ngang</w>
n_to à</w>
m .</w>
lé n_lút</w>
loại_ bỏ</w>
gi ỏ</w>
d ụi</w>
d ang</w>
cu p_
v óc</w>
triệu_đức_ ngôn</w>
t ẩu_
o0 o</w>
ng ùi</w>
g ầm_
bá _thông</w>
bà_ bà</w>
_ kỳ</w>
đồng_ đạo</w>
ya ho
tự _ý</w>
ng_l iêng</w>
l âu_l
k í</w>
d è
ch ực</w>
bổ n_
bái_ tử
_ng a</w>
6 00</w>
s óc_
dã _man</w>
bàn_ luận</w>
đột_ nhập</w>
ô ́ng</w>
t ồi</w>
m óc_
ký _t
gran t</w>
chu_ du</w>
biên_t ập</w>
_l uật</w>
8 00</w>
ù n_tắc</w>
y_ giờ</w>
thiê ng_liêng</w>
se y</w>
r ầy</w>
nữ _nhi</w>
n_th ần</w>
m_c ỏi</w>
kết_ nghĩa</w>
ké m_cỏi</w>
bái_tử _đình</w>
bài_ toán</w>
_h ưng</w>
_ kiều</w>
văn_ mẫn</w>
thanh_ tú</w>
su s</w>
ph an</w>
nhiế p_thiên_hoàn</w>
nh ả</w>
mê_ hoặc</w>
cửa_ hiệu</w>
căn_ dặn</w>
báo_ đáp</w>
_d ễ</w>
/ 5</w>
vắng_ vẻ</w>
nguyễn_đ ức_
mong_ manh</w>
g ái_
6 -
ư _nhân</w>
đồ _vật</w>
xe_ khách</w>
tôn_ kính</w>
truy _cập</w>
thất_ sắc</w>
se x</w>
nghi_ vấn</w>
l ọc</w>
giao_ tiếp</w>
d ào</w>
cổ _đông</w>
đ u</w>
t ía</w>
phản_ kháng</w>
ng_t ường</w>
m r
chống_ chọi</w>
chỉ_ định</w>
_c ổ</w>
đại_ khái</w>
đoản_ kiếm</w>
đ iềm</w>
x ơ</w>
thủ _lãnh</w>
sân_ chơi</w>
r à
n iệm_
hoàng_phủ_ tinh</w>
giận_ dỗi</w>
trung_ uý</w>
thứ _tự</w>
quốc_ tuấn</w>
ngũ _hành</w>
hỏi_ han</w>
h ận_th
fal ko_
dân_ số</w>
chì m_
đại_ trúc_phong</w>
đánh_ dấu</w>
vô _b
va ti
v ê</w>
thán_ phục</w>
r anh_
ng ẩn_
kinh_ sợ</w>
binh_ lính</w>
x ướng</w>
t ăm_
qua ng_l
lo ng_th
h y</w>
_l ỗ</w>
_b ố</w>
v ới_
tây_t ạng</w>
trên_ dưới</w>
qu ậy</w>
nã y_giờ</w>
no el</w>
me gan_
kiểm_ điểm</w>
g ăm</w>
d ép</w>
chập_ ch
5 1</w>
xử _phạt</w>
tích_th ư_nhân</w>
t ắc_
ste ve</w>
ma ng_
l áng_
độ ng_lực</w>
đ iếc</w>
bả o_th
_thị _trường</w>
̉ nh</w>
v o</w>
uy ến_
triệt_ để</w>
s ặc</w>
khu a</w>
gi ờ</w>
chẳng_ trách</w>
b ừa_
4 9</w>
ản_ xuất</w>
vận_ mệnh</w>
trẻ _trung</w>
si te</w>
nh áy</w>
lý_ kiến_thành</w>
kiên_ trì</w>
ch ận</w>
cana da</w>
ớ _ng
ắng_ giọng</w>
đồng_ minh</w>
vinh_ dự</w>
thống_ khổ</w>
ta ̣i</w>
sinh_ mạng</w>
megan_ fox</w>
h ắng_giọng</w>
c ắm_
đỏ _
v ớ</w>
từ _chức</w>
tố c_
thẩm_ quyền</w>
s ẫm</w>
phê _bình</w>
phàm_ bình</w>
ng_l inh</w>
n_th ông</w>
máy_ móc</w>
ma lay
feder er</w>
cay_ đắng</w>
xã _hội_
tài_ trợ</w>
trịnh_ trọng</w>
thuỷ_ tinh</w>
ta n_t
lừa_ dối</w>
hi_ sinh</w>
gia_cát_ dật</w>
cấu_ kết</w>
công_ sức</w>
chu_ bá_thông</w>
bản_ năng</w>
201 5</w>
đa_ dạng</w>
tướ ng_lĩnh</w>
ti vi</w>
sở _thích</w>
nhậ p_học</w>
nh ăng</w>
một_ mạch</w>
hă ng_h
y ết</w>
thơ m_
si m</w>
phân_ phối</w>
_l iên</w>
ớ_ng ẩn</w>
điểm_ chuẩn</w>
xương_ bình</w>
thiên_ lý</w>
r anh</w>
ngất_ xỉu</w>
ng ớ_ngẩn</w>
cập_ nhật</w>
8 8</w>
26 2</w>
tuyệt_ luân</w>
tiêu_ hoá</w>
tho a
th a_hồ</w>
so ft</w>
nhà _ch
l ó
gi ề
ch ướng_
_h ạn</w>
0 2
ởi_ mở</w>
xác_ minh</w>
truy _đ
triệu_ tập</w>
thiên_ đường</w>
r ô</w>
ph ước_
mi cha
hà_ giang</w>
hoang_ dã</w>
c ởi_mở</w>
ba_ mẹ</w>
ác_ độc</w>
x uyến</w>
tỉ _mỉ</w>
thân_ hành</w>
o p
ma_ quỷ</w>
giá n_đ
_d iễn</w>
ấp_th uận</w>
xử _trí</w>
trường_ giang</w>
thâm_ tâm</w>
sửa_ soạn</w>
rà _so
rà_so át</w>
r ầu_
ngẩn_ ngơ</w>
ng_t ộc</w>
m ờ_mờ</w>
dị ch_
ch ấp_thuận</w>
canh_ giữ</w>
ú _phương</w>
v ờ</w>
tâm_ nguyện</w>
tiểu_ siêu</w>
thổ _lộ</w>
r è</w>
r iết</w>
ng át</w>
manh_ mối</w>
kho ét</w>
kh ao</w>
du_ bạch
du_bạch _phong</w>
ch ẩ
bất_ ổn</w>
đ ằng_
tứ_ kết</w>
thị _xã</w>
thuỵ _sĩ</w>
n_t ừ</w>
k ình_
ché p_
chiếm_ đoạt</w>
bằng_ không</w>
bó p_
bà y_
5 7</w>
điển_ hình</w>
yo u
vi c
thời_ giờ</w>
malay sia</w>
lâu_ thiên_tôn</w>
khí _lực</w>
chú _trọng</w>
ch ảo</w>
1 /2</w>
ẩn_ hiện</w>
đỗ _
v ớ
v ăng_
phủ _binh</w>
phong_ bì</w>
mạch_m áu</w>
l h
iễ m_
gi ường_
cam_ tâm</w>
4 3</w>
đẹp_ mắt</w>
í _nghiệm</w>
từ_t ốn</w>
th ừng</w>
s ỏi</w>
nh e</w>
mẹ _
bi_ thương</w>
_c an</w>
5 2</w>
đau_ nhói</w>
vati can</w>
tổn_ hại</w>
thượng_t ú_phương</w>
tho ả</w>
mỹ _lệ</w>
d ọn_
cư _x
bảo_ toàn</w>
b ụ
b in</w>
ố m_
đ út</w>
o x
nha_ môn</w>
nh ằn</w>
nh ậu</w>
mộc_ hợp</w>
bắc_ phủ_binh</w>
_h u
ð ầu</w>
ân_ oán</w>
ti na</w>
sá ch_
phòng_th í_nghiệm</w>
mu r
ha m
châu_ phi</w>
đường_ sắt</w>
tung_ hoành</w>
thay_ mặt</w>
ng_l ăng</w>
dọn_ dẹp</w>
cá _tính</w>
cuố ng_
bổ _nhiệm</w>
̉ u</w>
xa_ cách</w>
tống_ phàm_bình</w>
trung_ cấp</w>
ruộ t_
một_ lòng</w>
lớn_ nhỏ</w>
lộ _trình</w>
hoành_ hành</w>
d ao_động</w>
chứ a_
trần_th ị
phút_ chốc</w>
hiền_ lành</w>
_l ệnh</w>
đúng_ đắn</w>
u ổi</w>
tại_ chức</w>
tu ỵ</w>
trăm_ ngàn</w>
tr u</w>
thì _
t ộc_
ngoài_ mặt</w>
luật_ pháp</w>
l ờ</w>
chiế t</w>
ch ùi</w>
tử _thi</w>
sai_ sót</w>
nhà_ xuất_bản</w>
n_th uỷ</w>
lũ _l
hiệu_l ực</w>
d â
chẩ n_đoán</w>
đồng_ bọn</w>
đô _thống</w>
nhảy_ múa</w>
m ắng_
lạm_ phát</w>
li ke</w>
ho t</w>
giáo_ hoàng</w>
bần_ bật</w>
bất_ thình_lình</w>
21 /11</w>
ứng_ biến</w>
ác_ liệt</w>
woo d</w>
văng_ vẳng</w>
phân_ chia</w>
như_ không</w>
mỹ _
mắt_ thấy</w>
m c
_v iết</w>
_tr ung_
web site</w>
tiếp_ ứng</w>
thang_ máy</w>
th ắm</w>
quý _tộc</w>
ph ố
micro soft</w>
lấy_ lòng</w>
l ọi</w>
l _
d ô</w>
_x uyên</w>
x ẩy</w>
tiềm_ năng</w>
tinh_ vi</w>
sam sung</w>
ngh ía</w>
mong_ đợi</w>
huyền_t ông</w>
bổ _
_đ iện</w>
_ gia</w>
ôn_ hoà</w>
to ạ
phá p_th
khí _hậu</w>
cảm_ tưởng</w>
binh_ lực</w>
be l</w>
ðàm_ dược_sư</w>
yếu_ kém</w>
thạc_ sĩ</w>
ph ế_
làm_ nhục</w>
kỹ _lưỡng</w>
gi ò</w>
chịu_ khó</w>
bảo_ hộ</w>
đội_ hình</w>
trát_ mộc_hợp</w>
tr ận_
thiêu_ đốt</w>
quả _nhân</w>
quy ến</w>
nh iếp</w>
kiên_ cố</w>
khô _kh
h ấp_th
a -
xếp_h àng</w>
u_ ám</w>
tự _nguyện</w>
s ặc_
o ải</w>
ngoài_ trời</w>
l ề</w>
chứng_ chỉ</w>
đau_ thương</w>
u m</w>
trọng_t ôn_
trái_ phép</w>
sơn_ cốc</w>
phong_ ba</w>
n_tho ại_
hài_ cốt</w>
hoá _giá</w>
h ước</w>
e n_
cuồng_ nhiệt</w>
ber g</w>
đột_ kích</w>
ân_ cần</w>
p_b ê</w>
lãnh_ thổ</w>
hình_ bóng</w>
go r</w>
f e</w>
cực_ điểm</w>
chép_ miệng</w>
bú p_bê</w>
79 13</w>
dẫn_ dắt</w>
d è</w>
ẵ m</w>
thắt_ lưng</w>
thá t_
mặt_ bằng</w>
mạ ch_
câu_ thơ</w>
c ấ
_s ở
và n</w>
tr ố</w>
tiết_ mục</w>
tiế n_độ</w>
tinh_ diệu</w>
thân_ thế</w>
thi_ công</w>
rung_ chuyển</w>
phiền_ phức</w>
nữ _tỳ</w>
n s</w>
cứu_ viện</w>
_ho ạn</w>
25 9</w>
/ 2009</w>
đo àn_th
quý_ giá</w>
n ộ
do ã
chủ_ quyền</w>
_kh ẩu</w>
đ v</w>
tổng_ công_ty</w>
tạ c</w>
tài_ nghệ</w>
mười_ bảy</w>
làm_ loạn</w>
k ĩ
chu ôi</w>
c ộ
ầ u_l
điệ n_thoại_
nhậm_ thanh_thị</w>
ng ốc_
joh n_
x ẹt</w>
s ỡ</w>
quán_ trọ</w>
nhất_ tiếu</w>
hy_ lạp</w>
giả _d
d ge</w>
bi ll</w>
_ch ính_
tr ội</w>
tháng_ giêng</w>
miss_te en</w>
ho a_s
er i
ci ty</w>
c ụt</w>
bại_ trận</w>
đầ m_đ
đầm_đ ìa</w>
trà _trộn</w>
tinh_ nhuệ</w>
thành_ hình</w>
sơ n_t
rùng_ rợn</w>
quý _phi</w>
phân_ vân</w>
nga ̀y</w>
uỷ _viên</w>
tương_ dương</w>
trang_ web</w>
t ản_
nhà_s ản_xuất</w>
liên_ quân</w>
hoả _hoạn</w>
sa i
nh ác</w>
m í</w>
lan_ can</w>
hoàng_h à</w>
trang_ sức</w>
to a</w>
thôi_ bác</w>
ng_t àu</w>
i_ ba</w>
c ọc</w>
̉ o</w>
đặc_ điểm</w>
ăn_ xin</w>
thối_ lui</w>
r ằng</w>
r ó
quỷ _vương_
huyên_ náo</w>
_m inh_
9 /2</w>
phi_ dương</w>
lung_ tung</w>
khúc_ ngạo</w>
h ưởng_th
d iều</w>
tí ch_t
rất_ đỗi</w>
r ất</w>
lý _luận</w>
lãnh_ đạm</w>
kh ẻ</w>
dạ _d
doanh_ thu</w>
biế u</w>
5 -
vương_ phi_dương</w>
va ngi
vangi ăng</w>
thực_ tiễn</w>
rơ m</w>
nhà_ nghiên_cứu</w>
ngư _dân</w>
m ỏng_
m ĩ
chỉ _số</w>
bán_ kết</w>
biể n_
ỉ u</w>
đạo_ nhân</w>
v ớt</w>
thần_th ánh</w>
t x</w>
nhà_ nghỉ</w>
dự_ báo</w>
dụ ng_tâm</w>
d ùm</w>
oai_ phong</w>
ngo ã
new s_
minh_ hoá</w>
m ư
l ảnh</w>
hài_ hước</w>
g t</w>
g ro
cùng_ cực</w>
ti o
sa nh_
ph iê
m ím</w>
hô _d
gi ọng_
bảo_ tồn</w>
_ho ãn</w>
784 7</w>
ð ầu_
x ộn</w>
th ăng_long</w>
ngắm_ nghía</w>
ng ụ</w>
n ạc</w>
lắc_ lư</w>
j us
h é
du_ tiểu_quyên</w>
đùng_ đùng</w>
điểm_ tâm</w>
x ứ
vi a</w>
rich ard</w>
phổ_ho ằng</w>
mù a_
i b
hành_ thích</w>
har ve
giả_d ối</w>
giả _bộ</w>
a li
đ t
vệ_ tinh</w>
tỷ _số</w>
trọ n_vẹn</w>
trả _giá</w>
th èm_
r ải</w>
như _đ
của_ cải</w>
cung_ điện</w>
tra ng_t
thiên_ kiều</w>
sắc_ diện</w>
ngạc_ thần</w>
k ét</w>
huyền_ bí</w>
h ờ</w>
chấ n_thương</w>
bàng_ nghĩa</w>
điện_thoại_ di_động</w>
z z
thường_ trực</w>
t_ thở</w>
qua_ mặt</w>
oán_ hận</w>
nghẹ t_thở</w>
mỏi_ mệt</w>
mô n_đồ</w>
kho áng_
đối_ đáp</w>
tinh_ binh</w>
sinh_ học</w>
n_r én</w>
b ờ
xỉ a</w>
sáng_ ngời</w>
show bi
ró n_rén</w>
nh iên_
nam_ sinh</w>
do w
chao_ ôi</w>
ch óng_
c ỏ
định_ cư</w>
đ ẩu</w>
ê _
x ài</w>
tổ n_thất</w>
tịch _m
quay_ cuồng</w>
ca li
c úp</w>
_s a</w>
xỉ n</w>
trọ ng_lượng</w>
trúc_ anh</w>
tr uyện_
to a
pre mi
lộn_ xộn</w>
huyền_ hoàng_giáo</w>
giang_ sơn</w>
chần_ chừ</w>
đỗ _cửu</w>
đại_ minh</w>
tịch_m ịch</w>
thù_h ận</w>
tha ̀nh</w>
nhiê ̀u</w>
hạ m_
chiến_ mã</w>
b ơ</w>
ðổ ng_
quấy_ nhiễu</w>
n_ hút</w>
m iệt_
l ả
h ực</w>
du_ kích</w>
cơ_ mà</w>
ch óc</w>
ch ri
bổn_ phận</w>
xung_ hư</w>
v ấn_
tâm_ huyết</w>
tu_ sĩ</w>
tiêu_ hậu</w>
ng_th anh_
nam_hải_ ngạc_thần</w>
mưu_ kế</w>
ge r</w>
hạm_ đội</w>
hung_ hiểm</w>
gi ăng_
cứu_ chữa</w>
cho ang</w>
b re
đị ch_
âu_dương_ khắc</w>
tham_ vọng</w>
mạng_ lưới</w>
lật_ đổ</w>
k ẻ_
ho ãn</w>
tí ch_l
thừa_ kế</w>
s ấm_
qu àng</w>
ng à</w>
n í
l ă
khuy nh_
hiệ n_thân</w>
d ô
công_ đường</w>
5 6</w>
thủ _thành</w>
r ốt</w>
nhắm_ nghiền</w>
mỉ a_
m_ bẫy</w>
m ậu</w>
hắc_ thát</w>
huy _chương</w>
cạ m_bẫy</w>
ý _tứ</w>
trầm_ tư</w>
nội_ thất</w>
liên_ luỵ</w>
i ro
hồi_ giáo</w>
hung_ hãn</w>
dạ_d ày</w>
ch ưng</w>
b ân_
triệu_ thiên</w>
mỉa_ mai</w>
l íu</w>
khuyến_ cáo</w>
hiếm_ hoi</w>
gấp_ rút</w>
gian_t ặc</w>
gh an
cái_ thế</w>
c ặ
bạn_ hữu</w>
_l am</w>
20 00</w>
x íu</w>
viên_ chức</w>
t ới</w>
t ì</w>
số _liệu</w>
quy_ củ</w>
quang_ cảnh</w>
phá n_đoán</w>
n ắng_
lý _trí</w>
10 0%</w>
vệ _sĩ</w>
từ ng_
trừ _kh
trừ_kh ử</w>
trùng_ trùng</w>
thần_t ốc</w>
khởi_ hành</w>
h anh</w>
giề ng</w>
ai ds</w>
đối_ lập</w>
trấ n_thành</w>
s ái</w>
ni e</w>
nhân_ dịp</w>
nhiế p_
hà _v
h ắng</w>
g ắng</w>
d ậm</w>
cup_ châu_âu_
cup_châu_âu_ bóng</w>
ch ỗ
vụng_ về</w>
t ử_l
showbi z</w>
ngọc_ đường</w>
n ẻo</w>
lưu_ chính_
ch ếch</w>
b óc</w>
b s
b ro
̉ y</w>
trườ ng_h
thượng_ phong</w>
n ă
m ải</w>
g or
diệu_ kế</w>
ch ôn_
bùng_ nổ</w>
b âng_
a th
8 /2011</w>
vô _sự</w>
tr ần_t
kết_ giao</w>
f c</w>
u r</w>
thườ ng_lệ</w>
s à
ng ắn_
ma l
b ền</w>
_s ăn</w>
v eo</w>
thoái_ lui</w>
sát_ nhân</w>
kh an</w>
giá_ cả</w>
dạ _
chú _thích</w>
chung_ linh</w>
cao_ quý</w>
b ê</w>
đỉnh_ cao</w>
đ h
ðinh_ bất_
ð a</w>
và i_ba</w>
v ạ</w>
v y</w>
trung_ đông</w>
sân_ nhà</w>
ngọc_ tiêu_l
mềm_ nhũn</w>
m iệ
làm_ khó</w>
hội_ đồng_
g àng</w>
d ệt</w>
cầu_ cứu</w>
bại_ lộ</w>
ạ o_
xử _cơ</w>
viễ n_thông</w>
ti m_
riê ng_
ng_t ình</w>
hình_ phạt</w>
ch ặng</w>
c ột_
bân_ ni</w>
buồn_th ảm</w>
b ồng_
an d</w>
5 8</w>
ăn_ trộm</w>
vi e
premi er
phượng_ hoàng</w>
p _v
như _ý</w>
mạ i_
không_ kích</w>
hưởng_th ụ</w>
gật_ gù</w>
b ịch</w>
200 4</w>
ðinh_ ð
tổng_ kết</w>
thể _xác</w>
t à_
ninh_ đạo_
ngay_ ngắn</w>
l ùm</w>
không_ trách</w>
hồng_l an</w>
hăng_h ái</w>
che_ kín</w>
bent ley</w>
b u</w>
đô ̣ng</w>
z il</w>
tái_ hiện</w>
phương_ nghị</w>
nhiệm_ kỳ</w>
go m</w>
già _n
con_ trẻ</w>
bđ s</w>
ọ i_
̣ ch</w>
v ơi</w>
th òi</w>
t ầng_
olympi a</w>
ngọc_tiêu_l ang_quân</w>
l ầy</w>
khát_ vọng</w>
iể u</w>
hoan_ nghênh</w>
d ẻ</w>
củ ng</w>
bankplu s</w>
7 .
đông_ hải</w>
vô_t ư</w>
tranh_ giành</w>
sá ch_l
sách_l ược</w>
qu ần_th
luật_ lệ</w>
hung_ hăng</w>
ga la
châu_ báu</w>
đậu_ kiến_đức</w>
viện_ phí</w>
sợ _s
gọn_ gàng</w>
già_n ua</w>
bị _can</w>
abi ng</w>
đồng_t ính</w>
đề _cử</w>
ăn_ ở</w>
trang_ nghiêm</w>
thần_th ông</w>
ph ác</w>
nh ức_
nh h</w>
ng õ
n áu</w>
diệ p_th
_tr uyền</w>
_th u_
_ giới</w>
ệ _sinh</w>
ấn_t ú</w>
đại_ lộ</w>
ðức_ nặc</w>
vô_h ạn</w>
truy_đ uổi</w>
quy ền_th
ng_l âm</w>
làm_ bạn</w>
li e</w>
khưu_ xử_cơ</w>
huỳ nh</w>
ho ̣c</w>
cu ả</w>
a_ hoàn</w>
ướt_ đẫm</w>
vân_ trung_
việt_ kim</w>
nhà_v ệ_sinh</w>
nh ận</w>
mă ̣t</w>
hang_ động</w>
gấp_ bội</w>
_ph ẩm</w>
15 /2</w>
„ không</w>
ðịnh_ dật</w>
vũ _đ
v ư
thanh_ lan</w>
pho ng_thái</w>
nh í</w>
lư ỡng_
ku na
kinh_ đô</w>
dẫn_ dụ</w>
_ng ụ</w>
điềm_ tĩnh</w>
tự _d
tr âu_
thương_ vong</w>
quỷ_vương_ tông</w>
an_ bân_ni</w>
4 .
n ở
m i_
hiểm_ trở</w>
h ứng_
gi òng</w>
e p</w>
ữ u_
vi l
sợ_s ệt</w>
như _v
nghiệ p
ước_ tính</w>
tr ốn_
thương_ hại</w>
th ố</w>
tan_ nát</w>
s t_
quái_ lạ</w>
phóng_ hoả</w>
ngàn_ vạn</w>
m ĩ</w>
liên_ hoan</w>
h ậm_
d ấy</w>
cử _nhân</w>
cầu_ giấy</w>
bạch_ quân_
ống_ tay_áo</w>
tr ôi_
s se
mê _hồn</w>
lưu_ hắc_thát</w>
liên_ xô</w>
kế_t iếp</w>
kinh_ hoảng</w>
khái_ niệm</w>
hiê ̣n</w>
fran kie</w>
dấu_ ấn</w>
cư_x ử</w>
a c
_l ỗi</w>
_c ục</w>
/04 /2012</w>
ủ n</w>
ồ m_
ặ m</w>
đứng_ tuổi</w>
đại_ huynh</w>
đươ ̀ng</w>
đôi_ lúc</w>
đám_ tang</w>
sai_ khiến</w>
phục_ khiên</w>
phá n_
l è
l iêm</w>
kết_ cục</w>
hồn_ nhiên</w>
hoá _chất</w>
h ỡi</w>
d ường</w>
7 1</w>
việt_ john</w>
tu ấn_tú</w>
to yo
r áp</w>
nổi_ nóng</w>
nấu_ ăn</w>
nhỏ_nh ẹ</w>
nghiệ p_
n t</w>
miêu_ tả</w>
khủ ng_long</w>
hc v</w>
dạy_ dỗ</w>
du_ vũ
bạch_quân_ nghi</w>
0 8</w>
đ ợi_
ò n_
vũ ng_tàu</w>
trợ _lý</w>
ti ta
thiên_ âm_
quốc_ vương</w>
phiền_ não</w>
nói_ riêng</w>
n ơ
l uyến</w>
is tan</w>
cố ng_hiến</w>
c ù</w>
6 9</w>
ứng_ xử</w>
điên_ rồ</w>
v ây_
tu ý
trườ ng_thanh</w>
thượng_th ừa</w>
s ắm</w>
lý _lan</w>
lo e</w>
h ác_
dân_ lập</w>
cao_ tốc</w>
thi_ sĩ</w>
hậm_ hực</w>
_d ại</w>
ứ ng_long</w>
ể_ oải</w>
ằng_h ắng</w>
ước_ hẹn</w>
u ể_oải</w>
thượng_t ướng</w>
nội_ tình</w>
một_ mực</w>
cửa_ mở</w>
ai_ lại</w>
200 5</w>
1 20</w>
đánh_ lừa</w>
đ ứt_
võ_ ðương</w>
tranh_ đoạt</w>
thái_ bình_dương</w>
n_t ình</w>
mari anne</w>
lão_ trượng</w>
l ít</w>
ju ven
c ờ_
b ục</w>
a .
_t án</w>
uyển_ chuyển</w>
thủ _cấp</w>
t ù_
nd đt</w>
mật_ thiết</w>
lộ t_
lạc_ quan</w>
l ở
huyền_ nạn</w>
giải_ độc</w>
cổ _thụ</w>
bó _tay</w>
b ửa</w>
_điều_ hành</w>
_m ỹ</w>
„ thiếu</w>
từng_ trải</w>
sừng_ sững</w>
pp i</w>
mơ ́i</w>
môn_ học</w>
lộ ng_lẫy</w>
g ập</w>
de r</w>
_h ồng_
x ắc</w>
tốt_ lành</w>
tậ p_h
tầng_ lớp</w>
tàn_ bạo</w>
nh_l ệch</w>
nh ối</w>
lưu_chính_ phong</w>
hà _hà</w>
hoà _
chê nh_lệch</w>
bo bb
_t ất</w>
30 0,000</w>
vân_ dịch
tuy ể
r òng_
qu ấy</w>
phát_ minh</w>
m ồ</w>
khu ông</w>
hắc_bạch _tử</w>
hách_l iên_
bình_ đẳng</w>
bi n_
27 29
áo_ choàng</w>
tâm_ phúc</w>
nghĩa_ trang</w>
mật_ mã</w>
m ày_
l ố
họ p_báo</w>
hoa_th iết_
e m
diệp_th anh</w>
tử _cung</w>
trốn_ tránh</w>
thoả _
ngoại_ quốc</w>
mộc_kiếm_ bình</w>
mi l
l ịnh</w>
ham_ muốn</w>
cho_ rồi</w>
_ch ừng</w>
đồng_ đội</w>
đường_ dây</w>
ăng_ kh
vương_ thông_
trường_h anh</w>
thuốc_ mê</w>
mặ n</w>
lo_ liệu</w>
bừa_ bãi</w>
đ ắm_
ô_nh iễm</w>
x úm</w>
thập_ niên</w>
n ồng</w>
hiệu_l ệnh</w>
giang_ nam_
dung_ nhan</w>
d ét</w>
cử _tri</w>
cổ _vũ</w>
tận_ lực</w>
trông_ nom</w>
thuỷ _sinh</w>
th ốt_
rộ n_r
rầu_ rĩ</w>
q h</w>
n ổ
kh ăng_kh
hoa_ hoa</w>
giải_ đáp</w>
dự _liệu</w>
chúa_ công</w>
chuyể n_đổi</w>
c à</w>
ư a_th
xuất_ huyết</w>
w ard</w>
ng óng</w>
lu i_
la_ tinh</w>
l anh</w>
h ộc</w>
chăm_ chỉ</w>
chào_ đón</w>
cha t</w>
_văn_t ú</w>
_t iện</w>
_ho án</w>
trăm_ họ</w>
tiê n_tử</w>
thiệt_ thòi</w>
song_ phương</w>
nguyễn_thị _
lạm_ dụng</w>
ly_ kỳ</w>
cô dét</w>
0 16
„ có</w>
đồng_ phục</w>
tức_ tối</w>
trừng_ trừng</w>
phò _mã</w>
mắt_ xanh</w>
lu ận_
khai_ mạc</w>
kh ay</w>
hò_h ét</w>
g áp</w>
bơ m</w>
ưa_th ích</w>
vinh_ phụ
thỉnh_ cầu</w>
thơ _
tho n</w>
sinh_ mệnh</w>
ser i
nguyên_ vẹn</w>
n ại</w>
jen ni
ho ay</w>
cả _th
bàn_ ghế</w>
af ghan
_m ẫu</w>
ân_ tố_tố</w>
văn_ nghệ</w>
trường_ sa</w>
trung_ châu</w>
thứ_b ẩy</w>
thác_bạt_ nghi</w>
sức_ ép</w>
n_l ộn</w>
n x
lưu_ tâm</w>
land ry</w>
h ức</w>
b y</w>
ậ p_th
đồ _lôi</w>
ít_ lâu</w>
vững_ vàng</w>
tự_d ưng</w>
tào_ ứng_long</w>
tr ỗi</w>
sư _
nh ẫ
nh ất</w>
ng s</w>
na po
n_l ẻ</w>
m ờ_
lou d</w>
l uyện_
khốn_ kiếp</w>
ferrar i</w>
b ỉnh</w>
ảy_ may</w>
tỉnh_ giấc</w>
triển_ diệp_thanh</w>
tiệ c_
thương_ xót</w>
thiên_âm_ tự</w>
s ô</w>
m ảy_may</w>
lý _văn_tú</w>
ly_ hôn</w>
i grave</w>
gợi_ cảm</w>
giao_ tình</w>
_b í</w>
úng_ tay</w>
xo a_
vắng_ mặt</w>
vinh_phụ ng_tường</w>
truy_ sát</w>
ninh_đạo_ kỳ</w>
nh úng_tay</w>
mất_ mặt</w>
lẫ n_lộn</w>
liệt_ sĩ</w>
l ọt_
dựng_ đứng</w>
dậ y_thì</w>
201 7</w>
xu ồng</w>
vùng_ vẫy</w>
trang_t ương</w>
toyo ta</w>
thú_ nhận</w>
kh ao_
juven tus</w>
cách _biệt</w>
đại_ hoàng</w>
đông_ á_
võ ng_
vu_ trường_thanh</w>
viên_ ngoại</w>
thu_ phục</w>
po iro
nước_ bọt</w>
nhạ t_
ngày_ ngày</w>
lo mon</w>
lo ay_
im_ bặt</w>
hã nh</w>
anh_ đào</w>
đị a_thế</w>
đại_ cao_thủ</w>
ô_ quyển</w>
âu_ dương</w>
tổng_ cục</w>
tuân_ thủ</w>
sớm_ muộn</w>
r ết</w>
nỗi_ lòng</w>
ng_l ự</w>
loay_ hoay</w>
gấp_ gáp</w>
_đ o
tt i</w>
thư_ giãn</w>
ri nho</w>
r ăng_
qu ẻ</w>
qu ạ</w>
poiro t</w>
d ĩnh_
cả_th ảy</w>
c ãi_
b ồn</w>
b anh</w>
al -
_d i
ụt_ rè</w>
để _dành</w>
tô _
tita nic</w>
thực_ tình</w>
r ụt_rè</w>
ng ấm</w>
n ới</w>
lễ _phép</w>
lưỡ ng_lự</w>
lư ng_
ha cker</w>
chi m_
đông_á_ eu</w>
th ao</w>
phiê n_toà</w>
nh_l ương</w>
nghị ch_
m ướn</w>
ja mes</w>
hô _hoán</w>
hà _đông</w>
huỷ _hoại</w>
cho áng</w>
ch è</w>
c ắn_
bột_ bột</w>
afghan istan</w>
7 00</w>
vương_thông_ huệ</w>
tử _nạn</w>
tây_ phương</w>
te h
nhức_ nhối</w>
l ù
giáo_ hội</w>
gia_ tộc</w>
gar in</w>
ch ít</w>
ch ích</w>
ch iên</w>
30 .000</w>
20 /11</w>
wal l</w>
thối_ tha</w>
thiểu_ số</w>
nh ướng</w>
mở _đầu</w>
mặt_ biển</w>
mi ko</w>
mer ce
hoa_ viên</w>
ch âu_l
bá n_lẻ</w>
bao_ bọc</w>
/1 0
đâu_ đâu</w>
ve y
tham_ lam</w>
nhà_ giáo</w>
n_th ị</w>
i ra
hiền_ muội</w>
dò _hỏi</w>
d ơ</w>
ch ối</w>
_huy ết_
đỏ _r
đỏ_r ực</w>
áo_ bào</w>
nhẫ n_tâm</w>
n .</w>
mở _đường</w>
chú a_th
bắc_ giang</w>
ba_ lan</w>
àn_ khàn</w>
thiên_th ạch</w>
t nhh</w>
sh i</w>
r ành_
phòng_ ngừa</w>
o ái</w>
mặt_ hàng</w>
kh àn_khàn</w>
hách_liên_ bột_bột</w>
chiến_ binh</w>
che n_
bí ch
_ là</w>
5 4</w>
đề n_
ð ặng_
vu_ ô_quyển</w>
thảm_ hại</w>
te abing</w>
phí m</w>
le agu
kiệt_ sức</w>
khốn_ nạn</w>
dũng_ mãnh</w>
_v ẩn</w>
_tr ường_
_t ăng</w>
_m a</w>
x ao_
tuyên_ vĩnh</w>
trách_m óc</w>
tinh_ trùng</w>
sinh_ linh</w>
r án</w>
nguy _
lỗ_h ổng</w>
l ừng_
hùng_ vĩ</w>
hu ỵ
giải_ tán</w>
công_ nhiên</w>
cao_ ốc</w>
đ èo</w>
tệ _hại</w>
thiếu_ gì</w>
phòng_ vệ</w>
nguyên_ khí</w>
ma _th
lanh_ lảnh</w>
hết_ lời</w>
cuố c</w>
_h iệp</w>
í ch_l
vật_ dụng</w>
tác_ chiến</w>
tàn_ độc</w>
r ải_
ph ao</w>
nhà _h
ngoại_ ô</w>
l ấn_
kho anh_
hồ _thanh_
hùng_h ậu</w>
g en</w>
ch ơ
bắc_ ninh</w>
vâ ̃n</w>
tiên_ tiến</w>
sóng_ gió</w>
sáng_ chế</w>
pier re</w>
ph ê</w>
như_đ iên</w>
nguy ền</w>
gi ắt</w>
chúa_th ượng</w>
bụ i_
đ anh</w>
trái_ ngược</w>
to á
thiên_ chí</w>
t_m ẻ</w>
phi_ trường</w>
ngây_ ngất</w>
nguyên_ do</w>
ng ứa_
m ảnh_
lục_ bất</w>
lò _s
linh_ thanh_tra</w>
kim_ lăng</w>
khoanh_ tay</w>
gian_ khổ</w>
bra zil</w>
_th ọ</w>
_nh ĩ
1 .000</w>
vi r
tro n</w>
thù_ oán</w>
sức_ sống</w>
sơ _mi</w>
qu ít</w>
p an
n_tho ả</w>
lò_s ưởi</w>
g ào_th
bạch _h
thú _thần</w>
ph ới</w>
nam_ định</w>
mau ra</w>
l ần</w>
hác_ trường_hanh</w>
huyết_ áp</w>
côn_ luân</w>
ành_ chi</w>
thì_th ào</w>
thái_ quá</w>
sự -
sta n
nguyễn_ nguyễn_
h èn</w>
gào_th ét</w>
gs .
d iếm</w>
a o
ệ m</w>
y ve
vị n</w>
tiêu_ thiên</w>
th ịch</w>
săn_ sóc</w>
on line</w>
nghĩa_ khí</w>
ng án</w>
n_thu ần</w>
lỗi_ lầm</w>
kiể u_
_đ ậu</w>
7 /2</w>
đồ _s
đa_ phần</w>
x ẻ</w>
tự _phụ</w>
tôn_ sư</w>
thể _chất</w>
nào_ là</w>
nghĩa_ vụ</w>
nghiêm_ ngặt</w>
mã n_ng
lề _đường</w>
la n_to
hư_h ành_chi</w>
hoà _hợp</w>
d ai</w>
bình_ phục</w>
20 %</w>
đánh_ đập</w>
tỉ _vương</w>
tuy _
thốt_ nhiên</w>
sự- ký</w>
phạm_ văn_
phát_ ngôn</w>
ng ượng</w>
lan_to ả</w>
hoà ng_l
h ói</w>
el l</w>
_ kích</w>
, 5</w>
trương_ tĩnh_chi</w>
sáng_ kiến</w>
sy l
quá _đ
o s
ngu ôi</w>
lê _th
láng_ giềng</w>
lá ch_
khuyết_ tật</w>
háo_ hức</w>
hành_ sơn</w>
e x
c ẳng</w>
bạch_ tiêu_thiên</w>
10 :
đơ n_thuần</w>
tuổi_ đầu</w>
thu_ hà</w>
rắn_ độc</w>
phá _sản</w>
no bel</w>
miệ ng_
lẩm_ nhẩm</w>
f re
bà o_
đ ực</w>
tình_ nghĩa</w>
phòng_ ngự</w>
nghĩ nh</w>
ng ợm</w>
l ly</w>
ku miko</w>
cổ _tích</w>
chủ_ quan</w>
xo ã</w>
t ỵ</w>
ste r</w>
nôn_ nóng</w>
l ùng</w>
ch loe</w>
cao_ dương</w>
bất_ công</w>
bút_ chì</w>
7 2</w>
16 57
ổ n_thoả</w>
võ _phục</w>
tiểu_ thi</w>
thí _dụ</w>
ri s</w>
nhộn_ nhịp</w>
nam_ á</w>
lên_ tiếng_nói</w>
je sus</w>
giá _lạnh</w>
e bo
d ơi</w>
d ong</w>
ẫ y_
ðị a_
vùng_ sâu_
vùng_sâu_ vùng_xa</w>
vi gor</w>
v p
thất_ nghiệp</w>
thu ỵ</w>
sĩ _tử</w>
ngộ_ nghĩnh</w>
mất_ mát</w>
m ầm</w>
l iêu_
kiên_ cường</w>
hồ_thanh_ ngưu</w>
h tc</w>
giả_ mạo</w>
g ă
f an
đau_ xót</w>
ăn_th ua</w>
xu a_
tắm_ rửa</w>
thẩm_ mỹ</w>
s ảng_
nội_ tâm</w>
như_v ầy</w>
mr _đàm</w>
là o_
in a</w>
giáo_ huấn</w>
gir l
dân_ gian</w>
cây_ cỏ</w>
ch anh</w>
6 7</w>
đí ch_
tàn_ phá</w>
tra_ hỏi</w>
thái_ tổ</w>
ng út</w>
bốc_ thiên_chí</w>
báo_ hiệu</w>
bec kham</w>
b ề
b ú</w>
_s anh</w>
đồ_s ộ</w>
đề _cao</w>
t x
siêu_ phong</w>
no n_
ng ừ
n ệm</w>
mệt_ nhọc</w>
lưu_ hành</w>
kỵ _mã</w>
khả_ nghi</w>
học_ đường</w>
giang_ đô</w>
f lo
bình_ phong</w>
biên_ bản</w>
_d iệu_
_c âu</w>
78 53</w>
09 :
tứ _ph
t ợn</w>
ss e</w>
quang_l iêm</w>
q g</w>
nghiệp _vụ</w>
mạnh_ dạn</w>
mai_ siêu_phong</w>
lách_ cách</w>
chuyển_ nhượng</w>
_m áu</w>
ð áng</w>
trông_ coi</w>
trung_ thổ</w>
thành_ thực</w>
sca n
quy ê
phụng_ hoàng</w>
phạm_ thị
kế_ sách</w>
ira q</w>
gia_ cầm</w>
bác_ học</w>
phân_ công</w>
nghị _định</w>
khí _huyết</w>
xếp_ bằng</w>
u_l inh</w>
tân_ khách</w>
trung_ thực</w>
ste phen</w>
nhỏ_nh ắn</w>
nhân_ tạo</w>
nhiên_ liệu</w>
man_ city</w>
lương_ thiện</w>
ly_ khai</w>
khiêu_ khích</w>
h í
bị nh</w>
bê _b
6 8</w>
ờ_m ịt</w>
v ãng</w>
tiền_ đạo</w>
phân_ tán</w>
ph ịch</w>
nh ộn</w>
m ờ_mịt</w>
lương_ thảo</w>
kh âm</w>
d ỡ</w>
bị a</w>
b è
ar gen
_ph iếu</w>
ð ối</w>
xứ _sở</w>
wil li
vi_ khuẩn</w>
tượng_ trưng</w>
t óc_
r áo</w>
r y
nh ẫn_
l iều_l
hệ _điều_hành</w>
gala x
cử u_long</w>
cá u_
bỏ _phiếu</w>
ướng_ bỉnh</w>
tác_ phong</w>
s ó
pi ppi</w>
nguyễn_ hữu_
ng ông_
l ượng_
hợ p_lực</w>
hẹn_ hò</w>
hoàng_ thái_hậu</w>
d ẫm</w>
b ướng_bỉnh</w>
ơn_ trang</w>
đạo_ huyền_
đại_ đội</w>
thiết_ thực</w>
ng áp</w>
liên_t ưởng</w>
kết_ bạn</w>
hiện_th ời</w>
gánh_ vác</w>
d ới</w>
cứu_ giúp</w>
c ấy</w>
bí _hiểm</w>
binh_ pháp</w>
ang i
11 /9</w>
y_t ớ</w>
vân_dịch _lam</w>
tức_ thời</w>
tứ_ph ía</w>
thái_ hân</w>
thiếu_ thốn</w>
thi_ trắc_nghiệm</w>
ruộ ng_
quanh_ co</w>
qu ỵ</w>
nghiêm_ chỉnh</w>
d ù
bu ga
an mar</w>
đồ i_
đả _kích</w>
ðoàn_ chính_
xá _lợi</w>
thua_ kém</w>
s ưởi</w>
rải_ rác</w>
quy_ luật</w>
phòng_ bệnh</w>
m ẹo</w>
lập_ công</w>
kế _thừa</w>
du_vũ _cường</w>
bộ _hạ</w>
bệnh_ tình</w>
b ừng_
_l ô</w>
đầu_ mối</w>
điềm_ nhiên</w>
xí ch_
tri_ kỷ</w>
thườ ng_hà</w>
ng ủ
mới_ lạ</w>
lý_xuân_ hồng</w>
l è</w>
el _
cờ_ bạc</w>
cấ p_t
bộ _binh</w>
bô ̣</w>
_v ân_
đại_ hoạ</w>
yve tte</w>
v ãi</w>
u s</w>
te in</w>
quần_ đảo</w>
nhà_h át</w>
lục_ soát</w>
kinh_ hồn</w>
giăng_ vangiăng</w>
cầu_ hôn</w>
chiê ́c</w>
bất_ trắc</w>
_d iễm</w>
u nd
u l
tối_ om</w>
tiến_ triển</w>
thực_ tập</w>
thừ a_th
phù ng_t
n 1</w>
mi s
lung_ linh</w>
hảo_ tâm</w>
ghê _r
ghê_r ợn</w>
đỗ _t
đăng_ quang</w>
ð ảng</w>
é c</w>
thu ê
th iệp</w>
t ường_t
o s</w>
my anmar</w>
la d
l ấn</w>
ha ll</w>
g d</w>
cao_th ấp</w>
c t</w>
b tc</w>
_ phách</w>
tụ _h
tôn_ vinh</w>
triết_ lý</w>
thanh_ lâu</w>
t ồn_
sa_s ầm</w>
nghị _lực</w>
lôi_ cuốn</w>
len_l én</w>
l ác</w>
hoa_ yêu</w>
ho r
dã _tâm</w>
chu ỳ</w>
bạch _vạn_
_đ ùa</w>
_b ang</w>
2 /
điều_ dưỡng</w>
vi s
thị _phi</w>
thăm_ hỏi</w>
tay_ vợt</w>
ta i
r ủi</w>
m ít</w>
ch ật</w>
bừng_ bừng</w>
bảo_ khố</w>
bạch_vạn_ kiếm</w>
b v</w>
ð ồ
th ính_
s cu
quá ng</w>
nước_ nhà</w>
lắc_ lắc</w>
khả _thi</w>
7 0
đau_ buồn</w>
v iết_
tường_t ận</w>
thái_ thú</w>
rối_ bời</w>
p en
n eo</w>
liên_ hợp_
kế_t oán</w>
kháng_ chiến</w>
chập_ch ờn</w>
champions _league</w>
b ung</w>
đất_ liền</w>
đại_ việt</w>
đi ̣nh</w>
ích_ kỷ</w>
y_ dược</w>
ví _như</w>
v ấp</w>
quách_ khai</w>
phản_ cảm</w>
o a_
nh ứt</w>
linh_ cảm</w>
ky ̀</w>
khối_ lượng</w>
bất_ thần</w>
bá u_
yế n_t
vic to
tây_ bắc</w>
s ủng_
s ùng</w>
ngày_ kia</w>
mặt_ trận</w>
liên_hợp_ quốc</w>
11 :
yể m_
vô_c ớ</w>
tim_ mạch</w>
thúc_ giục</w>
thám_ thính</w>
thu_ cúc</w>
s òng</w>
nga y_t
n ước</w>
mơ_ mộng</w>
kiêu_ hãnh</w>
khát_ khao</w>
gi ô
ch ả
12 48
đ ính_
ấ p</w>
x ít</w>
tĩnh_ mịch</w>
thiên_t ài</w>
phiêu_ lưu</w>
phi_ yến</w>
nguyên_ liệu</w>
ngo ặt</w>
n ợ
l ụt</w>
khao_ khát</w>
hi lla
eu ro</w>
ber na
b uộc_
_ sách</w>
xem_ thường</w>
tư ng_
tiêu_ tán</w>
sủng_ ái</w>
scan dal</w>
s en
ri a_
hàng_ ngũ</w>
h ách</w>
dân_ sự</w>
cạ n_
cũ _
thương_ cảm</w>
nghiêm_ mật</w>
mãn_ng uyện</w>
m_ s
lăn_ lộn</w>
hồng_ cơ</w>
hô i_
g ì
chi_ nhánh</w>
bất_ hối</w>
bảo_ mật</w>
báu_ vật</w>
_ch ế
26 18
vir gi
tưng_ bừng</w>
tuyệt_ nhiên</w>
th iểm</w>
song_h iệp</w>
náo_ loạn</w>
nhất_ trí</w>
n ê</w>
mại_ dâm</w>
lu mi
dáng_ điệu</w>
bút_ ông</w>
b ói</w>
_th ơ</w>
ồ_ ạt</w>
ươ i_
đe n_t
u ẩn_
u i</w>
thô _lỗ</w>
th ớt</w>
th óc</w>
nói_ gì</w>
nh ớn</w>
i acute</w>
hạ _tầng</w>
giao_ chiến</w>
cải_ tạo</w>
c re
_th ượng</w>
đá _
y_ khoa</w>
v ế</w>
tận_ hưởng</w>
tuyết_ sơn</w>
thủ _thuật</w>
nâng_ cấp</w>
nhân_ ký</w>
huy _hoàng</w>
cơ _chế
cơ_chế _thị_trường</w>
ch ướng</w>
ca l
bất_ tiện</w>
biến_ động</w>
b ật_
_h àm</w>
đề n_b
đầ y_tớ</w>
đạo_huyền_ chân_nhân</w>
đạm_ chân</w>
l ảng</w>
khó _dễ</w>
cảm_ hứng</w>
cũ_ kỹ</w>
_ giáo</w>
đen_t ối</w>
xoá _bỏ</w>
việt_ kiều</w>
tuấn_ mã</w>
thình_ thịch</w>
sảng_ khoái</w>
nhất_ nhất</w>
ngượng_ ngùng</w>
nguyên_ soái</w>
khuyết_ điểm</w>
hiền_đ iệt</w>
dụ _hàm</w>
chủ _lực</w>
bobb y</w>
ba ̣n</w>
vùng_ biển</w>
thảo_ nào</w>
m ú
m -
lạ _mặt</w>
hồi_ âm</w>
huyết_ ðao</w>
dứt_ điểm</w>
chuyển_ hướng</w>
bách_t ính</w>
b ru
_ cười</w>
ị n</w>
ư _
đình_ đám</w>
đào_ hoa</w>
điểm_ số</w>
uông_ dụ_hàm</w>
tái_ nhợt</w>
t ôi_
r ền</w>
l ịnh_
k iêu</w>
hoàn_ chỉnh</w>
dầu_ khí</w>
cali for
biết_ ơn</w>
ar a
a n_t
_ng ữ</w>
19 /11</w>
đa_ khoa</w>
xo e</w>
tuổi_ thơ</w>
tt i_
ti ̀nh</w>
thuộc_ lòng</w>
thu_ hoạch</w>
s_ a
ngô _chi_
lừng_ danh</w>
l ối_
hă ́n</w>
giá _như</w>
châu_ nhân_ký</w>
b y
ðinh_ ðang</w>
u -
tậ n_tâm</w>
tiê ́ng</w>
p s</w>
ngang_ ngược</w>
mới_ rồi</w>
lưu_ bị</w>
hoả _côn</w>
dương_ quảng</w>
chứa_ đựng</w>
đổ _bộ</w>
đè n_l
yể u_
ti l
t_m ắng</w>
quá t_mắng</w>
nh ẵ
ngự _
nghị _luận</w>
n íu</w>
leagu e</w>
khán_ như</w>
h 30</w>
giải_ toả</w>
cố _vấn</w>
công_ thức</w>
cát_ hiểu_phong</w>
bu m</w>
b ỉ
0 6</w>
đổ _nát</w>
đê _tiện</w>
đ ít</w>
ðịnh_ tĩnh</w>
tố _thư</w>
trúc_ pháp_
thuỷ _sanh</w>
th ệ</w>
ph anh</w>
nhạ n_
n ấc</w>
mẹ_ kiếp</w>
kỵ _sĩ</w>
kho áng</w>
huyền_t ừ</w>
hiế p_
h ề
cảnh_ sắc</w>
c òng</w>
b ùa</w>
_s úng</w>
12 -
w a</w>
tốt_ bụng</w>
tuy ến_
tr ường</w>
t ám_
số_ một</w>
khăng_kh ăng</w>
học_ kỳ</w>
hiển_ hạc</w>
ch an
_t ội</w>
„ vậy</w>
u_ thuỷ</w>
to ky
thiện_ cảm</w>
ninh_ bình</w>
mạch_ kỳ</w>
mariuy t</w>
hoạn_ nạn</w>
g ân_
bình_ chọn</w>
bo ong</w>
ðoàn_chính_ thuần</w>
xâm_ hại</w>
x ốc</w>
v ướng_
tủ i_
tính_ nết</w>
truy_ kích</w>
tru_ tiên</w>
trong_ sạch</w>
th ẫ
se l</w>
lào_ cai</w>
liên_ hồi</w>
hạ _thần</w>
hã i_
hiểm_ nghèo</w>
g ã
chuyển_ biến</w>
ban_ nãy</w>
_m ô</w>
790 9</w>
đ ơ</w>
tây_ vực</w>
trần_ hải</w>
tiếng_ vang</w>
thẫ n_thờ</w>
sắc_ màu</w>
súc_ sinh</w>
r ắ
ngoại_ lệ</w>
ngay_t ức_
ng ựa_
lũ_l ụt</w>
kh ăn_
giam_ giữ</w>
doãn_ trừng</w>
xí ch_l
vũ_tr ang</w>
thường_ vụ</w>
nghi_ lễ</w>
l _s
khinh_ thường</w>
gi ếm</w>
fi fa</w>
ẫ ng</w>
đặt_ hàng</w>
đơn_ độc</w>
yên_ trí</w>
uẩn_ khúc</w>
uni ce
tiếp_ đón</w>
thiên_ ma_
tam_ cô</w>
ph ỉ</w>
nư ̃a</w>
nguy_ kịch</w>
ku rt</w>
gian_ nan</w>
có_th ai</w>
thoả_ đáng</w>
phê _duyệt</w>
phu_ quân</w>
ng_l ễ</w>
mê _man</w>
me r</w>
m ập_
làm_ ơn</w>
er ne
diễ n_t
chỉ_ bảo</w>
chi_ trả</w>
06 2019</w>
unice f</w>
thiêu_ hoả_côn</w>
nước_ da</w>
nhâm_ thìn</w>
nho ẻn</w>
mị t_m
lú a_
chúng_ sinh</w>
bất_ cập</w>
b ần</w>
ông_ tin</w>
xót_ thương</w>
x ỏ</w>
tă ng_t
tái_ hợp</w>
tuy ê
trúc_pháp_ khánh</w>
trình_ làng</w>
thực_ thi</w>
thiên_ si</w>
thanh_ quản</w>
n_ lòng</w>
n ỏ</w>
n ao</w>
harve y</w>
giang_nam_ song_hiệp</w>
g ở</w>
chuyên_ viên</w>
ba_ lô</w>
ath ena</w>
argen tina</w>
_c ốt</w>
_ đại_
đợi_ chờ</w>
đ ố
võ _sư</w>
v ọng_
tâm_ địa</w>
thành_ thị</w>
s tan</w>
riêng_ biệt</w>
nổ _súng</w>
nhục_ nhã</w>
ng ột_
linh_ mục</w>
l ẫm_
khả m</w>
g ượng_
dự _tính</w>
dò m_
dã _t
cất_ giấu</w>
công_ đoàn</w>
chóng_ mặt</w>
chu_ kỳ</w>
_v ai</w>
xu i</w>
tăng_t ốc</w>
thành_ quả</w>
thiên_ trúc</w>
quốc_ lộ</w>
ni l</w>
nh ảm</w>
ngô_chi_ vinh</w>
ng ưu_
n ịnh_
lạ ng_
kho ai_
dè _d
dè_d ặt</w>
b ệ</w>
ar d
ủ _r
xương_ sống</w>
sanh_ xuân</w>
mar tin</w>
chế_ ngự</w>
ch òm</w>
c ưa</w>
19 -
đặc_ trưng</w>
đ ôn</w>
êm_ ái</w>
w ay</w>
v âng_
tài_ ba</w>
tà n_t
thư ́</w>
th â
s ờ
s tre
quách_t ỉnh</w>
phù _hộ</w>
nghệ_th ông_tin</w>
lo á
kh ấn</w>
g ừ</w>
cá u</w>
cá _m
a_h át</w>
_t à</w>
đá i</w>
x in
tự_ ái</w>
tức_ cười</w>
thế_ ra</w>
th ờ_
t ùng_
t áp</w>
si ̃</w>
quý_ khách</w>
qu ặc</w>
phàn_ nàn</w>
công_ nghệ_thông_tin</w>
chăn_ nuôi</w>
che r</w>
buồn_ ngủ</w>
buga tti_
8 5</w>
5 9</w>
ự u_
độc_ ma</w>
đánh_ rơi</w>
ô ̉i</w>
vô_l uận</w>
tiền_ mặt</w>
súc_ vật</w>
nồng_ nặc</w>
ngạo_ mạn</w>
nam_ bút</w>
mãn_ châu</w>
mu l
m ắm</w>
lên_ lớp</w>
ko vic</w>
gia ng_h
gh ì</w>
d iều_
chân_ thật</w>
bề_ mặt</w>
bàn_ giao</w>
_ph ù</w>
12 /2</w>
tào_th u_
suy _tư</w>
sho p</w>
r ành</w>
nổi_ loạn</w>
nhi_ đồng</w>
li sa</w>
e -
an_ nguy</w>
_v ô
đồng_ nghĩa</w>
địa_ hình</w>
điểm_ cao</w>
tình_ thương</w>
th en</w>
năng_ động</w>
nh ang</w>
nguyên_ văn</w>
lý _mục</w>
kì m_
hình_ thù</w>
hilla ry_
danh_ vọng</w>
bugatti_ vey
đạo_ phúc</w>
đại_ dũng</w>
v .</w>
u n
tuyết_ nghi</w>
thật_ thà</w>
thu_ dọn</w>
l ì</w>
kh ựng</w>
kh ét_
fi le</w>
cử _hành</w>
chỉnh_ tề</w>
bình_ quân</w>
b ô</w>
đồng_ cỏ</w>
đền_b ù</w>
âm_ hiển_hạc</w>
v. v</w>
tiề m</w>
thơ ̀i</w>
ra u_
quanh_ quẩn</w>
nhậm_ dao</w>
ngọc_ anh</w>
ngo ạn_
nghi_ thức</w>
kình_ địch</w>
khó _nh
khó_nh ọc</w>
khí ch_l
k s
giá n_
gi ấu_
công_ sai</w>
ch ưa_
b ặm</w>
. 9
ẩn_ cư</w>
ðinh_ð iển</w>
vâng_ dạ</w>
tưởng_t ư
tu be</w>
nh ao</w>
mất_ ngủ</w>
khinh_ bỉ</w>
hữu_ ích</w>
hỏi_ đáp</w>
hân_ hạnh</w>
c ựa</w>
bẩm_ sinh</w>
b ĩu</w>
_d iện</w>
6 /2</w>
5 /2012</w>
đ k
v óc_
tàn_ khốc</w>
thất_ lễ</w>
th âu_
t ết_
phù _dung</w>
cứu_ vãn</w>
cân_ đối</w>
ba ̀</w>
6 2</w>
5 ,
ơ ng</w>
để _mắt</w>
đế m_
đại_ uý</w>
ám_ chỉ</w>
tính_ khí</w>
tr ề</w>
nam_ cương</w>
kiều_ loan</w>
ho ằng_
eli c</w>
cự u_
cung_ ứng</w>
bách_ hoa</w>
đếm_ xỉa</w>
đại_ chu_thiên</w>
đúng_ ra</w>
đèn_l ồng</w>
vô_ nghĩa</w>
tiều_ tuỵ</w>
tiế n_tho
sự _vật</w>
ph é
nhược_ điểm</w>
n_l ẽn</w>
làm_ phản</w>
là ng_
l ó</w>
ké o_th
hillary_ clin
giáo_ đồ</w>
cười_ mát</w>
cao_ phong</w>
bẽ n_lẽn</w>
ế_t ắc</w>
yêu_ đương</w>
xúc_ xắc</w>
tào_thu_ ðạo</w>
sấm_ sét</w>
s ụt_
phùng_t ích
lôi_ thôi</w>
lê _đ
hãi_ hùng</w>
e k</w>
bức_ xạ</w>
biển_ cả</w>
b ế_tắc</w>
đại_ nghĩa</w>
ô ́c</w>
x ú</w>
vo ng_
to_ tướng</w>
thờ_ ơ</w>
th ầu</w>
say_ xỉn</w>
nước_ biển</w>
nhìn_ chung</w>
ngạ ch_l
lý_th u_thuỷ</w>
kéo_th eo</w>
ké p</w>
huynh_ trưởng</w>
gi ụa</w>
ch òi</w>
c y</w>
angi elic</w>
00 .000</w>
ế_ trung</w>
đi ê</w>
tưởng_tư _thừa</w>
trọng_ trách</w>
thành_ đạt</w>
thiên_ hà</w>
nó i.
no r
một_ chiều</w>
e mi
diêm_ vương_
d an</w>
chứ ng_th
ch ùng</w>
bi_ kịch</w>
y ce</w>
uyển_ tinh</w>
trơ _tr
thiên_ văn</w>
thanh_ xuân</w>
sơ _ý</w>
r âm</w>
mạ nh_lương</w>
cơ n_s
_ph ân_
10 -
âm_ dương</w>
vương_ tích
tôn_ quyền</w>
quyết_ đoán</w>
phục_ kích</w>
nh ẽo</w>
ngô_ bảo_
kỹ _nữ</w>
khích_l ệ</w>
khu_ phố</w>
khu âng</w>
hội_ họp</w>
e _d
d ồi_
chân_ tình</w>
ca s
6 6</w>
vương_tích _hương</w>
v in</w>
u ấn</w>
tổng_ bí_thư</w>
tho i</w>
t  
ph ò</w>
ngô _thị
iề ng</w>
dồi_ dào</w>
b ưu</w>
ðại_ hữu</w>
tiếp_ đãi</w>
phùng_tích _phạm</w>
l iên_th
j an
bả n_thảo</w>
_m ãng</w>
tố n_
t iệt</w>
nghi_ hoà</w>
khổ _
chính_ đáng</w>
chuyển_ giao</w>
bóng_ ma</w>
andre i</w>
_đ ất</w>
ượ ng_hải</w>
xử _tử</w>
vô_ ý</w>
vóc_ dáng</w>
v òi</w>
trở_ mặt</w>
trắng_ xoá</w>
thu ỷ_l
th inh</w>
sơ n_đông</w>
phấn_ khích</w>
phả n_t
nh áo</w>
người_ xưa</w>
h ũ</w>
gia_ súc</w>
cải_ tiến</w>
ch ổi</w>
ch uốc</w>
c điê</w>
bắt_ nạt</w>
bắt_ nguồn</w>
bá ch_th
b ẩn_th
_s ĩ
5 9
đình_ phụng</w>
đ ằng_hắng</w>
t ao_
quân_ nhân</w>
quan_t am_
qu ẳng</w>
par t</w>
nh ầm_
lo_ nghĩ</w>
l ấm_
je an</w>
hồ ng_h
c ài_
bẩn_th ỉu</w>
a k</w>
_l ân</w>
1 /
đã _đ
you tube</w>
sa to</w>
ro o
quý t</w>
ngh ịch
m àng_
lưu_ giữ</w>
hải_ dương</w>
ch _đ
al _
_l ôi_
đắc_ lực</w>
đông_ nam_á</w>
v ôi</w>
uố n_
r àng_
nhiễm_ trùng</w>
ngại_ ngùng</w>
merce des</w>
ko h
hàng_ không</w>
giả _t
c ồn</w>
bạch _dương</w>
_thiên_th u</w>
_th u</w>
xuân_ nh
xo n</w>
x i_
u ội</w>
tận_ cùng</w>
tư_ bản</w>
tư ới</w>
tá n_t
thể_d iện</w>
th ốc</w>
say_ đắm</w>
quốc_ dân</w>
năng_ khiếu</w>
nguyê n_t
lục_ ðại_hữu</w>
i ae
hoa_ tiên</w>
cơ _thiên_
c c
_t úc</w>
đ o_
vừa_ ý</w>
tàu_ ngầm</w>
thế_ trận</w>
the _
s ành_
phú_ quý</w>
pho to
nhầm_ lẫn</w>
m à
lập_ trường</w>
liên_t ấn</w>
khất_ ðan</w>
iae a</w>
hoang_ vu</w>
dư _hồng</w>
bị a_
bang ko
b ang_
79 11</w>
23 /12</w>
10 %</w>
ớ t_
đèn_đ uốc</w>
v ẹo</w>
tr ù</w>
thức_ giấc</w>
quan_tam_ thắng</w>
phân_ loại</w>
nh ấp</w>
n son</w>
jo kovic</w>
hào_ khí</w>
gh ẹo</w>
dư_th ượng_hải</w>
cơ_thiên_ khuyết</w>
bịa_ đặt</w>
_nh ung</w>
_ địa</w>
xa_x ăm</w>
x áo_
triều_ đại</w>
thừ a_thế</w>
thể_d ục</w>
t át_
nh ơ
ngông_ cuồng</w>
ng_t ưởng</w>
lạnh_ ngắt</w>
lên_ án</w>
kinh_ sư</w>
kim_ bất_
hồi_ tưởng</w>
hoài_ lâm</w>
h ớp</w>
d iê
công_ trường</w>
chôn_ cất</w>
cao_ cả</w>
bửu_ châu</w>
biế ng</w>
_t ử
_ph ật</w>
_l ão</w>
8 2</w>
đa_ tình</w>
tuy_ rằng</w>
trừng_ trị</w>
trấ n_thủ</w>
le _
kh ốc_
ja ck
ir e</w>
hàn_l âm</w>
fa de
bu s</w>
30 4</w>
đất_ trời</w>
đại_ giang</w>
điên_ đảo</w>
vị _tất</w>
viễn_ kiều</w>
tổ _thiên_thu</w>
tú _anh</w>
ta r</w>
s ào_
ph ăng</w>
nê ́u</w>
nhị p_
m o</w>
kim_bất_ hoán</w>
khởi_ nghĩa</w>
hạ_ mình</w>
bâng_ khuâng</w>
bor gh
al bum</w>
9 /
ẩn_ chứa</w>
đào_th ục_
yaho o</w>
tráng_ sĩ</w>
thập_ kỷ</w>
r áo_
quyền_th ế</w>
phản_ nghịch</w>
phát_ tài</w>
pe ter
nặng_ tr
ngừ i</w>
n õ
mỏng_ manh</w>
lộc_ sơn</w>
lỗ _mãng</w>
le na</w>
i u</w>
i ii</w>
cơn_s ốt</w>
califor nia</w>
bản_ sao</w>
ấu_ chốt</w>
đá n</w>
u grave</w>
trì_ sanh_xuân</w>
thực_ trạng</w>
th ẹ
th iệ
te x
nhắn_ tin</w>
ng_h ùng</w>
m ấu_chốt</w>
lam borgh
khổ ng</w>
khí a_
khía_ cạnh</w>
giảo_ kim</w>
ge l</w>
chơi_ đùa</w>
biến_ chứng</w>
_m ay</w>
ủ _độ</w>
đổ ng_
đào_thục_ nhi</w>
ác_ nhân</w>
xanh_ biếc</w>
tiếp_th u</w>
s ảo</w>
phi_ tần</w>
mou rinho</w>
liên_ can</w>
line _di
kh o_
hoàng_ thành</w>
gây_ chuyện</w>
el d</w>
dự _phòng</w>
diễn_t ả</w>
chữ _viết</w>
chớp_ nhoáng</w>
ce line_di
_ph ượng</w>
_nh i_
ờ_đ ẫn</w>
đông_ đúc</w>
đình_ phương</w>
đ ờ_đẫn</w>
tổng_ binh</w>
tái_ ngộ</w>
trần_th ủ_độ</w>
tiểu_ đường</w>
tiêu_ sái</w>
til de</w>
sơn_t ây</w>
nghịch_ ngợm</w>
na h</w>
lê _d
lo à</w>
l li</w>
hội_ chứng</w>
hiệp_ định</w>
f ê
f ar
ca -
bố _con</w>
vang_ vọng</w>
tra_ tấn</w>
tiên_ liệu</w>
thảo_ dược</w>
thâm_ trầm</w>
thái_ tôn</w>
t ơi_
rầm_ rộ</w>
qu ỉ
nhà _kh
khất_ đan</w>
hăm_ doạ</w>
gr and
giáo_ khoa</w>
dòm_ ngó</w>
d d
chân_ lý</w>
ch ừa</w>
celine_di on</w>
bả _vai</w>
biểu_ thị</w>
10 4</w>
0 9</w>
đồng_ bằng</w>
yên_ nhiên</w>
vâ ̣y</w>
v ẩy</w>
tử _thần</w>
th õng</w>
số_ ít</w>
phân_ tâm</w>
n ắn</w>
n uối</w>
l ười</w>
khẳng_ khái</w>
hội_ nhập</w>
chẳng_ là</w>
_th ánh</w>
_nh ạt</w>
2730 9
í n_
tương_ trợ</w>
thế_ dân</w>
th ưởng_
nhận_ diện</w>
mo nd</w>
hỡi_ ơi</w>
giúp_ sức</w>
gia_ lai</w>
danh_ nghĩa</w>
căm_ ghét</w>
cây_ bút</w>
biên_ chế</w>
_m ưu</w>
đỗ _hưng</w>
ấ u</w>
vân_ soái</w>
tư_ không_
trần_ quốc_tuấn</w>
thể _lực</w>
thẹ n_th
thiên_t ai</w>
thanh_ bình</w>
sá nh_
r éo</w>
quan_ lại</w>
o ảng</w>
nguy ền_
lộc_ công</w>
liều_l ĩnh</w>
l ừng</w>
kỳ _bí</w>
h ự</w>
cảm_ khái</w>
c ữu</w>
berna be
bay_ bổng</w>
b .</w>
a s
08 :
̣ o</w>
đ ĩnh</w>
xo ảng</w>
trai_ gái</w>
ph ơi_
nóng_ ruột</w>
niên_ hiệu</w>
nguyền_ rủa</w>
lơ _đ
lây_ nhiễm</w>
cười_ gằn</w>
cà _m
chìm_ đắm</w>
chung_ thất</w>
bộ _môn</w>
_kh uất</w>
đỗ_t ất_
uỷ _thác</w>
ràng_ buộc</w>
r ảnh_
phạm_ dao</w>
o_ lánh</w>
ngoã _cương</w>
m éo_
khẩu_ khí</w>
hẻ o_lánh</w>
hơi_ sức</w>
hình_ tượng</w>
giễ u</w>
girl s_a
gi ày_
d re
cửa_ ải</w>
cổ _đại</w>
chứng_ cứ</w>
chật_ hẹp</w>
che _khuất</w>
bí ch_
6 8
30 %</w>
2 50</w>
vạn_ vật</w>
tứ _xuyên</w>
tù_ và</w>
triết_ học</w>
thân_ yêu</w>
r ằm</w>
q .</w>
nhã _lan</w>
ngăn_ ngừa</w>
mộc_ cao_phong</w>
lý_t ú
kỳ _thị</w>
khấu_ đầu</w>
h .
giấu_ giếm</w>
girls_a loud</w>
cô _t
cla u
chứng_th ực</w>
chi_ cục</w>
79 19</w>
78 55</w>
ð ạt</w>
vạn_ nhất</w>
van_ xin</w>
v -
trấn_ an</w>
thầ y_t
thuỷ _tr
tan_t ành</w>
r ác_
nha_ trang</w>
nh át_
mong_ ước</w>
lơ ̀i</w>
lo ang_
i t</w>
hùng_ mạnh</w>
g ợn</w>
d ơ
công_ suất</w>
chăm_ lo</w>
c a_hát</w>
_v ẫn</w>
_nh ục</w>
_l ấp</w>
_l ạt</w>
7 9</w>
19 /2</w>
tư _th
tàn_ phế</w>
thật_ tình</w>
thánh_ chỉ</w>
suy _tính</w>
sa l
r ặng</w>
qu ét_
phổ _trí</w>
nhân_ chứng</w>
lữ _bố</w>
lý_tú _ninh</w>
loang_ loáng</w>
khuyên_ giải</w>
hữu_ nghị</w>
h át_
g ò_m
dằn_ mặt</w>
cáo_ biệt</w>
c ờ
bình_ thuận</w>
bàn_ cờ</w>
b ênh</w>
197 5</w>
đắ n_đ
đắn_đ o</w>
vật_ thể</w>
tức_ khắc</w>
tứ _chi</w>
tố ng_l
trả m_
te ng</w>
r ê</w>
quân_ lính</w>
qu ẹo</w>
nhà_tr ọ</w>
n ên_
lư ỡi_
lu ́c</w>
hữu_l ượng</w>
hầm_ hầm</w>
hàn_ ðào</w>
gi à_
erne st</w>
bay_ lượn</w>
b ắ
đỗ_tất_ thư</w>
tối_ sầm</w>
trong_ ngoài</w>
tiêu_l ĩnh</w>
thông_ thiên_phong</w>
quấy_ rầy</w>
quí _vị</w>
phụng_ mệnh</w>
nhi ̀n</w>
nh e
ngộ_ xuân</w>
lo ren</w>
hà_v ỹ</w>
h ằn</w>
dương_ khang</w>
cài_ đặt</w>
ch ường</w>
bà _trưng</w>
bangko k</w>
b ế
_d ục</w>
200 3</w>
áp_ giải</w>
tương_ ứng</w>
trêu_ chọc</w>
tri_ phủ</w>
sa m</w>
s ỉ</w>
quảng_ trị</w>
kỳ_ quặc</w>
hờ _h
hờ_h ững</w>
9 5</w>
đinh_ xuân_thu</w>
ác_ tăng</w>
tốn_ kém</w>
tù _binh</w>
táo_ bạo</w>
trưng_ bày</w>
suy _ng
suy_ng ẫm</w>
phí _công_
phong_t ế_trung</w>
ngoài_ miệng</w>
mã o</w>
lưu_ trữ</w>
koh ler</w>
khắc_ nghiệt</w>
khiế t_
k ỉ
hoà_nh ập</w>
giới_ luật</w>
d t</w>
con_ nuôi</w>
chi ́nh</w>
ch ênh_
bình_ tây_
x ay</w>
vớ _vẩn</w>
v ườ
thở _h
thở_h ắt</w>
suy_ giảm</w>
q t</w>
phí_công_ lượng</w>
ngh ếch</w>
gia_ trang</w>
dính_ líu</w>
chí_ ít</w>
cha_ xứ</w>
_ph ổ</w>
1, 000,000</w>
độ ng_thái</w>
đều_ đều</w>
vinh_ danh</w>
v òi_
tự _vẫn</w>
tâ y_th
tu ý_
r ụi</w>
p la
ng ụ
la_ hán</w>
l iêm_
khuôn_ viên</w>
hoa_ quả</w>
hai_ bà_trưng</w>
gò_m á</w>
ebo la</w>
ch ưởng_
bấy_ lâu_nay</w>
ano r</w>
_v oi</w>
ư ỡn</w>
v el
trương_ phi</w>
r à</w>
ph ả</w>
p ri
gs. ts</w>
cầm_ cự</w>
cuô ̣c</w>
b èo</w>
_t á</w>
_r ể</w>
đương_ đầu</w>
x ẻo</w>
u ế</w>
tạo_ hoá</w>
tiểu_ thuý</w>
thuỳ _trang</w>
thanh_ nhã</w>
tha ́c</w>
nhấp_ nháy</w>
nh ổm</w>
má t_
muô ́n</w>
lượ t_
huyền_ ảo</w>
h ốc</w>
c âm_
bằng_ phẳng</w>
biết_ chừng</w>
đường_ thuỷ</w>
đánh_ cá</w>
ô m_
xao_ xuyến</w>
võng_ cơ</w>
từ_ giã</w>
tô n_đ
tiêu_ tiễn</w>
thâm_ nhập</w>
t ày</w>
sinh_ đôi</w>
s k
phát_ xuất</w>
oo o</w>
nhân_ đạo</w>
ngoạn_ mục</w>
nam_ cung_
mật_ độ</w>
mur ray</w>
m ấp_
hạ c_
ba l</w>
_h ướng</w>
20 2</w>
đi_ chăng_nữa</w>
xe_l ăn</w>
tạ _yên_
tính_ mệnh</w>
ro ma</w>
qu ầng</w>
par is
p -
nhị_ nguyễn_
n_thanh_ nhã</w>
lộc_ trượng_
làm_ tình</w>
lla s</w>
k ra
ha ̀nh</w>
h úc</w>
go l
d ùng_
công_ vụ</w>
_ch ính</w>
đấu_ trường</w>
đương_ thời</w>
đ êu</w>
x ơ
vừa_ phải</w>
vu_ anh</w>
v iền</w>
tư _chất</w>
tu ồng</w>
tiếc_ nuối</w>
ro bo
r ình_
phiền_ muộn</w>
nh ót</w>
ngồi_ xếp_bằng</w>
ngã _ng
ng_t ây</w>
n ể
ki n</w>
khéo_ tay</w>
har v
cứu_ hộ</w>
cẩn_ trọng</w>
chí n_
bu ru</w>
b ì
_l ớn</w>
vị _thế</w>
tạ_yên_ khách</w>
trấn_ áp</w>
rốt_ cục</w>
nhiệt_ huyết</w>
ng ứa</w>
ne _
má ch</w>
lệ _hoa</w>
lưng_ chừng</w>
lê_văn_ luyện</w>
lãnh_ giáo</w>
li ver
la u
kỷ _
ký_ kết</w>
kim_ đính</w>
khiếu_ nại</w>
ho l
de sh</w>
bỉ _nhân</w>
3 %</w>
ẩm_ ướt</w>
đại_ bác</w>
đùa_ giỡn</w>
x ịt</w>
tuyển_ chọn</w>
tu ỷ</w>
thẩm_ vấn</w>
sô ́</w>
s ú
s ùi</w>
quý_ báu</w>
phát_ thanh</w>
mo i</w>
lớn_ mạnh</w>
khốc_ liệt</w>
không_ khéo</w>
kho ai</w>
hết_ mình</w>
hương_ vị</w>
giảo_ hoạt</w>
e v
dữ _t
dữ_t ợn</w>
tậ p_th
túi_ xách</w>
tr ổ
tiến_ công</w>
thiên_ gia</w>
th ừ</w>
po ol</w>
như ỡng</w>
nh òm</w>
ngo ạ
lý_l ẽ</w>
khổ _tâm</w>
dương_ nghiệp</w>
do _th
d iên</w>
cửu_ chân</w>
cửa_ kính</w>
chị_ em_
bi_ thảm</w>
_s ức</w>
_b ao</w>
ần_th ưởng</w>
  đáp</w>
vỡ _l
to r
thành_ đô</w>
thiên_ ðịa_
phất_ trần</w>
ph ần_thưởng</w>
núi_ non</w>
ng_l ý</w>
ng ành_
mấy_ mươi</w>
ha ̀ng</w>
gi àn</w>
dân_ làng</w>
d à</w>
cầm_ quyền</w>
cà_m au</w>
chua_ xót</w>
bị _động</w>
8 -
2 %</w>
ù n_
ð inh</w>
yến_t iệc</w>
tập_th ể
trọng_t âm</w>
trương_ tử
toky o</w>
sách_ giáo_khoa</w>
phái_ đoàn</w>
p_l an</w>
nh ỡ</w>
mạnh_ tay</w>
má t_mẻ</w>
lộc_trượng_ khách</w>
lan_ truyền</w>
ki stan</w>
hình_ thế</w>
hoang_ đường</w>
c t.
bất_ đồ</w>
_t uyển</w>
10 1</w>
đáng_ giá</w>
vân_ trường</w>
u ỹ</w>
tức_ mình</w>
tắt_ thở</w>
trổ _tài</w>
tin_ học</w>
rối_ rít</w>
ra_ quân</w>
nhọc_ nhằn</w>
nh â
n át_
mái_ chèo</w>
m b
khoác_ áo</w>
d ượng</w>
chị_em_ ruột</w>
báo_ giới</w>
ống_ kính</w>
đ ược_
vương_ hột</w>
v ồng</w>
tướng_ quốc</w>
thạ ch_l
thiên_ðịa_ hội</w>
thi_ thoảng</w>
sa u
n ập</w>
m úc</w>
lối_ thoát</w>
hoành_ tráng</w>
h ựu</w>
g k</w>
e_d è</w>
d jokovic</w>
bảo_ trọng</w>
bao_ bất_
b ềnh</w>
2 .000</w>
11 -
ương_ hải</w>
đường_ đường</w>
đường_ nét</w>
yêu_ kiều</w>
x ưng_
tị ch_
tình_ tiết</w>
trác_ kiều</w>
r ang</w>
po p</w>
phong_ thuỷ</w>
ph ập_
n_t ài</w>
mú a_
long_ tuyền</w>
l ữ</w>
l ười_
ki ssi
khai_ sinh</w>
cơ_ nghiệp</w>
cái_ trò</w>
bảo_ quản</w>
_ về</w>
victo ria_
tiê n_thiên</w>
thực_ tại</w>
thứ _lỗi</w>
sư_ cô</w>
quay_ phim</w>
ph ơ
nh ượng_
lè ne</w>
l ẻ
l õm</w>
l ìm</w>
jus tin</w>
hoả _t
dương_công_ bảo_khố</w>
doã n_thanh_nhã</w>
danh_ từ</w>
cừu_thiên_ nhận</w>
cư _tr
chữ_ ký</w>
chạm_ trán</w>
chơi_ lễ</w>
_ph ần</w>
7 -
đi_ sâu</w>
ð ộc</w>
ênh_ vực</w>
vỗ _về</w>
tập_thể _dục</w>
thoa ng_th
thoang_th oảng</w>
l ệ_th
l uyến_
hấp_th ụ</w>
ga ́c</w>
ele anor</w>
dư_th ương_hải</w>
do_th ám</w>
b ênh_vực</w>
7 4</w>
ân_ nhân</w>
v ỹ</w>
trợ _cấp</w>
tru ật_
trao_ tặng</w>
thân_ mến</w>
th ờ
phục_ nan_
phụ _cận</w>
phòng_ không</w>
nh ơ</w>
linh_ chi</w>
kỳ _sơn</w>
kiểm_ định</w>
khô_kh an</w>
hoa_s ơn_trang</w>
dư ỡ
d ại_
cổ _động</w>
chết_ chóc</w>
bụng_ dạ</w>
bỏ_ hoang</w>
b ọ
a ir
đau_ nhức</w>
ăn_t ay</w>
ô _h
yết_ hầu</w>
wor ld
v ồ</w>
tần_th uỷ
t ấp_
sô ́ng</w>
run_ sợ</w>
phục_nan_ đà</w>
ngh ẹt</w>
ngh ê
lập_l uận</w>
l ơn</w>
galax y_
g ốc_
di o</w>
9 /1</w>
1 %</w>
đặc_ thù</w>
ð ạt_
xương_ cốt</w>
tấp_ nập</w>
tuần_ tra</w>
trườ ng_th
trung_ học_
tri_ huyện</w>
tai_ hại</w>
ranh_ giới</w>
quả ng_lăng</w>
phẩm_ chất</w>
nhân_ tâm</w>
n_đ ãi</w>
kissi nger</w>
gi ẫm</w>
d ẻo</w>
cận_ cảnh</w>
côn_ trùng</w>
_n ợ</w>
3 /2</w>
ứ u</w>
ả -
đại_ lễ</w>
à n_t
tế_ nhị</w>
to ạc</w>
thầy_ cô_giáo</w>
thiê ́t</w>
tam_ giác</w>
ta y
quách_t ương</w>
pha n_th
nữ _thần</w>
nắng_ nóng</w>
nhân_ số</w>
nhàn_ nhã</w>
ng ù
loạn_ xạ</w>
hạ ng_
el vis
dương_ văn_
d ặng</w>
d í</w>
che _đ
cao_ độ</w>
đơn_ uyển_tinh</w>
đinh_ điển</w>
ào_ ạt</w>
viên_ viên</w>
uy _phong</w>
u ông</w>
tô _phi</w>
t ước_
t y
re al</w>
quỳnh_ anh</w>
nhu ệ
màn_ kịch</w>
lãnh_ huyết_
không_ lưu</w>
giường_ bệnh</w>
giám_ hiệu</w>
giang_h ải_
cố _định</w>
cố _nhiên</w>
chú _rể</w>
che_đ ậy</w>
bảo_ trì</w>
bánh_ bao</w>
bách_ khoa</w>
bá_t ánh</w>
bao_bất_ ðồng</w>
bao_ bất_đồng</w>
_b àng</w>
26 /12</w>
ể nh</w>
đa ̣i</w>
vô_b iên</w>
tự _lập</w>
thanh_ tuyền</w>
só ng_thần</w>
r úc</w>
quốc_ công</w>
phong_t ục</w>
o m_s
om_s òm</w>
lị m</w>
lạ y_
lưu_ nhất_
liver pool</w>
l ắm_
kha ́c</w>
kh ép_
gượng_ gạo</w>
giờ _h
căm_ thù</w>
com bank</w>
chuẩn_ xác</w>
chiều_ tối</w>
chi ̣</w>
ca ́ch</w>
bồi_ hồi</w>
bách_ hoa_sơn_trang</w>
_ph í</w>
ươ ̉ng</w>
đoan_ trang</w>
ðào_ căn_
ðào_căn_ tiên</w>
xe _c
tư_ pháp</w>
tinh_ xảo</w>
s ước</w>
r é</w>
l ùa</w>
cư_tr ú</w>
cá _
chào_ đời</w>
chiến_ hạm</w>
bỏ_ mạng</w>
a p
a da
_tr ạch</w>
̣ a</w>
z a</w>
thư _thái</w>
thiên_ chính</w>
tham_ kiến</w>
th ật</w>
s tra
r èn</w>
pro tein</w>
ngữ _khí</w>
ngh ễ</w>
ng ar
n ốt_
lực_ sĩ</w>
lồ ng_l
l ặc</w>
l uộc</w>
iên_ châu</w>
hành_ hung</w>
di_ tích</w>
biết_ mấy</w>
ba sel</w>
_đ ức</w>
_s ứ</w>
1 000</w>
định_ mệnh</w>
đích_ xác</w>
thông_ tư</w>
ta ng_lễ</w>
pa kistan</w>
n ện</w>
mong_ mỏi</w>
l ầu_
im_ lìm</w>
hà n_th
hung_ thần</w>
gắng_ sức</w>
dĩnh_ thuỷ</w>
di o
công_ nghệ
c a_s
bạch_l iên</w>
bang la
_t ẩu</w>
_chính_ trị</w>
_ già</w>
đắ k
đông_ dương</w>
vương_ hãn</w>
uy _danh</w>
u acute</w>
tích_l uỹ</w>
tê _liệt</w>
tho i_
si e</w>
s ă
ph ẫu</w>
nhú n</w>
n ung</w>
liên_ hoan_
liên_hoan_ phim</w>
kh ăn_tay</w>
kh êu_
hối_ lộ</w>
hậu_ bối</w>
dư _
cố _thủ</w>
con_ tin</w>
chính_ diện</w>
đồng_ bộ</w>
đâu_ đấy</w>
úc_ xá</w>
xâm_ lược</w>
x ôi</w>
vương_ huyền_
vân_ canh</w>
tột_ cùng</w>
tạp_ hoá</w>
tô n_t
tròn_ xoe</w>
trinh_ sát</w>
sặc_ sỡ</w>
r ình</w>
phần_ nhiều</w>
ngu ội</w>
lý_t ự
làm_ bàn</w>
kim_ dung</w>
iể u_
hỡi_ ôi</w>
học_ vấn</w>
huỷ _bỏ</w>
hous e</w>
g ò
da vid
d ấp</w>
cố p</w>
bước_ đầu</w>
bé _con</w>
ằn_ học</w>
đảo_ lộn</w>
trần_ viên_viên</w>
tiê ́p</w>
thiếu_ tá</w>
th óp</w>
tay_ trong</w>
so n_
rô linh</w>
ngăn_ cách</w>
m ủ</w>
la_ võng_cơ</w>
hứa_ khai_
hã nh_
gia_ bang</w>
d ay</w>
chật_ vật</w>
chua_ chát</w>
chi_ phối</w>
bangla desh</w>
_t ang</w>
ỉ a</w>
ẩm_ thực</w>
ẩ n_t
xuống_ đường</w>
võ _thuật</w>
tự _vệ</w>
từ _ngữ</w>
trống_ ngực</w>
thiên_ sư</w>
t ể
sá p</w>
quỷ _quái</w>
pháp_ sư</w>
nghĩa_ hiệp</w>
kiều_ diễm</w>
huy ê
ho ằng</w>
ho ại</w>
h ằn_học</w>
ch ử</w>
ca_ tụng</w>
bốn_ phương</w>
790 3</w>
0 7</w>
định_ đoạt</w>
đã_đ ành</w>
ô n_tập</w>
án_ mạng</w>
trả m</w>
tiểu_ hương</w>
thống_ lãnh</w>
t ỳ
sống_ động</w>
sh a</w>
nấu_ nướng</w>
nói_ láo</w>
nhỏ m</w>
ngọc_ đỉnh</w>
ngậm_ ngùi</w>
la s</w>
kinh_ thiên_
fi ca</w>
du_ ngoạn</w>
cô _lập</w>
chuyê ̣n</w>
c is
bửu_ khoa</w>
bộ _chính_trị</w>
bấy_ lâu</w>
b ịp</w>
ẳ n_
ả o_th
đâu_ đây</w>
x ạ
w an
vận_t ốc</w>
uyển_ nhi</w>
u_ mến</w>
tự_t ại</w>
trì u_mến</w>
trái_ phiếu</w>
tiểu_ quận</w>
thành_ hôn</w>
nhị _cổ</w>
nhà u</w>
môi_ giới</w>
lột_ xác</w>
lặng_ yên</w>
la_ mã</w>
l_s tre
ghê _t
ghê_t ởm</w>
g ắp</w>
g ài</w>
bình_tây_ vương</w>
bá_ đạo</w>
buồn_b ực</w>
bo ng_
1. 9
tru ồng</w>
sưu_ tầm</w>
quanh_ năm</w>
nho ài</w>
mất_ công</w>
mar y</w>
luân_ hồi</w>
học_ giả</w>
elvis _đậu</w>
chống_ trả</w>
chấn_ kỳ</w>
chúa_ trời</w>
bùng_ phát</w>
an_ khánh</w>
_b ắc</w>
7 7</w>
„ tiểu</w>
ô n_t
tr iền</w>
thân_ xác</w>
ròng_ ròng</w>
rober t_
ph ồn_
p_b óc</w>
ngọc_ tình</w>
ngay_tức_ khắc</w>
ng_h àng</w>
ng òi</w>
n ơi_
má ng</w>
m ươi_
hồng_ hào</w>
hồ ng_t
gián_đ iệp</w>
dị _nhân</w>
dan te</w>
cắt_ giảm</w>
cướ p_bóc</w>
bạch _m
ben fica</w>
_đ ông_
ả- rập</w>
động_ địa</w>
đượ m</w>
v iế
tiến_ cử</w>
thành_ thân</w>
thiết_ tha</w>
sơ _
so ny</w>
phi_ ngựa</w>
nh ồi</w>
ngạo_ nghễ</w>
ng ớ</w>
n_đ ồng</w>
n anh</w>
làm_ giàu</w>
kinh_thiên_ động_địa</w>
khôn_ xiết</w>
hồi_ sinh</w>
hiể n_thị</w>
ghe n_t
e du
dụ _d
bát_ quái</w>
blo g</w>
bi g
b ơi_
6 1</w>
ế_t ích</w>
điể m.
ð à</w>
xảo_ quyệt</w>
xua_ đuổi</w>
x ông_
s ầu_
nh ẽ</w>
ngưỡng_ cửa</w>
lạng_ sơn</w>
lưu_nhất_ chu</w>
l ốp</w>
l ẩn</w>
l ả</w>
l ét</w>
k eo</w>
hô_d iên_t
gầy_ gò</w>
ch ài</w>
_n an</w>
đạo_ pháp</w>
đ ắt_
văn_ sĩ</w>
vn thu
v é
tần_thuỷ _hoàng</w>
tí _ho
tí_ho n</w>
tiểu_ hổ</w>
tiê ̀n</w>
thạch_ như</w>
thân_ nhân</w>
t ấm_
r ứt</w>
r ì
qu ai_
phú _thọ</w>
phong_ vân</w>
nương_ tựa</w>
mu i</w>
min i</w>
me ga
lặ p_
la de</w>
l iê
hồng_h ộc</w>
falko_ goetz</w>
dụ_d ỗ</w>
dã_t ốc_
d ột</w>
cơ _mật</w>
chằm_ch ặp</w>
chính_ quy</w>
chán_ ghét</w>
chen_ chúc</w>
cam ry</w>
bụng_ dưới</w>
bă ́t</w>
_đo àn</w>
_r iêng</w>
7 8</w>
đu n</w>
trực_ giác</w>
tr ót</w>
thanh_ thản</w>
th ụt</w>
tam_ nương</w>
sắc_ sảo</w>
s ành</w>
nh ơn_
ngập_ tràn</w>
nguyễn_đ ình_
n_th ánh</w>
m ọi_
l ính_
ko ko</w>
khí _công</w>
kho e_
kh ố
k èn</w>
hối_ tiếc</w>
hạt_ giống</w>
harv ard</w>
ghế_ ngồi</w>
ct. ly</w>
chấn_ sơn</w>
_c up</w>
ậ p_t
ấm_ ức</w>
đụng_ chạm</w>
đền_ đáp</w>
đàm_ dược_sư</w>
ăn_ chơi</w>
z e
x úi_
vi ch</w>
vi -
tuỳ _thuộc</w>
trở _tay</w>
thẹn_th ùng</w>
thạch_ đầu</w>
suy _s
sinh_ động</w>
s ắn</w>
s po
ru ổi</w>
phản_t ặc</w>
oan_ uổng</w>
o ang</w>
nước_ hoa</w>
nho à</w>
ngo a</w>
nga ng_hàng</w>
mụ n</w>
mis ca</w>
khoe_ khoang</w>
cổ _điển</w>
cá p_t
ck _
bất_ tận</w>
_r o
7 6</w>
vi de
trừng_ quan</w>
triển_ chiêu</w>
thổ _ph
thấu_ hiểu</w>
s à</w>
nh ẩy</w>
ngoại_ thương</w>
h u</w>
danh_ tính</w>
c ần</w>
bản_ án</w>
b ò
. 0
đinh_ ninh</w>
đ ọ</w>
x ám_
vp f</w>
tự_t iện</w>
tủ _lạnh</w>
trầm_ tĩnh</w>
thương_ tiếc</w>
thuê _bao</w>
ta n
sáng_ sủa</w>
phóng_ xạ</w>
phá c_
nã o_
nh ao_
ngù n_ng
ngùn_ng ụt</w>
n_đ ài</w>
khai_ trương</w>
chuyển_ hoá</w>
chuyê n_tâm</w>
chi_ tiên</w>
bản_ nhạc</w>
buồn_ phiền</w>
an o</w>
ầ n_tử</w>
ưng_ r
đầu_ bếp</w>
đảm_ nhiệm</w>
ăn_ mừng</w>
yểu_ điệu</w>
tiên_ đế</w>
thống_ đốc</w>
thoạt_ tiên</w>
tex as</w>
sốt_ xuất_huyết</w>
sào_ huyệt</w>
rượ i</w>
r ưng_r
r úm</w>
phái_ đẹp</w>
ph ạn</w>
nội_ địa</w>
nà y.
ni xon</w>
ngô_l ập_th
mở_m àn</w>
lu ậ
le a
l ì
hãnh_ diện</w>
hay_ ho</w>
hao_ tổn</w>
dã_c ẩu_
cửu_ trùng</w>
cứu_ hoả</w>
chừng_ như</w>
chúng_ mày</w>
chiếm_ đạo</w>
bo n</w>
b o</w>
6 9
19- 8</w>
11 /1</w>
đặc_ sắc</w>
vô_s ắc</w>
trần_ văn_
ti ng</w>
t te
rừng_ núi</w>
quách_t ường</w>
phất_ phơ</w>
ngọc_ sương</w>
ngạch_l uân</w>
lên_ cơn</w>
khổ _não</w>
hu ân_
giáo_ phái</w>
c ẩu_
bă ̀ng</w>
_đ âu</w>
30 /12</w>
2011- 2012</w>
ắt_ g
ưu_ điểm</w>
đa_ long</w>
đ ậm_
w w
tr ăn_
tinh_ hà</w>
ti mes</w>
thi .
tham_ mưu</w>
th ít</w>
sa r
rì _r
oli via</w>
n_t ẩu</w>
móc_ túi</w>
lục_ tục</w>
l u</w>
gi ằng_
gh ét_
g ửi_
công_ hiệu</w>
bạch_ y</w>
ba ̉o</w>
_th ành_
đức_ cha</w>
đầu_l âu</w>
ái_ ngại</w>
tụ_h ọp</w>
t ật_
ro me</w>
quốc_ anh</w>
phụ_ hoạ</w>
nghe _đâu</w>
n ịnh</w>
mỹ _thuật</w>
mệnh_ danh</w>
le y_
kha_ ngạch_luân</w>
han ni
g ắt_g
d òm</w>
ch ang</w>
cao_ to</w>
bô n_tẩu</w>
_ng ân</w>
_c ứu</w>
ạm_ vỡ</w>
đăm_ chiêu</w>
đài_ truyền_hình</w>
đe n_s
đen_s ì</w>
ð ô</w>
ð an_
ð a
x y</w>
v ạm_vỡ</w>
tán_ loạn</w>
tái_ mét</w>
thu_ nạp</w>
th ỏ
quân_ bảo</w>
ni gel</w>
nhân_ văn</w>
ngô_lập_th ân</w>
ng ẫm</w>
mỹ _phẩm</w>
minh_ phượng</w>
m ỏm</w>
l ộng</w>
kh ỉnh</w>
d ối_
cá_m ập</w>
c ược</w>
bình_ dân</w>
6 .
. ....</w>
ẩn_ náu</w>
đ ống_
ùn_ ùn</w>
vương_ đạm_chân</w>
tụ _hội</w>
trì _hoãn</w>
thì_th ôi</w>
s á</w>
ri ta</w>
quan_ công</w>
ngư ng_t
ngo a
n_ màng</w>
mông_ lung</w>
k ỉ</w>
j er
bình_ nhưỡng</w>
a 1</w>
_d u</w>
ðào_ chi_tiên</w>
xí ch_m
trăn_ trở</w>
trù ng_hợp</w>
tr ãi</w>
to ại</w>
thành_ bại</w>
th p
nhượng_ bộ</w>
nhà_t ù</w>
ngưng_t ụ</w>
n t
muôn_ ngàn</w>
ma l</w>
hé lène</w>
gầm_ gừ</w>
ghi_ điểm</w>
chất_ liệu</w>
chó p</w>
8 .000</w>
xử _sự</w>
x âu</w>
vừa_ lòng</w>
trịnh_ thạch_như</w>
trang_ trọng</w>
th ường</w>
nối_ liền</w>
ngốc_ nghếch</w>
ngắn_ gọn</w>
l ley</w>
không_ trí</w>
ka t</w>
eli za
cố _ch
châu_ du</w>
c cn</w>
bù _đ
bugatti_vey ron</w>
ba_ má</w>
8 9
199 0</w>
y e
x x</w>
tổng_th ể</w>
trọng_ dụng</w>
thực_ vật</w>
thương_ binh</w>
thư ̣c</w>
thăm_ thẳm</w>
sứ _mệnh</w>
quỹ _
quá _sức</w>
ph in</w>
nhao_ nhao</w>
ng_h ậu</w>
lạc_ đà</w>
khét_ tiếng</w>
huệ _huy</w>
hiện_ hữu</w>
fa che</w>
cáp_t át_
càn_ quét</w>
_m âu</w>
với_ lại</w>
tô_ tinh_hà</w>
thẩm_ phán</w>
sinh_ sản</w>
r ổ</w>
r ẻ_
nu ông_
mon k</w>
mang_ tiếng</w>
kinh_ thánh</w>
j i
gi ỗ</w>
gi an
geor ge
dối_ trá</w>
d ấ
chung_ ly_
c ke
bộ _tộc</w>
băng_ bó</w>
_m ùa</w>
„ ðại</w>
đường_ cong</w>
đông_ minh_
đà _lạt</w>
ân_ tình</w>
vô _phương</w>
vui_ nhộn</w>
vie w</w>
u p
tài_ giỏi</w>
thuỵ _điển</w>
thu ật_
qua_ ngày</w>
phú_ yên</w>
phi_ đao</w>
nồng_ nhiệt</w>
ng ài_
mặc_ cảm</w>
mê_m ẩn</w>
m iên_
lú n</w>
khai_ giảng</w>
hữu_ hiệu</w>
g ớm</w>
du_l iên_châu</w>
coi_ bộ</w>
chung_ ly</w>
chia_ rẽ</w>
cao_ tôn_giả</w>
_đ ẻ</w>
/ 2/2012</w>
đô ́i</w>
x iêu_
vư ̀a</w>
u m_t
um_t ùm</w>
tương_ tác</w>
phê _
nâng_ đỡ</w>
nuông_ chiều</w>
n_th ể</w>
lâu_ đời</w>
g ai_
c ạy</w>
b úp</w>
an_ ngọc_tình</w>
0 o
ở n</w>
xu ống</w>
vật_ lộn</w>
vinh_ hạnh</w>
thầy_t u</w>
thân_ cận</w>
r inh</w>
quả _phụ</w>
quang_ trung</w>
no bel
lưỡ ng_hồ</w>
ló ng_l
lân_ cận</w>
la p
k ỉnh</w>
hạng_ mục</w>
hanni bal</w>
giả_th uyết</w>
giao_th ừa</w>
gi ằng</w>
chốc_ chốc</w>
ca ̉m</w>
bất_ giới</w>
a_ la</w>
a tilde</w>
_d ùng</w>
7 3</w>
đồ _dùng</w>
đặ ng_th
xê- út</w>
vui_ buồn</w>
tưởng_ bình</w>
ta nd</w>
sinh_ dục</w>
sai_ bảo</w>
liên_ châu</w>
l li
hđ qt</w>
huyề n_tử</w>
cấp_ độ</w>
công_tôn_ ngọc_sương</w>
chủ _ch
bột_ nhi_
_ch ăng</w>
4 %</w>
„ð ổng</w>
ủ_r ũ</w>
điệu_ bộ</w>
đa ̀n</w>
đ ản</w>
xa_ xưa</w>
window s
tích _hợp</w>
thanh_ quang</w>
t ể</w>
quân_ chủ</w>
pu chia</w>
nhấp_ nhô</w>
ngô_l ục_
nam_ an_khánh</w>
mỹ _mỹ</w>
lên_ xuống</w>
khó i_
khánh_ hoà</w>
kho anh</w>
hưng_ yên</w>
giảng_ giải</w>
giao_ tranh</w>
cảnh_ ngộ</w>
ch iêm</w>
_v ãng</w>
_b ài</w>
6 ,
ð ường_
victoria_ beckham</w>
trực_ thuộc</w>
râu_ tóc</w>
q u</w>
o ni
nữ _giới</w>
nguồn_ lực</w>
ngh ẽn</w>
m y_
lóng_l ánh</w>
lí _do</w>
kim_ hoàn</w>
eliza be
dũng_ khí</w>
chú i</w>
bỗng_ chốc</w>
am_ hiểu</w>
/ 7
đặc_ tính</w>
điề n_t
tiểu_ đồng</w>
thả ng_th
nhiệt_ đới</w>
nguyễn_t ấn_
kỳ_ ảo</w>
i g
hiểm_ độc</w>
hiền_ hoà</w>
d ỗ
cận_ vệ</w>
đổ _d
đổ_d ồn</w>
ðinh_bất_ tứ</w>
xe_c ộ</w>
tịch_ ứng</w>
tr ụi</w>
tr át</w>
thẩm_ tường</w>
s l</w>
quá _độ</w>
quá _tải</w>
phê_ phán</w>
phân_ tử</w>
ngư ng_
kẻ_ gian</w>
je ff</w>
i r</w>
gi ậm</w>
cuố n_hút</w>
chung_ly_ triết</w>
chan el</w>
độc_ hại</w>
đống_ đa</w>
điên_ khùng</w>
ðổ ng_thục_
ðổng_thục_ trinh</w>
ðịnh_ nhàn</w>
việt_ minh</w>
trống_ trải</w>
triển_ vọng</w>
thần_ diệu</w>
thiếu_ sót</w>
tay_ không</w>
s mi
quy ện</w>
qu ế_
ngô_lục_ kỳ</w>
l ươ
kiên_ định</w>
han nah</w>
c úc_
ban_ giám_hiệu</w>
b õ</w>
_r èn</w>
78 63</w>
30 .
âm_ dương_
tú _sĩ</w>
thực_ lòng</w>
thảng_th ốt</w>
ter s</w>
nhảy_ nhót</w>
nh ường_
ngành_ nghề</w>
ngoại_ hình</w>
lẫm_ liệt</w>
loa d</w>
kim_ thống</w>
k iêng</w>
hội_ trường</w>
hiến_ pháp</w>
ck er
chúng_ bay</w>
chân_ thực</w>
chu_ toàn</w>
c ừ</w>
bảo_ bối</w>
b ả</w>
b ón</w>
_t ại</w>
vù n_
vùn_ vụt</w>
tiểu_ huyền_tử</w>
thị _lang</w>
suy_ yếu</w>
ro bin_
re u
r ợ</w>
r é
phô _trương</w>
p ê
nhỏ_nh ặt</w>
ngôi_ vị</w>
ngo ắt</w>
hờ n_
huỵ ch</w>
h ẳn_
giọng_ điệu</w>
gian_t ế</w>
gh e</w>
cắn_ răng</w>
cầm_ tù</w>
cát_ thiên_phong</w>
clau dia</w>
ca ro
bồi_ bổ</w>
bù_đ ắp</w>
bán_đ ứng</w>
_ giác</w>
0o 0</w>
độc_ nhất</w>
xuất_ chúng</w>
x ấp</w>
vạ n_tu
tậ p_t
trần_ gian</w>
tràn_ trề</w>
tre o_
tr ăn</w>
s ẳn</w>
s ũng</w>
quốc_ hưng</w>
nội_ thị</w>
nối_ tiếp</w>
như _tr
ngọc_ dương_tử</w>
n_ kẽ</w>
n ịu</w>
kết_ liễu</w>
khởi_ công</w>
f la
dấ n_thân</w>
cõi_ đời</w>
cuộc_ chơi</w>
bổ_ ích</w>
_d ương_
ẻ o_
võ_ đang</w>
tư _sản</w>
trần_ trườ
tr àng_
ph ở</w>
ma d
i_ n
giác_ viễn</w>
gia_ minh</w>
cột_ sống</w>
cất_ giữ</w>
cả nh_l
ca_s ỹ</w>
ca f
7 ,
xâm_ chiếm</w>
w in
vô _duyên</w>
trườ n</w>
tiệc_ rượu</w>
rảnh_ rỗi</w>
ngô _kh
lâm_ nguy</w>
kêu_ gào</w>
không_ quân</w>
huy _
hoảng_h ồn</w>
hoà _giải</w>
chửi_ bới</w>
bát_ vương</w>
3 d</w>
đầy_ rẫy</w>
z e</w>
vượt_ trội</w>
trần_trườ ng_lâm</w>
trai_ trẻ</w>
thống_ khoái</w>
thu_ nhận</w>
t ăng_l
t ter</w>
suy _th
suy_th oái</w>
ph ông</w>
nhậm_ huyền</w>
nhãn_ quang</w>
ngoại_ thành</w>
lạnh_ giá</w>
len_l ỏi</w>
hội_đồng_ quản_trị</w>
go n</w>
dã_cẩu_ đạo_nhân</w>
cáo_ buộc</w>
chữ_ cái</w>
chú _tâm</w>
cao_ chiếm_đạo</w>
băng_ giá</w>
bá_t ước</w>
_h iền</w>
độc_ quyền</w>
đo ạn_
v ẻ
tập_h uấn</w>
tưởng_ nhớ</w>
tán_ dương</w>
tr ại_
thư a_th
thát_ đát</w>
th ấp_
quyền_ cước</w>
kho an_th
kh ải_
ho ̉i</w>
gia_ hạn</w>
di_ lặc_
d ươ
cu -
chu_ ð
biế m</w>
b ính</w>
_d ịch</w>
_ xuân</w>
1, 5</w>
ậ c</w>
ðiền_ mỹ_mỹ</w>
ð ộc_
y u
xu i_
tống_l ỗ</w>
nhà_th ầu</w>
nd a_
n_ như</w>
m ọn</w>
m w</w>
lữ _kh
loại_ hình</w>
lanh_ lợi</w>
l iếm</w>
kiếm_ khách</w>
hồ _
hấ p_h
hài_ hoà</w>
hoa_ vân</w>
cà _sa</w>
bán_đ ấu_
_đ ắc</w>
_n ang</w>
_kh ắc_
4 /2</w>
đ ỡ
vừa_ nãy</w>
v ố
tử_ nguyên</w>
trung_ quân</w>
trung_ gian</w>
thôi_ thúc</w>
t ề_
sửa_ sang</w>
sớm_ mai</w>
r ồ
ph ủi</w>
ngh iễm_
mấp_ máy</w>
m  
lui_ tới</w>
khâm_ sai</w>
khu y</w>
k iều_l
hải_ ngoại</w>
cẩm_ nang</w>
ch -
bán_đấu_ giá</w>
biên_ phòng</w>
_l ặc_
_kh ai</w>
ầ n_tu
đề m</w>
đường_ mòn</w>
ða n_thanh</w>
ð ình</w>
ít_ ỏi</w>
ác_ ý</w>
y  
vương_ tiễn</w>
tù _nhân</w>
tranh_ cử</w>
thành_ danh</w>
ta -
st .</w>
o ang_
nhân_ tình</w>
nhàn_ rỗi</w>
nhà_ quê</w>
ng_th ứ</w>
ng_l ương</w>
ng ạch</w>
ng ườ
m ễ
li m_
l ẩy_
khoả _thân</w>
je sse</w>
in i_
i el
hợ p
hạ_hầu_ cương</w>
dật_ chi</w>
dò _la</w>
ck s</w>
chủ_ch ốt</w>
chuộ t_
ch _b
canh_ phòng</w>
c er
_ch uyển</w>
24 /1</w>
ị _
đổ ng_thục_
đồ_ tiên</w>
đích_th ị</w>
yết_ kiến</w>
vân_ dương_tử</w>
vui_ tươi</w>
thuỷ _điện</w>
t ảo</w>
oán_ trách</w>
mă ́t</w>
m ải_
hốt_ nhiên</w>
hải_ quan</w>
hò _r
huyền_ diệu</w>
hoả _khí</w>
cầu_ vồng</w>
công_ đức</w>
bến_ xe</w>
bạch _c
bo m_
be ́</w>
_g an</w>
đánh_ cuộc</w>
tú _tài</w>
tiểu_ lăng</w>
tiềm_ ẩn</w>
thủ _thế</w>
thảm_ bại</w>
thuỷ_tr iều</w>
thu_ hẹp</w>
tang_ kết</w>
nạ p_lan</w>
nham_ hiểm</w>
nguyên_ bản</w>
lẩy_ bẩy</w>
lão_ luyện</w>
l ăm_
hu ế_
hu ýt_
góp_ mặt</w>
gó c_
gi ư
chiến_ công</w>
champions _leagu
ch òng_
cao_ kiến</w>
anh_ chị_em</w>
a ven
_h ạnh</w>
đứng_ đắn</w>
đá i_
trụ _trì</w>
trào_ dâng</w>
rư ới</w>
ra_ dáng</w>
r d</w>
p ô
nhát_ gan</w>
mạnh_ khoẻ</w>
lục_ cao_
kh iê
giữ _
giảng_ đường</w>
chă ̉ng</w>
ang e
a ma
_m a_
8 4</w>
x ào</w>
tệ _nạn</w>
tưởng_ niệm</w>
tàn_ hồn</w>
tuyết_ hoa</w>
trừng_ quang</w>
trạ ch_
to_ tiếng</w>
thần_ linh</w>
quí _
ngũ _phù</w>
nghị _sĩ</w>
ne x
n_th ế</w>
làm_ gì</w>
l z
h s
cá ch_l
chiêm_ thành</w>
ch an_
bằng_ an</w>
b ứt_
_t ạng</w>
5 /12</w>
yế n_đ
v ú_
tô _phổ</w>
trộm_ cắp</w>
trọ ng_th
trương_tử _thanh</w>
thu ần_th
quý nh</w>
phập_ phồng</w>
m_đ óm</w>
lý_h ọc</w>
lão_ hoá</w>
l áng</w>
kỷ _h
khiêm_ nhường</w>
dịch _chuyển</w>
công_ thương</w>
ch ặ
bao_ giờ_h
_l uyện</w>
_l iêm</w>
3 60</w>
„ người</w>
đổ _v
đ ày</w>
đ ành_
yo u</w>
xáo_ trộn</w>
vạn_ chấn_sơn</w>
v ạc</w>
tăng_l ữ</w>
thăng_ bằng</w>
th ọc</w>
sĩ _khí</w>
re s</w>
quân_ dân</w>
qu ơ</w>
nx b</w>
mờ_ ảo</w>
kỳ _cục</w>
hơn_ bao_giờ_h
hơn_bao_giờ_h ết</w>
hô _lôi_
hò_r eo</w>
dự_ bị</w>
dã _thú</w>
cảnh_l ăng</w>
chứng_ bệnh</w>
bồ _câu</w>
b ập_
b ong</w>
97 7</w>
788 5</w>
ảo_ ảnh</w>
đo m_đóm</w>
đi_ đôi</w>
đ ây_
êm_ đềm</w>
trò _đùa</w>
tiê n_t
thành_ trì</w>
quân_ phục</w>
ma s</w>
ly_ dị</w>
lamborgh ini_
khuy ến</w>
hô_lôi_ phương</w>
h iềm_
giả o</w>
d ập_
ch an</w>
cao_ bằng</w>
cam_ chịu</w>
bánh_ chưng</w>
bàn_t ính</w>
bb c</w>
b ủ
and er
_thu ật_
_c uộc</w>
3 30.000</w>
đại_ pháp</w>
ái_ tình</w>
y_th uật</w>
y ́</w>
trọng_tôn_ long</w>
trường_ thuỷ</w>
trác_ nhượng</w>
to_ gan</w>
tiếp_th ị</w>
thuần_th ục</w>
tan_ rã</w>
ng_th inh</w>
n s
mẫn_ nhu</w>
m ù_
lặ ng_thinh</w>
lưu_ truyền</w>
lê _ngọc_
li xi
li me
l òi</w>
kháng_ sinh</w>
k ĩ</w>
hồng_l iệt</w>
hành_ xử</w>
h en</w>
du_ trường_thuỷ</w>
da vi
cười_ phá</w>
có ng</w>
chư _tướng</w>
bộ p</w>
a v
_đ ảng</w>
_kh à</w>
đẩy_ lùi</w>
đạo_ giáo</w>
ð ằng</w>
xo ắn</w>
tử _hình</w>
thị_tr ường_
thôi_ miên</w>
thì_ giờ</w>
ph iề
nồng_ nàn</w>
nam_ nhi</w>
na y_
ly ́</w>
ho è</w>
giao_ phong</w>
dịch_ giả</w>
dòng_ dõi</w>
dàn_ xếp</w>
cơm_ nước</w>
cơ _trí</w>
che _lấp</w>
bơi_ lội</w>
bá _chủ</w>
„ ngươi</w>
ảo_ giác</w>
độ _
ôn_t ồn</w>
ðại_ lý</w>
vô_t âm</w>
vô _thượng</w>
tuyệt_ chiêu</w>
tr ói_
thích _trường_
oang_ oang</w>
niêm_ phong</w>
nhị _nương</w>
nh -
ng_th ịnh</w>
ne u
hồn_ vía</w>
h anna</w>
cầu_ mong</w>
chối_ từ</w>
chỉnh_ đốn</w>
chă ́c</w>
bột_nhi_ thiếp</w>
_đ ời</w>
9 47
đèn_đ ỏ</w>
vang_ động</w>
tt k</w>
triệu_ tiền_t
thư _từ</w>
thiên_ sơn</w>
sá p_
olympi c</w>
nhu ận_
nha_ dịch</w>
lượ ng_thứ</w>
ký _hiệu</w>
khiêu_ vũ</w>
giã y_
di_ truyền</w>
bẩm_ báo</w>
bản_ sắc</w>
đè _n
đo àn_t
yến_đ a_la</w>
viê ̣t</w>
tà ng_
trách_m ắng</w>
thị _nữ</w>
th ấ
rộn_r àng</w>
phỏng_ đoán</w>
nước_ ngọt</w>
m út</w>
lục_cao_ hiên</w>
lưu_ manh</w>
long_ an</w>
la_ liệt</w>
hà_th ái_
h o_
gu ar
giao_ cấu</w>
g ơ
g ô</w>
dị_ ứng</w>
diệt_ trừ</w>
diệp_ nhị_nương</w>
cứng_ đờ</w>
cơ _b
b ran
788 7</w>
ảo_ tưởng</w>
đổng_thục_ ni</w>
đè_n én</w>
ôn_ giả</w>
vạn_tu ế</w>
v ỏ
v ãn_
ton_ nga</w>
t ẩy_
s ấp</w>
rã nh</w>
ri hanna</w>
quá_đ ỗi</w>
nguyê n_thuỷ</w>
n_tu ông</w>
m ì
khẩu_ hiệu</w>
không_ văn</w>
khu ê
hoàng_ my</w>
hillary_clin ton_nga</w>
ghe n_tuông</w>
cánh_ diều_
chu_ thông</w>
bong_ bóng</w>
b ửu</w>
b ắp_
ốn_ nháo</w>
đất_ đá</w>
vương_ minh</w>
u_ nhàu</w>
tối_ hậu</w>
tr iêu_
thoi_ thóp</w>
thiếu_ nguyên</w>
thiế n_như</w>
thao_th iết</w>
thanh_ thư</w>
t t_
rắ n_r
ra -
nh ốn_nháo</w>
nh ãi</w>
nguyễn_ ngọc_
mặc_ kha</w>
ma_ quái</w>
ma i-
lơ ́n</w>
làm_ chứng</w>
liệt_ hà</w>
linh_ động</w>
hành_ trang</w>
hành_ nghề</w>
gmt7 ngày</w>
fo ne</w>
dỗ _dành</w>
d ub
cuộc_ gọi</w>
ch iêng</w>
cao_ ngạo</w>
bầu_ bạn</w>
anh_ dũng</w>
789 3</w>
7 0%</w>
22 /11</w>
địa_ phận</w>
xuân_ thân</w>
x ộc</w>
vườ n_
thiếu_ nhi</w>
s ủng</w>
quần_th ần</w>
ng ầu</w>
n_t ướng</w>
m ượt</w>
lạc_ thuỷ</w>
lu y</w>
d ầm</w>
cu ba</w>
chá n_ng
bá _phụ</w>
10 .000</w>
động_ kinh</w>
đá ng_lý</w>
đ ổng</w>
ác_ chiến</w>
vĩnh_ hưng</w>
tư_th ục</w>
t âng_
sơ_s uất</w>
sá m_
su per
s ỉ
ra p
phục_ tùng</w>
nhớ _nhung</w>
nhị _tẩu</w>
nghênh_ ngang</w>
mạc_ ðại</w>
lôi_ đình</w>
khả _dĩ</w>
kh am_
hỏi_ nhỏ</w>
hàn_ kiệt</w>
cơ_b ắp</w>
châu_ tấn</w>
che _phủ</w>
ượ p</w>
đông_phương_ ngọc</w>
ðại_ lương</w>
vu_ dung</w>
tử_l an</w>
tiên_ tri</w>
thành_ uỷ</w>
thành_ khẩn</w>
th ộn</w>
s tu
pho ̀ng</w>
ngũ _sắc</w>
ngh inh</w>
ng ách</w>
na ti</w>
n ườ
mar ke
lơ_đ ãng</w>
lixi tê</w>
in di
hoang_ vắng</w>
gi u
fê lixitê</w>
cs gt</w>
chồng_ chất</w>
chó _săn</w>
chính_ thống</w>
c ọng</w>
bá _đương</w>
a kh</w>
28 /12</w>
định_ nghĩa</w>
đ ẽo</w>
ya ma
viế ng_th
viếng_th ăm</w>
tỉnh_ uỷ</w>
tư ̣</w>
ta do
t ầu</w>
r ắm</w>
phì _ph
phi_ yến_đa_la</w>
ngã_ng ửa</w>
m ó</w>
long_th iên_
khí _chất</w>
kho a
g mail</w>
dũng_ sĩ</w>
dây_ chuyền</w>
dài_ hạn</w>
cách _chức</w>
chung_ quy</w>
bỏ _cuộc</w>
bất_ tài</w>
13 :
„ chỉ</w>
ột_ dạ</w>
ảng_ xoảng</w>
đỏ_ ửng</w>
xếp_ đặt</w>
vũ _kh
virgi nie</w>
tú _phương</w>
tô _thiên_
tô_thiên_ bình</w>
tuyệt_ sắc</w>
thương_ gia</w>
th è</w>
th ày</w>
sánh_ vai</w>
sám_ hối</w>
quan_ viên</w>
nhãn_ lực</w>
n o_
mị n</w>
mông_ ngao</w>
long_thiên_ lộc</w>
lo ảng_xoảng</w>
khoái_ lạc</w>
k en</w>
hộ _thân</w>
hồi_ tỉnh</w>
h tt
gia_ quyến</w>
d ẫu_
chấn_ chỉnh</w>
ch ợp</w>
ch ột_dạ</w>
b ọ</w>
_d ạ</w>
„ tại</w>
đổ_v ỡ</w>
đồ _long</w>
xinh_ tươi</w>
xanh_ xao</w>
u_ uất</w>
tràn_ lan</w>
thịnh_ nộ</w>
th ẻ
quỷ_ tiên_sinh</w>
quyến_ luyến</w>
nội_ tạng</w>
nườ m_n
nườm_n ượp</w>
ng_h ực</w>
n ao_
lỗ _diệu_
l õng</w>
kỳ _tích</w>
hừ ng_hực</w>
hợp_ đáp_
hạ_l ong</w>
ele c
d ùi</w>
chết_ tiệt</w>
chào_ mừng</w>
băng_ tuyết</w>
biến_ chuyển</w>
_kh ái</w>
_ hoà</w>
́ y</w>
định_ đế</w>
vô_v iêm</w>
tỷ _như</w>
tống_ tiền</w>
tươi_ đẹp</w>
trẻ _thơ</w>
thịnh_ vượng</w>
thú _thật</w>
siêu_ phàm</w>
s ỏ</w>
ro ll
nh ái</w>
ne zu
ki ng</w>
k -
diêu_ mãnh</w>
diên_ chiêu</w>
de l</w>
cư ́</w>
chênh_ chếch</w>
cam puchia</w>
cai_ quản</w>
c ty</w>
bá ng</w>
_t ắc</w>
_b ão</w>
đ e</w>
tái_ phát</w>
tàu_ hoả</w>
triệ u_l
thần_ y</w>
r ăn_
per sie</w>
ngọc_ thanh_
lỗ_diệu_ tử</w>
khí _khái</w>
hu ân</w>
hoàn_nhan_ hồng_liệt</w>
ham mond</w>
giảm_ thiểu</w>
e c
doanh_ chính</w>
cây_ xanh</w>
cánh_diều_ vàng</w>
chân_ truyền</w>
chung_ công</w>
ca lo</w>
bình_ ổn</w>
an -
_lặc_ miệt</w>
ẻ m</w>
ũng_ nịu</w>
đo a
trinh_ tiết</w>
thượng_th ặng</w>
the _th
thanh_ minh</w>
se c</w>
qu ạnh</w>
phạm_ nhân</w>
nhỏ_nh oi</w>
n ũng_nịu</w>
m uốt</w>
lục_ địa</w>
lo ã
linh_ vị</w>
k ẽ
hoá _thân</w>
h ê</w>
gián_ tiếp</w>
ga ̃</w>
dịch _bệnh</w>
cơ _duyên</w>
cà _r
chức_ vị</w>
chói_ lọi</w>
can xi</w>
_h ẹp</w>
ðoàn_ diên_khánh</w>
y_ hệt</w>
v ất</w>
u b</w>
tâm_ can</w>
thượ ng_hải</w>
thiếu_ danh</w>
t w</w>
nước_ miếng</w>
nhậm_ thiếu_danh</w>
mấy_ ai</w>
mua_ chuộc</w>
ma_ lôi</w>
khám_ xét</w>
khoác_ lác</w>
khoa_ trương</w>
hạ ch</w>
hoàng_ chung_công</w>
h ớt</w>
giảm_ sút</w>
gi de
diễ u</w>
di s
cửu_ nạn</w>
chô ̀ng</w>
_t ân</w>
w ho</w>
v c
tả _
trân_ châu</w>
thế _tử</w>
thơ_ ấu</w>
thích_trường_ phát</w>
phu_ phụ</w>
n_đ ời</w>
lap top</w>
la my</w>
il lumi
hồi_ ức</w>
hận_th ù</w>
hô ̣i</w>
gir l</w>
gia_ đinh</w>
gi ời</w>
e _thẹn</w>
dã _lặc_miệt</w>
diễn_ xuất</w>
công_ sở</w>
cà u_nhàu</w>
cai_ trị</w>
c ạch</w>
bằng_ cấp</w>
b ăm</w>
_ng uyệt_
_ quán</w>
22 /12</w>
14 :
11 /2</w>
ðỗ _cửu</w>
à _khà</w>
xuất_ xứ</w>
vu n_
s ton</w>
rã _r
quá _cố</w>
q l
niêm_ yết</w>
khuyên_ nhủ</w>
illumi nati</w>
chửi_ rủa</w>
c ỏi</w>
bê_b ối</w>
_th iến</w>
88 7.
887. 104</w>
6 22
.0 50</w>
ợ c</w>
ước_ chừng</w>
đại_ bàng</w>
đu i</w>
úc_ bảo</w>
x án</w>
v ẩn</w>
tạ nh</w>
tình_ tứ</w>
truyền_th ần</w>
trung_ đoàn</w>
trang_ đài</w>
thức_ tỉnh</w>
thông_ hiểu</w>
thâu_ tóm</w>
the_th é</w>
tay_ lái</w>
t ằm</w>
t y_
sống_ còn</w>
số _mệnh</w>
sú ng_l
rưng_r ưng</w>
nà i</w>
ngân_ phiếu</w>
lư _tuần</w>
l ũng_
k ị</w>
h ùm</w>
gide on</w>
giam_ cầm</w>
fade tte</w>
cướp_ đoạt</w>
c. i.
b ệt</w>
aven tado
ao_ ước</w>
26 38</w>
1.9 80</w>
đắc_ thắng</w>
đại_ ma</w>
ðầu_ tử</w>
vết_ tích</w>
vel t</w>
v íu</w>
triệu_tiền_t ôn</w>
ti_ vi</w>
thực_ khách</w>
thất_ thủ</w>
thành_ thạo</w>
ssa d</w>
r êu</w>
quê _mùa</w>
nhạc_ thừa</w>
ng ợp</w>
mở _to
mở_to ang</w>
mĩ m</w>
khối_ u</w>
khuôn_ khổ</w>
hề _h
gia_luật_ hồng_cơ</w>
di_ sản</w>
cừu_ hận</w>
cất_ cánh</w>
chế_ giễu</w>
chuyên_ khoa</w>
can_ quy</w>
c ang</w>
biên_ cương</w>
be r</w>
a cker</w>
_đ ỏ</w>
_l iễu</w>
đồng_ cảm</w>
đầ m_
đ -
xe n_l
xen_l ẫn</w>
vô_s ỉ</w>
tự _thân</w>
tài_ hoa</w>
thủ_ tiêu</w>
quấy_ rối</w>
quyền_ sở_hữu</w>
phân_ nửa</w>
nhân_ ảnh</w>
nhân_ tố</w>
lỗi_ lạc</w>
lạnh_ toát</w>
ký_t úc_xá</w>
h ứ</w>
gân_ cốt</w>
giải_ mã</w>
g b</w>
d ì
công_ thần</w>
chính_ nghĩa</w>
bảo_ định_đế</w>
bác_ bỏ</w>
buồn_ nôn</w>
ba -
_n ương_
_g à</w>
38 .050</w>
đại_ trí</w>
úi_ dụi</w>
ấ m</w>
x ào_
vô_ vàn</w>
tổng_ đốc</w>
tất_ yếu</w>
trần_ truồng</w>
triệu_ vân</w>
tiên_ nữ</w>
tháo_ chạy</w>
siêu_ mẫu</w>
ruộng_ đất</w>
premier _league</w>
nhạt_ nhẽo</w>
m ờ
f ri
du_ thuyền</w>
d úi_dụi</w>
cắm_ đầu</w>
cá ng</w>
bách_ chiến</w>
bs p</w>
9 x</w>
70 22</w>
622 .9
622.9 25</w>
30. 202</w>
3. 977</w>
23 3.977</w>
v ẫy_
trí_ óc</w>
thiên_ môn</w>
se r</w>
r ạ</w>
ngột_ ngạt</w>
ngô_kh ảm</w>
nguyễn_tấn_ dũng</w>
n_l ợi</w>
mới_ đầu</w>
mắng_ chửi</w>
lặ n_l
ly nda_
khí_ phách</w>
k ông</w>
k el
dù _vậy</w>
cơ va</w>
cơ _sở
chả _trách</w>
ực_ cười</w>
đại_ sứ_quán</w>
đạ n_
áp_ đặt</w>
trọng_ điểm</w>
thổ n_thức</w>
thất_ lạc</w>
thoạt_ đầu</w>
t z
săn_ bắn</w>
quét_ dọn</w>
o -
ng_h ờ</w>
n ực_cười</w>
n á
n bsp</w>
một_ cái</w>
miễn_ là</w>
lặn_l ội</w>
lynda_ trang_đài</w>
liên_ hiệp</w>
kh ứa</w>
hữ ng_hờ</w>
h ắt_
giật_ thót</w>
g ìn_
chị t</w>
chi ca
biệt_ lặc_
_x ô</w>
ảo_th uật</w>
điệ p_viên</w>
vân_ anh</w>
v p</w>
v on
trá ch_c
thủ _d
thao_ túng</w>
th úi</w>
t q</w>
rã_r ời</w>
r ò
niệm_ từ</w>
nho_ sinh</w>
ngự_ tiền</w>
lưu_l uyến</w>
linh_ thiêng</w>
la u_
in ch</w>
hà _kh
hoá _sinh</w>
gìn_ giữ</w>
gia_ phong</w>
c ấn</w>
bất_ khả</w>
_r ộ</w>
9 9</w>
200 1</w>
199 7</w>
15 :
06 /03/2012</w>
00 :0
điêu_ khắc</w>
xa_ hoa</w>
tí n_ng
tín_ng ưỡng</w>
tài_ phiệt</w>
tà _đ
trương_ tuyền</w>
tiệ n_lợi</w>
thân_ tín</w>
thành_ tâm</w>
thuý_ an</w>
thiên_ chúa_
t ắn</w>
so fa</w>
ngứa_ ngáy</w>
m ền</w>
l lo
kỳ _tài</w>
kiên_ giang</w>
khương_ duy</w>
khiếm_ khuyết</w>
hệ _t
hèn_ hạ</w>
hy und
h ủ
dẫu_ sao</w>
dầu_ mỏ</w>
da llas</w>
cẩn_ mật</w>
chê _cười</w>
ch ửng</w>
canh_ chừng</w>
1 10</w>
ổ ng_
đại_ hãn</w>
vô_ lại</w>
tần_ vô_viêm</w>
trầm_ linh</w>
trách_c ứ</w>
sống_ lưng</w>
sáp_ nhập</w>
spo on</w>
quỷ_ kế</w>
quật_ cường</w>
nghiệ p.
n ùng</w>
m ân_
lâu_l a</w>
khổ _luyện</w>
ga tes</w>
e la</w>
d ra
d _b
cn tt</w>
bàng_ quan</w>
biến_ ảo</w>
b úi</w>
_đ au</w>
5 /2</w>
05 /03/2012</w>
/201 6</w>
y -
tám_ hướng</w>
tinh_ nghịch</w>
thạ ch_t
thù_ địch</w>
thái_ bảo</w>
suy _luận</w>
s v
reu ters</w>
phương_ tám_hướng</w>
pháp_th uật</w>
nguyễn_ xuân_
ng ấn</w>
nam_ hải</w>
mọi_ khi</w>
khác_ gì</w>
khe n_thưởng</w>
hình_ tròn</w>
dĩ _vãng</w>
d ây_th
cổ _truyền</w>
căm_ giận</w>
bốn_ phương_tám_hướng</w>
buộc_ tội</w>
ale x</w>
_x á</w>
_v ơ</w>
_so ng_
199 8</w>
19 45</w>
/ 6
đương_ kim</w>
tột_ độ</w>
tái_ sinh</w>
trông_ cậy</w>
thương_ nhớ</w>
thái_ tông</w>
quảng_ châu</w>
p r
núi_ rừng</w>
nguy _nan</w>
l ảng_
khuyên_ can</w>
hoài_ đức</w>
hoa_ lệ</w>
g ội</w>
er o
cải_ biến</w>
cây_ cổ_thụ</w>
chất_ béo</w>
bất_ định</w>
bất_ hoà</w>
bạch _đ
b mw</w>
_m ọn</w>
đư ́ng</w>
ái_ nữ</w>
á n_ng
vắ ng_lặng</w>
tậ n_tình</w>
trú _ngụ</w>
thất_ thần</w>
thiên_chúa_ giáo</w>
photo shop</w>
no te</w>
nhà_tr ắng</w>
ngo ạm</w>
me s
m p</w>
khám_ nghiệm</w>
ke n_
im f</w>
hàm_ lượng</w>
hiệ p_lực</w>
hiếp_ dâm</w>
cụ _già</w>
bồ _đ
8 3</w>
2019 đáp</w>
đảm_ nhận</w>
đoàn_ văn_
ðan_ nhi</w>
vệ _binh</w>
vi_ thần</w>
tư _liệu</w>
trấn_ giữ</w>
truyền_ đạt</w>
tiện_ nhân</w>
tinh_ hoàn</w>
ti ̀m</w>
suy_s ụp</w>
ste in</w>
s uối_
robo t</w>
năm_ tuổi</w>
nhà_kh o</w>
mục_ niệm_từ</w>
lâu_l âu</w>
l ôn</w>
kẻ _c
hoá _
hoàng_ anh</w>
có t</w>
chu ỷ</w>
/1 9
ắt_ hẳn</w>
ượng_ nhân</w>
ưu_ tú</w>
độc_ cô</w>
đồ _th
đế_ quốc</w>
y .</w>
va y_
tử_ chiến</w>
từ _liêm</w>
tể _tướng</w>
tần_th úc_bảo</w>
tươi_ tắn</w>
tr ượt_
tiến_ quân</w>
thị_trường_ chứng_khoán</w>
t &
rượu_ vang</w>
pho ng_linh</w>
phiề n_to
phiền_to ái</w>
nhân_ cách</w>
nguyễn_th anh_
nghèo_ khổ</w>
lễ _
l ánh_
khuynh_ hướng</w>
hệ _trọng</w>
h ích</w>
ghi_ bàn</w>
diệp_ chi</w>
di_ tản</w>
da_ gà</w>
cương_ vị</w>
cá _voi</w>
ban_ mai</w>
_c ứng</w>
5 .
ề u</w>
đùa_ cợt</w>
tx cơva</w>
treo_ cổ</w>
thứ _sử</w>
thì a</w>
t& t</w>
qua ́</w>
ph ắc</w>
nguyễ n_l
nghi_ ngút</w>
nam_ bắc</w>
minh_ chứng</w>
le o
kim_ ngân</w>
khoan_th ai</w>
k .</w>
iết_ thủ</w>
hôn_ quân</w>
hoạ ch_
diêm_vương_ tôn_giả</w>
danh_ giá</w>
d ar
cách_l y</w>
com p
chửi_ mắng</w>
b ư
anh_ cả</w>
_t ung</w>
ứng_ chiến</w>
ợt_ lạt</w>
đổ _máu</w>
yên_ bình</w>
x iên</w>
vô _thức</w>
tiểu_ tốt</w>
tiểu_ tiên</w>
tiên_ cơ</w>
thăm_ viếng</w>
quá _chừng</w>
phục_ binh</w>
màn_ ảnh</w>
lạc_ lõng</w>
liên_ đoàn</w>
l ợt_lạt</w>
kho_ tàng</w>
cầu_ khẩn</w>
co n_đ
chính_ trị
cam_ đoan</w>
bản_ xứ</w>
buồ n_t
_th ạch</w>
_th ư
_ nhất</w>
789 1</w>
5 .000</w>
31 /1</w>
15 /12</w>
ốt_ đài</w>
ve nezu
tiến_ trình</w>
tinh_ hoa</w>
thuỳ _dung</w>
s ù
quyền_ hạn</w>
phát_ tán</w>
ngăn_ kéo</w>
n_t ông</w>
mer y
làm_ thinh</w>
lou is</w>
lo gi
iế n_
hạ_ cánh</w>
hôn_ lễ</w>
go á</w>
giá_ mà</w>
g ặt</w>
chu ̉</w>
cho_ qua</w>
bát_ ngát</w>
b ông_
79 21</w>
ấm_ cúng</w>
đổ _xô</w>
đ ong</w>
á n_th
venezu ela</w>
tố ng_thanh_
tr ứ
tiềm_ lực</w>
thanh_ tịnh</w>
ph ai</w>
n_đ ường</w>
mù_ quáng</w>
kề m</w>
huyền_ hoa</w>
hi u_
gia_ vị</w>
gi ông</w>
dã_tốc_ cai</w>
du_ dương</w>
du ệ</w>
dow n
d ấn</w>
cung_ nga</w>
chạy_ đua</w>
bán_ hoa</w>
_ch ú</w>
/201 3</w>
ẻ ng</w>
đụng_ độ</w>
ép_ buộc</w>
xác_ thực</w>
vô _lực</w>
vide o_
tê _dại</w>
trầm_ lặng</w>
thô _
thích_ nghi</w>
sành_ điệu</w>
seri e_
s por
r ứa</w>
nạ p_
ni côn</w>
nhà _g
me ̣</w>
mai_ táng</w>
m ỏ
m iê
lợi_ hanh</w>
lưu_l ạc</w>
kỹ _thuật_
kiệt_ lực</w>
khẩn_ cầu</w>
in i
hà_th iết_thủ</w>
hà _thành</w>
huýt_ sáo</w>
hoá _đơn</w>
h út_
cô_t ô</w>
ai_ oán</w>
ớ c</w>
áo_ giáp</w>
ài_ sơn</w>
uni ver
tường_ thuật</w>
tô _khôn</w>
tiếp_t ay</w>
thổ _dân</w>
thỏ _th
thỏ_th ẻ</w>
nở _rộ</w>
nó ng_h
ngoại_ tình</w>
lý_tự _thành</w>
l iệu_
il l</w>
diêu_ hưng</w>
d úi</w>
cấp_t ốc</w>
co lo
cho ảng</w>
cha_ anh</w>
c ra
bao_ cao_su</w>
a z
_b à
ạt_ nhân</w>
định_ kỳ</w>
đoàn_t ụ</w>
ăn_ học</w>
vô _vị</w>
thần_ phong</w>
t òng</w>
quý _m
qua_ loa</w>
phế_ bỏ</w>
phá _
p e</w>
mậu_ công</w>
mất_ hồn</w>
mar gar
linh_ thứ
hứa_khai_ sơn</w>
hàm_ ý</w>
e d</w>
d s
cực_ đoan</w>
cá m</w>
cao_ ngất</w>
biến_ dạng</w>
ban_ chấp_hành</w>
an tôn</w>
9 00</w>
ậ u_l
động_ mạch</w>
đại_ nham</w>
đô la</w>
đàm_ vĩnh_hưng</w>
đoàn_ viên</w>
đa_ nghi</w>
zi o</w>
thuý _nga</w>
th o</w>
t ày_
rober t</w>
phút_ giây</w>
nhà_ ăn</w>
nghèo_ khó</w>
mờ _nhạt</w>
mery l_stre
lầm_ bầm</w>
lương_ đô</w>
lh q</w>
kiểm_ lâm</w>
khinh_ miệt</w>
hợp_đáp_ an</w>
hạ_l ưu</w>
gh ìm</w>
e _sợ</w>
côn_ sơn</w>
cô _hầu</w>
chiến_ sỹ</w>
ch_l ạc</w>
ch_ động</w>
c ười</w>
_l ưu</w>
_l ai</w>
5 0
2 10
/201 4</w>
đánh_ phá</w>
x ó</w>
vơ ̣</w>
vãn_ hồi</w>
vnthu quan</w>
tống_thanh_ thư</w>
tưở i</w>
tuỳ _
trông_ chờ</w>
truy _tố</w>
tiêu_ hao</w>
thượ ng_l
thuỷ_ tiên</w>
sóc_ trăng</w>
quan_ âm</w>
ph ăng_
người_ máy</w>
meryl_stre ep</w>
kỷ _thiến</w>
kỳ _phi</w>
kỳ _công</w>
k ịt</w>
hoàng_l iên</w>
giả_th iết</w>
diễm_ lệ</w>
d ậu</w>
chưa_ biết_chừng</w>
chê ́t</w>
chuyên_ trang</w>
can_ ngăn</w>
bộ_ óc</w>
biệt_lặc_ cổ
đối_ kháng</w>
đông_ tây</w>
đinh_ nhất_
đe o_
đe n_đ
xi t</w>
vương_huyền_ ứng</w>
vô_ cảm</w>
trẻ _n
trẻ_n ít</w>
tiểu_ trúc_phong</w>
thanh_ nguyên</w>
quốc_ sư</w>
nhỏ _mọn</w>
nguỵ _mâu</w>
nghiễm_ nhiên</w>
mày_ râu</w>
giáo_ sĩ</w>
am ster
đại_ cục</w>
đê ̀u</w>
đè _b
đè_b ẹp</w>
đàm_ luận</w>
đoàn_th ể</w>
trắng_ muốt</w>
tiên_ đoán</w>
thanh_ thiếu_niên</w>
ra oul</w>
phổ _côn</w>
ph anh_
pa l
nhậm_ chức</w>
nguyên_ đán</w>
mar k_
m ễ</w>
lý_h ốt_đài</w>
l .</w>
hoạt_ bát</w>
hol ly
chiến_ tranh_
bi ll
_b út</w>
đồng_ tháp</w>
đầy_ ắp</w>
è re</w>
xe_l ửa</w>
vỡ_l ẽ</w>
tử _thương</w>
tồn_ vong</w>
thầm_ thì</w>
th án</w>
s pe
niên_ kỷ</w>
nhân_ các</w>
ma ssa
m eo</w>
khởi_ nghiệp</w>
khó m</w>
khinh_ khi</w>
giai_ điệu</w>
gi ữa_
chung_ thân</w>
chiế t_
_h èn</w>
24 /12</w>
/0 3</w>
óng_ ánh</w>
ám_ hại</w>
vạn_ khuê</w>
vũ _công</w>
v ưu_
uất_ ức</w>
tường_ vi</w>
tt y</w>
trợ _thủ</w>
truy ền_t
tháng_ ngày</w>
o a
núi_ lửa</w>
nh ung_
máy_t ính_
lý_th ú</w>
lê _đình</w>
la _thành</w>
khổ _đau</w>
khiết_ đan</w>
iế p_
iên_ nữ</w>
hộ p_
hồng_l iên</w>
gi o
cảm_ phục</w>
c ă
bê _tông</w>
b ôn_
_th ải</w>
2 /2</w>
ư_ ký</w>
vương_ bá</w>
tổng_th ư_ký</w>
tư _lệnh</w>
trong_ trắng</w>
thổ _nhĩ
thạ nh</w>
thương_ nhân</w>
th ước_
t su
sinh_ lý</w>
re m
nhân_ sĩ</w>
ngây_ ngô</w>
na to</w>
khí ch_động</w>
k iềm</w>
hư_tr uyền</w>
hoàn_nhan_ khang</w>
di_ cư</w>
danh_ bất_
danh_bất_ hư_truyền</w>
cực_ nhọc</w>
công_nghệ _cao</w>
bó c_
ba_ đình</w>
_h ạng</w>
9 2</w>
đổi_ thay</w>
đỏ _ho
đê _hèn</w>
áp_ chế</w>
yêu_ ma</w>
xi co</w>
uyên_ ương</w>
tơi_ bời</w>
tiểu_ linh</w>
tiếp_ viện</w>
thông_ suốt</w>
thuỷ _sư</w>
sâu_ đậm</w>
phệ _huyết_
o  
nước_ tiểu</w>
n_đ ất</w>
n y_
n er
m ịt</w>
m my</w>
lắp_ đặt</w>
lần_ mò</w>
kỳ_ anh</w>
j an</w>
hận_th iên_nữ</w>
hình_ vẽ</w>
huyền_ trinh</w>
hoa_ văn</w>
gia ve</w>
el li
cực_ kì</w>
cứng_ cỏi</w>
ch iện</w>
bảo_ hiểm_
an a</w>
ðào_ hoa_tiên</w>
ð iện</w>
u_ cợt</w>
thợ _rèn</w>
thẳng_ tay</w>
sơ _tán</w>
s ạt_
ro om</w>
quá _lời</w>
nốt_ ruồi</w>
nhỏ _hẹp</w>
lật_ tẩy</w>
lầm_ lẫn</w>
kỳ _hạn</w>
khánh_ thành</w>
giễ u_cợt</w>
giả _dạng</w>
g li
fran cis
chối_ cãi</w>
che ng</w>
ch â
_v ăn_th
_l ỗ
đối_ ngoại</w>
á .</w>
xa vi</w>
vô _sinh</w>
tái_ tạo</w>
tr ở</w>
tiền_ sử</w>
thở_d ốc</w>
thượng_ lưu</w>
t òng_
súng_l ục</w>
r ăn</w>
phát_ sóng</w>
ngôn_ như_băng</w>
n_to án</w>
mộ _bình</w>
lịnh_ chấn_kỳ</w>
lưu_ chuyển</w>
lâm_ trận</w>
làm_ ngơ</w>
khiếm_ thị</w>
ken ne
hổ _phách</w>
hồ _ly</w>
họ c.
gi o</w>
dị _dạng</w>
cảm_ thông</w>
cu p</w>
chần_ chờ</w>
châm_ chọc</w>
c ộp</w>
_x át</w>
_s oạn</w>
_c a</w>
ấn_ định</w>
độc_ địa</w>
ân_ lê_đình</w>
vũ _lực</w>
viet tel</w>
trung_ thu</w>
triều_ dương</w>
tiêu_l iệt_
thụ _th
thí _điểm</w>
thâm_ độc</w>
th ò
teh ran</w>
ri e</w>
quái_ gở</w>
ph er
p t
ná cđiê</w>
na dal</w>
n ức</w>
mê _cung</w>
mãnh_ thú</w>
mã _s
miên_ man</w>
ma c</w>
lĩnh_ nam</w>
lan_ hoa_
k ong</w>
hà_thái_ xung</w>
hoả_ tiễn</w>
hoàn_ xỉ</w>
hoa_ khôi</w>
cách_ mạng_
cá p_
co_ rúm</w>
chu_ văn_
bảo_th ủ</w>
_t ả</w>
_n ã</w>
9 6</w>
6 %</w>
địa_ chấn</w>
ðại_ nham</w>
x ả
x ép</w>
v- league</w>
tỉ _thí</w>
tô _ch
tiêu_liệt_ vũ</w>
thảm_ sát</w>
te d</w>
ph ớt_
nhộn_ nhạo</w>
nhân_ hậu</w>
mai_ sơn</w>
m_c ồm</w>
lồ m_cồm</w>
lang_ quân</w>
la_ ó</w>
l ồi</w>
ja c
hi ̀nh</w>
g ần</w>
ed ward</w>
d y
cu- ba</w>
chủ ng_
chica go</w>
cas ino</w>
b ỉ_
_v ía</w>
_m a
/ 4
đường_ cao_tốc</w>
x ấp_
vỗ _ng
vỗ_ng ực</w>
võ_ quan</w>
v ề
trí_ quang</w>
tri ck</w>
tr à_
thân_ vương</w>
thành_ ý</w>
s ằng_
quảng_ đại</w>
phúc_ lợi</w>
oanh_ tạc</w>
nh uố
nh nn</w>
ngọc_ thành</w>
mong_ chờ</w>
le x</w>
l ẹ
học_ sĩ</w>
huyền_th ứ</w>
hoàn_ kiếm</w>
h ùa</w>
fe sti
eu ro
_đ ứng</w>
ằ ng_th
độc_ dược</w>
đá o_
đ úp</w>
xã_hội_ chủ_nghĩa</w>
xoa_ dịu</w>
vu ̣</w>
v ông</w>
tương_ kiến</w>
tính_ chuyện</w>
toạ _lạc</w>
tiết_ thần_y</w>
tiếp_ diễn</w>
thổ_nhĩ _kỳ</w>
thưa_th ớt</w>
thô_ bạo</w>
quyê ́t</w>
nặng_tr ĩu</w>
nói_ xấu</w>
làm_ thịt</w>
le ng_
kiều_l inh</w>
hội_ viên</w>
hê ́t</w>
gặ m</w>
giả_t ạo</w>
g ắm</w>
d ế</w>
cố_ch ấp</w>
côn_ lôn</w>
ca ta
c i</w>
bành_ liên_
ban_ công</w>
_ph ương_
201 6</w>
/1 /2012</w>
đo ản</w>
xấp_ xỉ</w>
xương_ văn</w>
vu_ yêu</w>
vil le</w>
v ẹ
tt er
truật_ xích</w>
thiên_ nga</w>
thi_ đua</w>
so ạ
so u
sang_ sảng</w>
râu_ ria</w>
phúc_ kiến</w>
nỗi_ niềm</w>
ngô _h
nguyên_ lý</w>
n_l ong</w>
mạ ch
mar k</w>
m m</w>
làm_ thuê</w>
leng_ keng</w>
kha_ trấn</w>
k ênh_
hào_ phóng</w>
hung_ tợn</w>
hiểm_ ác</w>
gol f</w>
g án</w>
em ma</w>
công_ giáo</w>
chính_ tâm</w>
ché n_thánh</w>
ch ày</w>
bệnh_ lý</w>
bướ u</w>
b .
_x ì</w>
_t iết</w>
7 /12</w>
16 :
/201 5</w>
/0 8/2011</w>
đường_ sá</w>
ð ế</w>
xê- va</w>
tẩu_ thoát</w>
tú p</w>
tô m_
tuổi_ thọ</w>
thượng_ đỉnh</w>
tam_ đại</w>
suy _xét</w>
phệ_huyết_ châu</w>
phần_ phật</w>
o è</w>
nhường_ nhịn</w>
nhà_g a</w>
lo anh_
loanh_ quanh</w>
kính_ bentley</w>
kí ch_c
khẩn_ yếu</w>
hư _
hô_h ố</w>
giằng_ co</w>
giáo_ dục_
gia_ tài</w>
dại_ dột</w>
du_ đại_nham</w>
down load</w>
co ng_
chết_ thật</w>
chơi_ bời</w>
bực_ dọc</w>
bỉ_ ổi</w>
bú n</w>
bán_ chạy</w>
biên_ soạn</w>
8 1</w>
- 4</w>
ử ng_
ứng_ cử
ần_ quân</w>
đại_ thắng</w>
đại_ bại</w>
điệ p_
x âm</w>
tương_ đồng</w>
trá ng_lệ</w>
trào_ lưu</w>
tiến_ hoá</w>
thư ́c</w>
sản_ sinh</w>
quá_ ư</w>
qua n_th
qu ấn_
phé p_t
nhuệ _khí</w>
n án</w>
n iềm_
mã_ cát</w>
m ơn_
lãng_ tử</w>
lung_ lay</w>
i la</w>
hội_ tụ</w>
hơi_ nước</w>
hà ng_h
hoạt_ hình</w>
giám_ mã</w>
ghi_ âm</w>
g ác_
dấu_ tích</w>
dân_ tộc_
d ãi</w>
chất_ phác</w>
chiế c_
a p</w>
_kh ôi</w>
_b ộc</w>
„ð ó</w>
ỵ u</w>
ở _bà
ở_bà n_tay</w>
ống_ nghe</w>
đỏ_ho e</w>
đ ung_
đung_ đưa</w>
xung_ phong</w>
xi_ măng</w>
v ênh</w>
tàu_ chiến</w>
trục_ xuất</w>
to sh</w>
so ẹt</w>
sai_ trái</w>
nước_ lớn</w>
nóng_h ổi</w>
nhậm_ tuấn</w>
như_tr ở_bàn_tay</w>
nan_ giải</w>
n ản_
m b</w>
long_ trọng</w>
khôi_ ngô</w>
hỗn_ độn</w>
hào_ hiệp</w>
dây_ xích</w>
di_ chúc</w>
chức_ danh</w>
caf é</w>
_tr ẻ</w>
8 6</w>
201 4</w>
đảm_ đương</w>
ðào_ cốc</w>
v ươ
từ _trường</w>
trang_ thiết_bị</w>
tr ồ</w>
tr ối</w>
tr ù_
thực_ đơn</w>
thượng_ du</w>
thiếu_ hụt</w>
th a_
soạ n_thảo</w>
phụ t</w>
pa z
nô _bộc</w>
nhà _phân_
nhà _băng</w>
nh úng</w>
ngón_ trỏ</w>
nguyễn_ minh_
ngh ịu</w>
n_đ ơn</w>
mây_ mù</w>
men t</w>
dã _
do nal
da s
d ẫy</w>
có _hạn</w>
bối_ hải_
bạc_ phơ</w>
_b ẩn</w>
4 3
27 .
ồn_ một</w>
x iêu</w>
wi ki
tập_ quán</w>
tá n_đồng</w>
trong_ lành</w>
tiếp_ kiến</w>
thp t.
t ò
sổ _sách</w>
s ữa_
phan_ ma_lôi</w>
nội_ trú</w>
na r
ma _thường</w>
m ồn_một</w>
khu ỵu</w>
khiếp_ đảm</w>
kan o_
hàm_ hồ</w>
ho t
giám_ định</w>
gd đh</w>
gd p</w>
d ìa</w>
d l</w>
căm_ tức</w>
công_ dã_c
bảo_ tượng</w>
bả ng_
bel lamy</w>
16 /12</w>
ứng_cử _viên</w>
đấu_ giá</w>
đông_ cung</w>
đ ắng_
ân_ ái</w>
x ế_
tống_ kim_cương</w>
tr óc_
toàn_ quyền</w>
thương_ tổn</w>
t ờ
su v</w>
phải_ chi</w>
nội_ thành</w>
ngại_ hổ</w>
ng u_d
khôn_ khéo</w>
hơ ̣p</w>
hà ng_hải</w>
danh_ mục</w>
ch ế
c r
bước_ đường</w>
_th ập_
_ch uẩn</w>
đại_ biến</w>
vương_ quốc_anh</w>
vù i_
tiền_ vệ</w>
thủ _th
thánh_ giá</w>
thái_ hư</w>
thiết_ tâm</w>
t ất</w>
sto n_
s ớ</w>
rung_ rinh</w>
o t</w>
nh áp</w>
nh àng</w>
ngo èo</w>
nghi ̃</w>
ma il
m ận</w>
kh ứ</w>
hừ m</w>
gia ́</w>
dáng_ dấp</w>
diễ u_
chủ_nghĩa_ xã_hội</w>
bối_hải_ thạch</w>
đông_ y</w>
x ước</w>
vi_ nhất_tiếu</w>
triều_ chính</w>
sa_s út</w>
paz ini</w>
nhập_ môn</w>
ngô_thị _diễn</w>
ngang_ dọc</w>
mộ_dung_ bảo</w>
mị n_màng</w>
máu_ me</w>
lad en</w>
kỳ _binh</w>
khoái_ chí</w>
joh nson</w>
hội_ an</w>
hiện_ hành</w>
goet z
giãy_ giụa</w>
giác_ ngộ</w>
g ọt</w>
falko_ goetz
ei le
cung_ đình</w>
_đ ình_
_t ục</w>
_b ar
7 %</w>
„ giờ</w>
ưu_ ái</w>
đỏ _l
đầu_ độc</w>
đà _lôi</w>
zu cker
x ạc</w>
trợ _lực</w>
thất_ thường</w>
r ần</w>
phản_ xạ</w>
phương_ tử</w>
ph ệt</w>
p_h òi</w>
nóng_ nẩy</w>
nghe _ra</w>
ngao_ nguỵ_mâu</w>
mạo_ danh</w>
mai_ phương_
la go
kiế ng</w>
khu ấy</w>
in tosh</w>
hệ_t ccn</w>
hẹ p_hòi</w>
hà _bắc</w>
gia_ truyền</w>
dương_ thiết_tâm</w>
cả _gan</w>
chớp_ chớp</w>
chòng_ chọc</w>
c ũi</w>
bộ _luật</w>
3 g</w>
xô _đ
xô_đ ẩy</w>
xa_ rời</w>
v ót</w>
tối_ ưu</w>
tâng_ bốc</w>
tuyết_ như</w>
thu ̉</w>
sỉ _nhục</w>
sẵ n_lòng</w>
st le</w>
phe _ph
m ía</w>
m iết</w>
li ve
ký_ giả</w>
kiế t</w>
ki ns</w>
i n_
hiệu_ ứng</w>
cầm_ thú</w>
chồng_ con</w>
bất_ phụ</w>
bu a</w>
_m á</w>
đại_ chúng</w>
ăn_n ăn</w>
vú_ già</w>
thần_ lực</w>
so i_
s ắt_
ri dge</w>
phì _thuỷ</w>
phe_ph ẩy</w>
n_đ iệu</w>
n ơ</w>
lẽ _
l uống</w>
k m
hỗn_ chiến</w>
hyund ai</w>
hu ý</w>
giải_ trừ</w>
gi ũ</w>
g ô
fi eld</w>
ca val
c đv</w>
bất_ hiếu</w>
ar thu
_đông_ dương</w>
2011- 12-
200 2</w>
. com</w>
đao_ phủ</w>
ð ộng</w>
yên_ yên</w>
ví ch-
tích_t ụ</w>
trườ ng.
trâu_ diễn</w>
thợ _
th ấy_
scu lley</w>
r ạ
quản_ lý_
phi ́a</w>
olympi c_
ngô_bảo_ châu</w>
mẫn_ quân</w>
mac intosh</w>
m g</w>
lo s_
l ợ
khuy ển</w>
hết_ hồn</w>
hu ê</w>
dô ia</w>
cường_ đạo</w>
chỗ _đứng</w>
ch ứt</w>
caval li</w>
bụi_ bặm</w>
bất_ nghĩa</w>
bách _bệnh</w>
an s</w>
_s ói</w>
9 7</w>
đâu_ vào_
zucker berg</w>
vừa_ vặn</w>
v ít</w>
tuyên_ ngôn</w>
tr ậ
thấp_th ỏm</w>
th ă
sáng_ quắc</w>
quỷ _thần</w>
quán_ anh</w>
ph ần_tử</w>
nhạc_ phụ</w>
ng_h ọng</w>
ng ừng_
n_th ơ</w>
n á</w>
muô n_đời</w>
linh_ tính</w>
l ấy</w>
kiểm_ sát</w>
khoai_ tây</w>
hu n
hoàng_ sa</w>
dưỡ ng_thương</w>
dương_văn_ can</w>
cộ ng_tác</w>
công_t ôn</w>
công_ thác</w>
công_ sơn</w>
chiếc_ bóng</w>
bi ̀nh</w>
bec kham_
b ước</w>
a bra
_lo ng_
ỉ_ quỳnh</w>
đề _đốc</w>
đạo_ cô</w>
xuống_ cấp</w>
xuân_ vũ</w>
w eng
tô_ch ỉ_quỳnh</w>
tây_ nguyên</w>
tàn_t ật</w>
trầm_ trồ</w>
toà _soạn</w>
sạt_ lở</w>
sơ_ bát</w>
su ông</w>
ráo_ riết</w>
qu ở
ni_ huệ_huy</w>
nhất_ thống</w>
nho m</w>
muôn_ vàn</w>
le o_
kiế n_t
guar dio
giữa_ chừng</w>
gia_ cát</w>
das wood</w>
công_ danh</w>
chặ n_đ
ba_ quân</w>
_s inh_
_lo i</w>
ờ m</w>
đại_ đa_số</w>
vương_ tố_thư</w>
vũ_kh í
v ừng</w>
u_ minh</w>
tích_t ắc</w>
tu ất</w>
trắng_ trẻo</w>
trung_ thần</w>
thường_ niên</w>
ta li
phụ _vương</w>
nhân_ thế</w>
nhuố m</w>
ngụ _ý</w>
news _v
napo li</w>
mo sco
m ình_
m t</w>
lỡ _lời</w>
le e
la ur
kỳ _lân</w>
khoa_học_ gia</w>
k iệ
k er
iel ts</w>
hư _danh</w>
gan_ dạ</w>
g ừng</w>
cơ _biệt</w>
cát_ nhĩ
càn_ rỡ</w>
chặn_đ ứng</w>
châm_ biếm</w>
c.i. a.</w>
bầu_ dục</w>
an e</w>
_lo ại</w>
đèn_ pin</w>
đánh_ đuổi</w>
xích_m ích</w>
xà _phòng</w>
xu ôi_
x ạo</w>
vân_trung_ hạc</w>
vi sa</w>
v ọ
tình_ ái</w>
triệu_ hồi</w>
tho ă
th ỏi</w>
sằng_ sặc</w>
stre ss</w>
quyền_ quý</w>
phục_ sinh</w>
p gs</w>
nhảy_ dựng</w>
nghĩa_ địa</w>
nam_ dương</w>
n v
mon t
me xico</w>
ma_ kiếm</w>
lê_h ồng_
kéo_ lại</w>
khu ấy_
i d
hoàn_ vũ</w>
hoan_ hỷ</w>
c ỡi</w>
bào_ chữa</w>
biên_ bất_phụ</w>
_d e
9 /2011</w>
7 /2012</w>
ằn_ ngoèo</w>
đê ̀</w>
xúc_ cảm</w>
xa_x ỉ</w>
x ú
x ù</w>
u  
u e
tài_ tình</w>
trọng_ viễn</w>
trác_ linh</w>
trong_ vắt</w>
thâm_ mạt_
thâm_mạt_ hoàn</w>
thái_ uý</w>
sai f</w>
rá ch_
ri ck</w>
qu ẹt</w>
phần_ đông</w>
ph ình</w>
p i</w>
năng_ suất</w>
ngạ n_
ngo ằn_ngoèo</w>
ng ọn_
lẽ_ phải</w>
lãng_ quên</w>
khoan_ dung</w>
jong- un</w>
hồ _nghi</w>
hậu_ vệ</w>
hoa_thiết_ cán</w>
guardio la</w>
galaxy_ note</w>
_ quyền</w>
12 :
06 6</w>
định_ bụng</w>
xe _tăng</w>
x iêm_
vé _số</w>
vân_ nhi</w>
và nh_
tậ n_tay</w>
tiểu_ long</w>
thành_ công_lực</w>
sáng_ trưng</w>
quảng_ bá</w>
nh út_
ngồi_ phệt</w>
nguy _hại</w>
n ẻ</w>
mềm_ lòng</w>
mê _tín</w>
lên_ giọng</w>
l ợp</w>
khoáng_ sản</w>
kh ơi_
ke ang
hu ơ</w>
hoành_ chương</w>
ghế_ bành</w>
g ảy</w>
g ang</w>
di e</w>
den ko</w>
chán_ng án</w>
c ri
bạch_m i_
beckham_ benfica</w>
_t ai</w>
_b ề</w>
_ hoá</w>
đưa_ đón</w>
đ en
ð ào_th
xích_ phát_
tống_ viễn_kiều</w>
tông_ kiệt</w>
tr ặc</w>
tiêu_ tông_kiệt</w>
thị _trưởng</w>
thiên_ ma</w>
sản_ lượng</w>
r ợp</w>
quỹ _đạo</w>
nhút_ nhát</w>
nhà _c
nhi_ xích</w>
nguyên_ lai</w>
ngh inh_
n úng</w>
mật_ vụ</w>
mobi le</w>
lu lz
khả o_th
jack son</w>
is h</w>
hỗn_ hợp</w>
học_ thuật</w>
hoàng_th iên</w>
hoa_thiết_ can</w>
d ầu_l
d ai_
cấu_ tạo</w>
cường_ độ</w>
cư ̉a</w>
cung_ cách</w>
cs đt</w>
chỗ _
_v i</w>
_ph i_
_c ây</w>
„ð ừng</w>
ớ _
ướt_ sũng</w>
đo ạ
đ ĩ
xích_phát_ đại_ma</w>
weng er</w>
uyển_ phụng</w>
tà _ma</w>
trắng_ tinh</w>
t en</w>
sự _thể</w>
sư _đoàn</w>
song_ toàn</w>
phật_ tử</w>
phản_ bác</w>
phương_ anh</w>
phát_ âm</w>
ngày_ sinh</w>
ng ả
n v</w>
máy_ vi_tính</w>
m õ</w>
lồng_l ộng</w>
làm_ gương</w>
la _th
l ửa_
ký_t ên</w>
huân_ chương</w>
hoạ _đồ</w>
gh ềnh</w>
gd đt
b ít</w>
an_ lạc</w>
a ms</w>
_l ư
29 7</w>
25 /12</w>
23 /1</w>
định_ kiến</w>
đông_ nam</w>
đen_ kịt</w>
z o
x ơi</w>
vĩnh_ phúc</w>
uy_ nghi</w>
tần_ chung</w>
thần_ long</w>
thâm_ sâu</w>
ter ry</w>
ta_ na</w>
sân_ cỏ</w>
rộng_ mở</w>
og rave</w>
lệ _phí</w>
lắm_ chuyện</w>
l ựu_
kuna du</w>
hẳn_ hoi</w>
hôi_ thối</w>
gă ̣p</w>
dã _h
da y_
cãi_ vã</w>
chó _đẻ</w>
ch ầu_
cao_ vút</w>
be cks</w>
đại_ đường</w>
đi_ đứng</w>
ân_ thụ</w>
v ầy</w>
v ã
trường_ thành</w>
tru_ tiên_
tr iền_
thống_ soái</w>
thâm_ tình</w>
sta r
sinh_ tồn</w>
ro se
qu ốc</w>
phăng_ phắc</w>
phòng_ khám</w>
pháo_ hoa</w>
ph ẳ
nhãn_ hiệu</w>
ngọc_thanh_ điện</w>
ng_l ừng</w>
ng_h ình</w>
ng âm_
n_l ấn</w>
mộ ng_hồ</w>
mạ n_
m_ chế</w>
lẻ _loi</w>
lười_ biếng</w>
lam_ ngọc_đường</w>
kề m_chế</w>
kim_ nguyên_
huấn_ luyện_
diễm_ nữ</w>
cổ _nhân</w>
có_ một_
câ ̀u</w>
chấp_ pháp</w>
bạch _mai</w>
av g</w>
_đ iệu</w>
9 0%</w>
4 s</w>
199 2</w>
ð át</w>
ác_ quỷ</w>
xe _đ
x uố
vi- rút</w>
tà_đ ế_
trơ_tr ọi</w>
trác_ tuyệt</w>
thần_ chú</w>
thông_ tri</w>
thu ần_tu
t em</w>
sao_ chép</w>
q -
phước_ oai</w>
nõ n</w>
nhỏ _
na tio
mưu_ trí</w>
mobi fone</w>
mo ̣i</w>
lặng_ im</w>
lãnh_huyết_ diễm_nữ</w>
kề _cận</w>
khởi_ sự</w>
không_ hai</w>
hồng_ kông</w>
ho anh</w>
giáo_ lý</w>
gi ẻ</w>
eri cu
cỏ _cây</w>
căm_ phẫn</w>
có_một_ không_hai</w>
che n_lấn</w>
ch ằng_
c ật_
biết_ chừng_
b ứt</w>
b ợ</w>
an_t áng</w>
a d</w>
_ph ỏng</w>
_l ộc</w>
_d ưỡng</w>
46 8.000</w>
199 4</w>
ườ m_
đầu_ cơ</w>
đại_ nạn</w>
đo án_
ô_t ục</w>
xo an</w>
vương_ hoằng</w>
vo l
v đv</w>
tứ _tung</w>
tỉ a</w>
tuần_ phủ</w>
trần_ lão_
trương_ khang_
trú _ẩn</w>
trung_ nghĩa</w>
thoă n_tho
thoăn_tho ắt</w>
thanh_ lương</w>
th ô_tục</w>
te le
t òi</w>
quy_t ân_thụ</w>
nể _nang</w>
nhã _nh
ng ai_
mosco w</w>
m ỳ</w>
kể _l
kính_ đức</w>
khảo_th í</w>
khoát_ nhi_xích</w>
d ửng_
cực_ độ</w>
cần_ ta</w>
bồ _đề</w>
bảo_ trợ</w>
biết_chừng_ nào</w>
bi a
ba_ lê</w>
b ể
_v ang</w>
_l u
1 20
ực_ tiên</w>
ốm_ yếu</w>
  kỳ</w>
yêu_ quái</w>
ver oni
trần_lão_ mưu</w>
trí ch_d
thuần_tu ý</w>
thi_ thố</w>
sà i
si on</w>
r ìu</w>
r ìa</w>
r in</w>
qu ế_t
ph ập</w>
o_th ủ</w>
ng_d ong</w>
ma ni
làm_ tròn</w>
lu e
kể_l ể</w>
khuy ển_
khoả n_đãi</w>
i ne
hấp_h ối</w>
hoàn_ mỹ</w>
ericu zio</w>
ch ùn</w>
bảo_ an</w>
biệt_ hiệu</w>
au di</w>
/ 8
ễ n_
ưu_ tư</w>
địa_ đồ</w>
đại_ thụ</w>
ðào_th ực_tiên</w>
áo_ lót</w>
tương_ phản</w>
tâm_ niệm</w>
tuyệt_ mỹ</w>
to tte
tiệ p</w>
tiền_ sảnh</w>
ti c</w>
thánh_ hoả</w>
tho ng_dong</w>
thiên_ long</w>
th ửa</w>
te _
t c_
sơ_s ài</w>
se nga</w>
s ầm_
s chi
r ỉ
phùng_ chân</w>
phê _chuẩn</w>
pháp_th ụ</w>
oli ve
nước_ sạch</w>
nên_ chăng</w>
nhấn_ chìm</w>
nhà _riêng</w>
micha el</w>
m ìn</w>
lắp_ ráp</w>
lẩn_ trốn</w>
lulz sec</w>
học_ lực</w>
gian_ hàng</w>
ga m</w>
dĩ a</w>
dính_ dáng</w>
du ẫ
cửa_ miệng</w>
cát_nhĩ _đ
c ằn_
17 /12</w>
ấp_ ủ</w>
đinh_nhất_ bạch</w>
đ ất</w>
ðồ _long</w>
vu ông_
va ng_lừng</w>
tận_ trung</w>
tạo_ dựng</w>
tây_ hồ</w>
t m
se i
quý _ly</w>
qui_ định</w>
qu ây</w>
phản_ loạn</w>
nương_ tay</w>
na sa</w>
n òng</w>
lâm_ phùng_chân</w>
loá ng_th
linh_ lung_
kì _d
kuna đu</w>
hạ_ quân_bình</w>
huấn_luyện_ viên</w>
hi_ di</w>
gián_đ oạn</w>
der ek</w>
cao_ tuổi</w>
ca u_
c c</w>
a nh
a a
_ kim_
ử_ xuân</w>
êm_ dịu</w>
z ni
y_ bạ</w>
x uyên_
u_ buồn</w>
tử u_l
tà_đế_ xá_lợi</w>
tuyên_ dương</w>
trương_khang_ niên</w>
triền_ miên</w>
tiệ p_
t ấn_t
so lomon</w>
quý _h
ph ô</w>
pe r</w>
nội_ ngoại</w>
nặng_ nhọc</w>
no i</w>
nhi_ khất</w>
ngô n_từ</w>
nghi_ thanh</w>
mưu_ sinh</w>
lầm_ lỗi</w>
lơ _là</w>
loáng_th oáng</w>
lo ng_h
kho ải</w>
huyết_ khí</w>
hiểm_ nguy</w>
d ằng</w>
chu_ xán</w>
cau_ có</w>
_thiên_ nhân_viên</w>
_c a
8 7</w>
199 9</w>
05 2019</w>
yo ga</w>
x iềng</w>
vạn_ hương</w>
veroni ka</w>
v ét</w>
tự _trọng</w>
tôn_ huynh</w>
tâm_ thái</w>
trận_ địa</w>
tiểu_ đoàn</w>
tiêu_ đề</w>
thế_ sự</w>
thuyền_ buồm</w>
rap tor</w>
r ơi_
quản_lý_ nhà_nước</w>
phan_ long</w>
paris _
nếu_ mà</w>
nuốt_ chửng</w>
n ế
n ôi</w>
mô t</w>
lạy_ chúa</w>
lũng_ đoạn</w>
linh_ nghiệm</w>
l ằn</w>
kẽ m</w>
khuyến_ mại</w>
i sa
giám_ đốc_
dửng_ dưng</w>
dây_ cót</w>
diệt_ vong</w>
d ể</w>
cười_ ồ</w>
căn_ cơ</w>
cuống_ cuồng</w>
can_ dự</w>
bậ y_bạ</w>
bất_ nhẫn</w>
bùi_ ngùi</w>
bà _tử</w>
bla ck
biệt_ danh</w>
amster dam</w>
đột_ quỵ</w>
ôm_ ấp</w>
wo zni
trường_ phong</w>
trích_d ẫn</w>
thầy_ lang</w>
tc_ news</w>
r ịt</w>
r ạn_
qu è</w>
ngượng_ nghịu</w>
mer s</w>
m ửa</w>
lựu_ đạn</w>
lê nh_
lo ang</w>
hồng_ anh</w>
h e</w>
gen na
cực_ khổ</w>
chế_ nhạo</w>
chí _tôn</w>
chuẩn_ mực</w>
cen t</w>
bí ch_t
bran don</w>
1 10
điê ̉m</w>
xế_ chiều</w>
vân_ cửu_long</w>
v ụng</w>
tửu_ điếm</w>
tứ_ đại_
trụ _c
thích_ ứng</w>
thanh_ lịch</w>
su zu
song_ sinh</w>
quan_t ây</w>
phương_ hồng_
news_v tc_news</w>
miệt_ mài</w>
miễn_ dịch</w>
m ổ
lago denko</w>
kìm_ nén</w>
khởi_ binh</w>
k i_
jo se
hồng_t ử_xuân</w>
hoảng_ công_thác</w>
hiểm_ yếu</w>
hai_ mươi_
h â
dâm_ ô</w>
cổ _thiên_nhân_viên</w>
cư ́u</w>
câu_ đối</w>
c ụp</w>
_h è</w>
19 80</w>
ức_ trách</w>
vân_ thiên</w>
trụ_c ột</w>
trương_ tam</w>
truy _cứu</w>
to ét</w>
ro yce</w>
phu_ thê</w>
o át</w>
nóng_ bức</w>
nhà_ch ức_trách</w>
nha_ a</w>
nghỉ _hè</w>
n_đ iền</w>
một_ phép</w>
lộc_ ðan_nhi</w>
li ga</w>
kết_ tội</w>
hướng_ vân_thiên</w>
h ẫng</w>
h ường</w>
gh t</w>
cổ _m
cấp_ uỷ</w>
cõi_ lòng</w>
col le
chu_ điên</w>
b ẹp</w>
_v i_
_h ạ
8 ,
10 /12</w>
ễ nh</w>
đoàn_văn_ vươn</w>
àn_ phong</w>
x é
vô_t uyến</w>
tả_ pháp_thụ</w>
trần_ đại_dũng</w>
toa n_tính</w>
to_ béo</w>
sứ_ mạng</w>
sáng_ loáng</w>
phương_ kỳ</w>
nguỵ _trưng</w>
ng óc</w>
la di
kinh_ nguyệt</w>
khôn_ cùng</w>
kh ờ</w>
im_ phăng_phắc</w>
hạ _sơn</w>
hùng_h ồn</w>
hoàng_ mai</w>
giang_hải_ lưu</w>
d .
chỉnh_ sửa</w>
ch ội</w>
bất_ kính</w>
bà_ cô</w>
bi_ ai</w>
bernabe u_
bao_ xa</w>
b ấc</w>
_đ iền</w>
_th ái_
9 3</w>
27. 066</w>
đồng_h ương</w>
đường_ kính</w>
điều_ khoản</w>
ích_l ương</w>
x ẻng</w>
video_ putin</w>
tuần_ hoàn</w>
thời_ sự</w>
thư _lại</w>
th ơi</w>
t n</w>
s ắng</w>
ro v</w>
quế_t ích_lương</w>
quái_ đản</w>
quan_ ải</w>
po li</w>
phủ _đệ</w>
pho ng_thanh</w>
par k</w>
olive tti</w>
o n_
nạp_ nha_a</w>
nhân_ tiện</w>
nghỉ _việc</w>
li ng</w>
l đ</w>
kiê ng_
kh iển_
k rem
i v</w>
hắc_ ám</w>
hư ng_thịnh</w>
h ăm</w>
g đ</w>
chính_ thị</w>
8 9</w>
đại_ đao</w>
điển_ trai</w>
âm_ kỳ</w>
xã _
xa_ giá</w>
vun_ vút</w>
tổng_ biên_tập</w>
tương_ tư</w>
thườ ng_tình</w>
si las</w>
ruột_ gan</w>
qu ắt</w>
phụ _tá</w>
pha ́t</w>
o án_th
nhữ ng_tưởng</w>
ngự _sử</w>
nghèo_ nàn</w>
mạc_ ngạo</w>
mô _phỏng</w>
mi_ mi</w>
m ất</w>
lục_ quán_anh</w>
lòng_ thành</w>
km /
k- pop</w>
hình_ vuông</w>
hoả_t ốc</w>
gánh_ chịu</w>
dịch _lâm</w>
ch ẩn</w>
bồng_ bềnh</w>
báo_ danh</w>
binh_ quyền</w>
bankplu s
an_ nhiên</w>
_l ục</w>
3 .000</w>
27 2</w>
18 /2</w>
độc_ thần</w>
đông_ bắc</w>
ăn_ chay</w>
ôi_ chao</w>
ô_h ay</w>
ô m_ch
ám_ hiệu</w>
xào_ xạc</w>
vạn_ độc_
vạ ch
vâ ̣t</w>
uỷ _tôn</w>
tẩu_ hoả</w>
tông_ tích</w>
trục_ trặc</w>
trọng_tôn_ huyền_hoa</w>
tr ưởng</w>
thủ_ khoa</w>
thủ _công</w>
sốt_ sắng</w>
shi ma</w>
sa nd
s gk</w>
ph il
o l
nh ón</w>
ng_th ững</w>
mịt_m ù</w>
lữ ng_thững</w>
lả _tả</w>
lăng_ sơ_bát</w>
ha y
cô ́</w>
chu_ vi</w>
c ựa_
_m ơ</w>
30 /1</w>
3/ 7/2012</w>
07 :
vận_ động_viên</w>
vây_ hãm</w>
trịnh_ đáng</w>
sài gòn</w>
sinh. khoảng</w>
sa ́ng</w>
sa in
nửa_ chừng</w>
ngọc_ linh</w>
nguyễn_đức_ tâm</w>
nam_ châm</w>
margar et</w>
lập_l oè</w>
lão_ bộc</w>
le s
khách_ khứa</w>
hợp _thành</w>
hăm_ hở</w>
huyết_ mạch</w>
hiền_ huynh</w>
hiê ̉u</w>
giang_ ninh</w>
g ạ
dân_ ca</w>
diễn_ văn</w>
cả o</w>
cười_kh à_khà</w>
cười_ sằng_sặc</w>
cl ericuzio</w>
chiều_ chuộng</w>
bất_ nhân</w>
bất_ lương</w>
bá n_t
_ng ập</w>
787 7</w>
x én</w>
vạch _trần</w>
tối_ ngày</w>
tăm_ tối</w>
thổ_ph ồn</w>
t anh_
sinh_ trưởng</w>
rắn_ chắc</w>
rò _r
rò_r ỉ</w>
rá ch
r an_
phụng_ trúc</w>
nông_ cạn</w>
nhu_ hoà</w>
ngo ác</w>
nghĩa_ quân</w>
ng ót</w>
n_t âm_
lý _nh
lamborghini_ aventado
kịch_ chiến</w>
kê ́t</w>
h ú
giá _thành</w>
giao_ phó</w>
fran k
e ver
d ăm</w>
cá _s
c ật</w>
bắc_ kiếm</w>
bạch_h àn_phong</w>
bé _b
bàn_ phím</w>
ba ̉n</w>
_x ẻ</w>
_ làng</w>
ẩn_ vơ</w>
áo_ cà_sa</w>
v ẩn_vơ</w>
tửu_ quán</w>
trung_học_ phổ_thông</w>
totte nham</w>
thổ _huyết</w>
thậ p_t
rách_ rưới</w>
quốc_ trung</w>
pho ton</w>
paris_ cánh_diều_vàng</w>
p_th ịt</w>
nhân_ phẩm</w>
ngạ ch_
nguy _ngập</w>
nghiêm_ tiểu_long</w>
ng ào_
mặc_ nhiên</w>
mũ _
mây_ khói</w>
mer y</w>
man da
linh_thứ u</w>
kỳ _thật</w>
khả_ ái</w>
gmt7 sáng</w>
giữ_ mình</w>
giáp_ công</w>
dòng_ chảy</w>
d ụa</w>
d ằng_
cứ a</w>
cám_ dỗ</w>
chuyên_ đề</w>
bắ p_thịt</w>
bạch_th ế_
bạch_l ong</w>
bình_ thời</w>
bé_b ỏng</w>
bành_liên_ hổ</w>
_v ui</w>
_ bà</w>
4 .000</w>
ắn_ kết</w>
đảng_ uỷ</w>
đo ạ</w>
y von
xì _x
vùng_ cao</w>
van_ persie</w>
thánh_ địa</w>
thpt. sau</w>
thoái_ hoá</w>
sung_ mãn</w>
su shi</w>
r ờ
r ưởi</w>
phải_ trái</w>
ninh_ thuận</w>
nhất_ chỉ</w>
mục_ kích</w>
lệnh_ ái</w>
lây_ lan</w>
linh_ tinh</w>
khinh_ bạc</w>
k no
hu ý
gửi_ gắm</w>
giàu_ sang</w>
dương_ vật</w>
dân_tộc_ thiểu_số</w>
di_ thể</w>
cừu_thiên_ nhậm</w>
con_ ngươi</w>
chằng_ chịt</w>
chật_ chội</w>
chá y_
bankplus _hướng</w>
_d inh_
9 1</w>
20 /1</w>
đồ n_điền</w>
đại_ hoá</w>
đông_ đô</w>
ôm_ch ầm</w>
vui_ thích</w>
v ờn</w>
tạo_ hình</w>
tr ầu</w>
tr iê
thầm_ kín</w>
thèm_ khát</w>
thám_ hiểm</w>
th _
suy _dinh_
s .</w>
nuốt_ lời</w>
nhà_ quản_lý</w>
mổ _xẻ</w>
mắc_ kẹt</w>
mẫ n_t
mưa_ tuyết</w>
mã _t
miệng_ lưỡi</w>
lý_ hoá_sinh</w>
lòng_ đường</w>
khôi_ hài</w>
khai_ phong</w>
hữu_ dụng</w>
hệ _số</w>
hèn_ nhát</w>
htt p
h p</w>
gia ̉i</w>
g ùi</w>
er e</w>
do ạ
di_lặc_ giáo</w>
cặ n_kẽ</w>
co s
chữa_ cháy</w>
chứng_ cớ</w>
chị_ gái</w>
chuyển_ mình</w>
chiếu_ rọi</w>
ca stle</w>
bốc_ lửa</w>
bạch_thế_ kính</w>
bạch_ nhạn</w>
a me
_m ê</w>
. tôi</w>
„ð ã</w>
ột_ soạt</w>
độc_ chất</w>
đại_ lượng</w>
đe n_ng
đen_ng òm</w>
âu_dương_ hi_di</w>
xa_ lánh</w>
univer si
tóm_ tắt</w>
tuỳ_ cơ_
tuỳ_cơ_ ứng_biến</w>
trứ _danh</w>
trị _tội</w>
tra ̉</w>
toa ̀n</w>
thợ _săn</w>
thảm_ kịch</w>
thú_ y</w>
thâm_ ý</w>
tam_ công</w>
s ột_soạt</w>
rình_ rập</w>
phục_ long_
nội_ chiến</w>
niềm_ nở</w>
ngào_ ngạt</w>
nguyên_ tiêu</w>
nghiêm_ minh</w>
kẻ_c ướp</w>
kha ́ch</w>
hợp_ ý</w>
hỗ n</w>
e acute</w>
dân_ thường</w>
do r
cửu_ dương</w>
cơ_ khí</w>
công_ lý</w>
cát_nhĩ_đ an</w>
chiến_tranh_ lạnh</w>
b ở</w>
b st</w>
_ người</w>
199 5</w>
1 /12</w>
đăng_ kí</w>
z on</w>
xét_ lại</w>
xã _tắc</w>
vương_ phi</w>
tự _đắc</w>
trống_ không</w>
tr ồi</w>
toàn_th ắng</w>
thấp_ kém</w>
thông_ thiên</w>
ta l
sinh_ lực</w>
r ữa</w>
quán_ triệt</w>
phục_long_ đỉnh</w>
nhà_t u</w>
ng ọ
lâm_ đồng</w>
le ver
kim_ hoa_
khắc_ khổ</w>
khiển_ trách</w>
hung_ nô</w>
h ợt</w>
g ốm</w>
g ắn_kết</w>
danh_ tướng</w>
cựa_ quậy</w>
cổ _vật</w>
cáu_ kỉnh</w>
càn_ long</w>
bất_ chính</w>
ba ́o</w>
b ưởi</w>
a ce
8 0%</w>
ơ n_đức</w>
đạo_ nghĩa</w>
đàn_ em</w>
yvon ne</w>
vô _thường</w>
u_l ược</w>
tộc_ trưởng</w>
trung_ tá</w>
trong_ veo</w>
tr ino</w>
thúc_ mưu</w>
thuốc_ nổ</w>
than_ ôi</w>
th ụp</w>
tam_ bí</w>
sâu_ rộng</w>
su m_
rách _nát</w>
phụ _cấp</w>
phong_ kiến</w>
no n_n
non_n ớt</w>
ni ck</w>
nhuận_ phủ</w>
nh ờ_v
nguyễn_ trãi</w>
nghiêm_ bình</w>
mã ng</w>
m óng_
[...]
