#version: 0.2
n g</w>
n g
t h
n h
c h
n _
n h</w>
t r
k h
ng _
p h
ô ng</w>
i _
i ế
ê n</w>
ư ờ
g i
t _
nh _
u _
i ệ
u y
kh ông</w>
T h
q u
ạ i</w>
c _
l à</w>
ớ i</w>
m _
c ủ
củ a</w>
ư ợ
m ộ
ườ i</w>
ư ơ
o ng</w>
mộ t</w>
n à
c ó</w>
c á
ấ y</w>
a y</w>
ng ười</w>
o _
v à</w>
n ó
a _
â n</w>
ượ c</w>
ư ớ
ô i</w>
i ề
c h</w>
đ ã</w>
nó i</w>
đ ược</w>
a i</w>
l ại</w>
i ê
ng h
T r
i ể
tr ong</w>
ấ t</w>
ì nh</w>
u ố
C h
r a</w>
ch o</w>
_ th
a ng</w>
à o</w>
ả i</w>
ế n</w>
ầ n</w>
N g
à ng</w>
a nh</w>
ũ ng</w>
y _
t a</w>
ồ i</w>
v ới</w>
N h
nà y</w>
a o</w>
c ũng</w>
ô ng_
i ên</w>
ữ ng</w>
ướ c</w>
ươ ng</w>
đ ến</w>
o à
P h
iế t</w>
nh ư</w>
v ào</w>
ư ng</w>
ườ ng</w>
ấ t_
t iế
â n_
ph ải</w>
th ì</w>
l à
ù ng</w>
p _
nh ững</w>
đ i</w>
a u</w>
i nh</w>
â y</w>
ò n</w>
ậ t</w>
á c</w>
ờ i</w>
đ ể</w>
đ ó</w>
m à</w>
cá c</w>
đ ầ
t ôi</w>
a n</w>
c o
K h
iề u</w>
th ấy</w>
uy ệ
l ên</w>
ế t</w>
v ề</w>
đ á
đ ộ
â u</w>
ch ú
r ồi</w>
á i</w>
ậ n</w>
c òn</w>
ú c</w>
ứ c</w>
ư a</w>
iệ n</w>
i nh_
ươ ng_
là m</w>
b iết</w>
ch ỉ</w>
g ì</w>
m ình</w>
ỏ i</w>
à nh</w>
_ h
ằ ng</w>
ơ n</w>
iê n_
ò ng</w>
ắ t</w>
ọ c</w>
h ai</w>
e m</w>
ă ng</w>
ă m</w>
ữ a</w>
_ t
ặ t</w>
kh i</w>
ạ i_
b ị</w>
á t</w>
nà o</w>
nh ưng</w>
s ẽ</w>
tr ên</w>
a o_
ậ y</w>
à i</w>
ừ ng</w>
ộ i</w>
ụ c</w>
uyệ n</w>
ạ n</w>
e o</w>
ẫ n</w>
đầ u</w>
a n_
ì nh_
a nh_
t ay</w>
đ ị
á n</w>
à y</w>
ì n</w>
ố ng</w>
c ó
u ng_
Q u
_ l
ắ n</w>
c ả</w>
ự c</w>
ơ i</w>
â m</w>
í nh</w>
b ả
co n</w>
ọ ng</w>
u ng</w>
iệ c</w>
t ừ</w>
h o
_th ể</w>
ổ i</w>
nh ìn</w>
nh ân</w>
c ả
c ùng</w>
đ ang</w>
ư ở
m ới</w>
uố ng</w>
iể u_
ắ c</w>
iế n</w>
á o</w>
s au</w>
t ới</w>
tiế ng</w>
ồ ng</w>
ươ i</w>
s ao</w>
đ ây</w>
ã o</w>
n ên</w>
ô n</w>
n ăm</w>
c ô</w>
iề n</w>
i n</w>
ọ n</w>
u ộ
G i
à _
v iệc</w>
cá i</w>
ế _
tr ước</w>
á ng</w>
r ất</w>
m ặt</w>
uy ề
đ ề
uố n</w>
ế u</w>
ch _
ố i</w>
m ắt</w>
nh iều</w>
có _thể</w>
ẳ ng</w>
v ậy</w>
n_ t
ố i_
á ch</w>
n_ th
h ỏi</w>
h ơn</w>
ưở ng</w>
nh iên</w>
n ữa</w>
s ự</w>
ă n</w>
l ớ
c ông_
ô _
ừ a</w>
v ẫn</w>
ă n_
ứ ng</w>
l úc</w>
ngh e</w>
iể u</w>
à n</w>
độ ng</w>
ầ m</w>
c ười</w>
ượ ng</w>
í ch</w>
m uốn</w>
qu a</w>
ph á
ạ o</w>
th eo</w>
ọ i</w>
ư _
a m</w>
h ọ</w>
ch iế
_ tr
h ọc</w>
v ì</w>
ch uyện</w>
ạ ng</w>
iê u</w>
x uống</w>
t u
gi ờ</w>
iệ u</w>
2 0
ng ày</w>
t ại</w>
à nh_
ế t_
s inh</w>
ử a</w>
nh à</w>
l u
b ên</w>
ầ n_
chú ng_
_ d
đề u</w>
ậ p</w>
ch ưa</w>
iệ t</w>
ạ nh</w>
ự c_
ạ t</w>
kh o
th ế</w>
l òng</w>
á o_
đị nh</w>
c ông</w>
ê m</w>
g ã</w>
nà ng</w>
l ão</w>
nh ất</w>
kh ác</w>
r ằng</w>
v ừa</w>
cá ch</w>
n ay</w>
n_ đ
n ước</w>
i a</w>
ngh ĩ</w>
ú ng</w>
ả o</w>
uyề n</w>
đ ại_
iế m</w>
oà i</w>
ắ m</w>
ứ c_
ý _
s ố</w>
ng ươi</w>
oà n</w>
l ấy</w>
mộ t_
à n_
á nh</w>
ồ ng_
gi a</w>
á i_
ê n_
iể m</w>
l o
kh ông_
ố n</w>
lớ n</w>
i ễ
a y_
ụ ng</w>
â m_
â y_
l ần</w>
đ âu</w>
gi ả
ắ ng</w>
. .</w>
ê u</w>
h ạ</w>
ạ c</w>
M ộ
í a</w>
ch ẳng</w>
ố c</w>
ắ c_
uy _
a m_
ỗ i</w>
uộ c</w>
ự _
h ay</w>
a ng_
T ôi</w>
đ ối_
đá p</w>
T iểu_
n ó</w>
ọ c_
t ên</w>
20 1
th ế_
th ành</w>
ậ p_
h ắn</w>
b à</w>
ờ i_
ầ u</w>
ch àng</w>
ạ ch</w>
H o
ặ c</w>
ố t</w>
ườ i_
ườ ng_
ệ nh</w>
ạ y</w>
đ ường</w>
v ị</w>
x u
th ể</w>
á m</w>
b ằng</w>
ch ết</w>
nh au</w>
ph ía</w>
ng oài</w>
a i_
b ất_
á u</w>
ậ u</w>
. ..</w>
ả n_
ó ng</w>
ướ ng</w>
b ọn</w>
b a</w>
A nh</w>
e n</w>
ấ p</w>
ặ p</w>
ậ t_
uy ên</w>
iế u_
đ ứng</w>
ô n_
iê u_
í nh_
k iếm</w>
tr ường</w>
nh ận</w>
ử _
ộ i_
th ật</w>
ch ính</w>
đ ưa</w>
c ơ
ấ u</w>
h iện</w>
v iên</w>
c ần</w>
_ m
é t</w>
Nh ưng</w>
s ống</w>
/ 3</w>
u a</w>
cả m_
ấ u_
T ừ</w>
ó c</w>
ổ _
l ời</w>
đ iều</w>
q uy
o ng_
iệ t_
iệ p</w>
đ iểm</w>
ì m</w>
o n</w>
tr ở
chúng_ ta</w>
ư ới</w>
ă ng_
ị ch</w>
m ấy</w>
h ết</w>
N am</w>
ng ay</w>
ú t</w>
kh ỏi</w>
ã i</w>
á c_
b ước</w>
qu á</w>
ả y</w>
h uy
b u
là m_
n ếu</w>
qu an_
s ư</w>
uy ể
n ơi</w>
iề u_
t in</w>
th ứ</w>
c ao</w>
ch ủ</w>
ướ c_
c ứ</w>
Tr ong</w>
b ạn</w>
ồ n</w>
h àng</w>
ả ng</w>
ch ân</w>
ph òng</w>
g ặp</w>
b ao_
â u_
ã y</w>
ấ n</w>
v ẻ</w>
l iền</w>
h iểu</w>
chiế c</w>
qu ân</w>
a n
i m</w>
à i_
ầ u_
Kh ông</w>
Th iên_
d ùng</w>
l ực</w>
t ình_
h oà
k inh_
t ử</w>
ng ồi</w>
ụ c_
ch ạy</w>
ỉ nh</w>
th i</w>
đá nh</w>
b ộ</w>
iể n</w>
ả n</w>
ch ị
t ìm</w>
kh iến</w>
L ong</w>
a r
k ia</w>
m ọi</w>
n ữ</w>
á y</w>
ú i</w>
ợ i</w>
iế u</w>
đầ u_
th ường</w>
không_ thể</w>
ự a</w>
th ực_
th ủ</w>
bả o</w>
nh ỏ</w>
x e</w>
đ ất</w>
N ếu</w>
c àng</w>
g h
th êm</w>
đ ồng_
õ _
gi an</w>
kh í</w>
đ o
gi ới</w>
đ ệ</w>
th ời_
ng ười_
ư u_
C ác</w>
x em</w>
đ ồng</w>
co n_
qu ay</w>
L ý_
uy ên_
T ử_
chú ng</w>
ậ n_
tiế p</w>
ồ _
phá t_
qu an</w>
nh ân_
ả nh</w>
ủ _
ố ng_
í _
ắ p</w>
th o
t o
ắ t_
Th iếu_
Mộ t</w>
d o</w>
c ửa</w>
ằ m</w>
iệ m</w>
uố c</w>
th ành_
Ng h
b áo</w>
t âm</w>
ó a</w>
ch ỗ</w>
V ăn_
gi á</w>
h ọc_
g ần</w>
ó i</w>
iệ n_
đ ạo</w>
c ứ
d ưới</w>
y êu</w>
v ô_
ặ ng</w>
r õ</w>
th u
H oà
e r
h ợ
v ụ</w>
ấ m</w>
m ẹ</w>
trở _
tr í</w>
nh à_
t ừng</w>
tr ời</w>
l ắm</w>
th ôi</w>
s ợ</w>
s ĩ</w>
ẹ p</w>
th ị
th áng</w>
g ái</w>
t iểu_
tr ẻ</w>
phá p</w>
ạ c_
đ ại</w>
qu ả</w>
a u_
ư ỡ
s áng</w>
h ô
m ạnh</w>
m ất</w>
c ao_
ầ m_
C ô</w>
ứ a</w>
ngh ĩ
c uộc</w>
k ỳ</w>
t iền</w>
Ô ng</w>
Ng ười</w>
à u</w>
ạ o_
V iệt_
ả _
ẩ m</w>
g ọi</w>
k é
ĩ nh</w>
gi ữa</w>
h ình</w>
í t</w>
a_ đ
t ự</w>
ạ m</w>
ng_ th
Đ ại_
H ai</w>
ấ n_
0 0</w>
b ỏ</w>
Nh ững</w>
ch ứ</w>
đ úng</w>
Th anh_
c âu</w>
ạ t_
_h ội</w>
ú ng_
ặ c_
chị u</w>
Kh ấu_
chú t</w>
_th ế</w>
H à_
é p</w>
v ật</w>
đ ộ</w>
x a</w>
v u
Khấu_ Tr
gi ú
th ân</w>
t ăng</w>
s át</w>
thế_ nào</w>
uyể n</w>
Tr ung_
Ph ong</w>
ú c_
b é</w>
d o
ố c_
xu ất_
ng o
huy nh</w>
h ành_
iế t_
T a</w>
c a</w>
i n
b ài</w>
á p</w>
e _
th ần</w>
tr ọng</w>
. _
d ám</w>
ng_ h
Việt_ Nam</w>
Tử_ L
l iên_
t ất_
à o_
l ã
m ang</w>
l âu</w>
B ảo</w>
tu ổi</w>
i m_
uyệ t</w>
r a_
h ồi</w>
đ iều_
ượ ng_
k ẻ</w>
t ức</w>
ạ nh_
tiế p_
ù a</w>
ặ t_
ch u
d ân</w>
m ôn</w>
t ính</w>
iệ ng</w>
đ ủ</w>
t ế</w>
gi ọng</w>
V i</w>
x in</w>
th ời</w>
đầu_ t
ph ần</w>
c ây</w>
gi ữ</w>
x ong</w>
Ch ỉ</w>
ng ờ</w>
a l
đ ẹp</w>
c ầu</w>
ó n</w>
H ạng</w>
v àng</w>
ị p</w>
ị _
th ông_
kh ó</w>
T u
m u
ngh iệp</w>
á ch_
đ ời</w>
b ắt_
ph ái</w>
giả i_
ây_ giờ</w>
ng_ l
t ốt</w>
ng_ t
d ài</w>
đ á</w>
cứ u</w>
chúng_ tôi</w>
g iết</w>
C ó</w>
iễ n</w>
đ êm</w>
s ức</w>
L ão</w>
ă m_
à y_
l ý</w>
ô i_
ừ a_
ả i_
C ông_
m ỗi</w>
M ỹ</w>
ph ục</w>
d ù</w>
h ãy</w>
s ang</w>
á m_
D ân_
ch ức</w>
ch ị</w>
Kh i</w>
ơ n_
S au</w>
nh ớ</w>
ch ính_
t ỷ</w>
Th ế_
iệ u_
S ơn</w>
ẩ n</w>
V ương</w>
Khấu_Tr ọng</w>
iề n_
Thiếu_ Long</w>
uy ễ
lu ôn</w>
c uố
e n
b iệt</w>
ấ p_
th ân_
Tử_L ăng</w>
gi áo_
ph ương</w>
n ổi</w>
t ình</w>
h ình_
h ồ</w>
bả n</w>
cảm_ thấy</w>
h ành</w>
ĩ nh_
l ập_
giú p</w>
gi ác</w>
b ay</w>
n ăng</w>
c ậu</w>
b iến</w>
ả ng_
t ục</w>
v ọng</w>
uy ết</w>
ng ựa</w>
ứ ng_
Ng uyễ
s ách</w>
ph ụ
D ương_
ph ụ</w>
nó i_
l ượng</w>
k ết_
Th anh</w>
ho ặc</w>
ã n</w>
/ 2</w>
s inh_
Tr ương_
ù ng_
đá ng</w>
á t_
ế n_
a m
b án</w>
Nguyễ n_
độ t_
bả o_
B ất_
thời_ gian</w>
B ình</w>
th ích</w>
ệ nh_
ố _
c ấp</w>
ư u</w>
tất_ cả</w>
ầ y</w>
m iệng</w>
n ằm</w>
uyề n_
đối_ với</w>
đ ôi</w>
b ình_
K ỳ</w>
d ụng</w>
ẩ n_
ạ n_
m ạng</w>
th iên_
ượ t</w>
t i
đ ổi</w>
gi áo</w>
á nh_
ổ ng</w>
cơ _
ph ủ</w>
D ương</w>
ỗ ng</w>
nh ất_
s ắc</w>
đ ấy</w>
ì _
kh ách</w>
n úi</w>
b ệnh</w>
người_ ta</w>
th anh_
ê u_
tr ận</w>
đ ặt</w>
đ em</w>
è n</w>
ạ ch_
ả o_
t oà
ê _
ị ch_
ự ng</w>
d ậy</w>
l ộ</w>
ó _
b àn</w>
k ể</w>
th ư</w>
l i
th ương</w>
t âm_
d iện</w>
Ch úng_
đ ọc</w>
tr ưởng</w>
co i</w>
iê ng</w>
iế n_
H ồ_
L úc</w>
ở i</w>
t ỉnh</w>
b ốn</w>
Ch àng</w>
ph ản_
ch ắc</w>
k iện</w>
hợ p</w>
uộ c_
h ơi</w>
ù i</w>
d ẫn</w>
lo ại</w>
đá nh_
s ử
th ẳng</w>
Tiểu_ Bảo</w>
tiế n</w>
k êu</w>
h óa</w>
à m</w>
l ưng</w>
ph ố</w>
lập_ tức</w>
đ àn_
ch í</w>
d ục</w>
h ại</w>
N ội</w>
t ạo</w>
ờ _
đầ y</w>
cả nh</w>
7 /3</w>
b ắt</w>
iế p</w>
iể m_
c ầm</w>
v iện</w>
á n_
uố c_
gi ống</w>
Hoà ng_
ổ i_
m ười</w>
quy ết</w>
ó ng_
Th eo</w>
t ự_
n ương</w>
ch uyển</w>
q uyền</w>
qu anh</w>
t iểu</w>
ợ t</w>
á ng_
Hà_ Nội</w>
gi ả</w>
iệ n_t
201 2</w>
th ủ
Ng ươi</w>
m ặt_
ấ m_
G ã</w>
u y</w>
/ 1
ộ c</w>
h ướng</w>
uố t</w>
à ng_
ch áu</w>
o n
c ạnh</w>
á p_
độ c</w>
t ự
T iêu_
tr ình</w>
ẩ y</w>
v ài</w>
th anh</w>
r ượ
t ài_
ạ _
v õ_
ch ung</w>
ò a</w>
ọ t</w>
g ây</w>
ũ _
Dân_ trí</w>
quy ết_
í n</w>
l ạ</w>
gi à</w>
m ở</w>
ỏ _
tu y</w>
nh ư
qu ốc_
Nh ân_
k iến</w>
gi ải</w>
ch ưởng</w>
ạ m_
t ừ
mu ội</w>
ớ m</w>
â ng</w>
A _
ng ủ</w>
ỷ _
ậ m_
Ng ọc_
1 9
ò ng_
ẩ u</w>
ch ủ_
đị a_
n_ l
n ội_
bao_ giờ</w>
ộ ng</w>
nh anh</w>
ph ẩm</w>
iê m_
s o
v ốn</w>
ch ồng</w>
t y</w>
tr ông</w>
đ ừng</w>
t o</w>
vô_ cùng</w>
m áu</w>
tr ả
T iêu</w>
ể _
n ước_
Ph i</w>
h iệu</w>
ho a</w>
C òn</w>
uyệ t_
b ố</w>
đ iện</w>
ó m</w>
giả m</w>
_t ử</w>
đ ứa</w>
a_đ ình</w>
tr a</w>
rượ u</w>
ch ế</w>
m ày</w>
u ổi</w>
s ai</w>
ổ ng_
v ội</w>
L ưu_
ng ày_
í ch_
ồ n_
t oàn</w>
m ặc</w>
lớ p</w>
ử i</w>
á _
b inh</w>
1 0</w>
ệ _
ậ m</w>
có _
ã _hội</w>
tr ung_
ư_ vậy</w>
tr ăm</w>
i_ cùng</w>
ố t_
th ức</w>
Th ái_
th am_
c ô_
ử a_
tiếp_ tục</w>
kho ảng</w>
N àng</w>
th uyền</w>
ch a</w>
v ệ</w>
đị ch</w>
đo ạn</w>
_l ời</w>
tr ị</w>
ch ơi</w>
tr ái</w>
x ảy</w>
u_ nhân</w>
đ ao</w>
iế ng</w>
B à</w>
t inh_
đ ồ</w>
bắt_ đầu</w>
kh ỏ
ch ừng</w>
học_ sinh</w>
đ en</w>
ch ờ</w>
ch ỉ
o r
ả m_
v iết</w>
ph u</w>
Ho a_
ơ _
b ây_giờ</w>
ớ i_
ấ n_đ
ã _
Q uốc</w>
ẳ ng_
ch iêu</w>
ữ _
d ân_
Th ượng_
ph át</w>
tr iển</w>
đột_ nhiên</w>
ướ ng_
thế_ giới</w>
ô m</w>
ộ _
độ i</w>
ch i</w>
L âm</w>
th ương_
ké o</w>
gi a_đình</w>
m àu</w>
ại_ sao</w>
0 00</w>
m ua</w>
gi ao_
ợ i_
_d ụng</w>
đ ặc_
h ệ</w>
hoà n_t
g ật</w>
ch ất</w>
ũ i</w>
m ức</w>
th ầm</w>
7 8
m inh</w>
V ô_
đầu_t iên</w>
gi ận</w>
Ph ương</w>
tr ang</w>
ó t</w>
nghĩ a</w>
Gi áo_
l e
ả nh_
trả _lời</w>
s ư_
n ắm</w>
ồ i_
_h o
tr ai</w>
t e
ấn_đ ề</w>
y êu_
vu i_
n_th ân</w>
é n</w>
Th ủ
_th ành</w>
sử _dụng</w>
ch ữ</w>
iê m</w>
tr anh</w>
Tr ần_
l ửa</w>
iể n_
th í_
H àn</w>
làm_ sao</w>
H ắn</w>
V à</w>
l a</w>
ạ p</w>
Q uốc_
v òng</w>
Ch uyện</w>
xu ất</w>
l ệnh</w>
u ật</w>
h ọ
kh ẽ</w>
tr ánh</w>
đ ông</w>
H ải</w>
T ử</w>
ph u_nhân</w>
b iển</w>
T H
d ựng</w>
uy ến</w>
h ề</w>
x e
tr ắng</w>
một_ cách</w>
V ân</w>
ẩ m_
ở i_
V iệt</w>
n ửa</w>
v ực</w>
ỉ m</w>
x o
hoàn_t oàn</w>
d iễn</w>
t ác</w>
c ố</w>
th ở
đề _
V u</w>
toà n_
X u
x ét</w>
như _thế</w>
a c
b àn_
cả m</w>
ưỡ ng</w>
K inh_
c ơ</w>
á y_
ế u_
k ỳ
E m</w>
B ọn</w>
M inh</w>
b óng</w>
qu ân_
Nh i</w>
kh ổ</w>
nh ảy</w>
ớ t</w>
n iên</w>
v ăn_
S ức_
kh u
n ỗi</w>
s ản_
đ ỡ</w>
l ập</w>
t iêu_
s ớm</w>
ch ọn</w>
v ai</w>
t ập</w>
ồ m</w>
N ói</w>
nh iêu</w>
đ ạo_
th ay_
th uốc</w>
hô m</w>
ch iến</w>
Qu an_
một_ chút</w>
l o_
chú a</w>
_l ẽ</w>
ph ương_
t ài</w>
khỏ e</w>
ẳ n</w>
uyể n_
b áo_
t ối</w>
t ổ_
b ỗng</w>
đ au_
b ức</w>
L ã
v ấn_đề</w>
t ương_
c ửa_
ặ n</w>
Tr ường</w>
D o
đ ảo</w>
ph ép</w>
hô m_
uy nh</w>
201 1</w>
x anh</w>
t ướng</w>
l ễ</w>
m ươi</w>
r ơi</w>
võ_ công</w>
C on</w>
i a_
ấ y_
ộ t</w>
1 0
ú _
l o</w>
„ _
V ương_
đ ợi</w>
T ại</w>
cá o</w>
lu ật</w>
t ay_
ĩ _
d ự_
kh ó_
th ất_
đá m</w>
ch ặt</w>
gi ó</w>
trở _thành</w>
c ổ</w>
ch ú</w>
k ế</w>
thị _tr
Ch âu</w>
ngh ị</w>
cuố i_cùng</w>
th u_
i l
b ụng</w>
tr uyền</w>
do anh</w>
ph í</w>
độ ng_
b ạc</w>
c uộc_
th uộc</w>
ứ t</w>
K im_
t ưởng</w>
L inh</w>
ph ân_
ế p</w>
t uyệt_
h ẳn</w>
s ông</w>
ch iều</w>
ữ u</w>
trở_ lại</w>
d anh</w>
ứ _
t ấm</w>
m ừng</w>
Ng uyên</w>
ho ạt_
c ung</w>
A n</w>
n ổi_
H ọ</w>
X ung_
h ết_
R ồi</w>
ch o_
ạc_ nhiên</w>
tr iệu</w>
th u</w>
m ỉm</w>
Nh ân</w>
d a</w>
iễ n_
tho át</w>
S ố</w>
ph óng</w>
d ự</w>
r u
ng ạc_nhiên</w>
C ái</w>
đ ấu</w>
m ũi</w>
Ho a</w>
m ời</w>
é m</w>
th iếu_
T am_
t iên_
iệ n_th
è o</w>
c ung_
tổ_ chức</w>
v ùng</w>
ph ó</w>
r o
k ết</w>
v ương</w>
ô _t
d ừng</w>
l ợi_
ch _th
ph á</w>
nh ư_vậy</w>
s ự_
h uyện</w>
l ạnh_
t ức_
uy_ nhiên</w>
Th ị_
ị nh_
t ập_
th iếu</w>
xuất_ hiện</w>
cá nh</w>
quyết_ định</w>
ẹ n</w>
H ồng</w>
r ời</w>
thực_ hiện</w>
hợ p_
v ợ</w>
gi ao</w>
h ội</w>
kh ăn</w>
ợ _
kh á</w>
một_ số</w>
ph ong</w>
gi a_
ù _
L an</w>
thở _d
ch ợt</w>
ph ạm</w>
Ch i</w>
ở _
t ác_
nh ờ</w>
s ản</w>
à m_
ọ ng_
Chúng_ ta</w>
v ang</w>
nh ẹ</w>
kh ả_
ch ăng</w>
p _th
m áy</w>
s ức_
th i_
lu ận</w>
s o</w>
b ởi</w>
h iện_
tr ước_
đ ạt</w>
tr ở</w>
cả nh_
đ uổi</w>
B ộ</w>
ó a_
L o
k ịp</w>
thở_d ài</w>
b ắn</w>
hoạt_ động</w>
s uy_
S ao</w>
bu ổi</w>
b ối</w>
tr ò</w>
đ ệ
_h uynh</w>
đ oàn</w>
d ịch</w>
ắ ng_
đặc_ biệt</w>
B a</w>
kh uy
tr ả</w>
Đ ây</w>
thí_ sinh</w>
r iêng</w>
b ang</w>
ng ôi</w>
đ ường_
ngh iệm</w>
k inh</w>
tu ần</w>
L ệnh</w>
c ố_
bao_ nhiêu</w>
ch ân_
ò a_
õ_ r
y ên</w>
n ặng</w>
vu i</w>
t ính_
_ nữ</w>
ng ọn</w>
y ếu</w>
ph ong_
đo án</w>
k ý</w>
T iên</w>
th ần_
Th ế</w>
s uốt</w>
ộ t_
r a
phát_ triển</w>
kh óc</w>
làm_ việc</w>
X em</w>
Th ành</w>
s ắp</w>
d u_
thay_ đổi</w>
ng ừng</w>
ợ p</w>
qu ang</w>
s ong</w>
b ật</w>
ằ ng_
l ắc_
k iểm_
l uyện</w>
T ình_
thị t</w>
t ai</w>
Th u</w>
r ộng</w>
kh ắp</w>
e s
H u
đ ỏ</w>
con_ người</w>
ch i_
s âu</w>
l át</w>
l ên_
d ung</w>
e l
d ần</w>
t iêu</w>
ú a</w>
a_ h
qu ên</w>
ường_ như</w>
Ph áp</w>
t óc</w>
r ừng</w>
r út</w>
k ích</w>
kh u</w>
đầu_t ư</w>
201 9</w>
o ại</w>
tr ượng</w>
D ung</w>
ộ p</w>
th ông</w>
ệ _th
ng u
M inh_
c ổ_
ẻ _
b ình</w>
ph út</w>
t iên</w>
h ưởng</w>
ụ ng_
L ê_
đàn_ ông</w>
nói_ chuyện</w>
ư a_
t ượng</w>
tr ạng</w>
kh ắc</w>
d ạy</w>
tr ang_
b ệnh_
b èn</w>
th ở</w>
a d
6 /3</w>
quan_ trọng</w>
l ạnh</w>
iế c</w>
t iền_
a s
m ối</w>
T uy_nhiên</w>
L ý</w>
d anh_
ạ n_đ
cơ _hội</w>
Đ ó</w>
v ừa_
ỏ ng</w>
nh ập</w>
t ung</w>
ả m</w>
V ậy</w>
ây_ dựng</w>
lắc_ đầu</w>
th ử</w>
q uy_
th ái_
hôm_ nay</w>
ch ống</w>
ậ u_
ng ang</w>
độ c_
đ ề</w>
é o</w>
T ôn_
õ_r àng</w>
ch ục</w>
b ờ</w>
đệ _tử</w>
thiên_ hạ</w>
h ậu</w>
khả_ năng</w>
ng ực</w>
th ầ
d ễ</w>
TH P
ỉ nh_
J o
qu át</w>
S ở</w>
nh óm</w>
l iệu</w>
s ử</w>
M a_
ổ n</w>
Trung_ Quốc</w>
kh ai</w>
th ắng</w>
m ẫ
cô_ nương</w>
đ ành</w>
th ấp</w>
á _tr
V i
qu án</w>
ng ã</w>
u ôi</w>
tr ường_
v i
_m áy</w>
s ở</w>
lo ạn</w>
K ỵ</w>
Hồ_ Xung_
v i</w>
b ị
_d o</w>
l ặng</w>
N ó</w>
Ch ính</w>
h ay_
Gi a_
tr ung</w>
Th ạch</w>
N am_
ộ ng_
chiế n_
ch ắn</w>
ch ia_
ạn_đ ọc</w>
Tr iệu</w>
y _th
cảm_ giác</w>
h ùng</w>
nhất_ định</w>
nh iệm</w>
Đ ức</w>
ê n_t
th ằng</w>
20 0
b ại</w>
ể _th
Ng ân</w>
c ũ</w>
đ óng</w>
Đ ông</w>
uy ết_
Tr í</w>
_tr í</w>
B ạch_
chu ẩn_
đối_ phương</w>
c ực_
c ười_
C ao_
t ích</w>
Nh ư</w>
ch ất_
T ư_
V ũ_
lạnh_ l
e r</w>
v õ
s u
t ấn_
th ực</w>
m ục_
Vô_ Kỵ</w>
t ường</w>
ch ứng_
v ua</w>
a g
m ãi</w>
m áy_
ng ành</w>
ẹ _
l ý
Th ần</w>
_th ương</w>
Mộ c</w>
do anh_
ể_th ao</w>
ng ài</w>
ngh iêm_
công_ tử</w>
tấn_ công</w>
đ ẩy</w>
đ ơn_
L iên_
ị nh</w>
B ây_giờ</w>
ng uyên_
t ội</w>
c u
T ống_
2 7
b ậ
d i_
Đ H</w>
l ợi</w>
ò i</w>
h iệp</w>
c ầu_
c ơn</w>
sư_ phụ</w>
h án</w>
đ ón</w>
b ố
d òng</w>
ưỡ i</w>
ụ i</w>
Tr ên</w>
t í
n am</w>
có_ vẻ</w>
Đ ông_
H ồng_
e t
| _
qu ản_
m ai</w>
tr úng</w>
từ _t
d ường_như</w>
tiế n_
d ễ
M u
2 0</w>
t ại_sao</w>
L ĩnh_
gi ang_
Đ ường</w>
Ng ày</w>
hết_ sức</w>
0 0
đ iện_t
n ạn</w>
_l ực</w>
thị_tr ường</w>
t ám</w>
qu ái</w>
nh i</w>
v ượt</w>
lã nh_
v ăn</w>
uố i</w>
m ã</w>
cuố i</w>
Ch u_
đ au</w>
r õ_ràng</w>
Ng ô_
th iết_
Th u
s ư
to án</w>
t im</w>
c uốn</w>
s áu</w>
H uyền_
th úc</w>
x ây_dựng</w>
nh ạc</w>
r i
gi ật_
nó ng</w>
ừ ng_
x ã_hội</w>
c âu_
ng uy
ắ p_
ệ t</w>
x ác</w>
c úi</w>
bàn_ tay</w>
H àn_
m ong</w>
_l ý</w>
Ph ong_
con_ gái</w>
chuẩn_ bị</w>
iên_ cứu</w>
thành_ phố</w>
khó_ khăn</w>
ch ăm_
đ ổ</w>
x ã</w>
m a</w>
Lĩnh_ Vu</w>
t ỏ</w>
ng àn</w>
5 0</w>
l ao</w>
c ăn_
ượ c_
kh u_
ch uyên_
ương_ trình</w>
b ao</w>
h uyệt</w>
M ọi</w>
ph úc</w>
điện_t ử</w>
k ỹ</w>
x ưa</w>
L ong_
_ho ạch</w>
b iểu_
C ó
ụ _
kh ẩu</w>
L ệ</w>
Đ úng</w>
k ính</w>
t e</w>
iề m</w>
l ắng</w>
B ạch</w>
Giáo_ dục</w>
th ị</w>
B ình_
Ng a</w>
tr ầm_
L u
bu ồn</w>
ấ c</w>
s ắc_
bả y</w>
phát_ hiện</w>
x ác_
một_ mình</w>
bảo_ vệ</w>
g ửi</w>
B ắc</w>
Gi ang</w>
lu i</w>
C o
ng ân_
giang_ hồ</w>
từ_t ừ</w>
_ S
ng uyên</w>
qu en</w>
Qu ảng_
t uyệt</w>
ỹ _
liên_ quan</w>
_th ật</w>
Ch ính_
ch áy</w>
b í
gi ám_
l á</w>
v ội_
v ị
ụ t</w>
m au</w>
h àng_
X in</w>
t iết</w>
ã ng</w>
C ông</w>
gi ơ</w>
m ùa</w>
_l âm</w>
suy_ nghĩ</w>
Nh à_
b an_
t ổ
quan_ hệ</w>
phụ _nữ</w>
Nhân_ ái</w>
h ỗ
m ở_
T ú</w>
ư ng_
h iệu_
ụ p</w>
s ổ</w>
th ầy</w>
nh_ đệ</w>
tự_ nhiên</w>
e o_
iện_th oại</w>
ề _
ch ia</w>
Thế_ giới</w>
V iên</w>
gi ường</w>
T ây</w>
c ăn</w>
thông_ tin</w>
đ ốc</w>
đồng_ thời</w>
h ận</w>
ké m</w>
t àu</w>
công_ ty</w>
iệ p_
ngh iên_cứu</w>
v ận_
ủ _t
công_ việc</w>
ngh ệ</w>
b ữa</w>
t ối_
L âm_
ph ận</w>
_h ợp</w>
hành_ động</w>
phản_ hồi</w>
V ới</w>
nhân_ vật</w>
ỗ _
T ất_
ng_l ẽ</w>
H à</w>
X e
d ành</w>
uộ t</w>
Đ ể</w>
ắc_ chắn</w>
qu ý</w>
ử u</w>
h ồn</w>
tham_ gia</w>
cao_ thủ</w>
h ỏ
gh ế</w>
Ph ương_
nh ằm</w>
x ông</w>
ộ n</w>
V iệc</w>
bậ c</w>
b iến_
/ 0
võ _lâm</w>
x ung_
H C
Xu ân_
uyề n_th
l ượt</w>
thu ật</w>
anh_ em</w>
ngo ại_
đại_ ca</w>
sinh_ viên</w>
T ần</w>
ậm_ chí</w>
lạnh_l ùng</w>
V i_
N ăm</w>
è m</w>
l ối</w>
h y_
v ung</w>
đ âm</w>
trở_ về</w>
kho a_
v ạn</w>
m ón</w>
tr ái_
_ D
trở_ nên</w>
ì m_
qu ốc</w>
ưở ng_
Kh o
h út</w>
c ử</w>
i s
T o
Đ ến</w>
õ i</w>
th ủ_
Tr ước</w>
h ầu_
th ay</w>
S ự_
kết_ quả</w>
b inh_
T ĩnh</w>
yêu_ cầu</w>
h ội_
ph i_
chiế m</w>
đại_ sư</w>
s ẵ
Ch ân</w>
l ệ</w>
Thượng_ Quan_
đ ối</w>
lên_ tiếng</w>
b uộc</w>
l ưu_
e n_
t iện</w>
th ăm</w>
Â u</w>
nh ắc</w>
l ịch</w>
ặ ng_
khuy ến_
c ướ
V ì</w>
ườ n</w>
n ét</w>
qu ần</w>
t ướng_
Tr ịnh_
Â u_
ướ t</w>
Y ến</w>
ch ùa</w>
tiên_ sinh</w>
lo_ lắng</w>
tiểu_ đệ</w>
S ư</w>
xe m_
t ư</w>
kh ủ
m ã
Đ ạo_
g ồm</w>
có _lẽ</w>
ẫ m</w>
giật_ mình</w>
ẫ n_
L ại</w>
– _
ắ m_
t ăng_
b an</w>
dự_ án</w>
ỉ _
T iếng</w>
C ả</w>
ngh i_
Tiêu_ Lĩnh_Vu</w>
Th iếu</w>
ầ ng</w>
_m ật</w>
s ẻ</w>
m ê</w>
d ầu</w>
Đ ã</w>
ho àng</w>
I n
Ho àng</w>
ng_h ộ</w>
h ãi</w>
Tình_ yêu</w>
ch ứng</w>
đàn_ bà</w>
c ường</w>
V ân_
Th ành_
ch ương_trình</w>
v õ</w>
Đ iều</w>
tr ốn</w>
ác_ sĩ</w>
c ực</w>
Th iết</w>
Ph i_
gi ới_
X ã_hội</w>
ề n</w>
b o
. 000</w>
Ph áp_
b ác</w>
k ế
ngh i</w>
/ 2012</w>
m ưa</w>
M ã_
qu ần_
c ụ</w>
Qu ân</w>
Th ái</w>
H ạ_
h òa_
Tr iệu_
ch ảy</w>
ph ục_
n i
đ ăng</w>
th ượng</w>
t ư_
th ật_
n e
Chúng_ tôi</w>
B é</w>
ng ại</w>
g ó
D iễ
c a_
A i</w>
tr anh_
Đ T</w>
x a_
Ch ị</w>
d ị
h ộ</w>
3 0</w>
d ạ</w>
quốc_ gia</w>
đại_ học</w>
Tr úc</w>
N e
G D
K im</w>
ủ_t ịch</w>
L a_
Ng ọc</w>
Nh iều</w>
t ận</w>
ch ậm</w>
nh anh_
Đ oàn</w>
H uyền</w>
ò _
huy nh_đệ</w>
C ũng</w>
ệ_th ống</w>
x ử
chú _
ph i</w>
mẫ u</w>
v ấn</w>
tr ực_
đ ăng_
quan_ tâm</w>
m ay</w>
1 5
th ú</w>
khu_ vực</w>
ph ần_
B ạn_đọc</w>
ph im</w>
nghĩ a_
Ph àm</w>
c ặp</w>
từ _
ch ém</w>
ngh ỉ</w>
th iết</w>
L ạc_
D u</w>
cơ m</w>
Th ể_thao</w>
m ụ</w>
ù y</w>
c ắt</w>
oà i_
ữ u_
t òa</w>
kinh_ hãi</w>
A n
K iều</w>
chiế u</w>
H ầu_
Qu ỷ</w>
bả n_thân</w>
l e</w>
v ây</w>
giáo_ dục</w>
x uyên</w>
v ận</w>
l ạc</w>
ch ắc_chắn</w>
Kinh_ doanh</w>
í ch_th
B ắc_
a ng
ợ n</w>
th ơ</w>
Qu ân_
ẫ y</w>
đ ập</w>
U S
T ây_
ch ớ
ù m</w>
u ận</w>
_h iểm</w>
tr ừ</w>
nh ị</w>
gi ỏi</w>
ắ n_
c á</w>
h át</w>
s ắt</w>
t an</w>
t uyển</w>
_h àng</w>
Đ ồng_
Ð ại_
kinh_ tế</w>
m á</w>
m ất_
Th ứ</w>
đ ỉnh</w>
ng ầm</w>
ph òng_
thành_ công</w>
l ùi</w>
b iểu</w>
v ì_
l iệt</w>
Sự_ kiện</w>
V ũ</w>
l úc_
ú y</w>
bí _mật</w>
/1 2</w>
d ặ
Sức_ khỏe</w>
3 0
m ôi</w>
B ạt_
kh ẳng_
tr ách</w>
n iệm</w>
V õ_
Tr ường_
Nh ịp</w>
n âng</w>
T ống</w>
s ự
H ãy</w>
cuộc_ sống</w>
ếu_ như</w>
ộ c_
đ èn</w>
Nh ạc</w>
h u
T iên_
Sức_ mạnh</w>
c ất_
Pháp_ luật</w>
l ưu</w>
gi ấy</w>
ủ ng_hộ</w>
uộ n</w>
e s</w>
nh ận_
b ộ_
t inh</w>
b iết_
Xe _máy</w>
tr ách_
t ặng</w>
Gi ao_
v ô
quốc_ tế</w>
m ắc</w>
n uôi</w>
l ẫn</w>
Ô _t
Tr ung</w>
Ô_t ô</w>
lã o_
1 2</w>
x ử</w>
tr ẻ_
ch ữa</w>
b ó
B áo_
v e</w>
g ỗ</w>
ch âu_
h ôn</w>
lúc_ nào</w>
d ưỡng</w>
l ương</w>
Th ương</w>
doanh_ nghiệp</w>
m à_
chỉ _
B ảo_
đ ế</w>
chú_ ý</w>
đ ương_
t uyển_
K iếm</w>
g ắng</w>
tình_ trạng</w>
nh à
kh ai_
thực_ sự</w>
quy_ định</w>
đ iện_thoại</w>
sản_ phẩm</w>
bình_ thường</w>
ngu ồn</w>
t ốt_
t ìm_
m ục</w>
Th ông_
Lo an</w>
m ùi</w>
th ống_
th ường_
th ua</w>
ao_ động</w>
đại_ nhân</w>
nh ẹ_
th ái</w>
tiế c</w>
l ầm</w>
ó i_
b ăng</w>
ảnh_ hưởng</w>
a t
C ương</w>
đ ảm_
m ái</w>
tinh_ thần</w>
r ăng</w>
Nh ất_
M ar
S ư_
ì _thế</w>
Ch u</w>
ch óng</w>
ú t_
ti n_t
quản_ lý</w>
họ a</w>
m ạch</w>
1 6
H ùng</w>
bất_ cứ</w>
t úi</w>
T ôn</w>
H ương</w>
5 /3</w>
THP T</w>
đ ơn</w>
tr ại</w>
v ợ_
hay_ sao</w>
hoà n_
Th iết_
ng ón</w>
HC M</w>
oà n_
đ ài</w>
d ây</w>
h ạng</w>
bất_ ngờ</w>
h ậu_
đị nh_
h ệ_thống</w>
phá p_
C ậu</w>
nhẹ_ nh
au_ này</w>
T ên</w>
H ải_
1 2
iề m_
x ếp</w>
u s
tình_ hình</w>
Tiểu_ Phàm</w>
b ầu_
cá _
lãnh_ đạo</w>
ph iếu</w>
R o
l inh_
cơ_ quan</w>
US D</w>
r e
đị a</w>
hy_ vọng</w>
á ch
t ổng_
tr òn</w>
nguy _hiểm</w>
Th ôi</w>
T ổng_
1 1</w>
vội_ vàng</w>
n ữ_
Th iên</w>
an_ toàn</w>
K ỳ
khẳng_ định</w>
d on</w>
iễ u</w>
th ể_
s áng_
n ội</w>
í u</w>
th ậm_chí</w>
h óa_
ch ụp</w>
ý_ kiến</w>
tiế t_
ủ y</w>
ánh_ sáng</w>
kế _hoạch</w>
t er
t ĩnh</w>
Ch âu_
M ẹ</w>
đ ồ_
Đ o
c ỏ</w>
ch o
T ại_sao</w>
ứ t_
ĩ a</w>
Ph ạm_
Đ ộ</w>
c ất</w>
Ả nh</w>
th ù</w>
bu ồn_
d ương</w>
kh ách_
bị _thương</w>
_l ệ</w>
D ụ</w>
e l</w>
Đ ược</w>
d uy_
t ai_
hiện_ nay</w>
trường_ hợp</w>
n_đ àn</w>
th ể
n am_
h iểm</w>
_tr ợ</w>
đối_ phó</w>
đ ức</w>
n ổ</w>
ượ n</w>
l àng</w>
cướ p</w>
i r
cố_ gắng</w>
_t ướng</w>
n iềm</w>
kho ản</w>
L ôi</w>
chia_ sẻ</w>
câu_ chuyện</w>
cơ _thể</w>
lớ n_
tr ải</w>
ng uyện</w>
1 5</w>
x inh_
s ơn</w>
qu ả
giú p_
B ang</w>
m ật</w>
ơ i_
v ỡ</w>
T P
y ên_
b ác_sĩ</w>
Văn_ hóa</w>
duy_ nhất</w>
ạnh_ phúc</w>
b ày</w>
v i_
Đ ột_
B ỗng</w>
H ội_
th ừa_
s ở
đ ất_
tr ình_
d ựa</w>
qu ả_
x úc</w>
_tr ưởng</w>
d ịch_
dễ _d
cực_ kỳ</w>
tr ầm</w>
ẩ n_th
Ng uyên_
s óng</w>
ng ó</w>
cửa_ sổ</w>
ờ_ đây</w>
điều_ kiện</w>
í t_
T _
lu ồng</w>
công_ tác</w>
qu ỷ</w>
c ờ</w>
ng ăn_
l inh</w>
ng ắn</w>
gi ấu</w>
tr ao</w>
k im</w>
chị u_
t ất</w>
khoa_ học</w>
c ưới</w>
a y
n ăng_
ặc_ dù</w>
b óng_
kh óa</w>
n ụ</w>
x inh</w>
ê nh_
ì a</w>
ổ _t
vui_ vẻ</w>
ngân_ hàng</w>
nh ạt</w>
cá nh_
c ục</w>
kiểm_ tra</w>
ph ạt</w>
d ị</w>
đ ào_
l ai</w>
a_ bán</w>
n_th ức</w>
L ục_
ưỡ ng_
à u_
ớ n</w>
m ôn_
1 4
ĩ_ nhiên</w>
M ấy</w>
m ộ</w>
đ àn</w>
nước_ mắt</w>
s ai_
h ạn</w>
ngh ề</w>
đ i_
d áng</w>
2 9
Đ ào</w>
r ỡ</w>
ng ược</w>
giải_ thích</w>
xung_ quanh</w>
ch ấp_
dễ_d àng</w>
tập_ trung</w>
h ạnh_phúc</w>
t ờ</w>
nhân_ ái</w>
_t ưởng</w>
Ng ười_
k ình</w>
đ ể_
xo ay</w>
cá n_
an d
cả i_
ng ọc</w>
s _
tr uyền_th
Đ ỗ_
h iện_t
n ợ</w>
mà_ còn</w>
l ịch_
t ươi</w>
đo ạt</w>
k iế
m ề
c ốc</w>
tiế ng_
khu ôn_
Trương_ Tiểu_Phàm</w>
Qu ách</w>
_th ầm</w>
tức_ giận</w>
iệ m_
S inh</w>
Hoà n_
t ái_
toàn_ bộ</w>
đ a_
a s</w>
a r</w>
để_ ý</w>
t àn_
x i
ngo ại</w>
xử _lý</w>
Lưu_ Dụ</w>
sản_ xuất</w>
m iền</w>
giải_ quyết</w>
ầ n_th
ng_th ống</w>
nh é</w>
B a_
bả n_
2 6
l ang</w>
ch ung_
Ngh e</w>
tiền_ bối</w>
t ộc</w>
Công_ ty</w>
ả y_
/ 1</w>
p p
ch ó</w>
đị ch_
L ần</w>
th ư_
ra_ tay</w>
Qu an</w>
h ung_
b ò</w>
hỗ _trợ</w>
Tu y</w>
g óc</w>
ch ẳng_
ủ i</w>
ô m_
s ứ</w>
t ố</w>
… _
ch ế_
l ính</w>
s úng</w>
ch uyến</w>
Ph ải</w>
Ch ủ_tịch</w>
m ơ</w>
y ên_t
s át_
b a_
ch e</w>
đ ắc_
C át</w>
tiểu_ thư</w>
ch ạm</w>
P a
1 8
y ếu_
v ọt</w>
Âu_ Dương_
d ữ</w>
_th uật</w>
Th ư</w>
ph ân</w>
ng uy_
t uyết</w>
h ô</w>
T iểu</w>
ặ p_
n ền</w>
s á
h ộp</w>
th ế
thân_ hình</w>
D ự</w>
Th ật</w>
D ân</w>
nổi_ tiếng</w>
t ựa</w>
Tu ần_
kh úc</w>
s h</w>
n ấy</w>
cán_ bộ</w>
S o
b ào</w>
gi ai_
ử u_
T ết</w>
t uyên_
l ời_
n a</w>
bu ông</w>
s ân</w>
ch ức_
th a</w>
cánh_ tay</w>
in e</w>
7 9
k iểu</w>
v ô_t
th ưa</w>
m ảnh</w>
đầ y_
ph ù
t ử_
ọ a</w>
V ề</w>
địa_ phương</w>
ô_t ô</w>
/1 1</w>
g ấp</w>
Nh ật</w>
quần_ áo</w>
N D</w>
g ốc</w>
gi an_
x ấu</w>
ởi_ vì</w>
k ỷ</w>
d ấu</w>
con_ trai</w>
địch_ nhân</w>
điều_ tra</w>
ru n</w>
B ản</w>
m ay_
nhẹ_nh àng</w>
M i</w>
Diễ n_đàn</w>
tr iển_
vợ_ chồng</w>
ng ữ</w>
lã nh</w>
dặ m</w>
th ưởng</w>
ch ỉnh</w>
m inh_
h ồi_
th ảm_
lo g</w>
L ăng_
anh_ hùng</w>
x ương</w>
nh ập_
trách_ nhiệm</w>
vị _trí</w>
giáo_ viên</w>
ụ y</w>
đăng_ ký</w>
v ong</w>
é _
t o_
T ổ
T ấm_
L ương</w>
t ôn_
Kh ông_
_h ạ</w>
ợ _h
ẩn_th ận</w>
th eo_
D ù</w>
ỏ a</w>
ì_ ra</w>
v ẽ</w>
th ượng_
Phong_ Hàn</w>
M ua</w>
ự a_
h ạ
Th ực_
ho ang_
s âu_
Tấm_ lòng</w>
đ ốt</w>
im_ lặng</w>
s au_này</w>
m a_
đánh_ giá</w>
hình_ ảnh</w>
Đ ồ</w>
h ồng</w>
ch ớ</w>
Qu ang</w>
h i
cho_ nên</w>
c ổng</w>
Qu ỷ_
B ăng</w>
họ p</w>
Ne w
đảm_ bảo</w>
ké o_
k ín</w>
gi ành</w>
lợi_ hại</w>
L inh_
ợ_h ãi</w>
c ây_
Tu ấn</w>
ổ n_
K ỷ_
M ạt</w>
v ật_
tu i</w>
l ục</w>
x ứ</w>
kho a</w>
ch uyển_
b í</w>
l ưỡi</w>
ch a_
b ộ
Ch úng</w>
b ạch</w>
kỳ _
lý _do</w>
ch ứa</w>
đ ằng</w>
ó n_
d õi</w>
Lã o_
t ả</w>
Ch í</w>
a i
b á</w>
v ô</w>
Ph ùng_
Bạt_ Phong_Hàn</w>
T T
r ối</w>
b ắc</w>
qu á_
s ợ_hãi</w>
Thủ y_
ố n_
ỏ a_
đ ô
không_ khí</w>
i c
á_tr ị</w>
B át</w>
E ng
giáo_ chủ</w>
khuyến_ học</w>
Ch ẳng</w>
v ết</w>
ch ín</w>
Th ời_
ch ậm_
th ả</w>
kh ởi_
L iên</w>
2 4
T ạ</w>
ng âm</w>
m i</w>
ch ủ
Ng ay</w>
P D
đ ích</w>
tuyển_ sinh</w>
n ông_
Tất_ cả</w>
đá p_
t on</w>
sư _huynh</w>
Dân_ Trí</w>
d âng</w>
1 1
thiếu_ nữ</w>
gh i</w>
đ ô</w>
nh ị
L e
> ></w>
Báo_ điện_tử</w>
cơ_ sở</w>
t ư
b ỏ_
s ạch</w>
t ôn</w>
a l</w>
Thanh_ Vân</w>
Đ ại</w>
H án</w>
B log</w>
ch én</w>
tho áng</w>
dân_ trí</w>
l y</w>
quan_ sát</w>
Eng li
l ướt</w>
th ôn</w>
c ẩn_thận</w>
M ã</w>
2 5
ch ào</w>
T ích_
Th ần_
dịch_ vụ</w>
Giao_ diện</w>
l ỗi</w>
là nh</w>
nh iễ
kh ó
thể_ nào</w>
chiế n_th
b è</w>
H ay</w>
đ ình</w>
2 3
Engli sh</w>
ngh ìn</w>
nó ng_
o án</w>
Mu a_bán</w>
M ình</w>
M ỗi</w>
gi á_trị</w>
ra_ sao</w>
d ạng</w>
huy ết</w>
Tuần_ báo</w>
h ữu</w>
tr ộ
t uyến</w>
d ứt</w>
Tr ang</w>
m ong_
l ao_động</w>
PD A_
PDA_ Mua</w>
oài_ ra</w>
giả n</w>
m ại</w>
hoà n_th
x ăng</w>
lớn_ tiếng</w>
_th ực</w>
lo ạt</w>
th ang</w>
đ ến_
n ở</w>
nhanh_ chóng</w>
b ẩm</w>
H ưng</w>
2 8
m ỗ</w>
Đ i</w>
xinh_ đẹp</w>
ạ y_
d ấu_
Đại_ học</w>
đ òi</w>
ú y_
nguyên_ nhân</w>
r ãi</w>
h ương</w>
Xu ân</w>
th uốc_
q uyền_
c ương</w>
đề_ nghị</w>
tr à</w>
tr úc</w>
xu ân</w>
bất_ giác</w>
S ơn_
m iếng</w>
Nh ật_
tiểu_ tử</w>
Ch i_
b iên_
m ệnh</w>
ch ốn</w>
th iện</w>
D ao</w>
M ai</w>
đến_ nỗi</w>
r uột</w>
ngh èo</w>
n át</w>
đ ựng</w>
kinh_ ng
g ạt</w>
A n_
th ổi</w>
h ào</w>
Qu ần</w>
v ườn</w>
ẫ u_
C ơ</w>
đ ào</w>
hiệu_ quả</w>
s e
S ự</w>
V ì_
_ B
c ấm</w>
h ổ</w>
cứ u_
T ông</w>
ch ống_
t ầm_
Y ên_
_D ung_
cá_ nhân</w>
t ao</w>
Ph ật</w>
tr ăng</w>
th iếp</w>
T âm</w>
trước_ mắt</w>
su ất</w>
uyệ n_
nhân_ viên</w>
thật_ sự</w>
L ệnh_
Mộ _Dung_
L ã</w>
K inh</w>
L ang
r an</w>
A nh_
h ài_
thủ y_
t ầng</w>
kinh_ doanh</w>
m ạnh_
a p
Ph òng</w>
n ắng</w>
toà n_thân</w>
m ây</w>
chất_ lượng</w>
Tr iều_
Ph á</w>
l ực_
khuôn_ mặt</w>
nh ỏ_
ậ y_
ựa_ chọn</w>
nh u_
1 7</w>
sức_ khỏe</w>
Vi_ Tiểu_Bảo</w>
thực_ tế</w>
1 3
ách _hàng</w>
t ội_
c ử_
giúp_ đỡ</w>
b át</w>
n ém</w>
tình_ cảm</w>
s àng</w>
nh ỉ</w>
n ăm_
ch im</w>
ơ m</w>
ể n</w>
Th ấy</w>
Nh ìn</w>
b ụi</w>
Đ ế</w>
d iệt</w>
v ách</w>
khủ ng_
kh í
L ục</w>
s ân_
l âu_
qu ản</w>
gi ấc</w>
Kh u
s ơ</w>
- -
t ạm</w>
B iên</w>
kinh_ng ạc</w>
không_ thể_nào</w>
Ph ụng</w>
ỗ ng_
x úc_
so át</w>
th ức_
th an</w>
Lang don</w>
đồng_ ý</w>
kh en</w>
ằ n</w>
ng ũ</w>
V ừa</w>
nh iệm_
Thủ y</w>
d ịp</w>
é t_
thu ận</w>
T P</w>
V ua</w>
Nh ã</w>
hình_ như</w>
a_ hồ</w>
T ố</w>
tí n_
v ỗ</w>
là n</w>
á_tr ình</w>
t ây</w>
tình_ yêu</w>
N inh</w>
l ăn</w>
g an</w>
c ân</w>
chu ẩn</w>
ơn_ nữa</w>
th iệu</w>
nghi_ ngờ</w>
h ào_
s óc</w>
Tổ ng_thống</w>
Chính_ phủ</w>
Đ ừng</w>
1 7
t ạ</w>
g ác</w>
n ọ</w>
tr ọng_
Vũ_ Văn_
sự_ kiện</w>
sắc_ mặt</w>
C ửu</w>
Quốc_ gia</w>
l ựa_chọn</w>
thanh_ niên</w>
tr ọ
chấp_ nhận</w>
Ph ó</w>
0 ,
đá o</w>
d e</w>
ẹ o</w>
h ả</w>
ẽ _
ch uyên</w>
giao_ thông</w>
có_ mặt</w>
th âm_
tr ần</w>
1 3</w>
s iêu</w>
vui_ mừng</w>
ã n_
m àn</w>
ương_ mặt</w>
đ ỏ_
báo_ cáo</w>
S ong</w>
Ng ũ</w>
ồ _h
l ọt</w>
kh ách_hàng</w>
Hạ_ Mạt</w>
M ôn</w>
t ổ</w>
đương_ nhiên</w>
T ùng</w>
ấ n_t
kéo_ dài</w>
ch ối</w>
th ốt</w>
ngày_ càng</w>
b ổng</w>
th âm</w>
m iễn_
k iên_
ươ i_
trẻ_ em</w>
L i
đ eo</w>
d iễn_
hoà ng_
Ph ải_
h ảo</w>
a_đ ời</w>
201 8</w>
m uộn</w>
Nh à</w>
đơn_ giản</w>
k ỹ
Tiểu_ H
T oàn</w>
gh i_
ch ặn</w>
g à</w>
trung_ tâm</w>
d iệu</w>
l iếc</w>
ph iên</w>
/ 2011</w>
ẳ ng_lẽ</w>
Hàn_ Thu</w>
ac u
te r</w>
Ng ạn</w>
nước_ ngoài</w>
ôi_ trường</w>
H ội</w>
Đ iền</w>
Lã nh</w>
b s</w>
ờ_ đợi</w>
H ạ</w>
78 7
tr eo</w>
Có _lẽ</w>
Trương_ Vô_Kỵ</w>
o u
s ảnh</w>
B ên</w>
qu ê</w>
m ưu</w>
du_ lịch</w>
Thủ _tướng</w>
ho a_
giới_ thiệu</w>
x e_
ị t</w>
cho_ phép</w>
Đ ối_
ú p</w>
h ồ_
a ti
h a_h
acu te</w>
trộ m</w>
công_ bố</w>
ẹ t</w>
ch ờ_đợi</w>
_th ị</w>
l ũ</w>
d o_
c ận</w>
thể _h
kh ối</w>
G ửi</w>
Jo bs</w>
C u
tr ống</w>
đau_ đ
v ết_
chính_ thức</w>
tương_ lai</w>
b ếp</w>
Nh ư_vậy</w>
độ i_
th ất</w>
Y ên</w>
_ M
bình_ tĩnh</w>
ươ n</w>
c ư</w>
cả n</w>
đá m_
C ổ</w>
qu á_trình</w>
V ạn_
Đ inh_
cung_ cấp</w>
GD ĐT</w>
C ứ</w>
b ằng_
thầ y_
cha_ mẹ</w>
T uyết</w>
Kh a</w>
nghĩ _thầm</w>
s i
ụ _thể</w>
b ạn_
T ư</w>
s ắp_
kh ô</w>
t u_
ch ấp</w>
đ à</w>
t ặc</w>
T am</w>
Th ừa_
_l ạ</w>
co i_
bệnh_ viện</w>
ệ t_
_tr iệu</w>
Ph an_
Th ông</w>
b ổ_
Bất_ Vi</w>
vừa_ rồi</w>
điều_ trị</w>
h òa</w>
Do anh_
gi ờ_đây</w>
chủ_ nhân</w>
h ấp_
thời_ điểm</w>
ho ảng</w>
Nh ậm</w>
Mộ c_
n on</w>
b ãi</w>
Có _thể</w>
v ải</w>
nhị n</w>
L à</w>
p_th eo</w>
_h ữu</w>
Qu ang_
đ iệu</w>
H iện_
b ài_
b iện_
Ch a</w>
s ốt</w>
trực_ tiếp</w>
l ẩm_
lịch_ sử</w>
x ây</w>
Ng o
U B
B ích</w>
triển_ khai</w>
H òa</w>
v ân</w>
tự _t
th ảo</w>
B á_
2 2
đ ương</w>
t ệ</w>
Ph ụng_
đau_đ ớn</w>
H ư_
b ốc</w>
iế p_
G o
M a
ạ ng_
m ượn</w>
d ao</w>
m ỏi</w>
ừ _
cuộc_ đời</w>
b ọc</w>
s ợi</w>
h ạt</w>
ch ấn_
d ọc</w>
th èm</w>
r ửa</w>
Khấu_Tr ọng_
v ững</w>
_tr ì</w>
T uyết_
th ừa</w>
tiến_ hành</w>
x ấu_
thông_ minh</w>
Y ến_
T ạ_
tr ùng</w>
gi ây_
to an</w>
đ ấu_
khách_ s
L ăng</w>
yên_t âm</w>
Tiêu_ điểm</w>
đ ùa</w>
Ch ắc</w>
n ặng_
t ắt</w>
m ắng</w>
H ôm_
c an</w>
thể_h iện</w>
thị _
giả _
thu ê</w>
r ắn</w>
nh iệt</w>
c an_
m ắn</w>
h ối_
H ọc_
Đ à_
ch ở</w>
Đ ức_
C ổ_
tr ôi</w>
nh ật</w>
thiếu_ niên</w>
r y</w>
l ĩnh_
th ác</w>
ho á</w>
trầm_ ngâm</w>
tìm_ kiếm</w>
kh ói</w>
ê nh</w>
t ầm</w>
Lý_ Tr
n ão</w>
c ãi</w>
sẵ n_
ò m</w>
h ã
H óa_
ngh iêm</w>
d ặn</w>
ai_ mươi</w>
H ãn</w>
uy _t
kh ích</w>
H ành_
1 00</w>
c o</w>
đ e
1 ,
Th ạch_
L àm</w>
ẻ o</w>
Th ưa</w>
L am</w>
kh ác_
V ụ</w>
theo_ dõi</w>
tình_ thế</w>
tuyên_ bố</w>
t ổng</w>
lời_ nói</w>
kh ổ
M ai_
s ố
K iến_
tự _do</w>
th uộc_
ần_ dần</w>
hiện_t ại</w>
m úa</w>
B ộ_
H ồ</w>
tự a_hồ</w>
nghĩ _
đ ảm</w>
l an</w>
L ợi</w>
u_ d
h ét</w>
chị _
đào_ tạo</w>
Ho ang_
ù n</w>
v ụ_
e_ rằng</w>
a k
sẵ n</w>
_h ình</w>
lực_ lượng</w>
đ iểm_
T e
thông_ báo</w>
_l iệu</w>
sự_ việc</w>
g ặp_
í n_
tr ợ</w>
s iêu_
m óc</w>
b ởi_vì</w>
gi àu</w>
n o
_S ĩ</w>
Tr ọng</w>
Thế_ Dân</w>
qu ái_
S an</w>
ũ ng_
t ốc_
S i
h ứng</w>
ý t</w>
gh ét</w>
đơn_ vị</w>
l ặ
B ộ
chớ p</w>
c ập</w>
s ống_
V inh</w>
t ỷ
đ óng_
n ãy</w>
l ừa</w>
l ẽ</w>
s ướng</w>
ù i_
c ấp_
kinh_ nghiệm</w>
s ữa</w>
v òng_
thái_ độ</w>
ch e_
C ơ_
g ương_mặt</w>
qu ận</w>
Ng ân_
* _
b út</w>
Thượng_Quan_ Linh</w>
D u_
Tr ước_
Ng uyệt</w>
bả ng</w>
mặt_ trời</w>
Ch iếc</w>
sá ng_t
on e</w>
t ớ</w>
ng ợi</w>
Người_ ta</w>
ch ết_
liên_ tục</w>
Ng oài_ra</w>
ý_ nghĩ</w>
Th u_
v ùng_
1 _
c ộng</w>
m ệt_
N o
Th úy_
ồ_h ôi</w>
đầy_ đủ</w>
phù _hợp</w>
h ẹn</w>
h ầm</w>
tho ảng</w>
_l uận</w>
Kh ấu</w>
Hoà ng_th
ng ăn</w>
k im_
ng ẩ
quả_ nhiên</w>
nhân_ dân</w>
UB ND</w>
nhu_ cầu</w>
b ớt</w>
Â n</w>
Tiểu_ đệ</w>
l ễ
th ú_
kết_ thúc</w>
Ngh ĩ</w>
k ính_
L a</w>
Lý_Tr ọc</w>
h ạ_
mục_ tiêu</w>
m au_
nh ẫn</w>
gi ận_
k êu_
n_l ỗi</w>
kh í_
công_ nghệ</w>
Qu ách_
ngh ỉ_
_t ình</w>
R e
h ứa</w>
l ạ
t ử
d ắt</w>
b ấy_
d ần_dần</w>
h ữu_
tr ưa</w>
đ ống</w>
cổ_ phiếu</w>
đối_ thủ</w>
đồng_ hồ</w>
Thiết_ Mộc</w>
u r
H ằng</w>
tay_ trái</w>
n e</w>
iệ c_
đau_ khổ</w>
L ưu</w>
78 4
ph ất</w>
sẵn_ sàng</w>
T ú_
s ung</w>
tin_t ức</w>
g ọ
sự _thật</w>
v ì_thế</w>
Ch áu</w>
_th ù</w>
Tử_L ăng_
t ỉnh_
l âm</w>
t_ số</w>
Th ứ_
đ a</w>
tốt_ nghiệp</w>
c ộng_
c à_
t ận_
Nh ất</w>
L ĩnh</w>
nhiệm_ vụ</w>
ch ợ</w>
V N</w>
tướng_ quân</w>
ần_th iết</w>
th ước</w>
Quỷ_ Lệ</w>
3 2</w>
Thiếu_ Lâm</w>
D ũng</w>
tr uyền_
t ưở
_ _
ha_h ả</w>
l ầu</w>
Gi ám_
B o
thân_ thể</w>
đ ứt</w>
s ơ
ph a</w>
iển_ nhiên</w>
h ạn_
2 1
vết_ thương</w>
a b
chăm_ chú</w>
_m ẹ</w>
ra ve</w>
b ừng</w>
l ong</w>
thực_ phẩm</w>
h ai_mươi</w>
Ng oài</w>
hoàn_th ành</w>
d ĩ_nhiên</w>
Co n_
r ối_
m ồ_hôi</w>
c anh</w>
C ốc</w>
i e</w>
B ốn</w>
nhất_ thời</w>
phản_ ứng</w>
t iệc</w>
Đ êm</w>
tài_ chính</w>
qu ỳ</w>
chị_ em</w>
v ũ_
Kỳ _Sĩ</w>
phương_ pháp</w>
ng_t ượng</w>
s ơ_
d ữ
phụ _huynh</w>
S áng</w>
h oàn</w>
l ẹ</w>
c ầm_
B àn</w>
nh ảy_
ng on</w>
kh inh</w>
t iễn</w>
H ậu</w>
nh ắm_
từ_ chối</w>
au_ mày</w>
t ạm_
ph ản</w>
thanh_ âm</w>
Ch úa</w>
ho ạt</w>
c ốt</w>
Do anh</w>
m ực</w>
t án</w>
s a</w>
thường_ xuyên</w>
Đ ị
đ ạp</w>
may_ mắn</w>
v ay</w>
mộ ng</w>
d ò</w>
THP T_
quả _thật</w>
máy_ bay</w>
k ịch</w>
Lý_ Thế_Dân</w>
c ần_thiết</w>
ậ n_t
ph en</w>
cất_ tiếng</w>
kh uyên</w>
c anh_
học_ tập</w>
ồ n_t
kỳ _lạ</w>
lẩm_ bẩm</w>
i t
l ương_
kiế n_thức</w>
d a_
ẵ ng</w>
bạn_ bè</w>
_tr ường</w>
ạ p_
nội_ lực</w>
th a_
kh ẩn_
_th ủ</w>
H ình_
ng ắm</w>
B an_
đ ạn</w>
n_đ ồ</w>
d ự
m ô</w>
m ạo</w>
N ữ</w>
M à</w>
nhiễ m</w>
phục_ vụ</w>
Đ ạo</w>
n ếu_như</w>
mặt_ đất</w>
tuyệt_ đối</w>
mục_ đích</w>
đ ãi</w>
ngh iêng</w>
Th ằng</w>
m ù</w>
x âm_
_l ượng</w>
v ũ
giai_ đoạn</w>
G M
ng ộ</w>
h ầu</w>
tr ò_
s ửa</w>
cảnh_ sát</w>
é o_
I ran</w>
s ót</w>
n_đ ấu</w>
cu ồng</w>
t ươi_
â ng_
n ối</w>
ừ u</w>
ế m</w>
không_ gian</w>
Âu_Dương_ Hải</w>
2 5</w>
ai_ nấy</w>
đ òn</w>
Y _
Nh iên</w>
h ạnh</w>
Thế_ là</w>
chiến_th ắng</w>
ng_t ối</w>
bệnh_ nhân</w>
qu à</w>
Triều_ Tiên</w>
r ộng_
d ứt_
n i</w>
l ộ
N ay</w>
4 0</w>
Đ ình_
xem_ xét</w>
e c
vì_ vậy</w>
H ar
thành_ viên</w>
chiế n_đấu</w>
r âu</w>
S te
liên_ tiếp</w>
k ị
hành_ vi</w>
C ó_
ược_ lại</w>
công_ chúa</w>
b ánh</w>
th ỉnh_
c ứng</w>
ử ng</w>
Đ ộc</w>
gh ê_
ch ìm</w>
P ar
thiết_ kế</w>
h ở</w>
H ồn</w>
tốc_ độ</w>
b ầu</w>
th ét</w>
N ếu_như</w>
ằ m_
V ào</w>
t ỏa</w>
_th ân</w>
m ôi_trường</w>
sức_ mạnh</w>
so ái</w>
s ay</w>
h è</w>
h à
B ách_
sư_ đệ</w>
s on</w>
H àng</w>
Ph ục</w>
g ãy</w>
chăm_ sóc</w>
Ch ung</w>
C ửu_
lĩnh_ vực</w>
môn_ phái</w>
chính_ sách</w>
ng ẩn</w>
nh iệt_
1 6</w>
V ị</w>
ch _l
Ngh i_
ng ơi</w>
g ỡ</w>
1 4</w>
thế_ này</w>
h iểu_
k iếp</w>
b ánh_
ng_l ồ</w>
K iệt</w>
Gi ả</w>
chiến_ tranh</w>
giám_ đốc</w>
B óng_
nguy_ cơ</w>
khổ ng_lồ</w>
1 8</w>
biện_ pháp</w>
C uố
ệ ch</w>
đ iên</w>
kho án</w>
gi ọt</w>
ý_ nghĩa</w>
B an</w>
nh ắm</w>
s a_
uố ng_
h uống</w>
h iệ
T inh</w>
th ẳ
chấn_ động</w>
th ai</w>
s àn</w>
c ột</w>
đối_ tượng</w>
bao_ lâu</w>
Đ ộc_
hòa_ thượng</w>
ph ả
ổ _th
l ĩnh</w>
xác_ định</w>
mề m</w>
A r
Do ãn</w>
nội_ dung</w>
_t iêu</w>
đất_ nước</w>
d ẫn_
Th ủ</w>
vì_ sao</w>
H ư</w>
Đ ảng</w>
ch ứ
qu ảng_
nh ư_
th ò</w>
Vi et
Th ương_
đ ụng</w>
đ è
Q uyên</w>
S ài_
l ạc_
thu ế</w>
đá y</w>
n_đ ại</w>
tưở ng_tượng</w>
cá t</w>
H iếu</w>
t ấn</w>
gó p</w>
S u
hợp_ tác</w>
đ uôi</w>
ph ạm_
nh ục</w>
thị_tr ấn</w>
L ộc</w>
D ịch</w>
P u
Kh ánh</w>
m ưu_
Qu ế</w>
một_ vài</w>
m ặc_dù</w>
gi ật</w>
đ ói</w>
_t ay</w>
ph ối_
c ăng_
b ỗng_
nh ủ</w>
p_ mắt</w>
n ô</w>
n ữ
tr iều</w>
thức_ ăn</w>
bó ng_tối</w>
t ia</w>
Bộ _trưởng</w>
ngày_ nay</w>
gi ặc</w>
H ồi</w>
ủ a</w>
Ch ưa</w>
Nh ị_
l ánh</w>
ú i_
ru n_
a f
D o_
A pp
0 _
Kh ang</w>
ung_ thư</w>
ng ửa</w>
li p</w>
đối_ diện</w>
h iếm</w>
chu ông</w>
B ạn</w>
âm_ thanh</w>
ê n_đ
r ia</w>
n_th ương</w>
thất_ bại</w>
ng ưng</w>
Ch ân_
/ 201
b ức_
Mộ _
khó_ chịu</w>
ụ a</w>
tr ắng_
g ối</w>
nhất_ là</w>
ăn_ uống</w>
Tr ác</w>
nh íu</w>
tiểu_ nhân</w>
l ấp_
ó c_
L ời</w>
tr ương</w>
đ ưa_
nhà _th
ch ốc</w>
b ổ</w>
Lu ật_
B ố</w>
Th i</w>
nhà_ sư</w>
chính_ trị</w>
nhà_ trường</w>
s ay_
m át</w>
đ iên_
giao_ dịch</w>
đ ôi_
Ngh ĩa</w>
t ạp</w>
Nguyễn_ Thị_
s ơn_
r an
i s</w>
m ẽ</w>
r ớt</w>
công_ phu</w>
Â m_
Hoàng_ Dung</w>
Vì_ vậy</w>
Cuố i_cùng</w>
v ờ</w>
T ô</w>
khách_s ạn</w>
ê m_
Đối_ với</w>
H ôm</w>
Hôm_ nay</w>
Hầu_ H
c ự</w>
Ch ương</w>
Ph át_
ẩ u_
Ph úc</w>
ậy_ mà</w>
văn_ hóa</w>
ữ ng_
Â m</w>
Đột_ nhiên</w>
v ãn</w>
tầm_ thường</w>
r ực</w>
phối_ hợp</w>
th ánh</w>
lặ ng_lẽ</w>
M ẫn</w>
t ỳ</w>
C ách</w>
d iễ
l ông</w>
ấ p_th
đại_ diện</w>
T inh_
x óm</w>
Nhật_ Bản</w>
chuyên_ gia</w>
Qu a</w>
D ưới</w>
Hu ế</w>
Tích_ Nhân</w>
t ùy</w>
m ệt</w>
2 /2012</w>
C ùng</w>
o l
mở_ rộng</w>
s ong_
căng_ thẳng</w>
e d
u_d àng</w>
k iến_
ú m</w>
c am_
b ối_
ảnh_ khắc</w>
H iên</w>
_h uy</w>
o i</w>
g ói</w>
mạnh_ mẽ</w>
ng ay_
e n_th
binh_ khí</w>
ter ne
kh iếp</w>
b ội</w>
en t
dị u_dàng</w>
V ăn</w>
tài_ sản</w>
cá ch_
c ân_
C âu_
tr iều_
THPT_ Quốc_gia</w>
đi_ lại</w>
ôn_ luôn</w>
Ð an</w>
tr àn_
A l
v ươn</w>
Ch o</w>
nghỉ_ ngơi</w>
S iêu</w>
t âu</w>
B u
c ớ</w>
b ách</w>
Đ ào_
b ám</w>
_th úc</w>
Văn_ Bình</w>
h ạt_
độ ng_t
K iều_
iế m_
Ngo ại_
d ược</w>
Ng ày_
công_ lực</w>
Th ì_ra</w>
d eo</w>
l oài</w>
Ch ung_
thuộc_ hạ</w>
ớ p</w>
Th ị
B ao_
ề u</w>
nghiêm_ trọng</w>
ch ương</w>
c ổ_t
tham_ dự</w>
hạn_ chế</w>
ph óng_
ự u</w>
ph iền</w>
nhà_ nước</w>
kỳ _d
T ăng</w>
ph ú</w>
kỹ _thuật</w>
M ạc</w>
Ô _
Bóng_ đá</w>
l ỗ</w>
t ới_
s ánh</w>
ạn_ nhân</w>
Nhà_ nước</w>
M ục</w>
bất_ kỳ</w>
đạo_ nhân</w>
kh inh_
Hoàng_th ượng</w>
tr ao_
ồn_t ại</w>
bố _mẹ</w>
ch ấm_
tiết_ lộ</w>
n ề</w>
Gi áo</w>
th ẩm_
ch âm</w>
học_ trò</w>
chức_ năng</w>
tr ào</w>
b í_
t ồn_tại</w>
công_ trình</w>
ẫ u</w>
lu ôn_luôn</w>
hỏ i_
c ước</w>
B ách</w>
hoàn_ cảnh</w>
Ch o_
h ãng</w>
đ ậu</w>
l ôi</w>
U y
Tr ang_
quy ển</w>
l ái</w>
m ê
ẩ y_
d ối</w>
T ập</w>
tr án</w>
Kh ả_
s ung_
pháp_ luật</w>
u n</w>
T ố_
nhắm_ mắt</w>
ng ơ_
1 9</w>
mệt_ mỏi</w>
Qu ỹ</w>
M ụ</w>
đ ích_th
thầ n_t
tình_ huống</w>
ng uy</w>
phát_ giác</w>
hôm_ qua</w>
chính_ xác</w>
Đ ô</w>
ng ập</w>
giận_ dữ</w>
động_ sản</w>
thông_ qua</w>
n én</w>
d ốc</w>
t á</w>
D ược_
b à_
ngh ệ_th
ng ột</w>
chậm_ rãi</w>
ải_ mái</w>
tử_ vong</w>
chỉ_ đạo</w>
B ác</w>
đ ỗ</w>
ít_ nhất</w>
ấn_t ượng</w>
V ì_thế</w>
Ch í_
- _
đưa_ mắt</w>
giả ng_
v ũ</w>
ph ê</w>
đề_ phòng</w>
m ồm</w>
v a</w>
m ô
chịu_ đựng</w>
T ân</w>
tho ải_mái</w>
th ơm</w>
kho ái</w>
ổn_ định</w>
6 0</w>
a -
xuất_ sắc</w>
v ệ_
vi_ phạm</w>
v ời</w>
tr ồng</w>
th ỏa_
t ốn</w>
bao_ gồm</w>
Th ánh</w>
kho e</w>
ch âu</w>
qu ét</w>
T ả</w>
k ê</w>
V ĩnh_
ù y_
tức_ là</w>
M ục_
ằ ng_h
iề n_đ
n u
c ởi</w>
Th ường</w>
B ar
tin_t ưởng</w>
g ạo</w>
ẫn_ n
H uyên</w>
v ã</w>
trái_ tim</w>
b án_
m p
kh ổ_
chủ_ yếu</w>
V N
ò _m
máy_ tính</w>
Ph ật_
th uyết_
App le</w>
không_ những</w>
v ỏ</w>
th ạch</w>
c ắn</w>
b ông</w>
Pu tin</w>
0 7
L iễu</w>
200 8</w>
v ai_
n inh</w>
đáp_ ứng</w>
8 0</w>
t ỉ</w>
U yên</w>
n ảy</w>
g ớm</w>
ho an_
T uyền</w>
h ải_
hay_ là</w>
_tr ách</w>
Giám_ đốc</w>
„_ Ð
vũ _tr
h ít</w>
ph ức_
hình_ thức</w>
c ành</w>
mã nh_
S át</w>
đột_ ngột</w>
gi ám</w>
D i_
m ở
kiểm_ soát</w>
H ữu_
quân_ sự</w>
_th ức</w>
Ngh i</w>
Ng ài</w>
Gi ữa</w>
ph án</w>
l ật</w>
gi ây</w>
du_ học</w>
nh ã</w>
chi_ tiết</w>
Hoàng_ đế</w>
l ạy</w>
cho_ dù</w>
Gi ang_
kho ảnh_khắc</w>
Th ục</w>
chỉ _huy</w>
m ọc</w>
ẽ o</w>
qu a_
h ôn_
bố _trí</w>
áp_ dụng</w>
tăng_ cường</w>
n_đ ổi</w>
gọ i_
chế_ độ</w>
Gi á</w>
tr ú</w>
_h ồ</w>
Thanh_ Ngân</w>
điều_ chỉnh</w>
th ảm</w>
Thượng_Quan_ Kỳ</w>
2 3</w>
đ ời_
d ung_
cố_ ý</w>
X ung</w>
Tr ời</w>
Ngh ệ_
L ượng</w>
tr í
thủ _hạ</w>
thất_ vọng</w>
ra_ lệnh</w>
đ ợt</w>
th ảo_
b ước_
tỷ _lệ</w>
to_ lớn</w>
b iế
4 /3</w>
l eo</w>
t ê</w>
ngày_ mai</w>
C ái_
t ứ</w>
b ơi</w>
_t ế</w>
ã i_
c ư_
T ài_
_d ụ</w>
d ính</w>
Gi ải_
gh é</w>
ch ế
Thời_ gian</w>
tác_ dụng</w>
i g
ph o</w>
th í
l ần_
h ất</w>
b ực_
ôi_ sao</w>
ng ôn</w>
_th ường</w>
T C</w>
s ỹ</w>
Th úy</w>
t ích_
19 9
h ướng_
r uộ
T ấn</w>
ò i_
b ia</w>
iệc_ làm</w>
tr uy_
M a</w>
ir c</w>
m ến</w>
dân_ tộc</w>
bố n_
H iểu</w>
N ẵng</w>
b ạn_đọc</w>
C ung</w>
m ừng_
hiện_ giờ</w>
− _
c ắp</w>
Ch ủ_
Ch iêu</w>
xi n_lỗi</w>
s uối</w>
c ạn</w>
r ít</w>
H ắc</w>
ng ược_lại</w>
mở_ cửa</w>
m ạc</w>
Đ ôi</w>
đ ổi_
thủ_ đoạn</w>
m ỹ_
T ô_
n ỗ
a u
to p</w>
ra_ mắt</w>
C âu</w>
t u</w>
n ạn_nhân</w>
ốt_ cuộc</w>
giây_ lát</w>
T ần_
Tr ọng_
đ ông_
B ệnh_
b éo</w>
t am_
gọi_ là</w>
mẫ u_
t h</w>
m ạo_
27 3</w>
g ượng</w>
chu i</w>
ch iêu_
Ph ú_
ỳ nh_
ầ n_t
Đà_ Nẵng</w>
v ương_
h iển_nhiên</w>
c ú</w>
ụ m</w>
e m_
bất_ động_sản</w>
Th ất</w>
ế p_
M ặc_dù</w>
ng ang_
Gi ọng</w>
G òn</w>
D ự_
c ụ_thể</w>
l ục_
M o
x ạ</w>
. ...</w>
m i
t à</w>
kh ôn_
hấp_ dẫn</w>
nặng_ nề</w>
TP .
g a</w>
r út_
S ách</w>
t iện_
0 9
phức_ tạp</w>
cảm_ nhận</w>
tr àn</w>
V iện</w>
lão_ gia</w>
vai_ trò</w>
thương_ mại</w>
ấm_ ngầm</w>
Thượng_ Quan</w>
Phi_ Huyên</w>
th ụ</w>
h iểm_
ng ốc</w>
hợp_ đồng</w>
Pa d</w>
C uộc</w>
ng ấm_ngầm</w>
d áng_
th úc_
kh ám</w>
T iền</w>
T ân_
c ỗ</w>
ỷ _l
Sư_ phụ</w>
sở _hữu</w>
qu a_đời</w>
n ấu</w>
v iệc_làm</w>
i Pad</w>
ầ y_
năng_ lực</w>
ngh ệ_
h ứ
M ặt_
Th ủ_
ụ y_
Đ ồng</w>
L ỗ</w>
tiế p_theo</w>
Yến_ Phi</w>
m ái_
h ư</w>
b ỏng</w>
xuất_ khẩu</w>
l ạng</w>
inh_ dưỡng</w>
T ương_
tâm_ sự</w>
nữ_ nhân</w>
Ô i</w>
K iên</w>
Yên_ Nhiên</w>
tình_ dục</w>
m ới_
ar d</w>
b à
1 /3</w>
bổ_ sung</w>
S áu</w>
Đ ình</w>
V âng</w>
Có_ điều</w>
d âu</w>
chi_ phí</w>
tự_t in</w>
k ỹ_
t am</w>
tu ổi_
Phải_ chăng</w>
In terne
1 .
T ổ</w>
tính_ toán</w>
chính_ phủ</w>
Ngân_ hàng</w>
ghê_ gớm</w>
H òa_
giải_ pháp</w>
M ùa</w>
thiết_ bị</w>
tai_ nạn</w>
kh iển</w>
tr iệu_
c ưỡi</w>
l ộn</w>
2 4</w>
tr i_
phả n_đ
D ạ</w>
ẫu_ thuật</w>
chứng_ kiến</w>
d ãy</w>
Th o
ngẩ ng_
Th ẩm</w>
ẹ p_
đại_ gia</w>
kh ám_
Th ắng</w>
N G</w>
v ĩnh_
ng ự</w>
Sài_ Gòn</w>
78 8
d ày</w>
khủ ng</w>
tr úng_
s ờ</w>
ố p</w>
h o</w>
t ù</w>
tác_ phẩm</w>
đ ẳng</w>
l ên_đ
2 1</w>
P e
S E
N ày</w>
m ũ</w>
L àm_
h àm_
m ật_
_th ư</w>
_ _</w>
d ĩ</w>
ng ớt</w>
ch ắp_
l ỗ
d uyên</w>
thú_ vị</w>
th ê
ng u_
m ỹ
d _
t ảng</w>
h ừ</w>
xúc_ động</w>
Th ẩm_
v ụt</w>
t ốc</w>
ng -
x á</w>
th ứ_
Ð iền</w>
b ồi_
đ iện_
t ỏ_
2 6</w>
Ð ào</w>
o k</w>
h a</w>
_t ính</w>
H ành</w>
t ụ</w>
M ông_
h ắc</w>
g ương</w>
M i
biến_ sắc</w>
n ộp</w>
an_ ủi</w>
Ð oàn</w>
r ũ</w>
cửa_ hàng</w>
thu_ hút</w>
Th ất_
C ảnh_
T ường</w>
th ăm_
phản_đ ối</w>
ho ảng_
b ổn</w>
tr àng</w>
Giáo_ chủ</w>
gó p_
đ ua</w>
t úng</w>
Thừa_ Chí</w>
m ãn</w>
Hoa_ Sơn</w>
d ụng_
thần_ sắc</w>
h ẹp</w>
gi ày</w>
hiệ n_đại</w>
/ 9</w>
b er
h ang</w>
N H
2 /3</w>
N ương</w>
g ầm</w>
v ắng</w>
T ích</w>
H ơn</w>
gi ấy_
an d</w>
B ằng</w>
t ủ
bầu_ cử</w>
xe _máy</w>
k ỷ_l
d uy
H ơn_nữa</w>
ỏ ng_
u ệ</w>
gi áp</w>
Ph ục_
k ỷ_
uy ến_
Qu ả_
tổ n_thương</w>
chia_ tay</w>
ú a_
l au</w>
v ả</w>
qu en_th
d ụ</w>
T ốn</w>
thủ y</w>
th iên</w>
c ăm_
ố m</w>
D ực</w>
cộng_ đồng</w>
mong_ muốn</w>
t ắm</w>
m ai_
đ ạm</w>
b ó</w>
L ạc</w>
é p_
Qu ý_
N ên</w>
ph ường</w>
29 /2</w>
t an_
kinh_ hoàng</w>
tỏ_ vẻ</w>
khai_ thác</w>
vũ_ khí</w>
g o
kh o</w>
ù_ sao</w>
Nh ạc_
Ng ũ_
r ung_
nh ường</w>
b ề</w>
Bất_ Quần</w>
giả_ vờ</w>
ch ép</w>
è _
ra_ vẻ</w>
l ăm</w>
Trịnh_ Vi</w>
S ung</w>
án_ giả</w>
vừa_ mới</w>
m àn_
dấu_ hiệu</w>
ch ấm</w>
tìm_ hiểu</w>
thầ n_th
s ho
R ất</w>
ch ấn</w>
ch ả</w>
b ề_
phi_ thường</w>
l ều</w>
5 00</w>
t al
sư _thúc</w>
Ch ú</w>
cô_ giáo</w>
yếu_ tố</w>
v iêm</w>
th áo</w>
mừng_ rỡ</w>
B á</w>
trao_ đổi</w>
Quốc_ hội</w>
toàn_ cầu</w>
kh ảo</w>
79 0
ph ẫu_thuật</w>
giáo_ sư</w>
T T</w>
vô_t ình</w>
é_ ra</w>
kh ấu</w>
S ĩ</w>
r ẽ</w>
nghệ_th uật</w>
mề m_
il l
quân_ đội</w>
l ạt</w>
B ị</w>
n êu</w>
g ánh</w>
T ướng</w>
á u_
ch u_
cao_ cường</w>
S ong_
Đ ài_
bầu_ trời</w>
th ể_thao</w>
sáng_t ạo</w>
l am</w>
C ao</w>
_th ần</w>
_ T
X uyên</w>
K ết_
lễ _
kh áng_
b iệt_
tâm_ lý</w>
t a
ph ấn_
duy _trì</w>
kho ác</w>
ọ t_
vũ_tr ụ</w>
v àng_
Hồ_ Xung</w>
t ại_
x anh_
đám_ cưới</w>
Quách_ Tĩnh</w>
l âm_
v iễn</w>
số _lượng</w>
2 2</w>
x é</w>
chớ p_mắt</w>
ag rave</w>
T ổ_
S e
lên_đ ường</w>
di_ động</w>
H ương_
đầu_ óc</w>
hồ_ sơ</w>
quen_th uộc</w>
h ương_
Khu ê</w>
k a</w>
bỏ_ qua</w>
s ố_
d ây_
chắp_ tay</w>
T ự</w>
Đ iểm</w>
th iệp</w>
tr ống_
M uốn</w>
Th áng</w>
đá ng_
ên_ cạnh</w>
Công_ an</w>
D anh_
/1 0</w>
m ẹ_
m iếu</w>
l én</w>
h i_
d ầu_
áp_ lực</w>
h iệp_
Tr inh</w>
H ưng_
ó t_
qu en_
Tr ương</w>
vừa_ qua</w>
4 32</w>
Đ ầu_
ng ắt_
L y</w>
qu ý_
ng ào</w>
T ứ</w>
đ ảng</w>
T ự_
h ảo_
N ữ
đề_ xuất</w>
d ư
thừa_ nhận</w>
phụ _
m ù
C E
x ét_
tu ần_
người_ yêu</w>
S inh_
th iệt_
phân_ tích</w>
hợp_ lý</w>
th uyết</w>
L ương_
ản_ nhiên</w>
đ ặc</w>
x ếp_
phương_ tiện</w>
Th ân</w>
sắp_ xếp</w>
tiếng_ nói</w>
công_ an</w>
_m iệng</w>
Ph ía</w>
G ần</w>
t ùng</w>
th ập_
S a</w>
đ ón_
H i</w>
x i</w>
s c
_l ùng</w>
TP HCM</w>
M ỹ_
x ưng</w>
ti n_
kết_ luận</w>
Gi ờ</w>
ó e</w>
tr ói</w>
g ắn</w>
lu ật_
cà_ phê</w>
_t ục</w>
văn_ phòng</w>
Cao_ Ngạn</w>
th ản_nhiên</w>
hành_ lang</w>
hoà i_
Đ a_
yêu_ thương</w>
cử_ động</w>
đ ai</w>
tích_ cực</w>
ba_ mươi</w>
T ào_
S y
C ảm_
Ch ẳng_lẽ</w>
C l
t á
l y_
H àm_
l ường</w>
T ập_
H y</w>
thế_ kỷ</w>
m ười_
A_ Tử</w>
nữ_ sinh</w>
i l</w>
l iên</w>
gi am</w>
tác_ giả</w>
H ạnh</w>
tr ùm</w>
t àn</w>
nh ịp</w>
chiế n_l
c uộn</w>
b ạo_
d ập</w>
tâm_ thần</w>
nh o
hỗ n_
V in
c ấu_
kh án_giả</w>
, 000</w>
C ô_
Kh ắc_
2 _
ý_ định</w>
l ẽ_
tr ong_
tay_ áo</w>
x ưa_
trẻ_ con</w>
A le
cảm_ ơn</w>
ằng_h ữu</w>
d ồn</w>
chú c</w>
b ão</w>
thu ận_
x en</w>
t àng</w>
giám_ sát</w>
gi ục</w>
vô_ số</w>
lã ng_
a v
ông_ già</w>
ho ang</w>
c ắm</w>
t ẩu</w>
biểu_ diễn</w>
ờ _m
kh éo</w>
m ông</w>
kh ởi</w>
Th ống</w>
N ội_
d e
D ịch_
đ iếm</w>
D ư</w>
l ắc</w>
ung_ dung</w>
s ườn</w>
buồn_ b
ch án_
nhà_ đầu_tư</w>
nh ặt</w>
khuy a</w>
th ùng</w>
tăng_ trưởng</w>
kết_ hợp</w>
bảo_ đảm</w>
78 9
kh ắc_
20 0</w>
T iế
đ ồi</w>
C ường</w>
Th am_
t é</w>
bu ông_
R i
M _
tr ợn</w>
như _thể</w>
th ì_ra</w>
N i</w>
U y</w>
huy ết_
ch ăn</w>
t úc</w>
Qu ản_
r o</w>
h á</w>
căn_ hộ</w>
Đ ang</w>
thành_ lập</w>
Công_ chúa</w>
ngắt_ lời</w>
r eo</w>
H I
K i
H uyết</w>
r ồng</w>
chú t_
t ậ
k iệt</w>
b i_
x ách</w>
Đo ạn</w>
Đ ặc_
th ánh_
d ọn</w>
cứ ng_
B ên_cạnh</w>
ờ n</w>
Th ảo</w>
T ề</w>
ph iên_
lợi_ dụng</w>
b ến</w>
T oàn_
Đ ịnh</w>
To án</w>
kh e</w>
k y</w>
õ ng</w>
qu y</w>
Nh ược</w>
r ẻ</w>
ĩ a_
c ưỡng_
b ụng_
Phùng_ Phá</w>
kh ôi_
hầu_ như</w>
h ung</w>
iê ng_
Trường_ An</w>
Th ư_
K ẻ</w>
Ð iền_
v inh_
N G
B an
ằ n_
ọ n_
chính_ quyền</w>
Ng ụy</w>
đô _thị</w>
tr ướng</w>
s ương</w>
nh a</w>
ức_ độ</w>
ể_ cả</w>
t ỉ
căn_ cứ</w>
r ót</w>
đ ùi</w>
An d
/ 2019</w>
Đ ài</w>
tuyệt_ vời</w>
hướng_ dẫn</w>
hỏ a_
d i
Ho ang</w>
đ ồ
toàn_ lực</w>
to át</w>
ch _hợp</w>
Th ánh_
T à</w>
đ uối</w>
tay_ phải</w>
châu_ Âu</w>
m ạn</w>
m ơ
Th ân_
Thế_ Sung</w>
ngh ịch</w>
th ình_
th iệt</w>
ac k</w>
ẫ m_
tr ỏ</w>
liên_ lạc</w>
b i
Th ọ</w>
Hoang_ Tập</w>
T ín</w>
di_ chuyển</w>
trang_ chủ</w>
t am
Lăng_ Độ</w>
t ô</w>
Jo h
t iềm_
Nh ị</w>
th ọ</w>
hoang_ mang</w>
c ưỡng</w>
U ni
k ỵ</w>
Kh ang_
Ng a_
áy_ mắt</w>
y_ phục</w>
t áo</w>
t ung_
d âm</w>
k èm</w>
Th ập_
Đ oàn_
tính_ mạng</w>
đạo_ trưởng</w>
ữ a_
m ặc_
d ũng_
V F
Tiểu_H ôi</w>
c ừu</w>
r ực_
E l
l ợn</w>
_l òng</w>
Tư_ Mã</w>
Mộc_ Phong</w>
kh ỉ</w>
TP. HCM</w>
7 0</w>
tiếp_ xúc</w>
sung_ sướng</w>
hàng_ đầu</w>
Ph át</w>
m é</w>
S ĩ_
H ắc_
nỗ _lực</w>
kh ốc</w>
tr ứng</w>
3 /3</w>
kho ảng_
K o
tạm_ thời</w>
Kỷ_ Yên_Nhiên</w>
thân_ phận</w>
n ạp</w>
iề n_t
ph ách</w>
e t</w>
chiế u_
m àu_
ủ y_
ỳ nh</w>
t ật</w>
ng ọt</w>
m ờ</w>
lần_ lượt</w>
tr ì</w>
ro i</w>
C ục</w>
L âu</w>
x ô</w>
h òn</w>
a t</w>
nghĩa_ là</w>
k ẻ
Tr úc_
chiến_l ược</w>
nh át</w>
nh ỏ
ban_ đầu</w>
đe _d
khủng_ khiếp</w>
b ằng_hữu</w>
Trung_ Nguyên</w>
Lý_ Xuân_
New _
Á i</w>
tr ông_
s ang_
ph e</w>
g ót</w>
r ào</w>
kh ốn_
ống_ chế</w>
thuyết_ phục</w>
b ưng</w>
c ường_
Đ ầu</w>
d ại</w>
mãnh_ liệt</w>
G r
nhanh_ nh
*_ *_
đ iển</w>
th ải</w>
Nguyễn_ Văn_
ng ất</w>
B ùi_
Nh ư_
tất_ nhiên</w>
b ì</w>
k ích_th
m ổ</w>
h à</w>
Quảng_ Bình</w>
x u_
Lạc_ Dương</w>
s ứ_
gia_ tăng</w>
g ậy</w>
uố t_
V ạn</w>
v ở</w>
h iền_
ngẩng_ đầu</w>
g ục</w>
D iên_
b ạo</w>
ưở ng_th
t í</w>
báo_ chí</w>
xem_ ra</w>
T iến_
Ngh ĩa_
L ễ</w>
M ật</w>
vụ_ việc</w>
D o</w>
m ỹ</w>
tương_ tự</w>
nh áy_mắt</w>
Ng ữ_
điều_ khiển</w>
ể n_
t iệm</w>
sai_ lầm</w>
ph ấn</w>
hạt_ nhân</w>
chứng_ khoán</w>
th ì
d inh_dưỡng</w>
Trung_ tâm</w>
quyết_ tâm</w>
kh ống_chế</w>
í _dụ</w>
ch_th ức</w>
Bất_ Dịch</w>
B iên_
con_ số</w>
Hàn_ Quốc</w>
thống_ nhất</w>
T àu</w>
Ấ n_
kh ứ</w>
l ưới</w>
Hải_ Phòng</w>
H oài</w>
vội_ vã</w>
H óa</w>
phụ _trách</w>
ấ c_
l ắng_
chủ_ động</w>
lạ _lùng</w>
Đ ịch_
tr a_
ho ả
M e
D ĩ_nhiên</w>
chứng_ minh</w>
biế n_đổi</w>
anh_ chàng</w>
tài_ liệu</w>
t ụi</w>
ng_th ái</w>
ờ_ đâu</w>
ay _thế</w>
Tr ừng</w>
Hiện_ giờ</w>
kho ang</w>
ch ầm_
ch ào_
Ph ù_
nhận_ xét</w>
T ô
N ữ_
ỵ _
vĩnh_ viễn</w>
năng_ lượng</w>
ng_h ậu</w>
ứng_ dụng</w>
Mộ_ Dung</w>
b i</w>
ì n_
nh ích</w>
H uy</w>
t ạp_
danh_ sách</w>
P i
thí_ chủ</w>
lợi_ ích</w>
Mộ t_số</w>
cơ_ bản</w>
cu ồng_
tác_ động</w>
ch ì
m ã_
d ì</w>
N inh_
nổi_ giận</w>
C ập</w>
th ay_thế</w>
Ph ổ_
đời_ sống</w>
tr ọ</w>
tiếng_ động</w>
nh ầm</w>
So ái</w>
ý _t
trọ ng_th
th ề</w>
Th ùy</w>
khu ất</w>
Ð ịch</w>
thanh_ toán</w>
õ m</w>
ngơ_ ng
điều_ hành</w>
n é
xác_ chết</w>
r au</w>
đối_ mặt</w>
hỏ a</w>
m ệnh_
Ng ạc</w>
ậ y_th
n ấp</w>
m uối</w>
Doanh_ Doanh</w>
h ộ
è o_
hối_ hận</w>
ch ốt</w>
ch au_mày</w>
v âng</w>
ậy_th ì</w>
y a</w>
l ô</w>
Kh ách</w>
l y
Q uyết</w>
y_ tế</w>
mặt_ mũi</w>
chầm_ chậm</w>
Tống_ Cương</w>
ng_ sốt</w>
người_ thân</w>
bị t</w>
to à</w>
t i</w>
l òng_
ag u
Kh âu</w>
GM T
p_th ời</w>
mái_ tóc</w>
N ơi</w>
t ách</w>
vệ_ sinh</w>
ch ửi</w>
Th áo</w>
truyền_th ống</w>
th iền_
h uy</w>
_th ì</w>
chỉ _tiêu</w>
H oàn</w>
x ám</w>
n_t ập</w>
tâm_ hồn</w>
t ước</w>
phân_ biệt</w>
ng ưỡng</w>
tr ời_
công_ nghiệp</w>
nội_ công</w>
r ốt_cuộc</w>
ph iền_
m ức_độ</w>
L ang</w>
ứ a_
Đ àm</w>
Trung_ ương</w>
ứng_ phó</w>
Đ an</w>
m_ t
b ày_
b ận</w>
th ẻ</w>
B à_
p o
m ar
T i
bộ_ phận</w>
Q uy_
sử ng_sốt</w>
bả n_l
xu ôi</w>
M ười</w>
ngh iến</w>
tài_ năng</w>
m an</w>
_tr ình</w>
3 00</w>
ngơ_ng ác</w>
m ỏng</w>
dễ _
cảm_ xúc</w>
Nghệ_ An</w>
đ iệt</w>
thi_ thể</w>
t ụ
quen_ biết</w>
c ố
Nh ạn</w>
2 ,
thực_ ra</w>
n uốt</w>
Hu ệ</w>
D ã_
t ưởng_
H iệp_
quan_ điểm</w>
T ính</w>
đ ẩy_
hậu_ quả</w>
đ ĩa</w>
khám_ phá</w>
d ở</w>
Y êu</w>
T ào</w>
v ững_
s ăn</w>
lắng_ nghe</w>
lo ại_
so ạn</w>
r ùng_
T âm_
Ch ưởng</w>
C ộng_
ng ắn_
a acute</w>
L ao_
H iện</w>
nh ấn_
hoàn_ hảo</w>
h ộ_
en t</w>
c ậy</w>
Th ích</w>
lo áng</w>
am es</w>
mạo_ hiểm</w>
I s
Bệnh_ viện</w>
4 5</w>
2 8</w>
l úng_
Á nh</w>
tr ừng_
dứt_ lời</w>
er _
thu_ hồi</w>
ế ch</w>
ch ẳng_lẽ</w>
k i
h uy_
tr ị_
Ch ủ</w>
v iện_
chuyển_ động</w>
ph ổ_
Tu ần</w>
Th ật_
bấy_ giờ</w>
am a</w>
Thái_ hậu</w>
C uộc_
mỹ_ nhân</w>
c ỡ</w>
_h ệ</w>
ỡ _
ề n_
k _
Lã nh_
Th ơ</w>
v ất_
N ước</w>
_l ệnh</w>
Nh u</w>
l ỡ</w>
T é_ra</w>
vận_ động</w>
ng ôn_
S a_
v út</w>
nh ào</w>
Long_ Vương</w>
h ơn_nữa</w>
Tr ời_
d ạy_
H iệp</w>
ngo ái</w>
hầu_ hết</w>
Kỳ _
Th iện</w>
địa_ bàn</w>
quyền_ lực</w>
M au</w>
Đ ặng_
kẻ _thù</w>
Đ ất</w>
ng_t ỏ</w>
l ông_
ám_ khí</w>
/0 2/2012</w>
x ỉ
tr ưởng_
ch ọc</w>
đ ồn</w>
Đ ặt</w>
w e
dữ _d
Đị a_
phần_ lớn</w>
ng õ</w>
t ế_
bỗng_ nhiên</w>
an_ ninh</w>
Th ế
_tr ọng</w>
Hội_ đồng</w>
ói_ quen</w>
V ừa_
thế_ là</w>
đầ m</w>
kỷ_ niệm</w>
H ợp</w>
m o
truyền_ hình</w>
nguy ên_t
Đồng_ thời</w>
p i
P o
k iệm</w>
cười_ nhạt</w>
Th ầy</w>
nh ú
lấp_ lánh</w>
kị p_thời</w>
ản_ Chi</w>
tư_ cách</w>
D iệp</w>
đ ắm</w>
v uốt</w>
v u</w>
b ái</w>
buồn_b ã</w>
rực_ rỡ</w>
k ể_cả</w>
x ích</w>
thẳ m</w>
rút_ lui</w>
kh ảo_
cao_ thâm</w>
Lã ng</w>
H iền</w>
C ổn</w>
thu ẫn</w>
H ướng</w>
L ôi_
-- --
tr ấn</w>
Nh a</w>
T ướng_
Ngh ị_
L ao</w>
T iến</w>
H iện_t
hài_ lòng</w>
ớ _
k ý_
n é</w>
l ược</w>
thỉnh_ thoảng</w>
bo m</w>
I I</w>
B ích_
đ ặt_
d ạo</w>
r ung</w>
ngăn_ cản</w>
GMT 7
C ôn</w>
tr i</w>
thu_ nhập</w>
H ổ</w>
thương_ hiệu</w>
V ô</w>
chứ ng_tỏ</w>
ai l</w>
m ét</w>
tiếp_ cận</w>
ho ạ</w>
đ ổ_
nổi_ bật</w>
li c</w>
l ật_
iền_đ ệ</w>
căn_ bản</w>
Th ản_Chi</w>
Mông_ Cổ</w>
v ậy_mà</w>
tr ùng_
dị u</w>
201 0</w>
T ài</w>
t ứ_
o_ sánh</w>
nhà_ máy</w>
chì a_
Ngô_ Tam_
Kh ôi</w>
phụ _thân</w>
qu ãng</w>
hình_ thành</w>
Gi ờ_đây</w>
C ar
kh ái</w>
D uy_
văn_ bản</w>
triều_ đình</w>
giả ng</w>
0 6
d ã</w>
Linh_ San</w>
tr ạm</w>
thế _lực</w>
l ái_
bối_ rối</w>
v ẹn</w>
cung_ kính</w>
Thanh_ Thanh</w>
kho an_
con_ bé</w>
vất_ vả</w>
ng ôi_sao</w>
đáng_ kể</w>
h oài</w>
T ỉnh</w>
r ú</w>
ọ p</w>
v ẫy</w>
tr èo</w>
ngo an</w>
do_ dự</w>
S ử</w>
h àn</w>
b ăng_
tay_ chân</w>
ngh ênh_
ng ập_
biên_ giới</w>
làm_ ăn</w>
Đặc_ biệt</w>
Đo ạt</w>
hoả ng_h
_tr ánh</w>
Kh uyết</w>
tr uyện</w>
giải_ thưởng</w>
v ang_
t ĩnh_
chung_ quanh</w>
S a
ẹ n_
c ổ
tiêu_ dùng</w>
sự_ nghiệp</w>
Mộ_Dung_ Phục</w>
Ô ng_
m on</w>
lúng_ túng</w>
th ổ</w>
hà ng_h
trung_ bình</w>
trước_ kia</w>
Thiếu_ nữ</w>
địa_ vị</w>
x ứng_
B ao</w>
ra_ hiệu</w>
k iêu_
Vũ_Văn_ Hàn</w>
K ati
Tr ái_
ó p_
né _tránh</w>
ý_ muốn</w>
Tr ầm_
Gi ấy_
đ ậy</w>
19 7
ủ i_
thủ _tục</w>
kỳ_d ị</w>
c o_
tướng_ công</w>
o g
m ạ</w>
cảm_ kích</w>
b áu</w>
rối_ loạn</w>
nh ạc_
g ần_
cá n</w>
bu ôn_
ích_th ú</w>
v ăng</w>
cải_ thiện</w>
K iến</w>
tất_ phải</w>
liên_ hệ</w>
Kh ôn</w>
bản_l ĩnh</w>
H L
r ách</w>
Á nh_
T C
tr ễ</w>
t ông</w>
m en</w>
_t ài</w>
nhận_ định</w>
b én</w>
T ĩnh_
l ụa</w>
Le agu
nhanh_nh ẹn</w>
b ần_
t ấp</w>
Kh anh</w>
X ương</w>
tr ực</w>
K ế</w>
ụ n</w>
độ t</w>
ăn_ mặc</w>
Ch iến_
l iều</w>
Đ ạt</w>
xưa_ nay</w>
s ốc</w>
thế _hệ</w>
Gi a</w>
Do_ đó</w>
th ích_thú</w>
Kỷ_ Thiên_
Kho a</w>
Hu ỳnh_
ph ải_
c ạnh_
Thiên_ Phong</w>
thanh_ tra</w>
ngay_ lập_tức</w>
l iều_
k ế_
c ải</w>
Lệnh_ Hồ_Xung_
đề n</w>
C át_
tốt_ đẹp</w>
Uy ển_
Kati e</w>
Công_ tử</w>
tu ân</w>
New s</w>
Lý_ Uyên</w>
tín_ dụng</w>
ụ t_
lã m</w>
cá o_
can_ thiệp</w>
báo_ thù</w>
3 /2012</w>
Dược_ Sư</w>
đ ả</w>
t ỷ_
n_t ính</w>
Ale x
t ải</w>
quy ến_
nh ãn</w>
Ph ái</w>
k g</w>
bí_ ẩn</w>
hàng_ loạt</w>
ó m_
đ ắp</w>
ê _h
ợ p_
nhập_ khẩu</w>
H ỏa_
tr ụ</w>
nh ắn</w>
th ận</w>
bo ok</w>
thần_ bí</w>
ac e
Thu ần</w>
v án</w>
tiết_ kiệm</w>
khác_ biệt</w>
qu ỹ</w>
hiện_t ượng</w>
dáng_ vẻ</w>
cách_ mạng</w>
Ph ần</w>
Ngô_Tam_ Quế</w>
ch ằm_
c ấu</w>
s e</w>
l ẻ</w>
l ăng</w>
gặp_ mặt</w>
am_ mê</w>
15 -
đại_ biểu</w>
ng ục</w>
chằm_ ch
nh ọc</w>
h ùng_
M al
h ái</w>
chất_ độc</w>
C Đ</w>
B iết</w>
kho á</w>
kh áng</w>
c e</w>
B ữa</w>
trình_ độ</w>
mẹ_ con</w>
hoài_ nghi</w>
thị_ vệ</w>
công_ nhân</w>
Vi deo</w>
tam in</w>
Lý_ Mật</w>
C ần</w>
d u</w>
ch ữ_
b ột</w>
Lạc_ Hi</w>
n ầy</w>
H ừ</w>
đ ứng_
nh uận</w>
ng ón_
Hiện_ nay</w>
mau_ lẹ</w>
h ệt</w>
Lu ân</w>
th ói_quen</w>
l ai_
nh ánh</w>
b ại_
3 6
đồng_ chí</w>
đ è</w>
m ì</w>
kêu_ gọi</w>
iện_th iếp</w>
C ung_
ả_ lại</w>
b ất</w>
l i</w>
đ ẹp_
hiểu_ biết</w>
tương_ đương</w>
n ương_
Ch iều</w>
ận_ trọng</w>
A i_
ý _tưởng</w>
thế_ gian</w>
phá _
kỳ_ quái</w>
lạnh_l ẽo</w>
dữ_d ội</w>
T ình</w>
cổ_t ay</w>
ch ủ_tịch</w>
s i</w>
u n
sử a_
s ốt_
m e</w>
chẳng_ thể</w>
B ởi</w>
th ích_
k o</w>
h ủy</w>
ph ào</w>
_h ào</w>
uống_ chi</w>
không_ ngớt</w>
Đ ường_
t át</w>
c lip</w>
H uynh</w>
e lo
đ ình_
tự_ nhủ</w>
ẫn_n ộ</w>
đ âu_
Đ iện_thoại</w>
kho ăn</w>
b ầy</w>
b an
K a
ượ t_
Ð ồng</w>
x ế</w>
tr ừng</w>
Ng uyệt_
L ập_
Tập_ đoàn</w>
òi_ hỏi</w>
Thu ận</w>
công_ khai</w>
biểu_ hiện</w>
Q uyền</w>
mã nh</w>
gặp_ gỡ</w>
TH C
T ay</w>
M y</w>
xứng_ đáng</w>
tổ _hợp</w>
l ôi_
đại_ sảnh</w>
kiế m_
Th ường_
ệ _hạ</w>
x ương_
Ph ủ</w>
M ày</w>
v áy</w>
m anh</w>
quan_ tài</w>
h ồng_
Nh i_
thí ch_hợp</w>
r ộ</w>
kho át</w>
c ô
V TC</w>
K ể</w>
đắc_ ý</w>
âm_ mưu</w>
th ận_trọng</w>
ph ối</w>
nhấn_ mạnh</w>
dư _luận</w>
cao_ cấp</w>
_m ạnh</w>
phổ_ biến</w>
ph ó
b ẫy</w>
lo_ ngại</w>
k iềm_
gi ở</w>
Tư_ Mã_
đ òi_hỏi</w>
F on
ăn_ khoăn</w>
Ð inh</w>
b ỏ
đ ả
2 7</w>
M ạnh</w>
V u_
C ô
xu_ hướng</w>
hội_ nghị</w>
Thị _trường</w>
Qu ý</w>
chú c_
ch ẳ
ph ủ_
le y</w>
c ục_
T uyệt_
Nh ờ</w>
quá_ khứ</w>
h iếu_
ch ôn</w>
ư _h
thi_ lễ</w>
th ản</w>
V ĩnh</w>
T S</w>
tư _tưởng</w>
d i</w>
_ho àng</w>
D ật_
ò_m ò</w>
nh ăn_
kh át</w>
Th ậm_chí</w>
t uy_nhiên</w>
L ý
G ad
ă n_t
n an</w>
d ời</w>
Qu ỳnh</w>
Ph ụ
n_th ể</w>
ch án</w>
B í
Kh uyến_
iễ u_
h ỏng</w>
dự_ kiến</w>
ca_ sĩ</w>
xa_ x
B ài</w>
ph un</w>
ấm_ áp</w>
bà_ con</w>
Làm_ sao</w>
tr ợ_
sâu_ sắc</w>
xác_ nhận</w>
thời_ trang</w>
ng_h ạn</w>
một_ nửa</w>
Kh ổng_
khoảng_ cách</w>
h ải</w>
trò_ chuyện</w>
thúc_ đẩy</w>
kiềm_ chế</w>
H ọc</w>
nh ấc</w>
tí m</w>
m ưa_
thân_ thiết</w>
o an</w>
g ào</w>
_d ạng</w>
Hoa_ Thiên_
x ao</w>
n ồng_
công_ chức</w>
th ối</w>
nh ắc_
kh iêu_
phát_ huy</w>
n út</w>
h á
H y_
ngu ồn_
c ựu</w>
m ỏ</w>
ch uột</w>
G óp_
chiế m_
c ăng</w>
T ao</w>
H ạc</w>
b á
ưở i</w>
quả _thực</w>
af i</w>
ặ n_
đ iệp</w>
bóng_ đá</w>
HI V</w>
ph ổ</w>
lo_ sợ</w>
_t ắc</w>
Thực_ ra</w>
nghiêm_ túc</w>
Hiện_t ại</w>
đóng_ góp</w>
ng ạo</w>
28 /2</w>
x óa</w>
tr uy</w>
qu ay_
m ép</w>
l ệnh_
k m</w>
Tr ì</w>
O b
An na</w>
gi ương</w>
l ừa_
ng_th ú</w>
Ấn_ Độ</w>
trước_ tiên</w>
x à</w>
Chi_ Hiên</w>
ảng_ phất</w>
tiêu_ diệt</w>
k ìa</w>
do w
chấm_ dứt</w>
VF F</w>
s ôi_
ruộ ng</w>
l ình</w>
HL V</w>
H ồi_
đ âm_
b ăn_khoăn</w>
vật_ chất</w>
p _thể</w>
iện_t ích</w>
hứ ng_thú</w>
Par is</w>
k e
Kho a_
200 9</w>
s ững</w>
Th áp</w>
cầu_ thang</w>
Ng ô</w>
màn_ hình</w>
học_ bổng</w>
g iếng</w>
r ậm</w>
nh ở</w>
m ẻ</w>
m èo</w>
nói_ dối</w>
ho an</w>
_ %</w>
C am
th ép</w>
v é</w>
Li b
Góp_ ý</w>
đánh_ bại</w>
nghĩ_ ngợi</w>
M ao</w>
Ð àm</w>
Cho_ nên</w>
ch ốc_
Thái_ Lan</w>
T ấn_
đồng_ thanh</w>
qu ang_
g õ</w>
xấu_ hổ</w>
N ăm_
C ực</w>
el se
T ối</w>
27 /2</w>
yên_ lặng</w>
nh ậ
n áo_
L ai</w>
so i</w>
t àu_
kh anh_
có c</w>
m ấy_
lái_ xe</w>
l ận</w>
báo_ điện_tử</w>
qu í</w>
Th ục_
sân_ khấu</w>
tr ộn</w>
th am</w>
nhà_ khoa_học</w>
i_ suất</w>
ắc_ rối</w>
Đ ịch</w>
c ủ</w>
L ang_
3 ,
cạnh_ tranh</w>
G ặp</w>
D ường_như</w>
rộng_ rãi</w>
Lý_Xuân_ Hoa</w>
A m
thái_ giám</w>
mẫu_ thân</w>
bao_ vây</w>
Liên_ hệ</w>
đ ẻ</w>
tr e</w>
Th í_
Lý_ Viên</w>
đ ệ_
đ ấm</w>
vô_ địch</w>
k iệu</w>
trọng_th ương</w>
d ạ
ph ảng_phất</w>
ng ây</w>
h ốt_
g ọn</w>
dân_ chúng</w>
Y or
Ph ó_
Đ ương</w>
h é</w>
phóng_ viên</w>
hoảng_ sợ</w>
X ích</w>
A d
er r
t ò_mò</w>
th ắng_
diễn_ viên</w>
chống_ đỡ</w>
cảm_ động</w>
T ưởng</w>
Đ áng</w>
ng ừa</w>
Ph ượng</w>
tâm_ trạng</w>
th ập</w>
nghệ_ sĩ</w>
c ấm_
S V</w>
mộ c</w>
H S</w>
Giấy_ phép</w>
àng_ hoàng</w>
thành_ tích</w>
Mu ội</w>
I tal
Tr iển_
th ong_
r ẩy</w>
trường_ học</w>
d ẹp</w>
Ủ y_
n ướng</w>
khanh_ khách</w>
0 4</w>
S h
ờ_m ờ</w>
thở _
l ơ
H iểu_
phát_ sinh</w>
ng_l ặng</w>
ng ồi_
c õi</w>
Bắc_ Kinh</w>
qua_ lại</w>
r ạp</w>
ngăn_ chặn</w>
bất_ luận</w>
C ầu_
qu ận_
nông_ dân</w>
cuộc_ chiến</w>
k ẻ_
Th úc_
M y
/ 8</w>
co de</w>
thở_ phào</w>
k e</w>
nó c</w>
cầu_ thủ</w>
Văn_ hóa_
_l ễ</w>
Hoa_Thiên_ Hồng</w>
5 3</w>
/ 4</w>
kh ớp</w>
b ế</w>
Thế _thì</w>
Quả_ nhiên</w>
đạo_ đức</w>
tr ạ
không_ trung</w>
Th êm</w>
c ong</w>
Th iền</w>
R iêng</w>
Alex and
m ỡ</w>
d ê</w>
Hình_ như</w>
b é_
đầu_ hàng</w>
k í
g ấp_
19 8
x iết</w>
v ó</w>
r ác</w>
ng ửi</w>
h iền</w>
th ợ</w>
Vừa_ rồi</w>
đ àm_
_h ọc</w>
Đ ám</w>
sát_ hại</w>
M ắt</w>
v er
l ừ
chiêu_ thức</w>
T à_
L iễu_
tiêu_ chuẩn</w>
sinh_ hoạt</w>
ch ặt_
ch ạy_
t ang</w>
M ời</w>
M ới</w>
địa_ điểm</w>
thời_ kỳ</w>
qu ạt</w>
i c</w>
h iến</w>
G P</w>
ch ai</w>
v ỗ
kh anh</w>
C H
tr ừ_
h ễ</w>
Ng u
tư_ vấn</w>
thi_ hành</w>
su ýt</w>
Bình_ Dương</w>
Ð ang</w>
ch ăm</w>
hô _h
h ằng</w>
chẳng_ qua</w>
Mar i
Lib ya</w>
07 -
n ửa_
Tố_ Tố</w>
vu ông</w>
khó _lòng</w>
chân_ tay</w>
5 5</w>
vỗ _tay</w>
th ự</w>
đ am_mê</w>
v ú</w>
uộ t_
H iệu_
động_t ác</w>
o ai_
f or
T ừ_
H ợp_
Ð ào_
kh iếp_
d iện_tích</w>
bề_ ngoài</w>
t ủ</w>
một_ phen</w>
O sc
10 50</w>
thủ_ pháp</w>
b ể</w>
Ng ôn</w>
í m</w>
tổng_ số</w>
lã i_suất</w>
TT TT</w>
K ý</w>
tiến_ sĩ</w>
g ầy</w>
chân_ nhân</w>
B er
ý _thức</w>
tươi_ cười</w>
V al
ý t_
o r</w>
nhà_th ờ</w>
m ò</w>
đích_th ân</w>
đ iềm_
ph ật</w>
m 2</w>
b ái_
_d ĩ</w>
Ch úc</w>
thay_ vì</w>
ace book</w>
F ran
B TTTT</w>
v en</w>
hoảng_h ốt</w>
Tuyết_ Kiều</w>
Đ áp_
nh ọn</w>
kh ẩu_
ng ả</w>
l ang_
th ăng</w>
h ớ
biết_ bao_nhiêu</w>
_B ack</w>
Uni code</w>
07- 2008</w>
ho à</w>
d uy</w>
Vương_ Thế_Sung</w>
Fon t</w>
Đ ơn</w>
ã nh</w>
|_ Nhịp</w>
|_ Giáo_dục</w>
run_ rẩy</w>
quảng_ cáo</w>
châu_ Á</w>
[ _Back</w>
Văn_hóa_ |</w>
Interne t_số</w>
15- 07-2008</w>
trạ ng_thái</w>
giới_ hạn</w>
d ương_
|_ Xã_hội</w>
|_ Văn_hóa_|</w>
|_ Thế_giới</w>
|_ Nhân_ái</w>
s ắm</w>
r ét</w>
n ạ</w>
t à_
mô _hình</w>
miễn_ phí</w>
Th ì</w>
T iếp</w>
yên_t ĩnh</w>
một_ trăm</w>
W in
t ết</w>
t iền_t
Qu ả</w>
ù a_
Thúy_ Sơn</w>
Cái_ Bang</w>
thuận_ lợi</w>
d ò
giả m_
H uy_
l ầm_
ho ạn</w>
C ơ
h uyền_
Ð ức</w>
l ò</w>
coi_ thường</w>
La_ Sát</w>
gi á
b ồi</w>
N ào</w>
Đ ồ_
thi_ đấu</w>
l ê</w>
biểu_ tình</w>
tới_ nơi</w>
th ề
góp_ phần</w>
đồ_ đệ</w>
00 0_
ă n_th
â y_th
ph àm</w>
ngo an_
ng ắt</w>
d ội</w>
gh ép</w>
cưỡng_ chế</w>
công_ nhận</w>
G S</w>
vận_ chuyển</w>
vi tamin</w>
v oi</w>
ng ưỡng_
k ín_
M_ GMT7
B ởi_vì</w>
xo a</w>
l a_
th i
qu ấn</w>
d u
C ầm</w>
Đị a</w>
y_th ủ</w>
trí _t
cướ p_
X e</w>
giải_ trí</w>
ph ẫn_nộ</w>
lợi_ nhuận</w>
cao_ minh</w>
t ố_
nh o_
_h ở</w>
B ức</w>
huy_ động</w>
đ inh</w>
_h ơi</w>
T ới</w>
Qu ản</w>
Ch ấn_
miễn_ cưỡng</w>
x ót</w>
th ờ</w>
diễn_ biến</w>
đường_ phố</w>
g ạch</w>
an ne</w>
_h ỏi</w>
0 1</w>
Quân_ Bình</w>
ượ m</w>
trầm_ trọng</w>
biết_ bao</w>
Sy ria</w>
bắt_ buộc</w>
S N</w>
bất_ động</w>
đ ỉnh_
tr áng</w>
th ắc_
Ch else
ủ ng</w>
s o_sánh</w>
n ắp</w>
xo ay_
1_ .</w>
o l</w>
B ái</w>
t úy</w>
_t ạo</w>
L ịch_
Ch iến</w>
kh âm_
Hoà i_
đ an</w>
v ứt</w>
Khuyến_ học</w>
New_ Yor
k ề</w>
khỏ e
b ội_
Kh úc</w>
đỏ_ mặt</w>
minh_ bạch</w>
h àm</w>
H ứa_
tr út</w>
V ad
t ân</w>
Leagu e</w>
Ch úa_
g ắt</w>
Tu ân</w>
Ho us
n ối_
c ùng_
_h iếp</w>
Tr ưởng_
ệ n</w>
ương_ nhiên</w>
quy _hoạch</w>
C ảnh</w>
vụ_ án</w>
bày_ tỏ</w>
A s
th iểu</w>
sơ _hở</w>
nhậ n_thức</w>
tậ p_thể</w>
m ail</w>
th ử
phương_ án</w>
l iễu</w>
võ_ sĩ</w>
ch ánh</w>
tr ưng</w>
công_ bằng</w>
_tr ương</w>
ê _t
l úa</w>
B át_
3 5</w>
Hư_ Trúc</w>
ổ_th ông</w>
h ông</w>
màu_ sắc</w>
R a
thông_ thường</w>
r ượt</w>
người_ đẹp</w>
hành_ trình</w>
em_ gái</w>
t ắc</w>
mu a_
lưu_ ý</w>
v ác</w>
th an_
n_t âm</w>
co m</w>
ngày_ xưa</w>
Tiểu_H oàn</w>
Danh_ sách</w>
trình_ diễn</w>
m iên</w>
_d iện</w>
ưu_ điện</w>
buôn_ bán</w>
b iên</w>
dặ n_
Trời_ ơi</w>
thần_ công</w>
M ay_
è n_
nhú n_
hu ấn_
V ẫn</w>
Khang_ Hy</w>
quy_ mô</w>
hồi_ phục</w>
THC S</w>
L iêu</w>
m_t ỉm</w>
trình_ bày</w>
quyến_ rũ</w>
thắc_ mắc</w>
or e</w>
lẽ_ nào</w>
phong_ cách</w>
nói_ nhỏ</w>
c au_mày</w>
T iền_
B ác_sĩ</w>
tự _hào</w>
ch ọi</w>
Vad im</w>
đáp_ án</w>
Ð ây</w>
tủ m_tỉm</w>
tiến_ bộ</w>
hạ _thủ</w>
T ỷ</w>
r a_đời</w>
t ề</w>
ng a</w>
N ói_
0, 000</w>
th ám_
i_ Bạch</w>
tử _tế</w>
Ă n</w>
t ú</w>
ng ọt_
mở_ mắt</w>
Har ry</w>
phản_ ánh</w>
nh ốt</w>
k iều</w>
hình_ dung</w>
gi ờ_
_l ang</w>
Đ ấy</w>
ng ân</w>
ch ẽ</w>
C i
Ph one</w>
/0 3/2012</w>
Đ ao</w>
thì _thầm</w>
bu ồm</w>
Đ iều_
d án</w>
Th i_
đ o</w>
v ặn</w>
tính_ cách</w>
phần_ mềm</w>
ph ắt</w>
công_ dân</w>
ca_ ca</w>
xuất_ thủ</w>
Osc ar</w>
s uy</w>
_th i</w>
Du_ học</w>
h ài</w>
t ái</w>
qu anh_
Chí_ Minh</w>
k ệ</w>
0 .000</w>
đề_ cập</w>
h ơi_
tho át_
th à</w>
r ỉ</w>
d ưng</w>
ad ri
A_ Châu</w>
g ắn_
Gia_ Kỳ</w>
sinh_ tử</w>
h ưng_
c ương_
bảo_ dạ</w>
Jo ng-
Địch_ Vân</w>
s ĩ_
khôi_ phục</w>
hạ_ sát</w>
V iễn</w>
H ân</w>
bước_ đi</w>
l ót</w>
m óng</w>
in a</w>
ụ p_
ph ỏng_
n es
l ặn</w>
kho m</w>
chặt_ chẽ</w>
bụng_ bảo_dạ</w>
đội_ ngũ</w>
v e_
th ổ
Nhất_ Tiên</w>
hy_ sinh</w>
cao_ lớn</w>
M ặt</w>
Kh ắc</w>
d ã
trả _thù</w>
s ầm</w>
khẩn_ trương</w>
Ph u_nhân</w>
/ 7</w>
v ạch</w>
th ăng_
nh u</w>
Th úc</w>
Võ_ công</w>
V àng</w>
D u
ẻ n</w>
ươ m</w>
m e
kho ẻ</w>
L ệ_
Dương_ Thu</w>
/1 2
s en</w>
khí _thế</w>
A ng
v ắng_
thiền_ sư</w>
rung_ động</w>
S er
ẫ y_
ng ần_
chằm_ch ằm</w>
Tiế p_theo</w>
Hồ_ Chí_Minh</w>
l ệch</w>
Kh ánh_
ỡ n</w>
kích_th ích</w>
Thế_ mà</w>
mã i_
a d</w>
Ph ủ_
tối_ đa</w>
o ạn</w>
l uyệ
khỏe _mạnh</w>
khác_ thường</w>
bất_ quá</w>
Th ác</w>
có_ khi</w>
C ụ_thể</w>
hảo_ hán</w>
So ph
tá n_th
ph áo</w>
ngh ị
Th ổ_t
tu ôn</w>
s anh</w>
nhỏ_ bé</w>
cảnh_ báo</w>
Tất_ nhiên</w>
ph ê_
hoà _
ảng_ viên</w>
s ạch_
đả _thương</w>
qu án_
phát_ biểu</w>
mặt_ nạ</w>
m ắc_
G ames</w>
B ởi_
mở _miệng</w>
cơ _hồ</w>
B ạt</w>
đối_ xử</w>
tha_ thứ</w>
4 8
hoàng_ đế</w>
Bá_ Quang</w>
điểm_ huyệt</w>
s en
on al
d uyên_
ngôn_ ngữ</w>
Ch ợt</w>
đ ếm</w>
Nh ư
nhà _hàng</w>
h iếu</w>
Tư_ Hãn</w>
thình_ lình</w>
phát_ hành</w>
năm_ ngoái</w>
ng ước</w>
kh ơi</w>
củ i</w>
Ob ama</w>
J u
chỉ _tr
ẫm_ nghĩ</w>
chủ _trương</w>
Nh ớ</w>
Kết_ quả</w>
H án_
âm_ nhạc</w>
Nhân_ tài</w>
Gi ới</w>
nh o</w>
al l</w>
r ập</w>
tự_ động</w>
l ùn</w>
a z
B uổi</w>
t ấc</w>
năm_ học</w>
T uy_
L on
thương_ yêu</w>
qu ấy_
chu ỗi</w>
ac k
tho ại</w>
th áp</w>
kh ép</w>
T ứ_
quái_ dị</w>
Ch úc_
Đạo_ Huyền</w>
r ợn</w>
con_ cái</w>
ử a_đ
tr ẫm</w>
t ửu</w>
nà o_
ngh ỉ
h ư_
rộng_ lớn</w>
người_ bệnh</w>
Ð ại</w>
Ð inh_
mặt_ mày</w>
h i</w>
0 5
ủi_ ro</w>
ọ _
s áo</w>
tr âu</w>
thu ở</w>
gi àu_
đ ẫm</w>
r ắc_rối</w>
đấu_ tranh</w>
ngập_ ngừng</w>
truyền_th ụ</w>
t ù_
Tham_ gia</w>
3 1
gian_ lận</w>
b ắp</w>
b ù</w>
H ứa</w>
B ảy</w>
tr ắc_
tr í_
n am
d ày_
Ứ ng_
v ĩ_
trang_ bị</w>
tranh_ cãi</w>
Tiên_ Lãng</w>
S ẽ</w>
B e
ướ t_
ã o_
th ảy</w>
Th ừa</w>
S iêu_
tôn_ giáo</w>
gi á_
787 9</w>
tiểu_ học</w>
l ung_
có _lý</w>
đệ_ nhất</w>
nhắc_ nhở</w>
do_ đó</w>
D iệp_
nh úc_
n -
c k
r ầu</w>
nói_ năng</w>
Lý_ Băng</w>
Ð úng</w>
Nh óm</w>
Chelse a</w>
3 8</w>
00 ,000</w>
tr á</w>
nhúc_ nhích</w>
kh en_
c ôn</w>
ngày_ đêm</w>
co m
cam_ kết</w>
bu ồng</w>
ph iến</w>
kh iêm_
T uyên_
Đại_ ca</w>
ê_h ương</w>
khoa_ học_
N i
L iệu</w>
động_ viên</w>
hã m</w>
chân_ thành</w>
thế_ mà</w>
cử_ chỉ</w>
t r</w>
ch inh_
Dự_ án</w>
ộ n_
t ín</w>
ngân_ sách</w>
M ạc_
xo áy</w>
th ắp</w>
l iệng</w>
Thanh_ Hóa</w>
Đ inh</w>
Ph ú</w>
Ng ưu</w>
ồn_ ào</w>
tư _thế</w>
o áng</w>
ng uyệt</w>
J e
t ùy_
Vì_ sao</w>
H uyết_
Gi a_đình</w>
Ð ông</w>
thiên_ nhiên</w>
s ách_
l ị
ch ưa_
Đ ề_
vô _hình</w>
người_ lớn</w>
F acebook</w>
đ ắt</w>
á ch_thức</w>
trị_ giá</w>
ng ây_
l an_
k ỵ_
cho àng</w>
rùng_ mình</w>
ph iệt</w>
ng ẫm_nghĩ</w>
lâu_ dài</w>
lai_ lịch</w>
Th iệu</w>
trang_ phục</w>
là nh_
d ị_
c ẩn</w>
Tr ận</w>
nhà_ vua</w>
r òng</w>
V ấn_đề</w>
n ến</w>
D uy</w>
g an_
R a</w>
K ính</w>
Ch ương_trình</w>
s út</w>
g as</w>
Tôn_ Quách</w>
Kim_ Hoa</w>
ải_ nghiệm</w>
o o
Tr í_
N ô</w>
Is ra
kiến_ trúc</w>
C ận_
ượng_ phu</w>
tôn_ trọng</w>
Không_ thể</w>
ũ a</w>
số_ phận</w>
n ỡ</w>
T ín_
3 8
ô n_t
f f
kh ung</w>
hồ_ đồ</w>
h ò</w>
b á_
uy _hiếp</w>
th ạ
nghĩ_ lại</w>
n_th ờ</w>
d òng_
c elo
Ch ỗ</w>
tính_ tình</w>
ngoại_ giao</w>
một_ khi</w>
Ch ứng_
địa_ chỉ</w>
ê -
r ủi_ro</w>
nh ổ</w>
Ng ao</w>
g ằn</w>
Thanh_ Tuyền</w>
C ôn_
t ôm</w>
cả n_
M is
ph úc_
mặt_ nước</w>
kh ôn</w>
Nghi_ Lâm</w>
3 6</w>
0 8</w>
chiến_ trường</w>
Phát_ hiện</w>
Ngu ồn</w>
0 4
thong_ thả</w>
th uyền_
g áy</w>
đôi_ khi</w>
ng ẩn_
mỹ _nữ</w>
mã_ đề</w>
kỹ_ năng</w>
chốc_ lát</w>
Phải_ rồi</w>
h ạm</w>
tương_ đối</w>
th ấp_th
Ital ia</w>
người_ nhà</w>
ngo n_
N a</w>
2 9</w>
ưởng_th ức</w>
tr u
m ạ
hàng_h óa</w>
c am</w>
b ẩn</w>
g ây_
Quảng_ cáo</w>
đ u
tr ượt</w>
h ù
g ợi_
Ng ã</w>
thảo_ luận</w>
l ấp</w>
k ênh</w>
Y_ Lam</w>
GM T</w>
ớ m_
th ứ
mười_ lăm</w>
b ùn</w>
S ự
L ấy</w>
xuất_ bản</w>
ph ổ_thông</w>
cá m_
chuyên_ môn</w>
X i
mãi_ mãi</w>
bất_ thường</w>
ban_ ngày</w>
3 _
N ếu_
hỗn_ loạn</w>
m ênh_
cảnh_ giác</w>
ử i_
bình_ thản</w>
Soph ie</w>
t ân_
o ai</w>
m áu_
thị nh_
i ng</w>
b ệ_hạ</w>
T ốt</w>
S t
đau_ lòng</w>
n_t in</w>
ch ộp</w>
Học_ viện</w>
v ụn</w>
d ư</w>
chỉ_tr ích</w>
tr ấn_
th er
s ét</w>
k ẽ</w>
cổ_ phần</w>
cơ_ quan_
Sơn_ La</w>
th ấu</w>
m àng</w>
k ích_
in i</w>
N _
M ỗ</w>
khen_ ngợi</w>
W hi
Đ iện_
nh ô</w>
kh iêng</w>
SE A_
3 4</w>
tưởng_ chừng</w>
b ị_
Xuân_ Thu</w>
Kh u</w>
D i
trung_ thành</w>
l óe</w>
đối_ đầu</w>
tr ượng_phu</w>
Pa u
Gia_ gia</w>
C àng</w>
phục_ hồi</w>
nhà_ ngươi</w>
nh ai</w>
n o</w>
en ni
bảo_ hiểm</w>
adri d</w>
/ 6</w>
tu ân_
đ ắng</w>
thê _th
M ay</w>
A_ Kha</w>
sức_ lực</w>
ng oài_
Phụng_ Tam</w>
Th ống_
Ch ẳng_
th ắt</w>
h ú</w>
dẫn_ đầu</w>
ru s</w>
ra_ chiều</w>
qu ê_hương</w>
h iền_đệ</w>
Qu y</w>
Ng ồi</w>
B ột</w>
Đột_ Lợi</w>
tiếp_ nhận</w>
r ộn</w>
khu ẩn</w>
Hầu_H i_Bạch</w>
C àn_
C an
t áng</w>
ngh iệt</w>
a h
Ch ỉ
âu_ thuẫn</w>
mu ôn</w>
độc_ đáo</w>
ngọt_ ngào</w>
Th ổ</w>
tỉnh_ táo</w>
Thanh_ tra</w>
thủ_ đô</w>
kh uyên_
gia_ nhập</w>
Thông_ tin</w>
SEA_ Games</w>
v à_
ng uyện_
một_ ít</w>
Thổ_t i</w>
đ ơ
tự_ chủ</w>
sang_ trọng</w>
chưa_ thể</w>
Thẩm_ Mộc_Phong</w>
gi à_
danh_ tiếng</w>
Cổ_ phần</w>
s ỏi</w>
phần_ nào</w>
phản_ kích</w>
Câu_ chuyện</w>
trí_t uệ</w>
le s</w>
b uốt</w>
Ki hô
ê _d
Hiểu_ Phong</w>
triệu_ chứng</w>
nhận_ lời</w>
nh ũng</w>
âm_ thầm</w>
ng_th ầm</w>
h ố</w>
Kim_ Jong-
Ủy_ ban</w>
Qu ái</w>
đ ằng_
Đ iền_
tiểu_ Bàn</w>
phiên_ bản</w>
_t ất</w>
Đ ứng</w>
tuyệt_ vọng</w>
sân_ bay</w>
Tr ạch</w>
ò n_
luyệ n_tập</w>
giải_ phóng</w>
Đ ề</w>
tạp_ chí</w>
r ồi_
khẩn_ cấp</w>
dấu_ vết</w>
ót_ xa</w>
t ít</w>
V I
0 9</w>
Ð ằng</w>
lâu_ nay</w>
khâm_ phục</w>
khuyến_ khích</w>
hồi_ hộp</w>
cả ng</w>
b ùng</w>
yếu_ ớt</w>
tiêu_ biểu</w>
L ập</w>
lông_ mày</w>
Lê_ Văn_
L òng</w>
đ ậm</w>
nh ượng</w>
k iệt_
Cu ồng</w>
th ưởng_thức</w>
cảnh_ tượng</w>
T u_
L iêm</w>
Alexand ra</w>
3 5
t -
lớ p_
New_Yor k</w>
M at
Thái_ Hậu</w>
B ấy_
vô_ ích</w>
toàn_ diện</w>
Th ùy_
Isra el</w>
đe_d ọa</w>
đa_ số</w>
xa_ xa</w>
r ủ</w>
nam_ nhân</w>
m ảng</w>
gó c_
Q uyết_
Kh ai_
tr ợ
ph ò
D i</w>
l ắp_
ch en</w>
T ag
k iêm</w>
Ð ó</w>
t ọa</w>
như_ là</w>
Tr ần</w>
đ úc</w>
tâm_ trí</w>
tr ọn</w>
phát_ động</w>
kh iếu</w>
dễ_ chịu</w>
Th ượng</w>
phải_ chăng</w>
m ồi</w>
nam_ nữ</w>
ghi_ nhận</w>
ch ê</w>
s ầu</w>
Tr ưởng</w>
K e
Đài_ Loan</w>
giây_ phút</w>
Ngh ị</w>
Đ ội</w>
ô -
9 9
th ống</w>
th ư
P V</w>
mu ôn_
Lâm_ Hồng</w>
qu i_
hốt_ hoảng</w>
ch im_
d ù_sao</w>
V iện_
trời_ đất</w>
_t ải</w>
0 8
ú p_
thực_ lực</w>
t ịnh</w>
nhiễ m_
Tiểu_ Bạch</w>
Kho ảng</w>
Ma_ giáo</w>
kh éo_
độc_ lập</w>
Si ng
ng àn_
danh_ hiệu</w>
_th ích</w>
Ng ờ_đâu</w>
th ách_thức</w>
l l
cổ_ quái</w>
19 6
x í</w>
t ương</w>
o án_
T iết</w>
i u</w>
U _
Ar sen
đất_ đai</w>
theo_ đuổi</w>
kh úc_
k o
g ũi</w>
cao_ điểm</w>
R õ_ràng</w>
đ ao_
thảm_ khốc</w>
t ăm</w>
b ộc</w>
s u</w>
r ùa</w>
l ạm_
h ối</w>
Kh ương</w>
Giáo_ sư</w>
w a</w>
tình_ cảnh</w>
ph u_
n ản</w>
gi ấc_
bộ_ mặt</w>
s ôi</w>
l ách</w>
khổ_ sở</w>
hiểu_ lầm</w>
Win dow
ỡ i</w>
s ấm</w>
b ận_
Lon don</w>
s ưu_
Lạc_ Nhạn</w>
s ập</w>
r au_
nh è_
celo na</w>
Quốc_ tế</w>
t ấu</w>
h ẻ
bốn_ mươi</w>
4 00</w>
l en</w>
v ò</w>
hành_ chính</w>
C L
._ Trong</w>
ông_ bà</w>
thư_ viện</w>
hiệp_ sĩ</w>
C an</w>
uy_t ín</w>
i -
Thông_ báo</w>
C ẩm_
lý _tưởng</w>
kỷ_l uật</w>
k ì</w>
Diễ m</w>
24 /2</w>
trung_ niên</w>
thuốc_ lá</w>
hung_ thủ</w>
d ẫu</w>
Trung_ Tà</w>
Tr ông</w>
ẳ ng_lặng</w>
ận_t ải</w>
ro s
l ỏng</w>
20 20</w>
vận_ dụng</w>
tại_ chỗ</w>
b ạt</w>
S _
xuất_ phát</w>
sống_ chết</w>
gần_ gũi</w>
cảnh_ giới</w>
vĩ_ đại</w>
bình_ yên</w>
Whi t
C ừu</w>
4 ,
thu_ thập</w>
B ước</w>
Đ ôn_
ú m_
x ử_
v âng_
k ia_
ầm_ non</w>
v ạn_
chủ_ đề</w>
tràn_ đầy</w>
nhè_ nhẹ</w>
_h ạn</w>
khó c_
chỉ_ số</w>
b át_
C lip</w>
ch í
thừa_ cơ</w>
t iện_thiếp</w>
Lịch_ sử</w>
Đ ệ</w>
tr ật_
sống_ sót</w>
phá i_
kỷ_l ục</w>
Th ứ
3 3</w>
Đột_ Quyết</w>
Bí _thư</w>
Ý _
Ð ằng_
c òi</w>
T B
C ẩu</w>
x íu</w>
n ảy_
D iêm_
n_đ oán</w>
h ủy_
biết_ đâu</w>
_h ành</w>
Tr ình_
T ịch</w>
tự u</w>
tiền_ bạc</w>
r è
khí_ giới</w>
tế_ bào</w>
th ấm</w>
quản_ trị</w>
cô_ đơn</w>
Th iệu_
T ìm</w>
Khấu_Tr ọ
h ân_
dữ _liệu</w>
ch ật_
c ôi</w>
L ã_
đồng_ tiền</w>
v ặt</w>
N am
m âu_thuẫn</w>
li v
ban_ hành</w>
_h iệu</w>
đi_ nữa</w>
Tr ầm</w>
Nhà_ sư</w>
ì u</w>
kín_ đáo</w>
V ậy_mà</w>
h ò
b ùng_
V ãn</w>
Thiếu_ niên</w>
ửa_đ êm</w>
đ êm_
giải_ cứu</w>
Tiểu_ tử</w>
T V
o an_
huấn_ luyện</w>
M on
M C</w>
D ã</w>
đ en_
h ồn_
tập_ đoàn</w>
ngoại_ trừ</w>
chu_ đáo</w>
c ần_
bu ôn</w>
b ạc_
G u
đại_ thần</w>
l ội</w>
_th uyết</w>
Kihô tê</w>
qu ỉ</w>
Đ ương_nhiên</w>
run_ run</w>
phương_ thức</w>
ch ồn</w>
Arsen al</w>
ượ ng_th
tr ân_
mất_ tích</w>
l ồng_
bó p</w>
au_ cùng</w>
_th uộc</w>
M U</w>
Ð ịnh_
t ơ</w>
cản_ trở</w>
T ịnh</w>
độc_ ác</w>
ỏ m</w>
sự _thực</w>
S uốt</w>
M á</w>
nh ét</w>
n ang</w>
_m ạng</w>
, _
ưu_ tiên</w>
thời_ đại</w>
phạm_ vi</w>
Gi áng_
thật_ ra</w>
Tiểu_ San</w>
Ph iên</w>
B ưu_điện</w>
l éo</w>
Âu_ Thần</w>
nh ãn_
n ếp</w>
m ơ_
Tiểu_ nhân</w>
S au_này</w>
đ ọng</w>
vui_ lòng</w>
tàn_ nhẫn</w>
ng ất_
gi eo</w>
biểu_ tượng</w>
m ắt_
tr o</w>
th iền</w>
lịch_ sự</w>
bài_ học</w>
Tr ấn</w>
Hoa_ Kỳ</w>
tổ ng_thống</w>
s uy_t
nu ôi_
hi_ vọng</w>
en a</w>
o ái</w>
n_l uyện</w>
k ẹt</w>
i d</w>
T ác_
thần_ kinh</w>
sạch_ sẽ</w>
r ể</w>
n_ hở</w>
mềm_ mại</w>
khủng_ bố</w>
ch ua</w>
_h ọng</w>
D ù_sao</w>
kh ung_
ch ạp</w>
ch e
H àng_
thời_ khắc</w>
sắc_ bén</w>
s t
h ổng</w>
d ọa</w>
y o
v ía</w>
c ối</w>
bằng_ lòng</w>
] _
liều_ mạng</w>
Hà_ Tĩnh</w>
ăn_ nói</w>
ly mp
hớ n_hở</w>
ch _t
thẳ ng_th
đổi_ mới</w>
ch èo</w>
In de
thăm_ dò</w>
t ả
h iện_th
giàu_ có</w>
X ây_dựng</w>
r ụng</w>
n âng_
l ượn</w>
buồn_ rầu</w>
b ãi_
v ạt</w>
ng_l ẫy</w>
kết_ nối</w>
ban k</w>
C ầm_
ngh ị_
ng ời</w>
Thí_ sinh</w>
Hư_ Ngạn</w>
y_ như</w>
vi deo</w>
ngo ãn</w>
lên_ ngôi</w>
b ền_
Th ụy_
tr iệt_
nhiệt_ độ</w>
đạo_ sĩ</w>
nhỏ _t
lương_ thực</w>
kh ối_
N ạn</w>
ì _h
n áo</w>
sứ_ giả</w>
nguyện_ vọng</w>
cơ_ chế</w>
b ay_
Nh ĩ</w>
L iệt</w>
thủ _l
thề m</w>
lo_ âu</w>
d àn</w>
b úa</w>
O lymp
Đ ạt_
Ð ông_
tho ái_
mê _m
chế _tạo</w>
trưởng_ thành</w>
n ằm_
mơ _hồ</w>
7 _
Ðằng_ Dực</w>
võ_ nghệ</w>
rè n_luyện</w>
H ảo</w>
p h</w>
nữ _tử</w>
hoàn_th iện</w>
h âm_
chuyên_ nghiệp</w>
c ửu</w>
v uốt_
giấc_ ngủ</w>
H ữu</w>
s uy
ngoan_ ngoãn</w>
Ph úc_
đ ục</w>
v ù</w>
ng er</w>
kiên_ quyết</w>
khí _h
__ _
Whit ne
Pe ter</w>
O anh</w>
sai_ phạm</w>
ch_l iệt</w>
T .
Gi ó</w>
o c
kị ch_liệt</w>
biệt_ thự</w>
đè n_
y ến</w>
kh âu</w>
Tôn_ Ân</w>
_l a</w>
Tô lic</w>
Ph a</w>
cười_ cười</w>
X an
L ê</w>
D a
đ ói_
_t âm</w>
bắt_ tay</w>
S ư
Go og
uy _lực</w>
truyền_th ông</w>
nóng_ nảy</w>
ọ a_
hành_ tinh</w>
tín_ hiệu</w>
trò_ chơi</w>
ph o
cố _tình</w>
Th ức</w>
r èm</w>
ngưỡng_ mộ</w>
hiệu_ trưởng</w>
Mộ t_
L ư</w>
784 1</w>
ở m</w>
tr ẻ
C àn</w>
B ản_
động_t ĩnh</w>
Đáp_ án</w>
trực_ tuyến</w>
ng ô</w>
độc_ giả</w>
sáng_ rực</w>
m ịch</w>
M ạnh_
H ậu_
đắc_ tội</w>
đ úng_
th ẹn</w>
n ốt</w>
lu ân</w>
gi ang</w>
bất_ chấp</w>
M ông</w>
đ ạc</w>
chế_ biến</w>
Ð ược</w>
V ật_
ảo_ đảo</w>
il l</w>
hạ _lệnh</w>
Th uyên</w>
thời_ tiết</w>
binh_ sĩ</w>
T iết_
ướ i_
H ướng_
8 /3</w>
đ uốc</w>
ù n_
t ên_t
dặn_ dò</w>
Y _tế</w>
M er
ệ _tử</w>
trước_ hết</w>
ngón_ tay</w>
mai_ phục</w>
dễ _thương</w>
ần_t ăng</w>
nguồn_ gốc</w>
hu ấn</w>
g e</w>
Tài_ chính</w>
Thanh_ âm</w>
H ồ
D e
tâm_ tình</w>
Nếu_ vậy</w>
Hiệu_ trưởng</w>
r ước</w>
kh át_
Hous ton</w>
s ăn_
i Phone</w>
g ắng_
đỏ_ bừng</w>
nh ìn_
hô_h ấp</w>
Nghị_ quyết</w>
N ước_
qu ì</w>
ng ton</w>
m a
l ảo_đảo</w>
S ương</w>
x ả</w>
tình_ nguyện</w>
thần_th ái</w>
phòng_ thủ</w>
d iện_
công_ viên</w>
Ngọc_ Sơn</w>
liên_ kết</w>
chiến_ sĩ</w>
L ộc_
tràn_ ngập</w>
Bấy_ giờ</w>
quan_ chức</w>
phòng_ ngủ</w>
m ũ
kh ả
Tr ịnh</w>
D ật</w>
> _
đề u_
làm_ chủ</w>
l ay_
Tag s
G al
xa_ lạ</w>
il an</w>
d ục_
chúc_ mừng</w>
đồng_ nghiệp</w>
th ao_
n iên_
_t ầng</w>
E U</w>
án_ học</w>
trước_ đây</w>
T ung_
H iển</w>
Công_ Tôn_
s ói</w>
c ợt</w>
Như _thế</w>
Đ ỉnh</w>
S p
trước_ nay</w>
thủ ng</w>
mênh_ mông</w>
bả n_đồ</w>
C ăn</w>
tài_ xế</w>
b ê</w>
L ặc_
Đ àn</w>
ngh èo_
hỏi_ thăm</w>
du_ khách</w>
tr ụ_
ngẩ ng</w>
m ốc</w>
d ồn_
c ột_
V ả_lại</w>
787 1</w>
nh an_
n ín</w>
Ng ụy_
tên_t uổi</w>
tham_ nhũng</w>
s úc_
qu át_
ng oài_ra</w>
khu ất_
el _
Xe m_
Sing ap
Hoàn_ Huyền</w>
D ứt_
ấp_ úng</w>
Ánh_ mắt</w>
b uột_
T al
L ẽ_
H à
nguyên_t ắc</w>
m_ c
buồn_ cười</w>
buột_ miệng</w>
Th iếp</w>
Nh ận</w>
Cơ_ quan</w>
ư ng_h
đ ậu_
biến_ hóa</w>
Kiều_ Phong</w>
Inde x</w>
G ar
B ec
mất_ mạng</w>
Lý_ Hàn_Thu</w>
ắ ng_t
tố_ cáo</w>
thương_ tâm</w>
hành_ sự</w>
M ặc_
A M</w>
ch_th ất</w>
Xu ất_
L uyện</w>
th iện_
g ay_
Gr ay</w>
ê n_th
Tổ_ chức</w>
B út</w>
vi rus</w>
t ồn</w>
g ai</w>
tr ải_nghiệm</w>
tr ánh_
_th ảo</w>
C ây</w>
đề n_
m òn</w>
hàng_ không</w>
nh ẫn_n
le r</w>
Ch ờ</w>
7 5</w>
ho ả</w>
Đ à</w>
hôn_ nhân</w>
c ài</w>
k em</w>
W il
D iêu</w>
4 2</w>
ng óng</w>
Nh à
L ữ</w>
cư_ dân</w>
Ph ố</w>
Anh_ em</w>
' _
đ oàn_
nh eo</w>
g ợi</w>
chúng_ nó</w>
[ _
vô _lễ</w>
th ạch_
ra_ sức</w>
l anh_
hào_ kiệt</w>
bần_ đạo</w>
Triệu_ Mục</w>
Qu ận_
7 ,
trắc_ nghiệm</w>
nhẫn_n ại</w>
làm_ gì</w>
as hi
9 0</w>
đột_ biến</w>
nhảy_ vọt</w>
bức_ xúc</w>
ng_h ồ</w>
l óc</w>
khó e</w>
ch át</w>
B ắt</w>
văn_ học</w>
v ào_
thỏa_ thuận</w>
cổ _họng</w>
đại_ tướng</w>
uy nh_đệ</w>
o m</w>
Đỗ_ Phục_
qu í_
S ảng</w>
hoà ng_th
Ngọc_ Ngh
thương_ lượng</w>
th ô</w>
l ứa</w>
_th í</w>
c ốt_
điên_ cuồng</w>
trật_ tự</w>
c ởi_
c ẩu</w>
Trầm_ Lạc_Nhạn</w>
2 .
g ầy_
_t ập</w>
_h ại</w>
C ần_
B ả
L uật</w>
Dứt_ lời</w>
khéo_ léo</w>
bé_ nhỏ</w>
chủ _trì</w>
0 5</w>
ự _t
x ứng</w>
tranh_ chấp</w>
s ưa</w>
h uyền</w>
bộ _l
b ướ
B áo</w>
3 .
B ành</w>
ồ_ côi</w>
Đ iện</w>
ng ói</w>
n ỉ</w>
Hội_ nghị</w>
th ù_
r ắn_
nhún_ vai</w>
kỳ_d iệu</w>
khảo_ sát</w>
thấp_th oáng</w>
ph ổi</w>
t úm</w>
kh ô_
căn_ bệnh</w>
Bất_ luận</w>
thành_ phần</w>
nói_ chung</w>
nhỏ_t uổi</w>
l ũ
cho ạng</w>
Chứng_ khoán</w>
tướng_ mạo</w>
m ốt</w>
chẳ ng_hạn</w>
Đỗ_Phục_ Uy</w>
uyễ n</w>
thầy_ trò</w>
thạ ch_thất</w>
o acute</w>
kháng_ cự</w>
dày_ đặc</w>
d ài_
u s</w>
h ì_h
cấp_ cứu</w>
con_ cháu</w>
c k</w>
da_ thịt</w>
L ạt</w>
trở_ lên</w>
giảng_ dạy</w>
Tuy_ vậy</w>
Nh a_
M ong</w>
chán_ nản</w>
Joh n</w>
H ạo</w>
C úc</w>
thê_th ảm</w>
c ử
H an
Th ìn</w>
tội_ nghiệp</w>
ch ói</w>
ch i
c -
đ iếu</w>
phỏng_ vấn</w>
nh an</w>
ch ơi_
F or
Ch u
nhẹ_nh õm</w>
in e_
gi ãn</w>
cải_ cách</w>
C S
4 6
4 5
v iên_
n ửa_đêm</w>
n ồi</w>
kho ái_
_d ày</w>
T iễn</w>
chu ồn</w>
bức_ bách</w>
B àng</w>
ó p</w>
ph ì_
b ar</w>
Ph ần_
Gia_ Cát</w>
D ao_
B ỗng_
Ð ổng</w>
th ỉnh</w>
sho w</w>
chung_ cư</w>
Th ụ</w>
H ết</w>
đ ãng</w>
Đo an</w>
r áng</w>
B i_
0 3</w>
Đ ộng</w>
khủng_ hoảng</w>
a_đ ổi</w>
môn_ hạ</w>
Tống_ Khuyết</w>
Do ãn_
Ð ến</w>
x ảo</w>
thị nh</w>
h àn_
v ái</w>
quảng_ trường</w>
hung_ h
ho a_h
ch í_
P M_GMT7
ề nh</w>
nh ược</w>
Linh_ Nhi</w>
uố ng_hồ</w>
Ph ổ</w>
Khoa_ học</w>
v ơ</w>
ng ơ</w>
m ồ_côi</w>
Tiểu_ Trừng</w>
M an
B àn_
b ấm</w>
B ồ_
tr ần_
gi áng</w>
cám_ ơn</w>
P er
m ị
l ẳng_lặng</w>
kho an</w>
Tr ình</w>
Ng uy
Kh iêm</w>
tr ục</w>
bất_ hạnh</w>
t ường_
l ượm</w>
cung_ nữ</w>
phương_ trượng</w>
e ra</w>
Ph ù</w>
I _
ặp_ đôi</w>
đ ũa</w>
đ ăm_
ò e</w>
no m</w>
ngh ẹn_
l ột</w>
cứ _
c uống</w>
Singap ore</w>
Ch ắc_chắn</w>
đẩy_ mạnh</w>
vận_ khí</w>
ph ế</w>
nhà_th ơ</w>
khiếp_ sợ</w>
hành_ hạ</w>
ch ổ</w>
Ðiền_ Ðan</w>
tuyệt_ diệu</w>
kí p</w>
bộ _dạng</w>
đường_ hầm</w>
xâm_ nhập</w>
xuất_ thân</w>
tụ _tập</w>
Th ăng</w>
ồn_ cuộn</w>
ec irc</w>
T ớ</w>
Kinh_ tế</w>
- la</w>
t óm</w>
hoà nh_
cu ồn_cuộn</w>
Gi ả_
788 9</w>
tiêu_ thụ</w>
nông_ thôn</w>
nh àn_
linh_ hoạt</w>
vùng_ đất</w>
ti n_đ
nh ựa</w>
Trịnh_ Khắc_
r e</w>
ng ụ</w>
n iêm_
cân_ nhắc</w>
c úng</w>
Tung_ Sơn</w>
T ề_
Đ ịnh_
ôn_ xao</w>
k ịch_
n úi_
kỳ_ vọng</w>
B ệnh</w>
tiểu_ thuyết</w>
chậm_ chạp</w>
Doanh_ nghiệp</w>
4 4</w>
đối_ tác</w>
qu ầy</w>
bất_ lợi</w>
b ẻ</w>
Thập_ Bát</w>
C ánh</w>
ơ m_
r ỗng</w>
r âu_
cơ_quan_ chức_năng</w>
trừng_ phạt</w>
thắng_ bại</w>
Trương_ Thúy_Sơn</w>
Bộ_ GDĐT</w>
A N</w>
v ĩ</w>
s ương_
s z
ch ắc_
rượ u_
l ăng_
Nga_ Mi</w>
qu ất</w>
ma_ túy</w>
bắt_ giữ</w>
b ời</w>
Si mon</w>
B ài_
27 30
Ð ình_
tiêu_ cực</w>
hoà nh</w>
L ân</w>
sử a_đổi</w>
Qu ế_
yêu_ thích</w>
xấu_ xa</w>
v í_dụ</w>
cân_ bằng</w>
ch ữa_
3 7</w>
n ếm</w>
m ập</w>
linh_ hồn</w>
kết_ hôn</w>
g ấu</w>
Qu án</w>
đ iền</w>
n ể_
b ét</w>
Đạo_ Tử</w>
tội_ phạm</w>
Tr ấn_
C ăn_
22 /2</w>
ngắn_ ng
h ư_h
H ỏi</w>
vận_ hành</w>
v ẫy_
nh ũ
khắc_ phục</w>
bỏ_ rơi</w>
b ọt</w>
D iệu</w>
Con_ người</w>
ườ m</w>
t iễn_
ng ẫu_
công_ lập</w>
c ay_
Whitne y_
V ậy_
thân_ mật</w>
sát_ khí</w>
lộ n_
thủ y_thủ</w>
n ít</w>
g ò</w>
ak e</w>
nhà_ cửa</w>
21 /2</w>
v ầng</w>
ch ửi_
ỳ _
tính_ chất</w>
nh a_
k ìm</w>
cấu_ trúc</w>
_l ương</w>
Tiên_ sinh</w>
Ch am
tiền_t ệ</w>
chức_ vụ</w>
b ộc_
Tr ị</w>
tập_ kích</w>
ng ọc_
g e
ch ước</w>
bối_ cảnh</w>
bằng_ chứng</w>
Tạ_ Tốn</w>
8 8
ắ ng_l
xung_ đột</w>
xe _hơi</w>
bạo_ lực</w>
T ám</w>
B ầu</w>
đích_th ực</w>
te in</w>
s ớm_
ng ộ_
g ù</w>
dũng_ cảm</w>
Thật_ ra</w>
1 50</w>
/1 1
m y</w>
al _M
Th ay_
Ngữ_ văn</w>
Kinh_ Vũ</w>
Đ ợi</w>
sự_ cố</w>
nhà_ văn</w>
n i_
d ũng</w>
Trịnh_Khắc_ Sảng</w>
ngh iệp_
n âu</w>
l ưỡng</w>
công_ kích</w>
Thu ỷ</w>
ổ_th ẹn</w>
ưu_ đãi</w>
Đỗ_ Thiên_
xoay_ chuyển</w>
n ộ</w>
m âu</w>
d ỗ</w>
Hàm_ Dương</w>
Ú c</w>
Ð oạn</w>
x ơ</w>
l ưỡ
_tr ữ</w>
Trung_ Hoa</w>
Cho_ dù</w>
đ ùa_
Đạt_ Chí</w>
m ầm_non</w>
ch uyền</w>
Whitney_ Houston</w>
ẽ n</w>
tr ích</w>
thất_ kinh</w>
thư_ sinh</w>
thu a_
T ử
201 7</w>
xa_x ôi</w>
to ria</w>
d ập_
c àng_
ừ u_
động_ vật</w>
uyện_ ngắn</w>
to n_
qu ăng</w>
kinh_ khủng</w>
bà n_t
Th ịnh</w>
T ương</w>
T ang</w>
M iêu</w>
3 1</w>
đại_ sự</w>
Đoàn_ Dự</w>
s ter
r _
Kinh_ Tuấn</w>
trái_ cây</w>
nà n</w>
co t
thẳng_th ắn</w>
l ý_
hâm_ mộ</w>
h ổ_thẹn</w>
ắng_l ợi</w>
đau_ đầu</w>
tự _tử</w>
trầm_ mặc</w>
ther ine</w>
l ãi</w>
đ ắc</w>
v an_
t ản</w>
lo ạn_
kinh_ mạch</w>
h ỉ</w>
chỉ nh_
M or
Hầu_H y_
đầu_ gối</w>
đo an</w>
x ôn_xao</w>
ph one</w>
l ad
gi ữ_
bàn_ bạc</w>
Chính_ trị</w>
b ậy</w>
_d ục</w>
My sz
K iểm_
Goog le</w>
Ch ín</w>
xét_ nghiệm</w>
th êu</w>
so f
phá o_
S ắc</w>
hội_ đồng</w>
đặt_ chân</w>
Đa_ tạ</w>
N ông_
H ài_
t ạo_
K ế
thê _lương</w>
t ồi_
coi_ trọng</w>
V ậy_thì</w>
0 2</w>
Gad h
A us
nh ăn</w>
mua_ sắm</w>
kính_ trọng</w>
b ừa</w>
Tr ác_
Interne t</w>
đ ỗi</w>
ng ũ_
kỹ_ sư</w>
C al
th ây</w>
mới_ đây</w>
m ạch_
ch ọ
_th ượng</w>
Qu ảng</w>
r õ_r
l iệt_
ậ n_th
phấn_ khởi</w>
nào_ ngờ</w>
chú a_
ban_ đêm</w>
b iện</w>
20 /2</w>
ch inh</w>
b y</w>
Tu ệ</w>
0_ %</w>
l ồng</w>
_l ộ</w>
Đ ỗ</w>
tr inh_
lòng_ dạ</w>
Đ ơn_
trợ_ giúp</w>
ngh ề_
giảng_ viên</w>
e y</w>
bao_ trùm</w>
a da</w>
C ầu</w>
nh iễu</w>
mệnh_ lệnh</w>
giấy_ tờ</w>
_d anh</w>
Triển_ lãm</w>
tranh_ thủ</w>
thái_ tử</w>
nhà _t
m_ đ
h am</w>
N ương_
Ch ấn</w>
đâu_ đó</w>
đ ắn</w>
vô_ dụng</w>
ng ụm</w>
bất_ tất_phải</w>
Ph i
N D
K H
0 7</w>
ph ụng</w>
nghiêm_ nghị</w>
l ờ_mờ</w>
bận_ rộn</w>
áo_ quần</w>
Ô n</w>
v a_
thất_ thanh</w>
n ể</w>
n ấu_
CL B</w>
nh ức</w>
bấy_ nhiêu</w>
b ạch_
Thái_ tử</w>
lơ _l
J es
Đại_ nhân</w>
v én</w>
n ức_
Ngh iêm</w>
Ng ãi</w>
Bar celona</w>
An to
ou l</w>
n_đ ộ</w>
luật_ sư</w>
kích_ động</w>
hành_ khách</w>
Viet nam
động_ đậy</w>
v ùi</w>
t ạ_
kh ố</w>
Val ent
Ngọc_ Trí</w>
ã y_
s ao_
ph ỏng</w>
gi am_
bất_ lực</w>
Tôn_ Giả</w>
Gadh afi</w>
D ự
v n</w>
tr ọc</w>
sá ng_l
cười_ kh
chinh_ phục</w>
ch ênh_
Thu ận_
Thiên_ Tôn</w>
Quyết_ định</w>
tối_ thiểu</w>
không_ chỉ</w>
hương_ chủ</w>
h ầm_
M es
th ơ_
ng_th ẳng</w>
một_ mặt</w>
hàng_ xóm</w>
anh_ chị</w>
Thúy_ Ái</w>
No b
nhân_ tài</w>
ng_h ôn</w>
in o</w>
a_ tay</w>
Chu_ Cơ</w>
rõ_r ệt</w>
b úng</w>
Mysz ka</w>
kh e_
GD -
động_ cơ</w>
ch iều_
Th ích_
B iển_
4 6</w>
thiên_ thần</w>
sinh_ nhật</w>
quản_ gia</w>
nu de</w>
Ch uyến</w>
u ổng</w>
r ủa</w>
n ông</w>
h ao</w>
Đỗ_Thiên_ Ngạc</w>
khuy ết_
Lo an_
Khổng_ Minh</w>
dự_ đoán</w>
bền_ vững</w>
tho ái</w>
il e</w>
h ụt</w>
chu ồng</w>
cao_ nhân</w>
May_ mà</w>
tr ắc</w>
ngắn_ng ủi</w>
S ắc_
C a</w>
lỗ i_
v ắt</w>
ng_t ài</w>
bực_ mình</w>
P lu
K u
I D
GD Đ
đánh_ chết</w>
Ông_ già</w>
Học_ sinh</w>
g ởi</w>
ợ t_
đ ặng</w>
xe_ đạp</w>
vị t</w>
s h
r ỗi</w>
kẻ_ địch</w>
Bích_ Dao</w>
Bao_ nhiêu</w>
thầy_ cô</w>
t ụt</w>
lo ạng_
Thạch_ Thanh_Tuyền</w>
ph iêu_
n úp</w>
m ớ</w>
hành_ tung</w>
_t ộc</w>
Th ác_
l ây_
l ine</w>
chấm_ thi</w>
a ra</w>
Bảo_ Ngọc</w>
tiềm_ năng</w>
n ề
giới_ tính</w>
d uyệt</w>
V ài</w>
4 7
ắn_ ta</w>
t à
hóa_ ra</w>
g iết_
Nh ậm_
ýt_ nữa</w>
vi e</w>
thủy_ chung</w>
nghẹn_ ngào</w>
b ẩy</w>
L ạp</w>
Cần_ Thơ</w>
đạo_ lý</w>
tư_ nhân</w>
t án_
nh ạy_
m ừ
k ẹp</w>
b ác_
C ros
đ ật</w>
sĩ_ quan</w>
qu ý
ng ờ_
W ashi
ọn_ ta</w>
r i</w>
chìa_ khóa</w>
ca_ khúc</w>
b ầm</w>
_l uật</w>
Ho ặc</w>
ĩ u</w>
đề _tài</w>
th ô
quan_ niệm</w>
qu ỷ_
nh ì</w>
chân_ trời</w>
Dương_ Hư_Ngạn</w>
ỏ i_
ng ừ</w>
Ngọc_Ngh iên</w>
ý_ chí</w>
õ ng_
thỏa_ mãn</w>
n_t oàn</w>
Vũ_Văn_ Hóa_
Kỷ_Thiên_ Thiên_
đ ò</w>
r ạng_
bắt_ gặp</w>
Gi ải</w>
C H</w>
Ð ạo</w>
minh_ chủ</w>
Ci ty</w>
A SE
3 9</w>
tập_ luyện</w>
ph ồng</w>
ph ì</w>
kiến_ nghị</w>
19 4</w>
s úng_
l ạ_
danh_ dự</w>
S ấm</w>
n ã</w>
d ầy</w>
ch_th ủ</w>
L át</w>
D iêu_
Đại_ Nhân</w>
th ắng_lợi</w>
ra_ mặt</w>
nông_ nghiệp</w>
lãng_ mạn</w>
chọ n_l
ước_ mơ</w>
định_ thần</w>
đại_ hội</w>
tranh_ luận</w>
tr ẻo</w>
can_ đảm</w>
Th e_
đ ê</w>
thư_ phòng</w>
chung_ kết</w>
T ay_
đồ_ chơi</w>
thầy_ giáo</w>
o ạ</w>
dạ _dày</w>
ằng_ cha</w>
v ậy_thì</w>
hì_h ì</w>
b e</w>
Tr ân</w>
đón_ tiếp</w>
v áng</w>
th ượng_th
loạng_ choạng</w>
c õng</w>
Quản_ lý</w>
Cảnh_ sát</w>
định_ hướng</w>
x u</w>
y ể
th ôi_
te l</w>
t ận_t
t anh</w>
ng_l ượng</w>
mau_ chóng</w>
chủ_ ý</w>
c ay</w>
Nguyên_ Cát</w>
K iếm_
H uống_chi</w>
D iệu_
đêm_ tối</w>
s ủa</w>
khoan_ khoái</w>
kh ẩn</w>
in es</w>
giai_ nhân</w>
g ươm</w>
C ai</w>
đ ặn</w>
sưu_ tập</w>
_th ách</w>
T ùy</w>
ườ n_
nh ói</w>
n_th u
N iên</w>
ă ng
v ượt_
te en</w>
r ắc</w>
qu ật</w>
Xi n_lỗi</w>
K ính_
thái_ hậu</w>
r ống</w>
ngu_ ngốc</w>
lật_ đật</w>
l ăn_
el l</w>
c àn</w>
Kh ải</w>
Hoàn_ Độ</w>
H Đ
Gi ới_
áo_ dài</w>
Á c</w>
hứ a_h
hiện_ diện</w>
Mộ ng</w>
B i
ợ m</w>
đ ờ</w>
v ẳng</w>
t ánh</w>
n_ vẹn</w>
co n
5 6
tăng_ giá</w>
tình_ cờ</w>
g õ_
chậm_ trễ</w>
đại_ quân</w>
x ắn</w>
vợ_ con</w>
r ầm_
hấp_ tấp</w>
dị _thường</w>
vô_ danh</w>
s ực</w>
n_t ảng</w>
Ch a_
4 9
Đ ằng</w>
tr ả_
kỵ_ binh</w>
chủ ng</w>
Bất_ quá</w>
ầm_ ầm</w>
mu a_bán</w>
gắn_ bó</w>
Ma_ Trí</w>
4 8</w>
Đào_ tạo</w>
x ưởng</w>
t ấm_
r ên_
đ óa</w>
khe_ khẽ</w>
h eo</w>
dự_ định</w>
ch ậu</w>
V iễn_
M ô
B ăng_
5 ,
n ạt</w>
mừ ng_thầm</w>
l ẻn</w>
huyết_ áp</w>
0 3
to ả</w>
tiền_ lương</w>
t ứ
ph ù</w>
nghiêm_ khắc</w>
mấy_ chốc</w>
lớp_ học</w>
- Index</w>
tr ăm_
kh uyết</w>
g ả</w>
ngh iện</w>
gh en</w>
cao_ hứng</w>
M iệng</w>
Go et
0 6</w>
lo ng_l
i m
hộ _t
b óc</w>
M ặc</w>
tin_đ ồn</w>
thân_ thiện</w>
th áo_
s ưởi</w>
quái_ vật</w>
buông_ tha</w>
th ợ_
phong_ trào</w>
a h</w>
N ỗi</w>
An_ Long</w>
5 7</w>
tr al
d ải</w>
Thanh_ Thành</w>
T p
Ngày_ mai</w>
Bình_ Nhi</w>
trang_ trại</w>
thống_ kê</w>
thảo_ nguyên</w>
o f
chân_ chính</w>
_th ơ</w>
Cros s</w>
thuốc_ độc</w>
s au_cùng</w>
pháp_ lý</w>
n ôn</w>
ch ôn_
F o
tr áng_
th âu</w>
ch áo</w>
bất_ chợt</w>
S ợ</w>
B l
quyền_ lợi</w>
phong_ phú</w>
kiếm_ thuật</w>
hết_ lòng</w>
cổ_ đông</w>
bình_ luận</w>
à y_th
tổng_ hợp</w>
nổi_ danh</w>
ngh iêng_
mà_ lại</w>
kim_ cương</w>
học_ phí</w>
ch uyện_
C ặp</w>
16 /2</w>
k h</w>
Thế_ nào</w>
Th ời</w>
Quỷ_ Vương</w>
Har v
H a_h
C ưu</w>
B ốc</w>
trúng_ tuyển</w>
cao_ tăng</w>
bắt_ cóc</w>
bóng_ dáng</w>
Toàn_ cảnh</w>
đô -la</w>
thành_ tựu</w>
s óng_
nho_ nhỏ</w>
a_đ ảo</w>
Ph ước</w>
Nhất_ định</w>
H iệt_
ít_ ra</w>
r ảo</w>
hóa_ giải</w>
c ằm</w>
Tr át</w>
Gi ống</w>
độc_ thủ</w>
s ụp_
ngẫu_ nhiên</w>
mục_ quang</w>
đị ch_thủ</w>
ti a_
n ứt</w>
Re al_M
tin_ cậy</w>
thử _thách</w>
lơ_l ửng</w>
h òng</w>
_ho ại</w>
N H</w>
Hòa_ Bình</w>
Ha_h a</w>
H anh</w>
ưởng_ ứng</w>
đại_ vương</w>
điều_ động</w>
đ ùng</w>
tư_ duy</w>
tr ảo</w>
cất_ bước</w>
chúng_ mình</w>
đôi_ chút</w>
xếp_ hạng</w>
say_ mê</w>
nề n_tảng</w>
4 7</w>
Đ ăng_
t ổn</w>
gõ_ cửa</w>
Đ ứa</w>
phụ _thuộc</w>
nghĩa_ phụ</w>
l in</w>
chiến_ dịch</w>
tạm_ biệt</w>
sắp_ đặt</w>
quyết_ liệt</w>
h iếp</w>
bất_ kể</w>
T ức_
Pau l</w>
W e
Phật_ giáo</w>
26 /2</w>
Đ a</w>
phản_ bội</w>
p ro
nội_ bộ</w>
bộ_l ạc</w>
Cham pi
ướ n</w>
vui_ sướng</w>
tuyển_ dụng</w>
sinh_ sống</w>
et te</w>
L a
ấ ng</w>
xấu_ xí</w>
U 23</w>
Thứ _trưởng</w>
đắc_ dĩ</w>
tr uyề
chính_ đạo</w>
c an
Xan tr
Th uyền</w>
GD- ĐT</w>
x ổ</w>
vẫy_ tay</w>
Tinh_ Tú</w>
T im</w>
Kiến_ Khang</w>
ng ần</w>
Thúc_ Bảo</w>
ỡ_ ng
quy_ chế</w>
hôn_ mê</w>
h ôi</w>
dự_ báo</w>
t úi_
hình_ dáng</w>
ch ói_
náo_ nhiệt</w>
nghề_ nghiệp</w>
h iên</w>
Lập_ tức</w>
B iệt</w>
tr ữ</w>
phân_ phối</w>
B ửu_
0 1
mũ i_
Ho ằng</w>
C anh</w>
Đ ảo</w>
ám_ ảnh</w>
tránh_ né</w>
phá _h
_ G
Tiểu_ Bàn</w>
T ạng</w>
Loan_ Loan</w>
D ư_
óa_ mạ</w>
r ưỡi</w>
nh ấn</w>
mar t
gi ỡn</w>
dứt_ khoát</w>
d ò_
C on
200 7</w>
õ i_
l ở</w>
kinh_ điển</w>
Vi t
Hiệt_ Lợi</w>
đ ảo_
Đ iệp</w>
tr iết_
s ụp</w>
ma_ giáo</w>
l ắp</w>
kiên_ nhẫn</w>
Thư_ Thư</w>
Real_M adrid</w>
Qu ả
Hầu_Hy_ Bạch</w>
Ban_ Nha</w>
tội_ lỗi</w>
tuyệt_ thế</w>
th óa_mạ</w>
m ị</w>
g ìn</w>
Ng ạo</w>
Ad am</w>
phương_ hướng</w>
d inh</w>
b ỉ</w>
v ận_tải</w>
k ẹo</w>
hoan_ hô</w>
g ãi</w>
ch à</w>
bệnh_ tật</w>
M ới_
B en
x ong_
t ịch</w>
hầu_ hạ</w>
sáng_ suốt</w>
rạng_ rỡ</w>
tương_ ứng</w>
sự _tình</w>
nho áng</w>
chút_ nữa</w>
ch ao</w>
V ợ</w>
M ôi_trường</w>
Ban k</w>
đồ_ đạc</w>
đàm_ phán</w>
ăn_ mày</w>
trang_ trí</w>
thiết_ lập</w>
nam_ giới</w>
k ì
bu ýt</w>
Ste vie</w>
ử_ nghiệm</w>
ễ _
lo n</w>
l a_h
k i</w>
cục_ diện</w>
chu a_
Y o
T án</w>
đồng_ loạt</w>
sa_ mạc</w>
nhiệt_ tình</w>
m ô_t
ư_ vị</w>
đ ỏ
tu_ hành</w>
ta xi</w>
mù _m
m ô_tô</w>
lấp_ loáng</w>
công_ cụ</w>
_t ội</w>
Tiêu_ Phong</w>
T ế_
Plu s</w>
H ách</w>
6 ,
doanh_ nhân</w>
b ồng</w>
a_h è</w>
_h ội_
Gi áp</w>
ít_ nhiều</w>
sa_ thải</w>
s ở_
ph ất_
hoàn_t ất</w>
h ắng_
cấp_ bách</w>
Huyền_ Ðức</w>
5 7
Đ ậu</w>
c ọp</w>
B ắt_
Ð ã</w>
v ốn_
M W
23 /2</w>
đ ẽ</w>
r iê
giả n_
chi_ bằng</w>
H iển_nhiên</w>
y_th uốc</w>
x ã
nhân_ lực</w>
V õ</w>
Trung_ Nguyệt</w>
T iếu</w>
đạo_ diễn</w>
l ậu</w>
ic k</w>
T oà
đông_ đảo</w>
đ iển_
tr e
Ne t</w>
CE S</w>
ủ ng_
tài_ trợ</w>
hòa_ bình</w>
th iêu</w>
phụ ng_
nảy_ sinh</w>
ngo ảnh_
hứa_h ẹn</w>
b ặt</w>
> >_
6 3</w>
d àn_
S cot
c ờ_
b éo_
784 3</w>
Ð oàn_
ng ạt</w>
lời_ lẽ</w>
kh ùng</w>
kh iếu_
hã m_
b ốc_
a te
Tiến_ sĩ</w>
nhũ n</w>
công_ chúng</w>
bỗng_ dưng</w>
3 9
Đ iểm_
tả _hữu</w>
hưng_ phấn</w>
G óc</w>
ph ẳng</w>
dồn_ dập</w>
chỉ _thị</w>
cao_ su</w>
đối_ địch</w>
tạ_ ơn</w>
t ang_
phạm_ tội</w>
cười_ hì_hì</w>
bất_ đồng</w>
N ai</w>
Đ ưa</w>
Đ iển</w>
nhà_ báo</w>
lang_ thang</w>
Tr iều</w>
E d
5 1</w>
xâm_ phạm</w>
r ọi</w>
Ka therine</w>
Đôn_ Kihôtê</w>
ng ượng_
dụng_ cụ</w>
V ợ_
Ng ôi_sao</w>
L iệt_
6 5</w>
/ 5</w>
văn_ minh</w>
ch ăn_
Trương_ Tam_
Th ảo_
Châu_ Âu</w>
tiên_ phong</w>
ng ùng</w>
long_l anh</w>
cảnh_ cáo</w>
chống_ cự</w>
Th ăng_
Kh ê</w>
A C
đẹp_ đẽ</w>
trọng_ đại</w>
thiệt_ hại</w>
r úng_
hài_ nhi</w>
cơ_ cấu</w>
Trần_ Cận_
Nguyên_ nhân</w>
Dương_ Thống</w>
x ảo_
th ám</w>
chủ_ nhiệm</w>
a x
Văn_ Đế</w>
V ấn_
T uyển_
5 6</w>
m ồng</w>
bất_ đắc_dĩ</w>
S át_
ch é
Viet Nam
L ợi_
y ếm</w>
v en
u ỷ</w>
phủ_ nhận</w>
khúc_ khích</w>
h ấp_th
V ĩ</w>
V C
L ào</w>
thủ ng_thẳng</w>
lợi_ thế</w>
ghi_ nhớ</w>
c ai_
b út_
Ch iêu_
B àng_
4 1</w>
đóng_ cửa</w>
qu ẩn</w>
m át_
Vit toria</w>
Tư_Mã_ Đạo_Tử</w>
viện_ trợ</w>
th ử_nghiệm</w>
is tan</w>
bản_ chất</w>
Tiểu_ muội</w>
Nh an_
Hứa_ Sĩ_
„_ Ta</w>
Â n_
rúng_ động</w>
r ên</w>
hoà ng_hôn</w>
ho i</w>
giữ_ gìn</w>
ch ùm</w>
b ồ</w>
D ược</w>
Champi on
B ra
toà n_thể</w>
oc irc</w>
bao_ phủ</w>
Tr iển</w>
thời_ cơ</w>
bực_ bội</w>
M iên</w>
Aus tral
hào_ quang</w>
cho áng_
Tĩnh_ Chi</w>
T ẩu</w>
đ ức_
Đ an_
tài_ khoản</w>
t ột_
Tướng_ công</w>
Thiếu_ Soái</w>
Ch ứng</w>
C ụ</w>
đào_ tẩu</w>
x ưng_h
tổ _t
tr ơn</w>
6 4</w>
ng ạch</w>
giúp_ việc</w>
bảo_ tàng</w>
P T</w>
Kỷ_Thiên_ Thiên</w>
Hồng_ y</w>
G e
Công_ nghệ</w>
m iễn</w>
khách_s áo</w>
bộ_ đội</w>
4 9</w>
y ết_
uyền_th oại</w>
th ắt_
say_ sưa</w>
nh ung</w>
n ô
doanh_ trại</w>
V ill
Kiến_ Thành</w>
tiêu_ hóa</w>
Minh_ giáo</w>
bó p_
H iếu_
tự_ sát</w>
t ầ
ch uyể
Tiêu_ Dao</w>
L iền</w>
H ồn_
C N
tiế p_th
thư_ ký</w>
n ẩy</w>
P H
x éo</w>
vòng_ tay</w>
thiệt_ mạng</w>
quy _trình</w>
k ẻo</w>
hàng_ rào</w>
tr ì
liên_ thủ</w>
chữa_ trị</w>
c õi_
_d ạ</w>
Chân_ dung</w>
thiếu_ phụ</w>
nhan_ sắc</w>
công_ lao</w>
VietNam Net</w>
R onal
ồ n_th
m ờ_
ca_ nhạc</w>
c úm_
Lo ại</w>
5 2</w>
đe_d oạ</w>
tiện_ nghi</w>
thực_ là</w>
b àng</w>
790 1</w>
/12 /2011</w>
thanh_ thế</w>
Phương_ Tú</w>
Kh ất_
Cảm_ ơn</w>
trụ_ sở</w>
sương_ mù</w>
hẻ m</w>
ASE AN</w>
thời_ hạn</w>
r ã</w>
l ay</w>
h ưu</w>
g o</w>
Vô_ Vi_
M ãi</w>
z i
u ất</w>
tr uy_t
th ù
Tú_ Phương</w>
Bi_ Phong</w>
B ang
ự t</w>
òa_ án</w>
từ_ bỏ</w>
mô_t ả</w>
lo a</w>
Th iện_
Hứa_Sĩ_ Công</w>
t uột</w>
nh ấp_
gi ã</w>
bàn_ chân</w>
Tr i_
T át</w>
3 /
Ú y</w>
l í
Tu i</w>
Tal ent</w>
Mi ch
đầu_ ra</w>
đám_ mây</w>
nóng_ bỏng</w>
S o</w>
O liv
Ng ôi</w>
siêu_ phẩm</w>
nh ục_
ngày_ một</w>
doanh_ thu</w>
b iếc</w>
Kh ước</w>
25 /2</w>
hân_ hoan</w>
_th iện</w>
Tiểu_ Quyên</w>
Nh an</w>
xu a_tay</w>
thông_ cảm</w>
t ẩm</w>
ng ư_
họ a_
c i
Tuyết_ Kỳ</w>
Th uộc_
T in</w>
4 3</w>
đa_ dạng</w>
tung_ tích</w>
Vân_ Nam</w>
In do
Go t_
Cửu_ Chỉ</w>
Bạt_ Khuê</w>
ỗ i_
v inh</w>
toàn_ quốc</w>
t ắt_
phòng_ chống</w>
V e
Ro ber
L ực_
Dương_ Châu</w>
Ð ường</w>
tồi_ tệ</w>
h èn_
d ỗi</w>
Quảng_ Nam</w>
M S</w>
D ùng</w>
n da</w>
lay_ động</w>
bái_ kiến</w>
Thái_ Bình</w>
Nguyệt_ Ðàm</w>
H ệ_thống</w>
đại_ chiến</w>
trang_ điểm</w>
m âm</w>
Đ ôn</w>
ăn_ nỉ</w>
V ươn</w>
T uyệt</w>
Gi ấy</w>
phấn_ chấn</w>
m ây_
h am_
Phi li
Bỗng_ nhiên</w>
vòng_ tròn</w>
uộ m</w>
tham_ khảo</w>
sở _h
sốt_ ruột</w>
quả_ quyết</w>
minh_ họa</w>
ch ạm_
Võ_ Đương</w>
Trúc_ Phong</w>
H e
Biển_ Đông</w>
ra_ vào</w>
b ệch</w>
N ào_
động_ tâm</w>
đ ẳng_
Đ ô_
nhìn_ nhận</w>
em_ trai</w>
Tào_ Tháo</w>
B ầu_
5 4</w>
xe _tải</w>
s ĩ
ng_t ăm</w>
bàn_t án</w>
H N</w>
D iệm</w>
Ban k
/0 4</w>
---- ----
xét_ xử</w>
uố i_
n ôn_
Q uyển</w>
Ph ụ_
Kh ất</w>
C a_
Đ ánh_
óm_ lại</w>
phi_ cơ</w>
may_ mà</w>
canh_ gác</w>
V u
áo_ khoác</w>
trung_ ương</w>
tiễn_ biệt</w>
ngh ênh</w>
m in</w>
hung_ dữ</w>
vòng_ vây</w>
tập_ trận</w>
ngơ_ ngẩn</w>
h ển</w>
bắt_ chước</w>
Ho án</w>
Đông_ Phương</w>
xem_ chừng</w>
tận_ dụng</w>
thống_ lĩnh</w>
li a_
l ây</w>
khách_ khí</w>
khiêm_ tốn</w>
Gi ăng</w>
ú n</w>
v ỗ_
qu á
phương_ diện</w>
mặt_ hàng</w>
chất_ vấn</w>
ăn_ cắp</w>
uộ ng</w>
uy _thế</w>
th ót</w>
nuôi_ dưỡng</w>
nhăn_ nh
i e
họ p_
g ầm_
càng_ ngày_càng</w>
ch âm_
Jo anne</w>
rồi_ sao</w>
n ăn_nỉ</w>
ch iêm_
9 7
đ ổ
tính_ năng</w>
tình_ nhân</w>
quân_ tử</w>
mau_ mau</w>
gh ế_
đình_ chỉ</w>
ô tô</w>
tâm_ linh</w>
n_l ao</w>
l í</w>
kiêu_ ngạo</w>
M ậu</w>
ặ m</w>
u ổng_
thích_ khách</w>
tay_ mặt</w>
Triệu_ Long</w>
đánh_ bạc</w>
lừa_ gạt</w>
l ỏi</w>
_t inh</w>
T R
H i_
v ăn_t
tu ấn</w>
s ẹo</w>
nhập_ viện</w>
Thiên_ S
E wa</w>
tỉ _lệ</w>
trái_ đất</w>
thu ần</w>
d ính_
Washi ngton</w>
Tống_ Bi_Phong</w>
Ri ch
Quảng_ Ninh</w>
D iễn_
Ứ ng</w>
đồng_ bào</w>
Độc_ Thủ</w>
bầu_ không_khí</w>
_m ôn</w>
B ân</w>
s ọ</w>
ng ờ_đâu</w>
m ẩu</w>
dò_ xét</w>
ch ần_
Nh ĩ_
tham_ quan</w>
mart phone</w>
ac irc</w>
Trung_ Phụng</w>
S am
Got_ Talent</w>
10 _triệu</w>
ự u_
ững_ sờ</w>
lớ n_lao</w>
l ao_
h ăng_
d ừa</w>
c âm</w>
Triệu_ Nhã</w>
L y
h ắn_ta</w>
giám_ thị</w>
K ỷ</w>
5 8</w>
đăng_ tải</w>
tuần_ lễ</w>
sứ_ quán</w>
lừ a_đảo</w>
l ặp</w>
Càn_ Khôn</w>
thần_ kỳ</w>
ng u</w>
l ụy</w>
ch ập</w>
Thành_ phố</w>
Austral ia</w>
đệ m</w>
làm_ nên</w>
Thuộc_ hạ</w>
Ch ết</w>
C ửa</w>
tuyên_ truyền</w>
trắng_ bệch</w>
quận_ công</w>
o ang</w>
học_ hành</w>
el l
Chỉ _tiêu</w>
4 .
vững_ chắc</w>
t ỏ
sửa_ chữa</w>
sụp_ đổ</w>
r ậm_
o n_
hộ_t ống</w>
cô_ dâu</w>
Tống_ Ngọc_Trí</w>
Thứ_ Ba</w>
Lưu_ Lao_
4 17</w>
t ụng</w>
bán_ lẻ</w>
tr ai_
r ời_
r ơi_
phò ng_th
201 3</w>
s t</w>
qu e</w>
Window s</w>
W or
L ạt_
x ì</w>
x chia</w>
vui_ chơi</w>
s ừng_
h uống_chi</w>
cơ m_
bản_ quyền</w>
_t ự</w>
V í_dụ</w>
Ðoàn_ Dự</w>
vô_t ận</w>
trọ ng_tài</w>
c ò</w>
Ngọc_ Chân</w>
M an_
t áo_
c ưng</w>
an_ tâm</w>
Ng ọn</w>
Lê_ Thị_
đối_ thoại</w>
ký_ ức</w>
ch uộc</w>
canh_ giờ</w>
b ạ</w>
Ð ột</w>
tự_ xưng</w>
sơ_ bộ</w>
s an_
ng ạo_
lâu_ đài</w>
l á_
c ắm_
T uyên</w>
Nữ_ sinh</w>
Kim_Jong- il</w>
xỉ u</w>
thống_ trị</w>
In ter</w>
x ẻ</w>
tr ục_
n áy</w>
c ụm</w>
D anh</w>
Anh_ Kiệt</w>
hoàng_ cung</w>
g ánh_
Trái_ đất</w>
G S
D N</w>
C ốt</w>
A u
787 5</w>
ỹ _thuật</w>
ây_th ơ</w>
Ð ừng</w>
v í</w>
v an</w>
thầ y_thuốc</w>
con_ em</w>
Thiên_ Ma_
Ma thi
M ãn_
D ù_
Cô xchia</w>
đỉnh_ đầu</w>
Đồng_ Nai</w>
nam_ tử</w>
m ầu</w>
m anh_
hàm_ răng</w>
gi ở
g ấm</w>
Tư_ vấn</w>
M ùi</w>
đá _
xuất_ thần</w>
v ợt</w>
r ĩ</w>
lành_ mạnh</w>
c ar
Văn_ Thanh</w>
T àn</w>
trở_ ngại</w>
nức_ nở</w>
n_th ủ</w>
lo u
le n_l
b ực</w>
Kế _hoạch</w>
Hình_ ảnh</w>
1 -
we b</w>
trúng_ độc</w>
_th ú</w>
M ac
Đ àm_
v ẩn</w>
tín_ nhiệm</w>
sáng_ mai</w>
phê_ bình</w>
hào_ hứng</w>
ch éo</w>
_th ái</w>
Th ỉnh_
đè n_đ
ào_ ào</w>
xuất_ gia</w>
v òm</w>
trở_ gót</w>
khốn_ khổ</w>
kh ốn</w>
f an</w>
củ ng_
b ẩm_
B a
ng ây_thơ</w>
l ột_
hội_ thảo</w>
d ai</w>
cây_ cối</w>
Xantr ô</w>
Vương_ gia</w>
V ọng</w>
Ronal do</w>
to án_học</w>
thủy_ sản</w>
s ông_
r ầm</w>
ph im_
khôn_ ngoan</w>
cảm_ ứng</w>
Lưu_Lao_ Chi</w>
Lý_ Tịnh</w>
K iên_
784 5</w>
tiế n_độ</w>
làm_ quen</w>
_d ưỡng</w>
th iêu_
sư_ phạm</w>
s iết</w>
r ừng_
l ũng</w>
d ược_
Trần_Cận_ Nam</w>
Lý_ Nguyên_Cát</w>
H ùng_
And ro
đường_ lối</w>
tiế ng_tăm</w>
thu_ xếp</w>
sâu_ xa</w>
lạc_ bộ</w>
l ơ</w>
công_ cộng</w>
cây_ số</w>
c ống</w>
hoà ng_hậu</w>
ch ay</w>
_l ập</w>
Vợ_ chồng</w>
Kh ai</w>
C ơn</w>
B inh</w>
đón_ nhận</w>
xu a</w>
thủ_ phạm</w>
t im_
f i
củng_ cố</w>
Khả_ Hãn</w>
chỉ_ điểm</w>
c am
trọng_ yếu</w>
quân_ sĩ</w>
d ạn</w>
c àn_
T ừng</w>
áy_ náy</w>
yên_ ổn</w>
phá _hoại</w>
lạnh_ nhạt</w>
H er
v ỉ
ng ửng</w>
khóc_ lóc</w>
h ổn_
tia_ sáng</w>
nh ẩm</w>
khiêu_ chiến</w>
gh ê</w>
Xung_ quanh</w>
Thị_ Bích</w>
L ại_
à_ soát</w>
coi_ chừng</w>
cao_ đẳng</w>
Th ôi_
Qu ận</w>
H ai_
. .
r ụt</w>
ph ẩm_
h ọng</w>
b àng_hoàng</w>
Tuyển_ sinh</w>
Thực_ tế</w>
Ch ạy</w>
2 -
thanh_ danh</w>
ngăn_ trở</w>
giao_ lưu</w>
d ao_động</w>
chuyên_ ngành</w>
_tr ò</w>
T S
tới_ tấp</w>
ph ế_
ng ữ_
loại_ trừ</w>
chứng_ nhận</w>
Thái_ Sơn</w>
đ ốn</w>
vang_ dội</w>
nhân_ sự</w>
d ằn_
cải_ trang</w>
Trước_ hết</w>
Triệu_ Minh</w>
Quân_ Trung_Phụng</w>
M ật_
Gi ác</w>
201 5</w>
Ð ể</w>
hiệu_ lực</w>
chọn_l ựa</w>
Indo nes
Hàm_ Ðan</w>
Ch ỉ_
789 7</w>
đội_ trưởng</w>
Ð ầu_
tĩnh_ lặng</w>
s ững_sờ</w>
l ọc</w>
kh an</w>
biến_ cố</w>
Y êu_
Nào_ ngờ</w>
Chúc_ Ngọc_Nghiên</w>
14 /2</w>
yên_ lòng</w>
thu ận_t
ng ỏ</w>
l and</w>
hổn_ hển</w>
ch ập_
S ắp</w>
L am
D uyên</w>
che_ chở</w>
bảo_ kiếm</w>
Valent ine</w>
1 /
s ứ
hạ _tầng</w>
giờ_ phút</w>
am e</w>
ì _lẽ</w>
ám_ sát</w>
tinh_ tế</w>
ni_ cô</w>
m ỉ
Ngữ_ Yên</w>
đằng_ xa</w>
xinh_ xắn</w>
thần_t iên</w>
ph út_
U ống</w>
Nhất_ là</w>
M ic
B as
động_ lòng</w>
Đ ộng_
thần_t ình</w>
thi_ cử</w>
s ia</w>
lu ân_
lu i_
gi ống_
Th uật</w>
ầm_ ĩ</w>
đồng_ tình</w>
Đ ế_
r ất_
nhân_ loại</w>
lưu_ thông</w>
l uyến</w>
c a
b ìa</w>
Ser ge
đạo_ hạnh</w>
tr êu</w>
su ýt_nữa</w>
pháp_ bảo</w>
d âm_
c ắt_
đột_ phá</w>
thình_ th
một_ tí</w>
lo ng_
bả y_
Tr uyện_ngắn</w>
6 00</w>
ph ẫn</w>
ph ơi</w>
nhạy_ cảm</w>
m ê_
b ới</w>
_th ị
T ấm</w>
Hu ệ_
H ốt</w>
A T
đẳng_ cấp</w>
õ a</w>
mơ _m
l ò_
cười_kh ẩy</w>
bất_ tỉnh</w>
b ần_tăng</w>
_h ồn</w>
Uyển_ Thanh</w>
Qu ay</w>
H ối</w>
ỡ_ng àng</w>
Ấ n</w>
xe _l
th ấu_
h ang_
enni s</w>
chỉ_ giáo</w>
c ập_
Lãnh_ đạo</w>
Bank Plus</w>
10 /2</w>
/201 0</w>
yêu_ mến</w>
trong_ sáng</w>
thẩm_ định</w>
a w
Tu ấn_
Nhân_ dân</w>
Lâm_ Kinh_Vũ</w>
ạ n_t
ân_ sư</w>
ày_th áng</w>
tập_ hợp</w>
song_ song</w>
liên_ miên</w>
_tr ang</w>
L ữ_
ồ m_
đ iêu</w>
nhất_ quyết</w>
l é
không_ chừng</w>
Kho át</w>
đứng_ yên</w>
giản_ dị</w>
_h óa</w>
Quảng_ Ngãi</w>
MW C</w>
xe_ buýt</w>
tổ n_
sắc_ đẹp</w>
ch ót</w>
x à_
t t
diễ n_đàn</w>
bóng_ người</w>
_d ẫn</w>
S ống</w>
Lăng_ quân</w>
yếu_ đuối</w>
thật_ là</w>
m ăng</w>
la_h ét</w>
d ưới_
M ạch</w>
điện_ ảnh</w>
vâng_ lời</w>
phần_ trăm</w>
Thứ_ Tư</w>
G TV
B Đ
ồn_ chồn</w>
công_ văn</w>
che_ giấu</w>
Vật_ lý</w>
V inh_
Sinh_ viên</w>
Lý_ Tuân</w>
D iễn</w>
Công_ việc</w>
C ám_
ấn_đ ấu</w>
tàn_ sát</w>
th ôn_
th ính</w>
tai_ mắt</w>
t ửu_
sáng_l ập</w>
si te</w>
người_ mẫu</w>
l ộc</w>
kính_ cẩn</w>
ch uối</w>
truyền_th uyết</w>
ngh iền</w>
l ựa</w>
Ste ve_
tha_ thiết</w>
n_ sóng</w>
l õi</w>
b ồn_chồn</w>
V er
P re
qu ét_
nh í</w>
chào_ hỏi</w>
chiếu_ cố</w>
Mã_ số</w>
C P</w>
âm_ u</w>
tiế c_
Tr uyền_th
S ao_
Mathi as</w>
D iên</w>
địa_ ngục</w>
Ð êm</w>
trừ_ phi</w>
oài_ người</w>
Minh_ chủ</w>
F err
i n_
as s
Lục_ Tuyết_Kỳ</w>
Đ ọc</w>
tối_ cao</w>
l ư</w>
cứ_ việc</w>
Cô_ nương</w>
è m_
nh ật_
mặt_ bằng</w>
l uống_
khách_ quan</w>
gi ầy</w>
_m ệnh</w>
Tr ưng</w>
Ph óng</w>
Ngọc_ Lan</w>
C ứ
C uối</w>
đ iệp_
tội_ ác</w>
nhăn_nh ó</w>
nguy_ cấp</w>
kh iết</w>
ghi_ chép</w>
d ìu</w>
chủ_ nghĩa</w>
Nh ung</w>
ẹ t_
Ð ổng_
tỉnh_ ngộ</w>
th ạo</w>
nằm_ xuống</w>
ngon_ lành</w>
ng áy</w>
m ẫn</w>
giở _trò</w>
dụng_ ý</w>
Th ị</w>
Chu_ Nhất_Tiên</w>
A ir
3 -
Đầu_ tư</w>
u p</w>
tr ên_
tr ân</w>
sản_ lượng</w>
gi ùm</w>
chiến_th uyền</w>
c ua</w>
Tp ._
S ai</w>
Hôm_ qua</w>
C áp</w>
B iết_
tận_ mắt</w>
trái_ phiếu</w>
r ốt</w>
l ặng_
Sắc_ mặt</w>
Phát_ triển</w>
P ro
8 00</w>
Đông_ Á</w>
tiêu_ chí</w>
người_ thường</w>
Ngh iên_cứu</w>
N _T
A b
1 /2012</w>
áo_ vàng</w>
r à_soát</w>
ph ức</w>
nh ện</w>
nh uộm</w>
cây_ xăng</w>
Te en</w>
Phili pp
Ph àm_
Nữ _lang</w>
độ n</w>
Ð ức_
vỉ a_hè</w>
h í</w>
al l
Bách_ Hoa</w>
tr ị
ru ồi</w>
m ùng</w>
l ọ</w>
Vũ_Văn_Hóa_ Cập</w>
Văn_ phòng</w>
Ph ó
La_ Hán</w>
ố m_
đại_ phu</w>
s âm</w>
n ép</w>
mù_m ịt</w>
chăm_ chăm</w>
b ố_
Trương_Tam_ Phong</w>
m on
m an_
hối_ hả</w>
S anh</w>
t ù
t iêm</w>
làm_ phiền</w>
dân_ cư</w>
chết_ đuối</w>
c au</w>
T ế</w>
Cám_ ơn</w>
Bất_ giác</w>
ý_ đồ</w>
riê ng_t
r ương</w>
ngần_ ngừ</w>
ng ậm</w>
dân_ chủ</w>
bà n_thờ</w>
Bar ca</w>
ung_ lũng</w>
tối_ tăm</w>
tiêu_ tan</w>
th í</w>
nghĩ_ bụng</w>
mới_ mẻ</w>
mưu_ đồ</w>
kinh_ động</w>
gay_ gắt</w>
chỉ_ định</w>
Qu ỳnh_
tiện_ ích</w>
r ễ</w>
góc_ độ</w>
ch ải</w>
789 9</w>
/0 4
ừ ng_h
làm_ ra_vẻ</w>
gắng_ gượng</w>
Chân_ Nhân</w>
đ ụng_
vuốt_ ve</w>
thương_ nghị</w>
th ê</w>
ch uộng</w>
Mộ_Dung_ Chiến</w>
Kh ổ</w>
H ô</w>
Cộng_ hoà_
ê_d uyệt</w>
trí_ nhớ</w>
n_th ảo</w>
l ít</w>
hiện_ trường</w>
Thanh_ Vân_
Qu án_
L and
Ch iêm_
ổ m</w>
đấu_ giá</w>
tr òng</w>
th ô_
ngờ_ vực</w>
e mail</w>
cô_ độc</w>
ch ì</w>
_t ai</w>
Thanh_ Long</w>
B ent
sở _dĩ</w>
sinh_ vật</w>
ph ấn_đấu</w>
b site</w>
Sư_ phạm</w>
R ô
L ưỡng_
đ ể
th ớt</w>
oo d</w>
mã n_
h ờ
Vậy_ là</w>
Th át_
P al
C _
ảnh_ đường</w>
thế_ công</w>
p in</w>
ng ậm_
ng ại_
ng án</w>
hiện_th ực</w>
b ôi</w>
Tr u
Tr iết</w>
Thực_ hư</w>
Nh am</w>
Bec kh
đánh_ thức</w>
nh ường_
h ủ</w>
bất_ an</w>
b ào_
_l y</w>
S ở
Đ ôi_
tr êu_
tr inh</w>
thẩm_ quyền</w>
t i_
nghiêm_ trang</w>
lễ_ vật</w>
gi áp_
T ả_
R ượ
J ake</w>
tỷ_ phú</w>
tán_th ành</w>
h òm</w>
cao_ siêu</w>
Câu_ nói</w>
v ườn_
t ạt</w>
hành_ lý</w>
Hà_ Lan</w>
Ch e
? _
g u
Indones ia</w>
v ăng_
tình_ báo</w>
thảm_ thiết</w>
t ê
sắp_ sửa</w>
ph ê_duyệt</w>
nghi_ hoặc</w>
choáng_ váng</w>
_th ừa</w>
S ang</w>
Mộ_Dung_ Thùy</w>
D an
/11 /2011</w>
đ ập_
đ iêu_
Đ ô
ân_ hận</w>
vi_ khuẩn</w>
tu_ luyện</w>
s úc</w>
lý _thuyết</w>
loại_ bỏ</w>
khôn_ lường</w>
h an</w>
cá ch_thức</w>
Vi c
Ngoại_ trưởng</w>
Lã_ Bất_Vi</w>
đ ài_
v ầy</w>
r eo_
h ao_
es s</w>
Champion s_
1 .000</w>
vương_ phủ</w>
n uốt_
dạy_ học</w>
ché m_
H ào</w>
D ừng</w>
Ban_ đầu</w>
B inh_
v èo</w>
tr o
thân_ binh</w>
l ó</w>
g i</w>
d ao_
Quan_ Trung</w>
ị u</w>
Đ àn_
trái_ lại</w>
Mat t</w>
H ổ_
đồng_ hành</w>
Đ ăng</w>
ý_ niệm</w>
trí _thức</w>
thông_ điệp</w>
th ối_
l e_
hộ_ vệ</w>
V ũ
B í_
đ inh_
z u
gia_ gia</w>
d ọn_
chút_ ít</w>
chi_ tiêu</w>
Mai_ Hoa</w>
H uynh_đệ</w>
Cộng_hoà_ Mỹ</w>
C a
nể_ mặt</w>
giảm_ giá</w>
g ân</w>
b àng_
M áy_
Hiệp_ hội</w>
ế ch_
đ u</w>
áp_ đảo</w>
thí_ nghiệm</w>
kho áng_
Thượng_ Hải</w>
Bởi_ vậy</w>
ột_ nhiên</w>
tho ả
chân_ tướng</w>
Thỉnh_ thoảng</w>
Se oul</w>
GTV T</w>
200 6</w>
t ơ
phong_ độ</w>
m ài</w>
l a
k o_
hợp_ nhất</w>
hò _h
ch ìa</w>
X à</w>
Ngh iệp</w>
Kh ố</w>
Bất_ Tà</w>
ù n_t
s ảnh_đường</w>
ph iêu</w>
kim_ loại</w>
học_ hỏi</w>
bồi_ thường</w>
biến_ động</w>
Y v
Liễu_ Mi</w>
Goet z</w>
th ang_
sôi_ nổi</w>
p u
l oài_người</w>
gọ n_
cười_ rộ</w>
Tr ẫm</w>
Ủ ng_hộ</w>
địa_ đạo</w>
từ_ biệt</w>
tr ấn_t
nó n</w>
nh ộn_
ngoại_ ngữ</w>
diện_ mạo</w>
ch ọc_
Mal ay
Ho á</w>
đ àm</w>
Ðại_ sư</w>
nhất_ thiết</w>
nguyên_ liệu</w>
ng_l ưới</w>
ng_h ồng</w>
ng ặt</w>
mất_ hút</w>
kia_ mà</w>
biểu_ lộ</w>
Kim_ Cương</w>
Dược_ Vương</w>
tai_ họa</w>
hợp_ pháp</w>
chống_ đối</w>
chém_ giết</w>
Qu ái_
Lục_ Tuyết</w>
Kh a_
Hòa_ Thị_Bích</w>
Fran k
Ch à</w>
Bả n_thân</w>
s ục</w>
e_ ngại</w>
b ự</w>
Ra ch
Cầm_ Thanh</w>
788 3</w>
Đ âu</w>
trống_ rỗng</w>
tr ú_
so ạt</w>
nhà_ bếp</w>
hoảng_ loạn</w>
V an
Ch ào</w>
đều_ đặn</w>
siêu_ thị</w>
r ồ</w>
mơ_ ước</w>
dân_ số</w>
duyên_ dáng</w>
cao_ tốc</w>
c as
Cơ _hội</w>
thực_ hành</w>
t ống_
số _liệu</w>
liên_ hoàn</w>
Lý_ Tử_
đường_ bộ</w>
va_ chạm</w>
thương_ tích</w>
r ẫy</w>
nhạc_ sĩ</w>
b ởi_
as -
_l ược</w>
Văn_ Tú</w>
Tống_ Kha</w>
F al
C N</w>
t ẩy</w>
kh ôi</w>
há _h
há_h ốc</w>
cất_ giọng</w>
c ạo</w>
bồi_ dưỡng</w>
Tiểu_ học</w>
Thăng_ Long</w>
T ông_
L ịch</w>
tức_ khắc</w>
to r</w>
thương_ vong</w>
t uốt</w>
ph ước</w>
ng ư
kinh_ dị</w>
kh àn</w>
c ày</w>
bộ_ đồ</w>
sâu_ thẳm</w>
sá u_
s ợ_
an o</w>
Tu ệ_
Th ú_
Ph ạm</w>
K en
B ại</w>
văn_ võ</w>
tán_th ưởng</w>
tiếp_ lời</w>
t ắm_
s ếp</w>
nóng_ lòng</w>
ed er
c ẩn_
bướ m</w>
C ố</w>
động_ đất</w>
ngh ẹn</w>
hành_ lễ</w>
c m</w>
Tống_ Sư_
R ốt_cuộc</w>
H am
Do_ vậy</w>
vật_ liệu</w>
lãng_ phí</w>
bội_ phục</w>
V ốn</w>
Sư_ Phi_Huyên</w>
L y_
vô_t ội</w>
tỉ _m
hoà _thượng</w>
d ào</w>
Th ổ_
Da vi
động_ lực</w>
năm_ tháng</w>
nh óc</w>
nh uyễn</w>
cô n_đồ</w>
ch ực</w>
Ngọc_ Yến</w>
3 7
Ph ụ</w>
ò m_
than_ thở</w>
t óe</w>
r ảnh</w>
r ào_
nội_ thương</w>
người_ dân</w>
giống_ hệt</w>
Lệnh_ Hồ_Xung</w>
đô _la</w>
tr ơ
tr ào_
d ưa</w>
cầu_ xin</w>
Th ầy_
Mặt_ trời</w>
Lu ân_
Ai_ nấy</w>
Ðình_ Phương</w>
riêng_t ư</w>
nhỏ_ xíu</w>
ngang_ nhiên</w>
cứng_ rắn</w>
c ào</w>
Khu ôn_
Ber n
ưu_ thế</w>
v ệt</w>
tự _th
H iu</w>
Chi_ bằng</w>
8 8</w>
Ð ột_nhiên</w>
thuận_t iện</w>
lộ _trình</w>
lệnh_ cấm</w>
hư_h ỏng</w>
c ận_
as- Bo
Vill as-Bo
T úc_
B ành_
xưng_h ô</w>
tr ù
nói_ thẳng</w>
ngần_ ngại</w>
kh ử</w>
iễ n_th
iên_ ngang</w>
h uống_hồ</w>
giao_ đấu</w>
Thái_ Nguyên</w>
T ư
tho ắt</w>
máy_ móc</w>
lị a</w>
l ỡ
ho ại</w>
h ót</w>
b in</w>
_l ưỡng</w>
S ố_
Ph u_
Kh ởi_
Cuộc_ sống</w>
C ùng_
đo ản_
yêu_ quý</w>
r át</w>
no n_
mu ỗi</w>
l ìa</w>
ch ĩa</w>
cam era</w>
U N
G ran
G en
Cl in
B ọn_ta</w>
xu ẩn</w>
tr ội</w>
th ẳng_
d afi</w>
Vô_ Lượng</w>
Tổng_ cục</w>
Tình_ hình</w>
Malay sia</w>
Dật_ Tài</w>
trân_ trọng</w>
nh ăng</w>
VN -Index</w>
TC _
Can ada</w>
ấp_th uận</w>
đoàn_ kết</w>
mạch_ máu</w>
m ác</w>
làm_ quan</w>
ch ừ</w>
_l ạnh</w>
T ăng_
T V</w>
Qu á</w>
Ph ân_
8 /2</w>
sư _tử</w>
ch ồm</w>
M ưa</w>
Giáng_ sinh</w>
5 9</w>
đao_ kiếm</w>
đ àng</w>
tr ổ</w>
thực_ chất</w>
sáng_t ác</w>
ch uy
Trần_ Hiếu</w>
To án_
Mes si</w>
tuổi_ trẻ</w>
tr ơ</w>
phòng_ ngừa</w>
khối_ lượng</w>
d ưỡng_
bánh_ mì</w>
Villas-Bo as</w>
M ưu</w>
H en
200 ,000</w>
tho áng_
th ốn</w>
t ướ
t iền_đ
m ạng_
C or
ng ạnh</w>
d ư_
ch óc</w>
bộ _máy</w>
_m ã</w>
_m an</w>
Dã_ Cẩu</w>
Bo b
Đầu_ tiên</w>
Á _
ph ơ</w>
ch ấp_thuận</w>
báo_ động</w>
_tr ung</w>
_t oán</w>
Serge i</w>
H O
E m
C ẩn</w>
4 _
- r
sơ_ sinh</w>
s martphone</w>
ngẩn_ người</w>
h iếm_
h iên_ngang</w>
bất_ mãn</w>
Khả_ Đạt_Chí</w>
Ch uyên</w>
C ặp_đôi</w>
Đ áp</w>
ngo ạn</w>
ca_ ngợi</w>
Trước_ kia</w>
Ch ánh</w>
13 /2</w>
tuân_ thủ</w>
sức_ khoẻ</w>
quát_ tháo</w>
n_th ất</w>
ho ãn</w>
cầu_ nguyện</w>
vốn_ dĩ</w>
e n_t
com bank</w>
Thứ_ Năm</w>
Cái_ bang</w>
ũ y</w>
tổng_ cộng</w>
t ịch_
phản_ công</w>
khung_ cảnh</w>
gi ăng</w>
O ai</w>
787 3</w>
ươ u</w>
nh am_
n ách</w>
n eo</w>
m ỏi_
gi ựt</w>
b ịch</w>
Lang_ Quân</w>
Diễ m_
C ap
x ăm</w>
u ế</w>
ng ụy</w>
m ại_
hình_ sự</w>
bổ_ nhiệm</w>
17 /2</w>
xử_ phạt</w>
rên_ rỉ</w>
o x
luống_ cuống</w>
Tiêu_ Lĩnh</w>
L ạ</w>
L am_
x uống_
vô _lý</w>
tài_ trí</w>
t úc_
h ờn</w>
d ạc</w>
Th ang</w>
Con_ trai</w>
Ch ẳ
ắm_ bắt</w>
âu_ yếm</w>
xúc_ phạm</w>
v ướng</w>
reo_ hò</w>
mù _l
lắp_ bắp</w>
lão_ thân</w>
h ệ_
gi ễ
c al
Trang_ chủ</w>
Thiên_ Địa</w>
Nguyễn_ Đức_
And re
ẩ n_đoán</w>
đ ố</w>
thái_ phó</w>
c ũ_
Kh ả</w>
Gad dafi</w>
th e
r ao</w>
q uyệt</w>
kh iếm_
hoan_ hỉ</w>
d ạt</w>
M s
K ình</w>
Ð iều</w>
v u_
tra_ xét</w>
kinh_ phí</w>
S an
Cu p</w>
Ch ồng</w>
ảm_ đạm</w>
Ð ồng_
sách_ vở</w>
dự ng_
d en
Steve_ Jobs</w>
Ng ắm</w>
N 1</w>
Hy_ vọng</w>
F eder
D ì</w>
Bao_ Công</w>
ặn_ lòng</w>
đẹp_ trai</w>
đại_ dương</w>
v iếng</w>
th iểu_
ngu_ xuẩn</w>
Tiêu_ Dao_
Thứ_ Sáu</w>
Ph í</w>
Mã_ Văn_
Champions_ League</w>
đánh_ dấu</w>
đ ăm</w>
Đề_ nghị</w>
r èn</w>
n ết</w>
m ôi_
m in
lia_ lịa</w>
hà _tất</w>
h ồ
chú _trọng</w>
V ỹ</w>
Ng ược_lại</w>
H N
đ i
nh ợt</w>
n ấm</w>
lừ ng_lẫy</w>
cảm_ tạ</w>
Tạ_ Huyền</w>
Kh ưu</w>
Đ ổng</w>
y ết</w>
v éo</w>
v er</w>
Rượ u</w>
Lãnh_ Thiền</w>
B C</w>
đ ảng_viên</w>
đ ả_
ôn_ nhu</w>
v an
từ _thiện</w>
tu s</w>
th ơm_
s ưng</w>
ng ày_tháng</w>
Tr ân_
E VN</w>
790 7</w>
o 0
giết_ hại</w>
chắc_ hẳn</w>
bu ồn_th
V P
Tiểu_ thư</w>
Nh iếp_
Hoàng_ Phủ_
Cảm_ giác</w>
Đ ảng_viên</w>
x ót_xa</w>
tinh_ thông</w>
lạ _thường</w>
cảm_ tình</w>
Tự_ nhiên</w>
Th iến</w>
B óng</w>
Anto ine</w>
ưng_ thuận</w>
v ượn</w>
o0 o</w>
khởi_ tố</w>
h ưởng_ứng</w>
H ỡi</w>
v ũng</w>
v ây_
gi ặt</w>
H ay_
G re
7 .
thoát_ thân</w>
h ăm_
c ọ</w>
bình_ quân</w>
Tp._ HCM</w>
Lẽ_ nào</w>
B ẩm</w>
0 2
, 000_
thám_ tử</w>
th ờ_
nghỉ _dưỡng</w>
lương_ tâm</w>
khuất_ phục</w>
h ẹn_
Uy ển</w>
T iếp_
Chu_ Thiên_
tâm_ tư</w>
cập_ nhật</w>
chớ p_
chỉ _dẫn</w>
bệnh_ hoạn</w>
U ông_
Ngọc_ Nữ</w>
Mã_Văn_ Phi</w>
Lâm_ Tĩnh</w>
C à_
1 19
nh ức_
n ắm_bắt</w>
Kh u_
ê n
hành_ quân</w>
bả n_tính</w>
Thái_ Tổ</w>
T ối_
Qu à</w>
đầu_ đuôi</w>
y_ tá</w>
nhận_ biết</w>
nhảy_ xổ</w>
ng ỡ</w>
lễ _hội</w>
lôi_ kéo</w>
hung_ ác</w>
gh en_t
chứng_ chỉ</w>
V õ
Trần_ Thị_
Ferr ar
/0 1/2012</w>
đáp_ lễ</w>
triển_ lãm</w>
sáng_t ỏ</w>
m ar</w>
kịch_ bản</w>
h ắt</w>
cổ_ xưa</w>
chịu_ thua</w>
c ự_t
bảy_ mươi</w>
Philipp ines</w>
201 9
xác_ minh</w>
th e</w>
t ế
t ông_
r ạng</w>
phù _th
ng ẫm</w>
Qu ặn_lòng</w>
Giao_ thông</w>
văn_t ự</w>
v ãng</w>
quyết_ đấu</w>
gi án</w>
d õng_
cảm_ hứng</w>
công_ cuộc</w>
ch óng_
T ạm_
Hoang_ tập</w>
đăm_ đăm</w>
Đ ính</w>
Ð ồ</w>
u m</w>
sáu_ mươi</w>
s ỉ</w>
dõng_ dạc</w>
Tr ăng</w>
Scot t</w>
Giang_ Văn_Thanh</w>
Đ ệ_tử</w>
v ắ
mù_l òa</w>
h èn</w>
cung_ cấm</w>
F u
Ð i</w>
tỏ _tình</w>
trung_ học</w>
nhất_ tề</w>
kích_th ước</w>
dẫn_ dắt</w>
căm_ hận</w>
Nam_ Á</w>
tối_ qua</w>
quá_ đáng</w>
nh áy</w>
ng_th ần</w>
lãnh_ tụ</w>
l áo</w>
hình_ dạng</w>
Hội_ đồng_
F A</w>
từ_ bi</w>
tuổi_ tác</w>
thỉnh_ giáo</w>
nô _lệ</w>
nh ạo</w>
ne t</w>
l as
không_ lẽ</w>
chìa_ khoá</w>
chi_ trả</w>
bảo_ vật</w>
bí_ quyết</w>
Tiên_ Sinh</w>
O _
tầm_ mắt</w>
sở _trường</w>
n y</w>
kính_ phục</w>
cự_t uyệt</w>
cười_ thầm</w>
bậ n_tâm</w>
_tr i</w>
Sự_ việc</w>
Lo u
Hồ_Xung_ đáp</w>
Công_ Khanh</w>
võ ng</w>
ng ũ
n ia</w>
Mari uy
M ilan</w>
Hầu_H ạo</w>
Gia_ Luật_
Bất_ Bại</w>
Đại_ tá</w>
trấn_t ĩnh</w>
s an</w>
h ộc</w>
nghênh_ tiếp</w>
g ẫy</w>
b e
X H</w>
V iên_
Ge or
Chính_ Thuần</w>
Đại_ sứ</w>
Ð ị
tàn_ ác</w>
s ky</w>
r ạch</w>
bất_ tất</w>
ba_ chục</w>
_h à</w>
Th ọ_
T NH
Lâm_ Bình</w>
B ill</w>
ỷ u</w>
điều_ hòa</w>
đ àng_hoàng</w>
th ung_lũng</w>
t ý</w>
ph ô_
khuyến_ cáo</w>
a ho
Th ú</w>
G V</w>
đồng_ môn</w>
tỷ _thí</w>
tim_ mạch</w>
b ách_
_thị _trường</w>
Thanh_ niên</w>
Nhạc_ Sơn</w>
Hầu_ hết</w>
ác_ mộng</w>
xi n_
thắt_ lưng</w>
suy_ đoán</w>
l ườm</w>
k iều_
e -
ch ẩn_đoán</w>
bao_ la</w>
Rach el</w>
Nh âm</w>
NG _
L ộ</w>
Hà_ Giang</w>
ấ n_thương</w>
đại_ danh</w>
v ạ</w>
rậm_ rạp</w>
m ươi_
lạm_ phát</w>
l ề</w>
khởi_ đầu</w>
dự _thảo</w>
cường_ địch</w>
anh_ trai</w>
ụ i_
r ết</w>
r áo</w>
lỗ _m
kỹ _lưỡng</w>
ch ướng_
bực_ tức</w>
b ỉ_
Mặt_ khác</w>
Kim_ Lan</w>
El in
xong_ xuôi</w>
học_ viên</w>
M ạch_
Lý_Tử_ Thông</w>
H S
Fo x</w>
Andro id</w>
4 -
00 .000</w>
v óc</w>
tranh_ đấu</w>
thực_ tiễn</w>
th iêng</w>
phản_ chiếu</w>
lo é</w>
_t ích</w>
T .</w>
Ngh iêm_
s to
kh ua</w>
cảnh_ vật</w>
Ph òng_
M ôn_
Feder er</w>
ử ng_
đồ n_đại</w>
thở _h
s ấn</w>
r u</w>
mơ_m àng</w>
m er
gợi_ ý</w>
d ụi</w>
cầm_ đầu</w>
cương_ quyết</w>
cơ_ mà</w>
bảo_ hộ</w>
al i</w>
Thạch_ Thanh</w>
S ông_
C ục_
Bắc_ Ninh</w>
Í t_
tr ận_
sơn_ trang</w>
l ờ</w>
chuyể n_đổi</w>
ch ồng_
Minh_ Giáo</w>
Hồ_Xung_ nói</w>
Dương_ Tiêu</w>
10 0,000</w>
đè _
tổ_t iên</w>
thượng_ nhân</w>
t ạng</w>
ng ã_
bộc_ lộ</w>
D ượng</w>
đè n_l
đánh_ cắp</w>
ù_ vù</w>
tri_ thức</w>
quốc_ phòng</w>
Trước_ đây</w>
Mis s_
C ách_
ẩn_ nấp</w>
đ iện_th
Ð ao</w>
truy_ cập</w>
th iê
m an
Nh ơn</w>
Ma u
Dự_ kiến</w>
0 2/2012</w>
vi c</w>
sinh_ học</w>
quy _tắc</w>
nói_ riêng</w>
lu ồn</w>
l ân_
kh ăn_
hãm_ hại</w>
es _
bình_ sinh</w>
Trung_ Đông</w>
Lão_ gia</w>
K ỹ_thuật</w>
ổn_ ngang</w>
Ư ớ
t ây_
sát_ thủ</w>
s p
quyết_ chiến</w>
m ày_
k y
hoàng_th ượng</w>
gia_ nhân</w>
cuồng_ phong</w>
X ót_xa</w>
Vô_Vi_ đạo_trưởng</w>
Th át</w>
Ho à</w>
H 5
Elin or</w>
ườ m_
đ ẹ
thủ_l ĩnh</w>
s ệt</w>
ruộ t_
n_l út</w>
n ồng</w>
l ô
giải_ thoát</w>
giao_ tiếp</w>
_h ộ</w>
Nhạc_ Linh_San</w>
đ ấng</w>
phá_h ủy</w>
nhân_ gian</w>
n ão_
l ừng</w>
is a</w>
g ame</w>
dã _man</w>
binh_ mã</w>
V ũng_
N N</w>
ợt_ nhạt</w>
đối_ đãi</w>
thị_ xã</w>
thu ỷ</w>
tan_ vỡ</w>
l ắng_t
giám_ khảo</w>
d y</w>
U ông</w>
Ste ve</w>
độc_ thân</w>
đường_ sắt</w>
trái_ phép</w>
triệt_ để</w>
thành_ thật</w>
sôi_ động</w>
o ại_
nh ợt_nhạt</w>
nh ả</w>
n_đ ứng</w>
lé n_lút</w>
Tr anh_
S áng_
Quốc_ Tuấn</w>
M c
M ao_
B r
đồ_ vật</w>
tr òn_
tai_ nghe</w>
s ẫm</w>
kiên_ trì</w>
gia_ sư</w>
Ph ượng_
L ao_động</w>
Kh âm_
8 ,
đe m_
viên_ chức</w>
th án_
nh u
giá n_đ
d iệt_
X ê-
Nữ _hoàng</w>
H5 N1</w>
C ửa_
đ ế_
ùn_t ắc</w>
thuyền_ trưởng</w>
khoa_học_ tự_nhiên</w>
c ống_
Nob el</w>
Minh_ bạch</w>
ẩ n_thân</w>
ê ng</w>
thi_ công</w>
quan_ binh</w>
ng ổn_ngang</w>
m_c ỏi</w>
lãnh_ thổ</w>
khí_h ậu</w>
_ho ặc</w>
T ội_
S ử_
Phụ _nữ</w>
tuyệt_ đỉnh</w>
o át</w>
nh ẹ
lồng_ ngực</w>
ké m_cỏi</w>
khởi_ động</w>
d er
Quý_ Phái</w>
*_ *</w>
đại_ trượng_phu</w>
y_ học</w>
vắng_ vẻ</w>
tí n_đồ</w>
ng ùi</w>
ho á_
g ật_
chiếm_ đoạt</w>
V ẻ</w>
Nghĩa_ là</w>
1 20</w>
ẳ n_
Đông_ Dương</w>
vàng_ bạc</w>
tự_ ý</w>
ngất_ xỉu</w>
cửa_ hiệu</w>
chống_ chọi</w>
Văn_ Mẫn</w>
T ịnh_
H iển_
B S
đúng_ đắn</w>
Đ ời</w>
tấm_ gương</w>
t ốp</w>
ha_h a</w>
báo_ đáp</w>
b ừa_
Q U
Ph im</w>
M ou
Khuôn_ mặt</w>
Bình_ quân</w>
y_th ị</w>
v ấp</w>
v ành</w>
tổn_ hại</w>
tối_ đen</w>
nhập_ học</w>
m ồ</w>
ho ạch</w>
gi ày_
chất_ béo</w>
chăn_ nuôi</w>
P or
é c</w>
Âm_ Dương</w>
vinh_ dự</w>
v ù_vù</w>
thần_ trí</w>
t ượng_
phản_ kháng</w>
m ạt</w>
công_ sức</w>
bất_ ổn</w>
S an_
Mu r
Mic ro
đ ùng_
tức_ thì</w>
tôn_ kính</w>
thảm_ họa</w>
r ầy</w>
ho ạn_
gi ỏ</w>
căn_ dặn</w>
câu_ hỏi</w>
biến_ chứng</w>
Truyền_th ông</w>
Ph ước_
Giáo_ dục_
ơ ng</w>
kêu_ la</w>
chuyện_ trò</w>
X o
Phụng_ Phi</w>
Phạm_ Văn_
N ông</w>
Mich a
Gran t</w>
kinh_ sợ</w>
h ươu</w>
Võ_ Ð
Tiền_ bối</w>
Ư ng</w>
tr à_
thất_ sắc</w>
thảm_ hoạ</w>
ng ỡ_ngàng</w>
bài_ toán</w>
X ương_
X uyên_
Tuyệt_ sư</w>
Nguyễn_ Nguyễn_
Kim_ Bình_Nhi</w>
văn_ hoá</w>
tr ăng_
thần_t ượng</w>
oại_ di_động</w>
l ung</w>
kinh_ thành</w>
chập_ ch
ch ép_
c ộ
bàn_ luận</w>
Ph ùng</w>
Không_ sao</w>
Hà_ Nam</w>
B ái_
ớ_ ngẩn</w>
đồng_ đạo</w>
tiền_ mặt</w>
thường_ ngày</w>
sinh_ mạng</w>
phi_ công</w>
g ăm</w>
H ễ</w>
9 ,
/ 2009</w>
ước_ tính</w>
yếu_ kém</w>
tỉ_m ỉ</w>
trực_ thăng</w>
trên_ dưới</w>
nhiệm_ kỳ</w>
lẽ_ ra</w>
kh ái_
há _miệng</w>
Hoà nh</w>
Biên_ Hoang_tập</w>
ể _dục</w>
ng_l iêng</w>
ng ớ_ngẩn</w>
hộ_ pháp</w>
h ưng</w>
giận_ dỗi</w>
cởi_ mở</w>
c ọc</w>
M ỹ
Báo_ cáo</w>
r on</w>
mê _hoặc</w>
hoang_ dã</w>
dạy_ bảo</w>
X ô</w>
Tr ừ_
Ng ao_
B iểu</w>
6 /2019</w>
3 4
s ải</w>
ri d
r ầu_
ng ự_
n ạc</w>
lừa_ dối</w>
khu ỷu</w>
chênh_ lệch</w>
ch ư
Tây_ Hạ</w>
Nh ã_
M ẹ_
Ch ar
10 0_%</w>
ế m_
Đại_ Lý</w>
tướng_ sĩ</w>
tr ịnh_
thống_ khổ</w>
s ừng</w>
s ấm_
s hi
ph ượng</w>
l d
kiểm_ điểm</w>
ch ắp</w>
Tr ả
Me gan_
Chủ_ nhật</w>
đ oà
to a</w>
thán_ phục</w>
r ong</w>
giao_ thủ</w>
Ng ừng</w>
Cửu_ Long</w>
Cùng_ với</w>
đại_ sứ</w>
trở_ đi</w>
thân_ hành</w>
sức_ ép</w>
r anh_
ngoảnh_ đầu</w>
ngh ịch_
ng_l ĩnh</w>
mong_ đợi</w>
m ặn</w>
có_ ích</w>
can xi</w>
V en
Từ_ Thiên_
Tho át</w>
Song_ Nhi</w>
Diên_ Khánh</w>
26 2</w>
Đ ua</w>
v ệ
v ê</w>
trịnh_ trọng</w>
thiê ng_liêng</w>
phì_ cười</w>
nh uệ</w>
ng_ lớp</w>
k in
hỏi_ han</w>
d ong</w>
d iệu_
chiến_th uật</w>
M ẫu_
F i
đ ư
s ùng_
r ay</w>
họ _hàng</w>
Võ_ Ðang</w>
Ng ạch_
Fal ko_
Ch ữ</w>
Ðại_ ca</w>
v ớ</w>
trọ n_vẹn</w>
tr ạc</w>
rơi_ lệ</w>
ch ảo</w>
ch ìm_
L ên</w>
E li
se x</w>
quần_ chúng</w>
nh ằn</w>
ng_t ộc</w>
l ốc</w>
ch ấn_thương</w>
X a</w>
Vietnam '
Tư_ Đồ</w>
Thị _thần</w>
Quận_ chúa</w>
6 9</w>
Đại_ sư</w>
v ả_lại</w>
tuyệt_ luân</w>
th ú
lão_ bà</w>
hoàng_ tử</w>
câu_ lạc_bộ</w>
ch ận</w>
Phạm_ Thị_
Megan_ Fox</w>
Cao_ Thức</w>
A f
đồng_ bộ</w>
ke ng</w>
giai_ cấp</w>
dung_ mạo</w>
cấu_ kết</w>
b ơ</w>
Nh ượng</w>
tứ _t
song_ thân</w>
ng ư</w>
lớn_ nhỏ</w>
lý_ giải</w>
hi_ sinh</w>
chẳ ng_th
cay_ đắng</w>
an_ bài</w>
No el</w>
Ngày_ nay</w>
G ương_mặt</w>
đội_ tuyển</w>
ãy_ giờ</w>
văn_ chương</w>
trẻ _trung</w>
sai_ sót</w>
l ượng_
l ơ_
canh_ giữ</w>
bất_ bình</w>
ar d
Thái_ Bình_Dương</w>
Re al</w>
H ình</w>
ạc_ sĩ</w>
ác_ độc</w>
t ồn_
quân_ sư</w>
một_ mạch</w>
bốn_ phương</w>
V ati
Nhà_ vua</w>
L or
C ố_
đoản_ kiếm</w>
vùng_ xa</w>
hoa_h ồng</w>
bùng_ nổ</w>
bình_ an</w>
Tổng_ giám_đốc</w>
Lý_ Tư</w>
í ch_l
r iết</w>
ng át</w>
manh_ mối</w>
l ẩn</w>
ber g</w>
Vương_ Quốc</w>
T A
M iền</w>
H ung_
đẹ p_mắt</w>
s ỡ</w>
kh ao</w>
hiền_ lành</w>
V iêm</w>
9 5</w>
1 /2</w>
đau_ nhói</w>
trộ m_
ti vi</w>
sho w
s ữa_
ph ẩy</w>
kh o_
Trường_ hợp</w>
H ung</w>
Gi á_
7 1</w>
đầ m_đ
đầm_đ ìa</w>
ý_t ộc</w>
th ỏ</w>
kho ét</w>
cấm_ vệ</w>
chủ_ nhật</w>
chim_ ưng</w>
_d ành</w>
Vũng_ Tàu</w>
Th ử</w>
201 2_
đồng_ tử</w>
xa_ cách</w>
x ướng</w>
so r
phong_ tỏa</w>
nh ĩ</w>
ngẩn_ ngơ</w>
le t</w>
Joh n_
u_ ám</w>
t ía</w>
sửa_ soạn</w>
phân_ chia</w>
củ a_
Trường_ Sinh</w>
Mo s
Hoà ng_hậu</w>
B ằng_
20 00</w>
định_ cư</w>
nội_ thất</w>
mở _m
Thượng_ Tú_Phương</w>
._ Ông</w>
ẩn_ hiện</w>
í_ nghiệm</w>
v ướng_
tinh_ vi</w>
thứ_ bảy</w>
thổ _lộ</w>
th ói</w>
t ạc</w>
sơn_ động</w>
ngăn_ ngừa</w>
liên_ minh</w>
e z</w>
cuố n_
L âu_
H y
Ch ri
đ iểu</w>
tự_ nguyện</w>
ngắn_ hạn</w>
ngh ía</w>
gi ác_
bánh_ xe</w>
Ho ằng_
6 7</w>
ỉ u</w>
Đ ánh</w>
x ẩy</w>
tổ_ sư</w>
thân_ thế</w>
in a_
châu_ Phi</w>
ch ầu</w>
ch ư_vị</w>
Ngo an</w>
M ũi</w>
Không_ khí</w>
8 5</w>
ướ p</w>
điềm_ đạm</w>
áo_ choàng</w>
vô_ song</w>
thang_ máy</w>
ro up</w>
h ước</w>
cuố ng_
bần_ bật</w>
b ích</w>
G iết</w>
Ch ớ</w>
ườ I</w>
ác_ liệt</w>
xử _trí</w>
v àn</w>
tướ ng_lĩnh</w>
thu ần_
qu ỵ</w>
phong_ bì</w>
ng ắm_
Th ao</w>
Lệnh_ Hồ_
Kho an</w>
tại_ chức</w>
mạ ng_lưới</w>
lão_ sư</w>
l i_
kiên_ cố</w>
hoành_ hành</w>
dọn_ dẹp</w>
chấp_ hành</w>
Tr anh</w>
T ường_
R u
Nguy ên_t
7 00</w>
điện_th oại_di_động</w>
Đông_ Tử</w>
úp_ bê</w>
tung_ hoành</w>
tiếp_ ứng</w>
p er
nhảy_ múa</w>
như _thường</w>
nha_ môn</w>
lo ang_
h áo_
dòng_ họ</w>
_th ống</w>
Qu ần_
Pre mi
H àm</w>
Bắc_ Phủ_
B iển</w>
30 _triệu</w>
đồng_ bọn</w>
r iêng_
m ắng_
l ọi</w>
cổ_t ức</w>
ch ùi</w>
cam_ tâm</w>
bi_ thương</w>
Tú_ Tú</w>
S on
R ớt</w>
P _
D ầu_
Bạch_ Phong</w>
đ ô_
quý_ giá</w>
may_ ra</w>
j o
a o
_l ỗi</w>
Tương_ Dương</w>
D iện</w>
đ ứt_
t iều_
miễn_ dịch</w>
gi êng</w>
chuyển_ nhượng</w>
ai_ nghe</w>
V y</w>
N ét</w>
H ác</w>
E r
Chủ_ Nhật</w>
ứng_ viên</w>
ứng_ biến</w>
Đại_ Trúc_Phong</w>
tử _thi</w>
t ống</w>
qu ách</w>
mỹ _lệ</w>
du_ học_sinh</w>
diễ m</w>
Trả _lời</w>
Trường_ Giang</w>
đâm_ ra</w>
w ood</w>
tu ấn_
Tiểu_ Quế_
Sự _thật</w>
S ản_
Micro sof
C ánh_
21 /11</w>
ẵ m</w>
ân_ cần</w>
văng_ vẳng</w>
v ấn_
tùy_ tùng</w>
tr ố</w>
thiêu_ đốt</w>
hết_ thảy</w>
Mới_ đây</w>
Hoàng_ cung</w>
F e
200 5</w>
v iễn_
nhân_ tạo</w>
luật_ pháp</w>
c ổ_th
a k</w>
Vati can</w>
Lý_ Kiến_Thành</w>
79 13</w>
Ðiền_ Bá_Quang</w>
xo a_
tâm_ huyết</w>
hủy_ diệt</w>
hải_ quân</w>
g ào_
cực_ điểm</w>
Tất_ Huyền</w>
Mộc_ Hợp</w>
Kh ương_
G ương_
Chẳ ng_hạn</w>
Bắc_ Giang</w>
v ần</w>
t ục_
khí _lực</w>
k ý_t
h ệ
e _d
v iệt</w>
th a_hồ</w>
s ào</w>
k a
d ép</w>
cứu_ viện</w>
cúm_ A</w>
c ụt</w>
bàn_ giao</w>
Trước_ mắt</w>
L ời_
Đ ội_
trơ _tr
thâm_ tâm</w>
rung_ chuyển</w>
ph ù_
nh ậu</w>
n ua</w>
m ùi_
hài_ cốt</w>
huy ên_
chủ_ quyền</w>
ch è</w>
b ách
Tín_ Lăng_quân</w>
Nh àn</w>
L H
6 -
đ iềm</w>
ô_ nhiễm</w>
tinh_ diệu</w>
pro tein</w>
ngàn_ dặm</w>
lũ _l
làm_ bộ</w>
d ạo_
d ô</w>
b ền</w>
Rich ard</w>
Quả _thật</w>
Kh iên</w>
đau_ thương</w>
we bsite</w>
th ẩm</w>
giá_ cả</w>
cảm_ tưởng</w>
Hay_ là</w>
Gi úp</w>
B ố_
25 9</w>
ò_m ã</w>
tho a</w>
th ừng</w>
ne y</w>
b ổn_
_m i</w>
Tây_ Tạng</w>
Tr âm</w>
S ai
đồng_ tính</w>
đ ới</w>
tuân_ lệnh</w>
trọ ng_lượng</w>
th ai_
s -
hiếm_ hoi</w>
Toàn_ bộ</w>
Phù_ Kiên</w>
u g
tinh_ nhuệ</w>
thứ _tự</w>
n ặc</w>
huyên_ náo</w>
c à</w>
bị_ cáo</w>
Tướng_ quân</w>
Thiên_ Thiên_
B ur
A ID
7 2</w>
0, 000_
đối_ đáp</w>
vận_ mệnh</w>
qu i</w>
ph ú_
ngắm_ nghía</w>
bản_ năng</w>
Tiế ng_
Ph í_
Học_ bổng</w>
ẩn_ mình</w>
ước_ mắt</w>
á c
tự_th áp</w>
trà_ trộn</w>
t ệ
r ơm</w>
qu ậy</w>
qu ý_tộc</w>
phiền_ phức</w>
nghĩa_ vụ</w>
lan_ can</w>
go r</w>
ar _
an a</w>
P r
F er
đột_ kích</w>
Âm_ nhạc</w>
thì _th
sở _thích</w>
suy_ giảm</w>
bó _tay</w>
b ù_
T N
K un
Ch ánh_
200 4</w>
điển_ hình</w>
trang_ sức</w>
t ám_
qu ên_
ngư_ dân</w>
ma_ quỷ</w>
k ề
iễn_th ông</w>
cá _tính</w>
chép_ miệng</w>
b ồ_
Mã_ phu_nhân</w>
Kh ách_
xếp_ hàng</w>
thời_ giờ</w>
ng ôi_
bại_ trận</w>
Thành_ vương</w>
T ổng</w>
Hoa_ hậu</w>
đề_ án</w>
đ iếc</w>
ân_ oán</w>
Ð ỗ_
x ộn</w>
v ớt</w>
trả_ giá</w>
triệu_ tập</w>
thâm_ hậu</w>
nhà_ sản_xuất</w>
mưa_ gió</w>
mong_ manh</w>
ao_ ôi</w>
Tr ẻ</w>
T òa</w>
Sơn_ Trang</w>
N ap
Không_ những</w>
B ến_
x ẹt</w>
v ì_lẽ</w>
s ộ</w>
s ảng</w>
phong_ cảnh</w>
Thái_ Cực</w>
T át_
Long_ Dương</w>
đ út</w>
ên_t âm</w>
thị_tr ường_
r én</w>
phân_ vân</w>
l íu</w>
kh ẻ</w>
kh ao_
k í</w>
ch ê_
c úc</w>
_d ối</w>
Thu ý_
L ũ</w>
Kh í</w>
Hoang_ nhân</w>
Cầu_ Giấy</w>
đ ích_
to r
tiên_ tiến</w>
lắc_ lư</w>
lạc_ quan</w>
d ùm</w>
cả _
X a_
I A
Bá_ Thông</w>
đùng_ đùng</w>
đem_ lòng</w>
xỉ a</w>
u ý</w>
r ảo_
phong_ lưu</w>
lung_ tung</w>
hành_ thích</w>
es t</w>
ch ưng</w>
Vương_ Ngọc_Yến</w>
New s_
K ar
784 7</w>
tu ỳ
trung_ cấp</w>
thần_t ốc</w>
t ồi</w>
r è</w>
mở _t
b or
b iếu</w>
Thiếu_ phụ</w>
Ngoại_ ngữ</w>
Gi ao</w>
B ẩy</w>
B ân_
xuất_ huyết</w>
tứ_ kết</w>
lưu_ tâm</w>
l ia</w>
h ưởng_th
Cu p_
Đông_ Nam_Á</w>
rùng_ rợn</w>
d ù_
Tú_ Sĩ</w>
Tác_ giả</w>
Sư _huynh</w>
9 /2</w>
Ấ y</w>
ăn_ xin</w>
v .
tỷ_ số</w>
th ầu</w>
r ảnh_
máy_ ảnh</w>
l ộng</w>
it an
go m</w>
dự _trữ</w>
a do
T ính_
Nguyễn_ Hữu_
B ố
6 8</w>
v o</w>
tranh_ giành</w>
tr ưng_
o f</w>
người_ đời</w>
ng ước_mắt</w>
lớ n_t
lộn_ xộn</w>
k iểm</w>
hài_ hước</w>
gi ò</w>
chu ôi</w>
Phàm_ Bình</w>
Ma_ Giáo</w>
Đạo_ Nhân</w>
tái_ hiện</w>
thái_ dương</w>
th èm_
sơn_ cốc</w>
oán_ hận</w>
oai_ phong</w>
n iệm_
m ím</w>
bi z</w>
b ão_
Tr ắng</w>
Hoàng_Phủ_ Tinh</w>
điện_ hạ</w>
xe_ khách</w>
r ách_
nghi_ vấn</w>
n_đ ạt</w>
mỏi_ mệt</w>
l ảnh</w>
hiệ n_thân</w>
giải_ độc</w>
d ằn</w>
cứu_ chữa</w>
cầu_ cứu</w>
cân_ đối</w>
_th ế_
L ê
Cứ u</w>
B ỏ</w>
và_ Đào_tạo</w>
thí m</w>
r ải</w>
ch iên</w>
Ng ọ</w>
GS .
Ả nh_
ón_ rén</w>
rất_ đỗi</w>
nhỏ_ nhẹ</w>
nghĩa_ khí</w>
mục_ trường</w>
công_ đường</w>
cuồng_ nhiệt</w>
Olymp ia</w>
/1 0
đầu_ vào</w>
xỉ n</w>
từ_t ốn</w>
m ỏng_
m í</w>
lãnh_ đạm</w>
for d</w>
dụng_ tâm</w>
binh_ lính</w>
Lý _huynh</w>
điểm_ tâm</w>
đ ít</w>
uố n_
tr iệt</w>
s ặc_
r anh</w>
k ét</w>
h ực</w>
h 30</w>
a_ mai</w>
T a
Hư_ Vô</w>
30 .000</w>
xã _hội_
x ào</w>
s i_
người_ ngoài</w>
N ằm</w>
Khả_ Ngọc</w>
Gi à</w>
ăn_ trộm</w>
tịch_ mịch</w>
thực_ thi</w>
ol i</w>
nhắm_ nghiền</w>
kết_ nghĩa</w>
W i
Thân_ hình</w>
M ộ</w>
Lưu_ đại_nhân</w>
Gương_ sáng</w>
B _
úng_ tay</w>
thừa_ kế</w>
nỗ i_
người_ người</w>
lã ng</w>
c af
Kh ẩu</w>
Huyền_ Hoàng_
B ổng</w>
A .</w>
thực_ vật</w>
lý _luận</w>
le an
hắng_ giọng</w>
gấp_ rút</w>
g àng</w>
chần_ chừ</w>
ạm_ đội</w>
Đại_ diện</w>
tr ại_
quấy_ nhiễu</w>
quan_ quân</w>
o ải</w>
nhăn_ mặt</w>
mặc_ dầu</w>
mô n_đồ</w>
g ân_
chủ_ nghĩa_
ag e</w>
Ch ia_
Đỗ_ Cửu</w>
x ài</w>
thượng_ phong</w>
thoáng_ qua</w>
phòng_th í_nghiệm</w>
mươi_ lăm</w>
gi ề
Ninh_ Đạo_
N ặc</w>
Bởi_ thế</w>
Bàn_ tay</w>
AID S</w>
8 /
tài_ nguyên</w>
kế_ tiếp</w>
am p</w>
V iết</w>
Tr a</w>
M ối</w>
v ế</w>
th òi</w>
ng à</w>
hung_h ãn</w>
cùng_ cực</w>
Kinh_ Châu</w>
Hồ _huynh</w>
ẹt_ thở</w>
Đại_ Minh</w>
Ð a</w>
thủ_l ãnh</w>
thành_ thử</w>
gọn_ gàng</w>
già_ nua</w>
gi ó
ch ặng</w>
_tr uyền</w>
_l ỗ</w>
Tiểu_ huynh</w>
P E
ạm_ bẫy</w>
Điểm_ nóng</w>
ý_t ứ</w>
tài_ nghệ</w>
thù _h
ph a_
mềm_ nhũn</w>
là n_sóng</w>
dài_ hạn</w>
d ia</w>
TB N_T
TBN_T ennis</w>
Nghị_ định</w>
N iệm</w>
Liên_ hoan_
H ỗ
Cup_ Châu_Âu</w>
Ỷ _
th ả
ngoài_ trời</w>
n ô_
l áng_
câu_ thơ</w>
chế ch</w>
bảo_ tồn</w>
V Đ
T iện_thiếp</w>
O S</w>
C ư_
5 00,000</w>
1_ ,</w>
Ð an_
r ón_rén</w>
qu ấy</w>
mỉ a_mai</w>
hung_ hiểm</w>
bảo_ toàn</w>
W all</w>
Tử_ Đình</w>
Tr u</w>
Thiên_ Thu</w>
F C</w>
tổ n_thất</w>
trầm_ tư</w>
giả o_
Thương_ mại</w>
M ức</w>
L iêu_
Hành_ động</w>
Ð ộc</w>
Âu_Dương_ Phong</w>
trừ_ khử</w>
s ách
khởi_ hành</w>
d ẻ</w>
O p
B ạc</w>
ớ t_
ốt_ nhiên</w>
Đôi_ khi</w>
thư_ giãn</w>
r áp</w>
m óc_
iêu_ tả</w>
cung_ ứng</w>
binh_ lực</w>
Te ab
Quốc_ phòng</w>
P an
Ngọc_ Đường</w>
Lý _do</w>
Kiều_ bào</w>
đ ính</w>
vô_ sự</w>
v ụng_
tu_ viện</w>
tiến_ triển</w>
quả_ nhân</w>
m ang_
lắng_t ai_nghe</w>
l d</w>
gật_ gù</w>
T ốc_
T úc</w>
Bent ley</w>
201 6</w>
áo_ bào</w>
v ơi</w>
tr ốn_
thú_ nhận</w>
ho t</w>
e p</w>
buồn_th ảm</w>
Pi err
Hồng_ Lan</w>
Bình_ Định</w>
Bra z
ưa_ thích</w>
thẩm_ mỹ</w>
sáng_ ngời</w>
lớn_t uổi</w>
lật_ đổ</w>
l ùm</w>
hăng_ hái</w>
giả _dối</w>
gian_ tặc</w>
f f</w>
d ây_th
chóng_ mặt</w>
ai_ ai</w>
_m ạo</w>
V ệ_
Thủy_ Nguyệt</w>
Nh ận_
C ẩm</w>
thoái_ lui</w>
show biz</w>
nhà_ vệ_sinh</w>
hò_h ét</w>
h ứng_
d ậm</w>
c ược</w>
Tạ_ An</w>
Tr ừ</w>
Th áp_
T ý</w>
J us
Giáo_dục_ và_Đào_tạo</w>
5 _triệu</w>
x uyến</w>
tranh_ đoạt</w>
quay_ cuồng</w>
nghênh_ đón</w>
ngay_ ngắn</w>
nam_ sinh</w>
hiệu_ lệnh</w>
d ệt</w>
cử _tri</w>
cao_ quý</w>
c ắn_
bất_ cập</w>
bí _thư</w>
Vương_ Phi_
Tình_ trạng</w>
Trường_ Lâm</w>
Câu_ hỏi</w>
B ội</w>
đối_ lập</w>
đề_ cử</w>
ur t</w>
tử_ cung</w>
tiểu_ đường</w>
tham_ vọng</w>
quân_ địch</w>
l ụt</w>
hù ng_h
ham_ muốn</w>
giề ng</w>
ch ăng_
b âng_
Y ou
Tr ùng</w>
Ho ạt</w>
B S</w>
6 2</w>
0 -
đỉnh_ cao</w>
đặc_ điểm</w>
đại_ tá</w>
phá n_đoán</w>
phá n_
ng_l ong</w>
n_thu ần</w>
m ông_
hóa_ chất</w>
hung_h ăng</w>
Xem_ chừng</w>
Th ay</w>
B iệt_
nghiêm_ ngặt</w>
m iêu_tả</w>
h ãn</w>
bại_ lộ</w>
Thủ_ đô</w>
Hắc_ Bạch_
Gi ai_
Chấn_ Nam</w>
đường_ dây</w>
điên_ rồ</w>
l ữ
cu ả</w>
chẳng_ mấy_chốc</w>
c ừu_
c ạm_bẫy</w>
Tr ở_
Thật_ là</w>
Te h
làm_ loạn</w>
kết_ giao</w>
giả_ bộ</w>
d ang</w>
cửa_ lớn</w>
bổn_ phận</w>
V _
Trấn_ Thành</w>
H ạt</w>
Co i_
ứng_ xử</w>
m ờ_mờ</w>
g à_
ch ích</w>
X ét</w>
Hài_ nhi</w>
Ch uyên_
đâm_ chết</w>
đa_ tạ</w>
thiên_ tử</w>
châu_ báu</w>
chi_ nhánh</w>
ch u</w>
W o
Tống_Sư_ Đạo</w>
Tr ẻ_
Teab ing</w>
Microsof t</w>
Kh ám_
F PT</w>
đột_ nhập</w>
đơ n_thuần</w>
v ong_
tu_ sĩ</w>
phát_ điên</w>
k ình_
giấy_ phép</w>
d ẫm</w>
V ực</w>
Nha_ Trang</w>
ướt_ đẫm</w>
đại_ pháp</w>
xin_ phép</w>
v ịnh</w>
tr ật</w>
qu ật_
qu ần_th
kinh_ hoảng</w>
hình_ bóng</w>
dạy_ dỗ</w>
cư_ xử</w>
Tiểu_ Siêu</w>
Liên_ bang</w>
Dương_ Phong</w>
15 /2</w>
ủ n</w>
đội_ hình</w>
thể_ xác</w>
thần_th ánh</w>
nh ác</w>
hưởng_th ụ</w>
h uyền_thoại</w>
dẫn_ dụ</w>
che_ kín</w>
_t ỳ</w>
Tương_ vương</w>
Trần_ Văn_
T ang_
M ón</w>
H ấp</w>
điềm_ tĩnh</w>
x ưng_
t ăm_
sợ_ sệt</w>
ph ép_
h ậm_
Thiên_ Âm_
Ngoại_ giao</w>
Lý_ Lan</w>
Liên_ Xô</w>
Hà_ Đông</w>
*_*_ *_*_
đánh_ lừa</w>
á _m
thân_ pháp</w>
t uy_
nhà_ nghiên_cứu</w>
hồn_ nhiên</w>
h ỷ</w>
chủ_ quan</w>
b ú</w>
X ong</w>
Lưu_ Hắc_
6 6</w>
ẫ n_l
đ ành_
Đ ón</w>
thử _hỏi</w>
mật_ thiết</w>
c ẩm_
a_ ]</w>
X ử_
To yo
C I
B í</w>
‘ _
vệ _tinh</w>
v ỡ
tan_ nát</w>
t ần</w>
rượ i</w>
nh iên_
m ầm</w>
l ấn_
không_ tưởng</w>
huyền_ bí</w>
bừa_ bãi</w>
b ục</w>
b ơm</w>
S A
M áu</w>
HC V</w>
D òng</w>
C .
ể_ oải</w>
trăm_ ngàn</w>
thần_th ông</w>
thương_ hại</w>
t uy
nh e</w>
ng s</w>
lo_ liệu</w>
hậm_ hực</w>
X anh</w>
Tr à</w>
ND ĐT</w>
GDĐ T_
Frank ie</w>
Co i</w>
Ch ừng</w>
tốt_ lành</w>
tàn_ bạo</w>
truy_ đuổi</w>
th ụ
rảo_ bước</w>
p_th ể_dục</w>
nổi_ nóng</w>
nguyên_ vẹn</w>
hình_ phạt</w>
hoàng_ kim</w>
cắt_ giảm</w>
ch ả
Tr i
TP .</w>
x úm</w>
u ất_
ng_ bét</w>
ng ọ</w>
ab e
T ỉnh_
Minh_ Hóa_
M ười_
H ill
Ed w
tổng_ kết</w>
t ẩu_
sở_h ữu_
nổi_ cơn</w>
er i
cộng_ sản</w>
chiến_ mã</w>
_t ang</w>
Lôi_ Cửu_Chỉ</w>
Hành_ Sơn</w>
Hành_ Chi</w>
C án_
Bân_ Ni</w>
v ẻ_
uyển_ chuyển</w>
tr ôi_
phiền_ não</w>
ng ầu</w>
lưỡ ng_l
kim_ ngạch</w>
khái_ niệm</w>
bằng_ được</w>
b ụi_
Thái_ Úy</w>
ã m</w>
Ð iển</w>
vững_ vàng</w>
trốn_ tránh</w>
quy_ củ</w>
pp i</w>
nâng_ cấp</w>
nh ối</w>
lộ ng_lẫy</w>
i ro
cổ_th ụ</w>
at i</w>
Tr ao</w>
Tiên_ Tử</w>
T ượng</w>
R a_
A S
8 /2011</w>
ước_ hẹn</w>
sai_ khiến</w>
qu àng</w>
nhiễm_ trùng</w>
m ợ</w>
hoa_ quả</w>
ho ay</w>
_th uận</w>
Mari anne</w>
BĐ S</w>
A th
Đ ậu_
vô _hạn</w>
u ể_oải</w>
tâm_ phúc</w>
n ẻo</w>
gấp_ bội</w>
ch iết</w>
Minh_Hóa_ bơi</w>
La_ Tinh</w>
I II</w>
Huyền_ Tông</w>
vắng_ mặt</w>
trừng_ trừng</w>
t a_
sừng_ sững</w>
công_ nghệ_
ack er</w>
Vạn_ Kiếm</w>
Tú_ Ninh</w>
Teh ran</w>
Af gh
27 29
Ứng_ Long</w>
ẫn_l ộn</w>
x ắc</w>
thể_ chất</w>
thất_ nghiệp</w>
thiệt_ thòi</w>
nấu_ ăn</w>
lưu_ hành</w>
hóa_ trang</w>
h ức</w>
Trường_ Sa</w>
Tiểu_Quế_ Tử</w>
Ch ọn</w>
vô_t ư</w>
viện_ phí</w>
t ộc_
liên_ quân</w>
khả _thi</w>
kh en_th
họp_ báo</w>
hiểm_ trở</w>
TNH H</w>
Ng ốc</w>
Mer c
Ju ven
thu ỷ_
thiểu_ số</w>
rầu_ rĩ</w>
r òng_
nhất_ trí</w>
mưu_ kế</w>
m ắm</w>
lo e</w>
hoan_ nghênh</w>
d iều</w>
bá _t
Tr uật</w>
Thủ_ Độ</w>
Thiên_ Kiều</w>
T úy_
Sở _dĩ</w>
M ậu_
Hồ_Xung_ .</w>
Bình_ Nguyên</w>
Đ ất_
vật_ dụng</w>
thập_ niên</w>
r án</w>
ng ấm</w>
gia_ cầm</w>
công_ suất</w>
Tiêu_Dao_ Tử</w>
Hồi_ giáo</w>
Bình_ Thuận</w>
ăng_ kh
tiết_ mục</w>
th on</w>
r ăng_
phá_ sản</w>
nghiệp_ vụ</w>
l ầy</w>
g áp</w>
du_ kích</w>
_t ăng</w>
Tiêu_ Tiêu</w>
Ng ủ</w>
Hoa_ Thiết_
D ĩnh_
5 9
2 .000</w>
r l
ni e</w>
mùi_ vị</w>
kho anh_
kh ăng_kh
dự _liệu</w>
danh_ mục</w>
Tr à_
J enni
H iến_
0 16
ể_ nào</w>
đồng_ đội</w>
đ ốc_
tận_ lực</w>
trang_ web</w>
tiểu_ sư</w>
th ổ_
th ằng_cha</w>
q uyền_th
nội_ địa</w>
làm_ nhục</w>
l ẫn_lộn</w>
en e</w>
bậ c_
ay_ hoay</w>
a x</w>
_d ưng</w>
Thương_ Bát</w>
T itan
H ột</w>
Bệnh_ nhân</w>
ằng_h ắng</w>
vật_ lý</w>
trùng_ trùng</w>
trông_ nom</w>
tho ạt</w>
lộ _diện</w>
giải_ đáp</w>
chăm_ chỉ</w>
To p</w>
T ỷ
6 .
ệ m</w>
ông_ tin</w>
ph ơi_
hùng_ vĩ</w>
chăng_ nữa</w>
chào_ đón</w>
bao_ bọc</w>
_t an</w>
_l ưu</w>
Tr ượng</w>
N ig
Cô d
Afgh an
phát_ minh</w>
nước_ bọt</w>
hàn_ quang</w>
bình_ đẳng</w>
Thiên_ Cơ</w>
T er
ảy_ may</w>
t ì</w>
s ụt</w>
dự_ phòng</w>
cổ_ vũ</w>
chế_ ngự</w>
c ẳng</w>
Premi er_
Phương_ Nghị</w>
Phương_ Bất_Bại</w>
Ng oại</w>
Nam_ Định</w>
Bao_ giờ</w>
Ðức_ Nặc</w>
x ám_
trang_ nghiêm</w>
sát_ nhân</w>
nữ_ nhi</w>
khuy nh_
ig rave</w>
gấp_ gáp</w>
Tây_ Bắc</w>
Thiên_ Hoàn</w>
Th uốc</w>
Nhân_ Nghĩa</w>
N u
Lưu_Hắc_ Thát</w>
Juven tus</w>
Hành_ trình</w>
ồi_ dào</w>
độc_ nhất</w>
vệ_ sĩ</w>
v ượng</w>
tà n_t
rời_ bỏ</w>
phù_th ủy</w>
m ảy_may</w>
kinh_ hồn</w>
hù ng_hậu</w>
hã nh</w>
g ập</w>
X á_
Thanh_ Nhã</w>
Lạt_ Ma</w>
Lý_ Văn_Tú</w>
Land ry</w>
J on
C as
thủy_ tinh</w>
sách _lược</w>
như _t
nh úng_tay</w>
nguyên_t ử</w>
ngoại_ quốc</w>
n ãy_giờ</w>
l ảng</w>
ký_ kết</w>
d ồi_dào</w>
bạn_ hữu</w>
ar i
K ý_
Hy_ Lạp</w>
/04 /2012</w>
Âu_Dương_ Thống</w>
thanh_ tú</w>
ph ò</w>
mê _hồn</w>
le o_
b anh</w>
O n
u ật_
trách_ móc</w>
tinh_ trùng</w>
r ô</w>
môn_ học</w>
kho áng</w>
iro t</w>
hoàn_ chỉnh</w>
hang_ động</w>
d è</w>
chẳng_ ngờ</w>
bảo_ quản</w>
Tr uyền</w>
Khu ông</w>
H ận</w>
H iền_đệ</w>
Côd ét</w>
Ch ế_
Bu g
A t
Đ ổi</w>
tức_ tối</w>
n er</w>
luật_ lệ</w>
kỳ _thực</w>
im_ bặt</w>
gia_ tộc</w>
chịu_ khó</w>
ch ạ
c út</w>
b ồn</w>
b ệ</w>
_h ổng</w>
Ninh_Đạo_ Kỳ</w>
N ăng_
Ho nda</w>
Diệp_ Thanh</w>
Bồ_ Tát</w>
àn_ khàn</w>
vùng_ vẫy</w>
tận_ hưởng</w>
tư _th
thua_ kém</w>
thiết_ thực</w>
th ầm_
ri nho</w>
r ộn_
phút_ chốc</w>
nội_ tình</w>
một_ mực</w>
l ừng_
kh àn_khàn</w>
cống_ hiến</w>
cao_ ốc</w>
Tr ùm</w>
Po irot</w>
Ninh_ Bình</w>
Hoàn_ Nhan_
tr u</w>
r ụt_
liệt_ sĩ</w>
ir e</w>
h iể
Thanh_ Ngưu</w>
S ông</w>
Nga_ Châu</w>
M ad
ẩ n_t
địa_ thế</w>
uộc_ tội</w>
mất_ mặt</w>
h iển_
gi òng</w>
dấu_ ấn</w>
cả _th
b úp_bê</w>
a ta</w>
Th iền_
S âm</w>
M iêu_
K ết</w>
G T</w>
A g
ị n</w>
thuận_ tay</w>
nhiên_ liệu</w>
nh ẫ
nghiêng_ mình</w>
m ướn</w>
l ọt_
kh ay</w>
dân_ lập</w>
ch ín_
c ãi_
Võ_Ð ương</w>
T ự
Nội_ vụ</w>
M an</w>
H a</w>
Cal i
B ần_
đầu_ mối</w>
thân_ yêu</w>
rụt_ rè</w>
r ành_
nh ọc_
n ại</w>
lễ_ phép</w>
khốn_ kiếp</w>
h ắc_
am o
al _
X ử</w>
X e_
Gar in</w>
ề_ phần</w>
thối_ tha</w>
s tr
nh ướng</w>
lạm_ dụng</w>
lưỡng_l ự</w>
lò_ sưởi</w>
kết_ cục</w>
ho án</w>
_M ilan</w>
Thiên_ hạ</w>
đồng_ phục</w>
đặc_ trưng</w>
đại_ lộ</w>
đ ốm</w>
Ð ặng_
vị _thế</w>
nh am</w>
lo mon</w>
iề ng</w>
dứt_ điểm</w>
du ỗi</w>
_ho án</w>
M r_
J ames</w>
5 8
5 -
ạ ch
x ứ_
thương_ xót</w>
tham_ lam</w>
so i_
nhẫ n_tâm</w>
hô _hoán</w>
h ẳn_
gi áng_
dò _hỏi</w>
d ụ
c e_
and _
00 0,000</w>
tùy_ ý</w>
trúng_ kế</w>
thảm_ hại</w>
thượng_th ư</w>
lanh_ lảnh</w>
khủ ng_long</w>
g ác_
cách_ biệt</w>
cá u</w>
ch ừng_
ate s</w>
Tay_ trái</w>
S anh_
Mou rinho</w>
H .</w>
ống_ tay_áo</w>
ẩm_ thực</w>
đi_ đi</w>
ông_ ta</w>
À i</w>
x ao_
thay_ mặt</w>
s ổ_
qu ít</w>
ph ó_
n è</w>
ly_ hôn</w>
lu ận_
l ấn</w>
l ưng_
gợi_ cảm</w>
Trừ_ phi</w>
T ụi</w>
M âu</w>
D ọc</w>
đám_ tang</w>
xu ồng</w>
ph ím</w>
nương_ nương</w>
nh ẩy</w>
ngây_ ngất</w>
gào_ thét</w>
chủ _lực</w>
Vũ_ Cường</w>
Vi r
Tr ạch_
S ứ</w>
Long_ Dương_
I ra
Braz il</w>
ấn_t ú</w>
đương_ gia</w>
tử_ nạn</w>
tu ấn_tú</w>
trợ_ cấp</w>
thủ_ cấp</w>
ng_t ác</w>
lỗ _hổng</w>
lou d</w>
kế _thừa</w>
giả _mạo</w>
diễ m_
chiến_ binh</w>
báo_ hiệu</w>
_th ai</w>
Vương_ Tông</w>
Merc ed
Bất_ cứ</w>
2 /
„_ Hạng</w>
đánh_ đập</w>
thân_ thủ</w>
thuốc_ mê</w>
ph e_
nửa_ lời</w>
nh ược_
mặt_ biển</w>
bu r
and al</w>
Chung_ kết</w>
Ba_ Tư</w>
20 /11</w>
ăn_th ua</w>
tr ỗi</w>
tr on</w>
thu_ phục</w>
t ạ
sinh_ linh</w>
ng ợm</w>
d iếm</w>
c uốc</w>
b ỉnh</w>
Nh ai</w>
Giáo_ viên</w>
G I
Bần_ đạo</w>
B ổn</w>
tệ _hại</w>
s ành_
mũi_ tên</w>
l _
gian_ khổ</w>
bố p</w>
Tổ_ quốc</w>
Trung_ Châu</w>
Quản_ trị</w>
Phụ _huynh</w>
Ng ộ_
Long_Dương_ quân</w>
Dương_ Tử</w>
A li
đẩy_ lùi</w>
vương_ quốc</w>
săn_ sóc</w>
phân_ công</w>
ng uyền</w>
n a
dân_ sự</w>
củ ng</w>
cơ_ chứ</w>
bình_ phục</w>
b ẹp</w>
Trước_ tiên</w>
Tr uyền_
Nhà _thơ</w>
D ạ_
tác_ chiến</w>
t ô
sự -
quanh_ co</w>
ngu ôi</w>
kiệt_ sức</w>
khuyết_ tật</w>
dũng_ mãnh</w>
bị a</w>
b ai</w>
F I
E A</w>
D ị</w>
C anh_
đồ_ uống</w>
sắc_ diện</w>
nhỏ_ nh
mặc_ kệ</w>
mất_ mát</w>
m ít</w>
l ẩn_
hàm_ lượng</w>
h ờ</w>
giải_ tán</w>
bảo_ mật</w>
a_h iệp</w>
O a</w>
Ku mi
D iệt</w>
ổ n_th
ur o</w>
tiế u</w>
thu_ hoạch</w>
t é_ra</w>
sự- Ký</w>
sơ _mi</w>
sân_ chơi</w>
sáng_ chế</w>
năm_ mươi</w>
nghĩ nh</w>
khai_ mạc</w>
cá p</w>
Thiên_Âm_ Tự</w>
S ử
Olymp ic</w>
Mau ra</w>
Hướng_ dẫn</w>
Hiệp_ định</w>
đất_ liền</w>
Ðồng_ Mỗ</w>
x át</w>
tàn_ phá</w>
s a
khuyết_ điểm</w>
k ỵ
iế c_
háo_ hức</w>
h ạm_đội</w>
e w</w>
c ồn</w>
al -
Thiên_ Chí</w>
Th uyết</w>
S il
đồng_ nghĩa</w>
thu ỷ
t z</w>
o anh_
lỗi_ lầm</w>
kho ai_
giám_ mục</w>
chiêm_ ngưỡng</w>
Titan ic</w>
Thủy_ sinh</w>
T ỉ_
Phổ_ Hoằng</w>
N ic
7 /2</w>
5 .
Đình_ Phương</w>
Á i_
thù_ oán</w>
sơ _t
nhỏ_ nhắn</w>
m ải</w>
kh ôn_t
h ạc</w>
dị_ ứng</w>
ch ủ_t
ch anh</w>
bàn_ ghế</w>
b ón</w>
U Y
Sư_ đệ</w>
Mo bi
M ẫn_
L ực</w>
H ạ
B iện_
Anh_ chàng</w>
đại_ khái</w>
vị n</w>
vùng_ biển</w>
t uyên</w>
sinh_ mệnh</w>
nghị_ quyết</w>
ng ứa_
n áu</w>
mê_m an</w>
l d_
khôn_t ả</w>
chạ y_th
L an
H ộ_
H ân_
Ba_ Lan</w>
5 _
xếp_ bằng</w>
v á</w>
v ài_
riêng_ biệt</w>
quần_ đảo</w>
phân_ tán</w>
nh àn</w>
mới_ lạ</w>
láng_ giềng</w>
giáo_ huấn</w>
ent ina</w>
cung_ điện</w>
Tào_ Ứng_Long</w>
Thay_ đổi</w>
T y</w>
Pierr e</w>
Kumi ko</w>
Cao_ Dương</w>
Beckh am</w>
16 57
đ ảng_
tí ch_l
thỉnh_ cầu</w>
nội_ tâm</w>
nghĩa_ trang</w>
mạnh_ dạn</w>
l ách_
h an
diệu_ kế</w>
b ạt_
b iển_
ar y_
M iếu</w>
Con_ mẹ</w>
Ch ứ</w>
C am_
Ar g
1 _triệu</w>
tình_ nghĩa</w>
r àng</w>
phi_ trường</w>
o p
mệt_ nhọc</w>
khiêu_ khích</w>
d ơ</w>
T ạm</w>
S ơ_
đồ_ sộ</w>
đỏ_ rực</w>
ô ng
Á c_
võ_ phục</w>
kiên_ cường</w>
giao_ tình</w>
chúng_ con</w>
Pi ppi</w>
Nữ _d
N iềm</w>
Gi ảo</w>
Ðị a_
tủ i_
s ái</w>
dân_ gian</w>
bình_ minh</w>
Trương_ Tĩnh_Chi</w>
Tr ư_
T uyến</w>
Miss_ Teen</w>
L ào_
L ena</w>
Hồ_ Thanh_Ngưu</w>
Dự _trữ</w>
Ch loe</w>
78 53</w>
Ðào_ Phương</w>
r en</w>
nôn_ nóng</w>
khả_ nghi</w>
iễn_ viên</w>
cơ_ chế
chuyển_ biến</w>
bác_ học</w>
Vi gor</w>
Hoa_ kỳ</w>
ải_ rác</w>
vài_ ba</w>
tự_ phụ</w>
trung_ thực</w>
s ảng_
ph ác</w>
ngo ặt</w>
khát_ vọng</w>
hô i_
chịu_ chết</w>
ati on</w>
Tr iết_
T I
Nữ_d iễn_viên</w>
Nh ãn</w>
Nguyễn_ Xuân_
M ang</w>
Kh âm</w>
2 50</w>
đề_ cao</w>
trông_ coi</w>
th ắm</w>
t iệc_
ng ủ_
n ệm</w>
m ầy</w>
m àng_
lý _trí</w>
khu_ tập_thể</w>
hấp_th ụ</w>
bí _hiểm</w>
b é
U ỷ_
N ửa</w>
Mặt_ trăng</w>
C an_
A S</w>
A M_GMT7
ừng_ bừng</w>
ướng_ bỉnh</w>
ăng_ dầu</w>
xâm_ hại</w>
thực_ tập</w>
t ợn</w>
s ặc</w>
quy ến</w>
k iểu_
học_ đường</w>
cải_ tạo</w>
c ờ
b ê_
b ung</w>
Ira q</w>
Chu_ Thiên</w>
ích_ kỷ</w>
ê _m
tối_ om</w>
thiếu_ thốn</w>
th ấm_
năng_ động</w>
ngồi_ ph
nghệ_th ông_tin</w>
m g</w>
hữu_ ích</w>
hợp_ lực</w>
giang_ sơn</w>
cư_ sĩ</w>
b ừng_bừng</w>
Vương_Phi_ Dương</w>
Siêu_ Phong</w>
Hoàn_ cảnh</w>
Gal ax
đ anh</w>
vùng_ sâu_
v ực_
thường_ lệ</w>
thành_ thực</w>
phân_ loại</w>
ngộ_ nghĩnh</w>
ng_t ưởng</w>
lẩm_ nhẩm</w>
lạnh_ buốt</w>
lách_ cách</w>
l è
hoa_ viên</w>
gánh_ vác</w>
Ph ản_
Nh ưng_
C M
An_ ninh</w>
Ư ng_
sân_ nhà</w>
nghiêm_ chỉnh</w>
h acker</w>
ch at</w>
Wil li
K iế
Jes us</w>
Hiếu_ Thành_vương</w>
Chu_ Du</w>
AC _Milan</w>
đe n_t
đ ắt_
x ì_
tượng_ trưng</w>
thì_th ào</w>
ngoại_ ô</w>
kỵ _mã</w>
không_ kích</w>
khu ôn</w>
kh ép_
b ướng_bỉnh</w>
_h át</w>
V ụ_
Ste phen</w>
S to
H a
Gi ỏi</w>
Cô_ giáo</w>
vùng_sâu_ vùng_xa</w>
tr âm</w>
song_ phương</w>
l ác</w>
cứu_ giúp</w>
am il
_l ao</w>
L ad
Kh í_
C el
õ a_
Ð ối</w>
x ô_
t ản_
li e</w>
hội_ nhập</w>
cơ_chế _thị_trường</w>
b ơi_
Tần_ Nhi</w>
Thời_ trang</w>
Thác_ Bạt_Khuê</w>
Q uyên_
P l
Nhưng_ mà</w>
N .
Lục_ Bất_
Công_ Tôn</w>
Ch ất_
C ự_
Bố _mẹ</w>
7_ ,</w>
đả_ kích</w>
Điền_ Linh_Nhi</w>
Đ ệ_
u r</w>
tra_ hỏi</w>
tr a
thúc_ giục</w>
phản_ cảm</w>
phi_ mã</w>
nh ếch_
nguồn_ lực</w>
ng áp</w>
lương_ thảo</w>
lương_ thiện</w>
lôi_ cuốn</w>
b ọ</w>
_t ín</w>
Q H</w>
Mar tin</w>
M .</w>
Lẽ_ ra</w>
Lao_ ái</w>
E _
đau_ xót</w>
thiên_ đường</w>
người_ tình</w>
ngo ảnh</w>
hỏ ng_bét</w>
g ar
d ỡ</w>
cung_ tên</w>
chẳng_th ể_nào</w>
bất_ tiện</w>
bài_ tập</w>
Van Giăng</w>
Nữ_ nhân</w>
Lý_Xuân_ Hồng</w>
Bug at
điềm_ nhiên</w>
đ ực</w>
í_ như</w>
âm_ dương</w>
xứ_ sở</w>
xưa_ kia</w>
tỉnh_ giấc</w>
ng ứa</w>
ng ông_
hẹn_ hò</w>
cá t_
b ồng_
an mar</w>
Thu_ Cúc</w>
Cali for
B èn</w>
11 /9</w>
vườn_ hoa</w>
ter s</w>
rắn_ độc</w>
nh ộn</w>
n_th ị</w>
mãn_ nguyện</w>
hảo_ tâm</w>
d ới</w>
chuyển_ hướng</w>
chuyển_ giao</w>
bất_ trắc</w>
bình_ phong</w>
Xá_ Lợi</w>
Tuyết_ Sơn</w>
Ng ự</w>
N ạp</w>
N A</w>
Lào_ Cai</w>
L ịnh</w>
Không_ lẽ</w>
Huyền_ Nạn</w>
Ho l
điểm_ số</w>
tắm_ rửa</w>
tr á
t ụy</w>
sóng_ gió</w>
rồi_ đây</w>
liên_ tưởng</w>
khí_h uyết</w>
Ve y
V ệ</w>
Tr ụ</w>
H ạnh_
F ad
Ch ợ_
7 9</w>
đen_t ối</w>
t òa_án</w>
sa_ sầm</w>
quy _luật</w>
ng ượng</w>
l ữ</w>
học_ kỳ</w>
ch uốc</w>
Tiểu_ Thi</w>
Th e</w>
đổ_ bộ</w>
đại_ lý</w>
Đo ạn_
Ð ảng</w>
x ỉ</w>
v ãi</w>
ph ới</w>
n ức</w>
iế n_th
chứ a_đ
chứa_đ ựng</w>
_h ậu</w>
Bách_ Xuyên</w>
w w
v ẩy</w>
phát_ ngôn</w>
lây_ nhiễm</w>
khao_ khát</w>
k ìm_
ghê_ rợn</w>
b ó_
U ất</w>
Thiếu_ Long_
Liên_ Tuyết_Kiều</w>
Afghan istan</w>
7 4</w>
ề_ đường</w>
điều_ dưỡng</w>
đ iệu_
tứ_ phía</w>
tĩnh_ mịch</w>
s in</w>
or d
lạ_ mặt</w>
dung_ nhan</w>
d è
cờ_ bạc</w>
Yv ette</w>
Thiên_ Trúc</w>
Sam sung</w>
N ạp_
M ất</w>
Kiế n_thức</w>
H all</w>
Giáo_ hoàng</w>
Ch ất</w>
Bạch_ Vạn_Kiếm</w>
vực_ thẳm</w>
th óc</w>
t ủ_
sảng_ khoái</w>
s ầu_
ly_ khai</w>
loại_ hình</w>
len_l én</w>
iên_ sinh</w>
il _
dựng_ đứng</w>
biên_ bản</w>
V ận_
S ố
Giải_ thưởng</w>
D ị_
A c
đăng_ quang</w>
v ân_
thành_ thị</w>
t ắc_
t s</w>
sho p</w>
ph ật_
khai_ huyệt</w>
k s</w>
hã i_
chập_ch ờn</w>
V TC_
Thông_ Huệ</w>
Quân_ đội</w>
D ung_
Ch áy</w>
12 48
ồ_ ạt</w>
đau_ buồn</w>
Đ ắ
áu_ vật</w>
tr uyện_
thám_ thính</w>
rối_ bời</w>
mại_ dâm</w>
m ũ_
lục_ soát</w>
l ề_đường</w>
khốn_ nạn</w>
c ấy</w>
_h ọa</w>
Vir gi
Th ằng_cha</w>
Mr_ Đàm</w>
I r
ủng_ ái</w>
ờ_m ịt</w>
ẽ m</w>
đặt_ hàng</w>
đ ợi_
đ ờ_
t ành</w>
quán_ trọ</w>
nghiêm_ mật</w>
khoanh_ tay</w>
h e
Tây_ Vực</w>
Lôi_ Phi</w>
Dịch_ Lam</w>
ưng_ bừng</w>
s ủng_ái</w>
ngày_ lễ</w>
kiêu_ hãnh</w>
khát_ khao</w>
hạ ng_
gi ấu_
d ật</w>
chạy_th oát</w>
Tr ừng_
Tr ao_
T ai_
E n
Dương_ Hải</w>
B TC</w>
26 18
đông_ đúc</w>
xem_ thường</w>
r ác_
phòng_ ngự</w>
ph ao</w>
bình_ chọn</w>
binh_ pháp</w>
Tư_ Không</w>
M I
Ho ạt_
G ọi</w>
Chủ_ nhân</w>
Ch iếu</w>
- _D
ỵ ch</w>
ẫ ng</w>
ả n_đ
x ay</w>
m ờ_mịt</w>
lừng_ danh</w>
lăn_ lộn</w>
h ó
c ưa</w>
ai -
U ng_
S óc_
Ng ành</w>
E bo
Ch ùa</w>
Bất_ Hối</w>
12 -
đình_ đám</w>
Đào_ Gia_Kỳ</w>
Í t</w>
us e</w>
tậ p_thể_dục</w>
tái_ nhợt</w>
thị_trường_ chứng_khoán</w>
thô _lỗ</w>
terne t</w>
ngoại_ lệ</w>
g er</w>
V òng_
Tạm_ biệt</w>
Tu ổi_
Tr ánh</w>
N a
L ạng_
„_ Thiếu_Long</w>
tức_ cười</w>
thủ _thành</w>
phòng_ bệnh</w>
ngẩng_ mặt</w>
làm_ khó</w>
in ternet</w>
i acute</w>
cây_ cỏ</w>
biên_ tập</w>
_tr ời</w>
UN I
Th ôn</w>
J C</w>
Bob by</w>
1, 5</w>
ậ c</w>
vô_ cớ</w>
tường_ tận</w>
tri_ kỷ</w>
thạch_ động</w>
thăm_ hỏi</w>
sớm_ muộn</w>
s_ A
r ải_rác</w>
n ấc</w>
l è</w>
cũ_ kỹ</w>
công_ thức</w>
ch ật</w>
ch _lệ</w>
bề_ mặt</w>
V n
P et
H iền_
6 8
. 9
ế n_t
đư a_đ
Điều_ kiện</w>
xo e</w>
tầ ng_lớp</w>
trợ _lý</w>
truyền_ lệnh</w>
thể _lực</w>
thình_th ịch</w>
như_t ờ</w>
nh ẵ
ly_ kỳ</w>
hạ_ giọng</w>
cầu_ hôn</w>
cải_ tiến</w>
c ôn_
bị nh</w>
bà_ cụ</w>
To ky
Ti n_
M ãn</w>
Lưu_ Bị</w>
Gi rl
Do_ Thái</w>
Ch ao_ôi</w>
19 /11</w>
tác_ phong</w>
trái_ ngược</w>
ngượng_ ngùng</w>
ngu ội</w>
n íu</w>
kinh_ đô</w>
hàng_ ngũ</w>
a_ cạnh</w>
_m ãn</w>
X ích_
Trung_ Thổ</w>
Trang_ Tương_vương</w>
Thanh_Vân_ Sơn</w>
Cao_ đẳng</w>
đổ_ nát</w>
trong_ sạch</w>
thương_ cảm</w>
r ền</w>
ké p</w>
dè _d
Trư_ Cốc</w>
Thuý_ Sơn</w>
Ngọc_ Anh</w>
L ặc</w>
Hải_ quân</w>
Hạ_ Long</w>
x òe</w>
v òi</w>
thiện_ cảm</w>
thi_ sĩ</w>
mất_ ngủ</w>
mơ_ mộng</w>
l uộc</w>
c ự_
Phụng_ Hoàng</w>
L ạy</w>
Huyền_Hoàng_ Giáo_chủ</w>
Ho ả</w>
đồng_ minh</w>
đền_ bù</w>
đơn_ độc</w>
đ èo</w>
ê_t iện</w>
à _l
Ánh_ sáng</w>
tiếp_ đón</w>
quái_ lạ</w>
ph àn_
nhộn_ nhịp</w>
như_ vầy</w>
liên_ hồi</w>
hiểm_ nghèo</w>
e k</w>
_t ổ</w>
Thứ_ Hai</w>
P M</w>
H ỏa</w>
Chiến_ tranh</w>
Đ -
vi_ tính</w>
tốt_ bụng</w>
th ỏ
quát_ mắng</w>
nhà_ giáo</w>
nguy_ kịch</w>
lập_ trường</w>
khí ch_lệ</w>
giam_ giữ</w>
g ạt_
b u</w>
Thượng_Quan_ Sách</w>
Song_ Hiệp</w>
Một_ vài</w>
M ãnh</w>
D ụ_
B ạc_
ò ng_th
Ð ạt</w>
sc andal</w>
quang_ cảnh</w>
mật_ mã</w>
khu_ phố</w>
giao_ chiến</w>
gi ó_
dè_d ặt</w>
d ạ_
c ỏ_
Ti n_t
Liên_ quan</w>
Hội_ thảo</w>
F a
A n_toàn</w>
ế _tắc</w>
ẫ n_thờ</w>
độ _
đ ẫn</w>
ăn_ ở</w>
thường_ trực</w>
n ai</w>
mị t_
khăng_kh ăng</w>
khí a_cạnh</w>
k ý
g iếm</w>
b ói</w>
Từ_Thiên_ Xuyên</w>
Thục_ Nhi</w>
Hoàng_ gia</w>
Cha_ mẹ</w>
C ựu</w>
đầy_ tớ</w>
đa_ phần</w>
ót_ thương</w>
s òng_
k ì_
cười_ gượng</w>
a_h át</w>
_d ân</w>
T ệ</w>
T áng</w>
Mariuy t</w>
790 9</w>
10 -
đại_ huynh</w>
tổng_ thể</w>
tuấn_ mã</w>
sức_ sống</w>
l ả
il le</w>
bộ _hạ</w>
b áu_vật</w>
a xi
Tổng_ đà</w>
Nh âm_
E x
B H
trực_ thuộc</w>
tr úc_
thanh_ lâu</w>
ster ol</w>
phàn_ nàn</w>
phiêu_ lưu</w>
p or
o m_
niêm_ yết</w>
khinh_ thường</w>
kh ất</w>
gia_ súc</w>
của_ cải</w>
co mp
ch áy_
ch en_
Tam_ Cô</w>
S al
Nhà_ Vua</w>
I b
A_ Bích</w>
7 0
đ ê_tiện</w>
Đ ảng_
truy_ kích</w>
thành_ hình</w>
s ì</w>
l ẻ
kết_ bạn</w>
g ở</w>
cất_ giấu</w>
bắt_ nguồn</w>
Mộ ng_
H uyện</w>
Co l
B ảng</w>
ẩn_ khúc</w>
xu i</w>
xanh_ biếc</w>
vũ_tr ang</w>
tuyệt_ nhiên</w>
tiế n_th
súc_ vật</w>
so n_
ruộ ng_
nước_ nhà</w>
mở_ đầu</w>
kh ấu_
hiện_ hữu</w>
g ượng_
dò m_
dã _tâm</w>
cáo_ buộc</w>
Trao_ đổi</w>
Ph an</w>
200 3</w>
địa_ hình</w>
th ố</w>
th ấp_
qu ặc</w>
chiếu_ sáng</w>
biết_ ơn</w>
Trân_ Ân</w>
K urt</w>
Ch ấp_
Ath ena</w>
7 8</w>
Ư Ơ
t ụng_
nhục_ nhã</w>
kéo_ theo</w>
công_ vụ</w>
bỏ_ phiếu</w>
buồn_ ngủ</w>
Vấn_ Thiên_
U ỷ</w>
N ổi_
B ru
9 2</w>
x ít</w>
tái_ hợp</w>
trở_ mặt</w>
th ẫn_thờ</w>
sĩ _tử</w>
sinh_ thái</w>
m ập_
kháng_ chiến</w>
hoạn_ nạn</w>
d am</w>
ch ít</w>
al a</w>
Xem_ ra</w>
X ê</w>
Th ực</w>
Sự _thực</w>
Ph iên_
Ngô_ Thị_
M ù
Kh án_
Hải_ Dương</w>
Er nes
E D</w>
s ùng</w>
qu ẻ</w>
on i
náo_ loạn</w>
mật_ độ</w>
l ẫm_
dự _tính</w>
chân_ dung</w>
L in
Hoà nh_
E R
C uốn</w>
B ri
19 -
Đại_ Dũng</w>
êm_ ái</w>
u ẩn_khúc</w>
tức_ thời</w>
tuổi_ đầu</w>
tiếp_th u</w>
thị_ phi</w>
rid ge</w>
p s</w>
nh ắ
ngạo_ mạn</w>
hậu_ viện</w>
giáo_ khoa</w>
c ộ</w>
b ế_tắc</w>
Thủy_ Sanh</w>
L an_
x ỏ</w>
nồng_ nặc</w>
h iếp_
bệnh_ lý</w>
b ặm</w>
Tổng_ công_ty</w>
St an
Hoa_ Yêu</w>
Gia_ Lai</w>
Cuộc_ chiến</w>
Bas el</w>
Arg entina</w>
ầm_ lẫn</w>
x áo_
trình_ làng</w>
phong_ thái</w>
ph ần_t
ph anh</w>
p e
nh_ trưởng</w>
ngang_ ngược</w>
ng a
n ao</w>
l anh</w>
h iến_
cơ_ sở_
chứ a_
c òng</w>
bẩm_ sinh</w>
Sơn_ Đông</w>
H ô_
Bái_ Tử_Đình</w>
B ro
/ 7
ờ m</w>
to ạ</w>
thập_ kỷ</w>
thuộc_ lòng</w>
rầm_ rộ</w>
quang_ minh</w>
phòng_ vệ</w>
nổi_ loạn</w>
m_ ch
m ù_
l iếm</w>
kh ựng</w>
h ả
gh ì</w>
bất_ thần</w>
bu m</w>
Tề_ Hạo</w>
Thiếu_ Lâm_
Nước_ mắt</w>
Dịch_ vụ</w>
C P
7 6</w>
12 /2</w>
Ă n_
x in
v ôi</w>
tám_ mươi</w>
ti ng</w>
thờ_ ơ</w>
thiên_ tài</w>
r ành</w>
quán_ rượu</w>
người_ hầu</w>
ngày_ ngày</w>
n ỏ</w>
chính_ đáng</w>
Re u
My anmar</w>
trong_ trẻo</w>
tr ề</w>
thi_ tuyển_sinh</w>
lũ_l ụt</w>
l ẽ
ch ối_
ch ó_
N a_
Dự _thảo</w>
Califor nia</w>
ận_th ế</w>
đắc_ lực</w>
x ăng_dầu</w>
t ốn_
sor t</w>
quanh_ quẩn</w>
phù _hộ</w>
ph àm_
nh ờ_
le sterol</w>
kế_ sách</w>
kh ét_
dập_ tắt</w>
dáng_ điệu</w>
diễ n_t
chỉnh_ tề</w>
bất_ công</w>
b ẽ
ai_ ngờ</w>
Vân_ Ngọc_Chân</w>
VTC_ News</w>
Trái_ lại</w>
S E</w>
Năm_ xưa</w>
Ngô_ ứng</w>
N il</w>
Mur ray</w>
Hiển_ Hạc</w>
Chúng_ mình</w>
06 2019</w>
đ ồi_
đ ơ</w>
r ổ</w>
phục_ kích</w>
oai_ danh</w>
nh ảm</w>
ng ừ
n ịnh_
khó_ coi</w>
kh ốc_
ch er</w>
Vũ_Văn_ huynh</w>
UNI CE
Tỷ _lệ</w>
M iệt</w>
C ủa</w>
đệ _t
Ô n_
y aho
vụng_ về</w>
to_ tướng</w>
r ứt</w>
nh ao</w>
n_l ẽn</w>
g e_
co l
cho ang</w>
bẽ n_lẽn</w>
X ưa_
Lệnh_ Hồ_huynh</w>
Cục_ trưởng</w>
đ ếm_
vô _l
tăng_ tốc</w>
tinh_ binh</w>
nước_ biển</w>
mặt_ khác</w>
khinh_ bỉ</w>
_ho ãn</w>
Tần_ Vương</w>
S au
Ngô_ Chi_
Man_ City</w>
M ở_
ẩn_ cư</w>
độc_ hại</w>
đếm_ xỉa</w>
đ un</w>
óc_ dáng</w>
t óm_lại</w>
t áp</w>
r àng_
qu ýt</w>
of _M
nh ẽo</w>
nguyên_ do</w>
lưu_ giữ</w>
ko vic</w>
gian_ nan</w>
cười_ mát</w>
cá u_
chuyên_ viên</w>
ch ùng</w>
bốn_ bề</w>
Tứ_ Xuyên</w>
Giả_ sử</w>
Dương_ Công_
C u</w>
B ưu</w>
3 00,000</w>
x ôi</w>
tr ạch</w>
tiện_ tay</w>
tay_ vợt</w>
sáng_ kiến</w>
suy_t ư</w>
nhị p_
nh iếp</w>
kỳ _hạn</w>
kình_ địch</w>
gi ụa</w>
c u</w>
Quảng_ Trị</w>
Gi an</w>
9 9</w>
6 1</w>
. com</w>
Ô_ gia</w>
xuất_ xứ</w>
w i
tí ch_hợp</w>
s ử_
nh ang</w>
m ou
l ở
ho r
dưới_ trướng</w>
cứu_ vãn</w>
chứng_ cứ</w>
__ __
M ão</w>
Chính_ Phong</w>
ôn_ hòa</w>
á n_th
yêu_ đương</w>
x ích_
v ị_
tâm_ nguyện</w>
tàn_ khốc</w>
tiềm_ ẩn</w>
thiền_ trượng</w>
se y</w>
quyết_ đoán</w>
ph ò_mã</w>
nh ầm_lẫn</w>
nh áo</w>
ng ách</w>
h í
con_ nít</w>
biên_ chế</w>
Tội_ nghiệp</w>
K an
Harv ey</w>
ẩn_th ỉu</w>
ẩn_ chứa</w>
Đ ốt</w>
yên_ trí</w>
toà n_th
r ủi</w>
nh át_
là ng_
kỵ_ sĩ</w>
dạo_ chơi</w>
cơ_sở_ vật_chất</w>
V H
S ân_
Q G</w>
Nhân_ viên</w>
J ack
Ủ a</w>
tủ _lạnh</w>
tiền_đ ạo</w>
thể _diện</w>
kho ác_
is si
d ơi</w>
cười_ vang</w>
b ẩn_thỉu</w>
b ĩu</w>
Tư_ Thừa</w>
Thiên_ Thiên</w>
Ngô_ Bảo_
Hill ary_
Andre i</w>
7 7</w>
ưỡ n</w>
đo an_
tân_ khách</w>
tuỳ _t
ti_ Vey
nhược_ điểm</w>
nh ị_
kiểm_ định</w>
a_đ ông</w>
Thanh_ y</w>
Hắc_Bạch_ Tử</w>
B ối</w>
vượt_ trội</w>
tự_ ái</w>
trọng_ tâm</w>
thế _thì</w>
n ền_
lân_ cận</w>
khu âng</w>
g ốc_
d ấy</w>
cổ_t ích</w>
UNICE F</w>
M adrid</w>
Ko h
B ệ_hạ</w>
Ang ie
đặc_ thù</w>
xúc_ xắc</w>
triển_ vọng</w>
tiến_th oái</w>
phong_ thư</w>
ng òi</w>
mu ô
m p</w>
cố_ vấn</w>
bách _tính</w>
ar t</w>
_t im</w>
Tích_ Hương</w>
T ửu</w>
T ên
Quang_ Minh</w>
L ô</w>
Hạ_ Hầu_
Bugat ti_Vey
đi ê</w>
tái_ phát</w>
thất_ lễ</w>
sơ_ ý</w>
r y_
nhú n</w>
m iệt</w>
l in
hội_ họp</w>
h át_
cả_th ảy</w>
bắt_ nạt</w>
Te x
T ái_
Quân_ Bảo</w>
Ngao_ Bái</w>
L isa</w>
H .
Ch im</w>
đợi_ chờ</w>
vang_ vọng</w>
tốn_ kém</w>
tính_ nết</w>
thu_ dọn</w>
suy_ yếu</w>
say_ xỉn</w>
s s
r à</w>
phấn_ khích</w>
nh ấp</w>
nh ạt_
mắt_ xanh</w>
ba_ mẹ</w>
Tiểu_ sư</w>
Quy_ định</w>
Quang_ Liêm</w>
Quan_ Tam_
Phùng_ Tích</w>
Hillary_ Clin
H é
D iệt_
Ch ơi_
ớ p_
vô_ nghĩa</w>
thức_ giấc</w>
thành_ quả</w>
s ó
ngại_ ngùng</w>
lung_ linh</w>
k us
hương_ vị</w>
hình_ thù</w>
cử_ nhân</w>
cơ _d
b ổ
Tôn_ Quyền</w>
R E</w>
Ph ệ</w>
Di on</w>
nguyên_ khí</w>
nghi_ lễ</w>
l úa_
l uyện_
khốc_ liệt</w>
họa_ sĩ</w>
g ừ</w>
chứ ng_th
Trưởng_ phòng</w>
I S
Fran c
Cơ_ Thiên_
30 4</w>
đá ng_lẽ</w>
đ o_
ám_ chỉ</w>
tài_ ba</w>
thập_ phần</w>
qu ắc</w>
ph ùng</w>
nói_ nhăng</w>
môi_ giới</w>
kh ấn</w>
gh ẹo</w>
danh_ vọng</w>
ba_ lô</w>
T A</w>
R ồng</w>
Ngô_Chi_ Vinh</w>
Nghi_ Hòa</w>
Kh ổng</w>
E co
Cẩm_ nang</w>
B án</w>
Angie lic</w>
ấu_ chốt</w>
đ ằng_hắng</w>
tận_t âm</w>
trọng_ trách</w>
th inh</w>
t ưới</w>
hoa_h ậu</w>
chi_ phối</w>
cal o</w>
_t á</w>
Thành_ Công</w>
Quan_Tam_ Thắng</w>
Phương_ Chứng</w>
M ê_
In ter
Ho an_
H ãng</w>
B ính</w>
10 4</w>
đá i</w>
ô n
vừa_ ý</w>
tiểu_ nữ</w>
phá _tan</w>
nhắ n_tin</w>
nghị _lực</w>
n_l ẫn</w>
làm_ bạn</w>
lo g
khắc_ nghiệt</w>
gi ằng_
V an_
79 11</w>
23 /12</w>
thật_ thà</w>
sấm_ sét</w>
súc_ sinh</w>
nh iếp_
ngh ẹt_thở</w>
mát_ mẻ</w>
lo_ nghĩ</w>
f ile</w>
es h</w>
cẩn_ trọng</w>
cho lesterol</w>
ch òm</w>
b ắp_
Sa to</w>
Q uy
Phụng_ Tam_
Ph ân</w>
Lý_ Thu_
Cao_ Phong</w>
Bất_ Hoán</w>
ừng_h òng</w>
Đinh_ H
xa_x ăm</w>
vào_ cuộc</w>
ràng_ buộc</w>
phân_ tâm</w>
on line</w>
nặng_ tr
khuôn_ viên</w>
d iêm</w>
bất_ tuyệt</w>
Tình_ thế</w>
Par t</w>
Nh ạn_
IA EA</w>
Hàn_ Sấm</w>
Cuộc_ đời</w>
B iểu_
7 3</w>
197 5</w>
Đ H
tr ừ
thân_ cận</w>
s ảo</w>
phiên_ tòa</w>
mở_ đường</w>
l ười</w>
l ì</w>
et h</w>
el d</w>
công_ nhiên</w>
b ùa</w>
T óm_lại</w>
No kia</w>
M ẫu</w>
GD P</w>
Đạo_ trưởng</w>
Đạo_ Phúc</w>
triết_ lý</w>
thiên_ tai</w>
ng ành_
n uối</w>
lỗ_m ãng</w>
k ok</w>
hùng_ mạnh</w>
dòm_ ngó</w>
bor gh
X uống</w>
Việt_ kiều</w>
Tr ực</w>
Tin_t ức</w>
Thay_ vì</w>
M ạt_
GDĐ T
C ải_
B lu
Đ K
ph ăng</w>
nh ớ_
ngông_ cuồng</w>
ngàn_ vạn</w>
nghịch_ ngợm</w>
m ía</w>
lạnh_ ngắt</w>
lên_ án</w>
liều_ lĩnh</w>
huy _hoàng</w>
hoang_ vu</w>
góp_ ý</w>
giải_ tỏa</w>
gi ường_
chân_ thật</w>
bức_ xạ</w>
bo ong</w>
Window s_
Sanh_ Xuân</w>
Nhân_ Ký</w>
Nam_ Bút</w>
Lục_Bất_ hòa_thượng</w>
Lam borgh
Dương_ Văn_
Cơ_Thiên_ Khuyết</w>
Ch ưởng_
Bang kok</w>
B ác_
ẹ n_th
đờ_ đẫn</w>
xe_l ăn</w>
vô_ ý</w>
ug rave</w>
tư_ bản</w>
trưng_ bày</w>
tr uy
tiếp_ đãi</w>
sự_ vật</w>
mỏng_ manh</w>
l de</w>
cá _m
chơi_ đùa</w>
chôn_ cất</w>
chân_ tình</w>
al i
Trần_ Thủ_Độ</w>
S tre
Nh ớn</w>
L ớn</w>
Hoàng_ Dược_Sư</w>
Bình_ An</w>
x õa</w>
x on</w>
t ú
nhân_ dịp</w>
nh ứt</w>
nh ỡ</w>
lo ay_hoay</w>
jo kovic</w>
b ửa</w>
T oại</w>
L ai_
Cà_ Mau</w>
Ch ú
Ch an
C ốc_
C O
Ð ệ_tử</w>
uyền_ rủa</w>
tiêu_ sái</w>
tan_ tành</w>
say_ đắm</w>
r éo</w>
nh ẫn_
mặt_ trăng</w>
huy_ chương</w>
h ột</w>
Vin amil
Trần_ Quốc_Tuấn</w>
Sử _dụng</w>
S uy_
Mục_ đích</w>
M ĩ</w>
Cl au
A v
5 /201
0 .
đ ắ
v ẹo</w>
of_M e</w>
lớn_ mạnh</w>
h ớp</w>
ch ầu_
béo_ phì</w>
biển_ cả</w>
ban_ nãy</w>
Tất_ Thư</w>
Sơn_ Tây</w>
M S
H iến</w>
Cầu_ thủ</w>
Ch iếm_
9 00</w>
36 ,
ổn_th ỏa</w>
ấ n_thủ</w>
Ð áng</w>
võ_ sư</w>
trừng_ trị</w>
tiên_ liệu</w>
t iệt</w>
kỳ _thị</w>
giễ u</w>
e la</w>
công_ trường</w>
chật_ hẹp</w>
bả _
biết_ chừng</w>
b ặt_
_th ác</w>
V ịnh</w>
V ật</w>
Tử_ Thanh</w>
Tống_ Phàm_Bình</w>
Mỹ_ Dung</w>
Lor en</w>
F ê
Cel ine_
8 2</w>
2730 9
x ây_
m éo_
lưu_ trữ</w>
hẻ o_
e w
do_ vậy</w>
chớp_ nhoáng</w>
c ựa</w>
bộ_ binh</w>
bay_ bổng</w>
Nhật_ ký</w>
H ộ</w>
B ay</w>
ẩm_ ướt</w>
động_ mạch</w>
van_ xin</w>
v ành_
tiên_ tử</w>
thâm_ trầm</w>
r âm</w>
p_th uật</w>
nh i_
n_đ o</w>
hẻo_ lánh</w>
hấp_th u</w>
g ái_
d ở
chủ_ chốt</w>
c a_hát</w>
bay_ lượn</w>
Vietnam' s</w>
V òng</w>
Thái_ độ</w>
N ùng</w>
M ô</w>
For d</w>
E lean
Bern abe
, 5</w>
ần_th ưởng</w>
Ðông_ Phương_Bất_Bại</w>
xương_ sống</w>
vinh_ quang</w>
tái_ ngộ</w>
tá n_t
th ẹn_th
t ần_
t ơi_
r en
nhà_ ở</w>
nhà_ trọ</w>
nh àu</w>
ng uyền_rủa</w>
liên_ can</w>
hữu_ thủ</w>
hu ỵch</w>
diễn_t ả</w>
chăm_ lo</w>
ch ừa</w>
bâng_ khuâng</w>
b ến_
Lê_Văn_ Luyện</w>
Hà_ Vỹ</w>
H ựu</w>
Celine_ Dion</w>
10 .000</w>
Đại_ hội</w>
Đại_ Giang</w>
tự _dưng</w>
tàn_ phế</w>
trọng_ điểm</w>
tra_ tấn</w>
th ệ</w>
th en</w>
phản_ nghịch</w>
m ủ</w>
cảm_ khái</w>
che_ khuất</w>
P C
M ây</w>
H iệu</w>
Ebo la</w>
D iều</w>
C ử</w>
- -</w>
vâng_ dạ</w>
tối_ sầm</w>
tương_ trợ</w>
tàu_ ngầm</w>
thư _thư</w>
r ình_
qua_ mặt</w>
nội_ thể</w>
ng âm_
khó_ nhọc</w>
căm_ ghét</w>
b ô</w>
X a
Thông_ Thiên_Phong</w>
Thu_ Ðạo</w>
Reu ters</w>
Nguyễn_ Tấn_
Nguyên_ Hiển</w>
N T
Kiểm_ tra</w>
Kh ó</w>
I .
79 19</w>
78 55</w>
ớ_ vẩn</w>
Ẩ n</w>
Đình_ Phụng</w>
thừa_ thế</w>
khẳng_ khái</w>
giấu_ giếm</w>
d ẻo</w>
bả_ vai</w>
bu s</w>
a_đ ặt</w>
V ẻ_
Toyo ta</w>
Thiên_ Sơn</w>
Phương_ pháp</w>
M as
L ầu</w>
Hóa_ ra</w>
Hoàng_ tử</w>
Girl s_A
Ch ic
19 /2</w>
Đ iên</w>
ài_ đặt</w>
v ãn_
trêu_ chọc</w>
quấy_ rầy</w>
phẩm_ chất</w>
loang_ loáng</w>
linh_ mục</w>
lan_ truyền</w>
dằn_ mặt</w>
biến_ hoá</w>
as _
Tho ạt_
Pa k
C ử_
C ương_
Bà_ Trưng</w>
ứt_ bỏ</w>
ươ m_
đánh_ rơi</w>
z a</w>
x ịt</w>
văn_ nghệ</w>
v óc_dáng</w>
uổng_ mạng</w>
táo_ bạo</w>
phả n_t
hờ _h
chứng_ bệnh</w>
chúng_ sinh</w>
chìm_ đắm</w>
bộ _trưởng</w>
Toky o</w>
T òa_án</w>
Liên_ Châu</w>
Joh n
C at
B V</w>
1 000</w>
ạn_ mục</w>
độ ng_thái</w>
đ ính_
tr o_
th ẫm</w>
t ấp_
s ánh_
nhân_ tố</w>
n ập</w>
lo ãng</w>
khuyên_ giải</w>
kho ai</w>
khiếu_ nại</w>
kh ảm</w>
hào_ khí</w>
e le
cùng_ với</w>
cao_ cả</w>
bán_ kết</w>
ay a</w>
ag o</w>
Th ạnh</w>
Tam_ Nương</w>
Ngoại_ trừ</w>
Nghệ_ sĩ</w>
H Ồ</w>
Doãn_ Hạ_Mạt</w>
Biết_ đâu</w>
đùa_ giỡn</w>
x ó</w>
th õng</w>
quyền_th ế</w>
nghi_ thức</w>
n_đ ời</w>
n an_
cổ_ điển</w>
Triệu_ Chi</w>
Tr uy_t
Th ức_
Phần_ lớn</w>
Girls_A loud</w>
A R
9 /
điên_ khùng</w>
yể m_
u l
qu áng</w>
h ằn</w>
h ũ</w>
h y
dính_ líu</w>
cáo_ biệt</w>
biểu_ thị</w>
Trần_ Hải</w>
T ước</w>
Ninh_ Thuận</w>
H ốt_
Ch ợ</w>
6 /2</w>
xử _tử</w>
tây_ bắc</w>
tuyển_ chọn</w>
tr ận_thế</w>
quý_ phái</w>
qu ẳng</w>
nh ổm</w>
lên_ lớp</w>
l õm</w>
dịch_ chuyển</w>
dây_th anh_
cố_ định</w>
bệnh_ tình</w>
bù_ đắp</w>
_m ưu</w>
W at
Thành_ Đô</w>
Th ập</w>
O a_
N ổ</w>
Lý_ Tú_Ninh</w>
La_ Mã</w>
Kết_ luận</w>
Kh ác</w>
J a
Falko_ Goetz</w>
E u
CE O</w>
Báo_ chí</w>
động_ kinh</w>
Đ ao_
u ông</w>
tôn_ vinh</w>
tính_ khí</w>
tích_l ũy</w>
qu ẹo</w>
nhân_ chứng</w>
m ấp_
kỹ _nữ</w>
huyền_ ảo</w>
cư_ trú</w>
chứng_th ực</w>
ch ường</w>
c ặp_đôi</w>
_l iệt</w>
Xung_ Hư</w>
Vấn_ Thiên</w>
Thông_ tư</w>
Tho a</w>
Nhất_ Tiếu</w>
Nguyễn_ Đình_
Ma_ môn</w>
Lưu_ huynh</w>
L àng</w>
Bảo_ Khố</w>
B ần_tăng</w>
đương_ đầu</w>
xao_ xuyến</w>
thành_ đạt</w>
th ìa</w>
r ụi</w>
làm_ phản</w>
kỳ_ quặc</w>
hờ_h ững</w>
hồi_ tưởng</w>
chúng_ em</w>
U yên_
Phí_ Công</w>
Li ver
Hải_ quan</w>
9 80</w>
1 10</w>
ốt_ cục</w>
Đại_ Việt</w>
ò_m á</w>
trấn_ áp</w>
thực_ trạng</w>
thu ật_
sinh_ đôi</w>
s ờ_
r ộ
quanh_ năm</w>
phát_ tài</w>
phiền_ muộn</w>
ng_t ỉnh</w>
mon d</w>
hoành_ tráng</w>
hoàng_ gia</w>
dây_thanh_ quản</w>
chức_ trách</w>
c úp</w>
bị a_đặt</w>
Thiên_S i_
T óc</w>
Chấn_ Sơn</w>
23 .
20 2</w>
ưu_ điểm</w>
đều_ đều</w>
đường_ nét</w>
Đinh_ Xuân_Thu</w>
áp_ giải</w>
x ẻo</w>
v ứt_bỏ</w>
tê _liệt</w>
thu_ hẹp</w>
th ạc_sĩ</w>
r ặng</w>
quân_ nhân</w>
phú_ quý</w>
nước_ da</w>
ngh ẽn</w>
l ối_
hết_ mình</w>
hơi_ sức</w>
hân_ hạnh</w>
cửa_ ải</w>
cảnh_ sắc</w>
cu l
c ữu</w>
b ênh</w>
_t ợn</w>
Th ai</w>
S ùng_
Ro ma</w>
M ở</w>
Chung_ Ly</w>
11 -
đắ n_đo</w>
tâm_ địa</w>
thế_ trận</w>
s ạn</w>
po ol</w>
ng_l ưỡi</w>
m es</w>
làm_ lễ</w>
l ồ
kh ích_
gi án_
Phụng_ Tường</w>
Mãn_ Châu</w>
M .
Koh ler</w>
Jus tin</w>
H uống_hồ</w>
G h
Dương_ Quảng</w>
A 1</w>
đèn_đ uốc</w>
Địch_ nhân</w>
v el
pu chia</w>
niên_ hiệu</w>
nhiệt_ huyết</w>
ngu_ huynh</w>
ngh ếch</w>
m ĩ
gần_ như</w>
gia_ vị</w>
e_d è</w>
V -
Uyển_ Tinh</w>
Nh iếp</w>
I M
Gia_ Cát_
C Đ
C en
ủ y_thủ</w>
độc_ quyền</w>
đ ắm_
á_m ạ</w>
Á o</w>
tận_ cùng</w>
tiếc_ nuối</w>
t uyền</w>
sách_ giáo_khoa</w>
r y
r ang</w>
nấu_ nướng</w>
nhấp_ nháy</w>
nh ót</w>
ngành_ nghề</w>
k iêng</w>
il y</w>
hãi_ hùng</w>
dữ _tợn</w>
cười_ gằn</w>
bi_ thảm</w>
Tuần_ lễ</w>
Th iêu</w>
TP. HC
Nh iệt_
Nam_ Cương</w>
Một_ mình</w>
Ma_ Tôn</w>
M ed
Bắc_Phủ_ binh</w>
ổ_t âm</w>
Ư Ờ
đ êu</w>
yể u_
x i_
v iền</w>
thở_h ắt</w>
tho i</w>
t le</w>
phụng_ mệnh</w>
n ịnh</w>
d d
cứu_ hộ</w>
b ừ
Tổ ng_th
O o</w>
M i_
L ớp</w>
El vi
Ch ú_
B út_
Đ ắc</w>
Âu_ Dương</w>
tấp_ nập</w>
túi_ xách</w>
thượng_ tướng_quân</w>
m úc</w>
m er</w>
lưỡ i_
hối_ lộ</w>
hình_ tượng</w>
h iển</w>
chua_ xót</w>
bỏ _ho
Ven e
Trước_ nay</w>
Th ẫm</w>
S i</w>
L ộ
B é_
201 4</w>
đồng_ cỏ</w>
điên_ đảo</w>
Đô_ đốc</w>
Đ ống</w>
ăn_ mừng</w>
ì n_th
Ð ầu</w>
uy_ phong</w>
l ấm_
kh ổ_tâm</w>
kh à</w>
h ổ_
giao_ diện</w>
cổ_ đại</w>
cao_ độ</w>
bộ _môn</w>
b èo</w>
Y _D
Vân_ Trường</w>
Thương_ Hải</w>
Q L
Phan_ Thiết</w>
Mẹ_ kiếp</w>
Liên_ đoàn</w>
Hoàng_ Đế</w>
Elean or</w>
Chu_ Chỉ</w>
Ch ùm</w>
đảm_ nhiệm</w>
đánh_ cá</w>
í u_
ênh_ vực</w>
vị _tất</w>
v iễn_thông</w>
tr ủy_thủ</w>
thẩm_ vấn</w>
suy_t ính</w>
s ùi</w>
qu ắc_
nước_ tiểu</w>
như_ bay</w>
ng ớ</w>
khai_ sinh</w>
k u
hạng_ mục</w>
g ò_má</w>
bừ ng_tỉnh</w>
Xuất_ hiện</w>
Thông_ Thiên_
Quân_ Nghi</w>
Hoàng_ Hà</w>
Gi ác_
G iê
C ực_
B ạn_
yêu_ kiều</w>
tình_ thương</w>
triều_ đại</w>
tr ủy</w>
thân_ tín</w>
th ụ_
ta in
sống_ động</w>
rối_ rít</w>
quý_ báu</w>
mù a_
khởi_ nghĩa</w>
gi ặc_
ch ư</w>
Viên_ Viên</w>
Vin a
Thư_ viện</w>
Hữu_ Lượng</w>
Ho ả_
Du_ lịch</w>
7_ ,_
đ ừng_hòng</w>
từ_ chức</w>
tôn_ sư</w>
tuần_ tra</w>
tru ồng</w>
thiếu_ hụt</w>
th ì_
sinh_ sản</w>
qu í
phát_ xuất</w>
m ướt</w>
là _lạ</w>
giúp_ sức</w>
chết_ chóc</w>
b ênh_vực</w>
Th ảm_
T ạp_
đồng_ bằng</w>
địa_ lý</w>
Đ iểu</w>
v òi_
thâm_ nhập</w>
t óc_
run_ sợ</w>
r ồ
ph ập_
ngây_ người</w>
l ười_
i la</w>
huy nh_trưởng</w>
giảo_ hoạt</w>
dịch_ bệnh</w>
b ịp</w>
b ềnh</w>
b al</w>
V ô
Tru mp</w>
Tr inh_
N ụ_
Lý_ đệ</w>
K issi
Hồng_ Ngọc_
Ernes t</w>
D uyên_
C t</w>
đại_ sư_huynh</w>
é c
ào_ ạt</w>
tinh_ xảo</w>
thù_h ận</w>
o Oo</w>
n ở_
n ê</w>
l ánh_
khởi_ công</w>
gắng_ sức</w>
d ại_
chuẩn_ xác</w>
b è_
_m áu</w>
_h iệu_
Thụy_ Sĩ</w>
Mu l
Lực_ lượng</w>
Lạng_ Sơn</w>
HĐ Q
GS. TS</w>
Chơi_ Lễ</w>
Bất_ Ðồng</w>
định_ đoạt</w>
đạo_ quân</w>
tắt_ thở</w>
trấn_ an</w>
truy_t ìm</w>
tr ấn_thủ</w>
p e</w>
l ìm</w>
hành_ hung</w>
công_ sai</w>
bỏ_ho ang</w>
W al
Thời_ tiết</w>
Thiên_ Ðịa_
Thiên_ Nhận</w>
T u</w>
O r
Ngày_ xưa</w>
M ạn</w>
ỡ i_
ái_ hậu</w>
trao_ tặng</w>
thực_ tại</w>
thỏa_ đáng</w>
thiên_ địa</w>
phu_ quân</w>
nh òm</w>
m b
khô_ khan</w>
kháng_ sinh</w>
giảm_ thiểu</w>
giao_ thừa</w>
gi a_đ
d à</w>
X I</w>
Th âm_
Như_ Nguyệt</w>
Liver pool</w>
G ì</w>
Côn_ Luân</w>
B M
9 6</w>
6 _
đảo_ lộn</w>
th ưởng_
qu ầng</w>
n_ r
n a_
lưng_ chừng</w>
lè ne</w>
l ịnh</w>
không_ dứt</w>
hữu_ hiệu</w>
hủy_ hoại</w>
dù_ cho</w>
c ài_đặt</w>
a ve</w>
a te</w>
Tiểu_ Thúy</w>
Nụ_ cười</w>
Luật_ sư</w>
Hồng_Ngọc_ Celine_Dion</w>
Công_ Thương</w>
9 /1</w>
đại_ bác</w>
tế_ nhị</w>
n ới</w>
l ề
giáo_ đồ</w>
cầm_ cự</w>
che_ đậy</w>
c y</w>
_d i_
Triệu_ Mẫn</w>
Tr ai</w>
S I
Ro y
Nh anh</w>
Hồ_Xung_ cười</w>
H ẳn</w>
Cộng_ sản</w>
Chia_ sẻ</w>
3 /2</w>
xo ảng</w>
thư _thái</w>
tho á_mạ</w>
suy _d
s ụt_
qu ế</w>
m ách</w>
loạn_ xạ</w>
h ấp</w>
g en</w>
d ặng</w>
d ấp</w>
căm_ thù</w>
a_đ uổi</w>
_d ùng</w>
FI FA</w>
D ựa</w>
ạ _dạ</w>
Đỗ_ Tất_Thư</w>
Đo an_
y l</w>
xâm_ lược</w>
tự _lập</w>
tức_ mình</w>
s òm</w>
ngh inh_
mong_ ước</w>
l uyến_
k ĩ</w>
ic o</w>
gượng_ gạo</w>
gi ẫm</w>
côn_ trùng</w>
chạm_ trán</w>
chính_ quy</w>
chào_ đời</w>
Vene zu
S ar
Quốc_ Bảo</w>
O PE
Kissi nger</w>
K iếp</w>
Gi ám</w>
D jokovic</w>
Bang lad
8 3</w>
đặc_ sắc</w>
đo ản</w>
Đ ạm</w>
tứ_ chi</w>
tho ang_
sặc_ sỡ</w>
sinh_ dục</w>
phụ_ cận</w>
phất_ trần</w>
nhân_ đạo</w>
nhà_ nghỉ</w>
nh ếch</w>
ng ừng_
n ện</w>
mộ ng_
khấu_ đầu</w>
k ẽm</w>
er s</w>
d ẹp_
cửa_ kính</w>
cử _hành</w>
cầm_ quyền</w>
bản_ sao</w>
Trúc_ Anh</w>
Rô linh</w>
Ngộ_ Xuân</w>
M áy</w>
Gia_ Bang</w>
An_ Khánh</w>
26 /12</w>
ận_t ốc</w>
úc_ xá</w>
v ồ</w>
u i</w>
tự_ vệ</w>
trai_ gái</w>
tr ổ_t
sự_ vụ</w>
om_ sòm</w>
m ấu_chốt</w>
hàng_ hoá</w>
ca_ tụng</w>
bặt_ tin</w>
b ờ_
Vinamil k</w>
Thủy_ Hoàng</w>
Thu ý</w>
Pak istan</w>
Nh ưỡng</w>
B ig
Ướ c_
ê_t ởm</w>
suy _th
sinh_ động</w>
s ô</w>
râu_ bạc</w>
ngh ễ</w>
ng út</w>
mặt_ trận</w>
mã_ số</w>
mong_ mỏi</w>
kim_ tự_tháp</w>
hồn_ vía</w>
chữ_ ký</w>
chính_ diện</w>
b ứt_
Truy_t ìm</w>
Tiểu_ nữ</w>
S o_sánh</w>
Ra_ mắt</w>
N S
Hỏa_ hoạn</w>
Hương_ Ngọc_Sơn</w>
Cam puchia</w>
Banglad esh</w>
B el
A_ Tử_
00 _
ỉ a</w>
ến_t iệc</w>
đầu_ bếp</w>
Đà_ Lạt</w>
ô n_tập</w>
x ù</w>
vướng_ mắc</w>
tròn_ xoe</w>
th óp</w>
r ăn</w>
quay_ phim</w>
nâng_ đỡ</w>
nhà_ quê</w>
lột_ xác</w>
làm_ giàu</w>
d í</w>
ch ữ
bảo_ trọng</w>
bóng_ ma</w>
b ành</w>
Vân_ Canh</w>
VN 30</w>
Nhậm_ Thanh_
Lộc_ Sơn</w>
D .
Chẳng_ mấy_chốc</w>
B i</w>
._ Giá</w>
đánh_ máy</w>
u acute</w>
th ưa_
o z</w>
nhỏ m</w>
nhàn_ nhã</w>
n ắn</w>
m e_
kiều_ diễm</w>
im_ lìm</w>
g ắp</w>
bồi_ hồi</w>
bả n_thảo</w>
_thế_ nào</w>
S JC</w>
Qu ỳ</w>
Ni xon</w>
Ngọc_ Đỉnh</w>
Kh iết_
Hoa_ Hoa</w>
Giả_ như</w>
8 4</w>
ỡi_ ôi</w>
động_ dung</w>
yểu_ điệu</w>
tột_ cùng</w>
tù_ binh</w>
tr ượt_
ròng_ ròng</w>
r é</w>
quốc_ lộ</w>
o s</w>
l ùa</w>
hội_ chứng</w>
hã nh_
h ự</w>
gi ắt</w>
bình_ ổn</w>
Trần_ Viên_Viên</w>
Thiệu_ Đông_Tử</w>
Thiên_Ðịa_ Hội</w>
Th am</w>
S ức</w>
Khánh_ Hòa</w>
Ch ắc_
B or
8 .000</w>
đồ n_đ
đương_ thời</w>
tu ồng</w>
thánh_ thượng</w>
tai_ hại</w>
nữ _lang</w>
nghị _luận</w>
ng ườI</w>
n o_
m -
lị m</w>
lũ y</w>
linh_ cảm</w>
di_ truyền</w>
ck er</w>
chua_ chát</w>
chu i_
bất_ tận</w>
al e</w>
W ar
T ỷ_
T ết_
Ph ấn</w>
Kim_ Dung</w>
Cách_ mạng</w>
C am</w>
Bửu_ Châu</w>
đâu_ đâu</w>
đau_ nhức</w>
á n_t
v ụng</w>
u_ mến</w>
thấu_ hiểu</w>
suy_ ngẫm</w>
s ắn</w>
quí_ vị</w>
qu ê_
mệnh_ danh</w>
m iệ
l ét</w>
k ê_
hồng_ hào</w>
có_ điều</w>
c ốp</w>
bỏ _mạng</w>
ad u</w>
Vẻ_ mặt</w>
Viễn_ Kiều</w>
Thượng_ Nhân</w>
Nh ữ_
Lôi_ Phương</w>
Hồi_ lâu</w>
Hưng_ Yên</w>
Harv ard</w>
HN X</w>
H i
Bo m</w>
A l</w>
790 3</w>
/201 6</w>
’ s</w>
Ẩ n_
đ ậm_
ân_ tình</w>
v. v
thể _dục</w>
th áng_
te l
si e</w>
qu ai_
nước_ ngọt</w>
ngừ i</w>
nguy ên_th
n_ màng</w>
n ah</w>
l ốp</w>
h ằn_
con_ nuôi</w>
Vương_ Ngữ_Yên</w>
T ạo</w>
Sản_ phẩm</w>
Sy l
Su n
Phương_ trượng</w>
Nguyễ n</w>
Lưu_ Nhất_
Lý_ Tự_
L ag
I l
CE O_
đấu_ trường</w>
đ ỡ_
ít_ lâu</w>
trì u_mến</w>
tiện_ lợi</w>
ph ần_thưởng</w>
nhà_th ầu</w>
ngăn_ cách</w>
kho e_
iễ m_
hối_ tiếc</w>
hó a_đ
hoang_ đường</w>
hiện_ hành</w>
h ổ
h ư
gh ê_tởm</w>
cướp_ bóc</w>
cơ_ bắp</w>
chiến_ hạm</w>
ch -
_d ỗ</w>
Vương_ phủ</w>
V ượng</w>
Khất_ Ðan</w>
H át</w>
Galax y_
Cộng_ đồng</w>
30 .
ăn_ chơi</w>
trần_ gian</w>
thi_ tuyển</w>
r ằm</w>
r ô
nh ẽ</w>
một_ lượt</w>
m ẹo</w>
m ic
khôn_ xiết</w>
gầy_ gò</w>
fi ca</w>
cố _thủ</w>
chẳng_ trách</w>
bắt_ sống</w>
_m ẫu</w>
Vô_ Sắc</w>
Tex as</w>
Nam_ Song_Hiệp</w>
Lu ận</w>
Khán_ Như</w>
Hài_ tử</w>
Giao_ dịch</w>
Dan te</w>
Công_ tác</w>
Biên_ Hoang</w>
5 /2019</w>
._ Về</w>
xương_ cốt</w>
vạn_ vật</w>
từ_ giã</w>
trì _hoãn</w>
tiến_ công</w>
thành_ hôn</w>
th ính_
m en
kh ánh_
hiền_ muội</w>
h ốt</w>
di_ tích</w>
bá_ đạo</w>
Vô_ Tình</w>
S en
Ng ay_
M il
Dương_ Nghiệp</w>
C ừu_
Ạ I</w>
ê_ bao</w>
tu ỳ</w>
trung_ gian</w>
thoang_ thoảng</w>
th ao</w>
sắc_ sảo</w>
suy_th oái</w>
núi_ non</w>
ng ụt</w>
n ơ</w>
cơ_ nghiệp</w>
chằm_ch ặp</w>
chán_ ghét</w>
N an_
N ad
Hóa_ học</w>
đặc_ tính</w>
đ ượm</w>
xảo_ quyệt</w>
uộ i_
thứ_ Ba</w>
t ước_
ngạo_ nghễ</w>
ngh iên</w>
ng_h òa</w>
m oi</w>
lạnh_ giá</w>
kỳ_ ảo</w>
gi àn</w>
chật_ vật</w>
bình_ nguyên</w>
buồn_b ực</w>
buồn_ phiền</w>
Yêu_ cầu</w>
Tiểu_ Hương</w>
Thục_ Trinh</w>
Nhị_ Cổ</w>
đền_ đáp</w>
đích_ xác</w>
điều_ tức</w>
tr ích_
thanh_ thản</w>
sáng_ sủa</w>
ranh_ giới</w>
r ình</w>
quân_ lính</w>
nh oài</w>
khuôn_ khổ</w>
hao_ tổn</w>
h en</w>
du_ ngoạn</w>
d s</w>
chân_ lý</w>
Ph iến</w>
Me xi
Mar k</w>
I E
C ộ
C án</w>
Bất_ Đồng</w>
ắt_ g
ưng_ r
đụng_ chạm</w>
đáng_ giá</w>
điều_ lệ</w>
ăn_ trở</w>
vi_ diệu</w>
tiến_ cử</w>
thực_ tình</w>
thiết_ tha</w>
ph ẫu</w>
ng_h ờ</w>
dụ _dỗ</w>
b ong</w>
a c</w>
_ho á</w>
W es
Thanh_ Lan</w>
Th ụy</w>
Rober t</w>
Oliv ia</w>
Nội_ dung</w>
Mục_ tiêu</w>
D ựng</w>
Ben fica</w>
10 1</w>
ượ n_
định_ kỳ</w>
Đồng_ Tháp</w>
Điền_ Bất_Dịch</w>
ào_ huyệt</w>
vi ch</w>
tương_ tác</w>
trang_ trọng</w>
thương_ tiếc</w>
thân_ mến</w>
th ốc</w>
quỷ_ quái</w>
phó ng_h
nghĩ a_hiệp</w>
hòa_ hợp</w>
giường_ bệnh</w>
gián_đ iệp</w>
g ắt_g
do_ thám</w>
bởi_ vậy</w>
bỉ_ nhân</w>
Tam_ điểm</w>
Quý_ Phi</w>
Năm_ học</w>
Merced es</w>
G ra
D ấu_
ối_ trá</w>
xu a_đuổi</w>
x úi_
tư_ chất</w>
tù_ và</w>
toàn_ quân</w>
thẹn_th ùng</w>
quan_ lại</w>
qu ạ</w>
ngậm_ ngùi</w>
lý _lẽ</w>
hãnh_ diện</w>
_h uyết</w>
Tỉ_ Vương</w>
Quang_ Trung</w>
Như_ Hải</w>
Nhiếp_ Thiên_Hoàn</w>
Nguyễn_ Ngọc_
Mù a_đông</w>
Khấu_Trọ ng_thầm</w>
Khai_ Sơn</w>
Di_ Lặc_
/ 2018</w>
đàn_ bà_con</w>
đo án_
ùn_ ngụt</w>
ái_ ngại</w>
tình_ ý</w>
tình_ tiết</w>
r ì_
nương_ tựa</w>
nhếch_ mép</w>
ng ùn_ngụt</w>
l ả</w>
khoe_ khoang</w>
học_ vấn</w>
học_ giả</w>
hi u</w>
gầm_ gừ</w>
cấp_ độ</w>
công_ hiệu</w>
chen_ chúc</w>
ch ài</w>
bánh_ bao</w>
ar e</w>
Tr ưa</w>
Nh ược_
Căn_ cứ</w>
5 .000</w>
199 0</w>
0 50</w>
ốc_ nghếch</w>
ể nh</w>
ượng_ bộ</w>
động_ thủ</w>
Ðịnh_ Tĩnh_
vị _th
v ớ_vẩn</w>
v ọ
v in
u -
tụ _h
tuổi_ thơ</w>
trổ_t ài</w>
thành_ thân</w>
thiếu_ sót</w>
quét_ sạch</w>
quyết_ ý</w>
ph in</w>
lục_ tục</w>
l ó
dập_ đầu</w>
_d ồn</w>
Toà n_thân</w>
Thông_ thường</w>
Par k</w>
Nhân_ Viên</w>
M B
Giới_ hòa_thượng</w>
19- 8</w>
11 /1</w>
đại_ loạn</w>
đ ĩnh</w>
Ð àm_
tính_ mệnh</w>
trọng_ dụng</w>
trầm_ tĩnh</w>
tam_ giác</w>
t x
r úm</w>
phái_ đẹp</w>
nh ao_
mỹ_ phẩm</w>
làm_ trò</w>
l ùng</w>
iện_t ử</w>
danh_ tính</w>
bấy_ lâu</w>
bất_ thình_lình</w>
Y_D ược</w>
Trái_ tim</w>
To án_học</w>
Thần_ Kỳ</w>
Sáng_ mai</w>
S ước</w>
Nhân_ vật</w>
Lập_ Thân</w>
K iện</w>
F _
Cát_ Tư_Hãn</w>
A _di_
30 /12</w>
ẩn_ náu</w>
đổ _dồn</w>
ôn_t ẩu</w>
tự_t iện</w>
tâm_ pháp</w>
trinh_ sát</w>
ngắn_ gọn</w>
ngũ _t
ng ốc_nghếch</w>
lâu_ đời</w>
kh ỉnh</w>
j e
dị u_
c ành_
bảo_ trì</w>
bá_t ánh</w>
VP F</w>
Thành_ Cát</w>
Thiên_ .</w>
Công_Tôn_ Ngọc_
Chi_ cục</w>
Ch ụp_
A_di_ đà</w>
4 3
-_D ạ_dạ</w>
ở n</w>
ạm_ vỡ</w>
đồ _dùng</w>
Đại_ Hoàng</w>
Đinh_ Điển</w>
t y_
số_ một</w>
r ưng_r
phương_ vị</w>
pho to
o ang_
nh ượng_bộ</w>
nh ơ</w>
ngh ẹt</w>
ng_t ụ</w>
l ênh_
hình_ thế</w>
hiện_th ời</w>
bụng_ dạ</w>
Tây_ phương</w>
Thánh_ thượng</w>
L ễ
Cam ry</w>
C ấm</w>
B ell
đăm_ chiêu</w>
đèn_l ồng</w>
đ ẩu</w>
Ðịnh_Tĩnh_ sư</w>
v ạm_vỡ</w>
tụ_h ọp</w>
tor ia_
th ừ</w>
ter _
t ỵ</w>
re y</w>
phất_ phơ</w>
nồng_ nhiệt</w>
n anh</w>
mu i</w>
m ỏm</w>
kho é</w>
khai_ trương</w>
k iêng_
hằn_ học</w>
hắng_ dặng</w>
dây_ chuyền</w>
d ối_trá</w>
cột_ sống</w>
con_ voi</w>
c âm_
bãi_ cỏ</w>
V ận_tải</w>
NH _
Hé lène</w>
H ai_mươi</w>
Gi ả
G D</w>
11 :
Đ em</w>
ùn_ ùn</w>
ìn_th ấu</w>
tái_ mét</w>
to_ gan</w>
sứ _mệnh</w>
rừng_ núi</w>
nồng_ độ</w>
nhật_ ký</w>
ngư ng_tụ</w>
ngang_ hàng</w>
mông_ lung</w>
kiên_ định</w>
kh á
hạ _thần</w>
danh_ nghĩa</w>
chất_ liệu</w>
buồn_ nôn</w>
S t</w>
S cul
Mon t
M ễ</w>
Lục_ Kỳ</w>
L á</w>
K ìa</w>
Eli z
D onal
Ch ả
đ ày</w>
Đ ỏ</w>
Đ át</w>
Ðào_ cốc</w>
tập_ huấn</w>
thường_ niên</w>
t óm_
só ng_thần</w>
ng ược_
lập_ luận</w>
cuốn_ hút</w>
băng_ bó</w>
bo t</w>
Thiên_ Nhân_Viên</w>
Thanh_ Thư</w>
Phổ_ Trí</w>
Nig el</w>
Ngh ệ</w>
Lệnh_ Hồ</w>
Han ni
H D
D ạo</w>
D ô
Bản_ lĩnh</w>
Đông_ Hải</w>
ông_ chiều</w>
Ô_ Quyển</w>
Ð à</w>
xo á</w>
u m_t
um_t ùm</w>
th ụt</w>
quá _tải</w>
nhân_ số</w>
làm_ chứng</w>
k ỉ</w>
hầm_ hầm</w>
hay_ ho</w>
gh e</w>
cởi_ bỏ</w>
chuy ên_tâm</w>
bộ _tộc</w>
bổ_ ích</w>
b ôn_tẩu</w>
ar o</w>
Thiên_ Bình</w>
Th iệt</w>
Quản_ Trung_Tà</w>
L ạnh</w>
K ông</w>
Dân_ chúng</w>
D is
Ba_ Cực</w>
đạo_ pháp</w>
Đắ k_
xa_ xưa</w>
tỷ_ giá</w>
tán_ loạn</w>
tài_ giỏi</w>
tranh_ cử</w>
s à</w>
nu ông_chiều</w>
ngưỡng_ cửa</w>
ngay_ tức_khắc</w>
ng_th ốt</w>
n_th ế</w>
lo ảng_
bồi_ bổ</w>
bu ồng_
am_ hiểu</w>
Quân_ Du</w>
L ửa</w>
H ệ_
Diêm_ Vương</w>
C T
ân_ nhân</w>
y_ nhân</w>
xáo_ trộn</w>
vừa_ lòng</w>
vi -
v ĩ
tụ _hội</w>
trò_ đùa</w>
thu_ nạp</w>
nh ìn_thấu</w>
n_đ ài</w>
lặng_ yên</w>
lo an</w>
le y_
khét_ tiếng</w>
hiể n_thị</w>
h o_
chân_ thực</w>
ch ùy</w>
ch óp</w>
bình_ dân</w>
axi t</w>
Xê- út</w>
Nhà_ trường</w>
Ba_ Thục</w>
00 ,000_
ị ch_th
đột_ quỵ</w>
Ý _tưởng</w>
v ồng</w>
trùng_ hợp</w>
thân_ xác</w>
tham_ mưu</w>
t ủy</w>
t ọa_
str ess</w>
s áp</w>
s ào_huyệt</w>
quá_ độ</w>
nhao_ nhao</w>
nguyên_ soái</w>
ngoại_ thành</w>
mở_m àn</w>
gián_ tiếp</w>
càn_ quét</w>
a nh
Z u
Tiết_ lộ</w>
Thí_ chủ</w>
Phạm_ Dao</w>
Phù_ Dung</w>
N ợ</w>
Kỳ_ Sơn</w>
Ko ko</w>
Kim_ Đính</w>
Kh á</w>
Gi ản</w>
Ferrar i</w>
C re
B et
8 -
. vn</w>
Đ ẹp</w>
Ð ạo_
x ốc</w>
x iêu_
tu be</w>
s ành</w>
phong_ tục</w>
ph ồn_
nối_ liền</w>
nh ơn</w>
n_đ iệu</w>
móc_ túi</w>
h ốc</w>
g ai_
f e</w>
d ột</w>
To t
Hán_ Thanh</w>
Fa che</w>
-r ập_
đầu_ lâu</w>
trống_ không</w>
thăm_ thẳm</w>
th ốt_nhiên</w>
t ưng_bừng</w>
t ơ_
sốt_ xuất_huyết</w>
r ích</w>
k ị</w>
is _
hu ýt_
d òm</w>
chia_ rẽ</w>
c ạy</w>
b iếng</w>
ati lde</w>
an e</w>
_t ỉ</w>
Xung_ lang</w>
U y_
U V</w>
Phú_ Yên</w>
P V
Nh ị
Người_ mẫu</w>
Ng ư_
N óng_
N or
Mis ca</w>
Han nah</w>
Ch ả</w>
C ưới</w>
C A
9 8</w>
38 .
._ Tại</w>
ấp_ xỉ</w>
định_ mệnh</w>
ít_ ỏi</w>
tr iền</w>
to é</w>
thu ế_
th ợ
s ấp</w>
ph ông</w>
nhỏ_ nhặt</w>
ng_l ánh</w>
ló ng_lánh</w>
ch ướng</w>
bấy_ lâu_nay</w>
Ng u_
K at</w>
Gi ấc_
G K</w>
Châu_ Du</w>
Bửu_ Khoa</w>
Anh_ hùng</w>
,_ 5</w>
Đ ổng_
vật_ lộn</w>
vui_ nhộn</w>
trống_ trải</w>
thương_ tổn</w>
thái_ sư</w>
thành_ danh</w>
r ê</w>
nhấp_ nhô</w>
ngo ạn_mục</w>
khí_ độ</w>
khai_ giảng</w>
k eo</w>
in o
Z e
X ã</w>
Tr ải</w>
Thùy_ Trang</w>
Lu ồng</w>
L ễ_
Je ff</w>
Hương_ Cốc</w>
Hanni bal</w>
ị a</w>
ấm_ ức</w>
x ấp_xỉ</w>
x y</w>
vinh_ hạnh</w>
trống_ ngực</w>
s im</w>
s e_
quý_ khách</w>
ng_ keng</w>
m l</w>
k ỉnh</w>
k in</w>
hu ệ</w>
công_ thành</w>
chúa_ thượng</w>
bùng_ phát</w>
Thế_ ra</w>
Thiên_ Lý</w>
Quy_ mô</w>
O s
D iêm</w>
Bất_ Tứ</w>
Bur u</w>
B ối_
9 1</w>
ử ng_hồng</w>
ủ_ rũ</w>
đen_ sì</w>
x âu</w>
tối_ ưu</w>
tư_ sản</w>
tr ụi</w>
tiều_ tụy</w>
thoả _mãn</w>
p ar
mặc_ cảm</w>
m ượt</w>
giảng_ giải</w>
ghi_ điểm</w>
d _B
cơ _mật</w>
bàn_ cờ</w>
b ật_
al bum</w>
_d iệt</w>
[_ Trang</w>
X ỉ</w>
Thiên_ Lộc</w>
Nhị_ Tẩu</w>
L ối</w>
H uyền_thoại</w>
0 O
ụ _trì</w>
ẻ m</w>
ác_ nhân</w>
àng_ trai</w>
w n</w>
vòng_ quanh</w>
v í_như</w>
trận_ pháp</w>
tráng_ sĩ</w>
thu ê_bao</w>
th ỏa</w>
quốc_ hội</w>
nhảy_ nhót</w>
n ốt_
n õ
lad e</w>
l ơn</w>
g òn</w>
dầu_ khí</w>
c ẩm</w>
bằng_ phẳng</w>
bó ng_hồng</w>
_m ặc</w>
_d ễ</w>
Thái_ thú</w>
Quan_ Công</w>
M ạng</w>
Hầu_ huynh</w>
H ầu</w>
F ar
Công_Tôn_Ngọc_ Sương</w>
Có_ vẻ</w>
Chủ_ nhiệm</w>
Bất_ ngờ</w>
Bugatti_Vey ron</w>
ùn_ vụt</w>
« _
u ội</w>
tr ót</w>
s á</w>
r ong_
r inh</w>
r am</w>
ph ủi</w>
ngo ắt</w>
ngo a</w>
mị n</w>
màn_ kịch</w>
lẫm_ liệt</w>
f t</w>
cuộc_ chơi</w>
b a
Thương_ Tùng</w>
T ốc</w>
Mon k</w>
Lộc_ Công</w>
Giáo_ hội</w>
Clau dia</w>
Chu_ Văn_
Chan el</w>
Bạt_ Nghi</w>
78 63</w>
2_ ,</w>
ớ I</w>
ồ _t
ẻ o_
ạ _tầng</w>
Điều_ chỉnh</w>
w or
v ùn_vụt</w>
v ét</w>
tái_ tạo</w>
tràn_ trề</w>
tr i
năng_ khiếu</w>
n ợ_
lối_ thoát</w>
lão_ trượng</w>
lo ad</w>
hầu_ tòa</w>
h ề
h iềm_
giáo_ phái</w>
gi ằng</w>
dũng_ khí</w>
cổ _truyền</w>
b ây</w>
b s
ar di
_th uật_
_l ấp</w>
Trẻ_ em</w>
T ức</w>
Ro bin</w>
Phát_ biểu</w>
Ngọc_ Tình</w>
Ng ự_
M B</w>
Hy un
Dương_Công_ Bảo_Khố</w>
B ang_
/ 4
ấ n_thân</w>
đá t</w>
Đ iện_tử</w>
â y
Ðại_ Hữu</w>
xuất_ chúng</w>
v ỡ_
tất_ yếu</w>
tr ườn</w>
tr át</w>
thiên_ văn</w>
si nh
sai_ bảo</w>
ra_ quân</w>
r ã_
phô_ trương</w>
phòng_ bị</w>
n ịu</w>
mê_m ẩn</w>
k èn</w>
giao_ tranh</w>
có ng</w>
co n_tin</w>
chú _tâm</w>
V ị_
R es
P en
L ư_
C ân_
Bạch_ Dương</w>
97 7</w>
0O 0</w>
ống_ kính</w>
ệ_ nạn</w>
Đoàn_ Văn_
án_ mạng</w>
vô_ biên</w>
thả ng_thốt</w>
s ũng</w>
phi_ đao</w>
nhất_ nhất</w>
nhàn_ rỗi</w>
m o</w>
li ke</w>
hạt_ giống</w>
giảm_ sút</w>
cất_ giữ</w>
chú i</w>
an i
Văn_ hoá</w>
Trời_ đất</w>
Tiếp_ tục</w>
TC CN</w>
Phó_ Thủ_tướng</w>
N úi</w>
Không_ chừng</w>
Chụp_ ảnh</w>
Ch ử</w>
Đại_ tướng</w>
vuốt_ râu</w>
t uyể
qu ơ</w>
phóng_ xạ</w>
phê_ phán</w>
nói_ láo</w>
kêu_ gào</w>
khẩu_ khí</w>
không_ đổi</w>
h ắng</w>
d ấn_thân</w>
cõi_ đời</w>
co r
chú_ rể</w>
chu_ toàn</w>
ch_t ụ</w>
buông_ tay</w>
biến_ chuyển</w>
Thành_ Cát_Tư_Hãn</w>
T ùng_
Phi_ Mã</w>
Hoàng_ Thượng</w>
Công_ phu</w>
Ch àng_trai</w>
B ran
ẩy_ bẩy</w>
v íu</w>
rảnh_ rỗi</w>
r ợ</w>
quá_ sức</w>
oan_ uổng</w>
nữ_ giới</w>
mở_t oang</w>
muôn_ ngàn</w>
kết_ liễu</w>
k è</w>
i ng
gi ỗ</w>
chửi_ bới</w>
che_ mắt</w>
b ết</w>
Venezu ela</w>
Th ịnh_
TA ND</w>
Ph ỉ</w>
Gi ảo_
-rập_ Xê-út</w>
địa_ phận</w>
Ð ịnh</w>
xâm_ chiếm</w>
uy _danh</w>
tán_ dương</w>
tr ác_
thần_ diệu</w>
phản_t ặc</w>
pháp_ sư</w>
nho ẻn</w>
ngoài_ mặt</w>
làm_ tình</w>
l òng_th
kế _toán</w>
iễ n_đ
h ách</w>
giằng_ co</w>
bàng_ quang</w>
b ông_
Tổng_ hợp</w>
Tế_ Trung</w>
Tây_ Vương</w>
Tr ắc_
Thế_ Tích</w>
Thích_ Phương</w>
Te ng</w>
T ỉ</w>
Ngay_ lập_tức</w>
Mẫu_ thân</w>
Lê_ Ngọc_
Hoà _
HO SE</w>
H O</w>
Gi ữ</w>
D ưỡng_
Ch iến_th
A ra
. ....</w>
Ả -rập_Xê-út</w>
đề m</w>
điệu_ bộ</w>
Địa_ lý</w>
Ô NG</w>
yết_ kiến</w>
s ấu</w>
s áp_
mộ _
khối_ u</w>
h ớt</w>
h òi</w>
chẳng_ sao</w>
băng_ giá</w>
bá n_đứng</w>
ar y</w>
Tr a_
Tiểu_ Huyền_
Leagu e_
Kh ảm</w>
D T</w>
Cận_ cảnh</w>
–_ Ngươi</w>
đầy_ rẫy</w>
đánh_ xe</w>
đá i_
Đ á
xác_ thực</w>
xe_ cộ</w>
vinh_ danh</w>
trung_ Phụng</w>
tr ù</w>
thống_ lãnh</w>
thu_ nhận</w>
phái_ đoàn</w>
oán_ trách</w>
nhân_ tình</w>
ng ự
ne s</w>
lá_ cờ</w>
lanh_ lợi</w>
i le
hồ _ly</w>
h ữ
h ò_
giật_ nảy</w>
ch òng_
c ụt_
b ập_
b ô
Tống_ gia</w>
Tr i</w>
Thát_ Đát</w>
T ắc</w>
Long_ An</w>
Gia_ Minh</w>
10 _
đinh_ ninh</w>
xo ắn</w>
x ấp</w>
thầy_ tu</w>
thao_ túng</w>
th _
t ật_
r ốt_cục</w>
ng ao</w>
len_l ỏi</w>
góp_ mặt</w>
giả_ sử</w>
dò _la</w>
ch ang</w>
T iếc</w>
Ng ôn_
Jes se</w>
Ch o
Ít_ nhất</w>
x ông_
vô_ phương</w>
trung_ úy</w>
tr ù_
thăng_ bằng</w>
thình_th ình</w>
thái_ bình</w>
s ẳn</w>
r ưới</w>
l au_
kiểm_ toán</w>
hò_ reo</w>
hành_ nghề</w>
h ai_
dầu_ lửa</w>
cắm_ đầu</w>
cận_ vệ</w>
cầm_ tù</w>
Tu ổi</w>
Thiên_ Chính</w>
Quân_ trung_Phụng</w>
Quân_ Sước</w>
Ma_ Kiếm</w>
Giải_ Tử_
Eco no
Bất_ chợt</w>
A ri
9 7</w>
4 /2</w>
đánh_ đắm</w>
ác_ ý</w>
Âm_ thanh</w>
vui_ tươi</w>
tưởng_ nhớ</w>
trở _tay</w>
sư_ cô</w>
s o_
phần_ nhiều</w>
phá c_
n à</w>
mấp_ máy</w>
l áng</w>
huyền_ diệu</w>
cành_ lá</w>
c e
bản_ án</w>
bơi_ lội</w>
b ưu_
Vic toria_
V ị
Thiếu_ gia</w>
S L</w>
Nh ỏ</w>
M in
Lại_ Tử</w>
Lou is</w>
Giải_ trí</w>
Côn_ L
C ú</w>
Bí _mật</w>
đại_ hiệp</w>
Ð ạt_
thảm_ bại</w>
phập_ phồng</w>
phòng_ học</w>
ng_th inh</w>
làm_ ơn</w>
khổ_ não</w>
hiểm_ độc</w>
gian_ tế</w>
cảnh_ ngộ</w>
công_nghệ_ cao</w>
con_ mẹ</w>
co n_th
ch uột_
ar o
Vu a_
Thú_ Thần</w>
Thi_ Lang</w>
Kh ối</w>
Cô_ ta</w>
B iện</w>
24 /1</w>
-_ Dân_trí</w>
Đại_ gia</w>
nhát_ gan</w>
m ải_
khỏ a_
h at
giám_ hiệu</w>
gi ai</w>
canh_ phòng</w>
Thượng_ đế</w>
T ày</w>
T àng</w>
So lomon</w>
Ngh ệ_th
N X
Mexi co</w>
Gi ảm</w>
Diệt_ Tuyệt_sư</w>
200 1</w>
Đ en</w>
Ð ồ_
Ð ệ</w>
tr ần_t
thơ_ ấu</w>
s ực_
quyền_ hạn</w>
ph í_
nội_ tạng</w>
nối_ tiếp</w>
ng ụ_
ng ao_
mờ_ ảo</w>
mặt_ trắng</w>
ly_ dị</w>
l u</w>
hồi_ sinh</w>
cà_ sa</w>
chói_ tai</w>
chu_ kỳ</w>
che _lấp</w>
ch ổi</w>
ban_ thưởng</w>
Xưa_ nay</w>
Wor ld_
Phượng_ Hoàng</w>
Khất_ Đan</w>
J er
Il lu
Giải_Tử_ Nguyên</w>
Dật_ Chi</w>
Côn_L ôn</w>
B ỉ</w>
9 0_%</w>
3 30.000</w>
ần_th ục</w>
Đ au_
trộm_ cắp</w>
tiếp_th ị</w>
thu ần_thục</w>
quả_ phụ</w>
quyền_ cước</w>
ph ở</w>
năng_ suất</w>
nhà_t ù</w>
nhà_ băng</w>
ngh iền_
ng_th ăm</w>
m ượn_
lặ ng_thinh</w>
lạ I</w>
l ấy_
gi ãy_
bước_ đầu</w>
b iếm</w>
_B ar
N V
Lý_ Mục</w>
H ào_
As s
7 -
3 D</w>
._ Các</w>
ọng_ điệu</w>
ạn_t uế</w>
êm_ đềm</w>
xem_ lại</w>
xe_ ngựa</w>
tiếng_ kêu</w>
thành_ bại</w>
tan_ rã</w>
t en</w>
sơ_ s
rượu_ vang</w>
lão_ luyện</w>
làm_ bàn</w>
khiêm_ nhường</w>
h n</w>
du_ thuyền</w>
bảo_ bối</w>
bướ u</w>
b ủ
Vin c
T ịch_
T ái</w>
T or
Ng ạc_
Lời_ nói</w>
Lưu_Nhất_ Chu</w>
L àn</w>
Kim_ Thống</w>
Khấu_Trọ ng_h
G iêng</w>
C av
Bộ_ GD-ĐT</w>
788 5</w>
5 /12</w>
đảm_ nhận</w>
đường_ cong</w>
Đ ốc</w>
xử_ sự</w>
tỷ _trọng</w>
tình_ tứ</w>
tuyệt_ nghệ</w>
trách_ mắng</w>
triết_ học</w>
tr ăn</w>
thánh_ chỉ</w>
thiết_ yếu</w>
tha_ tội</w>
sư_ phó</w>
r ãnh</w>
nhạt_ nhẽo</w>
ngữ_ khí</w>
ngoại_ hình</w>
m áng</w>
lên_ cơn</w>
l ăm_
khoáng_ chất</w>
dã _thú</w>
d a_đ
V ùng</w>
Tr âu</w>
Thực_ phẩm</w>
H ề</w>
Dù_ cho</w>
D ẫu</w>
A B
199 8</w>
v iế
tử_ chiến</w>
trần_ truồng</w>
tr ăn_trở</w>
to_ tiếng</w>
thị_ phần</w>
th ọc</w>
lạc_ đà</w>
l ân</w>
khoảng_ trống</w>
kho anh</w>
hộ p_
g ài</w>
es ti
di_ sản</w>
cá ch_l
_th iết</w>
Từ_ Liêm</w>
Tr ượng_
Ro me</w>
Ri ta</w>
Học_ tập</w>
Ch ăm_
Bùi_ Thị_
đồng_ tâm</w>
ôn_t ồn</w>
tử _hình</w>
r úc</w>
n ên_
m iệt_
lưu_ truyền</w>
lôi_ thôi</w>
khó _dễ</w>
h ùm</w>
chữ_ cái</w>
ch ầm</w>
bản_ sắc</w>
_d u</w>
Viện_ trưởng</w>
V õng</w>
Trương_ Tử_Thanh</w>
Th ao_
Ngô_ Lục_Kỳ</w>
Liên_hoan_ phim</w>
F an
Eu ro
-------- --------
ượ p</w>
viế ng_thăm</w>
tư_th ục</w>
tín_ ngưỡng</w>
trắng_ xóa</w>
thịnh_ vượng</w>
s ti
quan_ lớn</w>
oang_ oang</w>
nửa_ ngày</w>
mạnh_ tay</w>
lí _do</w>
hành_ xử</w>
hoang_ vắng</w>
c ọng</w>
_t o
Y am
W HO</w>
Uỷ_ ban_
Tr iêu_
Th ù</w>
Sư _thúc</w>
Ser i
Quảng_ Lăng</w>
E_ rằng</w>
D or
Chắc_ hẳn</w>
1, 000,000</w>
đường_ cao_tốc</w>
ác_ tăng</w>
Ê N</w>
v ái_
thị _lang</w>
tho i_
thoi_ thóp</w>
sở_h ạ_tầng</w>
như_ ý</w>
nh òa</w>
ngh iên_
lâm_ nguy</w>
l ổ</w>
chỉnh_ đốn</w>
chế_ giễu</w>
chấn_ chỉnh</w>
che_ phủ</w>
bước_ tiến</w>
biên_ cương</w>
ak h</w>
Vân_ Trung</w>
Ri han
Ng ại</w>
Long_ Tuyền</w>
Liên_ Châu_
Khám_ phá</w>
C li
C B
8 6</w>
3 .000</w>
199 7</w>
ốn_ nháo</w>
đe n_đ
x ơ_
vang_ động</w>
v ăn_th
tràn_ lan</w>
th ục</w>
th ít</w>
sinh_ lý</w>
ro om</w>
r l</w>
quy ên_
ox y_
nồng_ nàn</w>
nương_ tử</w>
niêm_ phong</w>
m ời_
m ọn</w>
in s
h tt
giao_ phong</w>
Nổi_ tiếng</w>
Nh o</w>
N ỗi_
D a</w>
Cao_ Hiên</w>
C ây_
8/ 3_
788 7</w>
/201 4</w>
ỗ _dành</w>
đa_ tình</w>
xanh_ xao</w>
x ộc</w>
w ay</w>
v ạch_
ton_ Nga</w>
r áo_
quân_ chủ</w>
nhân_ cách</w>
li xi
l òe</w>
khiêu_ vũ</w>
d ùi</w>
bản_ nhạc</w>
b o</w>
V ăn_t
Thạch_ Chi_Hiên</w>
Rihan na</w>
Quan_ Âm</w>
Nhị_ Nương</w>
Minh_ Phượng</w>
May_ mắn</w>
Hillary_Clin ton_Nga</w>
Gi ai</w>
B ụng</w>
B BC</w>
A -
9 47
ỳ_ gối</w>
đè_ nén</w>
đ ản</w>
ìn_ giữ</w>
à ng_l
v ay_
thủ _thế</w>
thích_ nghi</w>
thiếu_ máu</w>
sĩ_ khí</w>
nh ốn_nháo</w>
n ượp</w>
minh_ chứng</w>
k ĩ_
hình_ tròn</w>
g óa</w>
et ti</w>
dưới_ quyền</w>
d ay</w>
ch ửng</w>
biết_ sao</w>
b ăm</w>
_l uyện</w>
Tử_L an</w>
Tiểu_ Bạch_
Th ỉnh</w>
Tam_ Nhãn</w>
P ri
Nguyễn_ Minh_
Nghệ_th uật</w>
Ng õa_
Kim_ Lăng</w>
Hồng_ Thất</w>
Gu ardi
G roup</w>
G P
D ần</w>
9 3</w>
789 3</w>
ảo_ giác</w>
ườm_ nượp</w>
ƯƠ NG</w>
úy_ kỵ</w>
út_ đi</w>
ô _h
thôi_ miên</w>
thanh_ quang</w>
th án</w>
t ao_
sản_ sinh</w>
r ẻ
r uổi</w>
nh ãi</w>
lưu_ manh</w>
la_ liệt</w>
d ỗ_dành</w>
cửa_ xe</w>
cá_m ập</w>
chồng_ chất</w>
bi_ kịch</w>
b ơ_
ac k_
X ác_
Tổng_ quản</w>
Triều_ Dương</w>
Tr ùng_
Thiên_ Thạch</w>
T iệp</w>
Quả_ là</w>
Ca_ sĩ</w>
CEO_ Facebook</w>
Ang e
._ Ly</w>
ủy_ ban</w>
ác_ chiến</w>
vu n_
tướng_ quốc</w>
tươi_ đẹp</w>
trả m</w>
tr ứng_
thi_ thoảng</w>
t òng</w>
t iề
nh ái</w>
ngh ìn_
n ung</w>
m út</w>
khả _dĩ</w>
khám_ xét</w>
i t</w>
h ụt_
giả _thuyết</w>
công_ đức</w>
công_ sở</w>
chí_ ít</w>
bà n_tính</w>
Quan_ hệ</w>
Qu i_
Phú_ Thọ</w>
Nh ạ</w>
M ai-
Cu -
Chiếm_ Đạo</w>
22 /11</w>
ừng_h ực</w>
đỏ_ ửng</w>
đánh_ cuộc</w>
âu_ tóm</w>
Ðại_ Lương</w>
y ến_tiệc</w>
v ạc</w>
từ_ ngữ</w>
tưởng_ niệm</w>
trung_ học_
th ùng_
quắc_ mắt</w>
quá_ đỗi</w>
ph ả</w>
ph ô</w>
nhọc_ nhằn</w>
ng ục_
hòa_ nhập</w>
gi ông</w>
dòng_ dõi</w>
dàn_ xếp</w>
ck er
chuẩn_ mực</w>
ch an</w>
cao_ ngạo</w>
bo m_
b on</w>
Vĩnh_ Phúc</w>
Tr ực_
Mal ’
M en
Khả_ năng</w>
Fê lixi
Co mp
Chu ẩn_
Bí_ quyết</w>
ồ_t át</w>
ê_t ông</w>
yết_ hầu</w>
từ ng_
thịnh_ nộ</w>
t âng_
qu ỳ_gối</w>
nhỏ_nh oi</w>
nhãn_ hiệu</w>
mất_ công</w>
lơ_ đãng</w>
l ính_
khách_ mời</w>
hờ n_
hộ _thân</w>
h ắt_
cơ _trí</w>
cây_ xanh</w>
cai_ quản</w>
bất_ đồ</w>
b áng</w>
Tiểu_ Hoàn_
Tam_ gia</w>
M it
Gi ản_
D ám</w>
Anh_ Tuấn</w>
/ 3
„_ Ngươi</w>
ột_ dạ</w>
đ ẽo</w>
Đầu_ óc</w>
tăng_ lữ</w>
tù_ nhân</w>
thừa_ tướng</w>
thứ _lỗi</w>
nh ã_
m ó</w>
m ao</w>
làm_ khó_dễ</w>
khác_ nào</w>
hải_ sản</w>
h áo</w>
ch ợp</w>
c àu_
b log</w>
Vân_ Anh</w>
V G</w>
T O
Nh ắc</w>
Lo s_
Kiên_ Giang</w>
I B
D ạy</w>
Công_ nghiệp</w>
Chẳng_ ngờ</w>
Ch iếm</w>
C ẩn_thận</w>
Bu ồn</w>
28 /12</w>
19 45</w>
Đỗ_ Hưng</w>
Đại_ Sư</w>
tống_ tiền</w>
thượng_ lưu</w>
t ẩy_
phá_ giải</w>
nham_ hiểm</w>
mười_ bảy</w>
m ụn</w>
m ặn_
m uốt</w>
lưu_ luyến</w>
lâm_ sàng</w>
làm_ hỏng</w>
loảng_ xoảng</w>
khu_ công_nghiệp</w>
cai_ trị</w>
bỗng_ chốc</w>
bị_ can</w>
bất_ tử</w>
ar d_
Virgi nie</w>
Tức_ là</w>
Quận_ Chúa</w>
Qu á_trình</w>
Ngô_ Lập_Thân</w>
Ly nda</w>
Châu_ Tấn</w>
C ốt_
ừ m</w>
đ ọ</w>
đ ãi_
õ _h
vĩ _m
vĩ_m ô</w>
trong_ lành</w>
thượng_th ặng</w>
the _th
sáp_ nhập</w>
s ỏ</w>
phục_ tùng</w>
phi_ ngựa</w>
m_đ óm</w>
m ạt_
kỳ_ cục</w>
hội_ tụ</w>
hải_ ngoại</w>
de on</w>
d ầm</w>
cất_ cánh</w>
cam_ chịu</w>
c úng_
You tube</w>
Vĩnh_ Hưng</w>
Sa combank</w>
Nương_ Nương</w>
Lưu_ gia</w>
Hồng_ Liệt</w>
H ảo_
D _
CS GT</w>
Bát_ Nhã</w>
A P</w>
ảo_ tưởng</w>
ũng_ nịu</w>
đương_ trường</w>
đo m_đóm</w>
Đ ám_
võ _thuật</w>
vô_ vàn</w>
u_ uất</w>
tâm_ can</w>
tái_ mặt</w>
tiêu_ tán</w>
thành_ trì</w>
thành_ khẩn</w>
th ộn</w>
sớm_ mai</w>
quyến_ luyến</w>
p -
ou n
n ũng_nịu</w>
mang_ tiếng</w>
khí_ chất</w>
g ìn_giữ</w>
cá _tr
ch òi</w>
cao_ kiến</w>
c ù
biến_ dạng</w>
b ệt</w>
_h on</w>
T ung</w>
Ro ll
R O
N N
M ái_
Kh éo_
Hồ_Xung_ nghe</w>
D a_
Cu ba</w>
vết_ tích</w>
vật_ thể</w>
qu ỉ_
phỏng_ đoán</w>
khẩu_ hiệu</w>
khí_ khái</w>
khinh_ địch</w>
giảng_ đường</w>
diệt_ trừ</w>
cướp_ đoạt</w>
ch ột_dạ</w>
ap top</w>
anh_ chị_em</w>
_m ọn</w>
T âu</w>
T W</w>
S en</w>
Per sie</w>
NH NN</w>
M á
M ag
Kh ó_
Hư_ Hành_Chi</w>
Ham mond</w>
Fêlixi tê</w>
F lo
Chiêm_ Thành</w>
đứng_ đắn</w>
đẩy_ lui</w>
Định_ Đế</w>
Đại_ Trí</w>
vô_t uyến</w>
trực_ giác</w>
tr ụ_trì</w>
thực_ khách</w>
sơ_ suất</w>
rộn_ ràng</w>
r ắm</w>
nhất_ cử</w>
ng õ_h
n_đ ồng</w>
n ăn</w>
linh_ động</w>
l õng</w>
hợ p
hăm_ dọa</w>
hoảng_h ồn</w>
gi ời</w>
gi ọ
ghen_t uông</w>
e d</w>
e _th
dự_ bị</w>
càu_ nhàu</w>
chừng_ nào</w>
chênh_ chếch</w>
bầu_ bạn</w>
b ê_tông</w>
_m ay</w>
Tử_Lăng_ thầm</w>
Tr ích</w>
Thu_ Hà</w>
Người_ đẹp</w>
Mal’ akh</w>
Ma_ Lôi</w>
Lưỡng_ Hồ_
K ỵ_
H ỡi_ôi</w>
Giáo_ Chủ</w>
D all
CI A</w>
Bàng_ Nghĩa</w>
88 7.
/ 2/2012</w>
ột_ ngạt</w>
đổ_ vỡ</w>
đại_ cuộc</w>
đèn_đ ỏ</w>
đu i</w>
é_ mắt</w>
w ay
tụng_ kinh</w>
trách_ cứ</w>
trào_ dâng</w>
trang_ thiết_bị</w>
tiêu_ hao</w>
th âu_tóm</w>
nước_ hoa</w>
n bs
nbs p</w>
n ao_
mẹ_ già</w>
mua_ chuộc</w>
lắp_ đặt</w>
hoa_ lệ</w>
giao_ cấu</w>
chửi_ rủa</w>
ch es
c ỏi</w>
c à
bẩm_ báo</w>
biến_ ảo</w>
b ôi_
Th ịt</w>
Nông_ nghiệp</w>
Nh u_
N ụ</w>
Kiều_ Loan</w>
Khu_ vực</w>
Công_ viên</w>
B ậc</w>
B iến_
887. 104</w>
22 .9
/201 3</w>
ứ_ sao</w>
ạ n_thảo</w>
Ơ n</w>
à_ khà</w>
Ð ình</w>
tí ch_tụ</w>
tiềm_ lực</w>
lôi_ đình</w>
lo ét</w>
khoa_ trương</w>
k iêu</w>
hội_ trường</w>
h ừng_hực</w>
d ai_
cứng_ đờ</w>
cương_ vị</w>
chị t</w>
bất_ tài</w>
bảo_ lãnh</w>
Thanh_ tiên_sinh</w>
S à
Lệnh_Hồ_ đại_ca</w>
K en</w>
Illu min
Hoa_ Tiên</w>
F one</w>
Dụ_ Hàm</w>
Cửu_ Trùng</w>
Cô_ gái</w>
22 /12</w>
1. 980</w>
ợ c</w>
xu i_
x ào_
vel t</w>
v ất</w>
thần_ linh</w>
the_th é</w>
siêu_ phàm</w>
r êu</w>
qu ạnh</w>
o a</w>
khuyên_ nhủ</w>
ent ado
ch ợ_
cao_ tuổi</w>
bóng_ vàng</w>
V ượt</w>
Trang_ Đài</w>
T úy</w>
Nguyễn_ Thanh_
I. A.</w>
HĐQ T</w>
Hoa_ Vân</w>
Gi an
Cánh_ Diều</w>
Av entado
26 38</w>
11 /2</w>
ận_th ù</w>
Á o_
vào_ khoảng</w>
v n
v al</w>
từng_ trải</w>
trinh_ tiết</w>
thất_ thủ</w>
thôi_ thúc</w>
t en
so ạn_thảo</w>
quân_ phục</w>
phát_ tán</w>
ngân_ phiếu</w>
n_l ội</w>
lỗi_ lạc</w>
lạnh_ toát</w>
h ích</w>
danh_ giá</w>
cười_ phá</w>
cơ_ sở_hạ_tầng</w>
bồ_ câu</w>
as h
am y</w>
_tr ận</w>
_m ày</w>
V í
Thượng_ hoàng</w>
TT K</w>
S H
Ph u</w>
Nh ơn_
Lộ _diện</w>
L ưỡi</w>
Fad ette</w>
Bất_ Bình</w>
A cker</w>
Đánh_ máy</w>
ám_ hối</w>
trẻ _thơ</w>
trắng_ muốt</w>
thị _nữ</w>
th è</w>
quấy_ rối</w>
phạm_ nhân</w>
nước_ miếng</w>
lui_ tới</w>
lo gi
l iêu</w>
ký _hiệu</w>
khoác_ lác</w>
hành_ trang</w>
f o
e_th ẹn</w>
dân_ làng</w>
công_ nghệ_thông_tin</w>
cô _lập</w>
chạy_ đua</w>
băng_ tuyết</w>
bác_ bỏ</w>
an -
Triệu_ Vân</w>
S ân</w>
S po
Rober t_
R õ</w>
Q .</w>
Nguyễn_Tấn_ Dũng</w>
Jenni f
Gi deon</w>
Du_ Thản_Chi</w>
Cái_ gì</w>
C ẩu_
C ru
Ai_ ngờ</w>
38. 050</w>
đ òn_
đ e</w>
úi_ dụi</w>
ép_ buộc</w>
áp_ đặt</w>
Ý_ kiến</w>
tối_ hậu</w>
tâm_ cơ</w>
trú_ ngụ</w>
thông_ suốt</w>
sánh_ vai</w>
suy_ sụp</w>
ngo ái_
ng ột_ngạt</w>
n_đ ảo</w>
lặ n_lội</w>
lập_ công</w>
lượng_ thứ</w>
l ửa_
l ê
kì _thi</w>
k er</w>
it h</w>
hữu_ nghị</w>
dân_ thường</w>
d úi_dụi</w>
cường_ độ</w>
chiến_ công</w>
chi p</w>
an i</w>
Thiên_Si_ đạo_trưởng</w>
T D
Lý_ phiệt</w>
Lão_ thân</w>
Kh ưu_
Hồng_ Cơ</w>
Du_ Học</w>
D ục</w>
70 22</w>
6 22.9
622.9 25</w>
30. 202</w>
3. 977</w>
23 3.977</w>
đầu_ cơ</w>
Đông_ Bắc</w>
thù_ địch</w>
t ắn</w>
ngân_ hàng_không</w>
ng óc_
mắng_ chửi</w>
linh_ vị</w>
bê_ bối</w>
an y
ai r</w>
Tích_ Lương</w>
Lý_Thu_ Thủy</w>
L TS</w>
K S
Hà _hà</w>
Bắt_ đầu</w>
B ốc_
9 4</w>
Ðỗ_ Cửu</w>
tới_ mức</w>
trông_ cậy</w>
tiến_ trình</w>
tinh_ hoàn</w>
thượng_ hoàng</w>
thành_ thạo</w>
t ặc_
sof a</w>
rưng_r ưng</w>
nh ồi</w>
ngứa_ ngáy</w>
nghênh_ ngang</w>
mĩ m</w>
mái_ chèo</w>
khả_ quan</w>
kh ứa</w>
is h</w>
hư_ truyền</w>
g ay</w>
do ạ</w>
bánh_ chưng</w>
biết_ chừng_nào</w>
Vi_ tính</w>
T i</w>
Pa z
Nh iệm_
Ngạch_ Luân</w>
Kh êu</w>
Hội_đồng_ quản_trị</w>
Ho r
Gia_Cát_ Dật</w>
Diêm_ Vương_
D er
Cổ_ Mộ</w>
Cha_ xứ</w>
C. I.A.</w>
ẫu_ sao</w>
Đạo_ nhân</w>
Đ ồn</w>
vô_ duyên</w>
tư _liệu</w>
tái_ định_cư</w>
ph ớt_
nữ _tỳ</w>
nhân_ nghĩa</w>
nh àng</w>
khiếm_ khuyết</w>
in ch</w>
hữ ng_hờ</w>
hóa_ học</w>
gia_ quyến</w>
gi ọng_điệu</w>
dũng_ sĩ</w>
d ĩ_
cố_ nhiên</w>
cẩn_ mật</w>
b ong_
ao_ ước</w>
Quảng_ Châu</w>
M ã
K ể_cả</w>
K -
Hoàng_ Anh</w>
Gi ây_
Ch ử_
C TC
Bất_ Tử</w>
06 /03/2012</w>
ăn_ chay</w>
ê_m ùa</w>
tột_ độ</w>
trưởng_ phòng</w>
tiếp_ diễn</w>
tháo_ chạy</w>
sưu_ tầm</w>
săn_ bắn</w>
rã_ rời</w>
nói_ bậy</w>
nh ặn</w>
ma il
m ền</w>
linh_ thiêng</w>
iền_t oái</w>
h ạch</w>
cơ n_
chức_ vị</w>
chê_ cười</w>
bỏ_ cuộc</w>
bàng_ quan</w>
ac i
Trịnh_ Thạch</w>
Ms 4
K _
Chung_ Công</w>
Ale x</w>
xếp_ đặt</w>
tài_ phiệt</w>
tài_ hoa</w>
truyề n_đạt</w>
tinh_ hoa</w>
thủ _tiêu</w>
sòng_ bạc</w>
r ạ</w>
quật_ cường</w>
q uyện</w>
ph ượng_
nội_ thành</w>
n_t ạo</w>
m ent</w>
l ố_
kho ẻ
ir _
hệ_ số</w>
htt p
giam_ cầm</w>
dầu_ thô</w>
cá ng</w>
bụng_ dưới</w>
bu ồn_t
a_đ ồ</w>
Trịnh_ Đáng</w>
T X</w>
S am</w>
R ừng</w>
Minh_ Châu</w>
K ỹ_
In di
Huệ_ Huy</w>
Hoàn_ Kiếm</w>
D ầu</w>
C B</w>
Bell amy</w>
B .</w>
8 7</w>
05 /03/2012</w>
ực_ cười</w>
Đồ_ Long</w>
tiểu_ vương</w>
t ỉ_
s hi</w>
s _S
quan_ viên</w>
ngày_ trước</w>
ng ót</w>
lục_ địa</w>
khoái_ lạc</w>
h úc</w>
di_ tản</w>
d ượng</w>
d ì
cách_l y</w>
a_đ ào</w>
_th ủ_t
_h iểu</w>
T H</w>
La ur
L ô
L ung_
Kết_ thúc</w>
J am
Hyun dai</w>
H P</w>
Giấc_ mơ</w>
F ED</w>
Bầu_ cử</w>
Ba_ Đình</w>
B ột_
5 /2</w>
20 .000</w>
10 :
ớ c</w>
ư_ ký</w>
đại_ đội</w>
xa_ hoa</w>
tiểu_ đồng</w>
thổ n_thức</w>
thân_ nhân</w>
quá_ cố</w>
qu ê_mùa</w>
nhớ_ nhung</w>
ngự_ sử</w>
nghi_ ngút</w>
l ắm_
l ẩy_bẩy</w>
kh ắp_
hiệp_ lực</w>
g ặt</w>
cừu_ hận</w>
cà_ chua</w>
chân_ truyền</w>
cho áng</w>
bất_ định</w>
bà n_đ
b uộc_tội</w>
anh_ quanh</w>
Xuân_ Thân</w>
Tây_ Nguyên</w>
Trung_ học</w>
To ản</w>
Nh uận</w>
Ng uy</w>
Liên_ Hợp_
K I
Geor ge_
Diệp_ Chi</w>
Dall as</w>
Cửu_ Dương</w>
Châu_ Á</w>
ấm_ cúng</w>
Ả o</w>
ưở ng_tượng</w>
đích_th ị</w>
đái_ tháo</w>
xinh_ tươi</w>
x ã_
vắ ng_lặng</w>
v in</w>
tương_ đồng</w>
trở_ xuống</w>
trấn_ giữ</w>
tinh_ nghịch</w>
thực_ lòng</w>
thương_ gia</w>
quét_ dọn</w>
phát_ sóng</w>
ph iền_toái</w>
ngăn_ kéo</w>
ngôi_ vị</w>
ng ợp</w>
khuyên_ can</w>
kh ói_
ho w</w>
g ội</w>
e v</w>
danh_ môn</w>
cắn_ răng</w>
co n_đ
b ề
b ùi_
_tr ị</w>
Tam_ đệ</w>
Tai_ nạn</w>
Nói_ chung</w>
M àu</w>
Illumin ati</w>
Cu- ba</w>
C ù</w>
C D</w>
đội_ trời</w>
Ð iên</w>
y_ hệt</w>
x ơi</w>
vô_ sỉ</w>
tận_t ình</w>
tươi_ tắn</w>
trá ng_l
tiệc_ rượu</w>
ri e</w>
nà i</w>
nguy_ nan</w>
m ảnh_
kỳ _tài</w>
hỏi_ nhỏ</w>
hậu_ bối</w>
giật_ thót</w>
g ọt</w>
g ol
f e
dị _dạng</w>
bản_ xứ</w>
b ả</w>
V ết_
V .
Tây_ Nam</w>
Tát_ Khắc</w>
Thanh_ Nguyên</w>
Hồng_ Ngọc</w>
Ho ảng_
A_ Di_
–_ Ta</w>
ợt_ lạt</w>
đắc_ thắng</w>
đất_ đá</w>
ăn_ học</w>
vỗ_ về</w>
tiếp_ tay</w>
thống_ khoái</w>
thế _huynh</w>
th ả_
ra_ dáng</w>
quỷ_ kế</w>
năm_ trăm</w>
nh ớ
ngo ạm</w>
lạc_ lõng</w>
l ợt_lạt</w>
kinh_ thiên_
in i_
h ăng</w>
giải_ trình</w>
da_ cam</w>
cầu_ khẩn</w>
cấp_ tốc</w>
chính_ thống</w>
bị_ động</w>
an da</w>
Tức_ thì</w>
Tương_ tự</w>
Tô_ Thiên_Bình</w>
Thục_ Ni</w>
Thiên_ Môn</w>
S ớm</w>
Quyên_ Nhi</w>
Phương_ Anh</w>
Phú_ Quốc</w>
K iêu_
IM F</w>
Hoà n_toàn</w>
E du
Ch inh</w>
10 0,000_
Đ ủ</w>
vô _luận</w>
tang_ lễ</w>
phê_ chuẩn</w>
nhân_ ảnh</w>
mờ_ nhạt</w>
l ảng_
hèn_ hạ</w>
gây_ sự</w>
chửi_ mắng</w>
canh_ chừng</w>
bát_ ngát</w>
_l ẽ_
Xử_ Cơ</w>
Vương_ Quốc_Bảo</w>
V ườn</w>
Tr ọ
Quy_ Nhơn</w>
Kh ôi_
Dương_ Khang</w>
C ười</w>
Bầu_ trời</w>
Bạch_ Long</w>
Ba_ La_Tinh</w>
B ill
2 10
ảo_ thuật</w>
Đại_ Hãn</w>
ê n_thân</w>
y_th uật</w>
u ỷ_
tổng_ binh</w>
thị t_
thăm_ viếng</w>
t iện_th
quá_ chừng</w>
quy _t
phân_ nửa</w>
ph ắc</w>
nhà _hát</w>
n ịt</w>
kỳ _tích</w>
gân_ cốt</w>
da_đ ỏ</w>
căm_ giận</w>
Thẩm_ Tường</w>
Tho m
Ph ù
Máy_ bay</w>
F D
Chung_ Ly_
C ọp</w>
789 1</w>
31 /1</w>
/201 5</w>
ự_t iền</w>
đùa_ cợt</w>
Đ ả</w>
ù m_
ên_đ ề</w>
vô _lực</w>
tu ý</w>
tri_ phủ</w>
trai_ trẻ</w>
tr ứ
thực_ đơn</w>
thức_ tỉnh</w>
thất_ thần</w>
thân_ thích</w>
phát_ thanh</w>
ph ố_
m úa_
l iệu_
ký_t úc_xá</w>
kiệt_ lực</w>
khẩu_ phần</w>
khí_ phách</w>
khoan_ thai</w>
dầu_ mỏ</w>
du_ dương</w>
cố_ chấp</w>
bá_ chủ</w>
_m ục</w>
Viet tel</w>
Thống_ Nhất</w>
Premier_ League</w>
Phương_ Ngọc</w>
Lặc_ Miệt</w>
Kh iếu_
Giang_ Đô</w>
Car ol
C ộng</w>
Bình_ thường</w>
79 21</w>
15 /12</w>
ứng_ chiến</w>
ể _tướng</w>
ê_d ại</w>
ái_ nữ</w>
vô _thức</w>
trông_ chờ</w>
truyề n_t
thí_ điểm</w>
th áp_
rác_ thải</w>
mày_ râu</w>
gi rl</w>
cơ_d uyên</w>
c ạch</w>
b ứt</w>
b ể_
_th ẻ</w>
Tiểu_ Bảo_
Thảo_ nào</w>
T -
S óng</w>
P .
Ngô_ Khảm</w>
Kiến_ trúc</w>
Hai_ Bà_Trưng</w>
đô _thống</w>
đ eo_
ái_ tình</w>
tổng_ quản</w>
trùng_ điệp</w>
tiểu_ tốt</w>
thủ _tướng</w>
thiếu_ nhi</w>
th ục_
s ám_hối</w>
nh ậm_
mù_ quáng</w>
hệ _trọng</w>
da_ dê</w>
ch an_
b ấm_
b ưu_điện</w>
Victoria_ Beckham</w>
V A
Thủ _thuật</w>
T ội</w>
Spo on</w>
Ng ạch</w>
Khu ất</w>
Gi ăng_
D ĩ_
C ờ</w>
Bất_ Tà_
8 _
8 1</w>
điêu_ khắc</w>
tí ch
trợ _thủ</w>
thông_ hiểu</w>
thân_ mình</w>
thi_ đua</w>
t in
sổ_ sách</w>
po p</w>
ph ăng_
ph anh_
o la</w>
nước_ mắm</w>
núi_ rừng</w>
ngũ_ cốc</w>
nghèo_ khổ</w>
n_t ụ</w>
mặt_ đường</w>
lầm_ bầm</w>
li ng</w>
l ầu_
l â
khoẻ _mạnh</w>
k ịt</w>
hồi_ ức</w>
hạ_ cánh</w>
hài_ tử</w>
d ường</w>
cực_ đoan</w>
chung_ sống</w>
Phật_ Giáo</w>
Nic ôn</w>
Ng ựa</w>
Hồ_ Nhị_Tẩu</w>
Gi ật_
F L
D ượng_
Côn_ Sơn</w>
27 .
ước_ chừng</w>
ưu_ tú</w>
ơ n_th
đoà n_tụ</w>
đ ặng_
vô_ vị</w>
tuy_ rằng</w>
tr eo_
thất_ thường</w>
t ợ</w>
t ầu</w>
t ê_dại</w>
s_ Got_Talent</w>
q u</w>
nà nh</w>
nhậm_ chức</w>
nhân_ văn</w>
ng uyệt_
ma_ quái</w>
lo anh_quanh</w>
khuynh_ hướng</w>
khinh_ miệt</w>
hoạt_ bát</w>
gia_đ inh</w>
g ừng</w>
er son</w>
di_ cư</w>
d úi</w>
cơn_ sốt</w>
chết_ tiệt</w>
ch ày</w>
Trung_ nguyên</w>
Tinh_ Hà</w>
Thống_ kê</w>
Thúy_ An</w>
T Q</w>
Nhân_ Ái</w>
Ko n_
Kiến_ Đức</w>
F re
Chúng_ nó</w>
Chiến_ lược</w>
8 9</w>
200 ,000_
2 _D
đoà n_thể</w>
đa_ nghi</w>
đ ét</w>
áo_ giáp</w>
Ðại_ tiên_sinh</w>
Ðan_ Nhi</w>
tự_t ại</w>
tiền_ sử</w>
thỏ _thẻ</w>
nhãn_ quang</w>
lưu_ trú</w>
huýt_ sáo</w>
giới_ luật</w>
ghi_ bàn</w>
e_ sợ</w>
cầu_ vồng</w>
cảnh_ quan</w>
ch át_
ch _ho
cas ino</w>
c ưỡ
bậc_ thang</w>
b ẽ_
_thủ_t ướng</w>
X à_
V il
S au_cùng</w>
Ph á_
Ng u</w>
Lê_ Hồng_
Kh ảo_
Căn_ Tiên</w>
Chung_Ly_ Triết</w>
CN TT</w>
Bạch_ Quân_Nghi</w>
Bạch_ Mai</w>
An tôn</w>
200 2</w>
/201 2_
ủ y_th
đối_ kháng</w>
đỏ _ho
đầy_ ắp</w>
đường_ thủy</w>
xe_l ửa</w>
xe n_lẫn</w>
vũ _lực</w>
v eo_
truy_t ố</w>
tay_ lái</w>
t ạnh</w>
sơ_t án</w>
s ỉ_
nhỏ _mọn</w>
nguyên_ bản</w>
ng_h ầm</w>
l òi</w>
iễm_ nhiên</w>
hủy_ bỏ</w>
huyết_ mạch</w>
hu ỷ</w>
hoa_ mắt</w>
hiếp_ dâm</w>
cứng_ cỏi</w>
công_ tâm</w>
cách_ chức</w>
chút_ xíu</w>
b ộp</w>
X ót_thương</w>
Trưởng_ ban</w>
Tiểu_Huyền_ Tử</w>
Thực_ hiện</w>
Thủ _l
Ng ư</w>
Mar gar
L en
Hous e</w>
Hol ly
Giật_ mình</w>
F P
Có _lý</w>
Chic ago</w>
B .
An_ Giang</w>
Am ster
10 ,
Đô _thống</w>
yên_ bình</w>
w _
vãn_ hồi</w>
th ước_
phục_ binh</w>
ph iếm</w>
nghị_ sĩ</w>
m u</w>
lưu_ lạc</w>
khổ _luyện</w>
kho_ tàng</w>
kh ước</w>
h ỡi</w>
gi o</w>
gh ìm</w>
g ắm</w>
diễm_ lệ</w>
d inh_
có t</w>
chung_ quy</w>
bá_ phụ</w>
b ọn_ta</w>
an to
ad i
X án</w>
Uni ver
U ẩn</w>
Trở_ lại</w>
Trương_ Tuyền</w>
Tiểu_ Linh</w>
Thiên_ Sư</w>
Quan_ trọng</w>
Phi_ Yến</w>
Như_ Băng</w>
M ơ</w>
K ia</w>
Ho t
7_,_ chăm</w>
đường_ mòn</w>
đàm_ luận</w>
đ ê_h
Đáp_ An</w>
vô_ lại</w>
v e
u_ cợt</w>
tự _thân</w>
tàn_ độc</w>
tiến_ quân</w>
th ày</w>
nói_ sai</w>
n_đ ơn</w>
mai_ táng</w>
kinh_ sư</w>
kh à_khà</w>
hạ _lưu</w>
c úm</w>
V iết_
T on
S V
M ê</w>
Lamborgh ini_
Chuẩn_ bị</w>
Bảo_ tàng</w>
B ội_
định_ nghĩa</w>
Ý_ nghĩ</w>
x ả
tường_ thuật</w>
tái_ sinh</w>
thương_ nhân</w>
súng_ lục</w>
sa_ sút</w>
qu ỷ
ngu ỵ</w>
hiệu_ ứng</w>
h ận_thù</w>
h a
giả _dạng</w>
er o
diễ u_
co_ giật</w>
chối_ cãi</w>
chú _thích</w>
cam_ đoan</w>
Thừa_ Tướng</w>
Sóc_ Trăng</w>
Sh ar
No kia_
Nhà _th
Ngọc_ Tiêu</w>
N .</w>
I V</w>
H ạn_
H uy
Dượng_ Đế</w>
Ch iêm</w>
C ang</w>
24 /12</w>
đụng_ độ</w>
đồng_ cảm</w>
địa_ chấn</w>
đê_h èn</w>
điểm_ cao</w>
Đ ộ
ích_l ợi</w>
ám_ hại</w>
tưở i</w>
thanh_ la</w>
th ỏi</w>
t ể</w>
sâu_ đậm</w>
suy_d inh_dưỡng</w>
suy _luận</w>
quân_ dân</w>
quá_ ư</w>
nhà_ kho</w>
nam_ nhi</w>
m ô_
khám_ nghiệm</w>
khoai_ tây</w>
h am
giễ u_cợt</w>
g ửi_
dược_ vật</w>
d ưỡ
công_ đoàn</w>
b ạ
Triệu_ Thiên</w>
Son y</w>
Ra oul</w>
Ph án</w>
Ph iền</w>
Nhà_ máy</w>
La_ Thành</w>
Edw ard</w>
A A
5 4
/0 3</w>
điệp_ viên</w>
Đ ắc_
áo_ lót</w>
vô_ cảm</w>
tổng_ giám_đốc</w>
tu ệ</w>
trầm_ lặng</w>
th o</w>
t àng_
t s
ra -
phá p_thuật</w>
ph ơ
o ắt</w>
nội_ thị</w>
nhận_ diện</w>
nh áp</w>
ngây_ ngô</w>
nghèo_ khó</w>
ngh iễm_nhiên</w>
một_ thể</w>
mị n_màng</w>
m s</w>
l iếc_
khép_ kín</w>
hoà_ bình</w>
hi u_
cực_ kì</w>
công_ thần</w>
cây_ bút</w>
chết_ đói</w>
can_ ngăn</w>
V ề_phần</w>
V P</w>
Tiểu_ Tiên</w>
Thụy_ Điển</w>
Te ch
S ắt</w>
Ph ách</w>
Khoa_ học_
Ho ạch</w>
Bình_ Chi</w>
B ốn_
’ _
đường_ bay</w>
Đại_ Nham</w>
óng_ ánh</w>
ác_ ma</w>
Â N</w>
tiếp_ viện</w>
thở_d ốc</w>
thương_ nhớ</w>
te s</w>
phi_ tần</w>
ol y
nở_ rộ</w>
mắc_ bẫy</w>
màn_ ảnh</w>
lây_ lan</w>
iên_ man</w>
cực_ nhọc</w>
chính_ nghĩa</w>
c ai</w>
Xê- va</w>
Tôn_ Bất_Tà</w>
Tài_ trí</w>
Tiêu_ Nguyệt_Ðàm</w>
Sao_ vậy</w>
Nguyễn_ Tr
M ong_
Lễ _hội</w>
Lý_ Băng_
Không_ gian</w>
Khéo_ Tay</w>
Cô_ Tô</w>
Chu_ Thông</w>
Ch ì</w>
B á
Ai_ Cập</w>
2 /2</w>
Đ ống_
x _
tráng_l ệ</w>
tr ick</w>
thưa_ thớt</w>
thanh_ nhã</w>
t eo</w>
phế_ bỏ</w>
o anh</w>
nhãn_ lực</w>
ngã_ ngửa</w>
ng ạn</w>
ng ưng_
kiế n_tạo</w>
hình_ vẽ</w>
hàm_ ý</w>
gián_đ oạn</w>
diễn_ xuất</w>
cầu_ mong</w>
chói_ lọi</w>
b ộn</w>
Xa vi</w>
Thu ỳ</w>
Nương_ Dung</w>
Ng ón_
N i_
L eo</w>
J an
Hoàn_ Xỉ</w>
ủy_th ác</w>
độc_ dược</w>
đỏ _l
đô la</w>
đ úp</w>
Ð ô</w>
sai_ trái</w>
ruộng_ đất</w>
r ập_
phân_ giải</w>
ngày_ kia</w>
lưu_ chuyển</w>
khiếm_ thị</w>
hề _h
e b
da_ gà</w>
d ra
châm_ chọc</w>
c ặn_
al and</w>
Tổng_th ư_ký</w>
Tr e</w>
Thiên_ Nữ</w>
Thanh_ Hải</w>
Re sort</w>
Q uyền_
Ngọc_ Thanh_
Chăm_ sóc</w>
ụ _trưởng</w>
ì -
áp_ chế</w>
uất_ ức</w>
tử _thần</w>
tồn_ vong</w>
s au
quận_ chúa</w>
quần_th ần</w>
phụ _lòng</w>
p r
o à</w>
nhộn_ nhạo</w>
nhân_ tâm</w>
nghỉ_ việc</w>
n át_
m_c ồm</w>
lầm_ lẫn</w>
lung_ lay</w>
kỹ _thuật_
khổ_ đau</w>
khu ấy</w>
h uyệt_
giả _tạo</w>
c ớ_
c a-
_h ay</w>
Tổng_ Bí_thư</w>
Tạp_ chí</w>
Tôn_ giá</w>
Phổ_ Côn</w>
Phúc_ Kiến</w>
Mục_ Niệm</w>
Micha el</w>
Hội_ An</w>
Hương_ chủ</w>
Chế_ độ</w>
ịch_ cúm_A</w>
đại_ cục</w>
Đ ời_
xảo_ diệu</w>
xà_ phòng</w>
tơi_ bời</w>
tài_ nào</w>
t ô_
quái_ gở</w>
nặng_tr ĩu</w>
mong_ chờ</w>
linh_ kiện</w>
khích_ động</w>
kh óm</w>
h ẹp_
g am</w>
en z
cá_ voi</w>
co_ rúm</w>
chung_ thân</w>
biết_ mấy</w>
bao_ cao_su</w>
X á</w>
Việt_ Minh</w>
Tô_ Khôn</w>
Tên ác
T iệp_
Quy_ chế</w>
Ph óng_
Ph ì_
Gi ave</w>
Dịch_ giả</w>
D ưỡng</w>
D ư
Chính_ sách</w>
B ửu</w>
5/201 2_D
5/2012_D ịch_cúm_A</w>
ấn_ định</w>
đánh_ phá</w>
Đá ng_lẽ</w>
è re</w>
Ðinh_ Ðiển</w>
x ép</w>
x ung</w>
vị _h
veo_ véo</w>
v ận_tốc</w>
trung_ quân</w>
tr ồ</w>
tiên_ đoán</w>
thô_ bạo</w>
thoái_ hóa</w>
th ửa</w>
nhiệt_ đới</w>
ng ẩm</w>
mãnh_ thú</w>
lần_ mò</w>
la_ ó</w>
l an
hô_h ố</w>
chần_ chờ</w>
chả _lẽ</w>
chúng_ mày</w>
cho ảng</w>
bài_ bản</w>
b as
Vn Econo
Tênác điê</w>
Thao_ Thiết</w>
Thanh_ Lương</w>
O k
Năng_ lượng</w>
Ng ưng</w>
N AT
Mar ie</w>
M ị_
C á_
A N
9 6
Ố i</w>
ắt_ hẳn</w>
ưu_ ái</w>
đ ong</w>
Đào_ Hoa</w>
í p</w>
Ðại_ Nham</w>
tử _thương</w>
truyền_th ần</w>
oanh_ tạc</w>
nhà_ Vua</w>
ngo ằn_
n load</w>
máy_ vi_tính</w>
làm_ ngơ</w>
l z
khẩn_ cầu</w>
h ẫng</w>
cá_tr a</w>
_l ô</w>
V ĩ_
Q -
O x
No te</w>
Ngọc_ Thành</w>
M ừng</w>
Ho á_
D as
Ch én</w>
Bạch_ Tiêu_
/ 6
−_ Lão</w>
đỏ_ho e</w>
vô_ sinh</w>
tầ ng_hầm</w>
tuần_ hoàn</w>
trầm_ cảm</w>
thâm_ độc</w>
th ò
s ủng</w>
phần_ phật</w>
phút_ giây</w>
phu_ phụ</w>
ng ặt_
n_l ạnh</w>
long_ trọng</w>
k ề_
k iềm</w>
hàm_ hồ</w>
dĩ_ vãng</w>
chống_ trả</w>
chuy ên_đề</w>
ch ứ_sao</w>
c ộp</w>
bực_ dọc</w>
bỉ_ ổi</w>
b ar
V ú</w>
Uyển_ Nhi</w>
Tôn_ Long</w>
Ter ry</w>
Nh ức_
Nad al</w>
Hồng_ Kông</w>
Hải_ Lưu</w>
Em ma</w>
C ống</w>
Bảo_ vệ</w>
7 /12</w>
đèn_l ửa</w>
đá n</w>
x iên</w>
vẻ_ ngoài</w>
tẩu_ thoát</w>
tuyệt_ sắc</w>
trục_ xuất</w>
trích_ dẫn</w>
tiên_ nữ</w>
tai_ biến</w>
s ton</w>
nhường_ nhịn</w>
nghị u</w>
nan_ giải</w>
n ản_
m ơn_
m uối_
l ữ_
l ồi</w>
khẩn_ yếu</w>
khí_ công</w>
k iếng</w>
is co</w>
hỗn_ độn</w>
hư _thực</w>
hung_ tợn</w>
giải_ ngân</w>
g ặm</w>
e t_
d ăm</w>
bán_ hoa</w>
[...]
