#version: 0.2
n g</w>
t h
n g
n h
c h
t r
n _
k h
n h</w>
ng _
p h
ô ng</w>
g i
i _
ê n</w>
ư ờ
i ế
q u
t _
nh _
u _
i ệ
kh ông</w>
m ộ
u y
c _
ạ i</w>
l à</w>
ớ i</w>
m _
c ủ
củ a</w>
ư ợ
ườ i</w>
ư ơ
o ng</w>
mộ t</w>
n à
c á
c ó</w>
ng ười</w>
ấ y</w>
t i
a y</w>
n ó
v à</w>
_ th
â n</w>
ượ c</w>
ô i</w>
ư ớ
a _
ng h
đ ã</w>
c h</w>
o _
nó i</w>
tr ong</w>
đ ược</w>
a i</w>
l ại</w>
a nh</w>
i ề
ấ t</w>
ì nh</w>
ch o</w>
r a</w>
s a
t a</w>
u ố
v à
ả i</w>
y _
ế n</w>
ầ n</w>
ũ ng</w>
v ới</w>
h o
ồ i</w>
a ng</w>
c ũng</w>
nà y</w>
i ê
ô ng_
t ôi</w>
đ ến</w>
t iế
ữ ng</w>
ướ c</w>
nh ư</w>
ươ ng</w>
nh ững</w>
à ng</w>
và o</w>
cá c</w>
ư ng</w>
ườ ng</w>
l à
ph ải</w>
ấ t_
â n_
th ì</w>
đ i</w>
_ t
ù ng</w>
i ể
c o
i ên</w>
đ ó</w>
ch ú
đ ể</w>
â y</w>
ế t</w>
b iế
_ l
ò n</w>
ậ t</w>
a n</w>
m à</w>
đ ầ
i nh</w>
ờ i</w>
đ ộ
th ấy</w>
nh ưng</w>
iề u</w>
đ á
đ ạ
c òn</w>
ch ỉ</w>
r ồi</w>
v iệ
v ề</w>
â u</w>
l ên</w>
à i</w>
uy ệ
h ai</w>
_ h
ậ n</w>
kh i</w>
ú c</w>
ứ c</w>
á c</w>
là m</w>
ư a</w>
m ình</w>
e m</w>
ươ ng_
t ừ</w>
biế t</w>
á i</w>
b ả
g ì</w>
à nh</w>
ỏ i</w>
ơ n</w>
ằ ng</w>
ò ng</w>
ắ t</w>
ọ c</w>
m ặ
à n</w>
n ă
ữ a</w>
n_ t
tr ên</w>
b ị</w>
a o</w>
i nh_
nà o</w>
iệ n</w>
s ẽ</w>
l ã
đ ị
b á
c ó
c ô</w>
ậ y</w>
s á
ừ ng</w>
ụ c</w>
n_ th
ộ i</w>
đầ u</w>
p _
e o</w>
a nh_
sa u</w>
uyệ n</w>
ph á
ẫ n</w>
co n</w>
ì nh_
ạ n</w>
c ả</w>
nh ân</w>
ì n</w>
ă ng</w>
u ng_
ố ng</w>
à y</w>
n_ h
ắ n</w>
â m</w>
ự c</w>
ơ i</w>
nh ìn</w>
ti ể
c ả
sa o</w>
đ ây</w>
í nh</w>
t u
ọ ng</w>
_ v
_th ể</w>
c ông_
cá i</w>
ổ i</w>
t ay</w>
tiế ng</w>
a o_
c ùng</w>
nă m</w>
ề n</w>
đ ang</w>
việ c</w>
m ới</w>
tr ước</w>
uố ng</w>
_ d
ư ở
t ới</w>
l úc</w>
ắ c</w>
n ên</w>
h à
ch iế
ồ ng</w>
ươ i</w>
ô n</w>
u ng</w>
_ s
_ tr
ọ n</w>
r ất</w>
ng o
th eo</w>
u ộ
nh iều</w>
mặ t</w>
th iế
á n</w>
đạ i_
có _thể</w>
m ạ
chú ng_
k iế
ế _
đ ề
uố n</w>
gi á
m ắt</w>
lã o</w>
ch uyện</w>
ố i</w>
ế u</w>
nh iên</w>
h ọ</w>
h ơn</w>
n_ l
ê u</w>
ẳ ng</w>
ố i_
h ỏi</w>
t ại</w>
ngh e</w>
ưở ng</w>
tiể u_
n a
s ự</w>
n ữa</w>
g ã</w>
ă n</w>
v ẫn</w>
ng ày</w>
v ì</w>
ừ a</w>
ứ ng</w>
n_ đ
nà ng</w>
th á
t o
qu a</w>
l ớ
m uốn</w>
độ ng</w>
ng ươi</w>
c ười</w>
l o
ầ m</w>
í ch</w>
ượ ng</w>
iê n_
ọ i</w>
n ếu</w>
th ế</w>
gi ờ</w>
a u</w>
nh à</w>
b ên</w>
kh o
x uống</w>
c ông</w>
iệ u</w>
ế t_
2 0
qu y
v ậy</w>
k i
ử a</w>
ch àng</w>
ch ưa</w>
b ất_
ng uy
ố c</w>
h ạ
đề u</w>
ậ p</w>
_ m
á t</w>
đị nh</w>
nh ất</w>
ê n_
a n_
ự c_
v ừa</w>
b à</w>
h uy
ho à
l u
ê m</w>
b ạ
h ắn</w>
th ế_
n ay</w>
cá ch</w>
l òng</w>
s ố</w>
ngh ĩ</w>
ng_ h
x u
kh ác</w>
n ước</w>
_ đ
r ằng</w>
ng_ th
n ó</w>
kh ông_
gi ả
iề n</w>
mộ t_
h ọc</w>
b ọn</w>
l ần</w>
l ấy</w>
ắ m</w>
gi a</w>
ô _
ứ c_
b a</w>
bả o</w>
â m_
ch ẳng</w>
t ạ
t ên</w>
h ay</w>
iể m</w>
ố n</w>
đ ối_
đ ường</w>
_ ph
s inh</w>
ụ ng</w>
ú ng</w>
â y_
th ành</w>
ắ ng</w>
. .</w>
u_ l
tr ường</w>
t a
í a</w>
lớ n</w>
iể u</w>
đ âu</w>
ch ính</w>
đ o
ắ c_
ỗ i</w>
uộ c</w>
đá p</w>
kh á
t uy
à n_
ầ n_
ọ c_
ă n_
iệ t</w>
ngo ài</w>
_ ch
chúng_ ta</w>
20 1
kiế m</w>
b ằng</w>
đ ồ
l ạ
ờ i_
ph ía</w>
i ễ
ố t</w>
ườ i_
ệ nh</w>
ch ết</w>
th ật</w>
c ơ
na m</w>
m u
nh au</w>
tr ọng</w>
v iên</w>
k inh_
ầ u</w>
ậ u</w>
ự _
h ồ
. ..</w>
ó ng</w>
ướ ng</w>
nh ân_
e n</w>
v ị</w>
ấ p</w>
h iệ
i n</w>
ặ p</w>
ạ y</w>
k ỳ</w>
đ ứng</w>
ậ t_
nh ận</w>
m ấy</w>
h ạ</w>
nh à
t ình_
đ iều</w>
c ần</w>
th ể</w>
í nh_
b ộ</w>
cả m_
ng ay</w>
đ ưa</w>
h iện</w>
b u
ấ u</w>
ộ i_
d o
t ử</w>
á nh</w>
s ống</w>
đ ặ
é t</w>
p _t
d ư
h ã
_ n
/ 3</w>
ch ân</w>
qu ân</w>
kh iế
ấ u_
ti n</w>
ó c</w>
iê u</w>
th ứ</w>
l ời</w>
ch uy
ch _
x em</w>
m ọi</w>
l ý
t ì
t ổ
tr ở
h ết</w>
à nh_
â u_
là m_
m a
th anh_
c ứ</w>
b ước</w>
l ư
kh ỏi</w>
t ử
ú t</w>
à o</w>
qu ả
c ao</w>
n ơi</w>
qu á</w>
b ạn</w>
chiế c</w>
đ iểm</w>
ị ch</w>
th u
tr ung_
b ao_
ê u_
m á
á m</w>
s ư</w>
th a
h iểu</w>
h àng</w>
ng_ l
c a
g ặp</w>
th ực_
ả y</w>
ướ c_
ố c_
ng ười_
ng_ t
phá p</w>
ạ t</w>
à i_
th i</w>
ấ n</w>
th ời_
l iền</w>
tr í</w>
nh ư
d ùng</w>
iề u_
qu an</w>
ng ồi</w>
ô n_
chú ng</w>
ph òng</w>
ch ủ</w>
th ường</w>
th ủ
v u
ch ạy</w>
co n_
tì m</w>
ả nh</w>
th ành_
đá nh</w>
đầ u_
ụ c_
ả ng</w>
ườ ng_
ỉ nh</w>
đ ất</w>
x e</w>
không_ thể</w>
d ân_
ngh iệ
th êm</w>
iể n</w>
c àng</w>
khiế n</w>
ki a</w>
g h
phá t_
ả o</w>
ú i</w>
m ẹ</w>
gi ới</w>
l a
th ôi</w>
ti ên</w>
th o
á o</w>
ph ong</w>
ợ i</w>
h ô
nh ỏ</w>
gi a_
đ úng</w>
ự a</w>
giá o_
kh í</w>
đ ồng</w>
gi an</w>
đạ o</w>
ầ u_
th ị
tiế p</w>
h ọc_
qu ay</w>
ã i</w>
v ô_
gi á</w>
d o</w>
ngh ĩ
dư ới</w>
ph ương</w>
_ c
g ần</w>
ặ c</w>
b é</w>
l i
v õ
qu a
y êu</w>
v i</w>
tr ời</w>
ch á
ch ị
ph ả
ắ p</w>
ắ t_
ch ỗ</w>
bá o</w>
ă m</w>
t ất_
sá ng</w>
ạ ch</w>
x in</w>
mạ nh</w>
uy ền</w>
e r
thá ng</w>
ằ m</w>
_ b
ti ền</w>
c ứ
ó a</w>
th ần</w>
r õ</w>
ng_ đ
t ừng</w>
a n
c uộc</w>
ể n</w>
ấ m</w>
gi ữa</w>
a i_
ch ủ
qu ả</w>
s ư
l ắm</w>
s ợ</w>
v ương</w>
th anh</w>
ch ính_
qu ốc_
ặ ng</w>
trở _
chúng_ tôi</w>
g ái</w>
ẹ p</w>
tr ẻ</w>
ạ c</w>
đ ệ</w>
đ ại</w>
á ch</w>
th ông_
c âu</w>
t ự</w>
s o
m ất</w>
t ăng</w>
ti êu</w>
sá t</w>
i_ h
ch ị</w>
ợ p</w>
ứ a</w>
ầ m_
v ụ</w>
hà nh_
hã y</w>
g ọi</w>
_th ế</w>
hạ ng</w>
á c_
việ t_
í t</w>
_h ội</w>
k é
ẩ m</w>
b ình</w>
qu an_
à u</w>
ĩ nh</w>
b ình_
c ửa</w>
n ữ</w>
đ ời</w>
0 0</w>
m ôn</w>
ậ p_
d iễ
v ẻ</w>
ho a</w>
kh ấu_
ch ứ</w>
thế_ nào</w>
d ù</w>
ồ n</w>
x a</w>
gi ú
m ỗi</w>
xu ất_
r a_
chú t</w>
é p</w>
k ẻ</w>
b ài</w>
c ao_
b ỏ</w>
gi ọng</w>
c ậu</w>
o _th
c a</w>
th ủ</w>
ố ng_
ă ng_
th iê
ậ n_
huy nh</w>
l âu</w>
th ân</w>
ph ụ
bả n</w>
đ êm</w>
ch u
c ử
ch i
c uố
đ iều_
bả o_
á i_
s ĩ</w>
độ t_
d ám</w>
giả i_
m ang</w>
nh ất_
dân_ trí</w>
a r
c ổ
a ng_
s ơn</w>
việt_ nam</w>
tu ổi</w>
t ế</w>
tử _l
thiế u_l
x e
ú c_
và ng</w>
ph ục</w>
iế t</w>
c ây</w>
m inh</w>
ù a</w>
tất_ cả</w>
t ính</w>
v ật</w>
ch i</w>
đ ộ</w>
đ ủ</w>
l ực</w>
c ầu</w>
t âm</w>
x ong</w>
uyệ t</w>
t ốt</w>
iệ ng</w>
gi ữ</w>
nghiệ p</w>
d ân</w>
h ình_
b ắt_
ề n_
ấ n_
đ ẹp</w>
kh ó</w>
ng ờ</w>
m ỹ</w>
ó n</w>
ị p</w>
s ả
s ức_
b ộ
th ương</w>
d ương</w>
nh ớ</w>
gi ết</w>
ph ái</w>
b ây_
o àn</w>
th ân_
đ iệ
t ỷ</w>
p _l
v i
sa ng</w>
bây_ giờ</w>
sá ch</w>
cứ u</w>
th iên_
chị u</w>
tiể u</w>
d ài</w>
_v ậy</w>
à y_
người_ ta</w>
k ết_
thời_ gian</w>
_ r
ừ a_
v ô
á ng</w>
đối_ với</w>
s ức</w>
ô i_
đồ ng_
giá o</w>
l ệnh</w>
ẩ n</w>
đ ôi</w>
b àn</w>
l e
ch ắc</w>
ti êu_
gi a
_ x
ph o
ph ần</w>
th ư</w>
ho ặc</w>
b ốn</w>
khấu_ trọng</w>
b ỗ
nó i_
h ình</w>
_ nh
đá ng</w>
_ nhiên</w>
qu ốc</w>
th í
n e
gi ác</w>
s inh_
d ương_
giú p</w>
ch í</w>
kh ó
thiếu_l ong</w>
đặ t</w>
n ổi</w>
tử_l ăng</w>
khá ch</w>
tu y</w>
cảm_ thấy</w>
l ý</w>
t ư
th ích</w>
_ ng
mạ ng</w>
nă ng</w>
t ình</w>
u ật</w>
b iệt</w>
ĩ nh_
n_ tr
biế n</w>
đ ổi</w>
b ay</w>
đ ình</w>
ậ p_t
ý _
đ ấy</w>
m iệng</w>
tạ o</w>
nguy ễ
ứ ng_
iệ m</w>
công_ t
th ầ
c ạ
th ể
gi ả</w>
k ể</w>
ng ựa</w>
bá n</w>
t âm_
việ n</w>
n ằm</w>
thế_ giới</w>
t ỉnh</w>
chá u</w>
/ 2</w>
kh uy
lư u_
ph ủ</w>
ạ ng</w>
tr iệu</w>
b ệnh</w>
tr ương_
độ c</w>
tiế n</w>
ệ nh_
l iên_
v ọng</w>
r o
mặ t_
s ử
ượ ng_
n_t oàn</w>
tr ận</w>
thá i_
nh i</w>
n úi</w>
ượ t</w>
m ười</w>
ạ m</w>
quy ết</w>
đ ừng</w>
ph i</w>
ph ương_
đạ o_
ch ung</w>
nguy ên</w>
t í
cả nh</w>
đ ọc</w>
u y</w>
d iện</w>
n ương</w>
d ự
b ở
đ em</w>
s ắc</w>
i n
quy ền</w>
ph ố</w>
co i</w>
d ậy</w>
c ầm</w>
l ập_t
đá nh_
qu ân_
_s inh</w>
è n</w>
lo ại</w>
b à
lu ôn</w>
t ài_
tr ưởng</w>
lập_t ức</w>
b ắt</w>
tr ả
h ồi</w>
ặ t</w>
d ụng</w>
v ăn_
k iện</w>
đ ông</w>
mu a</w>
t ư</w>
t ự
gi ống</w>
ạ i_
k ỳ
đ á</w>
đ àn_
uộ c_
m ã
ù i</w>
l ộ</w>
k êu</w>
h ơi</w>
d ẫn</w>
tiểu_ bảo</w>
d ục</w>
ch a</w>
c ấp</w>
tr ình</w>
h a
_ kh
l ượng</w>
đầ y</w>
l ưng</w>
t ự_
h ướng</w>
đ u
t e
7 /3</w>
a_ h
iể m_
b ố</w>
á y</w>
thiế u</w>
hà _n
_ nhân</w>
ng ày_
kiế n</w>
ă n_h
ngh iê
n ội_
bỗ ng</w>
ợ t</w>
qu anh</w>
và i</w>
kh ả
ch ưởng</w>
thiế u_
ù ng_
t ừ
hà_n ội</w>
võ _
ti nh_
quy ết_
ổ i_
th uố
th ả
s ự_
ẩ n_
chuy ển</w>
201 2</w>
ấ m_
ạ c_
mu ội</w>
đị a_
r ượ
/ 1
v ì
uố t</w>
cạ nh</w>
ă m_
gi ải</w>
_t ử</w>
nhà _
đột_ nhiên</w>
l ạ</w>
d ung</w>
tha m_
ẩ y</w>
th u</w>
tr ông</w>
gi à</w>
kh u
bá o_
m ày</w>
ơ n_
uy _
r i
ch iêu</w>
ò a</w>
m ở</w>
nghĩ a</w>
g ây</w>
ọ t</w>
th ương_
n ước_
ị ch
tr ang</w>
d ự</w>
r a
c u
tạ i_
ch ỉ
v ốn</w>
c ư
v ũ
đo àn</w>
bao_ giờ</w>
đị ch</w>
ng ủ</w>
mặ c</w>
uy ên</w>
_ ý</w>
đ ứa</w>
phá t</w>
qu á
đ à
nh anh</w>
t o</w>
ớ m</w>
â ng</w>
kho ảng</w>
ấ n_đ
đặ c_
ậ m_
hô m_
1 9
rượ u</w>
ẩ u</w>
ấ p_
tr a</w>
tiế p_t
đ ao</w>
đ iện</w>
chú a</w>
vô_ cùng</w>
giả m</w>
e n
ng ọc_
ph u_
m o
s ai</w>
đ ồ</w>
th uyền</w>
iê u_
ph ẩm</w>
ch ờ</w>
a_ s
th ời</w>
má u</w>
uyệ t_
đ a
học_ sinh</w>
hô m</w>
gia_ đình</w>
th ẳng</w>
độ i</w>
ã n</w>
ph á</w>
b ó
ho àng</w>
c ổ</w>
hoà ng_
_th ành</w>
v ội</w>
tiếp_t ục</w>
b ang</w>
ó m</w>
ki m_
x o
qu y_
tr ăm</w>
ã _hội</w>
th ức</w>
1 0</w>
ậ m</w>
ử i</w>
làm_ sao</w>
i_ cùng</w>
do anh</w>
ti ên_
_d ụng</w>
như _vậy</w>
ố t_
_l ời</w>
tr ái</w>
ph ó</w>
ạ t_
bắt_ đầu</w>
qu ang</w>
lớ p</w>
cuố i_cùng</w>
ộ ng</w>
tr ọ
x ảy</w>
h u
_tr ường</w>
k inh</w>
v iết</w>
_ g
v u</w>
kh ỏ
c ô_
ô _t
na m_
iê ng</w>
đ en</w>
ch ừng</w>
tr iển</w>
ph u</w>
đầu_ tiên</w>
th ượng_
giáo_ dục</w>
l a</w>
b í
ho a_
m ức</w>
v ân</w>
l ợ
y êu_
iế u</w>
t ương_
m àu</w>
trả _lời</w>
ké o</w>
gi ao_
l iê
tại_ sao</w>
i_ l
v ương_
nh ạc</w>
ch o_
đ ả
ướ ng_
tr ước_
tr ị</w>
ó i</w>
tr ung</w>
th u_
ch ú</w>
phu_ nhân</w>
0 00</w>
ò ng_
đo ạn</w>
th ất_
ch ữ</w>
ch ế</w>
như _thế</w>
tr uy
chiế n</w>
gi ận</w>
a _th
ũ i</w>
sử _dụng</w>
7 8
m inh_
n ắm</w>
í n</w>
t ướng</w>
g ật</w>
t ối</w>
l ê
n_th ân</w>
b ức</w>
iệ t_
vu i_
ó t</w>
ch _th
ấn_đ ề</w>
v ấn_đề</w>
é n</w>
k ế</w>
th ầm</w>
b iển</w>
việ t</w>
c ố
c uộc_
v òng</w>
h ùng</w>
võ_ công</w>
tr ai</w>
x ã_hội</w>
n iên</w>
hiệ n_
tha y_
tr ắng</w>
dự ng</w>
đá m</w>
xu ất</w>
h ề</w>
sư _ph
ch âu</w>
n_t âm</w>
c ơ</w>
l ập</w>
thiế t_
hoà n_toàn</w>
b óng</w>
n ửa</w>
s ong</w>
diễ n</w>
d ịch</w>
t uyệt_
n ỗi</w>
kh ổ</w>
c ố</w>
ẩ m_
ch ân_
ch iều</w>
to àn</w>
b a
đ ệ
c ung</w>
một_ cách</w>
ể n_
th ần_
ngh ị</w>
th ở
cả m</w>
nhân_ ái</w>
gi ó</w>
_ch ức</w>
ỉ m</w>
ch ọn</w>
h iệu</w>
ộ c</w>
thuố c</w>
ch ất</w>
cả nh_
ta y_
h ọ
to àn_
l ửa</w>
đ ức</w>
ỡ ng</w>
ế n_
tr ánh</w>
s ớm</w>
đạ t</w>
m a_
. _
l o_
một_ số</w>
nh ảy</w>
h ội</w>
ế u_
d ự_
c ung_
đ ảo</w>
ch ơi</w>
b inh</w>
ớ t</w>
v ực</w>
một_ chút</w>
t ưởng</w>
s e
h ầu_
ẳ ng_
đa u_
công_t y</w>
khỏ e</w>
x anh</w>
bạ ch</w>
ng_h ồ</w>
_h uy
n ữ
nh_ l
nh iêu</w>
ồ m</w>
_l ẽ</w>
n i
h ẳ
ồ n_
l o</w>
m ời</w>
p _th
n o
r e
r u
độ c_
m ươi</w>
ph i_
ớ i_
ch i_
v ệ</w>
tổ _chức</w>
nh ờ</w>
h ành</w>
s u
n_t ử</w>
ph ân_
x ét</w>
ả i_
h ội_
bở i</w>
v ai</w>
201 1</w>
bạ c</w>
do anh_
hôm_ nay</w>
h ợ
cơ _
kh ẽ</w>
t ấm</w>
ấ y_
đặc_ biệt</w>
h ại</w>
iể u_
tu ần</w>
m ai</w>
ạ o</w>
1 0
b ắc</w>
m a</w>
b ổ
b ệnh_
cá o</w>
trở _thành</w>
ch ợt</w>
h ồng</w>
b o
ch ặt</w>
t ập</w>
cá nh</w>
d a</w>
ph í</w>
ph óng</w>
nguy ên_
ki m</w>
s ông</w>
n_h ạ</w>
tr uyền</w>
th ằng</w>
ho ạt_
hẳ n</w>
quyết_ định</w>
m i
trở_ lại</w>
m ũi</w>
bu ổi</w>
n ổi_
d ừng</w>
h ải</w>
t ức_
t ài</w>
qu ỷ</w>
m ừng</w>
ph ép</w>
tho át</w>
ng ạc_
ứ t</w>
th uộc</w>
k ết</w>
sả n_
v ợ</w>
h án</w>
ế p</w>
h ết_
d anh_
g ửi</w>
k ý</w>
t ác_
ữ u</w>
r iêng</w>
thiế t</w>
nguyễ n_
s i
v ùng</w>
khả _
l an</w>
y ên</w>
s ơ
ngạc_ nhiên</w>
ô m</w>
m ỉm</w>
gi ao</w>
s o</w>
đ ấu</w>
xuất_ hiện</w>
thí _sinh</w>
iệ u_
b ụng</w>
r ơi</w>
é m</w>
è o</w>
à m</w>
v ừa_
hồ _x
s uốt</w>
qu ần</w>
thực_ hiện</w>
bao_ nhiêu</w>
tr ang_
ng ôi</w>
n_t ay</w>
ta m_
m ục_
kh á</w>
ng ân_
đồ ng_th
n_h ệ</w>
ô_t ô</w>
á o_
_n ữ</w>
_v ẻ</w>
u s
v i_
_m áy</w>
đại_ học</w>
t ôn_
k ỵ</w>
ng u
ng ài</w>
ẹ n</w>
th ái</w>
tuy _nhiên</w>
h uyện</w>
ch âu_
giá m_
k iểm_
ng ọn</w>
ả nh_
kh u</w>
r ời</w>
d anh</w>
i m</w>
con_ người</w>
ti ê
ặ n</w>
th ắng</w>
ắ ng_
thở _d
phả n_
s ở</w>
tình_ yêu</w>
tr ị
phát_ triển</w>
j o
s ắp</w>
sư_ph ụ</w>
g a
ng ọc</w>
hoạt_ động</w>
l át</w>
l inh</w>
đ ỡ</w>
_huy nh</w>
có _lẽ</w>
ph úc</w>
b ắn</w>
t ính_
b ối</w>
v ang</w>
t ập_
ng ừng</w>
thở_d ài</w>
quốc_ gia</w>
ca o_th
đ ông_
k ịp</w>
h ò
sá u</w>
ch ồng</w>
th ạch</w>
b ố
thay_ đổi</w>
tr ả</w>
iể n_
kinh_ doanh</w>
m ở
ch ăng</w>
ầ y</w>
m à
b ị
d i_
nghiệ m</w>
đầu_ tư</w>
kh ắc</w>
đu ổi</w>
m ã</w>
h ỏ
l âm</w>
r õ
e _
th ế
n ặng</w>
nh óm</w>
ư u</w>
m ẫ
sức_ khỏe</w>
y ếu</w>
công_ tử</w>
rõ _r
h ợp</w>
t ường</w>
ng ã</w>
ch u_
kh óc</w>
làm_ việc</w>
tiểu_ đệ</w>
t ích</w>
tr anh</w>
c ộ
ti ền_
n_th o
b ật</w>
sự_ kiện</w>
d ần</w>
vu i</w>
tr ò</w>
cơ _hội</w>
ó a_
vu a</w>
qu ên</w>
qu án</w>
ư u_
mộ c</w>
to án</w>
c âu_
kh ắp</w>
t óc</w>
th ú
ệ _th
d ường_
ti nh</w>
t ây</w>
m ối</w>
ả n</w>
v ăn_h
ng ân</w>
á nh_
b èn</w>
m ùa</w>
th ử</w>
đệ _tử</w>
s âu</w>
m e
r út</w>
k ích</w>
_s ĩ</w>
cô_ nương</w>
d ạy</w>
đàn_ ông</w>
lu ận</w>
dường_ như</w>
lã nh_
r ừng</w>
ch ứng_
quan_ trọng</w>
u ận</w>
phá p_l
t ượng</w>
nói_ chuyện</w>
tr ượng</w>
thiê n_hạ</w>
c ầu_
lạ nh</w>
201 9</w>
sả n</w>
ti m</w>
đ ỏ</w>
l ắc_
ạ m_
nhất_ định</w>
tu ng</w>
c ương</w>
hiệ p</w>
l ong</w>
ã y</w>
x ây_
tr ườ
l ên_
b a_
x ung_
t ai</w>
l inh_
6 /3</w>
ch ống</w>
ạ n_
quả ng_
b an</w>
ha y_
ỡ i</w>
khả_ năng</w>
độ ng_
n u
l ệ</w>
tr ầm_
y _th
tr ở</w>
b ờ</w>
cảm_ giác</w>
kh ai</w>
tr ạng</w>
h y_
nh ập</w>
v ị
t ấn_
b ại</w>
qu ái</w>
ằ ng_
d ễ</w>
o r
m ãi</w>
thị _trường</w>
qu át</w>
rõ_r àng</w>
ch ục</w>
ngo ại_
b ao</w>
ng ang</w>
ậ u_
đ ường_
xây_ dựng</w>
_tr í</w>
a l
l ao</w>
m i</w>
ch ức</w>
trung_ quốc</w>
th úc</w>
k ỷ
é o</w>
hồ n</w>
má y_
đ ào</w>
d u_
b ác</w>
ngh i</w>
đ ành</w>
h ưởng</w>
thầ y</w>
đ ơn_
thị t</w>
c ơn</w>
ch ất_
lắc_ đầu</w>
th ấp</w>
ng ực</w>
_d o</w>
h ư
ộ p</w>
nghiê m_
n e</w>
ph ạm</w>
đồng_th ời</w>
s uy_
d ị
e l
nh ẹ</w>
c ực_
k ính</w>
ph út</w>
sức_ mạnh</w>
bả y</w>
t ám</w>
ẻ _
má y</w>
ỉ nh_
n_đ ọc</w>
hồ_x ung_
ng_ r
m ong</w>
phát_ hiện</w>
th ực</w>
chu ẩn_
m au</w>
ng ành</w>
đ ón</w>
tiế t</w>
m ụ</w>
h óa</w>
đối_ phương</w>
th ở</w>
l ễ</w>
b ữa</w>
_l ệ</w>
bạ n_đọc</w>
đ óng</w>
d òng</w>
c ũ</w>
th p
tr ần_
đề _
c ười_
thể _th
20 0
d ạ</w>
th ư
v ạn</w>
t ĩnh</w>
gi ang</w>
cuố i</w>
ng a</w>
tiên_ sinh</w>
ph ụ</w>
qu ý</w>
lã o_
_th ương</w>
to à
t àu</w>
tr ái_
thành_ phố</w>
lạ nh_l
h i
ệ t</w>
t ội</w>
à o_
pháp_l uật</w>
pho ng_
ho ạch</w>
lư u</w>
b ậ
có _vẻ</w>
l iệu</w>
t iệ
bá t</w>
ch ắn</w>
tấn_ công</w>
thể_th ao</w>
truy ề
l âm_
vô_ kỵ</w>
xu ân</w>
bà n_tay</w>
s ắc_
v ậ
c uốn</w>
kho a_
t ôn</w>
b i
ch ắc_
thông_ tin</w>
kh u_
b ăng</w>
h iế
n_tho ại</w>
tham_ gia</w>
ó ng_
tuy ết</w>
l ợi</w>
2 7
ngh iên_
lý _
tiế p_
v ượt</w>
kh ổ
_ ra</w>
b ỏ
_m ật</w>
d u</w>
đại_ ca</w>
d ễ
ò i</w>
lã nh</w>
đ h</w>
c ăn</w>
tr úng</w>
t ạ</w>
ụ i</w>
gi ật_
h ồ</w>
đo án</w>
lạ c_
đ ợi</w>
ph ạm_
hết_ sức</w>
từ _t
n_h ọc</w>
th ật_
chuy ên_
_l ực</w>
đ ẩy</w>
2 0</w>
nó ng</w>
t uyệt</w>
n ạn</w>
h àn</w>
ch ăm_
_ mặt</w>
chuẩn_ bị</w>
kết_ quả</w>
nghĩ a_
xe _máy</w>
0 0
ph ù
kh í
tổ ng_
_l ý</w>
con_ gái</w>
khó _kh
khó_kh ăn</w>
n_h ồi</w>
x ử
ng àn</w>
đ ổ</w>
mặ c_
g ó
th ị</w>
l ộ
á p</w>
_h ợp</w>
_l âm</w>
s ự
l ương</w>
ch ương_
anh_ em</w>
c úi</w>
t ống_
c ường</w>
một_ mình</w>
v ụ
phụ _nữ</w>
th ưa</w>
đ au</w>
điệ n_tử</w>
chá y</w>
liên_ quan</w>
l ục</w>
tự_ nhiên</w>
bu ồn</w>
y ê
t ướng_
x ác_
th i_
t e</w>
iề n_
nghiên_ cứu</w>
bảo_ vệ</w>
ch_ nhân</w>
h uyệt</w>
công_ việc</w>
m ục</w>
dự_ án</w>
h ỗ
t ỏ</w>
x uyên</w>
ĩnh_ vu</w>
th ừa_
5 0</w>
n a</w>
đại_ sư</w>
k ế_
ượ c_
k ỹ</w>
chương_ trình</w>
y ến</w>
v ũ</w>
bá c_
t ối_
l á</w>
v ăn</w>
ầ n_th
nh ị</w>
gia ng_hồ</w>
thủ y_
xe m_
trườ ng_h
cá t</w>
văn_h óa</w>
hà ng_
qua n_hệ</w>
qu en</w>
kh ẩu</w>
c ực</w>
ấ c</w>
suy_ nghĩ</w>
hành_ động</w>
n_l ý</w>
tr úc</w>
lu i</w>
tr iệu_
th ứ
_th ật</w>
ph àm</w>
h ương</w>
l ắng</w>
v ội_
từ_t ừ</w>
sinh_ viên</w>
ph ục_
d ụ</w>
k iều</w>
gi ơ</w>
ngh ệ</w>
nhân_ vật</w>
chủ _
ng ũ</w>
tr á
p a
ư a_
nh ị
h ải_
ngh i_
n_t ại</w>
ch ung_
đại_ nhân</w>
b an_
đ ề</w>
ồ ng_
l uyện</w>
m ay</w>
b iểu_
huy nh_
chi a</w>
uố i</w>
tiê u_l
hiệ u_
ngân_ hàng</w>
m ón</w>
ch ẳ
b inh_
ớ n</w>
khá ch
x ã</w>
võ _lâm</w>
iê m</w>
i r
gi ường</w>
th ay</w>
ụ p</w>
l ặng</w>
t ú</w>
điệ n_thoại</w>
iề m</w>
ch ứng</w>
x ưa</w>
ké m</w>
t ần</w>
cao_th ủ</w>
xu ân_
n ét</w>
sá ng_
c ốc</w>
_s ở</w>
nh ằm</w>
th ì
m ỹ
l e</w>
x ác</w>
d ành</w>
_ sao</w>
v õ</w>
th ậm_
n ếu_
i m_
bậ c</w>
phả n_hồi</w>
trị nh_
yêu_ cầu</w>
ng_l ẽ</w>
t ù
quốc_ tế</w>
gh ế</w>
kh ở
chiế m</w>
chắc_ chắn</w>
nh iệm</w>
x ông</w>
m á</w>
t ố</w>
h ận</w>
l ôi</w>
t à
trở_ về</w>
c ặp</w>
ờ _
ủ y</w>
/ 0
kinh_ tế</w>
m ưa</w>
t ú
nh ắc</w>
l ục_
ch ùa</w>
huynh_ đệ</w>
thậm_ chí</w>
lạnh_l ùng</w>
c a_
đ ương_
đ âm</w>
v ung</w>
è m</w>
s ẵ
đ ăng</w>
t iện</w>
e o_
th ăm</w>
trở_ nên</w>
e r</w>
r ộng</w>
d a_
ngu ồn</w>
giật_ mình</w>
đị a</w>
n d</w>
hiện_ nay</w>
trọ ng_
sa u_
giáo_ chủ</w>
kh ai_
k ỹ
x a_
tr anh_
t ả</w>
m ê</w>
đàn_ bà</w>
p i
d ầu</w>
lên_ tiếng</w>
ph im</w>
n_ ng
d ao</w>
bả n_thân</w>
ã o</w>
õ i</w>
b uộc</w>
th ú</w>
chủ _t
lo_ lắng</w>
t t
kh ủ
_ nào</w>
chỉ _
th ơ</w>
x i
h à</w>
ướ t</w>
lo ạn</w>
th uy
hạ _
thu ật</w>
c ướ
g ồm</w>
đ a_
doanh_ nghiệp</w>
ẫ m</w>
iệ p</w>
ắ m_
gi ấy</w>
_h àng</w>
d a
tr ốn</w>
ầ ng</w>
tiêu_l ĩnh_vu</w>
n_ bộ</w>
h ậu</w>
_s ư</w>
lợ i_
chiế u</w>
nh ịp</w>
ng_h ộ</w>
hã i</w>
c ử</w>
tr iều_
v ợ
tr ực_
đo ạt</w>
khu_ vực</w>
cuộc_ sống</w>
bác_ sĩ</w>
c ụ</w>
biế t_
cơ_ quan</w>
ủ ng_hộ</w>
tuy ển_
th ông</w>
đ ài</w>
l ối</w>
gi ỏi</w>
quả n_lý</w>
„ _
h út</w>
thành_ công</w>
b iểu</w>
. 000</w>
l ịch
tr ừ</w>
mẫ u</w>
c ục</w>
s ố
tiế t_
/ 2012</w>
g o
ch ậm</w>
d ịch
iệ n_
ườ n</w>
ch ảy</w>
c ăn_
câu_ chuyện</w>
_s ố</w>
l ao_
v ân_
nh ật</w>
m ùi</w>
y ên_
cơ m</w>
t ống</w>
nh ẹ
b á</w>
đị nh_
nh anh_
h ệ_th
bạ t_
3 0</w>
đ ỉnh</w>
huy ền_
t ăng_
mạ ch</w>
ú a</w>
hoà n_
r uộ
c ắt</w>
ngh ỉ</w>
đ t</w>
b ắc_
đà o_
chủ_t ịch</w>
ho àn</w>
qua n_tâm</w>
s iêu</w>
hệ_th ống</w>
c m</w>
cử a_
ch ém</w>
h ậu_
1 5
bí _mật</w>
c á</w>
o án</w>
đ ập</w>
tuy ển</w>
b ầu_
tr ình_
tr ẻ_
ầ n_l
n_h ành</w>
ch ớ
t ây_
c e
kinh_ hãi</w>
v a
t òa</w>
tình_ trạng</w>
ồ i_
ti ề
tr ầm</w>
bở i_
đ ối</w>
ờ _đ
o ạn</w>
lãnh_ đạo</w>
n_th ành</w>
m ất_
tình_ hình</w>
v ận</w>
kế_ hoạch</w>
nh ã</w>
h át</w>
t er
ẫ y</w>
m ôi</w>
khoa_ học</w>
hy_ vọng</w>
huy ết</w>
chính_ phủ</w>
n_ b
_h iểm</w>
v ận_
kh ẳng_
quy_ định</w>
ẫ n_
ộ t</w>
đ ô
s ắt</w>
n âng</w>
v ây</w>
kho a</w>
bất_ cứ</w>
ch o
l úc_
l ùi</w>
ch ì
ti n_t
d ặ
biế n_
ả o_
dư ỡng</w>
_s ử</w>
lo ng_
hồ ng_
t ận</w>
sản_ phẩm</w>
ch u</w>
đ ăng_
v ă
ng ại</w>
d e
bình_ thường</w>
x ương</w>
l y</w>
kh úc</w>
tiế c</w>
thiếu_ nữ</w>
/1 2</w>
3 0
tr iển_
t an</w>
qu ần_
đ èn</w>
cho_ nên</w>
t ặng</w>
k í
k a
đ ơn</w>
tì m_
thực_ sự</w>
m ắc</w>
l a_
c ất_
nếu_ như</w>
n_ s
t ết</w>
s ở
đ ốc</w>
nu ôi</w>
ch ữa</w>
tinh_ thần</w>
ỷ _lệ</w>
chú _ý</w>
t ốt_
uộ n</w>
ma y_
l iên</w>
nh ỏ
bất_ ngờ</w>
t ậ
n ội</w>
a n_toàn</w>
ánh_ sáng</w>
mộ _d
th ường_
g ỗ</w>
báo_ điện_tử</w>
l ẫn</w>
trường_h ợp</w>
v e</w>
d i
t ổ</w>
1 2</w>
h ôn</w>
l ai</w>
ù m</w>
lúc_ nào</w>
ng ạc</w>
hạ nh_
thu a</w>
đả m_
x ử</w>
mà _
cổ _ph
khuy ế
c ô
_tr ưởng</w>
_t ình</w>
ảnh_ hưởng</w>
th ạ
iê m_
tuy ên_
tổ ng_th
s h</w>
r ăng</w>
m ái</w>
ý_ kiến</w>
n inh</w>
ổ ng</w>
khuyế n_học</w>
ng ầm</w>
đ ể
tu ần_
x ếp</w>
d ây</w>
n iềm</w>
í t_
d uy_
t úi</w>
gia o_th
_t ướng</w>
xung_ quanh</w>
l ang</w>
t ố
chuy ến</w>
nguy _hiểm</w>
h óa_
hay_ sao</w>
ch óng</w>
vì _thế</w>
á m_
truyề n_th
tr ường_
tiểu_ phàm</w>
vì _vậy</w>
n ổ</w>
1 6
d ĩ
đ ất_
5 /3</w>
d o_
ữ u_
gi ới_
n_l ực</w>
ta m</w>
g óc</w>
ng ón</w>
bạ ch
t ỏ
khẳng_ định</w>
tr ại</w>
l àng</w>
s a</w>
nhẹ _nh
th ống_
t ức</w>
chi a_s
tr ao</w>
trung_ tâm</w>
chia_s ẻ</w>
cá nh_
sá t_
ạ p</w>
ngo ài_
ắ p_
k ình</w>
sau_ này</w>
bả n_
vội_ vàng</w>
1 2
ưở ng_
tr ải</w>
chiế n_
c ỏ</w>
điều_ kiện</w>
us d</w>
_đ ệ</w>
do n</w>
đ àn</w>
ch ụp</w>
mu a_
khu ôn_
1 1</w>
kho ản</w>
huy ền</w>
_d ân</w>
t ao</w>
n_đ àn</w>
_ch ồng</w>
cơ _thể</w>
công_t ác</w>
m ật</w>
d ựa</w>
lạ c</w>
lu ồng</w>
thp t</w>
tr òn</w>
iễ n_
th iện</w>
d ị</w>
qu ách</w>
bị _thương</w>
cố _g
tiền_ bối</w>
ừ ng_
a_s ổ</w>
tiế ng_
ú t_
tr ách</w>
lý _t
c ất</w>
í u</w>
kiểm_ tra</w>
m iền</w>
toàn_ bộ</w>
cố_g ắng</w>
lý _th
c à
iế ng</w>
gi ờ_
ứ t_
đối_ phó</w>
v ô</w>
nước_ mắt</w>
p o
nă m_
tiểu_ thư</w>
ho a
diễ n_đàn</w>
ti ễ
t ấm_
giám_ đốc</w>
h ung_
ch a_
t ùng</w>
bu ồn_
n ụ</w>
k ỷ</w>
ngo ại</w>
c ụ
_tr ợ</w>
l ệnh_
ỏ ng</w>
th ất</w>
n i</w>
h iểm</w>
x inh_
ự ng</w>
e t
lớ n_
ượ n</w>
vợ _chồng</w>
kh ấu</w>
ọ a</w>
duy_ nhất</w>
phả i_
bệnh_ viện</w>
giú p_
m ộ</w>
ta i_
1 5</w>
ả ng_
hạnh_ phúc</w>
t ất</w>
ph òng_
cử a_sổ</w>
tr ộ
quả n</w>
ch ín</w>
t ô
nh iễ
thân_ hình</w>
cư ới</w>
x úc</w>
con_ trai</w>
l iễ
t ờ</w>
cướ p</w>
b ày</w>
tiểu_ tử</w>
ẩ n_th
ngh ề</w>
a m</w>
hình_ ảnh</w>
l ời_
tu i</w>
ng ăn_
ng ó</w>
dễ _d
cả i_
bá ch</w>
nhà_ nước</w>
gi ấu</w>
gi ai_
th ảo</w>
cực_ kỳ</w>
ch ế_
đ ỗ
h ổ</w>
m ỗ</w>
giờ_ đây</w>
a y_
x inh</w>
hình_ như</w>
lo an</w>
xo ay</w>
s ợ
kh óa</w>
tr í
ng_đ ế</w>
ma r
_v ụ</w>
mạ c</w>
n ông_
mặc_ dù</w>
d áng</w>
hoà ng_th
giải_ thích</w>
l ượt</w>
mạ t</w>
vui_ vẻ</w>
ð ại_
n_th ức</w>
ph ân</w>
hỗ _trợ</w>
nh ận_
đá p_
tập_ trung</w>
v ật_
mua_ bán</w>
ph ật</w>
_th uật</w>
1 4
tuyển_ sinh</w>
họ a</w>
trá ch_
m ơ</w>
nổi_ tiếng</w>
g d
dễ_d àng</w>
2 9
m ề
n_t ượng</w>
giáo_ viên</w>
xử _lý</w>
p _h
trương_ tiểu_phàm</w>
m ô
hợ p_
ma i_
m ê
giải_ quyết</w>
d uy
l ính</w>
b lo
ch ó</w>
đị ch_nhân</w>
v ỡ</w>
anh_ hùng</w>
t ươi</w>
công_ chúa</w>
t ộc</w>
mà_ còn</w>
đ i_
c ờ</w>
đ ắc_
ngh ệ
th iệu</w>
mạ nh_
cá n_bộ</w>
i_h ại</w>
s ân</w>
chị u_
_th ầm</w>
y ếu_
qu e
tức_ giận</w>
ng ụ
ch e
vừa_ rồi</w>
th iên</w>
thả m_
để _ý</w>
_tr ình</w>
nguyên_ nhân</w>
l ặ
_v ị</w>
không_ khí</w>
đ ằng</w>
n ền</w>
_v ăn_h
tổng_th ống</w>
ng ược</w>
nh é</w>
la m</w>
lý _do</w>
_ con</w>
thiế p</w>
ch ớ</w>
2 6
th a</w>
lưu_ dụ</w>
h òa</w>
ra_ tay</w>
k iểu</w>
b iên</w>
dĩ _nhiên</w>
ch ào</w>
bu ông</w>
đ ốt</w>
/ 1</w>
a g
ch ạm</w>
l ương_
tu ấn</w>
lư ỡi</w>
ph ổ
ụ ng_
t ựa</w>
r ộ
lao_ động</w>
ủ i</w>
ng ư
t ấn</w>
iễ n</w>
b ào</w>
b í</w>
d ữ</w>
k iệt</w>
m ảnh</w>
iế c</w>
âu_ dương_
v ọt</w>
đăng_ ký</w>
s ứ</w>
hồ i_
1 8
ch e</w>
đương_ nhiên</w>
quần_ áo</w>
bất_ giác</w>
điều_ tra</w>
s úng</w>
n ợ</w>
b ò</w>
ch ương</w>
cộ ng_
ụ t</w>
o n</w>
nh ạt</w>
t ái_
cánh_ tay</w>
ch _t
b e
iệ m_
thá nh</w>
pho ng_h
vị _trí</w>
_h ạ</w>
hiệ n_tại</w>
á ng_
c ây_
nh ật_
đ ô</w>
b ẩm</w>
ú ng_
n ấy</w>
đề_ nghị</w>
qu a_
e ng
hạ nh</w>
b iên_
ả y_
tuy ến</w>
địa_ phương</w>
th ẩm_
đánh_ giá</w>
d ấu</w>
g ốc</w>
a m_
_tr ị</w>
đầ y_
nhân_ viên</w>
t àn_
cổ ng</w>
im_ lặng</w>
7 9
h ư</w>
x ấu</w>
t ông</w>
sư _huynh</w>
iế n</w>
trách_ nhiệm</w>
g ấp</w>
lu ật_
nhẹ_nh àng</w>
/1 1</w>
dịch _vụ</w>
ỡ ng_
bởi_ vì</w>
ch ấp_
v ĩnh_
tr ần</w>
ho ang_
l ực_
ph iên</w>
th eo_
lịch _sử</w>
t o_
nguy ê
phong_h àn</w>
dặ m</w>
đ ỏ
tr ợ
th ác</w>
quả _nhiên</w>
tr ăng</w>
chiế n_th
th ượ
thực_ tế</w>
ph ụng</w>
s óng</w>
ị u</w>
giao_ diện</w>
ch ấn_
thế_ là</w>
ặ p_
đảm_ bảo</w>
lợ i_hại</w>
blo g</w>
ch ỉnh</w>
thá i_h
m ồ
gi ành</w>
x ứ</w>
th ôn</w>
c ẩn_th
ch ức_
cẩn_th ận</w>
thì _ra</w>
họ p</w>
ru n</w>
s ử</w>
ng uyện</w>
ch én</w>
tấm_ lòng</w>
ị t</w>
trước_ mắt</w>
l iệt</w>
d ạ
khuôn_ mặt</w>
đ ựng</w>
giả n</w>
k ín</w>
a c
tr à</w>
v ẽ</w>
cơ _sở</w>
t ội_
_ph òng</w>
liê n_t
sợ _h
sợ_h ãi</w>
khở i_
so ái</w>
l ỗ</w>
to n</w>
v ết</w>
đ e
lu ật</w>
n_h ình</w>
d ấu_
d õi</w>
t á
s âu_
h a_h
ne w
ch ẳng_
ngh ỉ
thiếu_ niên</w>
g ương_
bạt_ phong_hàn</w>
thủ y</w>
b àn_
thanh_ niên</w>
á p_
qu ý
diễ n_
ch ậm_
sản_ xuất</w>
th ù
giá _trị</w>
th ơ
n_th u</w>
ng âm</w>
gh i</w>
thông_ báo</w>
quan_ sát</w>
v e
là nh</w>
sắc_ mặt</w>
ch a
b ài_
h ứa</w>
iế p</w>
d âng</w>
ự a_
d iệu</w>
c ấm</w>
2 4
thủ _đ
chuy ên</w>
_t ay</w>
đ ảng</w>
th ưởng</w>
giao_th ông</w>
thanh_ vân</w>
nă ng_l
d e</w>
1 1
_ động</w>
đ ích</w>
ph ần_
s iêu_
> ></w>
h ắc</w>
tiế p_th
a p
d iệt</w>
ch ứa</w>
ho á</w>
r ối</w>
d ứt</w>
thuố c_
tạ m</w>
d ạng</w>
m ây</w>
hà o</w>
_c ửa</w>
_s ung</w>
m ệnh</w>
h ô</w>
k ì
toà n_thân</w>
báo_ cáo</w>
t ô</w>
eng li
ã ng</w>
l ỗi</w>
h ộ</w>
o n
ph ạt</w>
ngh ìn</w>
chi m</w>
an d
lo ạt</w>
2 5
đ òi</w>
s ân_
b ấy_
ra_ sao</w>
x ăng</w>
tuần_ báo</w>
m iếng</w>
m ại</w>
thể _nào</w>
cứ u_
ng ắn</w>
thật_ sự</w>
ng ữ</w>
p e
engli sh</w>
2 3
t_ m
k iên_
nghiê m</w>
l ướt</w>
đ ến_
ị nh</w>
ch ốn</w>
v ườn</w>
bó ng_đ
ô n_l
h ai_
nh u_
n ắng</w>
p da_
pda_ mua</w>
s ạch</w>
ngoài_ ra</w>
nhanh_ chóng</w>
_th ực</w>
chuy ển_
xinh_ đẹp</w>
n ở</w>
bổ ng</w>
ặ ng_
u a</w>
t ứ</w>
ho ang</w>
h ằng</w>
lớn_ tiếng</w>
b ốc</w>
2 8
l ã</w>
hà m_
đến_ nỗi</w>
hiệu_ quả</w>
qua n_l
thầ y_
tình_ cảm</w>
ph ận</w>
ngh èo</w>
ph ó
chất_ lượng</w>
m ôi_
ké o_
hiện_ giờ</w>
h ộ
hà i_
cá _nhân</w>
b ù
th ổi</w>
t ớ</w>
t ầm_
nhà _v
thứ _
công_ an</w>
là n</w>
t ầng</w>
g ạt</w>
ắ n_
tho áng</w>
m ưu</w>
c an</w>
u_l ịch</w>
u b
l ũ</w>
s te
nh iệm_
hà o_
đ iền</w>
th âm_
hoà ng_đế</w>
đ inh_
qu ỹ</w>
cu ồng</w>
l ăng</w>
ph a</w>
th uộc_
th ức_
b s</w>
b ằng_
tiễ n</w>
nhân_ dân</w>
bóng_đ á</w>
b út</w>
la ng
ngh ị
mộ_d ung_
m ôn_
vì _sao</w>
s óc</w>
thanh_ âm</w>
t à</w>
không_ thể_nào</w>
trẻ_ em</w>
x úc_
t ác</w>
k ính_
ủ y_
b ụi</w>
nh ập_
n ém</w>
khủ ng_
đ iểm_
n ô</w>
ng uyệt</w>
gi ấc</w>
d u_lịch</w>
hò a_
v ách</w>
cử u</w>
c o</w>
đ ương</w>
th an</w>
m àn</w>
h ả</w>
ựa_ chọn</w>
c ân</w>
tài_ chính</w>
l ựa_chọn</w>
1 7</w>
giúp_ đỡ</w>
co i_
khách _hàng</w>
cha_ mẹ</w>
1 3
v âng</w>
th ù</w>
sa n</w>
du_ học</w>
t p</w>
c ầm_
d ịp</w>
h ữu_
đồng_ ý</w>
công_ nghệ</w>
mặt_ trời</w>
qu ận</w>
chủ _nhân</w>
kinh_ ngạc</w>
d ứt_
_t ưởng</w>
_tr iệu</w>
mo ng_
a_h ồ</w>
- -
c ần_th
qu ái_
thái_h ậu</w>
đơn_ giản</w>
kh en</w>
nguyễ n_th
v n</w>
p u
l âu_
_ch ịu</w>
nh ỉ</w>
ằ n</w>
d ọc</w>
nghi_ ngờ</w>
s uy
ơ i_
sự_ việc</w>
ruộ t</w>
kh ối</w>
mộ ng</w>
v ết_
lang don</w>
d ũng</w>
t p
g ác</w>
đá m_
v ỗ</w>
quá _trình</w>
hạ t</w>
ổ n</w>
l ăn</w>
h ơn_
nó ng_
c anh</w>
ở i</w>
có _mặt</w>
vi_ tiểu_bảo</w>
tr ò
m uộn</w>
t ứ
t ệ</w>
hơn_ nữa</w>
1 7
chấp_ nhận</w>
n ọ</w>
tr ùng</w>
h ương_
giới_ thiệu</w>
cuộc_ đời</w>
cảnh_ sát</w>
th ừa</w>
ă ng_th
kh ắc_
vui_ mừng</w>
tổ ng</w>
đá o</w>
ngày_ càng</w>
é t_
0 ,
qu ê</w>
nhà _sư</w>
i s
c ừ
g an</w>
ẹ o</w>
kéo_ dài</w>
1 3</w>
tiểu_ nhân</w>
ch í
ó i_
tương_ lai</w>
_ khí</w>
gương_ mặt</w>
gi ấy_
i l
l ễ
đ eo</w>
thời_ điểm</w>
gh i_
th ốt</w>
tiế n_
n iệm</w>
t ốn</w>
m iễn_
công_ bố</w>
_h ữu</w>
kh a</w>
ch ặn</w>
201 8</w>
mộ c_
d ược</w>
l iếc</w>
chu ẩn</w>
ho ạt</w>
th ang</w>
bỗ ng_
đ a</w>
v ấn</w>
nh ạc_
cho_ phép</w>
đ à</w>
bạ ch_
su ất</w>
nước_ ngoài</w>
/ 2011</w>
t t</w>
chẳ ng_lẽ</w>
tình_ thế</w>
b ãi</w>
gi ây_
t u_
c ư</w>
đau_ đ
tr eo</w>
c ốt</w>
ch ờ_đ
trộ m</w>
chờ_đ ợi</w>
nguy _c
s ảnh</w>
iế m</w>
a cu
78 7
thể _h
bình_ tĩnh</w>
trương_ vô_kỵ</w>
h ừ</w>
k o
thả n_
h ộp</w>
chính_ thức</w>
h ưng</w>
vậ y_
ng ũ
b ầu</w>
ph ùng_
sự _thật</w>
_ em</w>
ho ảng</w>
đào_ tạo</w>
s ợi</w>
_l ượng</w>
acu te</w>
ng ôn</w>
điều_ trị</w>
thá nh_
gó p_
t án</w>
bả ng</w>
x ây</w>
_ch ủ</w>
vụ _
v ãn</w>
no n</w>
lực_ lượng</w>
thủ _tướng</w>
lời_ nói</w>
jo bs</w>
_th ị</w>
tạ m_
yê n_tâm</w>
iề m_
cả n</w>
liễ u</w>
_đ ồ</w>
g à</w>
t ốc_
thái_ độ</w>
th ỉnh_
chiế n_tr
h ứ
ươ n</w>
nghĩ _thầm</w>
e_ rằng</w>
c li
tay_ trái</w>
l ọt</w>
b iện_
tr ống</w>
ẫ u_
o ng_
ng ắm</w>
v òng_
mạ o</w>
nhà _th
_l ạ</w>
ai_ nấy</w>
tư _m
d ần_
kh ô</w>
đau_đ ớn</w>
thông_ minh</w>
m ù
khó i</w>
bất_ vi</w>
thượng_ quan_l
v inh</w>
triển_ khai</w>
tự _do</w>
nh ậm</w>
ẹ t</w>
v ải</w>
nhị n</w>
h i_
ch _l
s ắp_
quả _thật</w>
l ĩnh_
_tr ì</w>
th èm</w>
trực_ tiếp</w>
th ổ
d ù
h ối_
đ ấu_
tìm_ kiếm</w>
qu à</w>
cung_ cấp</w>
r y</w>
m ượn</w>
tiếp_th eo</w>
môi_ trường</w>
t ầm</w>
phụ ng_
l ẩm_
tin_t ức</w>
hợ p_t
mục_ tiêu</w>
th ượng</w>
độ i_
tiêu_ điểm</w>
tuyên_ bố</w>
n ặng_
2 2
x ấu_
r ửa</w>
chính_ trị</w>
b ọc</w>
p ar
to an</w>
th úc_
b er
chi a_
tiế n_hành</w>
ý_ nghĩ</w>
hò a_th
v ững</w>
_ quyết</w>
k e
thị _tr
nh a</w>
đ ống</w>
l ĩnh</w>
cụ _thể</w>
th ỏ
đơn_ vị</w>
tù y</w>
tr iều</w>
c ộng</w>
thể_h iện</w>
kết_ thúc</w>
n át</w>
tr ưa</w>
b an
ho ài</w>
u_ d
nh iệt</w>
c anh_
độ ng_t
trầm_ ngâm</w>
l ừa</w>
huy ề
nh ậ
ch ợ</w>
tr ôi</w>
t ỉnh_
lý _tr
hà n_
hai_ mươi</w>
phụ _huynh</w>
m ắn</w>
g ặp_
tr ời_
n d
gi àu</w>
quy ề
khá c_
kinh_ nghiệm</w>
kiế n_thức</w>
thu ê</w>
theo_ dõi</w>
h ữu</w>
nhất_ là</w>
ch ết_
c ãi</w>
_th ị
m úa</w>
phương_ pháp</w>
hạ_ mạt</w>
hoàng_th ượng</w>
h á
l ầu</w>
tư _
l ẽ
bệnh_ nhân</w>
s ữa</w>
ng ô_
h ar
tự a_hồ</w>
_th ư</w>
qu ỳ</w>
nh ẫn</w>
sẵ n</w>
f a
1 00</w>
m ệ
1 ,
s ướng</w>
ẻ o</w>
phải_ chăng</w>
nhu_ cầu</w>
_l iệu</w>
thực_ phẩm</w>
th ả</w>
ế m</w>
so n</w>
_h ình</w>
dần_ dần</w>
_ quái</w>
gh ét</w>
đ ôi_
gh ê
chú c</w>
v ươn</w>
mục_ đích</w>
v ùng_
đ ỗ</w>
vết_ thương</w>
cho_ dù</w>
_l uận</w>
ch ấp</w>
ph ất</w>
đạo_ nhân</w>
thân_ thể</w>
ê nh</w>
thiê n_th
may_ mắn</w>
liên_t ục</w>
h ứng</w>
nhiệm_ vụ</w>
n_l ỗi</w>
thuộc_ hạ</w>
ngày_ nay</w>
bó ng_
chớ p</w>
quy ển</w>
ng ẩ
s ốt</w>
h ướng_
nhất_ thời</w>
n ãy</w>
t ân_
máy_ bay</w>
ưở ng_t
sư _đệ</w>
n_đ ại</w>
h ẹn</w>
thư _
v iễn</w>
chiến_tr anh</w>
ng ược_
d ã
kh ích</w>
ố n_
te r</w>
h ét</w>
mồ _h
c i
thượng_quan_l inh</w>
phản_ ứng</w>
s ống_
b ớt</w>
cổ_ph iếu</w>
ph en</w>
h iển_
tướng_ quân</w>
tốt_ nghiệp</w>
d ặn</w>
ng ăn</w>
kh inh</w>
ươ i_
đối_ thủ</w>
bạ n_b
_m ẹ</w>
so át</w>
bạn_b è</w>
phù _hợp</w>
m ẫn</w>
đầy_ đủ</w>
s _
đồ ng_hồ</w>
i l</w>
– _
hoà i_
tr ì</w>
giáo_ sư</w>
ch ư
d ữ
ngày_ mai</w>
so ng_
đạ p</w>
nh iệt_
không_ gian</w>
nội_ lực</w>
mồ_h ôi</w>
ub nd</w>
r ớt</w>
sẵ n_s
sẵn_s àng</w>
lý_th ế
kiế p</w>
học_ tập</w>
lý_tr ọc</w>
d ược_
_ph ận</w>
d ắt</w>
ổ n_
uố c</w>
c ận</w>
h iếu</w>
đ óng_
xi n_lỗi</w>
đau_ khổ</w>
2 1
thực_ ra</w>
g ọ
đ í
hôm_ qua</w>
khấu_ trọng_
một_ vài</w>
đ iên</w>
phả n</w>
tiệ c</w>
thiết_ mộc</w>
ngo n</w>
giai_ đoạn</w>
đạ n</w>
ch ứ
_th ù</w>
h ầu</w>
đại_ diện</w>
đ ãi</w>
m ô</w>
ng_đ ộ</w>
t ân</w>
78 4
nội_ dung</w>
chăm_ sóc</w>
_th ủ</w>
th ước</w>
kỹ _thuật</w>
khuy ên</w>
t h</w>
chị _em</w>
đ ế</w>
bỏ _
ch ữ
b é
thượng_ quan_
thiếu_l âm</w>
r ối_
chính_ sách</w>
thá o</w>
_v ăn_
chiến_th ắng</w>
qua ng_
bộ _trưởng</w>
đ ưa_
thu ận</w>
kỳ _sĩ</w>
thành_ viên</w>
thường_ xuyên</w>
thiết_ kế</w>
qu ỷ_lệ</w>
h iểu_
t ặc</w>
3 2</w>
tuyệt_ đối</w>
qu ế</w>
ha_h ả</w>
từ _ch
hoà n_thành</w>
chăm_ chú</w>
n_đ ồ</w>
m ơ
d ư</w>
tr ầ
d iệ
in ter
m ực</w>
ng ộ</w>
ề _
thả o_
h i</w>
b ội</w>
sa i_
từ_ch ối</w>
n_ r
gi ận_
nh ắm_
ra ve</w>
hiển_ nhiên</w>
ph ú
_v ương</w>
danh_ sách</w>
mặt_ đất</w>
huy ết_
qu y</w>
k ịch</w>
nh ảy_
t ề</w>
ê nh_
t y</w>
đối_ tượng</w>
u_ mày</w>
tất_ nhiên</w>
đ ứt</w>
v ay</w>
ưởng_t ượng</w>
u ổi</w>
ca m_
ú p</w>
d ò</w>
th ọ</w>
biện_ pháp</w>
tốc_ độ</w>
s ửa</w>
đ ùa</w>
r an
cần_th iết</w>
hoà n_h
âm_ thanh</w>
m ới_
t ắt</w>
kỳ _lạ</w>
ú y</w>
t ĩnh_
giao_ dịch</w>
cất_ tiếng</w>
lẩm_ bẩm</w>
b ích</w>
nhiễ m</w>
nguy_c ơ</w>
b ếp</w>
x ích</w>
hành_ vi</w>
ẵ ng</w>
nhà _trường</w>
c ập</w>
c ấp_
v ệ
nghiê ng</w>
bá nh</w>
liên_ tiếp</w>
tuy ết_
phục_ vụ</w>
liê n_hệ</w>
ộ n</w>
xem_ xét</w>
chiế n_đ
_h uy</w>
ng ô
đ ậu</w>
ri a</w>
ph ò
hạ n_
t ê
lý_thế _dân</w>
đ ổ
quy ên</w>
công_ phu</w>
n ối</w>
ử a_
m ừ
n_th ương</w>
đ è
r âu</w>
chì m</w>
e l</w>
chiến_đ ấu</w>
âu_dương_ hải</w>
khá nh</w>
t ươi_
g m
ch iêu_
c ự
_th ân</w>
tử _
ir an</w>
th ụ</w>
tr ương</w>
p_l ực</w>
v ạn_
ng_t ối</w>
_th iên_
bố _mẹ</w>
l ẽ</w>
lĩnh_ vực</w>
đ òn</w>
l ă
_b inh</w>
đ ức_
hoàn_ cảnh</w>
th ẳ
n_đ ường</w>
_ ho
2 5</w>
* _
không_ những</w>
gi ọt</w>
ti a</w>
s a_
đất_ nước</w>
bá nh_
tử _v
ng ưng</w>
hay_ là</w>
ch ấn</w>
ng ay_
thu ế</w>
r ắn</w>
thú y_
4 0</w>
h è</w>
hợp_t ác</w>
xác_ định</w>
tr ao_
thu ậ
môn_ phái</w>
ý_ nghĩa</w>
h cm</w>
o an</w>
b ối_
ưở ng_th
tho ảng</w>
_s ạn</w>
giá p</w>
ph ủ
tí n_
tp .
khách _sạn</w>
k iều_
ý t</w>
x âm_
á y_
ằ m_
thiê n_t
ng ôi_
l ôi_
cừ u</w>
c ân_
ngược_ lại</w>
ử ng</w>
gi ặc</w>
tr ừng</w>
thị_tr ấn</w>
b ức_
triều_ tiên</w>
tr a
ng_l ồ</w>
_ lại</w>
đá y</w>
ph ối_
m ông</w>
m óc</w>
g ỡ</w>
ng_r ỡ</w>
hã ng</w>
bó ng_tối</w>
y ến_
ung_ thư</w>
khổ ng_lồ</w>
c ứng</w>
_th ần</w>
_ công</w>
nh u</w>
thp t_
h ổ
1 6</w>
h ạn</w>
h uống</w>
g ãy</w>
thức_ ăn</w>
o áng</w>
kho án</w>
c ự</w>
1 4</w>
thế_ này</w>
vũ _văn_h
s ài_
vô _t
chấn_ động</w>
bao_ lâu</w>
1 8</w>
do ãn</w>
d i</w>
_th ông</w>
đối_ diện</w>
đ ói</w>
tiết_ lộ</w>
vi d
_s ự</w>
s ĩ
t âu</w>
x óm</w>
chu ông</w>
h ảo</w>
th ập_
nh ắm</w>
uố ng_
t ung_
d ẫn_
s àn</w>
mẫ u_
chuyên_ gia</w>
lão_ gia</w>
mề m</w>
đ ụng</w>
đ ình_
ăn_ uống</w>
ông_ già</w>
t ỉ
kh ang</w>
đ an</w>
ne t</w>
thất_ bại</w>
ả m</w>
ngh ệ_th
b i_
ớ p</w>
t ưởng_tượng</w>
ph ật_
kh anh</w>
th ò</w>
t ỷ
tr ắng_
t ò
l ấ
đu ôi</w>
hiế m</w>
ph iền</w>
vũ _tr
kỳ _d
kh ẩ
l y
t ủ
b ái</w>
to p</w>
iế t_
chớ p_
gi ật</w>
e s
g òn</w>
hạ t_
th ống</w>
m ật_
li a</w>
ng ạn</w>
ít_ nhất</w>
trái_ tim</w>
hạn_ chế</w>
t ỳ</w>
sa y_
s ương</w>
hoa ng_t
c k
nh ủ</w>
gó p</w>
qu ỳ
m ắng</w>
do_ đó</w>
thương_ mại</w>
c ước</w>
m ù</w>
_r ộng</w>
y_ tế</w>
_đ ề</w>
ng uy</w>
k ị
d ung_
t ỷ_lệ</w>
ch ở</w>
ế _t
ap p
w a
giá m</w>
khó _chịu</w>
n ão</w>
_ng ơi</w>
lo ài</w>
ệ ch</w>
công_ lực</w>
m ệt</w>
ph ú</w>
b ổ</w>
chứng_ khoán</w>
s ứ
/ 201
h ệ</w>
ch ốc</w>
kh âu</w>
công_ trình</w>
nguyễn_th ị
r ãi</w>
phối_ hợp</w>
n ỗ
hoà ng_h
vi et
t ỉ</w>
_v iên</w>
h a</w>
tạ p</w>
lấ p_l
hà n_thu</w>
chỉ_ đạo</w>
tức_ là</w>
m ẹ
_v ệ</w>
ăng_th ẳng</w>
m át</w>
khiế p</w>
cảm_ ơn</w>
b ar
r ốt_
y o
n ạn_
c ăng_thẳng</w>
f i
binh_ khí</w>
th ẩm</w>
học_ trò</w>
lặ ng_lẽ</w>
l eo</w>
ò m</w>
mở _rộng</w>
g ói</w>
_ giá</w>
nh íu</w>
ụ a</w>
thông_ qua</w>
m ưu_
s ót</w>
m ẽ</w>
hoàng_ dung</w>
bất_ kỳ</w>
điều_ chỉnh</w>
tình_ huống</w>
r o</w>
ê m_
chú c_
u ôn</w>
_đ iều</w>
| _
cộ t</w>
tài_ sản</w>
1 _
ó c_
giả ng_
lạ y</w>
tuy ền</w>
u ệ</w>
lạ t</w>
_th ường</w>
h ôi</w>
khá m_
kho ái</w>
tầm_ thường</w>
phá n</w>
_v ấn</w>
t ồ
đu a</w>
kho e</w>
ấ p_th
cá ch_
_ cả</w>
nhật_ bản</w>
d ã</w>
bấy_ giờ</w>
_n iệm</w>
tham_ dự</w>
_h ồ</w>
ch âm</w>
s ay</w>
_ pháp</w>
k êu_
ố ng_đ
vậy_ mà</w>
đ ời_
c ôn</w>
t u</w>
ra_ mắt</w>
kiế n_
2 /2012</w>
chế_ độ</w>
thanh_ tra</w>
hỏ a_
â ng_
tr ấn</w>
nghỉ _ngơi</w>
ng ột</w>
mạnh_ mẽ</w>
kho ảnh_
_th úc</w>
u_d àng</w>
nữ _nhân</w>
dị u_dàng</w>
đ ườ
nữ _sinh</w>
ng ốc</w>
dứt_ lời</w>
th ổ</w>
k ê</w>
khoảnh_ khắc</w>
ch ấm_
tí ch_nhân</w>
bá ch_
tăng_ cường</w>
bá m</w>
ng ữ
tu ổi_
l y_
gi à
tr ác</w>
tí ch_
m ông_
ho a_th
gd đt</w>
ũ ng_
tác_ giả</w>
t ới_
l ú
g a</w>
đi_ lại</w>
châu_ âu</w>
thơ m</w>
t_m ỏi</w>
mệ t_mỏi</w>
đí ch_th
iê n_h
đ ó
ôn_l uôn</w>
ð an</w>
nghiêm_ trọng</w>
tr án</w>
lu ôn_luôn</w>
chính_ xác</w>
ấ n_tượng</w>
s ơn_
trọ ng_th
b ông</w>
_s ơ</w>
văn_ phòng</w>
kh e
đả m</w>
ph i
sá nh</w>
u ni
ơ _ng
c ớ</w>
l ề
máy_ tính</w>
ph o</w>
l ỗ
kh inh_
s ho
ng ự</w>
kh ăn</w>
chức_ năng</w>
nh ược</w>
h iề
c ú</w>
đ ài_
tỏ a</w>
t ụ</w>
j a
bộ t</w>
_ an</w>
chỉ _huy</w>
v a</w>
t á</w>
s ung_
văn_ bình</w>
h o</w>
nạn_ nhân</w>
qu ỷ
ủ a</w>
in e</w>
g ạo</w>
nhắm_ mắt</w>
l ông</w>
tồ n_tại</w>
v ai_
m y</w>
khá n_
có _điều</w>
c ởi</w>
tr ợ</w>
ằ ng_h
bao_ gồm</w>
đ ợt</w>
tập_ đoàn</w>
d ốc</w>
d ối</w>
hội_ đồng</w>
thuy ết_
cli p</w>
l ật</w>
giận_ dữ</w>
phát_ giác</w>
bổ n</w>
tr ào</w>
chi_ tiết</w>
d uyên</w>
h uy</w>
ẩ y_
chậm_ rãi</w>
qua n_t
v ỏ</w>
u n</w>
kiểm_ soát</w>
tr ồng</w>
gh é</w>
l ăng_
ạ nh</w>
chủ_ yếu</w>
đề _phòng</w>
v inh_
1 9</w>
kh ôn</w>
vi_ phạm</w>
t ả
quân_ sự</w>
b iệt_
vô _tình</w>
hình_ thức</w>
động_ sản</w>
thủ _hạ</w>
ph óng_
cá i_
c ành</w>
_th ức</w>
việ c_
n ộ</w>
xuất_ sắc</w>
xe _
hòa_th ượng</w>
ổn_ định</w>
t àn</w>
đại_ gia</w>
hu ế</w>
qu ét</w>
huy ên</w>
tho ải_
m ồm</w>
c ỗ</w>
thoải_ mái</w>
khá ch_
gi ây</w>
chủ _nh
tin_t ưởng</w>
tử_v ong</w>
quân_ đội</w>
t ê</w>
quảng_ cáo</w>
đưa_ mắt</w>
e m_
c k</w>
bất_ động_sản</w>
a s</w>
n_l ợi</w>
dân_ tộc</w>
_v ật</w>
cô_ giáo</w>
6 0</w>
n_l uyện</w>
n ề</w>
nh ục</w>
v ã</w>
tai_ nạn</w>
cử u_
_ _
c ắn</w>
n ửa_
th ét</w>
thpt_ quốc_gia</w>
sử a_
t ụ
ữ ng_
ng ơ_ng
ng u_
chịu_ đựng</w>
đo àn_
đáp_ ứng</w>
mở _cửa</w>
g e
khuy ến_
m in</w>
đột_ ngột</w>
th ai</w>
b ước_
_ph i</w>
n_l ạc</w>
app le</w>
m e</w>
pu tin</w>
giải_ pháp</w>
ph ức_
ng ửa</w>
trung_ ương</w>
bố _trí</w>
0 7
giây_ lát</w>
200 8</w>
ra_ lệnh</w>
áp_ dụng</w>
vid eo</w>
tr inh</w>
ngụ y</w>
8 0</w>
ban_ đầu</w>
n ảy</w>
h iền</w>
ĩ a</w>
sài_ gòn</w>
n_đ ổi</w>
cộng_ đồng</w>
thả m</w>
đạ m</w>
v í
uộ t</w>
trao_ đổi</w>
_tr ách</w>
tr ừ
tr i_
thủ_đ oạn</w>
thá p</w>
_ %</w>
„_ ð
uyệ n_
tác_ dụng</w>
đ iệu</w>
v ời</w>
hiệ p_
… _
thất_ vọng</w>
quá ch_t
hoang_t ập</w>
chỉ_ tiêu</w>
m ười_
m ọc</w>
lư ới</w>
hội_ nghị</w>
đạo_ trưởng</w>
cố _ý</w>
hợp_ đồng</w>
d ính</w>
l ái</w>
đ inh</w>
m iếu</w>
ch _m
b ực_
l i</w>
h ít</w>
bi a</w>
gọ i_
tr ùm</w>
mã n</w>
thuy ết</w>
r út_
ho ảng_
tí n</w>
s ỹ</w>
c ạn</w>
khuy ết</w>
thạ ch_th
thượng_quan_ kỳ</w>
v o
quốc_ hội</w>
g ối</w>
trang_ chủ</w>
tác_ phẩm</w>
2 3</w>
t ẩu</w>
n_th anh</w>
k iên</w>
bầu_ cử</w>
hư ng_
to_ lớn</w>
4 /3</w>
v n
_d ụ</w>
v iêm</w>
thế_ mà</w>
chi_ phí</w>
vai_ trò</w>
ng_th ái</w>
nghệ_th uật</w>
ngôi_ sao</w>
thiết_ bị</w>
thanh_ ngân</w>
ẫ u</w>
ch ả</w>
tâm_ sự</w>
ặ t_
h ất</w>
bỗng_ nhiên</w>
x ạ</w>
mạ o_
thượng_ quan</w>
phá p_
khá m</w>
t é
nghĩa_ là</w>
ẽ o</w>
má i_
_ đạo</w>
h ung</w>
b ồ
19 9
việc_ làm</w>
ir c</w>
t úc</w>
h ấp_
w e
s uối</w>
n_ n
_n ẵng</w>
t c</w>
bổ _sung</w>
tướng_ công</w>
pa d</w>
bá t_
kết_ luận</w>
ò i_
tr àn_
xuất_ khẩu</w>
chu i</w>
d ì</w>
ma_ giáo</w>
d inh_
cảm_ nhận</w>
k a</w>
hà _t
n ương_
k ẻ
x i</w>
rốt_ cuộc</w>
r ít</w>
ợ n</w>
n_t ập</w>
hấp_ dẫn</w>
g ượng</w>
th ê
hợ p_l
ộ t_
ì a</w>
bất_ luận</w>
r e</w>
bầu_ trời</w>
x ưa_
gọi_ là</w>
d ĩ</w>
27 3</w>
lê _
d u
ẹ p_
i_l ầm</w>
i pad</w>
c ắp</w>
sư _thúc</w>
h iểm_
th ụ
kiế m_
năng_l ực</w>
ph ổ</w>
ng ô</w>
đầu_ óc</w>
d ãy</w>
phức_ tạp</w>
nặng_ nề</w>
. ...</w>
iê n_th
tình_ dục</w>
hướng_ dẫn</w>
tự_ tin</w>
tr àn</w>
bạ t</w>
th ử
ng ập</w>
h ầm</w>
n ấu</w>
0 9
thú _vị</w>
có _
dấu_ hiệu</w>
nhà_v ua</w>
ng ấm_
thần_ sắc</w>
ngấm_ ngầm</w>
tính_ toán</w>
đ ổi_
chứng_ kiến</w>
h iể
ngẩ ng_
qua_ đời</w>
chiế n_l
th iền</w>
l ầm</w>
n én</w>
lạ ng</w>
hã n</w>
á t_
đáp_ án</w>
t ù</w>
lạ nh_
f o
kỷ _l
yên_ nhiên</w>
_v ân</w>
cửa_ hàng</w>
t ảng</w>
yến_ phi</w>
gi ày</w>
k e</w>
cổ_ph ần</w>
cư ỡi</w>
_g ớm</w>
chia_ tay</w>
số _lượng</w>
ghê _gớm</w>
th ục</w>
xúc_ động</w>
vũ_tr ụ</w>
ng -
h ang</w>
ho ả
thỉnh_ thoảng</w>
m ũ</w>
i_h ành</w>
d ò
1 /3</w>
_t ính</w>
ph ẫu_
kh iển</w>
đà _nẵng</w>
_đ ại</w>
1 .
n ộp</w>
b éo</w>
le n
tr úng_
k u
ị nh_
phả n_đ
ng_t ỏ</w>
2 4</w>
đám_ cưới</w>
n ạp</w>
hoa_ sơn</w>
l ắng_
d ày</w>
phẫu_ thuật</w>
g ương</w>
h ôn_
hồ _sơ</w>
khủ ng</w>
i_l ễ</w>
tr àng</w>
f or
l au</w>
s y
ạ y_
b ơi</w>
tâm_ lý</w>
ng ạo</w>
hầu_ hết</w>
78 8
đá ng_
t ang</w>
h ắc_
chớp_ mắt</w>
a n_l
trung_ nguyên</w>
kỷ _
d ực</w>
me s</w>
t ắm</w>
2 1</w>
t ần_
lý _h
d ao_
uy ết</w>
thu_ hút</w>
anh_ chàng</w>
n_l òng</w>
x ế
r ồng</w>
vụ t</w>
m ạn</w>
th ăm_
t ụi</w>
ng ớt</w>
v ắng</w>
sáng_ tạo</w>
_ _</w>
kinh_ hoàng</w>
vũ _khí</w>
căn_ cứ</w>
biến_ sắc</w>
m ến</w>
sứ _
vừa_ mới</w>
hiệ n_đại</w>
ba_ mươi</w>
yếu_ tố</w>
mong_ muốn</w>
an_ ủi</w>
ð iền</w>
xem_ ra</w>
trước_ kia</w>
2 6</w>
ð ào</w>
l ừa_
ð oàn</w>
phản_đ ối</w>
ph ường</w>
g ầm</w>
ắ p_t
khai_ thác</w>
th âm</w>
d ầu_
a_ tử</w>
toàn_ cầu</w>
s ờ</w>
a m
s e</w>
tìm_ hiểu</w>
h ảo_
é o_
/ 9</w>
s ta
thừa_ chí</w>
ng ó
c ăm_
tổ n_thương</w>
2 /3</w>
sở _hữu</w>
_v ờ</w>
n_t ĩnh</w>
v ong</w>
i s</w>
_d anh</w>
ã i_
giả _vờ</w>
á p_lực</w>
ph úc_
báo_ chí</w>
kho át</w>
vừa_ qua</w>
que n_th
m an</w>
tiếng_ nói</w>
bất_ quần</w>
thầ n_th
t ận_
nh ường</w>
l ơ
v er
dù _sao</w>
đề_ xuất</w>
r ung_
tiến_ sĩ</w>
ch ấm</w>
g u
_ch ơi</w>
29 /2</w>
tỏ _vẻ</w>
x ét_
ra_ vẻ</w>
ù n</w>
_ph ê</w>
phân_ tích</w>
ngo an</w>
y a</w>
người_ yêu</w>
duy _trì</w>
t é</w>
s hi
_h ãn</w>
x anh_
trẻ_ con</w>
n êu</w>
đ iên_
khán_ giả</w>
cà _phê</w>
_th ế_
l ần_l
trịnh_ vi</w>
gi ang_
nhân_ tài</w>
mừ ng_rỡ</w>
thống_ nhất</w>
phi_ thường</w>
l ập_
r ỡ</w>
hầu_ như</w>
chẳ ng_th
ắp_t ay</w>
5 00</w>
x ô</w>
a le
đặ c</w>
d ây_
s ca
tâm_ thần</w>
mề m_
kho ác</w>
g ánh</w>
di_ động</w>
b ừng</w>
thú y</w>
an_ ninh</w>
lợi_ dụng</w>
hành_ lang</w>
79 0
n_l oạn</w>
j e
đồ _
khở i</w>
té _ra</w>
l ê</w>
bỏ_ qua</w>
phá ch</w>
bỏ ng</w>
lã ng</w>
cao_ cường</w>
ố m</w>
ph an_
v ỗ
quách_t ĩnh</w>
chiến_l ược</w>
th ình_
l ộc</w>
tr ạ
h ẹp</w>
cử _động</w>
chính_ quyền</w>
tu ân</w>
bạ o_
s i</w>
giám_ sát</w>
lê n_đường</w>
_h ương</w>
t àng</w>
t i</w>
hiế u_
ph ấn_
b ên_
x é</w>
th iệt_
_ ẩn</w>
thí _chủ</w>
hồ_x ung</w>
ph ấn</w>
_m inh</w>
sắp_ xếp</w>
2 2</w>
thừa_ nhận</w>
tha _th
vô _số</w>
ag rave</w>
bả n_l
x à</w>
tương_ tự</w>
yêu_ thương</w>
quen_th uộc</w>
hỏ i_
c ấu_
x á</w>
ti n_
bất_ quá</w>
_s ơn</w>
qu ận_
khu ê</w>
như _thể</w>
phương_ tiện</w>
ch ắp_tay</w>
tư _vấn</w>
ch ống_đ
thế_ kỷ</w>
bên_ cạnh</w>
tr ống_
tr ói</w>
l én</w>
chân_ nhân</w>
/1 0</w>
_c ập</w>
ng ắt_
lã ng_
khá ng_
4 32</w>
lạ _l
â u_l
v u_
ph ần_l
thí ch
kh ảo</w>
tích_ cực</w>
r ẽ</w>
c ăn_h
ư ng_
hợp_l ý</w>
qua n_đ
tạm_ thời</w>
a d
đà m_
tay_ áo</w>
sá o</w>
d áng_
bù i_
_m iệng</w>
th ùng</w>
dinh_ dưỡng</w>
co m
ch ép</w>
gia m</w>
g ắn</w>
ph cm</w>
căn_h ộ</w>
ý_ định</w>
x ưng</w>
_t âm</w>
năng_l ượng</w>
công_ nghiệp</w>
b ằng_h
tử_l ăng_
khuy a</w>
kh éo</w>
c uộn</w>
kh o</w>
kết_ hợp</w>
c ục_
tậ p
thản_ nhiên</w>
x ương_
cao_ ngạn</w>
l la
v ả</w>
m iên</w>
h á</w>
ế ch</w>
đó n_
x u_
ch ống_
bu ông_
vụ_ việc</w>
v ạ
kh ốn_
dự_ kiến</w>
d ũng_
k ể
que n_
ọ t_
bảo_ đảm</w>
ạ i_h
giải_ thưởng</w>
bố n_
ợ i_
đ ẹp_
chú t_
_ nghiệm</w>
tr ừng_
na m
biểu_ diễn</w>
kho ảng_
d ập</w>
tr ong_
thành_ lập</w>
d ồn</w>
bà ng_
tư_m ã</w>
th iệt</w>
s t</w>
x en</w>
tăng_ trưởng</w>
t áo</w>
mỹ _nhân</w>
khám_ phá</w>
tr a_
thủ _t
hồ _
, 000</w>
d ọn</w>
nh ã
pho ne</w>
m er
ch ăn</w>
thu ần</w>
đ ẳng</w>
bằng_h ữu</w>
o k</w>
đô _thị</w>
gi an_
buồn_ b
_tr ọng</w>
gi ục</w>
s ườn</w>
mái_ tóc</w>
m ức_
d ại</w>
nỗ _lực</w>
cá t_
c ắm</w>
đ ai</w>
ờ _m
kh ôi</w>
y_ phục</w>
phần_l ớn</w>
ung_ dung</w>
ph iếu</w>
hỏ a</w>
tạ p_
cơ _ch
tr ứng</w>
cư ỡng_
l ắc</w>
kh e</w>
_ bộ</w>
n_ v
b ần_
f f</w>
con_ số</w>
ph e</w>
nhà_ đầu_tư</w>
đ ồi</w>
thế _th
_đ ộ</w>
ng ô_t
cái_ bang</w>
78 9
tuyệt_ vời</w>
20 0</w>
t ế_
thân_ phận</w>
nh ạn</w>
đời_ sống</w>
tính_ mạng</w>
đ iếm</w>
hà _
ngh ịch</w>
l ô</w>
t phcm</w>
tiề m_
m é</w>
từ _b
c e</w>
b ụng_
nh ãn</w>
t ưởng_
d ạo</w>
ch ào_
k y</w>
nà o_
ngắt_ lời</w>
kh ỉ</w>
trợ n</w>
x ách</w>
uy ến</w>
k èm</w>
thật_ ra</w>
r ót</w>
b ệ
s o_
r ẻ</w>
jo h
t s</w>
h ở</w>
ờ n</w>
tiểu_ hôi</w>
ó t_
b ồi_
thái_ tử</w>
nh át</w>
tiếp_ xúc</w>
m ệnh_
kh a
đả ng_
s ổ</w>
trường_ an</w>
mà u_
bo m</w>
ứng_ dụng</w>
_b ăng</w>
_b ình</w>
hoang_ mang</w>
sa i_lầm</w>
phùng_ phá</w>
liê n_lạc</w>
tr ướng</w>
tr úc_
ho a_h
tr ần_th
học_ bổng</w>
di_ chuyển</w>
tài_ liệu</w>
tay_ phải</w>
o u
k ỵ
t í</w>
kể _cả</w>
cách_ mạng</w>
h òn</w>
kh ôi_
u ất</w>
kh ốc</w>
đồ n</w>
tiểu_ bàn</w>
r ũ</w>
chiế u_
cá n</w>
/ 2019</w>
to át</w>
toà n_lực</w>
ng_l ong</w>
ro i</w>
bất_ dịch</w>
_l an</w>
tr ực</w>
t ật</w>
bộ _
ẫ m_
quan_đ iểm</w>
kho ang</w>
ng ôn_
sung_ sướng</w>
h ễ</w>
ỏ ng_
truyề n_hình</w>
bản_l ĩnh</w>
d âm</w>
f e
hậu_ quả</w>
thế _sung</w>
đà m</w>
in do
cu ồng_
lần_l ượt</w>
b ão</w>
hiệu_ trưởng</w>
đ uối</w>
nhận_ xét</w>
lă ng_độ</w>
bạ o</w>
b ì</w>
b ến</w>
sa ng_
_l òng</w>
nh áy_
thời_ trang</w>
nội_ công</w>
cư ỡng</w>
đ iển</w>
th ăng</w>
tài_ năng</w>
tiếng_ động</w>
tr ụ</w>
ngẩng_ đầu</w>
kí ch_th
hàng_ đầu</w>
g ục</w>
nhà _máy</w>
khủng_ khiếp</w>
trước_ tiên</w>
kỷ_ yên_nhiên</w>
mộc_ phong</w>
mã nh</w>
an na</w>
7 0</w>
y _thế</w>
t iệm</w>
ngay_ lập_tức</w>
_t ài</w>
ạ ch_
tâm_ hồn</w>
quyết_ tâm</w>
bá i_
ph ê
nháy_ mắt</w>
3 /3</w>
ó e</w>
l ật_
tp. hcm</w>
lề u</w>
n_t ính</w>
_ mắt</w>
giấy_ phép</w>
bộ _phận</w>
tr ông_
minh_ bạch</w>
s anh</w>
lạ_l ùng</w>
_đ iểm</w>
thuyết_ phục</w>
nh_l iệt</w>
lợi_ ích</w>
điều_ hành</w>
b ưng</w>
tr ú</w>
đe _d
xưa_ nay</w>
tr ạm</w>
và ng_
kh âm_
ho à</w>
l ịch</w>
_ là</w>
tạ _
m ổ</w>
hạt_ nhân</w>
điều_ khiển</w>
nhanh_ nh
n_t ích</w>
l l</w>
lý_ xuân_
bá _
gia_ tăng</w>
tr uyện</w>
nh ú
mã nh_liệt</w>
lợ n</w>
phụ _trách</w>
ng ất</w>
g ậy</w>
g ót</w>
biế n_đổi</w>
qu ê
xác_ chết</w>
t ốc</w>
_t ố</w>
quảng_ bình</w>
hu ỳ
ch ầm_
tr ẫm</w>
thi_ thể</w>
hạ _l
cảm_ xúc</w>
n é
uố t_
n inh_
chủ_ động</w>
kh ống_
ọ n_
th ề</w>
đối_ mặt</w>
mức_ độ</w>
hàn_ quốc</w>
phụ _thân</w>
k iêu_
_tr ương</w>
chứng_ minh</w>
mặt_ mũi</w>
kỷ _th
vĩnh_ viễn</w>
hải_ phòng</w>
ặ c_
vội_ vã</w>
tác_ động</w>
khống_ chế</w>
lẽ _nào</w>
thanh_ toán</w>
tiểu_ học</w>
t ương</w>
đ ả</w>
n_đ ộ</w>
ch_th ức</w>
_v ăn</w>
cá m_
phổ _
tiệ n_th
l ỡ</w>
m pi
chiế m_
ng ờ_đ
m uối</w>
cơ_ bản</w>
ma u_
ng_t úng</w>
t át</w>
người_ thân</w>
th ẻ</w>
mộ_d ung</w>
lu ân</w>
ch ánh</w>
ấ c_
truyền_th ống</w>
tha y_thế</w>
ngờ_đ âu</w>
ng a_
ban k</w>
gi ớ
t ách</w>
nh ầm</w>
quá _kh
chầm_ chậm</w>
c ro
t ắc</w>
kh ẩn_
nh ích</w>
hối_ hận</w>
ý _tưởng</w>
nổi_ giận</w>
lạc_ dương</w>
h ùng_
s h
n_đ ệ</w>
đ iệt</w>
to à</w>
góp_ ý</w>
th iền_
n ấp</w>
c s</w>
trầ n_h
y a
n é</w>
kẻ _thù</w>
ng õ</w>
c ường_
ð ịch</w>
ng_ sốt</w>
b ận</w>
õ m</w>
lắng_ nghe</w>
_ph ương</w>
đ ẩy_
ch ửi</w>
n_h óa</w>
gia_ gia</w>
cuộc_ chiến</w>
t ào</w>
r ực_
b ày_
phò ng_th
g s
c ùng_
hoàn_h ảo</w>
cha u_mày</w>
bị t</w>
ứng_ phó</w>
y_th ì</w>
sử ng_sốt</w>
doanh_ doanh</w>
x ám</w>
th ói_
kỷ _niệm</w>
tử _t
phân_ biệt</w>
p_th ời</w>
c ẩn</w>
đại_ biểu</w>
đ ền</w>
thu_ hồi</w>
r au</w>
triều_ đình</w>
thù y</w>
gm t
k ý_
ti e</w>
o ai</w>
đồng_ chí</w>
m ờ</w>
d ụng_
r ùng_
kì a</w>
xu ôi</w>
nghệ _sĩ</w>
p er
tống_ cương</w>
trung_ bình</w>
s s</w>
nh a_
ng_t âm</w>
k iệm</w>
d ở</w>
b ầy</w>
_v ă
thu_ nhập</w>
quen_ biết</w>
ú i_
âm_ nhạc</w>
độ t</w>
chú a_
x ỉ
vận_ động</w>
v ĩ
thế_th ì</w>
nghệ _an</w>
e li
con_ bé</w>
è o_
c ận_
ngh iến</w>
hiệ n_tượng</w>
mạo_ hiểm</w>
chung_ quanh</w>
ag u
nh ấn_
ng ang_
l ái_
hà ng_h
kiế n_tr
h iên</w>
cầu_ thủ</w>
m ỏng</w>
3 00</w>
v ất_
hàng_ loạt</w>
é p_
qu ãng</w>
nh ặt</w>
b ưu_
2 ,
s ốc</w>
tr ưởng_
nhận_ định</w>
hành_ trình</w>
la ng_
ar d</w>
quyề n_lực</w>
ph iên_
điệ n_
new _
chuyển_ động</w>
to á
c đ</w>
ma ri
th ập</w>
n_l a</w>
l ông_
khí _
thị _
n uốt</w>
bí _ẩn</w>
a acute</w>
ì n_
nh i_
long_ vương</w>
đầ m</w>
thủ_t ục</w>
ph ượng</w>
_l ễ</w>
điệ p</w>
dân_ chúng</w>
ng ọt</w>
uy ển</w>
ngơ_ng ác</w>
n_th ủ</w>
ám_ khí</w>
giớ i_h
nổi_ bật</w>
4 5</w>
lộ n</w>
2 8</w>
v ững_
ph ẫn_
dạ y_
văn_ bản</w>
u ân</w>
mẫu_ thân</w>
_đ ông</w>
thay_ vì</w>
l òng_
khá ng</w>
00 0
ưở i</w>
_h ệ</w>
r ung</w>
căn_ bản</w>
phi_ huyên</w>
đ ĩa</w>
ho ạ</w>
vậ y_thì</w>
n_t ắc</w>
m ạ</w>
h ủy</w>
d iệp</w>
tiệ n_
b ăng_
tr i</w>
địa_ bàn</w>
ngo ái</w>
ð iền_
u_l ong</w>
so ạn</w>
nhà o</w>
_ hoàng</w>
tr ỏ</w>
giả ng</w>
ca_ sĩ</w>
ho an</w>
ch ọc</w>
thế _lực</w>
nhỏ _
thiê n_h
đặ t_
hu ệ</w>
ca r
_d ương</w>
m ao</w>
hỏ ng</w>
thu ẫn</w>
tay_ chân</w>
thương_ hiệu</w>
sự_ nghiệp</w>
tư_ cách</w>
dữ _d
chì a_
bá o_th
b ề_
b i</w>
c ỡ</w>
mẹ _con</w>
kị p_thời</w>
/0 2/2012</w>
khu ất</w>
cổ n</w>
khả o_
cười_ nhạt</w>
chứ ng_tỏ</w>
buồn_b ã</w>
rút_ lui</w>
thói_ quen</w>
nh uận</w>
c irc</w>
b ất</w>
trước_ hết</w>
nh an</w>
hài_ lòng</w>
hoả ng_h
d uy</w>
vất_ vả</w>
l ăm</w>
v ả
tiêu_ dùng</w>
lấp_l ánh</w>
xu_ hướng</w>
cao_th âm</w>
r eo</w>
tr èo</w>
biên_ giới</w>
tiếp_ cận</w>
i ta
f i</w>
dị u</w>
thanh_ thanh</w>
cải_ thiện</w>
tha m</w>
ng ẩn</w>
cạ nh_
ngh ênh_
-- --
õ ng</w>
*_ *_
chất_ độc</w>
bối_ rối</w>
ng uyệt_
c àn</w>
a n_th
ngăn_ cản</w>
lã m</w>
thế _hệ</w>
địa_ vị</w>
quả _thực</w>
gmt 7
u ỷ</w>
m ưa_
mông_ cổ</w>
h ốt_
thí ch_
ch_th ú</w>
mo n</w>
cung_ kính</w>
thả n</w>
kỳ _quái</w>
thần_ bí</w>
do_ dự</w>
thản_ chi</w>
tín_ dụng</w>
ngoại_ giao</w>
m en</w>
ầ y_
đáng_ kể</w>
đ ùi</w>
thẳ m</w>
m ét</w>
201 0</w>
so_ sánh</w>
cự u</w>
_tr ánh</w>
l ụa</w>
rối_ loạn</w>
hình_ thành</w>
ngô_t am_
bá u</w>
dư _luận</w>
_ chuyện</w>
s ôi_
làm_ ăn</w>
đôi_ khi</w>
t an_
linh_ san</w>
công_ nhân</w>
tr ù
thế_ gian</w>
đ âu_
0 6
ư ỡng</w>
t -
nhập_ khẩu</w>
ngày_ xưa</w>
bà _con</w>
tự _h
lư u_l
ý_ muốn</w>
l iều</w>
v ẫy</w>
lú ng_túng</w>
dáng_ vẻ</w>
i i</w>
ph ù</w>
th ận</w>
vi ta
kỳ_d ị</w>
ph ối</w>
a ng
h uống_
si ng
n_h iệu</w>
w i
mộ_dung_ phục</w>
giải_ trí</w>
tr ân_
vũ_văn_h àn</w>
ra_ hiệu</w>
châu_ á</w>
tr ễ</w>
l ẹ</w>
l á
bo ok</w>
né _tránh</w>
quá_kh ứ</w>
g r
cảm_ kích</w>
_t ín</w>
trình_ độ</w>
qu ý_
ì m</w>
à m_
khoảng_ cách</w>
_ cáo</w>
v ĩ</w>
tất_ phải</w>
n -
i_h iên</w>
_ như</w>
viet nam
vô_ địch</w>
nhỏ _nh
19 7
ỡ n</w>
bá n_
v uốt</w>
nh o
c ậy</w>
truy ền_
tiết_ kiệm</w>
thị _vệ</w>
biểu_ hiện</w>
thí ch_thú</w>
nhà_th ờ</w>
v ăng</w>
thiên_ phong</w>
t ục</w>
báo_th ù</w>
đ âm_
ví _dụ</w>
tr ưng</w>
nhanh_nh ẹn</w>
kh ôn_
c ương_
b én</w>
n_l ặng</w>
n o</w>
m anh</w>
gi ế
f on
thủ_đ ô</w>
ăn_ mặc</w>
tổ _hợp</w>
g ần_
s ốt_
n_th iệp</w>
hoài_ nghi</w>
v ĩnh</w>
v ú</w>
trí _t
ca n_thiệp</w>
gặp_ mặt</w>
ng ập_
tốt_ đẹp</w>
thái_ giám</w>
hư _tr
r ú</w>
l ò
kỷ_th iên_th
khác_ biệt</w>
k g</w>
cổ _tay</w>
tư _tưởng</w>
ka tie</w>
lệnh_ hồ_xung_
l ư</w>
thông_ thường</w>
ch ốc_
dược_ sư</w>
ọ p</w>
nh ượng</w>
new s</w>
gặp_ gỡ</w>
c o_
quy_ mô</w>
k o</w>
huỳ nh_
tú y</w>
ổ ng_
3 /2012</w>
th ận_
cám_ ơn</w>
mà n_hình</w>
lý_ uyên</w>
ó m_
tr uy</w>
l a_h
tổ _
n ầy</w>
tr ụ
phóng_ viên</w>
kho á</w>
đ ơ
nh ánh</w>
tà u_
lã o_th
ho án</w>
thủ _pháp</w>
_l ang</w>
người_ đẹp</w>
c àn_
đại_ sảnh</w>
vă n_t
hiề n_đệ</w>
r ách</w>
x ót_
hiểu_ biết</w>
x ế</w>
tử u</w>
rực_ rỡ</w>
ch ằm_
_ nhất</w>
âm_ mưu</w>
trò _chuyện</w>
m_ mê</w>
15 -
ngô_tam_ quế</w>
chằm_ ch
x ứng_
b ội_
s ấm</w>
kêu_ gọi</w>
m ũ
cá o_
truyền_th ông</w>
diễn_ viên</w>
ale x
quả n_
si a</w>
ch_ động</w>
đ ù
t ước</w>
ch án</w>
tương_ đương</w>
thận_ trọng</w>
pho ng_t
nào_ ngờ</w>
chủ_nh ật</w>
u_l ẹ</w>
ma u_lẹ</w>
phủ _
công_ khai</w>
n_đ ông</w>
quan_t ài</w>
3 6
sinh_ tử</w>
tiện_th iếp</w>
nhà_ khoa_học</w>
may_ mà</w>
m èo</w>
_đ oán</w>
ỗ ng</w>
â y_th
tí m</w>
đ è</w>
v áy</w>
thích _hợp</w>
dữ_d ội</w>
bí _thư</w>
trước_ đây</w>
qu í</w>
ầ n_t
v án</w>
lạnh_l ẽo</w>
bệ _hạ</w>
hồ _ch
h l
d âu</w>
quỳ nh</w>
bu ôn_
b ế</w>
v út</w>
tổng_ số</w>
rộ ng_
r ắc_
năm_ học</w>
k iềm_
chẳng_th ể</w>
t ái</w>
đ ắm</w>
phát_ biểu</w>
tự_ nhủ</w>
ủ i_
đ òi_
kim_ cương</w>
ng_h ạn</w>
lý _mật</w>
không_ ngớt</w>
hà m</w>
xứng_ đáng</w>
tâm_ trạng</w>
nguyễ n_h
d ụ
ac k</w>
gi ở</w>
nh ai</w>
nhấn_ mạnh</w>
công_ chức</w>
tr ấn_
s ơ</w>
p ro
lo_ ngại</w>
huống_ chi</w>
a s
quy_ hoạch</w>
kho ăn</w>
vô _v
phẫn_ nộ</w>
m ỏ</w>
ượ t_
ð ồng</w>
vita min</w>
cao_ cấp</w>
phổ_ biến</w>
nh o_
n_tr ị</w>
lạc_ hi</w>
đòi_ hỏi</w>
th ối</w>
ấn_đ ộ</w>
độc_ thủ</w>
ch ôn</w>
b ẫy</w>
n_th ể</w>
bề_ ngoài</w>
vô _s
phát_ huy</w>
kh át</w>
ng ục</w>
lái_ xe</w>
quân_ bình</w>
_thế_ giới</w>
v tc</w>
d ời</w>
đệ _nhất</w>
th i_lễ</w>
sân_ khấu</w>
_ph ong</w>
động_t ác</w>
b àng</w>
b en
m s
le y</w>
c ăng</w>
ấm_ áp</w>
ăn_ khoăn</w>
tư_m ã
đắc_ ý</w>
th ắng_
b ăn_khoăn</w>
ð inh</w>
thúc_ đẩy</w>
th i_hành</w>
tr ấ
thần_ công</w>
x óa</w>
vả _lại</w>
thiê n_l
bạ i_
2 7</w>
thỏ a_
th i
p_h ọc</w>
địa_ điểm</w>
tr à
tr ắc_
n_l iệu</w>
c ải</w>
quả n_trị</w>
n_t ình</w>
l iệt_
giế ng</w>
chiêu_ thức</w>
c ấm_
nh ắc_
k m</w>
nh ấc</w>
ch ấ
xác_ nhận</w>
cầu_ thang</w>
ạ o_
ngư ỡng</w>
kh iêu_
thành_ tích</w>
nh ăn_
m ì</w>
_m ò</w>
cạnh_ tranh</w>
thư_ viện</w>
ph un</w>
_ năng</w>
thời_ kỳ</w>
hòa_ bình</w>
ch uột</w>
x ao</w>
c ẩm_
minh_ chủ</w>
lo_ sợ</w>
sâu_ sắc</w>
qua y_
ch ốt</w>
c ú
ruộ ng</w>
kiềm_ chế</w>
kh anh_
ca m</w>
việ n_
th ôi_
chấm_ dứt</w>
xa_ x
tiêu_ diệt</w>
đ ậu_
th e
d ê</w>
_d ạng</w>
đóng_ góp</w>
n út</w>
á u</w>
tr e</w>
so i</w>
nông_ dân</w>
một_ nửa</w>
g ào</w>
ch el
trời_ ơi</w>
trái_ đất</w>
h ù
đạo_ đức</w>
diễn_ biến</w>
thân_ thiết</w>
tr âu</w>
nghiêm_ túc</w>
n áo_
nói_ dối</w>
c l
trường_h ọc</w>
s er
k iệu</w>
hoa_th iên_h
v é</w>
yê n_lặng</w>
gi ương</w>
ả n_
ngh ẹ
nghĩ _ng
nghĩ_ng ợi</w>
khẩ u_
kh ái</w>
hoa n_h
hô _h
đánh_ bại</w>
uy ển_
l ệ
g e</w>
li b
h ân_
ca_ ca</w>
u r
khá nh_
ch e_
28 /2</w>
xấu_ hổ</w>
mô _hình</w>
c ủ</w>
tò _mò</w>
d im</w>
có c</w>
b iể
su ýt</w>
hứ ng_th
tr ân</w>
ph iến</w>
n ại</w>
l ình</w>
l ung_
hi v</w>
hứng_th ú</w>
ch _d
năm_ ngoái</w>
nh ĩ</w>
m ấy_
qu í
par is</w>
ng_ phất</w>
khoa_ học_
f ran
phả ng_phất</w>
cảm_ động</w>
_l iệt</w>
h é</w>
quy ền_
hoa_ kỳ</w>
có _lý</w>
nh ở</w>
n_t uổi</w>
diệ n_tích</w>
200 9</w>
s ăn</w>
hl v</w>
ng_h ợp</w>
kiến_tr úc</w>
ỏ a</w>
tiêu_ chuẩn</w>
chẳ ng_hạn</w>
chân_ tay</w>
trí _
r ậm</w>
triển_ lãm</w>
_x ã_hội</w>
_th i</w>
o g
vậ n_t
tr ượng_
đ ỉnh_
y or
s ững</w>
lã i_
ð àm</w>
lưu_ ý</w>
bạ c_
d ẹp</w>
r ư
th à</w>
na l
kỳ _
không_ trung</w>
ý _thức</w>
thái_ lan</w>
kho an</w>
o ba
d ật_
27 /2</w>
thình_ lình</w>
co n
o át</w>
hoảng_ sợ</w>
h iền_
o á
bao_ vây</w>
th ép</w>
rắc_ rối</w>
pho ng_th
o ai_
ng ao</w>
đồng_th anh</w>
rộ ng_r
g õ</w>
đầu_ hàng</w>
g ọn</w>
rộng_r ãi</w>
ng ắ
_t ộc</w>
3 ,
lãi_ suất</w>
trọng_th ương</w>
nó c</w>
v ff</w>
ngăn_ chặn</w>
lý_xuân_ hoa</w>
v ang_
h ớ
sự _thực</w>
chẳng_ qua</w>
tới_ nơi</w>
phát_ sinh</w>
ph iền_
em_ gái</w>
chống_đ ỡ</w>
_h ành</w>
ng ừa</w>
lý _viên</w>
đường_ phố</w>
th ợ</w>
ng ả</w>
iê n_t
fa ce
s v</w>
j u
ma il</w>
la nd</w>
bộ _g
_ph ái</w>
m y
an ne</w>
phương_ án</w>
nghị _quyết</w>
ng_r ực</w>
ho ành</w>
c ẩu</w>
n ướng</w>
co de</w>
biết_ đâu</w>
kh ố</w>
vụ_ án</w>
v ó</w>
t ịch</w>
n ạ</w>
kh ớp</w>
biết_ bao_nhiêu</w>
thá m_
ne t_
hã m</w>
ch ế_t
đo an</w>
đa m_mê</w>
ru n_r
bắc_ kinh</w>
trời_ đất</w>
l ường</w>
khanh_ khách</w>
0 4</w>
ng_l ặng</w>
ờ_m ờ</w>
đị ch
ủy_ ban</w>
qua_ lại</w>
ngôn_ ngữ</w>
_ph ào</w>
thở _phào</w>
giả m_
co m</w>
ngoại_ trừ</w>
ru n_
qu ạt</w>
g ấp_
/ 8</w>
l úa</w>
g s</w>
bình_ dương</w>
tr áng</w>
mỹ _nữ</w>
c ong</w>
ệ n</w>
hoa_thiên_h ồng</w>
_t i</w>
5 3</w>
/ 4</w>
ch ạy_
v en</w>
t ô_
ne s</w>
x iết</w>
khỏ e_
sát_ hại</w>
gi ấc_
biết_ bao</w>
liễ u_
alex and
2 _
m ỡ</w>
hảo_ hán</w>
i -
c úc</w>
19 8
màu_ sắc</w>
b ề</w>
thi_ đấu</w>
khiế p_
hoảng_h ốt</w>
_ chỉ</w>
đích_th ân</w>
đ iềm_
tranh_ cãi</w>
th ự</w>
biểu_ tình</w>
trạ ng_thái</w>
inter net_
ch ặt_
_ch í</w>
t ủ</w>
_th anh</w>
sinh_ hoạt</w>
m ò</w>
la_ sát</w>
tr u
phong_ cách</w>
mới_ đây</w>
miễn_ phí</w>
lợi_ nhuận</w>
fon t</w>
khó _lòng</w>
ho us
ử u</w>
g p</w>
cưỡng_ chế</w>
bần_ đạo</w>
ð ang</w>
d er
xo a</w>
đồ _đệ</w>
vỗ _tay</w>
r ạp</w>
mạ ng_
m_ t
th ề
chi_ bằng</w>
_nh ịp</w>
07 -
w o
ng_l ĩnh</w>
một_ phen</w>
giới_h ạn</w>
m 2</w>
g ầy</w>
g ây_
5 5</w>
yê n_tĩnh</w>
n ắp</w>
run_r ẩy</w>
l ữ
bất_ động</w>
tố _tố</w>
p p
ga d
tt tt</w>
o sca
huy _động</w>
10 50</w>
tươi_ cười</w>
lib ya</w>
hu ấ
f er
nhậ n_thức</w>
x ót</w>
thuy ền_
ng ửi</w>
_d ĩ</w>
công_ nhận</w>
có_ khi</w>
kh éo_
ga s</w>
_t ư</w>
ý t_
vận_ chuyển</w>
tạp_ chí</w>
th iện_
gh ép</w>
nh ọn</w>
k ệ</w>
b tttt</w>
face book</w>
qu i_
ch ai</w>
nh ẫn_
ngư ỡng_
miễn_ cưỡng</w>
l ầm_
_văn_h óa_
_b ack</w>
uni code</w>
s ảng</w>
góp_ phần</w>
c õi</w>
vương_ thế_sung</w>
tôn_ giáo</w>
thuậ n_lợi</w>
ngo an_
vu ông</w>
s uy</w>
07- 2008</w>
phần_ mềm</w>
g ạch</w>
|_ giáo_dục</w>
| _nhịp</w>
t ịnh</w>
nhà_ ngươi</w>
internet_ số</w>
ho ả</w>
d ẫu</w>
coi_ thường</w>
b ồi</w>
[ _back</w>
15- 07-2008</w>
ng ồi_
khổ ng_
|_ nhân_ái</w>
| _xã_hội</w>
| _văn_hóa_
|_văn_hóa_ |</w>
| _thế_giới</w>
sơ _h
qu ấn</w>
d ật</w>
kha ng_h
ho ạn</w>
ð ức</w>
na l</w>
mặt_ nạ</w>
cao_ minh</w>
một_ trăm</w>
lo ại_
bắt_ buộc</w>
bảo_ hiểm</w>
ch iêm_
đội_ ngũ</w>
d ội</w>
công_ bằng</w>
v ứt</w>
thúy_ sơn</w>
n y</w>
kí n_
th ắc_
bộ _l
uộ t_
r ập</w>
ha_h a</w>
y_th ủ</w>
t r</w>
nhà_th ơ</w>
h ơi_
s -
ban_ ngày</w>
võ _sĩ</w>
_h ơi</w>
tập _thể</w>
thị nh_
o anh</w>
ngh i_l
xo ay_
thiền_ sư</w>
n ối_
k ề</w>
địa_ chỉ</w>
đa_ tạ</w>
tạ ng</w>
tù y_
trình_ bày</w>
đồ ng_t
l ò</w>
cả ng</w>
tính_ cách</w>
th ờ</w>
diễ m</w>
công_ dân</w>
sơ n_la</w>
phú _
ph ỏng_
n an</w>
_d iện</w>
giá ng_
_nh i</w>
trầm_ trọng</w>
sơ_h ở</w>
r ác</w>
_ch ất</w>
gia n_l
ượ m</w>
vệ _sinh</w>
sy ria</w>
g ar
v en
quy ến_
thời_ tiết</w>
_t ích</w>
thu ở</w>
học_ viện</w>
agu e</w>
trình_ diễn</w>
lư ỡ
bày_ tỏ</w>
1_ .</w>
k ịch
buôn_ bán</w>
đa_ số</w>
tr út</w>
mở _mắt</w>
bu ồm</w>
tr i
_h iếp</w>
đ ứng_
tr ùng_
tiểu_ hoàn</w>
tho ại</w>
sư_ph ạm</w>
tiề n_t
ho á
ă ng_t
tự_h ào</w>
se a_
0 1</w>
h s</w>
cảnh_ báo</w>
đỏ _mặt</w>
tiế n_bộ</w>
ng ây</w>
_l e
trước_ nay</w>
ng ộ
v ác</w>
tu ân_
phá o</w>
a l</w>
ủ ng</w>
nh an_
z i
n_đ oán</w>
h ệ
gi ờ
th ườ
trí_t uệ</w>
th iểu</w>
r ượt</w>
mười_ lăm</w>
đề _cập</w>
nhà _hàng</w>
ng_đ ại</w>
sơ n_tr
ph í
chỉ _số</w>
thắc_ mắc</w>
liê n_h
bưu_ điện</w>
g ắt</w>
người_ bệnh</w>
phương_ trượng</w>
bảo_ dạ</w>
lâu_ nay</w>
cử _chỉ</w>
ã o_
tho át_
quyến_ rũ</w>
tử_t ế</w>
nhú n_
3 5</w>
tội_ nghiệp</w>
số _phận</w>
khí _thế</w>
mã i_
chủ _trương</w>
đ ấm</w>
nói_ nhỏ</w>
ca u_mày</w>
ð ào_
hình_ dung</w>
qu anh_
phổ _thông</w>
hồi_ phục</w>
ch inh_
tư _thế</w>
ng ọt_
hạ _thủ</w>
b ơ
li c</w>
cảnh_ tượng</w>
h ấ
giải_ phóng</w>
m ắc_
hư_tr úc</w>
khang_h y</w>
ra_ đời</w>
r iê
n_tr ương</w>
le s</w>
duy ên_
new_ yor
m_t ỉm</w>
l iêu</w>
khẩ n_trương</w>
th cs</w>
ngân_ sách</w>
ụ y</w>
thượ ng_t
mu ôn</w>
minh_ giáo</w>
d án</w>
xuất_ thủ</w>
phản_ ánh</w>
_th ái</w>
_ph ụ</w>
ý _t
ð ây</w>
thiên_ nhiên</w>
xa_ xa</w>
người_ lớn</w>
nh ốt</w>
m u</w>
hạ c</w>
dặ n_
kh úc_
hy_ sinh</w>
hoàng_h ậu</w>
0, 000</w>
w hi
tủ m_tỉm</w>
ng ắt</w>
hồ n_
hoà nh_
h ối</w>
ch ẽ</w>
v ặn</w>
la i_l
thì _thầm</w>
s co
khôi_ phục</w>
hiệp_ sĩ</w>
a_ châu</w>
r ộ</w>
thủ _l
m óng</w>
khác_ thường</w>
d ưng</w>
va dim</w>
/0 3/2012</w>
trả _thù</w>
b ề
v iên_
ng ần_
ph ắt</w>
osca r</w>
hạ_ sát</w>
h ông</w>
cơ _hồ</w>
đất_ đai</w>
har ry</w>
bước_ đi</w>
trang_ phục</w>
gia_ kỳ</w>
k h</w>
l uyệ
b ành</w>
độc_ lập</w>
ch à</w>
b ó</w>
trang_ bị</w>
kho ẻ</w>
kho m</w>
d _
chu ỗi</w>
người_ nhà</w>
jo ng-
inter net</w>
địch _vân</w>
gian_l ận</w>
công_ viên</w>
_m ã</w>
cao_ lớn</w>
ươ m</w>
í _minh</w>
tối_ đa</w>
đ ắp</w>
chặt_ chẽ</w>
bụng_ bảo_dạ</w>
nhất_ tiên</w>
ng ước</w>
th ắp</w>
đại_ tướng</w>
v ắng_
nh o</w>
k iệt_
/1 2
v ạch</w>
v ở</w>
kích_th ích</w>
rung_ động</w>
m âu</w>
củ i</w>
t ôm</w>
s ụ
phát_ hành</w>
chuy ể
/ 7</w>
ẻ n</w>
ch ọi</w>
tôn_ trọng</w>
chung_ kết</w>
đ ếm</w>
tha_th ứ</w>
khỏe_ mạnh</w>
k ì</w>
_đ ơn</w>
_tr ang</w>
ẫ y_
n_l ời</w>
kh ơi</w>
chằm_ch ằm</w>
trọ ng_t
k ẻ_
hồ i_h
vă n_đ
mở _miệng</w>
l an_
b ể</w>
tự_ động</w>
hoàng_ cung</w>
dương_ thu</w>
đả _thương</w>
điểm_ huyệt</w>
xuất_ bản</w>
ph ước</w>
nhỏ_ bé</w>
mặt_ mày</w>
hàng_ không</w>
vô _hình</w>
tu ôn</w>
c -
đối_ xử</w>
ngập_ ngừng</w>
khâm_ phục</w>
con_ cái</w>
đấu_ tranh</w>
tình_ cảnh</w>
ng à
ga mes</w>
hư _h
b ra
se a</w>
thư _thư</w>
ng ẫm_
kh iêm_
bá_ quang</w>
_ định</w>
4 8
th ăng_
hung_ thủ</w>
tư _hãn</w>
s ông_
r ơ
chỉ _tr
lu ân_
h ú</w>
giây_ phút</w>
k ênh</w>
đạo_ huyền</w>
tính_ tình</w>
kỹ _năng</w>
lai_l ịch</w>
oba ma</w>
đại_ hội</w>
thị nh</w>
quái_ dị</w>
ch ê
qu ấy_
m an_
kh ép</w>
_h ỏi</w>
sa o_
r ủi_
ngẫm_ nghĩ</w>
quan_ chức</w>
l ùn</w>
b ẩy</w>
nói_ năng</w>
l ược</w>
hài_ nhi</w>
già u_
bu ồng</w>
thiếu_ phụ</w>
s n</w>
r ồi_
nghĩ _lại</w>
kh ung</w>
bộ_g d
chân_ thành</w>
_t ử
r ô
d àn</w>
cam_ kết</w>
ông_ bà</w>
so phi
v iễn_
nữ _tử</w>
ngày_ đêm</w>
nam_ nhân</w>
g ợi_
rộng_ lớn</w>
d iêm_
_tr ung</w>
3 1
ð ại</w>
ð inh_
truyền_th ụ</w>
độc_ đáo</w>
đ o</w>
quê _hương</w>
ng ưu</w>
lo u
_ quan</w>
tiên_ lãng</w>
ma n
đ ẫm</w>
th er
nh ọc</w>
lý _băng</w>
lo n
h e
c ốt_
rủi_ ro</w>
qu ỉ</w>
hi_ bạch</w>
d ày_
chi m_
r ét</w>
_l y</w>
t ào_
du_ khách</w>
x í
ng_h ầm</w>
0 5
p h</w>
đ ắt</w>
th ảy</w>
nhắc_ nhở</w>
b ùng</w>
tr á</w>
đồ ng_h
tr ưởng_th
ghi_ nhận</w>
chúng_ nó</w>
trung_ thành</w>
th ấp_th
nh úc_
luật_ sư</w>
787 9</w>
động_ viên</w>
rùng_ mình</w>
da m</w>
mạ c_
mãi_ mãi</w>
đ êm_
è _nh
_m ôn</w>
r ầu</w>
nhúc_ nhích</w>
chốc_ lát</w>
ð úng</w>
chiến_ trường</w>
3 8</w>
00 ,000</w>
sân_ bay</w>
i a</w>
nói_ chung</w>
l iệng</w>
cảnh_ giác</w>
thanh_ hóa</w>
n ến</w>
ch ăm</w>
c an_
hạ o</w>
_v ọng</w>
thỏ a_th
ồn_ ào</w>
ngó n_tay</w>
tâm_ trí</w>
trị _giá</w>
cho àng</w>
sức_ lực</w>
ph ì
mặt_ nước</w>
lâu_ dài</w>
đại_ vương</w>
lạ m_
x ã
hồ _đồ</w>
gi ữ
ẩ u_
ú m</w>
xuân_ thu</w>
ng_th ả</w>
a _thể</w>
triệu_ chứng</w>
t s
mã _đề</w>
t ít</w>
ng ây_
h ân</w>
ð ông</w>
ng ào</w>
trả i_
tho ng_thả</w>
khiế u</w>
tiề n_l
tr iết_
tiế u</w>
thảo_ luận</w>
s ét</w>
_c ấp</w>
. _t
khuyến_ khích</w>
khu ất_
uy _hiếp</w>
ngh iên</w>
k i</w>
c s
ru s</w>
hồ_ch í_minh</w>
ch i_hiên</w>
bé _
tr inh_
sea_ games</w>
dẫn_ đầu</w>
_ cười</w>
nguyễ n_đ
n ỡ</w>
tạm_ biệt</w>
ri d</w>
kim_ hoa</w>
phiên_ bản</w>
thượ ng_th
bộ _mặt</w>
_th ích</w>
y_ lam</w>
tưởng_ chừng</w>
is ra
g ằn</w>
bất_ thường</w>
tương_ đối</w>
trải_ nghiệm</w>
tranh_ chấp</w>
bất_ chấp</w>
tôn_ quách</w>
ng ẩn_
lo ạ
hỗ n_loạn</w>
_th ẹn</w>
trượng_ phu</w>
th ấu</w>
th ưởng_th
phục_ hồi</w>
ngụ y_
n_th ờ</w>
xem_ chừng</w>
trung_ niên</w>
e w
ũ a</w>
việ n_tr
phá i_
nh ổ</w>
kh iêng</w>
3 8
đau_ lòng</w>
đ ắng</w>
m âu_
n_th ưởng</w>
hàng_h óa</w>
b b
một_ khi</w>
mê nh_
chúng_ mình</w>
uy ên_
quảng_ trường</w>
bù n</w>
văn_h ọc</w>
tr ượt</w>
thời_ khắc</w>
sư u_
nghi_l âm</w>
hiệ u_l
nă ng_
l ĩnh_vu</w>
3 6</w>
m àng</w>
l ô
_h iệu</w>
độc_ giả</w>
r ùa</w>
phải_ rồi</w>
0 4
m ỏ
kho an_
0 8</w>
ita lia</w>
th ợ
ngu ồn_
kh ô
hồi_h ộp</w>
hiệ n_th
g an_
tr ọn</w>
2 9</w>
s s
_l ong</w>
thưởng_th ức</w>
s ạch_
nh ắn</w>
hóa_ ra</w>
danh_ tiếng</w>
mu ôn_
d iêu</w>
bài_ học</w>
ớ m_
l iều_
gm t</w>
ch ộp</w>
đ ẻ</w>
thê _th
phát_ động</w>
ng uyện_
k ẽ</w>
h ố</w>
xo áy</w>
tiếp_ nhận</w>
bốn_ mươi</w>
w indo
ngộ _
ng a
ch ử
thầy_ giáo</w>
d òng_
bình_ thản</w>
n ai</w>
chỉ_tr ích</w>
đối_ đầu</w>
sophi e</w>
như _là</w>
vụ n</w>
l ũ
hương_ chủ</w>
ca m
th ỉnh</w>
nam_ nữ</w>
n_ng ợi</w>
khe n_ngợi</w>
cướ p_
tự _chủ</w>
s ter
chuyên_ môn</w>
đảng_ viên</w>
pa u
ngh iệt</w>
ki a_
hành_ tinh</w>
danh_ hiệu</w>
_ng ạn</w>
thực_ lực</w>
nh ô</w>
ngọt_ ngào</w>
chúc_ mừng</w>
b ãi_
sang_ trọng</w>
cải_ cách</w>
ch ê</w>
nh ìn_
luyệ n_tập</w>
dấu_ vết</w>
_ng ọc_
3 4</w>
vĩ _đại</w>
tự u</w>
tiêu_ biểu</w>
cổ _h
tr ích</w>
lông_ mày</w>
ki hô
gia_ nhập</w>
w il
k iêm</w>
chel sea</w>
/ 6</w>
đại_ thần</w>
thá ch_thức</w>
đ ao_
tiền_ bạc</w>
m ảng</w>
l óe</w>
hi_ vọng</w>
vô_ ích</w>
m ầm_
a_ kha</w>
đột_ lợi</w>
b iện</w>
ch en</w>
chủ _đề</w>
tỉnh_ táo</w>
tuyệt_ vọng</w>
rộ n</w>
ra_ chiều</w>
ð ó</w>
nh ũng</w>
hầu_ hi_bạch</w>
_đ ường</w>
sho w</w>
nhiễ m_
phần_ nào</w>
một_ ít</w>
gó c_
d iệu_
âm_ thầm</w>
xuất_ phát</w>
xu a_
vật_ chất</w>
mâu_ thuẫn</w>
i d
tế_ bào</w>
chư a_thể</w>
bộ c</w>
sứ_ giả</w>
r è
nhậ n_lời</w>
e u</w>
windo w
thời_ đại</w>
dị ch_
toàn_ diện</w>
phản_ kích</w>
ị a</w>
uy _tín</w>
khẩn_ cấp</w>
khu ẩn</w>
vật_ lý</w>
uy nh</w>
l en</w>
khá t_
nguyê n_tắc</w>
ng àn_
gi ê
n_th iện</w>
h ủy_
bình_ quân</w>
ã nh</w>
kim_ jong-
ce lo
thẩm_ mộc_phong</w>
m ồi</w>
l ắp_
kỷ_l uật</w>
hiểu_ phong</w>
c òi</w>
tuy _vậy</w>
t ne
yếu_ ớt</w>
h ổng</w>
b uốt</w>
_th uộc</w>
giải_ cứu</w>
ờ _v
xót_ xa</w>
vương_ quốc</w>
sống_ chết</w>
ngoại_ ngữ</w>
0 .000</w>
đe_d ọa</w>
dữ _liệu</w>
đ ê
ð ằng</w>
thư _sinh</w>
m s</w>
t ơ</w>
nhiệt_ độ</w>
hốt_ hoảng</w>
alexand ra</w>
à ng_
r ủ</w>
lý_t ưởng</w>
đ ậm</w>
tiểu_ bạch</w>
thuốc_ lá</w>
s ỏi</w>
l ẳ
chân_ dung</w>
_ph ần</w>
3 5
đổi_ mới</w>
đồng_ tiền</w>
tr ật_
n_h ữu</w>
0 9</w>
đài_ loan</w>
tr ạch</w>
n_đ êm</w>
kh ung_
e d
_ đạo_
thật_ là</w>
kh ối_
isra el</w>
dễ _chịu</w>
tr ác_
nhà_v ăn</w>
new_yor k</w>
m ép</w>
khuy ên_
hiể u_l
c ặp_
ưu_ tiên</w>
đạo_ sĩ</w>
làm_ gì</w>
ch ó
_h ồng</w>
vận_ dụng</w>
m ị
khổ _sở</w>
vă n_th
hiểu_l ầm</w>
p v</w>
má u_
c ối</w>
000 _
s ập</w>
t ông_
kỷ_l ục</w>
ch inh</w>
phương_ thức</w>
n_đ ảo</w>
_t ải</w>
bình_ yên</w>
an to
cư _dân</w>
bu ôn</w>
9 9
l ặn</w>
cảnh_ giới</w>
ra u_
cổ _quái</w>
cao_ điểm</w>
s ôi</w>
r òng</w>
khó e</w>
khí_ giới</w>
vo i</w>
lâm_ hồng</w>
thần_ kinh</w>
b ùng_
t ấc</w>
t .
gần_ g
ph iệt</w>
g áy</w>
c ần_
0 8
t ăm</w>
n_th ế</w>
ar se
biểu_ tượng</w>
đặ ng_
theo_ đuổi</w>
s ẻ</w>
g en
cơ_ch ế</w>
m ẻ</w>
li ne</w>
kh ất</w>
19 6
thảm_ khốc</w>
ng ất_
đại_ sứ</w>
tổ ng_hợp</w>
huấ n_luyện</w>
binh_ sĩ</w>
sống_ sót</w>
trò _chơi</w>
ướ t_
thu_ thập</w>
lịch _sự</w>
bất_ chợt</w>
tại_ chỗ</w>
thừa_ cơ</w>
nh è_nh
h ì
l ấp</w>
d iện_
đỗ _ph
tr át</w>
phạm_ vi</w>
lạc_ nhạn</w>
gần_g ũi</w>
g o</w>
thổ _ti</w>
khó c_
iề u_l
ch ật_
celo na</w>
tuyệt_ diệu</w>
n ông</w>
k ẹt</w>
4 00</w>
ằ n_
y_ như</w>
v âng_
tí n_hiệu</w>
tí ch
tr iệt_
nh ậm_
biệt_ thự</w>
._ trong</w>
u ần</w>
x ư
kh ương</w>
b út_
t úc_
kiên_ quyết</w>
gi eo</w>
24 /2</w>
ch ạp</w>
r èm</w>
s u</w>
ba n_hành</w>
20 20</w>
x a
tràn_ đầy</w>
mầm_ non</w>
tâm_ tình</w>
nhè_nh ẹ</w>
h ái</w>
4 ,
quá _
sở _dĩ</w>
trung_ tà</w>
r t</w>
nu ôi_
_h ạn</w>
đột_ quyết</w>
vận_t ải</w>
tu ần_l
th ấm</w>
bất_ đồng</w>
cao_ đẳng</w>
ở i_
vi na
trừ _phi</w>
tiểu_ san</w>
hạ_l ệnh</w>
ch ùm</w>
t v
n ảy_
cô _đơn</w>
3 3</w>
phật_ giáo</w>
n_tr ở</w>
n ồng_
kihô tê</w>
ễ n</w>
th ắt</w>
tài_ xế</w>
trắc_ nghiệm</w>
or e</w>
v an_
lương_ thực</w>
hội_ thảo</w>
hành_ chính</w>
ba y_
thu ỷ</w>
r i</w>
m ắt_
ô m_
n ằm_
_l ương</w>
o ly
kín_ đáo</w>
d ục_
o i</w>
chiến_ sĩ</w>
u p</w>
thẳ ng_th
b ận_
_th ảo</w>
vui_ lòng</w>
mất_ tích</w>
kết_ nối</w>
giá ng</w>
ch ồn</w>
th ục_
qu ì</w>
l í
f f
cá p</w>
chu_ đáo</w>
x à
t ấu</w>
nửa_ đêm</w>
_th ừa</w>
đi_ nữa</w>
võ_ nghệ</w>
nh ét</w>
ð ằng_
y ế
tự _t
l ách</w>
chế_ biến</w>
b ú
_l a</w>
tạ _t
t b
run_ run</w>
ch èo</w>
c ai</w>
s ương_
l éo</w>
cả n_trở</w>
độc_ ác</w>
tr o</w>
ì u</w>
bó p</w>
nếu_ vậy</w>
phòng_ ngủ</w>
khủng_ bố</w>
in de
h an
x í</w>
tàn_ nhẫn</w>
mê _m
a n_h
tr ẻ
r u</w>
cơ _c
arse nal</w>
sau_ cùng</w>
b ỉ</w>
ăn_ nói</w>
s ầu</w>
ð ịnh_
oly mpi
ngo n_
a t
uy _lực</w>
l ữ</w>
l ót</w>
bằng_ lòng</w>
_ch âu</w>
thăm_ dò</w>
sạch_ sẽ</w>
ngo ãn</w>
me s
bắt_ tay</w>
thần_th ái</w>
tai_ nghe</w>
nh ung</w>
nguồn_ gốc</w>
mã _
nguyện_ vọng</w>
mềm_ mại</w>
âu_ thần</w>
ẻ m</w>
d ọa</w>
thầy_ trò</w>
chế_t ạo</w>
ch át</w>
tướng_ mạo</w>
n ốt</w>
ngữ _văn</w>
lon don</w>
hào_ kiệt</w>
_x ét</w>
độ ng_đ
th ô
n_h ở</w>
hoà n_thiện</w>
thề m</w>
r ụng</w>
cơ_ quan_
bu ồ
tuần_l ễ</w>
sai_ phạm</w>
liều_ mạng</w>
giấc_ ngủ</w>
v ầng</w>
trực_ tuyến</w>
tiểu_ thuyết</w>
nhà _t
m c</w>
b ần_t
vi rus</w>
n áo</w>
l ượn</w>
buồn_ rầu</w>
_ giúp</w>
trưởng_th ành</w>
thu ỷ
ng ời</w>
lên_ ngôi</w>
_th anh_
rè n_luyện</w>
nông_ nghiệp</w>
mơ _
giàu_ có</w>
dã _c
_ph ú</w>
s en</w>
đạ t_
khảo_ sát</w>
hớ n_hở</w>
o m</w>
bả n_đồ</w>
a u
thứ_ ba</w>
o l</w>
lo_ âu</w>
buồn_ cười</w>
b è</w>
_r ơi</w>
thống_ kê</w>
quốc_ phòng</w>
ng_l ẫy</w>
n i_
mơ _hồ</w>
k ê
đ óa</w>
tình_ nguyện</w>
n ín</w>
hư _ngạn</w>
l l
hôn_ nhân</w>
đại_ tá</w>
nhỏ _t
h âm_
đỏ _b
đắc_ tội</w>
va len
thương_ yêu</w>
s úc_
ngoan_ ngoãn</w>
ng_l ực</w>
là nh_
l ánh</w>
go og
chuyên_ nghiệp</w>
ch iều_
tôn_ giả</w>
thỏa_th uận</w>
pe ter</w>
_tr ữ</w>
ð ông_
quy_ chế</w>
ngưỡng_ mộ</w>
i d</w>
th ằng_
v uốt_
quận_ chúa</w>
cổ_h ọng</w>
t ơ
liên_ kết</w>
ðằng_ dực</w>
t óm_
âm_ dương</w>
thương_ tâm</w>
dặn_ dò</w>
w or
c ọp</w>
tham_ nhũng</w>
s to
e u
b ốc_
r áng</w>
p re
nông_ thôn</w>
hì _h
hà_t ĩnh</w>
căn_ bệnh</w>
đ úc</w>
whi tne
t áng</w>
nh am</w>
kịch _liệt</w>
cung_ nữ</w>
đ ói_
x ả</w>
đồng_ nghiệp</w>
đạ c</w>
ta gs
k em</w>
_d ung</w>
quả ng</w>
kho ái_
h c
d a_th
p or
thập_ bát</w>
nóng_ nảy</w>
i phone</w>
dễ _thương</w>
cười_ cười</w>
thứ_ sáu</w>
th iêu</w>
sá ng_rực</w>
phụng_ tam</w>
khiế u_
đ ính</w>
tôn_ ân</w>
nh àn_
động_t ĩnh</w>
đ ôn_
sắc_ bén</w>
s âm</w>
ph àm_
p t</w>
thần_ kỳ</w>
g à
cố _tình</w>
r ỉ</w>
784 1</w>
ở m</w>
b ền_
làm_ chủ</w>
hỏi_ thăm</w>
ð ược</w>
ngh èo_
mai_ phục</w>
quý _phái</w>
cấp_ cứu</w>
tuy ên</w>
mục_ quang</w>
l ảo_
câu_ hỏi</w>
u ế</w>
thiên_ địa</w>
th e</w>
phỏng_ vấn</w>
la y_
ướ i_
nghĩa_ phụ</w>
m_ c
lảo_ đảo</w>
g ra
g ai</w>
_th ủy</w>
tạ o_
quá n_
ngẩ ng</w>
8 /3</w>
th uyên</w>
bằng_ chứng</w>
trở _l
kỹ _sư</w>
b ướ
đề u_
v a_
tổ ng_đ
nghiệ p_
k _
con_ cháu</w>
bần_t ăng</w>
tràn_ ngập</w>
ba n_đêm</w>
đỏ_b ừng</w>
mênh_ mông</w>
t ý</w>
hous ton</w>
ng_th ẳng</w>
kị ch_
bảo_ tàng</w>
biế n_hóa</w>
v ù
thủ ng</w>
phòng_th ủ</w>
lý_h à
trật_ tự</w>
thái_ bình</w>
thành_ phần</w>
c ài</w>
bức_ xúc</w>
x ê
trung_ phụng</w>
sáng_ mai</w>
_ việc</w>
y ể
x ứng</w>
tr ánh_
ngọc_ sơn</w>
in i</w>
xa_ lạ</w>
trị nh</w>
inde x</w>
da_th ịt</w>
cộ t_
c ợt</w>
_h ậu</w>
đại_ lý</w>
qu ật</w>
mất_ mạng</w>
đạo_ diễn</w>
ga y_
chung_ cư</w>
joh n</w>
tố _cáo</w>
t ọa</w>
s ớm_
g ấu</w>
_t ầng</w>
ố p</w>
đại_ quân</w>
thấp_th oáng</w>
p m_
m ập</w>
hoàn_h uyền</w>
gi ết_
bất_ kể</w>
trái_ lại</w>
toá n_học</w>
thiên_th ần</w>
_n ạn</w>
n ể
m ốt</w>
787 1</w>
võ _đ
r ắn_
n ếp</w>
diễ m_
b uột_
ấp_ úng</w>
ánh_ mắt</w>
tê n_tuổi</w>
tr ọ</w>
th ẹn</w>
mô n_hạ</w>
g ợi</w>
ba r</w>
b ê</w>
tả _hữu</w>
nh iế
r ạ
buột_ miệng</w>
_b ích</w>
_ gia</w>
vương_ phủ</w>
kẻ_ địch</w>
khuy ết_
m iêu</w>
kiều_ phong</w>
g ắng_
_th ượng</w>
tr uyệ
thương_ lượng</w>
nhẫn_ nại</w>
n a_
lý_hà n_thu</w>
ra_ sức</w>
nhà _cửa</w>
4 7
sơn_tr ang</w>
qu ất</w>
nguyễn_ văn_
en ni
m ị</w>
linh_ hồn</w>
khủng_ hoảng</w>
d ồn_
chủ _trì</w>
c ởi_
vô _lễ</w>
và o_
m ốc</w>
le r</w>
_t ập</w>
đ iể
ng_l âm</w>
kh ước</w>
cơ_quan_ chức_năng</w>
tinh_ tú</w>
te en</w>
s ưa</w>
mã _số</w>
hành_ sự</w>
bé_ nhỏ</w>
đẩy_ mạnh</w>
vùng_ đất</w>
ph ổi</w>
n ề
n iêm_
b el
h ệt</w>
_ o
toàn_ cảnh</w>
th a_
kỳ_d iệu</w>
4 2</w>
ng_l ợi</w>
ng ton</w>
l anh_
đột_ biến</w>
đườ ng_hầm</w>
tuyết_ kiều</w>
_thị _trường</w>
thạ ch
thiên_t ôn</w>
n ặc</w>
m òn</w>
_s ở
_s ản</w>
9 0</w>
nhảy_ vọt</w>
lã i</w>
hô_h ấp</w>
tú m</w>
sá ch
mi lan</w>
bộ _dạng</w>
b úa</w>
_th í</w>
s t
o an_
n ô
khéo_ léo</w>
giảng_ viên</w>
điên_ cuồng</w>
th ải</w>
th ìn</w>
r ước</w>
e i
_h ại</w>
z u
th ắ
ch ổ</w>
đỗ_ph ục_
thê_th ảm</w>
số _
nữ _lang</w>
không_ lẽ</w>
c la
bất_ hạnh</w>
tò a_
kiếm_ thuật</w>
trở_l ên</w>
th ô</w>
lo áng</w>
chủ_nh iệm</w>
chu ồn</w>
ch ơi_
quân_ trung_phụng</w>
nhún_ vai</w>
nh ì</w>
gi ó
g ầy_
sự_ cố</w>
no m</w>
2 .
đối_ tác</w>
đ ằng_
trầm_ lạc_nhạn</w>
tiền_t ệ</w>
thắng_ bại</w>
nóng_ bỏng</w>
n_n ản</w>
k ề
chá n_nản</w>
_th ải</w>
xuất_ thân</w>
vô _danh</w>
tr ục</w>
s ói</w>
ng_ d
x ảo</w>
u ông</w>
_c ôi</w>
thù _
lư ỡng</w>
3 .
ph ế</w>
ng ói</w>
mồ _côi</w>
giới_ tính</w>
giảng_ dạy</w>
0 5</w>
ph ất_
kết_ hôn</w>
kháng_ cự</w>
f a</w>
d ài_
cổ _
tạ_ ơn</w>
bức_ bách</w>
trộ n</w>
nhỏ_t uổi</w>
người_ mẫu</w>
nga_ mi</w>
gi ãn</w>
bắt_ giữ</w>
ng ạch</w>
_l ão</w>
ð ại_h
l d
dày_ đặc</w>
x an
nh ựa</w>
kỳ _vọng</w>
kí p</w>
không_ chừng</w>
kh ất_
anh_ chị</w>
đỗ_phục_ uy</w>
xét_ nghiệm</w>
s z
o acute</w>
bộ c_
an_l ong</w>
o li
nh eo</w>
ng u</w>
khắc_ phục</w>
gr ay</w>
sự _tình</w>
chữ a_
cho ạng</w>
- la</w>
v ượt_
m en
kh ô_
w al
thá c_
cân_ nhắc</w>
trái_ cây</w>
sát_ khí</w>
bà n_t
ap ore</w>
ước_ mơ</w>
tội_ phạm</w>
t ệ
nhẹ_nh õm</w>
la n
d iên_
ca n
sửa_ đổi</w>
b ê
_ng ọc</w>
thạch_th ất</w>
bạo_ lực</w>
_d ày</w>
4 6
4 5
v ái</w>
ng ẫu_
gia_ cát</w>
bất_ tất_phải</w>
tư _d
cấu_ trúc</w>
b ẩn</w>
a b
ọ a_
x ôn_
thủ y_thủ</w>
t óm</w>
huyề n_th
ð ổng</w>
tr iệ
tiêu_ thụ</w>
_ già</w>
xe _hơi</w>
ch é
ð ến</w>
tr ì
o ái</w>
cân_ bằng</w>
. _th
x ưởng</w>
t ề
h uố
_h ọc</w>
0 3</w>
ti ne</w>
s ầm</w>
n ồi</w>
7 5</w>
tính_ chất</w>
tiểu_ trừng</w>
s út</w>
pm_ gmt7
n_l ượng</w>
cứ ng_
ca_ khúc</w>
đạo_ lý</w>
thắ ng_lợi</w>
giai_ nhân</w>
c uống</w>
đ ăm_
tống_ khuyết</w>
tiểu_ muội</w>
t ản</w>
huố ng_hồ</w>
_l ộ</w>
_kh ẽ</w>
á n_
lẳ ng_lặng</w>
kh ải</w>
hành_ hạ</w>
cặp_ đôi</w>
vận_ khí</w>
tụ _tập</w>
r âu_
qu ầy</w>
khiếp_ sợ</w>
è n_
trừng_ phạt</w>
mệnh_ lệnh</w>
b ời</w>
đặ ng</w>
vũ _
triệu_ mục</w>
kiến_ nghị</w>
dự_ báo</w>
bởi_ vậy</w>
tiêu_ dao</w>
đau_ đầu</w>
xung_ đột</w>
bấy_ nhiêu</w>
_đ ốc</w>
tr ăm_
s tr
nh ũ
động_ cơ</w>
xâm_ nhập</w>
tiêu_ cực</w>
do_ vậy</w>
_đ ình</w>
_d ục</w>
đích_th ực</w>
p a</w>
ðiền_ ðan</w>
mặt_ khác</w>
là o</w>
g ò</w>
không_ chỉ</w>
hàng_ xóm</w>
chỉ _thị</w>
ồn_ cuộn</w>
hoà n_t
e circ</w>
cu ồn_cuộn</w>
b ồng</w>
đại_ sự</w>
thụ y_
n ếm</w>
ma_ túy</w>
sing apore</w>
mo n
788 9</w>
l in</w>
bất_ lợi</w>
xôn_ xao</w>
lòng_ dạ</w>
linh_ hoạt</w>
ho an_
dũng_ cảm</w>
chậm_ chạp</w>
bối_ cảnh</w>
tình_ cờ</w>
tung_ sơn</w>
qu ăng</w>
ng õ
n_t ú</w>
mu a_s
dự _thảo</w>
chức_ vụ</w>
b ẻ</w>
ít_ ra</w>
tranh_ thủ</w>
nhà_ báo</w>
mũ i_
họ a_
b ọt</w>
ỏ a_
yêu_ thích</w>
ca y_
đ iếu</w>
xấu_ xa</w>
s i_
ng_th ầm</w>
mua_s ắm</w>
lẽ _ra</w>
hành_ khách</w>
hiế n</w>
chiến_ dịch</w>
4 4</w>
v ò</w>
tu ệ</w>
r ỗng</w>
công_ lập</w>
thẳng_th ắn</w>
h ưởng_
ưu_ đãi</w>
v ẫy_
m_ đ
b ậy</w>
b ấm</w>
động_ vật</w>
lang_ quân</w>
g ù</w>
d inh</w>
b ồ</w>
phong_ trào</w>
do ã
_ph ạt</w>
27 30
ð ình_
x u</w>
nhà _tr
lo a</w>
bỏ _rơi</w>
ban k
/1 1
tổng_ giám_đốc</w>
quản_ gia</w>
hải_ quân</w>
ha m</w>
gi ăng</w>
đông_ đảo</w>
tự _tử</w>
chỉ nh_
3 7</w>
đầu_ gối</w>
trương_ thúy_sơn</w>
thân_ mật</w>
t u_l
kinh_ mạch</w>
ả m_
đặt_ chân</w>
vậ n_hành</w>
kì m</w>
áo_ quần</w>
trịnh_ khắc_
t ồn</w>
sa n_
ngắ n_ng
lộ t</w>
h ao</w>
chuy ền</w>
22 /2</w>
b ắp</w>
7 _
ườ m</w>
phù _
phá o_
ng ãi</w>
chử i_
ch ước</w>
whitne y_
trầm_ mặc</w>
thầy_ cô</w>
h y
coi_ trọng</w>
_d âu</w>
si mon</w>
nhiễ u</w>
n âu</w>
kinh_ khủng</w>
u ổng</w>
tập_ kích</w>
21 /2</w>
toà n_thể</w>
th âu</w>
s mar
p lu
ng_th ang</w>
ng ơ</w>
hàm_ dương</w>
bàn_ bạc</w>
> >
quan_ niệm</w>
n ít</w>
kinh_ vũ</w>
e t</w>
áo_ dài</w>
c ống</w>
xoay_ chuyển</w>
trung_ hoa</w>
lớ p_học</w>
hì_h ì</w>
hoàng_ tử</w>
8 8
hù ng_h
goog le</w>
d ỗ</w>
tậ p_l
tạ_t ốn</w>
th ây</w>
t ồi_
hành_ tung</w>
d iệt_
coi_ chừng</w>
xa_x ôi</w>
r y_
công_ kích</w>
ch ọ
a se
1 50</w>
thất_ kinh</w>
nh ục_
chủ ng</w>
7 ,
sinh_ nhật</w>
_t ự</w>
đâu_ đó</w>
dự _trữ</w>
bình_ luận</w>
đề _tài</w>
ð oạn</w>
v ạt</w>
tô lic</w>
rượ u_
chân_ trời</w>
đạt_ chí</w>
whitney_ houston</w>
trịnh_khắc_ sảng</w>
n_ng ắn</w>
hổ _thẹn</w>
giấy_ tờ</w>
ự u</w>
đ ục</w>
to ria</w>
th iệu_
bỗng_ dưng</w>
bận_ rộn</w>
b ô
_h à</w>
201 7</w>
đỗ _thiên_
truyệ n_ngắn</w>
kinh_ tuấn</w>
hâm_ mộ</w>
. _v
te l</w>
3 1</w>
ti m_
nà n</w>
d ưới_
tiê n_tử</w>
th êu</w>
ký_ ức</w>
dự _đoán</w>
ă ng_h
ther ine</w>
r ào</w>
n ấu_
_le ague</w>
tối_ thiểu</w>
tư_mã _đạo_
lộ c_
bộ_gd đt</w>
a us
th ừ
kính_ trọng</w>
hầu_ hy_
g ươm</w>
chủ _ý</w>
chu ồng</w>
b ừa</w>
đè n_
thê _lương</w>
tham_ quan</w>
t ế
o a</w>
đù a_
ng_t ác</w>
hi u</w>
cao_ nhân</w>
x ơ</w>
tiễ n_
chinh_ phục</w>
_ph ạm</w>
nh àn</w>
một_ mặt</w>
thứ _trưởng</w>
h ầm_
ce s</w>
0 2</w>
ẽ n</w>
ù y</w>
thủy_ chung</w>
nh ăn</w>
n_h ạn</w>
m ớ</w>
h ả
gia n_t
càn_ khôn</w>
bực_ mình</w>
_h ội_
trợ _giúp</w>
ti a_
phấn_ khởi</w>
nh ức</w>
n_đ ồn</w>
n ức_
u i</w>
lơ _l
bất_ lực</w>
bao_ trùm</w>
a_th ượng</w>
đêm_ tối</w>
ð o
th ố
kỵ _binh</w>
c ôn_
đánh_ chết</w>
ngụ m</w>
la nd
hồng_ y</w>
chữ _
20 /2</w>
t ánh</w>
sá ng_l
0 _%</w>
đ ắc</w>
tay_ mặt</w>
hoan_h ô</w>
_c ung</w>
đoàn_ dự</w>
l ờ_mờ</w>
vô _dụng</w>
v én</w>
trọ ng_l
tiềm_ năng</w>
g ởi</w>
chấm_ thi</w>
_d ạ</w>
ý _chí</w>
x á
h ụt</w>
danh_ dự</w>
đ uốc</w>
vũ _văn_
sa n
re al
định_ hướng</w>
kí ch_động</w>
gia m_
v ùi</w>
tr ảo</w>
ph ỏng</w>
b in</w>
nghiêm_ nghị</w>
thất_ thanh</w>
bình_ an</w>
tu ấn_
r ực</w>
quái_ vật</w>
m ỏi</w>
i g
học_ phí</w>
ch ả
bền_ vững</w>
v ắt</w>
hoàng_h ôn</w>
bộ_ đội</w>
b iê
ă ng
nghẹ n_ng
nghẹn_ng ào</w>
gad ha
bắt_ gặp</w>
_h ồn</w>
0 3
ề_ nghiệp</w>
động_đ ậy</w>
v an
tho ái</w>
ta len
sz ka</w>
ngh ề_nghiệp</w>
mau_ mau</w>
0 7</w>
định_ thần</w>
đ t_
ou l</w>
l ây_
cười_ kh
che _ch
bar celona</w>
xe_ đạp</w>
thiê u_
rõ_r ệt</w>
r ắc</w>
ngọc_ trí</w>
m iễn</w>
k ẹo</w>
bí ch_d
ộ c_
p _hội</w>
n úp</w>
kh ê</w>
h ưu</w>
cl b</w>
b úng</w>
o ạ</w>
bí _quyết</w>
thực_ là</w>
thành_ tựu</w>
nu de</w>
tư _nhân</w>
tiền_l ương</w>
ch ói</w>
ít_ nhiều</w>
lãng_ mạn</w>
tập_l uyện</w>
b ét</w>
_c ửu</w>
tr âm</w>
thiê n_đ
đ iê
vợ _con</w>
lo n</w>
giáng_ sinh</w>
4 6</w>
đỗ_thiên_ ngạc</w>
tranh_ luận</w>
tr ắc</w>
hồ ng_l
chính_ đạo</w>
_m ỹ</w>
ti n_đồn</w>
ta xi</w>
t ụt</w>
sa_ mạc</w>
r ủa</w>
qu ầ
khổng_ minh</w>
h iển</w>
dù _
cho áng_
thạch_th anh_
ngắn_ng ủi</w>
l ồng</w>
cổ _đông</w>
ch áo</w>
thời_ hạn</w>
siêu_ phẩm</w>
hoa_h ậu</w>
cần_th ơ</w>
ca n_đ
nam_ giới</w>
dạ _dày</w>
chọ n_l
loạ ng_
h eo</w>
b ọn_
tư_d uy</w>
tú i_
t ầ
l ượm</w>
chắc_ hẳn</w>
chu_ cơ</w>
ch_th ủ</w>
b ẩm_
s ực</w>
ph ùng</w>
l ậ
gadha fi</w>
f an</w>
d ải</w>
bóng_ dáng</w>
đóng_ cửa</w>
đ ê</w>
vi e</w>
u ấn</w>
s óng_
k ẹp</w>
ch ì</w>
can_đ ảm</w>
thạch_thanh_ tuyền</w>
hứ a_h
h ắn_
g ả</w>
e mail</w>
cùng_ với</w>
c ay</w>
bảo_ ngọc</w>
bích_d ao</w>
tăng_ giá</w>
r ỗi</w>
ph ì</w>
nh ạy_
hắn_ ta</w>
công_ cụ</w>
thỏa_ mãn</w>
l ỏng</w>
h n</w>
wa shi
tà o_th
thông_ điệp</w>
sĩ _quan</w>
for d</w>
dự_ định</w>
ch ậu</w>
ýt_ nữa</w>
tứ _
trang_ trại</w>
quân_ tử</w>
kh ẩn</w>
b ầm</w>
_x ác</w>
đ ật</w>
văn_ minh</w>
thảo_ nguyên</w>
nh ói</w>
gi ở
doanh_ nhân</w>
d an
_ đầu</w>
thư _phòng</w>
thúy_ ái</w>
lão_th ân</w>
li a_
in ter</w>
d ầy</w>
chẳng_ mấy_
ð ạo</w>
ph ồng</w>
bọn_ ta</w>
ĩ u</w>
đồ _chơi</w>
vũ_văn_h óa_
ngh iện</w>
khiế t</w>
hình_ dáng</w>
dương_ hư_ngạn</w>
cục_ diện</w>
chìa_ khóa</w>
c âm</w>
talen t</w>
ngọc_ nghiên</w>
huyết_ áp</w>
h ài</w>
thuốc_ độc</w>
t anh</w>
r ầm_
/ 3
đại_ chiến</w>
điện_ ảnh</w>
thù y_
n_l ộn</w>
giả n_
giá c_
g õ
b óc</w>
ắ n_b
ử u_
ầm_ ầm</w>
trá ng_
cư u</w>
c õng</w>
_th iện</w>
_l ợi</w>
19 4</w>
y ết_
t ịch
s ủa</w>
ra_ mặt</w>
r en
l ứa</w>
võ ng</w>
ngẫu_ nhiên</w>
kh ôn_l
v áng</w>
gh en</w>
_ph ủ</w>
tr ẻo</w>
sưu_ tập</w>
m iêu_
loạng_ choạng</w>
kh iêm</w>
trung_ học</w>
nghiêm_ khắc</w>
mau_ chóng</w>
_d uyệt</w>
đón_ tiếp</w>
khoan_ khoái</w>
chút_ nữa</w>
_c ốc</w>
đồ_ đạc</w>
thằng_ cha</w>
n_th iên</w>
n úi_
bộ_l ạc</w>
b ù</w>
v ẳng</w>
lật_ đật</w>
h ẹ
ụ t_
quy_ trình</w>
ngu_ ngốc</w>
n_l ong</w>
n ang</w>
c p</w>
_th ách</w>
ắn_b ó</w>
thử _thách</w>
nguyên_ cát</w>
mo u
g ắn_bó</w>
đặ n</w>
truy _t
tr ơ
hiện_ diện</w>
thư_ ký</w>
p_t ấp</w>
nh ơn</w>
g i</w>
chậm_ trễ</w>
ã y_
hấ p_tấp</w>
f t</w>
dân_ chủ</w>
buông_ tha</w>
thích_ khách</w>
thân_ thiện</w>
r _
quyề n_lợi</w>
n_v ẹn</w>
lo ng_l
hạ m</w>
hoà n_độ</w>
ồ _
bất_ đắc_
đ iêu</w>
s ùng_
n_t ảng</w>
hưng_ phấn</w>
x ắn</w>
tài_ trí</w>
nề n_tảng</w>
k ar
dư ỡng_
bắt_ cóc</w>
5 6
3 9</w>
sắp_ đặt</w>
phong_ phú</w>
hộ _t
gh e
dị _thường</w>
a_s ĩ
l ẻn</w>
tuổi_ trẻ</w>
tiên_ phong</w>
p_l ời</w>
khe _khẽ</w>
bản_ chất</w>
4 9
xế p_h
r ống</w>
ch ôn_
cao_ tăng</w>
xếp_h ạng</w>
n ôn</w>
ma_ trí</w>
chân_ chính</w>
4 8</w>
pháp_l ý</w>
ca i_
đị ch_thủ</w>
tội_ lỗi</w>
lời_ lẽ</w>
5 ,
v ốn_
sương_ mù</w>
quyết_ liệt</w>
mừ ng_thầm</w>
c ằm</w>
bầu_ không_khí</w>
nh ấn</w>
n ứt</w>
b ành_
lễ _hội</w>
doanh_ thu</w>
ch ao</w>
hết_ lòng</w>
go et
cao_ hứng</w>
l ội</w>
gõ _cửa</w>
đả o_
vòng_ tay</w>
v ẹn</w>
phi li
ng ự
vui_ sướng</w>
tuyển_ dụng</w>
say_ mê</w>
nghiê ng_
ng_h ải</w>
h ỡi</w>
h đ
ch ar
bình_ nhi</w>
b e</w>
5 7</w>
0 6</w>
u ỷ
tổ n</w>
trụ _sở</w>
phản_ bội</w>
lơ_l ửng</w>
l óc</w>
bả y_
ám_ ảnh</w>
thời_ cơ</w>
nổi_ danh</w>
dứt_ khoát</w>
v iễ
trúng_ tuyển</w>
quỷ _vương</w>
nội_ bộ</w>
ngà y_th
la ng_thang</w>
l ắp</w>
c âu_l
_s inh_
_m ad
thanh_ thành</w>
h ốt</w>
cơ_c ấu</w>
cro ss</w>
xo ng_
tây_ bắc</w>
r ảo</w>
mù a_
điều_ động</w>
tho ái_
mà_ lại</w>
16 /2</w>
0 1
ng ao_
_b ang</w>
- đt</w>
e _ng
a _thế</w>
đồng_ bào</w>
tà _
trang_ trí</w>
thiết_ lập</w>
phụ _thuộc</w>
ng óng</w>
bệnh_ tật</w>
. _h
nương_ nương</w>
nho_ nhỏ</w>
nh ức_
ng ần</w>
hôn_ mê</w>
hiệ t_
d ượng</w>
a_h è</w>
tuyệt_ thế</w>
tin_ cậy</w>
phương_ hướng</w>
ng_đ ắn</w>
n_l ẻ</w>
la_h án</w>
h òng</w>
c úng</w>
xấu_ xí</w>
song_ song</w>
kinh_ điển</w>
gi ỡn</w>
đôi_ chút</w>
hưởng_ ứng</w>
cất_ bước</w>
4 7</w>
đô -la</w>
x ổ</w>
vô_v i_
vi t
trung_ nguyệt</w>
sinh_ sống</w>
phân_ phối</w>
phá _h
o f
nhạc_ sĩ</w>
cộng_ sản</w>
đội_ trưởng</w>
vẫy_ tay</w>
pau l</w>
nam_ tử</w>
kiên_ nhẫn</w>
ăn_ mày</w>
nhân_ lực</w>
my szka</w>
m ô_t
b ửu_
v ấ
v ườ
tuyên_ truyền</w>
tiểu_ sư</w>
tiêu_ hóa</w>
thá o_
bất_ bình</w>
26 /2</w>
đo à
xan tr
khả _hãn</w>
c t
ướ n</w>
tu ỳ
plu s</w>
náo_ nhiệt</w>
n ể</w>
_ho ại</w>
v ặt</w>
gi ã</w>
d iêu_
bất_đắc_ dĩ</w>
_tr i</w>
− _
u 23</w>
tài_ khoản</w>
th ót</w>
r an</w>
nhan_ sắc</w>
n da</w>
d iệm</w>
b ri
ấ ng</w>
tr u</w>
thực_ hư</w>
rồi_ sao</w>
real _mad
phòng_ chống</w>
m ồng</w>
kiến_ khang</w>
hoàn_t ất</w>
h er
óa_ mạ</w>
th óa_mạ</w>
sáng_ suốt</w>
ỡ _ng
m w
k ế
hà ng_r
e le
hầu_ hạ</w>
cao_ su</w>
uy ễn</w>
tí ch_l
tránh_ né</w>
thu a_
rạ ng_rỡ</w>
quân_ sĩ</w>
ngữ _
sa _thải</w>
n ạt</w>
lộ n_
hóa_ giải</w>
d iên</w>
công_ lao</w>
chí _
nhiệt_ tình</w>
lo an_l
vị nh</w>
thứ _tư</w>
ch ăn_
ban_ nha</w>
đồng_ loạt</w>
vietnam net</w>
tương_ ứng</w>
rư ỡi</w>
r ể</w>
ngo ảnh_
mù _m
h ò</w>
chu a_
_h uyền</w>
200 7</w>
đàm_ phán</w>
tu_ hành</w>
ni a</w>
ng_th ần</w>
a dam</w>
õ i_
vi n
tức_ thì</w>
tình_ báo</w>
thố ng_lĩnh</w>
hầu_hy_ bạch</w>
_b ụng</w>
ọ ng_
nh oáng</w>
công_ chúng</w>
„ _h
đ ôn</w>
ng ạt</w>
loan_l oan</w>
hiệt_ lợi</w>
g ãi</w>
bóng_ người</w>
_m i</w>
giê ng</w>
o d</w>
n_s óng</w>
m ô_tô</w>
lợi_ thế</w>
l ở</w>
cấp_ bách</w>
ữ a_
we b</w>
v er</w>
tài_ trợ</w>
thủ _
hứa_h ẹn</w>
cô _dâu</w>
đông_ phương</w>
đà o_th
ph ô
ni_ cô</w>
cụ m</w>
bé o_
bu ýt</w>
_t o
xe _tải</w>
tổ _sư</w>
thái_ sơn</w>
ste vie</w>
phạm_ tội</w>
dụng_ cụ</w>
5 7
trang_ điểm</w>
thử _nghiệm</w>
thiệt_ hại</w>
v ắ
lu i_
kh ùng</w>
d uyệt</w>
văn_ hoá</w>
tiêu_ phong</w>
lý _m
la y
ch âm_
6 ,
real_mad rid</w>
lấp_l oáng</w>
l ồ
em_ trai</w>
công_ văn</w>
ð ã</w>
mặt_ trăng</w>
huyền_ ðức</w>
chẳng_mấy_ chốc</w>
x ảo_
trương_ tam_
thầ y_th
ase an</w>
23 /2</w>
đ ẽ</w>
t ấp</w>
nảy_ sinh</w>
viện_tr ợ</w>
su ýt_nữa</w>
smar t
l ân</w>
h ắng_
e s</w>
_huy ết</w>
đối_ địch</w>
k ẻo</w>
c õi_
th ính</w>
hào_ quang</w>
y ết</w>
tối_ qua</w>
trọ ng_đại</w>
r en</w>
l _
hã m_
doanh_ trại</w>
cừ u_
cảnh_ cáo</w>
long_l anh</w>
hàng_r ào</w>
chủ_ nghĩa</w>
6 3</w>
3 9
toàn_ quốc</w>
ph ầ
mạ ch_m
dồn_ dập</w>
_s ợ</w>
- index</w>
ă n_th
ph ẳng</w>
ph im_
o ne</w>
b ỉ
784 3</w>
s ăn_
l é
h ấp_th
bình_ nguyên</w>
thanh_ thế</w>
phi_ cơ</w>
m ây_
khởi_ tố</w>
cơ m_
_g ìn</w>
- r
tiế n_tr
ph út_
giữ _gìn</w>
biến_ cố</w>
nhũ n</w>
ng ượng_
n_t iện</w>
lạ p</w>
hoàng_ gia</w>
cười_ hì_hì</w>
đ ẳng_
x éo</w>
văn_đ ế</w>
tối_ cao</w>
thầy_th uốc</w>
phủ_ nhận</w>
d iều</w>
bàn_ chân</w>
đ iểu</w>
thủ ng_thẳng</w>
giám_ thị</w>
5 1</w>
ka therine</w>
ghi_ nhớ</w>
chống_ cự</w>
c ù
thúc_ bảo</w>
r úng_
n n</w>
h ột</w>
6 5</w>
/ 5</w>
đẹp_ đẽ</w>
xư ng_h
tham_ khảo</w>
quận_ công</w>
dương_ thống</w>
đôn_ kihôtê</w>
tận_ dụng</w>
ng ùng</w>
khách_ sáo</w>
chu a</w>
t ải</w>
ho i</w>
h ấp</w>
bực_ bội</w>
_ph út</w>
y ếm</w>
v an</w>
thiếu_ soái</w>
phụ _
n_t ả</w>
5 6</w>
đ ú
tự _th
k y
f u
aus tra
_x ã</w>
ợ m</w>
đối_ thoại</w>
đình_ chỉ</w>
quang_ minh</w>
o circ</w>
hồ ng_th
trần_ cận_
th ắt_
m âm</w>
khúc_ khích</w>
in o</w>
_v ũ</w>
đám_ mây</w>
tình_ nhân</w>
tiểu_ quyên</w>
rúng_ động</w>
o x
giúp_ việc</w>
c ũ
bao_ phủ</w>
4 1</w>
ðo àn_
y_ học</w>
vị t</w>
tư_mã_đạo_ tử</w>
tâm_ linh</w>
qu ẩn</w>
nỗ i_
mô_t ả</w>
khách_ quan</w>
d en
tố p</w>
tỉ _lệ</w>
tho a</w>
l ay</w>
khoa_học_ tự_nhiên</w>
hứ a_sĩ
giả o_
cú m_
. .
„_ ta</w>
tr ai_
thủ_l ĩnh</w>
thú _
so ng_th
say_ sưa</w>
giờ _phút</w>
v ỡ
tự_ sát</w>
sứ_ quán</w>
v al
tr ữ</w>
th ao_
t áo_
huyề n_thoại</w>
cây_ cối</w>
th ôn_
t ột_
r ên</w>
n âng_
kỷ_thiên_th iên</w>
_l ệnh</w>
vit toria</w>
tr ú
to n_
tĩnh_ chi</w>
tiế c_
kh an</w>
chữa_ trị</w>
6 4</w>
đào_ tẩu</w>
tu ột</w>
trọng_t ài</w>
trườ ng_th
nhà _b
kiế n_thành</w>
d àn_
chứ a_
đa_ dạng</w>
nhìn_ nhận</w>
m p
lâu_ đài</w>
4 9</w>
ố ng_h
ú y_
xét_ xử</w>
thiệt_ mạng</w>
v e_
p_ đổ</w>
l ựa</w>
biế c</w>
tỷ _phú</w>
thủy_ sản</w>
r ọi</w>
khốn_ khổ</w>
i_h ình</w>
giáo_ dục_
d ừa</w>
u m</w>
tồi_ tệ</w>
n ẩy</w>
co l
c ập_
ầ u_l
tiện_ nghi</w>
phương_ diện</w>
n_l inh</w>
a f
ân_ sư</w>
tr ọc</w>
tr iết</w>
tho ả
sốt_ ruột</w>
bồ _t
bó p_
_t uyệt</w>
ô tô</w>
tính_ năng</w>
h ủ</w>
ca_ nhạc</w>
võ_đ ương</w>
trưởng_ phòng</w>
co r
ch ạm_
đe_d oạ</w>
vô _lượng</w>
từ_b ỏ</w>
thông_ cảm</w>
nh ấp_
ngày_ một</w>
ma l
5 2</w>
t ắt_
kh ả</w>
790 1</w>
/12 /2011</w>
th an_
hiệ p_hội</w>
bái_ kiến</w>
đánh_ bạc</w>
vòng_ tròn</w>
tòa_ án</w>
m ẩu</w>
c c
ộ n_
đầu_ ra</w>
n ã</w>
minh_ họa</w>
liê n_thủ</w>
l ũng</w>
we b
bi_ phong</w>
đ ắ
ăn_ cắp</w>
u ổng_
r ợn</w>
hứa_sĩ _công</w>
bắt_ chước</w>
ự t</w>
áo_ khoác</w>
tung_ tích</w>
mặt_ hàng</w>
g ấm</w>
ng_l ệ</w>
ke ng</w>
hu ấn</w>
ch ao_
b s
vòng_ vây</w>
u ẩn</w>
l ây</w>
vân_ nam</w>
v í</w>
tuyết_ kỳ</w>
nuôi_ dưỡng</w>
ngh ênh</w>
hộ _pháp</w>
h anh</w>
g ánh_
dị _
d ỗi</w>
25 /2</w>
đè n_đ
xua_ tay</w>
thủ _phạm</w>
thảm_ hoạ</w>
quảng_ nam</w>
lão_ bà</w>
cửu_ chỉ</w>
sá u_
kh a_
c ưng</w>
_h óa</w>
4 3</w>
ti êm</w>
ph a
n ôn_
h ách</w>
chất_ vấn</w>
chuyên_ ngành</w>
bạt_ khuê</w>
nhà _s
hân_ hoan</w>
độ n</w>
ð ường</w>
ro nal
phấn_ chấn</w>
hiện_ trường</w>
dương_ châu</w>
cà ng_
truyền_th uyết</w>
sát_ thủ</w>
quả _quyết</w>
nguyệt_ ðàm</w>
ca na
bàn_t án</w>
tiế ng_t
thần_ tiên</w>
nh uộ
l ừ
ch ần_
b ụ
trúc_ phong</w>
thái_ phó</w>
nă n_n
năn_n ỉ</w>
ám_ sát</w>
vô_t ận</w>
thứ_ năm</w>
so ạt</w>
k ý
hàm_ răng</w>
m iệt</w>
lay_ động</w>
l ồng_
giao_ lưu</w>
canh_ gác</w>
biể n_đông</w>
xế p_
to ả</w>
thanh_ long</w>
ra_ vào</w>
qu ế
ch ay</w>
c ắt_
c u</w>
b ệch</w>
_ph ép</w>
_ tinh</w>
động_t âm</w>
đ ũa</w>
tr ục_
tiễn_ biệt</w>
thạ ch_
thượng_ nhân</w>
mo bi
mi l
lạ i_
ch ợ
c ẩm</w>
bảo_ kiếm</w>
bản_ quyền</w>
b ặt</w>
5 4</w>
tập_ trận</w>
tiếng_t ăm</w>
mệ t_
m ỉ
khiêm_ tốn</w>
g ầm_
chư _vị</w>
/0 4</w>
---- ----
nữ _hoàng</w>
ng ư</w>
n_th ông</w>
lừa_ đảo</w>
nhập_ viện</w>
l ung</w>
học_ hành</w>
hung_ dữ</w>
- _
ăng_t ải</w>
nhất_ thiết</w>
khách_ khí</w>
kh iên</w>
gh ê</w>
ng_l ối</w>
kiêu_ ngạo</w>
huyề n_t
xe_ buýt</w>
s ẹo</w>
s iết</w>
qu e</w>
n_l ao</w>
lừa_ gạt</w>
_t ông</w>
9 7
v .
nh ược_
l ịnh</w>
jo anne</w>
thanh_ danh</w>
s ọ</w>
p an
ha m_
d âm_
bồ_t át</w>
t ụng</w>
sửa_ chữa</w>
ng_h ồng</w>
lê _thị
hình_ sự</w>
er i
càng_ ngày_càng</w>
bá n_lẻ</w>
đẳng_ cấp</w>
ô -
thánh_ thượng</w>
ro ber
„ _th
v òm</w>
s ừng_
củ ng_
tổng_ cộng</w>
p_h ành</w>
m ăng</w>
la m_
hoa_h ồng</w>
đ ăng_tải</w>
uố i_
tào_th áo</w>
triệ u_long</w>
t ườ
ne y</w>
n_th ần</w>
n_h òa</w>
m ầu</w>
lạ t_
l ặp</w>
washi ngton</w>
nh ĩ
ew a</w>
dò _xét</w>
d ính_
con_ em</w>
_l ập</w>
trá ch_m
th ọ
t_ talent</w>
r ời_
quảng_ ninh</w>
nhân_ sự</w>
ngọc_ nữ</w>
kim_jong- il</w>
chiến_th uyền</w>
ch ập</w>
bá _t
ững_ sờ</w>
tr ố
s ững_sờ</w>
ngoại_ trưởng</w>
m àn_
gia_ sư</w>
ac irc</w>
window s</w>
tống_ bi_phong</w>
ph iêu</w>
ng_đ iệu</w>
ng ạo_
mục_ trường</w>
làm_ nên</w>
kh am</w>
hà_t ất</w>
ch uối</w>
bình_ định</w>
đ ò</w>
vững_ chắc</w>
vă n_thanh</w>
vui_ chơi</w>
trở_ ngại</w>
s ếp</w>
no r</w>
lớ n_lao</w>
cha mpi
10 _triệu</w>
đ ế
v ợt</w>
tự_ xưng</w>
tr ơn</w>
tia_ sáng</w>
sụ p_đổ</w>
n_h iện</w>
hộ_t ống</w>
b ực</w>
đồng_t ình</w>
v ỉ
k an
hà i_h
câu_l ạc_
be c
5 8</w>
smart phone</w>
r ậm_
a n_tâm</w>
đón_ nhận</w>
thầ n_tình</w>
sắc_ đẹp</w>
nhân_ nghĩa</w>
l ỏi</w>
austra lia</w>
_l inh</w>
đằng_ xa</w>
tiế n_độ</w>
thống_ trị</w>
h ăng</w>
bách_ hoa</w>
ba ng
đệ m</w>
đạo_ hạnh</w>
trắng_ bệch</w>
pháp_ bảo</w>
lộ t_
le n_l
l ỡ
ch uộc</w>
_nh iệm</w>
4 .
ặ m</w>
trúng_ độc</w>
thế_ công</w>
s àng</w>
_h ữu_
4 17</w>
xỉ u</w>
tống_ ngọc_trí</w>
r à
b ạ</w>
anh_ kiệt</w>
v ượng</w>
tha ng_
m anh_
lưu_l ao_
giản_ dị</w>
ch ạ
c ắm_
c đ
and ro
201 3</w>
ại_h ình</w>
mặc_ dầu</w>
d è
đỉnh_ đầu</w>
đ iền_
xuất_ gia</w>
x chia</w>
hào_ hứng</w>
ðoàn_ dự</w>
uy ể
tóm_ lại</w>
thái_ dương</w>
ph ức</w>
nhân_ loại</w>
ngọc_ chân</w>
gi án</w>
địa_ ngục</w>
đại_ dương</w>
thẩm_ quyền</w>
sơ _bộ</w>
p in</w>
cảm_ ứng</w>
chẳng_ ngờ</w>
đườ ng_lối</w>
điệ p_
ây_th ơ</w>
vi c</w>
tai_ mắt</w>
phương_ tú</w>
ng ừ</w>
n_th ảo</w>
lộ _diện</w>
gi r
canh_ giờ</w>
bàng_ hoàng</w>
ð ột</w>
tiêu_ chí</w>
qu ặ
phi_ mã</w>
ng ây_thơ</w>
làm_ quen</w>
c t</w>
_v ô</w>
nh ó</w>
m ác</w>
hội_ đồng_
c ấu</w>
_h ải</w>
ph ẩm_
ngọc_ lan</w>
n áy</w>
khôn_ ngoan</w>
champi on
ch ải</w>
_b iệt</w>
sả n_lượng</w>
sinh_ học</w>
phá _hoại</w>
m ậu</w>
củng_ cố</w>
_đ iển</w>
787 5</w>
ð ừng</w>
thứ_ bảy</w>
s ữa_
công_ cộng</w>
câu_lạc_ bộ</w>
chỉ _điểm</w>
xu a</w>
tội_ ác</w>
lành_ mạnh</w>
cô xchia</w>
xuất_ thần</w>
r ĩ</w>
p pi
nức_ nở</w>
l d</w>
con_ mẹ</w>
ci ty</w>
chứng_ nhận</w>
_s ắc</w>
_d ưỡng</w>
/ 7
đồng_ nai</w>
ào_ ào</w>
tín_ nhiệm</w>
nh uyễn</w>
chọn_l ựa</w>
_m inh_
1 -
ợ p_
vi lla
v ơ</w>
thu_ xếp</w>
sâu_ xa</w>
quân_ sư</w>
ngơ_ng ẩn</w>
mu ỗi</w>
xantr ô</w>
nh ẩm</w>
n_ g
họ p_
hạ _tầng</w>
cứ _việc</w>
đề_ án</w>
ý _niệm</w>
vương_ gia</w>
trở_ gót</w>
làm_ phiền</w>
khóc_ lóc</w>
hiệu_l ực</w>
dao_ động</w>
cải_ trang</w>
ma thi
lo ạn_
hỗ n_
b ìa</w>
xe _l
uộ ng</w>
ta ng_
s a_s
cây_ số</w>
784 5</w>
trí_ nhớ</w>
quá n_tr
khá i_
da l</w>
c au</w>
x ỉ</w>
trọng_ yếu</w>
mê _
lưu_lao_ chi</w>
lý_t ịnh</w>
h ẻm</w>
b ự</w>
_ph ục</w>
điểm_ nóng</w>
yên_ ổn</w>
thái_ cực</w>
] _
động_ đất</w>
l ơ</w>
đột_ phá</w>
qua n_h
lý_th uyết</w>
lã _
loại_ trừ</w>
trần_cận_ nam</w>
th ấu_
sôi_ động</w>
lạnh_ nhạt</w>
lý_ nguyên_cát</w>
hổ n_h
diện_ mạo</w>
d ạn</w>
ch éo</w>
ẻ o_
tĩnh_ lặng</w>
thiê n_tử</w>
t ường_
ph ơi</w>
khiêu_ chiến</w>
_tr ò</w>
_n ão</w>
_c ụ</w>
đứng_ yên</w>
áy_ náy</w>
nói_ thẳng</w>
chì a</w>
xâm_ phạm</w>
vang_ dội</w>
nhất_ quyết</w>
indo ne
di a</w>
chỉ_ giáo</w>
ca me
rà _s
rà_s oát</w>
ngăn_ trở</w>
nguyễ n_t
nguyê n_tử</w>
ư ng_th
trái_ phiếu</w>
tinh_ tế</w>
ng_đ ợi</w>
ng ửng</w>
lưu_ thông</w>
hiế p</w>
công_ nghệ
tập _hợp</w>
2 -
đ ọng</w>
xinh_ xắn</w>
liên_ hoàn</w>
kịch_ bản</w>
giá p_
tới_ tấp</w>
tr êu</w>
thành_ thử</w>
ronal do</w>
người_ thường</w>
mặt_ bằng</w>
i_h ọa</w>
_th ủ
/0 1
ð ể</w>
r ụt</w>
l õi</w>
hổn_h ển</w>
b ới</w>
_n át</w>
201 5</w>
đại_ phu</w>
yê n_lòng</w>
thi_ cử</w>
du_ học_sinh</w>
789 7</w>
- _d
ầm_ ĩ</w>
s ổ
nh ện</w>
cá ch_thức</w>
chúc_ ngọc_nghiên</w>
chá n_
che_ch ở</w>
c ò</w>
14 /2</w>
động_ lòng</w>
thẩm_ định</w>
thuyền_ trưởng</w>
chấ p_hành</w>
b ôi</w>
duyên_ dáng</w>
c ỏ
valen tine</w>
thầ n_t
th ê</w>
siêu_ thị</w>
ng ọ</w>
liên_ minh</w>
ki s
d el
_x íu</w>
vì _lẽ</w>
triệu_ minh</w>
tr òng</w>
ph ẫn</w>
ph an_th
ngữ_ yên</w>
một_ tí</w>
ma r</w>
xo a_
triệu_ nhã</w>
r ất_
n_tr ánh</w>
mai_ hoa</w>
lặ ng_
lê _vă
kính_ cẩn</w>
kh ang_
cơ _sở
đường_ bộ</w>
tiểu_ nữ</w>
tho á
mơ _m
lo ài_
gi ầy</w>
dụng_ ý</w>
chào_ hỏi</w>
đà ng_
thình_ th
nhạy_ cảm</w>
nh ớ
lâm_ kinh_vũ</w>
hoà _thượng</w>
c ẩn_
c en
_s ức</w>
ò e</w>
tổng_ cục</w>
che_ giấu</w>
/ 6
n x
hàm_ ðan</w>
_tr ận</w>
_t ai</w>
_l o
6 00</w>
áo_ vàng</w>
vâng_ lời</w>
thám_ tử</w>
thanh_ nhã</w>
qu ét_
nh ộn_
cười_kh ẩy</w>
bất_ tỉnh</w>
bất_ tất</w>
b ồn_
_t iện</w>
uyể n_thanh</w>
liên_ miên</w>
liên_ bang</w>
cu a</w>
ỡ_ng àng</w>
ð ầu_
yêu_ mến</w>
vô_s ong</w>
trong_ sáng</w>
ng ỡ_ngàng</w>
ne r</w>
l ọc</w>
_d ẫn</w>
10 /2</w>
/201 0</w>
vỉ a_hè</w>
tận_ mắt</w>
bank plus</w>
đại_ danh</w>
tàn_ sát</w>
tr ần_l
te s</w>
số _liệu</w>
quảng_ ngãi</w>
nhuộ m</w>
ngày_th áng</w>
n_h ại</w>
loài_ người</w>
ghi_ chép</w>
_ch i</w>
_c ử</w>
trường_ sinh</w>
thực_ chất</w>
dân_ cư</w>
yếu_ đuối</w>
u ý</w>
sáng_l ập</w>
năm_ tháng</w>
mw c</w>
fo x</w>
bình_ minh</w>
đồng_ tử</w>
âm_ u</w>
thực_ hành</w>
t ẩm</w>
ph ấn_đ
lý_t uân</w>
bình_ sinh</w>
thanh_ vân_
tha_th iết</w>
ser ge
phấn_đ ấu</w>
ngần_ ngừ</w>
nguyê n_liệu</w>
la_h ét</w>
hư _vô</w>
ch ối</w>
ý _đồ</w>
v èo</w>
sư _tử</w>
nh iếp</w>
ngh iền</w>
d ìu</w>
công_ khanh</w>
_t ội</w>
k ình_
_x ưa</w>
si te</w>
phần_ trăm</w>
ng ậm</w>
cây_ xăng</w>
bồn_ chồn</w>
bà n_thờ</w>
vốn_ dĩ</w>
l ọ</w>
kh ốn</w>
iệ c</w>
h ang_
chiếu_ cố</w>
tiện_ ích</w>
_m ệnh</w>
th ạo</w>
ru ồi</w>
ho ại</w>
công_t ôn_
_t e
đ iề
w ar
s ky</w>
chỉ_ định</w>
chi_ tiêu</w>
vinh_ quang</w>
vi_ khuẩn</w>
uy ê
tức_ khắc</w>
sơ _s
nguy_c ấp</w>
ngon_ lành</w>
lục_ tuyết_kỳ</w>
lễ _vật</w>
kho áng_
hối_ hả</w>
giở _trò</w>
ð êm</w>
xi n_
tổng_ công_ty</w>
th ung_
nhật_ ký</w>
nhã n_
nghĩ _bụng</w>
g ò
đồng_h ành</w>
ng ợi</w>
n_th ất</w>
n_th iên_
n ép</w>
khởi_ động</w>
khung_ cảnh</w>
_đ ình_
_s a</w>
đông_ á</w>
thí _nghiệm</w>
ta i_họa</w>
sôi_ nổi</w>
ng ậm_
l uống_
dân_ số</w>
ch uộng</w>
b đ
ố m_
è m_
x ì
tỉnh_ ngộ</w>
thượ ng_đế</w>
t ẩy</w>
nhăn_ nhó</w>
l ân_
hợp_ nhất</w>
đo an_
ă ng_l
r ương</w>
r ên_
chết_ đuối</w>
_ hoa</w>
thân_ binh</w>
nằm_ xuống</w>
mã nh_
loại_ bỏ</w>
kỷ_thiên_th iên_
kinh_ dị</w>
choáng_ váng</w>
mưu_ đồ</w>
lộ _trình</w>
hành_ lý</w>
hiện_th ực</w>
giảm_ giá</w>
gi ùm</w>
cộng_ hoà
came ra</w>
đại_ trượng_phu</w>
vũ_văn_hóa_ cập</w>
s ti
iê u_l
giả _sử</w>
8 00</w>
3 -
đánh_ thức</w>
ð ức_
tối_ tăm</w>
riê ng_t
quỳ nh_
nguyễ n_tr
mathi as</w>
iễ u</w>
văn_ võ</w>
va_ chạm</w>
cổ _t
cao_ siêu</w>
đội_ tuyển</w>
ph iêu_
mù_m ịt</w>
làm_ ra_vẻ</w>
kinh_ động</w>
góc_ độ</w>
g ran
en a</w>
biến_ động</w>
ờ_v ực</w>
thung_ lũng</w>
s úc</w>
pho ng_độ</w>
ng_r ắn</w>
chu_ nhất_tiên</w>
bu r
tiêu_ tan</w>
thương_ nghị</w>
nghiêm_ trang</w>
na n
n_l uận</w>
khối_ lượng</w>
chăm_ chăm</w>
tp. _h
nh ường_
ng ờ_vực</w>
ng ại_
mới_ mẻ</w>
m bo
đấu_ giá</w>
ng áy</w>
mơ_ ước</w>
chá nh_
báo_ động</w>
vuốt_ ve</w>
truy_t ìm</w>
bar ca</w>
_h ồng_
trương_tam_ phong</w>
cô_ độc</w>
bất_ an</w>
bả n_tính</w>
and re
ợ t_
vi_ tính</w>
m ịch</w>
bộ _máy</w>
_ch ương</w>
789 9</w>
/0 4
ừ ng_h
t ướ
sắp_ sửa</w>
sả nh_
hộ _vệ</w>
dạy_ học</w>
cầu_ xin</w>
ché m_
tu_ viện</w>
r ễ</w>
mộ_dung_ chiến</w>
l ít</w>
hò m</w>
d iêm</w>
ân_ hận</w>
tá n_thành</w>
tu_l uyện</w>
sức_ khoẻ</w>
phê _duyệt</w>
ng_ bét</w>
kỳ _thực</w>
hiệp_ định</w>
chân_ tướng</w>
bồi_ thường</w>
ðại_ sư</w>
tạ t</w>
ti on</w>
te in</w>
t ắm_
sinh_ vật</w>
nhà_b ếp</w>
l ẻ</w>
h ọng</w>
g ân</w>
đ ổng</w>
đ ốn</w>
vật_ liệu</w>
u_l ộ</w>
tr êu_
ma c
h ờ
gay_ gắt</w>
công_ cuộc</w>
bộ _đồ</w>
đ ấng</w>
tr o
tim_ mạch</w>
sảnh_ đường</w>
nội_ thương</w>
h ao_
g re
câu_ nói</w>
bướ m</w>
độ ng_lực</w>
địa_ đạo</w>
đoàn_ kết</w>
sá ng_tác</w>
r á
ja ke</w>
xong_ xuôi</w>
trân_ trọng</w>
ph ế_
k o_
chút_ ít</w>
bội_ phục</w>
đầ u_l
phá _
hà _lan</w>
ho ãn</w>
đao_ kiếm</w>
thảm_ thiết</w>
chuy ê
từ_b iệt</w>
tr ào_
ph iề
nghi_ hoặc</w>
n uốt_
mi cro
kim_ loại</w>
indone sia</w>
fer r
tài_ nguyên</w>
re o_
mộ_dung_ thùy</w>
m ài</w>
hòa_th ị
ga me</w>
anh_ trai</w>
/11 /2011</w>
ư _
đo ản_
í m</w>
ng ã
d n</w>
chiêm_ ngưỡng</w>
bồi_ dưỡng</w>
bất_ tà</w>
ai_ ngờ</w>
_ch ân</w>
thừa_ tướng</w>
t ám_
t uốt</w>
1 .000</w>
ống_h ệt</w>
th ối_
quan_ trung</w>
lã_ bất_vi</w>
h ác</w>
gi ống_hệt</w>
ben t
_l ôi</w>
tv t</w>
sâu_ thẳm</w>
m_ n
gd đt_
tha i_
ngô _l
ma tt</w>
khôn_l ường</w>
hoảng_ loạn</w>
hiế n_
th ă
nó n</w>
cao_ tốc</w>
_ sách</w>
vô _lý</w>
ste ve_
làm_ quan</w>
hò _h
h y</w>
cử a_h
cộng_hoà _mỹ</w>
cập_ nhật</w>
cô n_l
ưu_ thế</w>
áp_ đảo</w>
phòng_ ngừa</w>
f al
com bank</w>
, _
x ao_
vườ n_
s ấm_
nh óc</w>
m ùng</w>
khả m</w>
_d uyên</w>
ột_ nhiên</w>
v ệt</w>
thí m</w>
sư_ph i_
se oul</w>
nể _mặt</w>
h ó
b ẽ
200 6</w>
đều_ đặn</w>
đô _la</w>
tiế p_lời</w>
thă ng_long</w>
h iên_
chống_đ ối</w>
chém_ giết</w>
bánh_ mì</w>
trống_ rỗng</w>
pi er
ngang_ nhiên</w>
mất_ hút</w>
liễu_ mi</w>
goet z</w>
trường_ giang</w>
thương_ tích</w>
thá t_
t c_
sá ch_
nóng_ lòng</w>
ma lay
cười_ rộ</w>
bảy_ mươi</w>
biể u_lộ</w>
đá p_l
tho ắt</w>
s ục</w>
r ồ</w>
ng ặt</w>
n_l âm</w>
lãng_ phí</w>
học_ hỏi</w>
gắng_ gượng</w>
cảnh_ vật</w>
ch ừ</w>
a e
_ kịch</w>
xử _phạt</w>
thương_ vong</w>
r ảnh</w>
máy_ móc</w>
kia_ mà</w>
e_ng ại</w>
v éo</w>
r ào_
lãnh_ tụ</w>
l i_
hòa_thị _bích</w>
chứng_ chỉ</w>
trí _thức</w>
phi_ công</w>
p _hàng</w>
mạch_m áu</w>
mạ t_
hợp_ pháp</w>
g er
be l</w>
788 3</w>
địa_ lý</w>
ro n</w>
lục_ tuyết</w>
l ụy</w>
cuồng_ phong</w>
_h ộ</w>
3 7
n_đ ức</w>
d ào</w>
b ế
tổ_ quốc</w>
tha n_th
s úng_
r ao</w>
cất_ giọng</w>
y v
x ăm</w>
thành_ thật</w>
than_th ở</w>
sư_phi_ huyên</w>
sáu_ mươi</w>
nội_ vụ</w>
ngh ẹn</w>
kh àn</w>
giám_ mục</w>
cầu_ nguyện</w>
_t ú</w>
xưng_h ô</w>
th ẫm</w>
nhận_ biết</w>
n ấm</w>
_h ốc</w>
vô_t ội</w>
tống_ kha</w>
thái_ tổ</w>
o_th ủ</w>
lý_t ử
li n
há _hốc</w>
g ro
tỉ _m
thuậ n_tiện</w>
s sa
n ắm_
j ac
h ươ
cô n_đồ</w>
_m an</w>
ước_ tính</w>
tá n_thưởng</w>
thiê ng</w>
r ầm</w>
ng ủ
dược_ vương</w>
đ ỗi</w>
thị _xã</w>
r ạng</w>
m c
kim_ lan</w>
cứ ng_rắn</w>
_n inh</w>
ỏ m</w>
tổ_ tiên</w>
tống_ sư
tiểu_ vương</w>
người_ dân</w>
lặ c_
k ế_t
hành_ quân</w>
ch ẩ
ị ch_
v ũng</w>
ri ch
gợi_ ý</w>
ch ập_
đâm_ chết</w>
thượng_th ư</w>
ph ượng_
nh am_
ngọc_ yến</w>
máy_ ảnh</w>
la s</w>
l ậu</w>
khởi_ đầu</w>
giao_ đấu</w>
đẹp_ trai</w>
thái_ nguyên</w>
sách _v
riêng_t ư</w>
l ìa</w>
kinh_ phí</w>
k en
hành_ lễ</w>
dã_c ẩu</w>
bố p</w>
ứng_ viên</w>
tử u_
r áo</w>
quá t_
oá n_h
nhỏ _xíu</w>
tí n_l
tp .</w>
th ốn</w>
t úng</w>
ngần_ ngại</w>
mã _ph
khấu_ trọng_th
hình_ dạng</w>
ðình_ phương</w>
ni c</w>
lệnh_ hồ_xung</w>
hư_h ỏng</w>
cảm_ tạ</w>
ar i
xúc_ phạm</w>
sách_v ở</w>
chú _trọng</w>
ch ĩa</w>
bài_ toán</w>
8 8</w>
ð ột_nhiên</w>
xu ẩn</w>
s- bo
i m
chìa_ khoá</w>
_l ưỡng</w>
tr ổ</w>
t óe</w>
l ịa</w>
yêu_ quý</w>
v ẻ_
tuân_ thủ</w>
to r</w>
sơ _sinh</w>
nh uệ</w>
mỏ i_
châu_ phi</w>
_đ àm</w>
_l ạnh</w>
tuổi_ tác</w>
nh u
ng ỡ</w>
da fi</w>
ch ấp_th
gi ựt</w>
dật_ tài</w>
dù_ cho</w>
ch ồm</w>
ch ót</w>
vô_vi_ đạo_trưởng</w>
s ưng</w>
ng ạnh</w>
malay sia</w>
lương_ tâm</w>
giải_ thoát</w>
giám_ khảo</w>
cana da</w>
bảo_ vật</w>
_tr ung_
tr ội</w>
tr ơ</w>
thầ n_tượng</w>
s ào</w>
ngẩn_ người</w>
mo r
mes si</w>
kích_th ước</w>
bất_ mãn</w>
_m ai</w>
8 /2</w>
web site</w>
tâm_ tư</w>
hiế m_
hiên_ ngang</w>
h í</w>
c ày</w>
5 9</w>
ợt_ nhạt</w>
nh ợt_nhạt</w>
n 1</w>
mã n_
là n_sóng</w>
kh ưu</w>
champion s
bổ _nhiệm</w>
_ địa</w>
trần_h iếu</w>
s-bo as</w>
phản_ công</w>
ngo ạn</w>
lý_ giải</w>
kh o_
giả _th
_ rằng</w>
200 ,000</w>
ò m_
y_ tá</w>
vi e
r át</w>
nghị _định</w>
k iểm</w>
d ưa</w>
chấp_th uận</w>
ch óc</w>
v ướng</w>
trực_ thăng</w>
serge i</w>
s ha
ng_h iến</w>
a bi
đề n_
t ục_
quát_ tháo</w>
lệnh_ cấm</w>
khả_ đạt_chí</w>
ổ m</w>
học_ viên</w>
cầm_ thanh</w>
cung_ cấm</w>
13 /2</w>
lạm_ phát</w>
_l ao</w>
ữ u_l
đầu_ đuôi</w>
đánh_ máy</w>
văn_t ự</w>
tr ận_
suy _đoán</w>
ph ơ</w>
lậ p_l
bởi_ thế</w>
0 2
đá ng_lẽ</w>
th iểu_
hoan_h ỉ</w>
d ập_
d ạt</w>
c ào</w>
_c ường</w>
787 3</w>
ảm_ đạm</w>
từ _thiện</w>
tuân_ lệnh</w>
trầ n_t
thử _hỏi</w>
n ách</w>
lắp_ bắp</w>
khiế m_
hu ệ
a ir
tu s</w>
tiêu_l ĩnh</w>
quan_ binh</w>
ng ỏ</w>
hỏ ng_bét</w>
gia_ nhân</w>
g ật_
che l</w>
17 /2</w>
ướ p</w>
đá t</w>
âu_ yếm</w>
ác_ mộng</w>
x uống_
v iếng</w>
tra_ xét</w>
rên_ rỉ</w>
reo_ hò</w>
o o
ngu_ xuẩn</w>
ng i
luống_ cuống</w>
hết_ thảy</w>
gi ễ
ca_ ngợi</w>
đánh_ dấu</w>
đ ăm</w>
văn_ chương</w>
nguyễn_đ ức_
h ỷ</w>
h ăm_
ch ướng_
bị _cáo</w>
từ_b i</w>
r ay</w>
h ót</w>
gi ặt</w>
e v
der er</w>
chuyể n_đổi</w>
chiến_th uật</w>
vàng_ bạc</w>
steve_ jobs</w>
quy_ tắc</w>
quy ệt</w>
n_đ ồng</w>
chẩ n_đoán</w>
ð iều</w>
nắm_ bắt</w>
nh ợt</w>
ki e</w>
ghe n_t
cảm_ tình</w>
vậy_ là</w>
tiêu_ dao_
phili ppi
mã _văn_
m in
bao_ công</w>
v ượn</w>
tr uy_
thảm_ họa</w>
qu ật_
n_tr ách</w>
ôn_ nhu</w>
ð ồ</w>
tp._h cm</w>
tinh_ thông</w>
quặ n_lòng</w>
giết_ hại</w>
cường_ địch</w>
v ây_
thoát_ thân</w>
lừ ng_lẫy</w>
lia_ lịa</w>
kiều_ bào</w>
h en
cạ o</w>
binh_ mã</w>
đường_ sắt</w>
tạ _huyền</w>
thỉnh_ giáo</w>
nữ _
hoang_ nhân</w>
ch óng_
_th ụ</w>
điệ n_hạ</w>
nghỉ _dưỡng</w>
kim_ tự_th
không_ sao</w>
khuyến_ cáo</w>
k er</w>
dự ng_
song_th ân</w>
mã_văn_ phi</w>
kinh_ thành</w>
cảm_ hứng</w>
buồ n_th
biên_ hoang_tập</w>
ba_ chục</w>
b ơ</w>
_th uận</w>
790 7</w>
ưng_th uận</w>
v óc</w>
o 0
lu ồn</w>
cổ _xưa</w>
bệnh_ hoạn</w>
anto ine</w>
x ung</w>
tư _đồ</w>
thần_ trí</w>
t z</w>
nh âm</w>
n ết</w>
lạ _thường</w>
kim_tự_th áp</w>
xác_ minh</w>
trần_th ị
o0 o</w>
lôi_ kéo</w>
khuất_ phục</w>
e vn</w>
ch ọc_
xê -
v c
tỷ _thí</w>
quy ên_
lồng_ ngực</w>
khó _
7 .
u ông_
re al</w>
ng_đ ỉnh</w>
d y</w>
villa s-boas</w>
sở _trường</w>
sá ng_tỏ</w>
r ạch</w>
quyết_ chiến</w>
d õ
ch ồng_
bảo_ hộ</w>
b la
đ iềm</w>
viên_ chức</w>
trung_ thổ</w>
quần_ chúng</w>
lâm_ tĩnh</w>
l áo</w>
chịu_ thua</w>
can xi</w>
a n_t
1 19
tỏ _tình</w>
ruộ t_
nh ăng</w>
khí _hậu</w>
iế u_
chi_ nhánh</w>
bà _cụ</w>
mạ i_
hung_ ác</w>
h ắt</w>
ferr ar
đáp_l ễ</w>
z a
tầm_ mắt</w>
quá_ đáng</w>
/01 /2012</w>
đè n_l
tấm_ gương</w>
thường_ ngày</w>
quyết_ đấu</w>
nhất_ tề</w>
m ày_
chỉ _dẫn</w>
c út</w>
201 9
đăm_ đăm</w>
đ iêu_
z e
tướng_ sĩ</w>
nhân_ gian</w>
mặc_ kệ</w>
l uy
d ép</w>
cơ_ mà</w>
căm_ hận</w>
chất_ béo</w>
c ự_
sho w
r ã</w>
o p
nô _lệ</w>
giang_ văn_thanh</w>
cư _sĩ</w>
ch ực</w>
_h ồ
ð i</w>
tr ăng_
ph ước_
nhảy_ xổ</w>
ng_d ạc</w>
nam_ á</w>
n_đ ứng</w>
dõ ng_dạc</w>
dung_ mạo</w>
d ọn_
cự _tuyệt</w>
_th ành_
điều_ hòa</w>
trấ n_tĩnh</w>
th ỏ</w>
nhà _ch
mù _l
mù_l òa</w>
ma u
dẫn_ dắt</w>
chăn_ nuôi</w>
chi_ trả</w>
bực_ tức</w>
tu ấ
thiê n_đường</w>
ste ve</w>
lỗ _m
a_ di_
ản_ xuất</w>
đ ới</w>
đ u</w>
s ặc</w>
kính_ phục</w>
cười_ thầm</w>
ch uyệ
bố n_b
bậ n_tâm</w>
bạ ch_th
truy _cập</w>
thực_ tiễn</w>
thu ận_
t nh
sân_ chơi</w>
so ng_h
ph e
nh ạo</w>
nghênh_ tiếp</w>
n_l út</w>
diệ p_
v y</w>
tiề u_
thái_ sư</w>
hồ_xung_ đáp</w>
hầu_ hạo</w>
bất_ bại</w>
biến_ chứng</w>
đàng_ hoàng</w>
đ ố</w>
thắt_ lưng</w>
thá t</w>
r ết</w>
gia_ luật_
biê n_tập</w>
bao_ la</w>
/ 2009</w>
đ ành_
y_th ị</w>
xã _hội_
tranh_ đấu</w>
tr ậ
thứ_ hai</w>
tho ạt</w>
thi_ công</w>
mari uy
c n
bổ n_
đồng_ môn</w>
tàn_ ác</w>
philippi nes</w>
n è</w>
cục_ trưởng</w>
cầm_ đầu</w>
chính_ thuần</w>
bà o_
_l ỗ</w>
đơ n_th
đô _đốc</w>
tr ưng_
sơn_ động</w>
phê _bình</w>
kiên_ trì</w>
bắc_ ninh</w>
vi c
u g
tí n_đồ</w>
ti o
r anh_
người_ ngoài</w>
l ốc</w>
bi ll</w>
điể n_hình</w>
thá n_
sco tt</w>
giao_ tiếp</w>
chim_ ưng</w>
_c ận</w>
yo u
tho ạt_
s ấn</w>
rậm_ rạp</w>
quế _tử</w>
m ợ</w>
khu a</w>
k í</w>
chấ n_thương</w>
bá ch_t
uy _thế</w>
thị _thần</w>
nam_ sinh</w>
mơ_m àng</w>
kỹ _lưỡng</w>
cương_ quyết</w>
andro id</w>
trung_ đông</w>
tri_ thức</w>
t v</w>
phản_ chiếu</w>
nói_ riêng</w>
nh_l ệch</w>
nh ắn_
_đ ào_
_n ương</w>
đồ n_đại</w>
ph a_
may_ ra</w>
ma_ môn</w>
champions _league</w>
bộc_ lộ</w>
4 -
00 .000</w>
đánh_ cắp</w>
đe m_
sức_ ép</w>
sinh_ mạng</w>
r anh</w>
phá_h ủy</w>
kiểm_ điểm</w>
chê nh_lệch</w>
đồ _vật</w>
thạch_th anh</w>
quan_ quân</w>
phong_ cảnh</w>
nhạc_ sơn</w>
nh áy</w>
n_h ương</w>
mạng_ lưới</w>
i_l ệ</w>
fe derer</w>
ỷ u</w>
độc_ thân</w>
đồng_ minh</w>
thanh_ y</w>
r ẫy</w>
qu ậy</w>
nhiệm_ kỳ</w>
d ụi</w>
cửa_h iệu</w>
bất_ tử</w>
ẩn_ nấp</w>
ù n_tắc</w>
vn -index</w>
thang_ máy</w>
t ồn_
lý_tử _thông</w>
hồ_xung_ nói</w>
10 0,000</w>
u_l a</w>
tr ạc</w>
lão_ sư</w>
l ườm</w>
b ão_
3 4
vù _v
vinh_ dự</w>
tú _sĩ</w>
nội_ thất</w>
mù i_
lãnh_ thổ</w>
lâm_ bình</w>
hãm_ hại</w>
h ơ
công_ sức</w>
ch ảo</w>
_đ ồng</w>
ð ao</w>
tuyệt_ đỉnh</w>
thanh_ tú</w>
th ạc_
tan_ vỡ</w>
ng ự_
gi ỏ</w>
bất_ ổn</w>
bú p_
_d iễn</w>
0 2/2012</w>
nghi_ vấn</w>
n ão_
hươ u</w>
giá n_đ
gi ai</w>
dòng_ họ</w>
dã _man</w>
cli n
chuyệ n_tr
_tr ời</w>
ổn_ ngang</w>
x ê</w>
và nh</w>
v ạ</w>
trộ m_
to a</w>
thiê n_thu</w>
nh ả</w>
ng ổn_ngang</w>
mong_ manh</w>
l ề</w>
h s
h 5
eli nor</w>
xe_ khách</w>
v ờ</w>
thân_ thế</w>
quả _nhân</w>
pro tein</w>
nhạc_ linh_san</w>
người_ đời</w>
lễ _
khu ỷu</w>
cấm_ vệ</w>
chuyện_tr ò</w>
v ớ</w>
tuyệt_ sư</w>
quốc_ tuấn</w>
on line</w>
ng_t àu</w>
lé n_lút</w>
há _miệng</w>
hà_ giang</w>
giá _cả</w>
chiếm_ đoạt</w>
đông_ dương</w>
v p
trái_ phép</w>
thần_th ông</w>
ra chel</w>
bánh_ xe</w>
bà n_luận</w>
đối_ đãi</w>
í ch_
xử _trí</w>
triệt_ để</w>
sa i
qu i</w>
ge or
8 ,
ẩ n_thân</w>
ð ồng_
tự_ ý</w>
n_tho ại_
giai_ cấp</w>
gi ày_
ti vi</w>
s ỡ</w>
r y
ng_l iêng</w>
m ụ
m ầy</w>
họ _hàng</w>
ho ạn_
dương_ tiêu</w>
chiế t</w>
báo_ đáp</w>
_h ọa</w>
điệ n_thoại_
vắng_ vẻ</w>
trung_ cấp</w>
thiê ng_liêng</w>
t ịnh_
ngăn_ ngừa</w>
luật_ pháp</w>
h èn_
/ 8
đột_ nhập</w>
ya ho
từ _thiên_
thiên_ ma_
ph àn_
ma d
m_c ỏi</w>
ké m_cỏi</w>
h5 n1</w>
g v</w>
chống_ chọi</w>
c ọ</w>
bùng_ nổ</w>
v ấp</w>
v ù</w>
tổ n_hại</w>
s ẫm</w>
ng ùi</w>
hủy_ diệt</w>
h ậ
căn_ dặn</w>
*_ *</w>
tạ c</w>
tiền_ mặt</w>
r ầy</w>
no el</w>
nhậ p_học</w>
ngất_ xỉu</w>
mưa_ gió</w>
k ý_t
bốn_ phương</w>
an_ bài</w>
_thủ _tướng</w>
1 20</w>
đú ng_đắn</w>
tối_ đen</w>
tôn_ kính</w>
tr ên_
rơ i_lệ</w>
phổ _ho
li ne
iề n_tr
bổ _
b ừa_
a -
đồng_ đạo</w>
thất_ sắc</w>
se y</w>
phản_ kháng</w>
le t</w>
giả _
do w
chu_ du</w>
b ờ
9 ,
tá t_
trên_ dưới</w>
thán_ phục</w>
sở _thích</w>
se x</w>
ma _th
kê u_la</w>
có_ ích</w>
chập_ ch
v ề
su s</w>
s ừng</w>
la i_
kinh_ sợ</w>
h ăng_h
e -
ch ói_
c ọc</w>
_ng ẩn</w>
thái_ bình_dương</w>
t ía</w>
l ó</w>
de s</w>
ci a</w>
bản_ năng</w>
đại_ khái</w>
ô_ nhiễm</w>
yếu_ kém</w>
x uyến</w>
v ê</w>
sai_ sót</w>
ng ớ
linh_ nhi</w>
giao_th ủ</w>
âm_ tự</w>
u ật_
trẻ _trung</w>
m b
lừa_ dối</w>
kim_ bình_nhi</w>
hạ m_
gran t</w>
giận_ dỗi</w>
cởi_ mở</w>
dạy_ bảo</w>
cử u_long</w>
điện_thoại_ di_động</w>
s ung</w>
hoang_ dã</w>
giả o</w>
a d</w>
x h</w>
vù_v ù</w>
võ_ ð
tỉ_m ỉ</w>
tu ệ
thơ m_
ngớ _ngẩn</w>
mê_ hoặc</w>
l âu_l
g ăm</w>
củ a_
._ ông</w>
đoản_ kiếm</w>
thu ần_
r ầu_
ngoảnh_ đầu</w>
ng_ lớp</w>
i_h an</w>
hỏ i_han</w>
f e</w>
cay_ đắng</w>
va ti
tứ _t
s p
nguyễn_thị _
ng ắm_
n ạc</w>
mặ n</w>
ch ắp</w>
_v ân_
đù ng_đ
võ_ ðang</w>
thượng_ hoàng</w>
t ắc_
s ải</w>
mo ng_đợi</w>
gi ề
cấu_ kết</w>
chì m_
vận_ mệnh</w>
v ấn_
tí ch_t
trọng_l ượng</w>
tiểu_ huynh</w>
thời_ giờ</w>
thống_ khổ</w>
t a_
10 0_%</w>
đ ỡ
trọ ng_h
thành_ vương</w>
thay_ mặt</w>
t ồi</w>
phì _cười</w>
ng át</w>
me gan_
hà_ nam</w>
đồng_ bộ</w>
tây_ hạ</w>
trở_ đi</w>
trịnh_ trọng</w>
no bel</w>
. _b
ðại_ ca</w>
trọ n_vẹn</w>
th ói</w>
n iệm_
m r
kh ao</w>
huy ên_
g ẫy</w>
diên_ khánh</w>
ch ận</w>
cao_th ức</w>
_kh ẩu</w>
26 2</w>
í _nghiệm</w>
x ứ
ta n_t
s ụp</w>
r iết</w>
phân_ chia</w>
le _
k s</w>
đ ế_
ðào_ cốc</w>
u_ nhân</w>
hài_ tử</w>
fal ko_
c ờ
đại_ lộ</w>
vietnam '
v ăng_
u ội</w>
thạc_ sĩ</w>
th a_hồ</w>
b ồn</w>
đặc_ điểm</w>
truy _đ
trang_ sức</w>
qu ần_th
nh ậu</w>
một_ mạch</w>
manh_ mối</w>
l iêu_
hiể n_h
hi_ sinh</w>
canh_ giữ</w>
_th ống</w>
tuyệt_ luân</w>
t .</w>
sửa_ soạn</w>
phong_ bì</w>
mi cha
megan_ fox</w>
ma_ quỷ</w>
m í</w>
ch ầu</w>
b ến_
uy ết_
u ất_
thổ _lộ</w>
th í</w>
song_ nhi</w>
như _thường</w>
ngẩn_ ngơ</w>
mở _m
m ậu_
lệnh_ hồ
cư _x
6 9</w>
' _
ác_ độc</w>
vũ ng_tàu</w>
v ướng_
tướ ng_lĩnh</w>
tho áng_
nha_ môn</w>
ng_t ộc</w>
n ãy_
mỹ _lệ</w>
lo é</w>
khí _lực</w>
kh ăn_
hoàng_ kim</w>
hiền_ lành</w>
chúng_ con</w>
_l ỗi</w>
đẹp_ mắt</w>
đ an_
tứ_ kết</w>
thá m</w>
phòng_th í_nghiệm</w>
nãy_ giờ</w>
ber g</w>
định_ cư</w>
tinh_ vi</w>
thừ a_th
_d ành</w>
_c ổ</w>
ề u</w>
ẩ n_hiện</w>
ướng_ quân</w>
đau_ nhói</w>
xa_ cách</w>
vùng_ xa</w>
thâm_ tâm</w>
phong_t ỏa</w>
nữ _nhi</w>
nhân_ tạo</w>
ngoài_ trời</w>
nghẹ t_
h áo_
dọn_ dẹp</w>
_tr uyền</w>
thiên_ cơ</w>
t te</w>
sơ n_h
l ẩn</w>
kho ét</w>
i_h ài</w>
già _n
bài_ tập</w>
_m ãn</w>
9 5</w>
đầ m_đ
đầm_đ ìa</w>
tử _thi</w>
si m</w>
li ke</w>
i b
hóa_ học</w>
hoàng_ phủ_
cuố ng_
bảo_ tồn</w>
1 /2</w>
. _đ
áo_ choàng</w>
wo od</w>
v ần</w>
tự_ nguyện</w>
th ẳng_
l h
k ĩ
7 1</w>
ạ _
ê _
x ẩy</w>
u_ ám</w>
tùy_ tùng</w>
p s</w>
mu r
cá _tính</w>
ông_ tin</w>
và n</w>
tung_ hoành</w>
thân_ hành</w>
tha o_th
ngắ n_hạn</w>
lý_t ư</w>
lý _luận</w>
gd -đt</w>
binh_ lính</w>
thượng_t ú
nhảy_ múa</w>
n_th ị</w>
giải_ độc</w>
ch ép_
20 00</w>
điềm_ đạm</w>
ó p</w>
văng_ vẳng</w>
micro so
hoành_ hành</w>
bất_ thình_lình</w>
đồng_ bọn</w>
ác_ liệt</w>
thường_ trực</w>
thân_ vương</w>
quý _phi</w>
qu ỵ</w>
ngh ía</w>
lớn_ nhỏ</w>
ho t</w>
cảm_ tưởng</w>
ch è</w>
cam_ tâm</w>
đ út</w>
thì _th
thân_ pháp</w>
s ùng</w>
lũ _l
ha m
chủ_ quyền</w>
chuyển_ nhượng</w>
đ àng</w>
ân_ oán</w>
tại_ chức</w>
pre mi
phong_ lưu</w>
nh ằn</w>
miễn_ dịch</w>
kiên_ cố</w>
b ền</w>
6 7</w>
, 000_
tổng_ quản</w>
tương_ dương</w>
phụng_ phi</w>
dạ o_
cổ_t ức</w>
bần_ bật</w>
đ ập_
văn_ mẫn</w>
v ã
tá n_
thượng_tú _phương</w>
phút_ chốc</w>
o r</w>
m ắng_
d ô</w>
ch ùi</w>
bắc_ phủ
búp_ bê</w>
bi_ thương</w>
8 5</w>
ứng_ biến</w>
thẩm_ mỹ</w>
sa u
ng_th ủ</w>
gh ế_
binh_ lực</w>
_h ầu_
đại_ trúc_phong</w>
đông_ tử</w>
tiết_ mục</w>
tiếp_ ứng</w>
ti na</w>
giề ng</w>
cứu_ viện</w>
bạch _phong</w>
_tr ộn</w>
30 _triệu</w>
đ ứt_
ăng_ quân</w>
tâm_ huyết</w>
trơ _tr
sơn_ cốc</w>
quý_ giá</w>
p_ châu_âu</w>
nghĩa_ vụ</w>
_th iên</w>
7 00</w>
thiêu_ đốt</w>
ngàn_ dặm</w>
id s</w>
enni s</w>
ân_ cần</w>
vati can</w>
suy_ giảm</w>
s_ a
r ong</w>
ngư _dân</w>
mộc_ hợp</w>
làm_ bộ</w>
hài_ cốt</w>
dầu_ khí</w>
c ờ_
bắc_ giang</w>
đồng_t ính</w>
x ô
lưu_ đại_nhân</w>
kí ch_
ẵ m</w>
đâm_ ra</w>
vòng_ quanh</w>
triệu_ tập</w>
tiên_ tiến</w>
t ẩu_
n s</w>
mi ss
h ưởng_th
cử _tri</w>
21 /11</w>
đột_ kích</w>
ðiền_ bá_quang</w>
trần_ đại_
tr ư
thứ _tự</w>
phiền_ phức</w>
lạc_ quan</w>
giáo_ hoàng</w>
công_ thương</w>
cuồng_ nhiệt</w>
ch ặng</w>
bắc_phủ _binh</w>
bàn_ giao</w>
200 5</w>
độ i_hình</w>
đau_ thương</w>
z z
tiểu_ quế_tử</w>
tinh_ nhuệ</w>
i_l ăm</w>
ho r
cực_ điểm</w>
ck er</w>
_c ơ</w>
79 13</w>
ậ p_th
x ẹt</w>
v ớt</w>
s ái</w>
quân_ địch</w>
ngắm_ nghía</w>
n_l ệnh</w>
lê _th
_ng uyệt</w>
ẩn_ mình</w>
đối_ đáp</w>
tr ố</w>
rung_ chuyển</w>
phò _mã</w>
giả _d
cúm_ a</w>
b ân</w>
tinh_ diệu</w>
t ộc_
nh iê
hài_h ước</w>
cung_ điện</w>
_s ư
tổng_ kết</w>
tài_ nghệ</w>
thư_ giãn</w>
quý _tộc</w>
n_t ử
lý_ kiến_thành</w>
kinh_ châu</w>
bó _tay</w>
b ro
xế p_hàng</w>
rich ard</w>
nh ọc_
ng ụ</w>
gương_ sáng</w>
g t</w>
ăn_ trộm</w>
ă n_đ
tây_ tạng</w>
thủ_l ãnh</w>
thái_ úy</w>
tham_ vọng</w>
th ừng</w>
rùng_ rợn</w>
quy ến</w>
phân_ vân</w>
in a</w>
hiếm_ hoi</w>
cắt_ giảm</w>
chu ôi</w>
ai_ ai</w>
6 -
25 9</w>
ước_ mắt</w>
viễ n_thông</w>
tá i_h
trà _trộn</w>
m ươ
lan_ can</w>
hẳ n_
go r</w>
g ân_
cầu_ giấy</w>
chép_ miệng</w>
ca li
x ộn</w>
phù_ kiên</w>
gi ã
dụ ng_tâm</w>
câu_ thơ</w>
bại_ trận</w>
ệ _sinh</w>
à _
tái_ hiện</w>
sá ch_l
khả _thi</w>
huyên_ náo</w>
đường_ dây</w>
v ế</w>
trả _giá</w>
r ảo_
phá n_
ng_th ương</w>
mã_ph u_nhân</w>
lộn_ xộn</w>
lý _trí</w>
la_ tinh</w>
l ờ</w>
kế_ tiếp</w>
chẳng_ trách</w>
đô _thống</w>
ng ước_mắt</w>
k ét</w>
ch _đ
_s ứ</w>
ương_ vương</w>
qu ên_
o s
200 4</w>
/1 0
ð ỗ
o anh_
nghĩa_ khí</w>
n_h út</w>
kinh_ hồn</w>
go m</w>
dấu_ ấn</w>
ca s
bán_ kết</w>
biế u</w>
a th
ý_t ứ</w>
thần_th ánh</w>
r ó
nhân_ dịp</w>
m ĩ
lắc_ lư</w>
liê m</w>
d ở
_m ẫu</w>
x ẻ</w>
vi a</w>
tỷ _số</w>
thâm_ hậu</w>
r ảnh_
nhà_s ản_xuất</w>
chần_ chừ</w>
chao_ ôi</w>
a li
_m ục</w>
7 2</w>
ậ n_h
xin_ phép</w>
va ngi
thái_ thú</w>
r ừng_
quốc_ lộ</w>
j us
i ra
gi ò</w>
ch iên</w>
đùng_đ ùng</w>
ăn_ xin</w>
xỉ a</w>
xuất_ huyết</w>
vũ _đ
r ải</w>
ph ố
nhiế p_
nguyễn_ nguyễn_
mộ ng_
lư ỡng_
khát_ vọng</w>
đem_ lòng</w>
đe n_
th ấm_
th èm_
oai_ phong</w>
nhà_v ệ_sinh</w>
mỏi_ mệt</w>
mươ i_lăm</w>
m ím</w>
lưu_ tâm</w>
giả_d ối</w>
d ệt</w>
d s</w>
bá _thông</w>
b iển_
xỉ n</w>
vương_ ngọc_yến</w>
v ía</w>
ng à</w>
n_đ ời</w>
lạm_ dụng</w>
lung_ tung</w>
hành_ thích</w>
d ùm</w>
công_ đường</w>
ch ụ
_m ưu</w>
784 7</w>
tú _tú</w>
tín_l ăng_quân</w>
thực_ vật</w>
mặt_ trận</w>
d ằn</w>
_x uyên</w>
oán_h ận</w>
kết_ nghĩa</w>
hải_ quan</w>
cân_ đối</w>
tử _cung</w>
thiên_ kiều</w>
liên_ quân</w>
l ảnh</w>
kh ẻ</w>
kh ương_
i ro
hóa_ chất</w>
huyền_ bí</w>
gad dafi</w>
cầu_ cứu</w>
_đào_ tạo</w>
9 /2</w>
đầu_ vào</w>
vangi ăng</w>
thần_t ốc</w>
th ầu</w>
sắc_ diện</w>
khái_ niệm</w>
hạm_ đội</w>
e e
x ít</w>
wal l</w>
tổ n_thất</w>
thực_ thi</w>
show bi
s ặc_
quan_ âm</w>
nhà _h
mưu_ kế</w>
l áng_
huy _chương</w>
hiệ n_thân</w>
gi ọ
an d</w>
_n ợ</w>
_l am</w>
6 8</w>
đại_ pháp</w>
đông_ nam_á</w>
song_ phương</w>
phú_ quý</w>
phó _thủ_tướng</w>
phàm_ bình</w>
năm_ mươi</w>
nhỏ_nh ẹ</w>
mô n_đồ</w>
lãnh_ thiền</w>
hoàng_phủ_ tinh</w>
giả _như</w>
d i_l
cứu_ chữa</w>
ch ri
bổn_ phận</w>
b y</w>
a_ mai</w>
_m ịch</w>
vi l
từ_t ốn</w>
thị_tr ường_
n_h uynh</w>
m ỏng_
du_ kích</w>
ch ích</w>
bất_ cập</w>
b ịch</w>
ỉ u</w>
và _đào_tạo</w>
rất_ đỗi</w>
ró n_r
olympi a</w>
nhà_ giáo</w>
người_ người</w>
ng_t ai</w>
mẹ _
l ả
không_ tưởng</w>
hiệu_l ệnh</w>
har ve
gấp_ rút</w>
danh_ mục</w>
ch ưng</w>
c .
bảo_ toàn</w>
ứng_ xử</w>
ẩm_ thực</w>
tất_ huyền</w>
thừa_ kế</w>
rón_r én</w>
ngũ _
h ực</w>
diệ p_th
d ang</w>
_d ại</w>
tịch _mịch</w>
toà n_th
tiểu_ siêu</w>
showbi z</w>
ph ác</w>
n_đ oàn</w>
mũi_ tên</w>
mùa_ đông</w>
lãnh_ đạm</w>
hình_ bóng</w>
hoan_ nghênh</w>
cẩm_ nang</w>
x ài</w>
h 30</w>
cung_ ứng</w>
__ _
30 .000</w>
/ 2018</w>
đ ẩu</w>
xưa_ kia</w>
tu_ sĩ</w>
nhắm_ nghiền</w>
n í
miss _te
lu ận_
khả _ngọc</w>
ho a_s
chủ_ nghĩa_
ca l
x ướng</w>
t x</w>
se l</w>
quy_ củ</w>
qu ấy</w>
phá n_đoán</w>
mỉ a_mai</w>
gian_t ặc</w>
f c</w>
chiến_ mã</w>
đối_ lập</w>
đỏ _
úng_ tay</w>
trầm_ tư</w>
tr ại_
thể _chất</w>
thoáng_ qua</w>
r áp</w>
quang_ cảnh</w>
nhăn_ mặt</w>
n_đ ề</w>
m_ bẫy</w>
lỗ i_
liên_ xô</w>
l íu</w>
huyền_ hoàng_
g en</w>
cạ m_bẫy</w>
công_ thức</w>
bạch _t
a .</w>
đỗ _cửu</w>
é c</w>
âu_dương_ phong</w>
tranh_ giành</w>
thơ _
rơ m</w>
nghị ch_
hình_ phạt</w>
cho ang</w>
đặ ng_th
x ì</w>
s à
quấy_ nhiễu</w>
hắng_ giọng</w>
ham_ muốn</w>
chóng_ mặt</w>
_d i
đỉnh_ cao</w>
áo_ bào</w>
thể _xác</w>
thượng_ phong</w>
khở i_hành</w>
gh an
đỗ _
tr ật</w>
thủy_ tinh</w>
thú_ nhận</w>
th òi</w>
n_l an</w>
l í</w>
hồi_ giáo</w>
hung_ hãn</w>
già_n ua</w>
cùng_ cực</w>
ch anh</w>
a ids</w>
_kh ử</w>
. _c
ò a_
ð a</w>
vệ _sĩ</w>
trừ _khử</w>
ninh_ đạo_
nghẹt_ thở</w>
mê _hồn</w>
minh_ châu</w>
m óc_
l ùm</w>
_t ang</w>
đại_ minh</w>
v ơi</w>
uỷ _b
thù _h
th ô_
ph ệ</w>
ni e</w>
ng_h ọc</w>
n_g àng</w>
mềm_ nhũn</w>
gọ n_gàng</w>
d ây_th
vương_ phi_
vô _sự</w>
tiểu_ đường</w>
tb n_t
tbn_t ennis</w>
ngọc_ đường</w>
ng_t ận</w>
lắng_ tai_nghe</w>
kết_ cục</w>
hung_ hiểm</w>
gs .
dài_ hạn</w>
d ẻ</w>
d ge</w>
công_ nhiên</w>
cu p_châu_âu</w>
chúng_ em</w>
tú y_
mùi_ vị</w>
lớ n_tuổi</w>
ch ếch</w>
bạ n_hữu</w>
b âng_
_t ăng</w>
7 0
5 00,000</w>
1_ ,</w>
ư a_th
ð ộc</w>
tử _đình</w>
tiến_tr iển</w>
quá ch_
lật_ đổ</w>
hồng_l an</w>
hà _kh
giải_ đáp</w>
chào_ đón</w>
c ù</w>
bình_ đẳng</w>
b ân_
z il</w>
đại_ sư_huynh</w>
sáng_ ngời</w>
quốc_ vương</w>
luật_ lệ</w>
long_ dương</w>
h ứng_
củ ng</w>
chú _thích</w>
cao_ quý</w>
bại_ lộ</w>
viện_ phí</w>
trườ ng_lâm</w>
quán_tr ọ</w>
nương_ tử</w>
miêu_ tả</w>
l ượ
kết_ giao</w>
hăng_h ái</w>
ho ạ
gật_ gù</w>
c à</w>
bỏ _ph
bent ley</w>
thu ý
nh âm_
m ải</w>
l è
hò_h ét</w>
giả _bộ</w>
e x
e n_
d al
buồn_th ảm</w>
201 6</w>
ủ ng_
ưa_th ích</w>
ũ y</w>
đề _cử</w>
vụ ng_
trăm_ ngàn</w>
tam_ gia</w>
mi s
d ậm</w>
cửa_ lớn</w>
thủy_ nguyệt</w>
thoái_ lui</w>
thiê n_lý</w>
nghiệp_ vụ</w>
n_l inh_
khu ông</w>
dự _phòng</w>
b ú</w>
b lu
ồ m_
õ a</w>
tạ _an</w>
trang_ nghiêm</w>
sách_l ược</w>
quay_ cuồng</w>
kim_ ngạch</w>
hung_ hăng</w>
giáo_dục_ và_đào_tạo</w>
cố ng_hiến</w>
am p</w>
5 _triệu</w>
vệ _tinh</w>
t ọa_
t ượng_
nghênh_ đón</w>
ngay_ ngắn</w>
n_h ậu</w>
microso ft</w>
m ờ_mờ</w>
kinh_ đô</w>
hang_ động</w>
go t_talent</w>
giang_ sơn</w>
bốn_b ề</w>
bơ m</w>
premi er
nh ác</w>
n_đ ình_
làm_ loạn</w>
hồn_ nhiên</w>
họa_ sĩ</w>
h é
dương_ phong</w>
diệu_ kế</w>
b re
_ch ừng</w>
6 2</w>
x íu</w>
thương_ hại</w>
nâng_ cấp</w>
nhiễm_ trùng</w>
kho áng</w>
hà _v
hoa_ quả</w>
gia_ cầm</w>
g tvt</w>
d ẫm</w>
ch ăng_
c ồn</w>
/ 5
ể _dục</w>
đơn_th uần</w>
đo ạn_
v đ
ngày_ lễ</w>
nghiêm_ ngặt</w>
li e</w>
l ệch</w>
dẫn_ dụ</w>
dân_ sự</w>
chấn_ nam</w>
tậ p_th
truy_đ uổi</w>
t n
r ăng_
hưởng_th ụ</w>
f pt</w>
cu ả</w>
chịu_ khó</w>
châu_ báu</w>
b ục</w>
tố ng_th
trợ _lý</w>
thân_ thủ</w>
phượng_ hoàng</w>
phát_ điên</w>
m ầm</w>
hàn_ quang</w>
dạy_ dỗ</w>
cư_x ử</w>
chiế n_h
a c_
_th ơ</w>
ước_ hẹn</w>
ò a_thượng</w>
tống_sư _đạo</w>
th ao</w>
nh í</w>
ngoại_ ô</w>
ng er</w>
m ĩ</w>
khai_ mạc</w>
hắc_ bạch
điềm_ tĩnh</w>
thiế n</w>
t ỵ</w>
sát_ nhân</w>
rảo_ bước</w>
qu àng</w>
pp i</w>
ku na
ch âu_l
abi ng</w>
_s ệt</w>
ứ a_
ướt_ đẫm</w>
đánh_ lừa</w>
trấ n_thành</w>
sợ _sệt</w>
s ắm</w>
phát_ minh</w>
ph iên_t
n_h ưởng</w>
n .
lưỡ ng_l
kinh_ hoảng</w>
c ắn_
_t ỳ</w>
vô_t ư</w>
tan_ nát</w>
t ì</w>
quái_ lạ</w>
phân_ loại</w>
nổi_ cơn</w>
nhất_ trí</w>
n ợ
kho ai_
_d iệu</w>
15 /2</w>
ớ t_
điên_ rồ</w>
u n
tứ _ph
tuấ n_tú</w>
thông_ tư</w>
giá _
dương_ tử</w>
che_ kín</w>
_v ạn_
tốt_ lành</w>
tần_ vương</w>
to yo
t ăm_
nấu_ ăn</w>
n ồng</w>
mà ng_
h ậm_
b u</w>
a_ ]</w>
_ng ụ</w>
đị a_thế</w>
trố n_tránh</w>
trường_ sa</w>
tranh_ đoạt</w>
thất_ nghiệp</w>
r òng_
phó _
phá _sản</w>
phiền_ não</w>
nhà_ nghiên_cứu</w>
ng s</w>
lý _lan</w>
khủ ng_long</w>
hàm_ lượng</w>
chủ_ quan</w>
b ồng_
6 6</w>
đồng_ phục</w>
tr ôi_
tiệ c_
tinh_ trùng</w>
sai_ khiến</w>
s ành_
nh e</w>
mật_ thiết</w>
mã o</w>
lộ ng_lẫy</w>
khuy nh_
họp_ báo</w>
h ô_
gi òng</w>
cá n_
bừa_ bãi</w>
_v inh</w>
_ cô</w>
uyển_ chuyển</w>
u ể
tàn_ bạo</w>
nổi_ nóng</w>
n ồ
vững_ vàng</w>
uể _o
uể_o ải</w>
ti ta
thá p_
r è</w>
r án</w>
phó _t
lưu_ hắc_
lo_ liệu</w>
l ẫ
hậm_ hực</w>
fran kie</w>
cả _th
đám_ tang</w>
vắng_ mặt</w>
tự _d
te h
phù _thủy</w>
nguyên_ vẹn</w>
dung_ nhan</w>
đ ốc_
w ard</w>
tùy_ ý</w>
thập_ niên</w>
thi_ sĩ</w>
sừng_ sững</w>
nội_ địa</w>
nd đt</w>
minh_ hóa_
gia_ tộc</w>
chu_ thiên_
ch ơ
bân_ ni</w>
đ iếc</w>
ð ồ
x úm</w>
trang_ web</w>
tho n</w>
olympi c</w>
người_ tình</w>
n ẻo</w>
m o</w>
lôi_ cửu_chỉ</w>
d ĩnh_
bằng_ được</w>
bảo_ quản</w>
ay_ ho
_c ục</w>
đồng_ đội</w>
đ ứ
x ăng_
vô _hạn</w>
nước_ bọt</w>
lão_ trượng</w>
ju ven
iê ng_
hà _đông</w>
do _thái</w>
công_ suất</w>
al -
đa_ phần</w>
ð iển</w>
x uyên_
tt i</w>
tr ỗi</w>
thiệt_ thòi</w>
th ốt_
nh ối</w>
mô n_học</w>
h ức</w>
gấp_ bội</w>
dân_ lập</w>
cử _nhân</w>
bụ i_
bậ c_
_s o
ứ ng_long</w>
độc_ nhất</w>
tậ n_hưởng</w>
tâm_ phúc</w>
thực_ tình</w>
te n
rộ n_r
nội_ tình</w>
m_ s
kho anh_
cũ _
bđ s</w>
5 9
vật_ dụng</w>
trùng_ trùng</w>
ste r</w>
nguyễn_h ữu_
nghĩa_ trang</w>
minh_hóa_ bơi</w>
làm_ nhục</w>
h èn</w>
cha t</w>
bo bb
v o</w>
r ốt</w>
m ờ_
m ồ</w>
m ắm</w>
há n_
hà _hà</w>
hy_ lạp</w>
bút_ chì</w>
27 29
0, 000_
x ắc</w>
tuy ê
trung_ úy</w>
thủ _cấp</w>
thuậ n_tay</w>
thiểu_ số</w>
ph ơi_
nhà_ xuất_bản</w>
ngũ _hành</w>
ng ấm</w>
new s
nam_ định</w>
mari anne</w>
lẫ n_lộn</w>
lưu_ hành</w>
lo e</w>
huyền_t ông</w>
dự _liệu</w>
cổ _thụ</w>
đại_ huynh</w>
tnh h</w>
teh ran</w>
sinh_ mệnh</w>
ngu_ huynh</w>
hò a_h
hiểm_ trở</w>
g áp</w>
ủy_ viên</w>
đá i</w>
đ ốm</w>
tư_ không</w>
tiêu_dao_ tử</w>
thanh_vân_ sơn</w>
rầu_ rĩ</w>
phòng_ bệnh</w>
nhức_ nhối</w>
n_th ù</w>
l ố
hồ_xung_ .</w>
e m
cổ _vũ</w>
biên_ bản</w>
bao_ bọc</w>
văn_ nghệ</w>
tình_ nghĩa</w>
trông_ nom</w>
th ốc</w>
ngoại_ quốc</w>
khốn_ kiếp</w>
hóa_ trang</w>
hoa_th iết_
chăm_ chỉ</w>
c ấ
bình_ thuận</w>
ăng_ kh
tiêu_ tiêu</w>
rời_ bỏ</w>
phương_ đông</w>
m g</w>
kh ăng_kh
giá n_
g ập</w>
ch ư</w>
_c ờ</w>
2 .000</w>
vị _thế</w>
trừng_ trừng</w>
ri s</w>
qu ẻ</w>
o f</w>
là o_
j enni
cô d
_vă n_tú</w>
_ kỳ</w>
. _l
tậ n_lực</w>
n eo</w>
lo ay_ho
loay_ho ay</w>
liên_h ợp_
cao_ ốc</w>
bàn_ ghế</w>
_t an</w>
_m ô</w>
0 16
ằng_h ắng</w>
đặc_ trưng</w>
trái_ ngược</w>
thiết_ thực</w>
sớm_ muộn</w>
nhiê n_liệu</w>
mật_ mã</w>
du ỗi</w>
cách_ biệt</w>
b ửa</w>
_h iệu_
6 .
ống_ tay_áo</w>
x ám_
tự_d ưng</w>
th ầm_
qua ng_l
liệt_ sĩ</w>
kh ay</w>
kh ao_
hùng_ vĩ</w>
giáo_ hội</w>
d ai</w>
chế_ ngự</w>
chăng_ nữa</w>
af ghan
_c ố</w>
vùng_ vẫy</w>
vu a_
tức_ tối</w>
tập_th ể_dục</w>
tu ỳ</w>
trung_ châu</w>
qu ỹ
phát_ ngôn</w>
lũ y</w>
lou d</w>
khốn_ nạn</w>
hỏa_ hoạn</w>
hã nh</w>
hoàn_ chỉnh</w>
bảo_ mật</w>
_b ay</w>
ảy_ may</w>
đỏ _r
phạm_ thị
phương_ bất_bại</w>
ninh_đạo_ kỳ</w>
na po
mở _đầu</w>
m ảy_may</w>
lưỡng_l ự</w>
ly_ kỳ</w>
ly_ hôn</w>
l iều_l
ký_ kết</w>
gấp_ gáp</w>
chiến_ binh</w>
điểm_ tâm</w>
ðức_ nặc</w>
y_ dược</w>
thủy_ sinh</w>
sta n
sing er</w>
lư ng_
juven tus</w>
ig rave</w>
hành_ sơn</w>
dị_ ứng</w>
d ồi_
côd ét</w>
c úp</w>
_đ ùa</w>
_h ổng</w>
„ _l
ẳ n</w>
đầu_ mối</w>
âu_dương_ thống</w>
vị _t
trách_m óc</w>
r ành_
lý _văn_tú</w>
lý _b
khổ ng</w>
j es
hùng_h ậu</w>
go l
dồi_ dào</w>
cứ ng_đ
cụ t</w>
ba_ lan</w>
ð ị
w w
tử_l ăng_th
tra ng_t
s ầu_
phương_ nghị</w>
ninh_ bình</w>
nh úng_tay</w>
nguyên_ soái</w>
một_ mực</w>
mất_ mặt</w>
lò _s
land ry</w>
l ừng_
im_ bặt</w>
dân_ gian</w>
cổ _tích</w>
b anh</w>
/04 /2012</w>
ă n_l
ri a_
po iro
phí _công</w>
như _t
nh ẫ
ng_h òa</w>
lưu_hắc_ thát</w>
lò_s ưởi</w>
luy ến_
kế_t oán</w>
kiệt_ sức</w>
i n_
ho nda</w>
chúa_ công</w>
afghan is
ệ m</w>
y e
tệ _hại</w>
tây_ phương</w>
trúng_ kế</w>
thạ ch_động</w>
so i_
s ó
nỗi_ lòng</w>
lỗ _hổng</w>
l ù
gia_ bang</w>
dễ _
b ỉnh</w>
_t ổ</w>
điều_ dưỡng</w>
ăn_th ua</w>
ð ổng_
về _phần</w>
v ực_
thua_ kém</w>
sa nh_
r ụt_
poiro t</w>
m ướn</w>
m ít</w>
khu ôn</w>
ha cker</w>
diệp_th anh</w>
_v ẩn</w>
_d iễn_
àn_ khàn</w>
trả m</w>
s ụt</w>
ri nho</w>
p la
nhộn_ nhịp</w>
nha_ trang</w>
khuyết_ điểm</w>
kh àn_khàn</w>
ja mes</w>
i_h òa</w>
h ờ</w>
el l</w>
chủ _lực</w>
đông_ bắc</w>
thuốc_ mê</w>
thu_ hoạch</w>
sáng_ chế</w>
r ang</w>
nga_ châu</w>
ng ạ
lạt_ ma</w>
lý _ph
chả _lẽ</w>
c ẳng</w>
*_*_ *_*_
uộc_ tội</w>
tử _nạn</w>
tôn_ sư</w>
thân_ yêu</w>
thu_ phục</w>
sáng_ kiến</w>
rụt_ rè</w>
r ải_
nghiêng_ mình</w>
lễ _phép</w>
l ọt_
hiền_ muội</w>
f an
dương_ quân</w>
dò _hỏi</w>
con_ nhỏ</w>
_th ai</w>
đồng_ bằng</w>
đẩy_ lùi</w>
vùng_ biển</w>
võ_ð ương</w>
thiên_th ạch</w>
tham_ lam</w>
sinh_ linh</w>
quầ n_đảo</w>
phân_ công</w>
ph ới</w>
ngày_ ngày</w>
nguyên_ do</w>
k ẽ
hoa_ viên</w>
giải_ tán</w>
giả_ mạo</w>
ể _nào</w>
đồ_ uống</w>
đ ậy</w>
xu ồng</w>
thối_ tha</w>
thảm_ hại</w>
pier re</w>
phí m</w>
nh ướng</w>
lo mon</w>
liên_t uyết_
l ấn</w>
kế _thừa</w>
hoàng_ thái_hậu</w>
gợi_ cảm</w>
gi ô
g ác_
dứt_ điểm</w>
c âm_
bị a</w>
_c ôn</w>
tây_ vực</w>
thương_ xót</w>
nhẫ n_tâm</w>
le ague</w>
hô_ hoán</w>
gar in</w>
trợ _cấp</w>
thành_ thực</w>
o_th ét</w>
lý _huynh</w>
hội_ chứng</w>
gà o_thét</w>
cá u</w>
cuố c</w>
5 8
đồng_ nghĩa</w>
v á</w>
tr on</w>
tiền_ đạo</w>
sơ n_t
s ô</w>
qu ít</w>
ng án</w>
mã n_ng
mi ko</w>
kiểm_ toán</w>
háo_ hức</w>
f re
et te</w>
công_ sai</w>
00 0,000</w>
ông_ ta</w>
vũ _cường</w>
thủ _thành</w>
te abing</w>
rồi_ đây</w>
quanh_ co</w>
nh ẩy</w>
ngây_ ngất</w>
lanh_ lảnh</w>
khuyết_ tật</w>
k iểu_
hứ a_
g or
g er</w>
5 -
ủ n</w>
đánh_ đập</w>
đa_ khoa</w>
vườn_ hoa</w>
phi_ trường</w>
iễ m</w>
báo_ hiệu</w>
_th u</w>
ố _
đi_ đi</w>
â y
v iết_
tiệ n_tay</w>
thỉnh_ cầu</w>
sóng_ gió</w>
riê ng_
ngu ồ
ngh ịch
la x
gian_ khổ</w>
bình_ phục</w>
bra zil</w>
_th ú</w>
[ _
. _ch
đương_ gia</w>
th ắm</w>
s en
quy_ luật</w>
nguy ền</w>
mặt_ biển</w>
láng_ giềng</w>
i_l ửa</w>
công_t ôn</w>
công_nghệ _
công_ đoàn</w>
„_h ạng</w>
đăng_ quang</w>
đ ợi_
sở _hữu_
sơ _mi</w>
ph an</w>
nửa_ lời</w>
hạ _thần</w>
b ính</w>
_m á</w>
20 /11</w>
thù_ oán</w>
săn_ sóc</w>
p en
người_ hầu</w>
mer ce
d ơ</w>
d iếm</w>
đồ _s
vị n</w>
lỗ i_lầm</w>
h í
cơ_ch ứ</w>
ba_ tư</w>
b ô</w>
_ng ựa</w>
ị _
đất_ liền</w>
sự -
s óc_
ph ỉ</w>
ng ứa_
n_h ướng</w>
mất_ mát</w>
dũng_ mãnh</w>
_b ỏ</w>
tề _h
thiên_th iên_
thiên_ chí</w>
t ăng_t
phong_ ba</w>
nội_ tâm</w>
năng_ động</w>
ngu ôi</w>
ng ợm</w>
mạnh_ dạn</w>
mu ô
liên_hợp_ quốc</w>
giao_ tình</w>
d á
cải_ tạo</w>
bê _b
b ọ</w>
b ón</w>
y_ khoa</w>
thốt_ nhiên</w>
thượ ng_hải</w>
p v
o pe
khu_ phố</w>
kh âm</w>
giáo_ huấn</w>
chạ y_th
chú a_thượng</w>
bộ _t
_đ ức</w>
xâm_ hại</w>
và i_
tàn_ phá</w>
tita nic</w>
thu ật_
thiên_ âm_tự</w>
t x
sự- ký</w>
phân_ tán</w>
phu_ quân</w>
nhỏ_nh ắn</w>
nghĩ nh</w>
mau ra</w>
kiên_ cường</w>
khu_ tập_thể</w>
hội_ nhập</w>
học_ kỳ</w>
cá ch
ðồng_ mỗ</w>
tắm_ rửa</w>
thượng_t ướng_quân</w>
thườ ng_lệ</w>
qu ỉ
pi ppi</w>
n_h ò</w>
hẹ n_hò</w>
bộ _binh</w>
_h ưng</w>
đề_ cao</w>
trung_ thực</w>
tiê n_đ
thí _dụ</w>
nguyê n_h
ngo ảnh</w>
n_t ối</w>
n ệm</w>
mới_ lạ</w>
mệt_ nhọc</w>
mê_m an</w>
hiện_th ời</w>
chu_ kỳ</w>
_h iểu</w>
7 /2</w>
5 .
võ _phục</w>
tào_ ứng_long</w>
thực_ tập</w>
th ớt</w>
th iểm</w>
sy l
quá _đ
qu ạ</w>
ng ứa</w>
l ly</w>
công_ nghệ_th
cung_ tên</w>
cao_ dương</w>
_v ai</w>
điểm_ số</w>
triết_ lý</w>
se r</w>
nôn_ nóng</w>
n áu</w>
m ẹo</w>
khô n_tả</w>
chuyển_ biến</w>
xếp_ bằng</w>
vi r
tác_ chiến</w>
ruộ ng_
re so
ng_đ ài</w>
ku miko</w>
khả_ nghi</w>
iêu_l ưu</w>
e bo
16 57
0 -
vài_ ba</w>
sa m</w>
như _v
ngộ_ nghĩnh</w>
m p</w>
lục_ soát</w>
khiêu_ khích</w>
học_ đường</w>
chịu_ chết</w>
bình_ chọn</w>
bác_ học</w>
ar gen
_v ật_
_m au</w>
_h ầu</w>
_c ương</w>
1 _triệu</w>
đườ ng_th
ð ặng_
xứ _sở</w>
xăng_ dầu</w>
ng ừ
kế_ sách</w>
bí _hiểm</w>
đau_ xót</w>
ô_ gia</w>
thiếu_ thốn</w>
niêm_ yết</w>
ngồi_ ph
miss_te en</w>
lương_ thảo</w>
lá ch_
lách_ cách</w>
kỵ _mã</w>
cờ_ bạc</w>
chu_ thiên</w>
ch ừng_
c ấy</w>
_thanh_ ngưu</w>
đồ_s ộ</w>
trông_ coi</w>
tr uật</w>
sĩ _tử</w>
riêng_ biệt</w>
i_h ùng</w>
ghê _r
cho áng</w>
ch loe</w>
bec kham</w>
78 53</w>
ồ_ ạt</w>
điề n_linh_
ðào_ phương</w>
tự _phụ</w>
trương_ tĩnh_chi</w>
tra_ hỏi</w>
siêu_ phong</w>
sca n
rắn_ độc</w>
quỷ _
nhà_ ở</w>
nguyễn_ xuân_
ngo ặt</w>
kiểm_ định</w>
hấp_th ụ</w>
bộ _hạ</w>
/ 4
đ ắt_
đ anh</w>
ích_ kỷ</w>
tụ y</w>
tỉnh_ giấc</w>
rải_ rác</w>
nghiêm_ chỉnh</w>
lương_ thiện</w>
hu ỵ
công_nghệ_th ông_tin</w>
_ng uyện</w>
_diễn_ viên</w>
2 50</w>
v ãng</w>
từ _
tối_ om</w>
phổ_ho ằng</w>
nh ữ
mật_ độ</w>
lạnh_ buốt</w>
cấ p_t
am_ gmt7
ừng_ bừng</w>
ướng_ bỉnh</w>
đề n_b
xá _lợi</w>
tư ng_
thu_ cúc</w>
t ợn</w>
sa ms
sams ung</w>
s hi</w>
nh ộn</w>
nh ế
je sus</w>
ira q</w>
hữu_ ích</w>
hạ ng_
há t_
cứu_ giúp</w>
b ướng_bỉnh</w>
_t ôn</w>
_h ạ
đ iều_l
wil li
vương_phi_ dương</w>
tiểu_ thi</w>
như ng_
n_đ iền</w>
không_ kích</w>
khí _huyết</w>
hợ p_lực</w>
h ề
gánh_ vác</w>
eu ro</w>
cầu_ hôn</w>
bị nh</w>
ang i
vùng_ sâu_
v iêm_
tượng_ trưng</w>
thì_th ào</w>
sức_ sống</w>
ste phen</w>
phản_ cảm</w>
nguồ n_lực</w>
ng_t ích</w>
ng ượng</w>
ng ông_
ng áp</w>
má t_
lây_ nhiễm</w>
long_ dương_quân</w>
liên_t ưởng</w>
l iế
khao_ khát</w>
chuyển_ giao</w>
bất_ công</w>
b ung</w>
ac_ milan</w>
_ch uyển</w>
_ kích</w>
ỡ i_
đỏ_r ực</w>
vực_ thẳm</w>
thanh_ lâu</w>
sân_ nhà</w>
nữ _diễn_viên</w>
nhị _
nhà_h át</w>
i u</w>
huyề n_h
hc v</w>
h .</w>
cố _vấn</w>
bề _mặt</w>
bo t</w>
đả _kích</w>
điệ u_
đ èo</w>
ð ối</w>
u nd
phụng_ hoàng</w>
ng_t ưởng</w>
mất_ ngủ</w>
lẩm_ nhẩm</w>
l ác</w>
gir l
d ỡ</w>
cả_th ảy</w>
cơ_ch ế
chuyể n_hướng</w>
bình_ phong</w>
a t</w>
độ ng_thái</w>
vùng_sâu_ vùng_xa</w>
viện_tr ưởng</w>
tứ_ph ía</w>
ph ê</w>
lung_ linh</w>
chá y_
bu ga
? _
tức_ thời</w>
tác_ phong</w>
thác_ bạt_khuê</w>
sơ _t
r ô</w>
phòng_ ngự</w>
ni g
nhưng_ mà</w>
dưới_ trướng</w>
cơ_chế _thị_trường</w>
cây_ cỏ</w>
bất_ trắc</w>
_th ám</w>
7_ ,</w>
đ ực</w>
u ẩn_
tri_ kỷ</w>
thành_ thị</w>
sả ng_
sho p</w>
q h</w>
nghị _lực</w>
na n_
n_th ơ</w>
lạ ng_
hoà ng_l
ghê_r ợn</w>
d ới</w>
ch uốc</w>
bất_ tiện</w>
ba_ mẹ</w>
điềm_ nhiên</w>
đe n_tối</w>
u -
triển_ vọng</w>
ph ao</w>
n ê</w>
lý_xuân_ hồng</w>
lôi_ cuốn</w>
lo ại_hình</w>
hồ _b
el _
chẳng_th ể_nào</w>
cali for
c ậ
c n</w>
binh_ pháp</w>
ị n</w>
ề nh</w>
đí ch_
điền_linh_ nhi</w>
x ơ
vi gor</w>
tuyết_ sơn</w>
truyề n_lệnh</w>
thu ỵ
th ố</w>
r ác_
n ơ
mãn_ng uyện</w>
me r</w>
lập_ trường</w>
linh_ cảm</w>
l ụt</w>
hảo_ tâm</w>
ch ử</w>
ch ưởng_
an mar</w>
11 /9</w>
đồ i_
ð ảng</w>
ve y
tiếp_ đón</w>
thúc_ giục</w>
s òng_
phòng_ vệ</w>
o s</w>
nga ng_h
n ùng</w>
lục_ bất_
lào_ cai</w>
khát_ khao</w>
kháng_ chiến</w>
dá ng_điệu</w>
c re
đ ờ</w>
ví _như</w>
u s</w>
tôn_ vinh</w>
t_m ắng</w>
mỹ _
mẫ n_
len_l én</w>
hải_ dương</w>
_vạn_ kiếm</w>
_ph ẩm</w>
7 9</w>
ệ _tử</w>
đổ _bộ</w>
thể _lực</w>
thương_ bát</w>
thám_ thính</w>
thá ng_
th óc</w>
ly_ khai</w>
kì m_
ké p</w>
khoanh_ tay</w>
huyền_ nạn</w>
e _d
dã _tâm</w>
chập_ch ờn</w>
đau_ buồn</w>
tăng_t ốc</w>
tù _
s ủng_
s ờ
s cu
qu áng</w>
pho ng_thái</w>
n íu</w>
lạ _mặt</w>
liên_tuyết_ kiều</w>
l ầy</w>
hàng_ ngũ</w>
gi ấu_
dịch _lam</w>
cải_ tiến</w>
chứa_ đựng</w>
bách_ xuyên</w>
đặt_ hàng</w>
tầ ng_lớp</w>
ta i
sảng_ khoái</w>
n_tr ừng</w>
n son</w>
mại_ dâm</w>
kiêu_ hãnh</w>
hạ_ giọng</w>
g ạt_
chứ ng_th
bạch _vạn_kiếm</w>
ber na
afghanis tan</w>
đ ít</w>
đ ính_
yv ette</w>
tần_ nhi</w>
tĩnh_ mịch</w>
tiếng_ kêu</w>
tiêu_ tán</w>
lề _đường</w>
lă n_lộn</w>
ha ll</w>
dựng_ đứng</w>
của_ cải</w>
chạy_th oát</w>
7 4</w>
đ ụng_
ă n_t
thị_trường_ chứng_khoán</w>
ph iêu_lưu</w>
như_v ầy</w>
nh ứt</w>
nh ớn</w>
n_ kém</w>
m ao_
m .</w>
m -
hồ _thanh_ngưu</w>
dương_ hải</w>
d ơi</w>
chuyên_ viên</w>
che n_
b è
. _s
ờ_m ịt</w>
đại_ giang</w>
vô_ cớ</w>
thủ _thuật</w>
thông_ huệ</w>
ser i
nguyê n_t
ngoại_ lệ</w>
mơ_ mộng</w>
l ấn_
l uộc</w>
khai_ huyệt</w>
bất_ thần</w>
bất_ hối</w>
bá u_
12 48
vạ n_t
v á
uố n_
tâm_ nguyện</w>
trọ ng_tâm</w>
trưởng_ ban</w>
scan dal</w>
rối_ bời</w>
mr _đàm</w>
m ờ_mịt</w>
m iễ
là ng_
hiế p_
cười_ gượng</w>
ch ật</w>
bó i</w>
báu_ vật</w>
b y
đồ ng_l
tổng_th ể</w>
thực_ trạng</w>
sủng_ ái</w>
s ưởi</w>
nh ang</w>
ngẩng_ mặt</w>
nghị _luận</w>
nghiêm_ mật</w>
bu m</w>
„_th iế
xem_ thường</w>
tưng_ bừng</w>
tuyệt_ nhiên</w>
thị _phi</w>
thương_ cảm</w>
t ước_
p_th iên_
nó ng_r
n ấc</w>
kỵ _sĩ</w>
hương_ vị</w>
hi lla
26 18
đông_ đúc</w>
xu i</w>
xi t</w>
tườ ng_tận</w>
tiếp_th u</w>
thăm_ hỏi</w>
thiên_t ài</w>
nước_ biển</w>
nhược_ điểm</w>
kết_ bạn</w>
ho ằng</w>
bobb y</w>
„_thiế u_long</w>
đầy_ tớ</w>
đình_ đám</w>
đào_ gia_kỳ</w>
u_l inh</w>
thô _lỗ</w>
t òng</w>
n iên_
lừng_ danh</w>
lao_ ái</w>
khí ch
i acute</w>
ch an
b ệ</w>
_ giận</w>
12 -
ẫ ng</w>
ô _h
x òe</w>
tám_ mươi</w>
tái_ nhợt</w>
oai_ danh</w>
ngượng_ ngùng</w>
mị t_m
làm_ khó</w>
khai_ sơn</w>
j c</w>
hiếu_ thành_vương</w>
giao_ chiến</w>
con_ nít</w>
bỏ_ph iếu</w>
b tc</w>
b ru
_đ ẻ</w>
vương_ tử</w>
trong_ sạch</w>
ter s</w>
sơ n_đông</w>
r ủi</w>
lu mi
huyền_hoàng_ giáo_chủ</w>
dè _d
bách_t ính</w>
6 8
1, 5</w>
ử ng_
w a</w>
việt_ kiều</w>
v in</w>
u p
to ky
thể _dục</w>
thình_th ịch</w>
náo_ loạn</w>
ngo ạn_
môi_ giới</w>
lôi_ phi</w>
liê n_hồi</w>
cũ_ kỹ</w>
ban_ nãy</w>
_đ âu</w>
. 9
địa_ hình</w>
đền_b ù</w>
vũ_tr ang</w>
tuấn_ mã</w>
thiên_h à</w>
sa_s ầm</w>
nhục_ nhã</w>
như_t ờ</w>
nh ẵ
n_th ủy</w>
ma ng_
m iệt_
lưu_ bị</w>
l è</w>
gi ơ
dự _tính</w>
bỉ _nhân</w>
_kh ai</w>
19 /11</w>
ư ới</w>
đổ _nát</w>
và nh_
v òi</w>
tam_ cô</w>
s k
r ền</w>
niệm_ phật</w>
mar tin</w>
l ảng</w>
khí a_
giam_ giữ</w>
bắt_ nguồn</w>
ar a
ăn_ ở</w>
you tu
v ong_
tốt_ bụng</w>
tân_ khách</w>
trang_t ương_vương</w>
khía_ cạnh</w>
dè_d ặt</w>
ti l
thuý _sơn</w>
thiện_ cảm</w>
súc_ sinh</w>
qua n_th
ngô_ ứng</w>
nguy _kịch</w>
ngh i_lễ</w>
hiểm_ nghèo</w>
đê _tiện</w>
xe _ngựa</w>
w es
u r</w>
t ùng_
quảng_ trị</w>
quá t_mắng</w>
ph é
mẹ_ kiếp</w>
lưu_ giữ</w>
hạ_l ong</w>
gia_ súc</w>
buồn_ ngủ</w>
_l ô</w>
đơn_ độc</w>
đ -
xo e</w>
vir gi
v ãi</w>
từ_thiên_ xuyên</w>
tính_ nết</w>
tiề m</w>
thượng_quan_ sách</w>
thiên_ sơn</w>
th iệ
te x
song_h iệp</w>
nước_ nhà</w>
ngô _thị
nguy _ng
n ê
m ời_
lũ_l ụt</w>
lo ng_th
khích _lệ</w>
hoạn_ nạn</w>
d ong</w>
c ặ
bệnh_ lý</w>
đá n</w>
ð ạt</w>
tà n_t
trư _cốc</w>
th ẹ
phụ _hoàng</w>
n_l ớp</w>
khăng_kh ăng</w>
gian_ nan</w>
chá n_ng
ch er</w>
c ưa</w>
b ế_t
ẫ n_thờ</w>
đại_ hoàng</w>
đu n</w>
w ay</w>
vô _l
truy_ kích</w>
thành_ đạt</w>
tho i</w>
quán_ rượu</w>
kỳ _hạn</w>
kh ấn</w>
k iêu</w>
hồi_ âm</w>
gi ếm</w>
danh_ vọng</w>
công_ vụ</w>
ch òm</w>
bế_t ắc</w>
biết_ ơn</w>
b ần</w>
_m e</w>
ả n_đ
xót_ thương</w>
thành_ quả</w>
thành_ hình</w>
th ẫn_thờ</w>
phù _dung</w>
phàn_ nàn</w>
nhận_ diện</w>
bo ong</w>
a_h át</w>
790 9</w>
y_ nhân</w>
xanh_ biếc</w>
thương_ hải</w>
th iệp</w>
súc_ vật</w>
p ri
m ập_
le ster
khinh_ thường</w>
hậu_ viện</w>
g ở</w>
chiếu_ sáng</w>
ch ít</w>
bệnh_ tình</w>
_c up</w>
10 -
. _d
uni ce
trực_ thuộc</w>
trở_ mặt</w>
phong_th ư</w>
n ịnh_
k s
cất_ giấu</w>
ba sel</w>
a_ hoàn</w>
a_ bích</w>
đợi_ chờ</w>
êm_ ái</w>
z a</w>
yên_ trí</w>
n_l ễ</w>
n ở
kh ép_
hiệ n_hữu</w>
dự_ bị</w>
dò m_
cáo_ buộc</w>
c òng</w>
bí ch
ưu_ điểm</w>
x ỏ</w>
vị _
uẩn_ khúc</w>
tả n_
th ờ_
nhị p_
n ỏ</w>
n ô_
l ẫm_
ké o_th
khuôn_ viên</w>
hữu_ thủ</w>
200 3</w>
ập_t ắt</w>
đỗ _t
trình_ làng</w>
tay_ vợt</w>
rầm_ rộ</w>
quý t</w>
qu ặc</w>
p m</w>
năm_ xưa</w>
như _
ngang_ ngược</w>
mariuy t</w>
linh_ mục</w>
l ối_
ku rt</w>
h ờn</w>
g ượng_
er ne
d ập_tắt</w>
b ừng_bừng</w>
b ật_
ath ena</w>
_th ọ</w>
_ng ữ</w>
_l ạt</w>
đ h
tt i_
tinh_ binh</w>
nh ảm</w>
ngự _sử</w>
ngạo_ mạn</w>
n ao</w>
mil k</w>
kéo_th eo</w>
hoa_ yêu</w>
chứng_ cứ</w>
c ãi_
7 8</w>
v ớ
tái_h ợp</w>
thờ_ ơ</w>
thập_ kỷ</w>
ph anh</w>
nhiế p_thiên_
liên_ châu</w>
h n
giáo_ khoa</w>
bức_ xạ</w>
_g o
ứ u</w>
đông_ nam</w>
x áo_
tủ _lạnh</w>
to r
thi_ tuyển_sinh</w>
thanh_ xuân</w>
t áp</w>
ng_đ ãng</w>
kh ốc_
harve y</w>
g ốc_
e mi
bẩm_ sinh</w>
_đ ỏ</w>
_đ oàn</w>
_d u</w>
19 -
ống_đ ốc</w>
youtu be</w>
xuất_ xứ</w>
x ưng_
tuổi_ đầu</w>
th inh</w>
quanh_ quẩn</w>
n ền_
l ó
k en</w>
hình_ thù</w>
gia_ lai</w>
gh ì</w>
chính_ đáng</w>
anh_ thư</w>
_v i</w>
ủ _r
võ _sư</w>
v óc_
tự_ ái</w>
tài_ ba</w>
t ụng_
phù _hộ</w>
nồng_ nặc</w>
no r
ngu ội</w>
nghi_ thức</w>
khiếu_ nại</w>
i ê</w>
hân_ hạnh</w>
huynh_ trưởng</w>
cho lester
b ặm</w>
argen tina</w>
__ __
đánh_ rơi</w>
x ay</w>
tổng_ bí_thư</w>
thủy_ sanh</w>
thườ ng_th
t ết_
nổi_ loạn</w>
nh ầm_
ngh inh_
lý _l
khó_ coi</w>
khó _nh
cá u_
bả n_thảo</w>
bái_ tử_đình</w>
_thế_ nào</w>
_ph í</w>
7 6</w>
tức_ cười</w>
tr uyện_
thuộc_ lòng</w>
re u
r ành</w>
b iệ
12 /2</w>
đ o_
tích _hợp</w>
phục_ kích</w>
nhầm_ lẫn</w>
nhi_ đồng</w>
ng ành_
my anmar</w>
m ía</w>
lú a_
giáo_ đồ</w>
f la
cảnh_ sắc</w>
chỉnh_ tề</w>
califor nia</w>
bi_ kịch</w>
ba_ lô</w>
ô n_t
yêu_ đương</w>
vụng_ về</w>
unice f</w>
trong_ trẻo</w>
tr ề</w>
thu_ dọn</w>
th iền_tr
thiền_tr ượng</w>
t y_
say_ xỉn</w>
ni l</w>
n_tho ái</w>
khinh_ bỉ</w>
hội_đồng_ quản_trị</w>
cá _m
cha_ xứ</w>
ch ối_
bá ch_th
9 2</w>
/ 2008</w>
đắc_ lực</w>
đ ắm_
x õa</w>
tứ _xuyên</w>
tư_ bản</w>
tư _th
tuổi_ thơ</w>
thật_ thà</w>
tc_ news</w>
suy _tư</w>
nhân_ chứng</w>
ng_t ường</w>
ng_t ình</w>
l ở
kình_ địch</w>
kh ét_
huy _hoàng</w>
hiển_h ạc</w>
công_ trường</w>
ca ro
06 2019</w>
đặc_ thù</w>
vũ_văn_h uynh</w>
và _
tề_h ạo</w>
tình_ thương</w>
trân_ ân</w>
sơ _
r ứt</w>
qua ng_h
qu ắc</w>
nh a
ng_l ễ</w>
kh ựng</w>
i ii</w>
ho l
g ắng</w>
/0 6
ẩn_ cư</w>
trọng_ trách</w>
to_ tướng</w>
thể _diện</w>
thất_ lễ</w>
nh ao</w>
n_l ẽn</w>
man_ city</w>
kẽ m</w>
dạo_ chơi</w>
bẽ n_lẽn</w>
biên_ chế</w>
. _tr
đế m_
đếm_ xỉa</w>
điều_l ệ</w>
tàn_ khốc</w>
tiềm_ ẩn</w>
tiế n_thoái</w>
quyết_ đoán</w>
o à</w>
n ạ
mở _đường</w>
lưu_ trữ</w>
d ằn_
cứu_ vãn</w>
cao_ phong</w>
b a_th
độc_ hại</w>
ám_ chỉ</w>
x ôi</w>
vô _luận</w>
vóc_ dáng</w>
u l
tây_ nam</w>
tuy ể
sấm_ sét</w>
ph ả</w>
nước_ da</w>
nh ẽo</w>
nh ấp</w>
nh át_
ng_l ăng</w>
lệnh_hồ _huynh</w>
ko vic</w>
kho ác_
huỵ ch</w>
fi le</w>
cười_ mát</w>
ch ùng</w>
c ốc_
_vật_ chất</w>
_ho ãn</w>
3 00,000</w>
tính_ khí</w>
khai_ trương</w>
gi ụa</w>
f ar
chúng_ sinh</w>
9 9</w>
6 1</w>
xúc_ xắc</w>
trậ n_thế</w>
hã i_hùng</w>
chính_ phong</w>
cholester ol</w>
b ẩn_th
angi eli
3 _
ẩn_ chứa</w>
điê n_đảo</w>
ô n_hòa</w>
thiên_t ai</w>
th en</w>
sơ _ý</w>
phả n_t
nh ì
ngô_ chi_
khởi_ công</w>
joh n_
gi ằng_
cẩn_ trọng</w>
cười_ vang</w>
bắt_ nạt</w>
bang ko
q g</w>
ng òi</w>
hắc_bạch _tử</w>
h ỉ</w>
d ấy</w>
cơ_sở _vật_chất</w>
chấn_ sơn</w>
chân_ tình</w>
bộ t_
bẩn_th ỉu</w>
buga tti_
biển_ cả</w>
b ĩu</w>
b ang_
ạ_ mạt</w>
ù n_
ít_ lâu</w>
tư _thừa</w>
tâm_ địa</w>
tráng_ sĩ</w>
suy _th
qu ắc_
ngô_ bảo_
ngó n_
l ười</w>
hilla ry_
andre i</w>
đại_ hãn</w>
xương_ sống</w>
x i_
tố n_kém</w>
thức_ giấc</w>
t óc_
sự _vật</w>
s ào_
ro me</w>
qu ẳng</w>
phấn_ khích</w>
mắt_ xanh</w>
lân_ cận</w>
làm_ bạn</w>
kỹ _nữ</w>
khởi_ nghĩa</w>
khu âng</w>
hội_ họp</w>
e k</w>
bugatti_ vey
_c an</w>
7 7</w>
ủ _độ</w>
ác_ nhân</w>
vượt_ trội</w>
v ẩy</w>
tàu_ ngầm</w>
nói_ nhăng</w>
nhắn_ tin</w>
ngọc_ anh</w>
ngại_ ngùng</w>
nghĩ a_th
lê _h
li sa</w>
hắc_ bạch</w>
hó a_th
hoà _bình</w>
chân_ thật</w>
_th u_
_nh ạt</w>
vô_ nghĩa</w>
tích _hương</w>
suy_ yếu</w>
quan_t am_
p t_
mad rid</w>
kho ai</w>
h ừ
es s</w>
c ài_
angieli c</w>
_nh ục</w>
đạo_ quân</w>
x iề
vang_ vọng</w>
v ỏ
tái_ phát</w>
trần_th ủ_độ</w>
thiên_th iên</w>
thiên_ trúc</w>
th ính_
ta r</w>
so n_
r èn</w>
quân_ bảo</w>
phá _tan</w>
nhú n</w>
nhân_ ký</w>
nguyên_ khí</w>
ngao_ bái</w>
má t_m
d ra
c ữu</w>
bất_ hoán</w>
béo_ phì</w>
al bum</w>
_h ành_
x ú</w>
x in
vào_ cuộc</w>
tậ p_h
tư ới</w>
th ống_đốc</w>
quang_l iêm</w>
phù ng_tích</w>
năng_ khiếu</w>
nh ạt_
n_l ẫn</w>
n_h ùng</w>
le na</w>
hillary_ clin
doã n_h
bộ _môn</w>
_nh ị
ơ ng</w>
v ọ
t ật_
par t</w>
nh áo</w>
mạ ch_
khốc_ liệt</w>
hồi_ tưởng</w>
gh ẹo</w>
d ẫu_
cơ _thiên_
_tr ú</w>
tậ n_tâm</w>
phân_ tâm</w>
phiên_t òa</w>
i .
gr and
giả _t
giá _như</w>
d an</w>
chôn_ cất</w>
chi_ phối</w>
bách_ khoa</w>
_đ ứng</w>
_tr ưng</w>
_ph ật</w>
30 4</w>
vô_ ý</w>
thế _trận</w>
say_ đắm</w>
sa to</w>
nhân_ tố</w>
nghịch_ ngợm</w>
ngh i_hòa</w>
n õ
lo_ nghĩ</w>
la_ mã</w>
ca lo</w>
bạch _dương</w>
a k</w>
ấu_ chốt</w>
đ ằng_hắng</w>
t iệt</w>
r gh
quốc_ bảo</w>
quan_tam_ thắng</w>
nh_ đệ</w>
ne _
n_h àng</w>
mo nd</w>
m ấu_chốt</w>
m .
làm_ ơn</w>
j an
hoang_ vu</w>
cđ iê</w>
chủ _ch
bất_ tuyệt</w>
_ph ương_
_c ứu</w>
10 4</w>
ê n_h
àng_ buộc</w>
yaho o</w>
x é
vừa_ ý</w>
vạn_ vật</w>
vân_ ngọc_chân</w>
tr i_h
thập_ phần</w>
thu ý</w>
s ảo</w>
r àng_buộc</w>
quân_ nhân</w>
ng_đ ỡ</w>
n iên_h
mỹ _thuật</w>
mát_m ẻ</w>
khắc_ nghiệt</w>
i ae
hào_ khí</w>
bản_ sao</w>
b ênh</w>
79 11</w>
23 /12</w>
. _m
đèn_đ uốc</w>
xe_l ăn</w>
tủ i_
tôn_ quyền</w>
thâm_ nhập</w>
quốc_ dân</w>
phương_ chứng</w>
pho to
nặng_ tr
na h</w>
n ức</w>
lo ãng</w>
liều_l ĩnh</w>
l ửa_
hà n_s
h u</w>
gi ường_
chơi_ đùa</w>
chăm_ lo</w>
chân_ lý</w>
biết_ chừng</w>
ừng_h òng</w>
ờ_đ ẫn</w>
đ ừng_hòng</w>
đ ậm_
xa_x ăm</w>
te ng</w>
ph ần_th
ph ăng</w>
ngô_chi_ vinh</w>
lên_ án</w>
kinh_ sư</w>
iae a</w>
i r</w>
hạ _hầu_
hùng_ mạnh</w>
hàn_s ấm</w>
hoàng_ dược_sư</w>
gia_ hạn</w>
g ái_
cơ_thiên_ khuyết</w>
ch ầu_
biến_ hoá</w>
7 3</w>
197 5</w>
động_ mạch</w>
đ ờ_đẫn</w>
tuy _rằng</w>
trưng_ bày</w>
to ạ</w>
sách_ giáo_khoa</w>
ph ò</w>
ngông_ cuồng</w>
n_th ỏa</w>
mỏng_ manh</w>
m i_
lạnh_ ngắt</w>
i_l ẽ</w>
i t</w>
h ớp</w>
gia_ vị</w>
fa de
dương_ công_
dòm_ ngó</w>
d è</w>
_ng ẫm</w>
/ 2/2012</w>
đạo_ phúc</w>
x ào</w>
vô_s ắc</w>
thân_ cận</w>
nước_ tiểu</w>
ngàn_ vạn</w>
nguyên_ văn</w>
nam_ cương</w>
n uối</w>
lỗ_m ãng</w>
khó_nh ọc</w>
h ằ
h ũ</w>
gd p</w>
el d</w>
cơ _b
cà _mau</w>
chứng_ bệnh</w>
bâng_ khuâng</w>
b ùa</w>
ð ệ_tử</w>
trừng_ trị</w>
tiếp_ đãi</w>
tiêu_ sái</w>
tiê n_liệu</w>
sanh_ xuân</w>
phi_ tần</w>
nhà_tr ọ</w>
ngừ i</w>
nam_ bút</w>
má ch</w>
lý_th u_
la mbo
giải_ tỏa</w>
diêm_ vương</w>
ca f
bu s</w>
bangko k</w>
_kh uất</w>
xo n</w>
ug rave</w>
tái_ ngộ</w>
trần_ quốc_tuấn</w>
tra_ tấn</w>
ro o
quốc_ công</w>
qu ẹo</w>
phẩm_ chất</w>
ng âm_
n_ xoe</w>
lê n_lớp</w>
lambo rgh
giao_th ừa</w>
_văn_h óa</w>
_t ả</w>
, 5</w>
đâu_ đâu</w>
tá n_t
th ệ</w>
sơn_t ây</w>
r éo</w>
phụ _t
nguy ền_
k ỉ
jo kovic</w>
fe d</w>
ebo la</w>
chớp_ nhoáng</w>
c ớ
_nh ung</w>
_h iệp</w>
ư ỡn</w>
đ t
tận_ cùng</w>
til de</w>
thừ a_thế</w>
tam_ giác</w>
sa l
s ú
pu chia</w>
no kia</w>
nguyền_ rủa</w>
ng ừng_
n_h ồn</w>
mou rinho</w>
m ễ</w>
lục_bất_ hòa_thượng</w>
liên_ can</w>
l ừng</w>
ko h
f ê
dự _t
d d
căm_ ghét</w>
c a_hát</w>
bả _vai</w>
van_ xin</w>
sá nh_
of _me</w>
nội_ thể</w>
m éo_
lớn_ mạnh</w>
lơ _đ
lý_t ú
hấp_th u</w>
chật_ hẹp</w>
ch ừa</w>
bay_ bổng</w>
b ặt_
b ưu</w>
_th ác</w>
9 00</w>
ổ n_thỏa</w>
ð áng</w>
tối_ sầm</w>
táo_ bạo</w>
trọng_ điểm</w>
tri_ phủ</w>
ti n_học</w>
t ày</w>
suy _ngẫm</w>
r à</w>
n ộ
kỳ _thị</w>
hoá _ra</w>
hoàng_th ành</w>
giễ u</w>
giảm_ thiểu</w>
d re
cổ _đại</w>
cài_ đặt</w>
ch ặ
c ựa</w>
bay_ lượn</w>
_r o
8 2</w>
2730 9
đe n_s
yể u_
yể m_
tr e
thẹ n_th
thâm_ trầm</w>
thanh_ bình</w>
quý_ khách</w>
quyề n_thế</w>
qua_ mặt</w>
phát_ tài</w>
niên_h iệu</w>
m ủ</w>
lê_vă n_luyện</w>
làm_ lễ</w>
lo ren</w>
line _di
l li</w>
khẳng_ khái</w>
kháng_ sinh</w>
h ẻo_
gi ặc_
ga lax
ele an
cảm_ khái</w>
cla u
chìm_ đắm</w>
ce line_di
c y</w>
bù _đ
_t ại</w>
36 ,
ẩm_ ướt</w>
độ ng_thủ</w>
đắ n_đ
đắn_đ o</w>
xo ảng</w>
x ịt</w>
wa y
vietnam' s</w>
tương_ trợ</w>
triều_ đại</w>
toyo ta</w>
t ơi_
r ằm</w>
o ảng</w>
m iệ
l anh</w>
kh ắp_
hữu_ nghị</w>
hồi_ lâu</w>
hẻo_ lánh</w>
dịch_ bệnh</w>
diễ n_tả</w>
chủ_ch ốt</w>
berna be
_ anh</w>
động_ kinh</w>
đ ĩnh</w>
ðông_ phương_bất_bại</w>
v -
tổng_ binh</w>
tàn_ phế</w>
trêu_ chọc</w>
triết_ học</w>
tam_ điểm</w>
r ặng</w>
phần_th ưởng</w>
phản_ nghịch</w>
par k</w>
p_th uật</w>
nhà u</w>
lan_ truyền</w>
ki n</w>
giấu_ giếm</w>
cư _trú</w>
celine_di on</w>
cao_ cả</w>
bạch _h
_g ối</w>
10 .000</w>
xe _c
vật_ thể</w>
v ứt_
tích_l ũy</w>
r ình_
quân_ lính</w>
ngũ _t
k ra
hơi_ sức</w>
cổ _điển</w>
cáo_ biệt</w>
chí_ ít</w>
chi_ cục</w>
che _khuất</w>
b v</w>
- -</w>
âu_ dương</w>
uổng_ mạng</w>
tr o_
reu ters</w>
quấy_ rầy</w>
quan_ lại</w>
p -
nguyên_h iển</w>
n ịnh</w>
n o_
mỹ _dung</w>
mong_ ước</w>
khẩu_ khí</w>
hình_ tượng</w>
hà_v ỹ</w>
d ẻo</w>
cô_ gái</w>
c eo_
a_h ội</w>
79 19</w>
78 55</w>
đầu_ bếp</w>
vớ _vẩn</w>
v òi_
tương_ tác</w>
tuyển_ chọn</w>
toky o</w>
thụ y</w>
tan_t ành</w>
quí _vị</w>
ngoạn_ mục</w>
mar k</w>
hoa_ tiên</w>
h .
dịch _chuyển</w>
chứng_th ực</w>
a ng_th
19 /2</w>
í ch_l
xử _tử</w>
x ẻo</w>
v iền</w>
trấ n_thủ</w>
thông_ thiên_phong</w>
như ỡng</w>
ngành_ nghề</w>
lo ang_
loang_ loáng</w>
kỳ_ quặc</w>
hờ _h
h tt
dằn_ mặt</w>
cửa_ ải</w>
côn_ trùng</w>
ch ường</w>
bóng_ ma</w>
bà _trưng</w>
a_di_ đà</w>
_v ương_
ươ m_
đương_ đầu</w>
vứt_ bỏ</w>
v ard</w>
ti ng</w>
t y
quanh_ năm</w>
lê _d
làm_ phản</w>
hạng_ mục</w>
h ằn</w>
ch ênh_
_huy nh_đệ</w>
1 000</w>
đ k
tống_ phàm_bình</w>
tr ổ
thiếu_ hụt</w>
qu ầng</w>
nhìn_ chung</w>
nhân_ đạo</w>
n ập</w>
khuyên_ giải</w>
i_h ồi</w>
girl s_a
d t</w>
cứu_ hộ</w>
cầm_ cự</w>
công_ thành</w>
cá _
c ấn</w>
bấy_ lâu_nay</w>
a 1</w>
đại_ việt</w>
đường_ nét</w>
vị_t ất</w>
trống_ ngực</w>
tr iệt</w>
th âu_
suy _tính</w>
phụng_ mệnh</w>
nhân_ số</w>
nhiệt_ huyết</w>
lưu_ huynh</w>
il _
hous e</w>
h ự</w>
girls_a loud</w>
dính_ líu</w>
doãn_h ạ_mạt</w>
đồng_ cỏ</w>
đ ò
vâng_ dạ</w>
ve ne
v ôi</w>
túi_ xách</w>
thực_ tại</w>
th õng</w>
số_ một</w>
nấu_ nướng</w>
ninh_ thuận</w>
nh ổm</w>
ng_t ỉnh</w>
hoành_ tráng</w>
cộng_ hoà</w>
cố _định</w>
bị a_
bịa_ đặt</w>
bảo_ trì</w>
biểu_ thị</w>
al _
_ bà</w>
6 /2</w>
đều_ đều</w>
xung_ hư</w>
vương_ tông</w>
trấn_ áp</w>
to ại</w>
thở _h
thu_ hẹp</w>
nh ỡ</w>
nguyễn_đ ình_
ng_đ iệp</w>
ma_ tôn</w>
m ấp_
lý_tú _ninh</w>
kho é</w>
huyền_ ảo</w>
hoàng_h à</w>
g ừ</w>
falko_ goetz</w>
dây_th anh_
bảo_ khố</w>
bù_đ ắp</w>
xao_ xuyến</w>
vấ n_thiên</w>
vạn_ nhất</w>
tụ _h
thì a</w>
thu ê
r ụi</w>
phiền_ muộn</w>
nhất_ tiếu</w>
nhà _đ
ngh ẽn</w>
lập_l uận</w>
di_ tích</w>
chí n_
ba l</w>
_m ạ</w>
độc_ quyền</w>
đị ch_
đấu_ trường</w>
đa_ tình</w>
áp_ giải</w>
v ú
tiếc_ nuối</w>
thở_h ắt</w>
thẩm_ vấn</w>
sinh_ đôi</w>
s ùi</w>
ranh_ giới</w>
nh ót</w>
k iêng</w>
hờ_h ững</w>
h en</w>
de sh</w>
d ơ
cánh_ diều</w>
b ông_
9 80</w>
23 .
1 10</w>
ấp_ nập</w>
ăn_ mừng</w>
ác_ tăng</w>
vie w</w>
u m_
tử _thần</w>
to_ gan</w>
t ấp_nập</w>
rốt_ cục</w>
po ol</w>
nhấp_ nháy</w>
nhà_th ầu</w>
nhiệt_ đới</w>
m úc</w>
lê _văn_
k ỉ</w>
gò _má</w>
dây_thanh_ quản</w>
c eo</w>
_v oi</w>
_t ợn</w>
20 2</w>
/ 9
. com</w>
đùa_ giỡn</w>
v el
tê _liệt</w>
thảo_ nào</w>
thạch _ch
sinh_ sản</w>
no n_
nhọc_ nhằn</w>
koh ler</w>
hủy_ hoại</w>
hết_ mình</w>
chung_ ly</w>
_kh ắc</w>
11 -
đinh_ xuân_thu</w>
vân_ trường</w>
trao_ tặng</w>
thánh_ chỉ</w>
th ưởng_
mãn_ châu</w>
m ờ
la u
la _th
jus tin</w>
ho t
gia_ cát_
cười_ gằn</w>
chiến_h ạm</w>
báo_ giới</w>
b ừ
đại_ bác</w>
đương_ thời</w>
đình_ phụng</w>
uyển_ tinh</w>
tứ _chi</w>
tình_ tiết</w>
trần_h ải</w>
triệu_ chi</w>
trai_ gái</w>
thế_ ra</w>
ngh ếch</w>
ng ốc_
lưng_ chừng</w>
linh_ chi</w>
gần_ như</w>
e_d è</w>
dữ _tợn</w>
d .
công_ hiệu</w>
bắt_ sống</w>
bảo_ trọng</w>
_l ai</w>
_d ùng</w>
đá _
tư _chất</w>
tr ù</w>
thấu_ hiểu</w>
thành_ ra</w>
ngoại_ thương</w>
n â
l ấm_
kis tan</w>
i_h óa</w>
el vi
chua_ xót</w>
cao_ độ</w>
ca -
ữu_l ượng</w>
đại_ lễ</w>
đánh_ cá</w>
t ờ
quý_ báu</w>
phân_ tử</w>
phái_ đoàn</w>
ph ập_
oo o</w>
nh òm</w>
n_th ành_
n ụ
khổ _tâm</w>
hành_ hung</w>
d à</w>
chạm_ trán</w>
bề nh</w>
bu ru</w>
bi_ thảm</w>
ð ầu</w>
vn 30</w>
v ồng</w>
tuần_ tra</w>
thi_ thoảng</w>
th ập_t
rối_ rít</w>
n ới</w>
lệnh_ hồ</w>
l ánh_
k us
giúp_ sức</w>
elean or</w>
d ại_
cự u_
_l ã
201 4</w>
ỗ i_
đỗ_t ất_
đ êu</w>
yêu_ kiều</w>
tỷ _giá</w>
trấn_ an</w>
tr ủy</w>
tr ủ
thân_ tín</w>
tho ang_th
sống_ động</w>
si e</w>
phát_ xuất</w>
o m_s
om_s òm</w>
m ini</w>
li ver
khéo_ tay</w>
k ông</w>
di o</w>
chu_ chỉ</w>
bừ ng_tỉnh</w>
_r ể</w>
đặc_ sắc</w>
ênh_ vực</w>
từ _chức</w>
tu ồng</w>
trủ y_thủ</w>
thành_ đô</w>
th ừ</w>
run_ sợ</w>
quân_ nghi</w>
quay_ phim</w>
như _bay</w>
ngây_ người</w>
khai_ sinh</w>
gi àn</w>
cổ _m
chết_ chóc</w>
c ành_
bất_ đồ</w>
b ênh_vực</w>
_ giải</w>
đảm_ nhiệm</w>
xâm_ lược</w>
vô_v i</w>
tắt_ thở</w>
tướng_ quốc</w>
thụy_ sĩ</w>
thạ ch_l
thanh_ tuyền</w>
sự _vụ</w>
suy _s
phất_ trần</w>
nói_ bậy</w>
nh ẽ</w>
mur ray</w>
l ười_
cơ_ nghiệp</w>
bình_ ổn</w>
bình_ dân</w>
_m áu</w>
0 .
đá i_
x ốc</w>
tự _lập</w>
tức_ mình</w>
tru ồng</w>
tinh_ xảo</w>
ta i_hại</w>
só ng_thần</w>
s ắn</w>
nụ _cười</w>
nước_ ngọt</w>
là _lạ</w>
gắng_ sức</w>
gi ỗ</w>
di_ truyền</w>
cửa_ kính</w>
chuẩn_ xác</w>
ị m</w>
ù y_
viên_ viên</w>
tổng_đ à</w>
thiếu_ tá</w>
thiên_ nhận</w>
qua i_
nh ếch</w>
ngữ _khí</w>
ki ng</w>
hồng_ ngọc_
hình_ thế</w>
hàng_ hoá</w>
giảo_ hoạt</w>
erne st</w>
con_ nuôi</w>
chẳng_ sao</w>
chính_ quy</w>
bất_ ðồng</w>
_đ ậu</w>
định_ đoạt</w>
đào_ hoa</w>
ào_ ạt</w>
tự _vệ</w>
trung_ học_
tiểu_ thúy</w>
tam_ nương</w>
khấu_ đầu</w>
hoang_ đường</w>
fi fa</w>
d ay</w>
căm_ thù</w>
chơ i_lễ</w>
bỏ_ hoang</w>
định_ mệnh</w>
x ó</w>
tính_ mệnh</w>
thù_h ận</w>
t ể
t t_
sụ t_
phong_t ục</w>
n ú
n y_
lý _lẽ</w>
lá _cờ</w>
l ìm</w>
giám_ hiệu</w>
danh_ tính</w>
cơ_b ắp</w>
che _đ
che_đ ậy</w>
c ược</w>
buông_ tay</w>
b ịp</w>
đỗ_tất_ thư</w>
yểu_ điệu</w>
xương_ cốt</w>
vướng_ mắc</w>
v ỹ</w>
v ồ</w>
tù _binh</w>
trung_ gian</w>
thỏa_ đáng</w>
thiên_ si_
sặc_ sỡ</w>
phan_th iết</w>
núi_ non</w>
như _nguyệt</w>
nhà_ quê</w>
nh ượng_
me ga
khô_ khan</w>
hồ _ly</w>
hã nh_
gi ẫm</w>
côn_l uân</w>
con_ voi</w>
chào_ đời</w>
ch ổi</w>
_l uật</w>
9 6</w>
đảo_ lộn</w>
đ ụ
thông_ thiên_
thiên_ ðị
t ao_
sưu_ tầm</w>
n_v ía</w>
mong_ mỏi</w>
lè ne</w>
làm_ giàu</w>
không_ dứt</w>
khu_ công_nghiệp</w>
k ĩ</w>
hữu_ hiệu</w>
hồng_ngọc_ celine_dion</w>
hồ n_vía</w>
b èo</w>
_b ao</w>
9 /1</w>
tử_l ăng_l
tế_ nhị</w>
tù m</w>
thoá _mạ</w>
thiên_l ong</w>
po p</w>
như _ý</w>
mu l
m ú
lột_ xác</w>
loạn_ xạ</w>
hồ_xung_ cười</w>
hđ q
gi ắt</w>
d ấp</w>
cổ _động</w>
bá_t ánh</w>
bang la
a xit</w>
_ho n</w>
3 /2</w>
đ ãng</w>
z o
yế n_t
v ụng</w>
tây_ vương</w>
trổ _tài</w>
tri_h uyện</w>
toàn_ quân</w>
thỏ a</w>
thư _thái</w>
thái_ sư_phụ</w>
quy ế
phụ _cận</w>
ng ù
ng ar
ma_ cung</w>
m y_
h ỡi_
h úc</w>
gượng_ gạo</w>
g ắp</w>
e la</w>
d ặng</w>
d ầu_l
d í</w>
cố _nhiên</w>
cận_ cảnh</w>
bấy_ lâu</w>
bách_ chiến</w>
an_ khánh</w>
_r iêng</w>
ạ _dạ</w>
đà _lạt</w>
vô_ biên</w>
vene zu
thường_ vụ</w>
str ess</w>
r é</w>
phó ng_h
nghĩa_ hiệp</w>
ng_đ ô</w>
l ùa</w>
l ét</w>
kis singer</w>
d jokovic</w>
d en</w>
cử _hành</w>
chính_ diện</w>
cam puchia</w>
. _ly</w>
đại_ đội</w>
tù_ và</w>
tiến_ công</w>
thoang_th oảng</w>
sinh_ động</w>
sinh_ dục</w>
s se
s har
phụ ng_tường</w>
phụ _nhân</w>
phá c_
nhà_ nghỉ</w>
ngộ_ xuân</w>
n ốt_
n ện</w>
ma_ kiếm</w>
lạng_ sơn</w>
kh êu</w>
hu ân_
chật_ vật</w>
chất_ liệu</w>
chiế t_
bo n</w>
bangla desh</w>
b ây</w>
_tr ạch</w>
_s ăn</w>
_b ài</w>
8 3</w>
26 /12</w>
/201 6</w>
ống_ kính</w>
đặc_ tính</w>
đại_ học_
úc_ xá</w>
ân_ nhân</w>
vận_t ốc</w>
tr ượt_
t ỳ
pa kistan</w>
o z</w>
nâ ng_đỡ</w>
nhị _cổ</w>
nhàn_ nhã</w>
lồ ng_l
im_ lìm</w>
dịch_ giả</w>
bặt_ tin</w>
bản_ án</w>
bánh_ bao</w>
bá ch
bàn_ cờ</w>
_đ ẩy</w>
_h iền</w>
định_ kỳ</w>
y u
x ả
wor ld
uy _phong</w>
trận_ pháp</w>
trò n_xoe</w>
triệu_ mẫn</w>
thân_ xác</w>
thi_ tuyển</w>
t ảo</w>
râu_ bạc</w>
r ăn</w>
quả _là</w>
pháp_ sư</w>
o_th uật</w>
ngh ễ</w>
ng_h à</w>
n_đ ức_
liver pool</w>
khiế t_
hậu_ bối</w>
hạt_ giống</w>
hương_ ngọc_sơn</w>
hung_ thần</w>
gi ời</w>
ghê _t
ghê_t ởm</w>
cố p</w>
chữ_ ký</w>
bồ i_hồi</w>
_m a</w>
._ giá</w>
đạo_ pháp</w>
đàn_ bà_con</w>
đoan_ trang</w>
đo ạ
đau_ nhức</w>
ô n_tập</w>
yến_t iệc</w>
trần_ viên_viên</w>
thiên_ðị a_hội</w>
th óp</w>
ta n
sốt_ xuất_huyết</w>
quả _
ph ơ
nhậm_ thanh_
lý _đệ</w>
l ịm</w>
kim_ dung</w>
h o_
chú _rể</w>
chua_ chát</w>
ch an</w>
bụng_ dạ</w>
b ò
đích_ xác</w>
án_ mạng</w>
u acute</w>
tột_ cùng</w>
trì _hoãn</w>
sứ _mệnh</w>
s jc</w>
rô linh</w>
quả n_l
phóng_ xạ</w>
ph ẫu</w>
ng_l ượng</w>
mo i</w>
kiều_ diễm</w>
kinh_ thánh</w>
j ar
hoa_ hoa</w>
dị _nhân</w>
d ằ
cấp_ độ</w>
cướp_ bóc</w>
bất_ tận</w>
bát_ quái</w>
bá_t ước</w>
b ứt_
b ong</w>
_m ay</w>
8 4</w>
động_ dung</w>
đại_ trí</w>
đông_ hải</w>
ăn_ chơi</w>
từ_ giã</w>
thiệu_ đông_tử</w>
ròng_ ròng</w>
p e</w>
nhỏ m</w>
ngọc_ đỉnh</w>
ng_t ây</w>
mệnh_ danh</w>
màn_ kịch</w>
khánh_ hòa</w>
k ị</w>
k eo</w>
hỡi_ ôi</w>
hối_ tiếc</w>
gs. ts</w>
ch uột_
ca_ tụng</w>
c ừ</w>
bỏ_ mạng</w>
bất_ phàm</w>
an o</w>
_đ iện</w>
_t ẩu</w>
8 .000</w>
đức_ cha</w>
võ _thuật</w>
vân_ canh</w>
tiệ n_lợi</w>
suy_th oái</w>
nồ ng_độ</w>
ngăn_ cách</w>
nguyễ n</w>
l ẻ
jac k
hồng_ hào</w>
học_ vấn</w>
dụ _d
công_ đức</w>
b ắp_
_n an</w>
vẻ_ mặt</w>
u_ mến</w>
trì u_mến</w>
trinh_ sát</w>
thật_ tình</w>
th e_
t ẩy_
ngậm_ ngùi</w>
người_ xưa</w>
hầu_ gia</w>
hãnh_ diện</w>
dương_ quảng</w>
buồn_b ực</w>
_t ây</w>
_nh ị</w>
790 3</w>
„ _t
’ s</w>
đột_ quỵ</w>
đèn_l ồng</w>
vỗ _
uy _danh</w>
tình_ ý</w>
trần_ gian</w>
tiểu_ lăng</w>
thiên_ văn</w>
r ì
r ê
ph ồn_
nói_ láo</w>
nhất_ nhất</w>
n_ màng</w>
mỹ _phẩm</w>
ms 4
luân_ hồi</w>
học_ giả</w>
har vard</w>
dụ_d ỗ</w>
dương_ nghiệp</w>
co no
bá _đạo</w>
_n ông</w>
_h òa</w>
đồ _dùng</w>
đình_ phương</w>
đài_ truyền_hình</w>
vi_ diệu</w>
tr ăn_
tr iền</w>
thực_ đơn</w>
ta l
sáng_ sủa</w>
sao_ vậy</w>
r ình</w>
quỷ _quái</w>
quê _
lo ng_đ
khán_ như</w>
j er
ho se</w>
hiệ n_hành</w>
giới_ luật</w>
gián_đ iệp</w>
do _thám</w>
cố _thủ</w>
c ạch</w>
al i</w>
_x á</w>
_d iệt</w>
30 .
w in
vương_ ngữ_yên</w>
vina milk</w>
tiến_ cử</w>
sắc_ sảo</w>
sư_ph ó</w>
s à</w>
ngoài_ mặt</w>
ng út</w>
nam_ song_hiệp</w>
một_ lượt</w>
lạc_ đà</w>
lưu_ nhất_
khấu_ trọng_h
khôn_ xiết</w>
hô i_
gầy_ gò</w>
fi ca</w>
dan te</w>
d ô
cởi_ bỏ</w>
chúng_ mày</w>
chúa_ trời</w>
ch ùy</w>
cas ino</w>
c p
c is
b o</w>
_m ày</w>
_l ân</w>
/0 9
._ về</w>
đại_ loạn</w>
đáng_ giá</w>
viễn_ kiều</w>
thành_ hôn</w>
thanh_ thản</w>
sá p</w>
rượ i</w>
quá _tải</w>
nh ơ
ngạo_ nghễ</w>
n_h ợp</w>
mar y</w>
lặng_ yên</w>
lạnh_ giá</w>
làm_ trò</w>
khuôn_ khổ</w>
du_ ngoạn</w>
co n_đ
chán_ ghét</w>
buồn_ phiền</w>
ổ ng_th
đền_ đáp</w>
đ ằ
xảo_ quyệt</w>
vic to
tâm_ pháp</w>
thương_ tiếc</w>
thiết_ tha</w>
sư _cô</w>
quét_ sạch</w>
quyết_ ý</w>
nữ _tỳ</w>
nho ài</w>
ng ắn_
khất_ ðan</w>
hối_ lộ</w>
hòa_h ợp</w>
chằm_ch ặp</w>
c ang</w>
bửu_ châu</w>
buồn_ nôn</w>
biên_ hoang</w>
_l ăng</w>
đụng_ chạm</w>
điều_ tức</w>
đ i
ð an_
văn_ sĩ</w>
vân_ trung</w>
trăn_ trở</w>
trò _đùa</w>
tiểu_ hương</w>
tiên_đ ế</w>
thường_ niên</w>
sào_ huyệt</w>
si nh
quang_ trung</w>
phái_ đẹp</w>
oan_ uổng</w>
nguyễn_ ngọc_
ngay_ tức_khắc</w>
ng_t ín</w>
ng_h ộc</w>
mu i</w>
m l</w>
lực_ sĩ</w>
l u</w>
kỳ_ ảo</w>
kho e_
hao_ tổn</w>
giường_ bệnh</w>
dây_ chuyền</w>
d ối_
cơ _mật</w>
chen_ chúc</w>
ch ài</w>
bản_ tin</w>
_h ằng</w>
điền_ bất_dịch</w>
v é
tập_h uấn</w>
trực_ giác</w>
tr ư</w>
tp. hc
tiếp_th ị</w>
thân_ mến</w>
thành_ thân</w>
thiếu_ sót</w>
tham_ mưu</w>
tex as</w>
sa r
s ước</w>
phần_ nhiều</w>
phản_t ặc</w>
nương_ tựa</w>
ngọc_ sương</w>
n_h óa_
me xi
m b</w>
khí _công</w>
hư _
giáo_ phái</w>
g ắt_
eu ro
di_ sản</w>
da vi
ch ang</w>
bãi_ cỏ</w>
bo ng_
_ch ế</w>
đồng_ tháp</w>
đồ ng_tâm</w>
x úi_
vn thu
trọng_ dụng</w>
trúc_ anh</w>
trang_ trọng</w>
thẹn_th ùng</w>
rì _r
qua ng_th
phò ng_học</w>
nhiếp_thiên_ hoàn</w>
ngh ẹt</w>
ng_h ờ</w>
n ên_
n á
n ung</w>
lý_t ự
hội_ trường</w>
gắt_ g
cột_ sống</w>
bản_ nhạc</w>
bó ng_hồng</w>
ben fica</w>
10 1</w>
ấm_ ức</w>
đo án_
vi ch</w>
trung_ quân</w>
t te
rư ng_r
ro ma</w>
ph ông</w>
ph in</w>
oli via</w>
nhân_ từ</w>
ngày_ hội</w>
n anh</w>
kế_ đó</w>
kiên_ định</w>
khoe_ khoang</w>
gó t_
dối_ trá</w>
công_nghệ_ cao</w>
bạch _l
biên_ phòng</w>
_ch ấp</w>
_c âu</w>
7_ ,
ái_ ngại</w>
xua_ đuổi</w>
xe_c ộ</w>
x y</w>
uộ i_
tự_t iện</w>
rober t</w>
quân_ chủ</w>
nước_ hoa</w>
nhế ch_m
như _hải</w>
ngày_ kia</w>
nguyễn_ vă
n v
miệ ng_
lý_ph iệt</w>
kỳ _sơn</w>
khấu_trọng_th ầm</w>
h ê
gầm_ gừ</w>
gh e</w>
dập_ đầu</w>
cổ_m ộ</w>
cà _r
bả o_th
a ven
4 3
vi -
tỉ _vương</w>
trầm_ tĩnh</w>
thiếu_ gia</w>
phương_ vị</w>
nhếch_m ép</w>
nhì n_th
nh ao_
ngù n_ng
ngùn_ng ụt</w>
mỏ m</w>
l ốp</w>
không_ đâu</w>
i_l ang</w>
d y
bộ _tộc</w>
5 .000</w>
199 0</w>
0 50</w>
đăm_ chiêu</w>
ðịnh_ tĩnh_
tụ_h ọp</w>
s á</w>
phất_ phơ</w>
o ang</w>
ngắn_ gọn</w>
ngã _ng
ng ột_
n_ nh
lục_ tục</w>
lâu_ đời</w>
liên_ hoan_
ko ko</w>
giới_h òa_thượng</w>
giả_th uyết</w>
di_l ặc_
cửu_ trùng</w>
cố _
cát_ tư_hãn</w>
_d ồn</w>
19- 8</w>
11 /1</w>
ẩn_ náu</w>
đường_ cong</w>
điên_ khùng</w>
đ úng_
ð àm_
ì _
v. v
us e</w>
tối_ ưu</w>
tài_ giỏi</w>
tt y</w>
trù ng_hợp</w>
toà _
r úm</w>
r ã
nhượng_ bộ</w>
mở_m àn</w>
lối_ thoát</w>
khí _độ</w>
j i
hưng_ yên</w>
dị u_
bở i_lẽ</w>
bị _can</w>
_l iêm</w>
30 /12</w>
đổ _dồn</w>
ùn_ ùn</w>
tỷ _trọng</w>
tụ _hội</w>
ti mes</w>
thoạt_ tiên</w>
ra_ quân</w>
q l
ph ở</w>
ni xon</w>
ngốc_ nghếch</w>
ng ớ</w>
n_t ẩu</w>
merce des</w>
l ặc</w>
khối_ u</w>
khai_ giảng</w>
kh ỉnh</w>
k èn</w>
hay_ ho</w>
danh_ nghĩa</w>
bô n_tẩu</w>
ban_ giám_hiệu</w>
ba_ má</w>
-_d ạ_dạ</w>
ạm_ vỡ</w>
đinh_ ninh</w>
v ạm_vỡ</w>
tr ót</w>
thuê _bao</w>
nồng_ nhiệt</w>
ngư ng_t
ngo ại_hình</w>
mở _to
lầm_ l
hằ n_học</w>
cam ry</w>
_tr ống</w>
_m a
ể nh</w>
đầu_l âu</w>
ðịnh_tĩnh_ sư</w>
x át</w>
tái_ mét</w>
ta y
nữ_ giới</w>
ngưng_t ụ</w>
n_đ iệu</w>
mặc_ cảm</w>
mông_ lung</w>
han ni
f lo
cuố n_hút</w>
_v ui</w>
11 :
đinh_ điển</w>
ă ng_đ
xa_ xưa</w>
vừa_ lòng</w>
tranh_ cử</w>
thẩm_ phán</w>
t ập_t
rừng_ núi</w>
nhìn_th ấu</w>
ngang_h àng</w>
n_đ ài</w>
làm_ chứng</w>
l ệ_th
ka t</w>
hầm_ hầm</w>
hiể n_thị</w>
hiến_ pháp</w>
gol f</w>
g k</w>
g ai_
cành_ lá</w>
chó p</w>
châu_ du</w>
ch ướng</w>
băng_ bó</w>
bát_ nhã</w>
am_ hiểu</w>
_d ũng</w>
_b ar
– _t
tá n_loạn</w>
t i_
s ành</w>
ri ta</w>
phổ _trí</w>
nhân_ văn</w>
lão_ hủ</w>
la de</w>
hồ_ đại_ca</w>
dương_ văn_
dân_ làng</w>
do nal
công_tôn_ ngọc_sương</w>
cà _ch
chuyê n_tâm</w>
bồi_ bổ</w>
ông_ chiều</w>
ô_ quyển</w>
ð à</w>
xáo_ trộn</w>
x ông_
vật_ lộn</w>
um_ tùm</w>
thăm_ thẳm</w>
thiên_l ộc</w>
sa o
quản_ trung_tà</w>
nu ông_chiều</w>
nig el</w>
ngưỡng_ cửa</w>
ngoại_ thành</w>
ng_đ ỏ</w>
ng ục_
n_đ ơn</w>
móc_ túi</w>
muôn_ ngàn</w>
lo ảng_
liên_hoan_ phim</w>
khét_ tiếng</w>
khu ê
hắng_ dặng</w>
dư ỡ
cảnh_ ngộ</w>
chốc_ chốc</w>
ch iêm</w>
bổ_ ích</w>
bí ch_
bàng_ quang</w>
ba_th ục</w>
ba_ cực</w>
_c a</w>
ở n</w>
đ ày</w>
v ạc</w>
v ne
tr u_
quân_ du</w>
nhao_ nhao</w>
n_ kẽ</w>
le y_
hổ _
hồng_ ngọc</w>
gián_ tiếp</w>
d òm</w>
con_ tin</w>
bạch _đ
b ể
đ ã
xê- út</w>
vp f</w>
t ủy</w>
r d</w>
phi_ đao</w>
nối_ liền</w>
năng_ suất</w>
nhà_t ù</w>
ngo a</w>
mê_m ẩn</w>
iễ m_
i_l ội</w>
hu ýt_
hoàng_ anh</w>
hn x</w>
gi ằng</w>
dầu_l ửa</w>
di o
chân_ thực</w>
chia_ rẽ</w>
ch àng_
cc n</w>
bơ i_lội</w>
y l</w>
từ _ngữ</w>
tống_ gia</w>
tư _sản</w>
quá _độ</w>
quy ện</w>
phạm_ dao</w>
le s
l ính_
kim_ đính</w>
k ỉnh</w>
g ớm</w>
ferrar i</w>
dũng_ khí</w>
d ấ
càn_ quét</w>
c er
c b</w>
bỗng_ chốc</w>
bùng_ phát</w>
biế ng</w>
_đ ảng</w>
,_ 5</w>
đả n</w>
đ ượm</w>
xí ch_m
x iêu_
x _
trống_ không</w>
thương_ tổn</w>
thành_ cát</w>
thành_ bại</w>
thu_ nạp</w>
thanh_ lan</w>
rượu_ vang</w>
r inh</w>
o ni
ng ẫm</w>
ng ả
n_l ai</w>
n_h ành_
khâm_ sai</w>
huy _
giảng_ giải</w>
fa che</w>
e du
d ột</w>
c ạy</w>
b ửu</w>
_n ang</w>
_m ời</w>
/201 4</w>
-r ập_
xung_ lang</w>
x âu</w>
x x</w>
vạn_t uế</w>
vinh_ hạnh</w>
v ê
tử _thanh</w>
thế _huynh</w>
sá p_
phụng_ tam_
ph ẩy</w>
p .
nhấp_ nhô</w>
nhân_ tình</w>
ngày_ trước</w>
lê _ngọc_
l ượng_
khách _mời</w>
k el
han nah</w>
da vid
chú i</w>
a tilde</w>
_d ịch</w>
8 -
38 .
._t ại</w>
ử ng_hồng</w>
ấp_ xỉ</w>
đen_s ì</w>
ít_ ỏi</w>
x ấp_xỉ</w>
v ẻ
tu ất</w>
to é</w>
tiều_ tụy</w>
thu_ nhận</w>
tho i_
t ter</w>
sư _huynh_đệ</w>
s ầm_
s po
nối_ tiếp</w>
nhỏ_nh ặt</w>
nhảy_ nhót</w>
nhàn_ rỗi</w>
ng_l ánh</w>
n t
ló ng_lánh</w>
hoa_s en</w>
hanni bal</w>
h iềm_
giằng_ co</w>
chấn_ chỉnh</w>
chả _trách</w>
bửu_ khoa</w>
_ phán</w>
201 2_
w an
trống_ trải</w>
thịnh_ vượng</w>
quan_l ớn</w>
phú_ yên</w>
phát_ thanh</w>
ph ủi</w>
p ô
p r
ngọc_ tình</w>
m ải_
l ấy_
je ff</w>
hé lène</w>
go n</w>
giao_ tranh</w>
cận_ vệ</w>
chú _tâm</w>
bước_ đầu</w>
_v iết</w>
ấ n_l
vui_ nhộn</w>
trườ n</w>
tr ụi</w>
thầy_ tu</w>
thôi_ thúc</w>
thành_ danh</w>
thanh_ quang</w>
sai_ bảo</w>
r ợ</w>
quả _phụ</w>
ng_ keng</w>
n ổ
len_l ỏi</w>
h ựu</w>
cổ _truyền</w>
bắt_ lấy</w>
bất_ tứ</w>
bướ u</w>
bugatti_vey ron</w>
_d ễ</w>
_ giáo</w>
3 00
/201 2
ủ_r ũ</w>
đằ ng_đ
ú _
ðại_h ữu</w>
tú _tài</w>
thoả _mãn</w>
ta ng_lễ</w>
quá _sức</w>
ph ô</w>
nhà _băng</w>
ng_th ốt</w>
mị n</w>
m ượt</w>
lẫm_ liệt</w>
kiếm_ khách</w>
khoảng_ trống</w>
hộ p_
ghi_ điểm</w>
g d</w>
fo ne</w>
et h</w>
cầm_ quyền</w>
chụ p_
chu_ toàn</w>
bảo_ bối</w>
bi g
[ _trang</w>
ân_ tình</w>
xo á</w>
trụ _trì</w>
tràn_ trề</w>
s mi
rư ới</w>
quan_ công</w>
q u</w>
phê _phán</w>
mon k</w>
m út</w>
l ì
khuy ển</w>
k è</w>
dấ n_thân</w>
chan el</w>
bằng_ phẳng</w>
_v ãng</w>
_th ập_
_th uật_
9 1</w>
0 o
vù n_
vùn_ vụt</w>
tái_ tạo</w>
thần_ diệu</w>
thả ng_thốt</w>
thát_ đát</w>
s ẳn</w>
s ũng</w>
qu ận_h
phòng_ bị</w>
ngô_l ục_
ngo ắt</w>
lo ad</w>
hầu_ tòa</w>
hu ỷ
cõi_ đời</w>
clau dia</w>
bạt_ nghi</w>
biến_ chuyển</w>
a ma
78 63</w>
2_ ,</w>
xác_ thực</w>
x ấp</w>
tất_ yếu</w>
tà _đ
tiểu_ đồng</w>
thiếu_ máu</w>
rảnh_ rỗi</w>
phải_ biết</w>
phô _trương</w>
nh ạ</w>
ng ọ
mở_to ang</w>
mẹ _già</w>
lí _do</w>
làm_ tình</w>
lo gi
kết_ liễu</w>
hồi_ sinh</w>
cụ t_
cá_m ập</w>
chụp_ ảnh</w>
chàng_ trai</w>
_đ ắc</w>
_l ấp</w>
9 8</w>
ỉ a</w>
đắ k
xuất_ chúng</w>
tr ứng_
thú _thần</w>
s ấp</w>
s t_
reso rt</w>
quả _b
n ịu</w>
ly_ dị</w>
l li
không_ đổi</w>
dương_công_ bảo_khố</w>
d iên_t
cất_ giữ</w>
cô_ ta</w>
có ng</w>
cuộc_ chơi</w>
chú _em</w>
che_ mắt</w>
băng_ giá</w>
b ả</w>
a v
_hạ _tầng</w>
97 7</w>
0o 0</w>
địa_ phận</w>
điệu_ bộ</w>
z e</w>
xo ắn</w>
tệ _nạn</w>
tán_ dương</w>
thân_ mình</w>
t ặc_
quí _
n_h à</w>
m_ ch
m ượ
long_ an</w>
l ần_
giảm_ sút</w>
gi ăng_
f es
cầu_ vồng</w>
chửi_ bới</w>
ch uyện_
anh_ chị_em</w>
_b ố</w>
’ a
ậ y_
đổ _v
đánh_ xe</w>
xâm_ chiếm</w>
vuốt_ râu</w>
v ở
tuyệt_ nghệ</w>
tr ăn</w>
tiệc_ rượu</w>
thực_ lòng</w>
thống_ lãnh</w>
thị _lang</w>
qu ơ</w>
oá n_trách</w>
kêu_ gào</w>
hầu_ huynh</w>
góp_ mặt</w>
gian_t ế</w>
dò _la</w>
cá ch_l
bá ch_l
b ập_
_v i
_m ùa</w>
_ch uẩn</w>
ẩy_ bẩy</w>
đầy_ rẫy</w>
venezu ela</w>
tưởng_ nhớ</w>
thạ ch_t
ta -
ro bin</w>
p ê
p al
nội_ tạng</w>
ngu ỵ</w>
hấ p_h
huyền_ diệu</w>
bá n_đứng</w>
biế m</w>
-rập_ xê-út</w>
–_ ngươi</w>
đề m</w>
ð ịnh</w>
ð ạo_
ác_ chiến</w>
v iế
tư_th ục</w>
tí n_ng
trộm_ cắp</w>
tiến_tr ình</w>
thí _điểm</w>
re s</w>
nguyễ n_l
n_t ạo</w>
n iềm_
lý _đ
liên_ châu_
jes se</w>
hoảng_h ồn</w>
h è
cà _sa</w>
chu_ văn_
_r eo</w>
/0 8
. ....</w>
ả -rập_xê-út</w>
đường_ bay</w>
yết_ kiến</w>
vinh_ danh</w>
tử _hình</w>
tí _hon</w>
thích _phương</w>
quyền_ cước</w>
o ang_
ngô_lục_ kỳ</w>
ng_th uật</w>
môn_ sinh</w>
kho an_th
giật_ nảy</w>
giải_ tử_
ch -
bản_ sắc</w>
ủ y_th
w ho</w>
vô_s ỉ</w>
vô_ phương</w>
vô _duyên</w>
thống_ khoái</w>
thương_ tùng</w>
thành_ cát_tư_hãn</w>
thao_ túng</w>
phập_ phồng</w>
nhất_ cử</w>
nhãn_ quang</w>
nhân_ tâm</w>
ng_đ ông</w>
má ng</w>
lanh_ lợi</w>
l ộng</w>
gia_ minh</w>
du_ thuyền</w>
chỉnh_ đốn</w>
ch òng_
cao_ kiến</w>
ắc_ đầu</w>
đạ m_
thảm_ bại</w>
thơ_ ấu</w>
thăng_ bằng</w>
thình_th ình</w>
tha_ tội</w>
th ọc</w>
th ít</w>
ta nd</w>
t ăng_l
r ẻ_
m ư
diệt_ tuyệt_sư</w>
d ub
cắm_ đầu</w>
cách _chức</w>
cà_ch ua</w>
chi p</w>
c i</w>
_x ì</w>
_t ắc</w>
đánh_ đắm</w>
đo m_đ
đom_đ óm</w>
ác_ ý</w>
y_th uật</w>
v ơ
tưởng_ niệm</w>
thân_ nhân</w>
su n
r áo_
quân_ sước</w>
nhân_ cách</w>
nhát_ gan</w>
nho ẻn</w>
nha_ dịch</w>
nghị _sĩ</w>
lôi_ thôi</w>
l iệu_
ký _hiệu</w>
khổ _não</w>
khoáng_ chất</w>
iệ p_
i el
hốt_ nhiên</w>
hỏ a_th
hò _reo</w>
hành_ nghề</w>
huyền_h ỏa_
hiểm_ độc</w>
g ài</w>
cầm_ tù</w>
canh_ phòng</w>
biết_ sao</w>
_tr ần</w>
4 /2</w>
2 10
ư_ ký</w>
vui_ tươi</w>
tự_t ại</w>
tín_ng ưỡng</w>
tình_ tứ</w>
trở _tay</w>
trần_ truồng</w>
thị _phần</w>
thu ần_th
thiên_ chính</w>
pe ter
nhị _nương</w>
ngh iền_
ng_h ồ
mặt_ trắng</w>
mấp_ máy</w>
lại_ tử</w>
lưu_ truyền</w>
lão_ luyện</w>
khiêm_ nhường</w>
k ênh_
chúng_ bay</w>
_l ý
_d ương_
ð ạt_
ân_ trí</w>
vấ n_thiên_
vô_t uyến</w>
tù _nhân</w>
thiếu_ nhi</w>
sớm_ mai</w>
rá ch_
quyề n_hạn</w>
ng_th inh</w>
mụ n</w>
mạnh_ tay</w>
m ó</w>
hải_ sản</w>
hải_ ngoại</w>
giải_tử_ nguyên</w>
chiến_ công</w>
bánh_ chưng</w>
b ran
a r</w>
_s ay</w>
9 7</w>
24 /1</w>
-_d ân_trí</w>
ằ ng_th
đích_th ị</w>
đái_ tháo</w>
điệ n_t
êm_ đềm</w>
xử _sự</w>
v ái_
t ầu</w>
s ực_
nội_ thị</w>
nguyễn_t ấn_
n_t ội</w>
mờ_ ảo</w>
mexi co</w>
lặ ng_thinh</w>
lò ng_th
lên_ cơn</w>
la p
l ăm_
khám_ xét</w>
hành_ xử</w>
h ớt</w>
h ùm</w>
dụ _h
cầu_ mong</w>
ck er
chữ_ cái</w>
biên_ cương</w>
ba n_thưởng</w>
200 1</w>
. vn</w>
ảo_ giác</w>
ườ m_
đánh_ cuộc</w>
đ ùng</w>
ăn_ chay</w>
ð ệ</w>
vi sa</w>
tr âu_
thầ n_linh</w>
thượ ng_đỉnh</w>
thượ ng_l
tam_ nhãn</w>
r ãnh</w>
phó _tướng</w>
p _thành</w>
nguyên_ bản</w>
n_s ốt</w>
minh_ chứng</w>
ma_ quái</w>
m iên_
liên_ hoan</w>
l z
khẩu_ hiệu</w>
khiêu_ vũ</w>
k -
gi ãy_
gi an
gh é
d s
cơ n_sốt</w>
côn_l ôn</w>
cá _tr
chừng_ nào</w>
chói_ tai</w>
che _lấp</w>
b ủ
anh_ tuấn</w>
_đ ào</w>
9 0_%</w>
3 30.000</w>
/201 3</w>
xem_ lại</w>
thổ _ph
thuần_th ục</w>
tan_ rã</w>
r úc</w>
nửa_ ngày</w>
lâm_ nguy</w>
làm_ bàn</w>
khất_ đan</w>
hội_ tụ</w>
h ữ
dòng_ dõi</w>
cửa_ xe</w>
c út_
bước_ tiến</w>
bà n_tính</w>
a a
_c uộc</w>
9 47
7 -
3 d</w>
._ các</w>
ự u_
đông_ y</w>
v h
từ _liêm</w>
tuyệt_ chiêu</w>
trách_m ắng</w>
trà n_lan</w>
tiềm_ lực</w>
thiết_ yếu</w>
th ấp_
th i_lang</w>
sinh_ lý</w>
phạm_ văn_
nồng_ nàn</w>
niêm_ phong</w>
nhã n_hiệu</w>
ng_th ứ</w>
ng_th ăm</w>
ne u
mù _
lộc_ công</w>
lập_ công</w>
lưu_nhất_ chu</w>
kim_ thống</w>
kho anh</w>
i_ n
giọ ng_điệu</w>
cây_ xanh</w>
chị _
chào_ mừng</w>
cao_ bằng</w>
bạch _long</w>
b _
a po
_c ầu</w>
8 /3
788 5</w>
5 /12</w>
đại_ sứ_quán</w>
đại_ nghĩa</w>
đường_ cao_tốc</w>
va y_
tử_ chiến</w>
tăng_l ữ</w>
trương_ tử_thanh</w>
to_ tiếng</w>
tiên_ tri</w>
thực_ khách</w>
th ùng_
t en</w>
rộn_r àng</w>
quý nh</w>
phạm_ nhân</w>
nhạt_ nhẽo</w>
n_h ưng</w>
ho ằng_
h _
gu ar
giao_ cấu</w>
dã _thú</w>
ch ầm</w>
and er
_b ắc</w>
199 8</w>
đè _n
đe n_đ
đ ãi_
ôn_t ồn</w>
ð à
vô_t âm</w>
victo ria_
thôi_ miên</w>
thành_ trì</w>
s ỉ</w>
ro om</w>
nh òa</w>
nam_ nhi</w>
li xi
h ắt_
cu -
ck s</w>
c ọng</w>
bộ_gd -đt</w>
bộ p</w>
bảo_ lãnh</w>
bo m_
b ăm</w>
_th ánh</w>
>> _
ảo_ ảnh</w>
ảo_ tưởng</w>
đảm_ nhận</w>
đạo_ giáo</w>
đèn_đ ỏ</w>
ð ô</w>
yết_ hầu</w>
sáp_ nhập</w>
s tra
kỳ _cục</w>
khó _dễ</w>
giao_ phong</w>
g ừng</w>
d ùi</w>
công_ sở</w>
chư _tướng</w>
chuẩn_ mực</w>
bá _phụ</w>
_kh à</w>
_kh o</w>
-------- --------
ái_ tình</w>
viế ng_thăm</w>
va l</w>
trắng_ xóa</w>
th ờ
t ị
sa combank</w>
s tu
quả ng_lăng</w>
oang_ oang</w>
nh ái</w>
mất_ công</w>
mười_ bảy</w>
ma i-
khí _kh
hoang_ vắng</w>
h ộc</w>
h ích</w>
giảng_ đường</w>
gi ông</w>
g óa</w>
dưới_ quyền</w>
dàn_ xếp</w>
da_ đỏ</w>
chế_ giễu</w>
che _phủ</w>
a z
_thị _
_ng ầu</w>
_h ạnh</w>
1, 000,000</w>
xanh_ xao</w>
vang_ động</w>
u_ nhàu</w>
tổng_đ ốc</w>
thoi_ thóp</w>
thiếu_l âm_
s l</w>
q ùy</w>
ox y_
nhà_ bác_học</w>
mặt_ đường</w>
mượ n_
m ọn</w>
lưu_ manh</w>
lê _đ
la_ liệt</w>
hộ _thân</w>
hành_ trang</w>
h ụt_
h anna</w>
ghen_t uông</w>
di s
d ỗ
coi_ bộ</w>
băng_ tuyết</w>
_kh ôi</w>
8 6</w>
3 .000</w>
199 7</w>
ốn_ nháo</w>
ượ p</w>
x ộc</w>
vĩnh_ phúc</w>
thứ _lỗi</w>
thích_ nghi</w>
th ụt</w>
s ỉ
quỳ _gối</w>
quắc_ mắt</w>
o -
nh ốn_nháo</w>
n ườ
linh_ động</w>
l iếm</w>
khả _dĩ</w>
ho ạch_
h ốc</w>
ele c
chết_ tiệt</w>
chính_ thống</w>
cao_ hiên</w>
bê_b ối</w>
an -
_l uyện</w>
_ chiến</w>
788 7</w>
đương_ trường</w>
vương_ tôn</w>
tổng_th ư_ký</w>
tỉnh_ ủy</w>
ton_ nga</w>
thủ _thế</w>
thị _nữ</w>
thạch_ch i_hiên</w>
thượng_ lưu</w>
thùy_ trang</w>
th ậ
ste in</w>
quá_đ ỗi</w>
phòng_ khám</w>
ng ách</w>
n_v ặt</w>
mang_ tiếng</w>
lý_m ục</w>
long_ tuyền</w>
kim_ lăng</w>
kho ẻ_
hình_ tròn</w>
hillary_clin ton_nga</w>
dỗ _dành</w>
cơ _trí</w>
chồng_ chất</w>
bá ng</w>
bb c</w>
/201 5</w>
ờ m</w>
đè_n én</w>
ìn_ giữ</w>
yo u</w>
ya ma
vô_ vàn</w>
tươi_ đẹp</w>
sĩ _khí</w>
sá m_
ru ổi</w>
ro bot</w>
quân_ phục</w>
nh ãi</w>
nguyễn_th anh_
n_tr ang</w>
mái_ chèo</w>
minh_ phượng</w>
men t</w>
in di
h áo</w>
giải_ mã</w>
gia_ quyến</w>
g ìn_giữ</w>
d ầm</w>
cu p</w>
bẩm_ báo</w>
_t í
9 3</w>
789 3</w>
đại_ cuộc</w>
đ ọ</w>
úy_ kỵ</w>
thiên_ sư</w>
quần_th ần</w>
quân_ dân</w>
phi_ ngựa</w>
nườ m_n
nườm_n ượp</w>
nă n</w>
nhã n_lực</w>
nh -
ngõ a_
ng_đ inh</w>
mi c
lắp_ đặt</w>
lôi_ đình</w>
kh à
hồng_th ất</w>
hiệu_ ứng</w>
h ê</w>
h uyệt_
diệt_ trừ</w>
cút_ đi</w>
chung_ quy</w>
chiếm_ đạo</w>
ch òi</w>
b ắ
_t ân</w>
đ ô_
từ ng_
tống_ tiền</w>
th ày</w>
t âng_
sơ_s uất</w>
ro y
ro up</w>
ri hanna</w>
ra -
phỏng_ đoán</w>
phú _thọ</w>
ng_th ịnh</w>
n_l uyến</w>
ma il
lơ_đ ãng</w>
l ọi</w>
l õm</w>
hồi_ ức</w>
giá_ bán</w>
gir l</w>
cai_ quản</w>
bất_ tài</w>
ang e
22 /11</w>
ừng_h ực</w>
ậ c</w>
ðại_ lương</w>
trang_ thiết_bị</w>
thâu_ tóm</w>
sòng_ bạc</w>
sám_ hối</w>
n ao_
làm_ hỏng</w>
kiên_ giang</w>
khác_ nào</w>
hòa_ nhập</w>
fê lixi
cơ_sở _hạ_tầng</w>
cao_ ngạo</w>
bầu_ bạn</w>
đ ẽo</w>
v íu</w>
tâm_ can</w>
thịnh_ nộ</w>
thế _dân</w>
ta do
t ể</w>
t ần_th
sản_ sinh</w>
r ắm</w>
nhỏ_nh oi</w>
ngô_l ập_th
nguyên_ đán</w>
ngh ìn_
kỳ _tích</w>
khẩu_ phần</w>
hạ n_h
h ầu_l
g ắn_
dũng_ sĩ</w>
d uệ</w>
cất_ cánh</w>
c úc_
bê _tông</w>
„_ ngươi</w>
ột_ dạ</w>
đỏ_ ửng</w>
đại_ úy</w>
xu i_
window s
tư _liệu</w>
tinh_ hoa</w>
the _th
r ò
quan_ viên</w>
phục_ tùng</w>
phá_ giải</w>
ngôi_ vị</w>
mal ’a
lưu_ gia</w>
làm_ khó_dễ</w>
loảng_ xoảng</w>
linh_ vị</w>
l â
khinh_ địch</w>
hờ n_
hăm_ dọa</w>
huyề n_tử</w>
cường_ độ</w>
co lo
chi_ chi</w>
ch ợp</w>
cai_ trị</w>
bồ _câu</w>
_x ô</w>
_r e
28 /12</w>
19 45</w>
vĩnh_ hưng</w>
u_ uất</w>
tây_ nguyên</w>
trẻ _thơ</w>
trong_ lành</w>
trinh_ tiết</w>
thị t_
s ỏ</w>
nham_ hiểm</w>
ngô_lập_th ân</w>
nguyễn_ minh_
ngo ại_h
n_l ong_
mua_ chuộc</w>
m uốt</w>
ly nda</w>
khí _chất</w>
khoái_ lạc</w>
je an</w>
hệ _số</w>
hạ ch</w>
hư_h ành_
hà n_lâm</w>
hoa_ lệ</w>
giấc_ mơ</w>
cơ _duyên</w>
chênh_ chếch</w>
chân_ truyền</w>
ceo_ facebook</w>
cam_ chịu</w>
bà _già</w>
biến_ ảo</w>
_tr inh</w>
đỗ _hưng</w>
đối_ ngoại</w>
đ ủ
vết_ tích</w>
vĩ _mô</w>
tử_l an</w>
ti ne
thủ _th
thượng_th ặng</w>
tháo_ chạy</w>
thanh_ minh</w>
siêu_ phàm</w>
s v
quầ n_hùng</w>
quyế n_luyến</w>
qu ạnh</w>
ph ớt_
nà i</w>
nhu ệ
lục_ địa</w>
lo ét</w>
lap top</w>
kì _thi</w>
khí_kh ái</w>
de on</w>
cướp_ đoạt</w>
cô _lập</w>
ch ột_dạ</w>
a da
ũng_ nịu</w>
đứ ng_đắn</w>
đổ_v ỡ</w>
đại_ tướng_quân</w>
y_ hệt</w>
xinh_ tươi</w>
tụng_ kinh</w>
tối_ hậu</w>
tâm_ cơ</w>
triều_ dương</w>
tinh_ hoàn</w>
thương_ gia</w>
thiên_ môn</w>
te _
phì _ph
ph ế
nước_ miếng</w>
ngũ _sắc</w>
ngũ _cốc</w>
n ũng_nịu</w>
ma_ lôi</w>
lưu_l uyến</w>
lu y</w>
le e
l ả</w>
không_ quân</w>
hồ_xung_ nghe</w>
h d
gân_ cốt</w>
gia_ đinh</w>
f ri
e c
dầu_ mỏ</w>
de l</w>
cộ p</w>
cà u_nhàu</w>
cs gt</w>
châu_ tấn</w>
biến_ dạng</w>
b ệt</w>
ac ker</w>
_m ồm</w>
_m uội</w>
đại_ bàng</w>
xí ch_l
virgi nie</w>
tái_ mặt</w>
thông_ suốt</w>
th è</w>
suy_s ụp</w>
per sie</w>
ngo ái_
n_tr ú</w>
m e_
khuyên_ nhủ</w>
khe n_thưởng</w>
in i
hư_hành_ chi</w>
h ừng_hực</w>
fêlixi tê</w>
d ar
com p
chức_ vị</w>
chứ _sao</w>
chạy_ đua</w>
ca pi
b úp</w>
_r ời</w>
_m ọn</w>
ước_ chừng</w>
ương_ nhiên</w>
định_ đế</w>
v ất</w>
tu ý</w>
trách_ cứ</w>
tiêu_ hao</w>
thất_ lạc</w>
thành_ khẩn</w>
thu_ ðạo</w>
th ộn</w>
sóc_ trăng</w>
se c</w>
ro ll
nữ _thần</w>
năm_ trăm</w>
nh nn</w>
ngân_ phiếu</w>
mar ke
l õng</w>
khoác_ lác</w>
khoa_ trương</w>
kh am_
hỏa_ lệnh</w>
er _
d ì
cái_ gì</w>
chiêm_ thành</w>
c ỏi</w>
b ôi_
_hiệu_ trưởng</w>
88 7.
ạ n_thảo</w>
đầ m_
x ào_
vào_ khoảng</w>
tử_lăng_th ầm</w>
tư _lệnh</w>
trí_ óc</w>
trào_ dâng</w>
tra ng_đài</w>
thủ_ tiêu</w>
thất_ thủ</w>
sánh_ vai</w>
so ạn_thảo</w>
phân_ nửa</w>
nước_ mắm</w>
nh ồi</w>
ngột_ ngạt</w>
n bs
nbs p</w>
ma s</w>
lumi na
lou is</w>
kỹ _thuật_
ký_t úc_xá</w>
kiều_ loan</w>
khởi_ nghiệp</w>
ken ne
k iềm</w>
il lumina
hậ n_thù</w>
cứng_đ ờ</w>
cương_ vị</w>
công_ dụng</w>
chửi_ rủa</w>
cao_ tuổi</w>
bác_ bỏ</w>
bàng_ nghĩa</w>
ban_ chấp_hành</w>
887. 104</w>
22 .9
định_ nghĩa</w>
điêu_ khắc</w>
ð ình</w>
xếp_ đặt</w>
từng_ trải</w>
tích_t ụ</w>
tích_l ương</w>
tài_ hoa</w>
tiên_ nữ</w>
thế _tử</w>
thông_ hiểu</w>
s _go
rưng_r ưng</w>
r é
quấy_ rối</w>
nhân_ ảnh</w>
ngọc_ bích</w>
ngh iễm_
mal’a kh</w>
lỗi_ lạc</w>
lệnh_ hồ_đại_ca</w>
kim_ ngân</w>
khà _khà</w>
hải_ lưu</w>
hiếp_ dâm</w>
dụ_h àm</w>
dân_ thường</w>
diễm_ lệ</w>
cá ng</w>
ba_ đình</w>
22 /12</w>
1. 980</w>
ợ c</w>
ông_ trùm</w>
vân_ anh</w>
vel t</w>
v ò
tể _tướng</w>
triệu_ vân</w>
thành_ thạo</w>
the_th é</w>
th ước_
ph anh_
nhớ _nhung</w>
ng_t ướng</w>
n_l ội</w>
lui_ tới</w>
khiếm_ khuyết</w>
i. a.</w>
hoa_ vân</w>
giải_ trình</w>
fade tte</w>
e _thẹn</w>
d ượ
cười_ phá</w>
cu ba</w>
chi ca
bụng_ dưới</w>
b ấm_
aven tado
ao_ ước</w>
26 38</w>
11 /2</w>
đắc_ thắng</w>
đầu_ cơ</w>
đu i</w>
xi_ măng</w>
v ẩn</w>
uni ver
tọa_ lạc</w>
tt k</w>
trắng_ muốt</w>
trông_ cậy</w>
trá ch
thú _thật</w>
q .</w>
phát_ tán</w>
nx b</w>
ngân_ hàng_không</w>
n_t ụ</w>
lạnh_ toát</w>
liế c_
danh_ giá</w>
cừu_ hận</w>
ối_ với</w>
điệp_ viên</w>
ép_ buộc</w>
tới_ mức</w>
thù_ địch</w>
tay_ lái</w>
t z
sư _tổ</w>
so fa</w>
phó _hiệu_trưởng</w>
nh ơn_
nguyễn_tấn_ dũng</w>
n_l ập</w>
lệ _
lặ n_lội</w>
lượ ng_thứ</w>
lu ậ
khí_ phách</w>
khuynh_ hướng</w>
hoàn_ kiếm</w>
gi deon</w>
d ậu</w>
cây_ bút</w>
chá t_
ch ỗ
_đ au</w>
_ng ọ</w>
_h ỏa_
38. 050</w>
ả o_thuật</w>
đệ _t
đám_ đông</w>
điệ n_b
úi_ dụi</w>
ðại_h án</w>
áp_ đặt</w>
tư_ pháp</w>
trú _ngụ</w>
tr ứ
thi_ đua</w>
ngứa_ ngáy</w>
ngạ ch_l
nghênh_ ngang</w>
ng óc_
mắng_ chửi</w>
la my</w>
kỳ _tài</w>
hư_tr uyền</w>
h p</w>
giam_ cầm</w>
dầu_ thô</w>
d úi_dụi</w>
chó i_l
biết_ chừng_nào</w>
_nh ược</w>
70 22</w>
6 22.9
622.9 25</w>
30. 202</w>
3. 977</w>
23 3.977</w>
đồ_ ăn</w>
vương_ quốc_bảo</w>
tiếp_ diễn</w>
thổ n_thức</w>
thái_ bảo</w>
t ắn</w>
quốc_ sư</w>
quét_ dọn</w>
phát_ sóng</w>
mis ca</w>
m ô_
l ầu_
khánh_ thành</w>
hđq t</w>
ham mond</w>
ee p</w>
dị _dạng</w>
diễn_ xuất</w>
cắn_ răng</w>
cảnh_ quan</w>
ch ửng</w>
_l ẽ
9 4</w>
ðỗ _cửu</w>
v ẹo</w>
tái_ định_cư</w>
tài_ phiệt</w>
săn_ bắn</w>
quảng_ châu</w>
nội_ thành</w>
nh ạn_
ngh ê</w>
mĩ m</w>
m ền</w>
khả_ quan</w>
k iệ
gia_cát_ dật</w>
dẫu_ sao</w>
du_ thản_chi</w>
côn_ sơn</w>
chị t</w>
bất_ định</w>
bàng_ quan</w>
as sa
đường_th ủy</w>
truyền_ đạt</w>
thông_ thiên</w>
thì _
th u_l
tay_ cầm</w>
sành_ điệu</w>
si on</w>
rã _rời</w>
ruộng_ đất</w>
rau_ quả</w>
ng_l ục</w>
ng ặt_
mú a_
ma i_l
lý_thu_ thủy</w>
linh_ thiêng</w>
la u_
khoai_ tây</w>
kh ứa</w>
in ch</w>
hồng_ cơ</w>
gây_ sự</w>
di_ tản</w>
cẩn_ mật</w>
bất_ khả
06 /03/2012</w>
ưu_ tú</w>
xa_ hoa</w>
x án</w>
vỗ_ về</w>
tự _thân</w>
tột_ độ</w>
trở_ xuống</w>
trai_ trẻ</w>
tr iêu_
tinh_ nghịch</w>
thức_ tỉnh</w>
thạ nh</w>
thương_ nhớ</w>
thanh_ tiên_sinh</w>
th o</w>
sổ _sách</w>
suy _luận</w>
r ạ</w>
quỷ_ kế</w>
quê _mùa</w>
phiề n_t
phiền_t oái</w>
ngạch_l uân</w>
m óng_
l ắm_
kinh_ thiên_
kar a
i_h ương</w>
do ạ</w>
do lla
danh_ môn</w>
chủ _sở
chê _cười</w>
chung_ sống</w>
chung_ công</w>
bỏ _cuộc</w>
ale x</w>
_th ể
_l ưu</w>
ắ ng_đ
yên_ bình</w>
x ơi</w>
tx cơ
trịnh_ đáng</w>
truy _tố</w>
ri e</w>
quật_ cường</w>
quy_ nhơn</w>
ph ạt_
ngăn_ kéo</w>
n_l ương</w>
n ực_
l ảng_
kinh_ tế
khổ _luyện</w>
hàng_h ải</w>
g ội</w>
d ường</w>
cách_l y</w>
ch ơn</w>
caf é</w>
bong_ bóng</w>
_t ục</w>
_r ộ</w>
_g a
8 7</w>
05 /03/2012</w>
đổ _xô</w>
đồ _long</w>
vắ ng_lặng</w>
und ai</w>
tương_ đồng</w>
trịnh_ thạch</w>
trưởng_ lão</w>
tr eo_
thương_ binh</w>
thành_ ủy</w>
t su
sữa_ chua</w>
spo on</w>
s uối_
r ổ</w>
phú_ quốc</w>
phé p_t
ph ắc</w>
oá n_
nực_ cười</w>
núi_ rừng</w>
ngự_ tiền</w>
ngô _h
nguy _nan</w>
ng ợp</w>
ng ót</w>
m ảnh_
l ẩy_bẩy</w>
kh ứ</w>
hè n_hạ</w>
dược_ vật</w>
dĩ _vãng</w>
dal las</w>
da_ cam</w>
căm_ giận</w>
chúa_ giáo</w>
chính_ nghĩa</w>
c. i.a.</w>
buồ n_t
ban_ mai</w>
an_ giang</w>
a_th ân</w>
5 00
5 /2</w>
20 .000</w>
10 :
ấm_ cúng</w>
đội_ trời</w>
đồng_ cảm</w>
ái_ nữ</w>
xuân_ thân</w>
xe_l ửa</w>
xe n_lẫn</w>
trấn_ giữ</w>
tiểu_ huyền_tử</w>
th úi</w>
ra_ dáng</w>
quá _cố</w>
phê _chuẩn</w>
phá p_thuật</w>
nở _rộ</w>
ngo ạm</w>
nghi_ ngút</w>
n s
lý_h óa_
lo anh_
loanh_ quanh</w>
le x</w>
khuyên_ can</w>
illumina ti</w>
hữ ng_hờ</w>
htt p
du_ dương</w>
diệp_ chi</w>
công_ tâm</w>
công_ thần</w>
cá m</w>
chút_ xíu</w>
b uộc_tội</w>
b .</w>
b .
ớ c</w>
á n_ng
tậ n_tình</w>
tô _thiên_
số _mệnh</w>
quảng_ bá</w>
photo shop</w>
nghèo_ khổ</w>
n_l ạnh</w>
n_h ồng</w>
máy_ vi_tính</w>
màn_ ảnh</w>
hiệ p_lực</w>
giật_ thót</w>
có t</w>
cá _voi</w>
bạch _mai</w>
–_ ta</w>
ăn_h ọc</w>
ð iên</w>
vô _sinh</w>
tái_ sinh</w>
tiếp_t ay</w>
thoá i_hóa</w>
th ỏi</w>
te ch
rác_ thải</w>
r ập_
quyên_ nhi</w>
nhà _kho</w>
nho_ sinh</w>
ma g
m my</w>
lạc_ lõng</w>
lâu_l a</w>
l ley</w>
kiểm_ lâm</w>
kho_ tàng</w>
k ong</w>
hỏi_ nhỏ</w>
huyết_ mạch</w>
h ứ</w>
gro up</w>
g ử
cầu_ khẩn</w>
chửi_ mắng</w>
bản_ xứ</w>
bá _chủ</w>
bao_ cao_su</w>
_v ơ</w>
_th ẻ</w>
đồ ng_đ
áo_ giáp</w>
vẻ_ ngoài</w>
vũ _vă
truyề n_t
thủy_ điện</w>
thương_ nhân</w>
thăm_ viếng</w>
t_ lạt</w>
sta r
ro ng_
o t</w>
no te</w>
nhà_ ga</w>
lợ t_lạt</w>
lâu_l âu</w>
lâm_ sàng</w>
l áng</w>
khám_ nghiệm</w>
im f</w>
hạ p</w>
g ọt</w>
diệ c</w>
cửu_ dương</w>
cấp_t ốc</w>
cung_ nga</w>
bị _động</w>
bát_ ngát</w>
ba_ la_tinh</w>
ba -
b ứt</w>
_d ịch_
đẩy_ lui</w>
đương_ kim</w>
xử _cơ</w>
vô _thức</w>
viet tel</w>
tườ ng_thuật</w>
tươi_ tắn</w>
thiên_si_ đạo_trưởng</w>
te d</w>
s ủng</w>
phút_ giây</w>
mờ _nhạt</w>
kiệt_ lực</w>
khoan_th ai</w>
hệ _trọng</w>
hạ_ cánh</w>
hoa_ mắt</w>
ghi_ bàn</w>
cố _chấp</w>
chuyê n_đề</w>
canh_ chừng</w>
_b ão</w>
đất_ đá</w>
đường_ mòn</w>
đoà n_thể</w>
trợ _thủ</w>
trông_ chờ</w>
thiên_ chúa_giáo</w>
thanh_ tịnh</w>
t ớ
ra p
quá _chừng</w>
lưu_l ạc</w>
lý _d
lão_ mưu</w>
inh_ dưỡng</w>
giữ a_
dương_ khang</w>
di_ cư</w>
chung_ ly_
ch_d ẫn</w>
can_ ngăn</w>
cam_ đoan</w>
_nhị _tẩu</w>
_m ar
789 1</w>
31 /1</w>
ứng_ chiến</w>
ắt_ hẳn</w>
đùa_ cợt</w>
điệ n_lực</w>
vô_ lại</w>
vô _lực</w>
tử_ đáp</w>
tiểu_ tốt</w>
thất_ thần</w>
thân_ thích</w>
thánh_ giá</w>
thoạt_ đầu</w>
thanh_ thiếu_niên</w>
s ù
premier _league</w>
phục_ binh</w>
phương_ ngọc</w>
phu_ phụ</w>
pho ng_l
na n_đ
mù_ quáng</w>
mày_ râu</w>
ma c</w>
li m_
l lo
hủy_ bỏ</w>
hô n_lễ</w>
hình_ vẽ</w>
gử i_
gia ng_đô</w>
fes ti
diễ u</w>
da_ dê</w>
d ẹp_
cực_ đoan</w>
cu- ba</w>
c ra
bài_ thơ</w>
am s</w>
79 21</w>
15 /12</w>
đụ ng_độ</w>
độc_ dược</w>
đại_ chúng</w>
đoàn_ viên</w>
điểm_ cao</w>
đ eo_
ác_ ma</w>
tạ nh</w>
tê _dại</w>
tiền_ sử</w>
thẩm_ tường</w>
so lomon</w>
s_go t_talent</w>
rober t_
phúc_ lợi</w>
nà nh</w>
ngọc_ tiêu</w>
ngô_ khảm</w>
n át_
lây_ lan</w>
huýt_ sáo</w>
gh ìm</w>
d úi</w>
bộ_ óc</w>
bằng_ cấp</w>
bậc_ thang</w>
_n ỗi</w>
victoria_ beckham</w>
tổ ng_t
tô_thiên_ bình</w>
trù ng_điệp</w>
thất_ thường</w>
thiên_th ư</w>
thanh_ lương</w>
t ằm</w>
mai_ táng</w>
ma_ nữ</w>
lầm_ bầm</w>
lưỡ ng_hồ
linh_ kiện</w>
khoẻ_ mạnh</w>
k ịt</w>
hỗ n_hợp</w>
hạ_l ưu</w>
huyền_ soái</w>
hoạt_ bát</w>
hi u_
galax y_
dow n
d ẫ
d _b
ch ày</w>
bằng_ không</w>
_nh o</w>
_b ẹp</w>
ðan_ nhi</w>
vô _vị</w>
tinh_ hà</w>
ti n
thường_th ường</w>
sơ_t án</w>
r ứa</w>
quân_ thanh</w>
phục_ quốc</w>
o l
nốt_ ruồi</w>
ni côn</w>
ngoại_ tình</w>
n iệu</w>
lo á
hợp_t ác_
giám_ định</w>
diễ u_
27 .
đối_ kháng</w>
địa_ chấn</w>
đè _bẹp</w>
đoà n_tụ</w>
vũ _lực</w>
trầm_ cảm</w>
tr ĩ</w>
tiến_ quân</w>
thư a_th
t ịch_
suy _d
phật_ pháp</w>
nói_ sai</w>
nhậm_ chức</w>
le o
le a
kiế n_đức</w>
khinh_ miệt</w>
hàm_ ý</w>
giả_th iết</w>
ga m</w>
cứng_ cỏi</w>
cú m</w>
cá_tr a</w>
_r èn</w>
_m ến</w>
_l iễu</w>
ẻ ng</w>
độ _
đầy_ ắp</w>
đại_ nghiệp</w>
đoàn_ văn_
ðại_ tiên_sinh</w>
yo ga</w>
tầ ng_hầm</w>
thỏ _thẻ</w>
t w</w>
suy_d inh_dưỡng</w>
s ạt_
phi_ yến</w>
ph ăng_
nước_ sạch</w>
nghèo_ khó</w>
nghiễm_ nhiên</w>
mong_ chờ</w>
mar gar
lưu_ trú</w>
kh ưu_
k re
hu ỷ</w>
giả _dạng</w>
giáo_ sĩ</w>
giai_ điệu</w>
gi o</w>
g e_
e _sợ</w>
d ăm</w>
d v</w>
căn_ tiên</w>
chung_ly_ triết</w>
cho ảng</w>
bạch_ quân_nghi</w>
bạch _m
b ọ
an tôn</w>
am ster
_ch ăm</w>
8 9</w>
200 2</w>
đại_ cục</w>
v eo_
tường_ vi</w>
tôn_ bất_tà</w>
tàn_ độc</w>
thế_ rồi</w>
thiên_ gia</w>
t ợ</w>
t ưởi</w>
sú ng_lục</w>
r âm</w>
phế_ bỏ</w>
ph àn</w>
nhỏ _mọn</w>
nhân_ hậu</w>
một_ thể</w>
l ũng_
kỳ _công</w>
khẩn_ cầu</w>
khó m</w>
in i_
hol ly
g ặt</w>
f ta</w>
co_ giật</w>
cn tt</w>
bến_ xe</w>
b ớ</w>
an i
_h èn</w>
10 ,
đại_ nham</w>
zi o</w>
vệ _binh</w>
vã n_hồi</w>
trầm_ lặng</w>
trào_ lưu</w>
tiểu_ linh</w>
quá_ ư</w>
phúc_ kiến</w>
như _băng</w>
m ận</w>
hội_ thi</w>
gia_ phong</w>
g ắm</w>
d -
cực_ nhọc</w>
_tr ừ</w>
7_, _chăm</w>
đỏ _ho
đô la</w>
đáp_ an</w>
đàm_ luận</w>
xoa_ dịu</w>
vương_ bá</w>
uyên_ ương</w>
u_ cợt</w>
thổ _dân</w>
thiếu_ long_
thanh_ nguyên</w>
ta li
pa z
niên_ kỷ</w>
nguyê n_lý</w>
n_l âm_
m w</w>
lần_ mò</w>
l ẩ
l òi</w>
hoa_ khôi</w>
giễ u_cợt</w>
cực_ kì</w>
chối_ cãi</w>
chết_ đói</w>
chú _
c ô_tô</w>
a c</w>
_tr ọng_
5 4
/6 /2019</w>
ủy_th ác</w>
đa_ nghi</w>
óng_ ánh</w>
ích_l ợi</w>
áo_ lót</w>
ám_ hại</w>
tồn_ vong</w>
tiểu_ tiên</w>
quái_ gở</w>
phù ng_th
la_ ó</w>
kiế n_tạo</w>
khép_ kín</w>
khoáng_ sản</w>
dượ ng_đế</w>
chính_ trị
_ph ụng_
_nh ạc</w>
24 /12</w>
đạ o_th
đê _hèn</w>
uất_ ức</w>
trương_ giáo_chủ</w>
thế_ gia</w>
th ửa</w>
sâu_ đậm</w>
sao _thế</w>
sa_s út</w>
ngây_ ngô</w>
mắc_ bẫy</w>
m uối_
lữ _
lâm_ trận</w>
khu ấy</w>
j an</w>
ed ward</w>
doã n_
bảo_ an</w>
ban_ công</w>
_g à</w>
9 6
8 1</w>
201 2
/0 3</w>
để _dành</w>
đèn_l ửa</w>
xà _phòng</w>
xu_ thế</w>
vô_ cảm</w>
tuổi_ thọ</w>
tuyệt_ sắc</w>
trương_ tuyền</w>
tiê n_đoán</w>
thở_d ốc</w>
tai_ biến</w>
phật_ tử</w>
nó ng_h
nhân_ sĩ</w>
nh áp</w>
ngộ_ độc</w>
n .</w>
mị n_màng</w>
m ườ
lạ y_
liên_h iệp</w>
kiế t</w>
hồ _nhị_tẩu</w>
el li
cảm_ phục</w>
cơm_ nước</w>
chica go</w>
bình_ chi</w>
an_ bình</w>
an a</w>
xúc_ tiến</w>
xê- va</w>
tỷ _như</w>
tuần_ hoàn</w>
trí ch_dẫn</w>
trung_ thu</w>
tiếp_ viện</w>
tiêu_ nguyệt_ðàm</w>
ti c</w>
tha_ lỗi</w>
th ò
so ny</w>
sai_ trái</w>
ngã_ng ửa</w>
miên_ man</w>
lưu_ chuyển</w>
la _thành</w>
khổ _đau</w>
hu ân</w>
h ú
gia n_hàng</w>
cảm_ thông</w>
chói_l ọi</w>
chu_ thông</w>
che ng</w>
ai_ cập</w>
_l àng</w>
2 /2</w>
đậu_ nành</w>
văn_ quân</w>
uyển_ nhi</w>
trá ng_lệ</w>
tri ck</w>
tiểu_ tỳ</w>
tiê n_thiên</w>
thảm_ sát</w>
thưa_th ớt</w>
thúy_ an</w>
thiên_h ương</w>
t q</w>
ra oul</w>
r ê</w>
phụ _lòng</w>
phân_ giải</w>
na tio
lật_ tẩy</w>
i_l ỏng</w>
hư _thực</w>
hoàn_ xỉ</w>
gián_đ oạn</w>
er s</w>
diêm_ la</w>
da_ gà</w>
chiều_ tối</w>
bỉ _
bó ng_r
bài_ bản</w>
_h u
/ 2
. _ph
đánh_ phá</w>
đ úp</w>
xảo_ diệu</w>
xa vi</w>
x ép</w>
việt_ minh</w>
v ầy</w>
tập_ quán</w>
tháo_ gỡ</w>
thành_ ý</w>
s ắt_
nghỉ _việc</w>
ma ssa
m ối_
lầm_ lẫn</w>
lý_th ú</w>
khí ch_động</w>
khiếm_ thị</w>
k iều_l
hổ_ phách</w>
hề _h
hôn_ quân</w>
h i_h
giả_t ạo</w>
gia ve</w>
dáng_ dấp</w>
cố _sức</w>
chống_ trả</w>
chần_ chờ</w>
châm_ chọc</w>
ch iện</w>
biết_ mấy</w>
_v ía</w>
_v tc_news</w>
_l ớn</w>
10 0,000_
ấn_ định</w>
áp_ chế</w>
x ước</w>
tơi_ bời</w>
thứ _sử</w>
thao_th iết</w>
so u
ro n
q -
nặng_tr ĩu</w>
nhộn_ nhạo</w>
nh uố
n_th ầm</w>
mấy_ mươi</w>
m_c ồm</w>
lồ m_cồm</w>
lung_ lay</w>
hội_ viên</w>
hỗn_ độn</w>
hào_ phóng</w>
hà _th
hoa_ văn</w>
giải_ ngân</w>
chơi_ bời</w>
chuyên_ khoa</w>
biên_ soạn</w>
b h
_th ực_
5 /2012
/ 3/2012</w>
đại_ đa_số</w>
đại_ thắng</w>
đo ản</w>
è re</w>
tỉ _thí</w>
tô_ khôn</w>
tài_ nào</w>
tiêu_ chảy</w>
phổ _côn</w>
ná cđiê</w>
nan_ giải</w>
mục_ niệm</w>
mũ _
lộc_ sơn</w>
lệ _phí</w>
làm_ ngơ</w>
lamborgh ini_
khỏ a_thân</w>
hàm_ hồ</w>
d ai_
cửa_ phật</w>
cộng_ sự</w>
co_ rúm</w>
cha_ anh</w>
_dịch_ cúm_a</w>
5/2012 _dịch_cúm_a</w>
. _n
ưu_ ái</w>
đại_ ác</w>
ðại_ nham</w>
ðinh_ ðiển</w>
í ch
veo_ véo</w>
tử _thương</w>
tôn_ giá</w>
truyền_th ần</w>
tr ồ</w>
thụy_ điển</w>
thị _trưởng</w>
thô_ bạo</w>
sư ng_
s pe
phụ _họa</w>
oanh_ tạc</w>
nói_ xấu</w>
no kia_
nh úng</w>
ngo ằn_
na to</w>
mãnh_ thú</w>
lạt_ ma_
liê m_
kiế ng</w>
khẩn_ yếu</w>
hô_h ố</w>
h ủ
h ẫng</w>
dại_ dột</w>
d ế</w>
bực_ dọc</w>
_th ủy_
độc_ địa</w>
đầu_ độc</w>
x uyê
v òm_
tương_ kiến</w>
tí ch_th
tàu_ chiến</w>
thương_ vụ</w>
thâm_ độc</w>
suy _xét</w>
su per
râu_ ria</w>
ph ạn</w>
nội_ trú</w>
nóng_h ổi</w>
ngọc_ thanh_
nguy _hại</w>
mê _tín</w>
làm_ thuê</w>
long_ trọng</w>
le o_
i la</w>
ho ắc</w>
giám_ mã</w>
g li
e f
dấu_ tích</w>
di_ chúc</w>
bất_ phụ</w>
bạch_ tiêu_
b c</w>
an e</w>
a p</w>
_l ộc</w>
4 _
200 ,000_
− _lão</w>
ớ n_lạnh</w>
đường_ sá</w>
xung_ phong</w>
v ông</w>
trân_ châu</w>
toàn_ quyền</w>
t ày_
phụ t</w>
phản_ xạ</w>
pháp_ môn</w>
p_h óa</w>
nhường_ nhịn</w>
na dal</w>
n_l uyện_
mê _cung</w>
m ừng_
lý_b ăng_
le ng_keng</w>
l ồi</w>
kề m</w>
hệ _t
hung_ tợn</w>
ghi_ âm</w>
g ặm</w>
em ma</w>
down load</w>
c ựa_
bỉ_ ổi</w>
bán_ hoa</w>
bel lamy</w>
_le agu
7 /12</w>
ứng_ cử
ô n_h
xo ang</w>
tẩu_ thoát</w>
tạo_ dựng</w>
tích_t ắc</w>
tê nácđiê</w>
tuy ến_
trục_ xuất</w>
tiếp_ kiến</w>
thu ỳ</w>
si s</w>
phần_ phật</w>
phan_ ma_lôi</w>
nô_ bộc</w>
nh ờ
ngh ịu</w>
n án</w>
mộ _bình</w>
mobi fone</w>
m m</w>
lưỡng_hồ _bang</w>
hóa_ đơn</w>
hào_ hiệp</w>
giá _thành</w>
d ẫy</w>
công_ sơn</w>
c u_
bán_ chạy</w>
_đ iệ
_b ẩn</w>
ứng_cử _viên</w>
đổi_ thay</w>
đỏ_ho e</w>
đo á</w>
uỷ_b an_
triệu_ thiên</w>
thượng_quan_l ong</w>
sinh_ khí</w>
sang_ sảng</w>
nóng_r uột</w>
ngọc_ thành</w>
ngũ_t ạng</w>
nghiên_ cứu_
ng_h óa</w>
n_t ài</w>
ký_ giả</w>
khuyến_ nghị</w>
hội_ an</w>
hu ê</w>
hiểm_ ác</w>
giờ _ngọ</w>
fran cis
da s
bú n</w>
biết_ việc</w>
5 _
4 .000</w>
ỵ u</w>
ư ỡi</w>
đảm_ đương</w>
xa_x ỉ</w>
way s</w>
võ_ đang</w>
võ_ quan</w>
viet nam</w>
tuyên_ vĩnh</w>
tr ối</w>
toá n_đ
toà n_tâm</w>
thủy_ quân</w>
th án</w>
th _
s ton</w>
ro s</w>
qu ấn_
nỗi_ niềm</w>
n_th uyền</w>
mỹ -
mượn_ cớ</w>
lê _hồng_
kỷ_th iến</w>
khôn_ khéo</w>
khôi_ ngô</w>
huỳ nh</w>
gia_ tài</w>
chất_ phác</w>
ai_ oán</w>
_ giác</w>
đại_ bại</w>
ân_ ái</w>
xung_ nhi</w>
wi ki
võ ng_
trù _
tr ặc</w>
to sh</w>
thp t.
thoả _thuận</w>
so ẹt</w>
quả _đ
phong_th ủy</w>
nhuệ _khí</w>
ng_l ỗ</w>
micha el</w>
mai_ sơn</w>
m eo</w>
kề m_
khiếp_ đảm</w>
hoàng_ my</w>
giải_ trừ</w>
e d</w>
cải_ biến</w>
chìa_ tay</w>
ch ế
bà _r
bu ồng_
an s</w>
_th ượ
_s ai</w>
_r ừng</w>
_n ã</w>
_lo ại</w>
_c ột</w>
_b ề</w>
„_ð ó</w>
ồn_ một</w>
đ ung_
đung_ đưa</w>
xo ài</w>
vil le</w>
v eo</w>
u_ minh</w>
tô m_
tát_ khắc</w>
thọ _
thế_ chấp</w>
thú_ y</w>
thành_ tâm</w>
s ớ</w>
ráo_ riết</w>
ra_ gì</w>
qua_ loa</w>
nhâm_ thìn</w>
m ỳ</w>
m ồn_một</w>
m iết</w>
làm_ thịt</w>
l óa</w>
kia_ kìa</w>
khiếu_ hoá</w>
huyền_ ứng</w>
hoàng_ mai</w>
g ối_
d y_
cứu_ hỏa</w>
căm_ tức</w>
công_ giáo</w>
chủ ng_
ch ằng_
c ũi</w>
bụi_ bặm</w>
anh_ dũng</w>
3 60</w>
16 /12</w>
-- -</w>
x iêu</w>
vương_ phi</w>
tây_ hồ</w>
tác_ hại</w>
tt er
trợ _lực</w>
trầm_ trồ</w>
trại_ chủ</w>
trách _phạt</w>
tr iền_
thăng_ quan</w>
thu ỵ</w>
t ây_th
sạt_ lở</w>
si l
quán_ anh</w>
ph ép_
ngô_thị _diễn</w>
ng_h ọng</w>
lệ _hoa</w>
lo s_
l ọ
kính_ bentley</w>
je an_
huấ n_luyện_
hoạt_ hình</w>
hoàn_ nhan_
donal d
doanh_ số</w>
d ê
cấu_ tạo</w>
c r
/1 9
ẩ n_t
đỏ _l
địa_ đồ</w>
điều_ khoản</w>
xa_ rời</w>
vậy_ nên</w>
v ót</w>
tậ n_t
trụ _cột</w>
trường_th ành</w>
thứ u</w>
sức_ nặng</w>
sinh_ tồn</w>
rung_ rinh</w>
r ồ
ph ình</w>
nghĩa_ quân</w>
ng ưu_
máu_ me</w>
khấu_trọng_ ta</w>
kh ắt_
hồng_ kông</w>
hẳn_ là</w>
giãy_ giụa</w>
giác_ ngộ</w>
duy ên_h
d ìa</w>
cung_ đình</w>
chất_ lỏng</w>
chòng_ chọc</w>
b õ</w>
_đ ời</w>
đế_ quốc</w>
xô _đẩy</w>
xích_m ích</w>
vừa_ vặn</w>
vú _già</w>
v ít</w>
tâng_ bốc</w>
trắng_ trẻo</w>
thu ế_
thiết_ tâm</w>
thiên_ .</w>
sỉ _nhục</w>
sẵ n_lòng</w>
rộng_ mở</w>
quả ng_đại</w>
phong_ kiến</w>
paz ini</w>
nóng_ nẩy</w>
nghĩa_ huynh</w>
ng u_d
liê n_đoàn</w>
khuyến_ mại</w>
khuyến_ mãi</w>
hỗn_ chiến</w>
hỗ n</w>
gió _l
g ảy</w>
e b
da y_
cư ỡ
châu_ nhân_ký</w>
ca val
ca ta
c m
bầu_ dục</w>
b ì
_h ồi</w>
đề _đốc</w>
zu cker
xã_hội_ chủ_nghĩa</w>
x ạc</w>
vu n_v
tết_ nguyên_đán</w>
tình_ ái</w>
trí_t ưởng_tượng</w>
thạ ch_m
phầ n_tử</w>
phe _ph
p_h òi</w>
ngon_ miệng</w>
nga y_th
la go
l ùng</w>
ki ns</w>
khắt_ khe</w>
khiết_ đan</w>
joh nson</w>
hỏa_ khí</w>
hẹ p_hòi</w>
huệ _huy</w>
huyền_th ứ</w>
h ắng</w>
gan_ dạ</w>
ch ù
8 .
/0 7
đào_th ục_
ăn_ năn</w>
tính_ chuyện</w>
trương_ phi</w>
thấp_th ỏm</w>
thiên_ nga</w>
tb n</w>
su v</w>
qua ng_lâm</w>
phe_ph ẩy</w>
n á</w>
mạch_ kỳ</w>
m ửa</w>
lãng_ tử</w>
khó _hiểu</w>
khoái_ chí</w>
in tosh</w>
hừ m</w>
hồ_xung_ hỏi</w>
hà _bắc</w>
hoàng_ chung_công</w>
gra m</w>
giữa_ chừng</w>
cộ ng_tác</w>
cường_ đạo</w>
b ưởi</w>
a i
_ng ực</w>
8 6
đồng_h ương</w>
định_ kiến</w>
đ ấm_
trị _liệu</w>
triều_ chính</w>
thích_ ứng</w>
thua_ lỗ</w>
sực_ tỉnh</w>
su ông</w>
st le</w>
r êu</w>
oxy_ hóa</w>
não_ bộ</w>
nhạc_ phụ</w>
mạ ch
muôn_ vàn</w>
ma _thường</w>
lý_hóa_ sinh</w>
hy undai</w>
h ất_
fi eld</w>
doanh_ doanh_
cốt_ lõi</w>
ch ứt</w>
bất_ nghĩa</w>
ar thu
ai_ bảo</w>
_n eo</w>
_m o
_l oi</w>
_d iễm</w>
_c i
/201 2_
ôm_ đầu</w>
óng_ vàng</w>
xương_ văn_quân</w>
x ạo</w>
ví ch-
tú _phương</w>
tô n_huynh</w>
tàn_t ật</w>
tà_đ ế_
tiền_ vệ</w>
sa m
r ìa</w>
quả_b óng_vàng</w>
qui_ định</w>
nể _nang</w>
nặng_ nhọc</w>
nước_ lớn</w>
nóng_ bức</w>
ngó n_tr
ngón_tr ỏ</w>
ngo èo</w>
m õ</w>
la ur
kh ố
k iêng_
huyền_ trinh</w>
hoà ng_đ
elvi s
ei le
dô ia</w>
dâm_ ô</w>
cực_ mạnh</w>
cà_r ốt</w>
caval li</w>
bạc_ phơ</w>
bách_ bệnh</w>
bào_ chữa</w>
bài_ văn</w>
bla ck
b ít</w>
b ren
_bar celona</w>
_b ỏng</w>
5 0
đánh_ tan</w>
đào_thục_ nhi</w>
đao_ phủ</w>
đ ược_
vũ _công</w>
uổng_ công</w>
triền_ miên</w>
thì_ giờ</w>
tham_ chiếu</w>
sáng_ quắc</w>
sco w</w>
qu ở
mạo_ danh</w>
lãng_ quên</w>
l ợp</w>
kh iể
k iê
hợ p_thành</w>
hệ_t ccn</w>
bốc_ hơi</w>
bé _bỏng</w>
_th uỷ</w>
_hồ ng_hộc</w>
199 2</w>
'_ '</w>
ằng_ sặc</w>
đạo_ cô</w>
đại_ biến</w>
đông_ cung</w>
đói_ bụng</w>
ðịnh_ dật_
â t</w>
zucker berg</w>
w eng
v ừng</w>
v ặ
u e
tử_ xuân</w>
tạo_ hóa</w>
tâm_ điểm</w>
tà ng_
tuyên_ ngôn</w>
tr ưởng_t
tiệ p_
tinh_ quang</w>
thở _hồng_hộc</w>
thầ n_lực</w>
thượng_ du</w>
thư_ quán</w>
sơ_ bát</w>
scu lley</w>
s ằng_sặc</w>
rào_ cản</w>
phụ _vương</w>
nho m</w>
mã _t
miễn_ là</w>
linh_ tính</w>
kỳ _lân</w>
khung_ cửa</w>
khe n_thầm</w>
ke ang
già _
ghế_ bành</w>
gh t</w>
gd đh</w>
cộ ng_h
cãi_ vã</w>
cánh_ tay_phải</w>
châm_ biếm</w>
chi_ tiên</w>
cao_ vút</w>
c ri
bu a</w>
bec kham_
3 50</w>
29 7</w>
199 4</w>
độc_ thần</w>
đạo_ gia</w>
đen_ kịt</w>
xã _
xuống_ cấp</w>
vận_ động_viên</w>
vé _số</w>
tồn_ kho</w>
tỉnh_ thành</w>
tắc_ nghẽn</w>
tr óc</w>
thạch_m ôn</w>
sâu_ rộng</w>
sáng_ trưng</w>
ngụ _ý</w>
ng ò
na r
mềm_ lòng</w>
mật_ vụ</w>
mất_ hồn</w>
mac intosh</w>
lắp_ ráp</w>
khác_ xa</w>
gắn_ kết</w>
guar dio
dây_ cót</w>
càn_ rỡ</w>
co ng_
chán_ng án</w>
c ẩu_
bi ll
/08 /2011</w>
- 4</w>
ượng_ nhân</w>
đại_ tần</w>
út_ nhát</w>
ðinh_ xuân_thu</w>
áo_ len</w>
xo an</w>
tô_ phổ</w>
trú _ẩn</w>
tiểu_ bạch_
thức_ uống</w>
s pa</w>
r ỉ
phản_ bác</w>
phó_t ổng_
ph u
p gs</w>
nh út_nhát</w>
nguyê n_lai</w>
n_th ứ</w>
một_ chốc</w>
li ga</w>
khu ấy_
hò e</w>
f l
dương_văn_ can</w>
dương_ khắc</w>
dư _nợ</w>
dòng_ chảy</w>
dân_ tộc_
diện_ mục</w>
di e</w>
chôn_ vùi</w>
chính_ tâm</w>
ch ội</w>
_ quân</w>
ướt_ sũng</w>
đề_ kháng</w>
yên_ yên</w>
xúc_ cảm</w>
xuất_ nhập_khẩu</w>
vở _kịch</w>
từ _điển</w>
tài_ tình</w>
sữa_ tươi</w>
sáng_ chói</w>
r ịt</w>
phục_ khiên</w>
phầ n_đông</w>
ph ẳ
ph i_l
ope c</w>
nhân_ thế</w>
mã_ cát</w>
m ổ
m ịt</w>
kinh_ nguyệt</w>
khả o_th
khu ỵu</w>
hồ_ tiểu_tiên</w>
hoàn_ vũ</w>
das wood</w>
d ửng_
cả o</w>
cơ_ khí</w>
cung_ cách</w>
cono my</w>
chủ_sở _hữu</w>
c ỡi</w>
bộ_ quốc_phòng</w>
bả o_thủ</w>
b v
_t ùng</w>
_ người</w>
06 6</w>
ze a
w n</w>
v ẹ
tậ n_tay</w>
tô n_th
trăm_ nghìn</w>
thể _chế</w>
thâm_ sâu</w>
tam_ đệ</w>
sinh_ sự</w>
sa nd
ri ck</w>
quỷ _thần</w>
quyền_ quý</w>
p g</w>
napo li</w>
n_l ấn</w>
n ơ</w>
m ìn</w>
lú n</w>
lh q</w>
khoan_ dung</w>
jack son</w>
hồ_ nghi</w>
hẳn_ hoi</w>
hôi_ thối</w>
huân_ chương</w>
d ấy_
công_ danh</w>
chức_ danh</w>
bộ _ch
bạch_ hoàng_
bé _con</w>
bà_r ịa</w>
beckham_ benfica</w>
a_ tú</w>
25 /12</w>
… _h
đặc_ sản</w>
đầu_ bảng</w>
đường_ kính</w>
đèn_ pin</w>
đá o_
í ch_t
xa_ vọng</w>
vi- rút</w>
tận_ trung</w>
tt -
trả m_
toán_đ oan</w>
tiểu_ long</w>
tiểu_ hồng</w>
sử _địa</w>
sứ_ mạng</w>
số_ không</w>
quý _h
nội_ chiến</w>
nh àng</w>
nam_ châm</w>
n ẻ</w>
m ò
lỗ _tai</w>
lẻ _loi</w>
l ựu_
kiến_tr úc_
il l</w>
hoa_thiết_ can</w>
giăng_ vangiăng</w>
gi ũ</w>
diên_ chiêu</w>
công_ thác</w>
chấp_ pháp</w>
ch à
an_t áng</w>
_t ỉ</w>
3 /7
19 80</w>
ốm_ yếu</w>
ượ i</w>
ươ c</w>
đại_ họa</w>
ðịnh_dật_ sư</w>
ð ế</w>
ài_ sản</w>
v- league</w>
tà_đế_ xá_lợi</w>
tr ồi</w>
tiểu_ trúc_phong</w>
tiểu_ hoàn_
tiếng_ vang</w>
thống_ soái</w>
tho ă
the n_
r ạn_
quách_ khai</w>
qu ạt_
ph ập</w>
ngất_ trời</w>
ng_l ai</w>
muô n_đời</w>
lý_tự _thành</w>
lâm_ bình_chi</w>
kề _cận</w>
khiể n_trách</w>
i_h ướng</w>
gia_ truyền</w>
den ko</w>
d l</w>
căm_ phẫn</w>
chế_ nhạo</w>
che n_lấn</w>
c ằn</w>
bất_ hiếu</w>
b ôn</w>
a nh
_s ắt</w>
8/3 _điểm</w>
23 /1</w>
199 9</w>
ấc_ bổng</w>
đánh_ đuổi</w>
y_ bạ</w>
tá ch_
tuần_ phủ</w>
trục_ trặc</w>
trác_ nhượng</w>
tr áo</w>
tiệ p</w>
t òi</w>
sự _thể</w>
sơ_s ài</w>
sân_ cỏ</w>
quốc_ tính</w>
phát_ âm</w>
ph ích</w>
ph ai</w>
og rave</w>
nh ấc_bổng</w>
ngoằn_ ngoèo</w>
nghị _
nghèo_ nàn</w>
nghiêm_ minh</w>
n_đ iện</w>
mưu_ trí</w>
lẩ n_tránh</w>
lu lz
la di
khởi_ sự</w>
khảo_th í</w>
khó _tính</w>
hồ _h
hơi_ nước</w>
hơi_ lạnh</w>
h ùa</w>
g ạ
dính_ dáng</w>
căn_ cơ</w>
ch_l ạc</w>
b ợ</w>
_ng ang</w>
_h ạc</w>
4 s</w>
ấp_ ủ</w>
đ en
x ế_
uy_ nghi</w>
trơ_tr ọi</w>
triệu_ hồi</w>
to a
tio n_
tinh_ khiết</w>
thoă n_tho
thoăn_tho ắt</w>
tai ner</w>
siêu_ âm</w>
sinh_ trưởng</w>
s chi
po w
phăng_ phắc</w>
nú i_lửa</w>
nên_ chăng</w>
nhậm_ dao</w>
nhân_ kiệt</w>
ngồi_ph ệt</w>
nguyên_t ố</w>
n ắn</w>
lười_ biếng</w>
l ụ
kuna du</w>
k a_
in o
học_ vị</w>
học_ lực</w>
hấp_h ối</w>
hư _danh</w>
hoàng_l iên</w>
gh ềnh</w>
e xi
dửng_ dưng</w>
dễ_ nghe</w>
dĩ a</w>
doã n_trừng</w>
diệu_ tử</w>
cực_ độ</w>
cự_ địch</w>
cơ _biệt</w>
con tainer</w>
chị u_l
chuyển_ tiếp</w>
chu i_l
cen t</w>
bảo_ trợ</w>
/1 /2012</w>
…_ anh</w>
đưa_ đón</w>
đà _lôi</w>
ô_t ục</w>
êm_ dịu</w>
weng er</w>
tuyên_ dương</w>
trác_ tuyệt</w>
thế _thủ</w>
thiếu_ tướng</w>
th ô_tục</w>
rò _r
rò_r ỉ</w>
p gs.ts</w>
nhân_ dân_
ng_d ong</w>
mã ng</w>
lý_ gia</w>
kềm_ chế</w>
hình_ vuông</w>
huyết_ ðao</w>
eri cu
di ng</w>
d ấn</w>
chật_ chội</w>
c ằn_
bậ y_bạ</w>
bài_ giảng</w>
_s ĩ
_h è</w>
46 8.000</w>
/06 /2019</w>
._ khoảng</w>
ức_ trách</w>
định_ giá</w>
đại_ nạn</w>
đường_ toàn</w>
đa o_th
ð át</w>
ác_ quỷ</w>
vân_ trung_
vu ông_
tứ_t ung</w>
tung_ toé</w>
trương_ khang_
truy _cứu</w>
trung_ thần</w>
trung_ nghĩa</w>
thông_ tri</w>
thâm_ tình</w>
thiện_ nhu</w>
ter ry</w>
t anh_
quốc_ hưng</w>
nhà_ch ức_trách</w>
nghĩa_ địa</w>
ngang_ dọc</w>
ng ai_
mộ_dung_ bảo</w>
lồng_l ộng</w>
lê nh_
li ve
l ể</w>
khai_ phong</w>
iể ng</w>
hậu_ vệ</w>
hà n_lâm_
huấn_luyện_ viên</w>
ho anh</w>
h ói</w>
gạt_ bỏ</w>
gánh_ chịu</w>
gh ế
f er</w>
cần_ dùng</w>
cuố n_
chính_ tông</w>
b ùi</w>
amster dam</w>
a bra
_ giang</w>
._đ ối_với</w>
*_ *
đại_ thụ</w>
đạ n_
đoàn_văn_ vươn</w>
đ ố_
yêu_ quái</w>
xe _tăng</w>
vo l
v ố
tự _đắc</w>
tương_ phản</w>
tâm_ niệm</w>
tiền_ sảnh</w>
thám_ hiểm</w>
tho ng_dong</w>
tha_ chết</w>
tam_ lại_tử</w>
r ần</w>
phả n_loạn</w>
ph ệ
o n_
o a
nhấn_ chìm</w>
người_ máy</w>
nghỉ _hè</w>
nam_ hải</w>
mưu_ sinh</w>
mo scow</w>
m t</w>
lựu_ đạn</w>
lại_ bộ</w>
lulz sec</w>
kích_ hoạt</w>
k u</w>
hộ _
hoạch_ định</w>
hoàng_ sa</w>
hiểm_ nguy</w>
ericu zio</w>
diễm_ nữ</w>
ch ửa</w>
biệt_ hiệu</w>
biệt_ danh</w>
bi a
b ấc</w>
_m át</w>
6 6
5 0.000</w>
27 2</w>
„_ ðại_
đường_ cùng</w>
wor ld</w>
võ _t
uông_ dụ_hàm</w>
u_ buồn</w>
ts .</w>
trung_ hải</w>
to ại_
to tte
tiêu_ đề</w>
tiêu_ tiễn</w>
thiên_ kiếm</w>
thi_ thố</w>
th ơi</w>
song_ toàn</w>
se nga</w>
r ừ
quyền_ sở_hữu</w>
quan_ ải</w>
phụ_t á</w>
o_th ang</w>
nuốt_ chửng</w>
nhập_ môn</w>
nhân_ tiện</w>
ngủ _say</w>
n ôi</w>
n t</w>
mũi_ nhọn</w>
miệt_ mài</w>
ma_ tuý</w>
lỗ_m ũi</w>
le o_thang</w>
kuna đu</w>
kim_ hoàn</w>
không_ hai</w>
kh uy</w>
học_ thuật</w>
cuống_ cuồng</w>
chiếm_ lĩnh</w>
_b út</w>
: /
:/ /
đứng_ tuổi</w>
định_ bụng</w>
v ét</w>
tỉ a</w>
thanh_ lịch</w>
sư _đoàn</w>
sa n_h
r ìu</w>
ph ịch</w>
oli ve
ngượng_ nghịu</w>
nam_ bộ</w>
mô_ phỏng</w>
mô t</w>
mai_ phương_
lâm_ tự</w>
l uống</w>
kho ản_đ
cửa_ miệng</w>
col le
chủ _s
chấn_ kỳ</w>
bắt_ đầu_
be cks</w>
bao_ xa</w>
b ăng_th
av g</w>
_ch ăng</w>
– _m
ễ nh</w>
đối_ chiếu</w>
đại_ thanh</w>
z ni
x âm</w>
vích- ky</w>
tử_lăng_l ắc_đầu</w>
tình_ lang</w>
tuỳ _tiện</w>
trần_ văn_
trương_khang_ niên</w>
t òng_
str eep</w>
se i
s ắng</w>
r in</w>
ngọc_thanh_ điện</w>
ngọc_ linh</w>
ngọc_ dương_tử</w>
mer yl</w>
m ân_
lạc_ thú</w>
lũng_ đoạn</w>
l ằn</w>
k ali</w>
hữu_ dụng</w>
hợp_t ình</w>
hoa_ đào</w>
gi ỏ
e ver
dư a_h
der ek</w>
cầm_ thú</w>
cả _giận</w>
cát_ bụi</w>
chết_ ngạt</w>
cho_ biết</w>
can_ dự</w>
c ật</w>
bran don</w>
blu e
biến_ sắc_mặt</w>
_x ẻ</w>
_v ang</w>
_c ựu</w>
ương_ yêu</w>
ưu_ tư</w>
đe n_ng
đen_ng òm</w>
ôm_ ấp</w>
á _châu</w>
vô _thường</w>
tự _trọng</w>
to ản</w>
thu_ mua</w>
thiên_ sách
thiên_ ca</w>
then_ chốt</w>
sinh_ thái</w>
qu è</w>
qu ây</w>
phu_ thê</w>
nguyễn_ văn_h
n_tr ai</w>
một_ không_hai</w>
mắc_ kẹt</w>
linh_ nghiệm</w>
l ùng_
khôn_ cùng</w>
k w
i sa
hùng_h ồn</w>
huyết_ khí</w>
dân_tộc_ thiểu_số</w>
d ằng</w>
c c</w>
bó c_
_ch ung</w>
17 /12</w>
„ _vậy</w>
ẩn_ quẩn</w>
độc_ chất</w>
điểm_ chuẩn</w>
đao_th ương</w>
z ab
xiề ng</w>
wo zni
vạ n_hương</w>
vây_ hãm</w>
tô n_t
trị _tội</w>
th ào</w>
t ỏi</w>
phụ _cấp</w>
phân_ bổ</w>
nợ _n
nh ung_
ng_l ừng</w>
na y_
n_ng ầm</w>
n ấm_
n in</w>
mẫu_ giáo</w>
mây_ mù</w>
lặng_ im</w>
lầm_ lỗi</w>
lý_h ọc</w>
lão_ bộc</w>
ký_t ên</w>
kìm_ nén</w>
kh ẽ
ir e</w>
im_ phăng_phắc</w>
hầu_ bàn</w>
gen na
dư _thượ
diệt_ vong</w>
d ể</w>
cư u_
công_ phá</w>
cs đt</w>
chứng_ cớ</w>
chồng_ con</w>
c ật_
c xin</w>
bất_ nhẫn</w>
bùi_ ngùi</w>
bài_ hát</w>
_đ ũa</w>
_d e
_ch ủ
10 0.000</w>
._ việc</w>
đắt_ đỏ</w>
ðồ _long</w>
tửu_ điếm</w>
txcơ va</w>
trả _đũa</w>
trạ ng_
trác_ kiều</w>
toa n_tính</w>
tiết_ chế</w>
thế _sự</w>
thuy ên_
tam_ bảo</w>
sốt_ sắng</w>
sáng_ loáng</w>
sà i
s ột_
s ấu</w>
quái_ đản</w>
phụ _tử</w>
nợ_n ần</w>
nghĩa_th ương_yêu</w>
ng_t ính</w>
news _vtc_news</w>
li ng</w>
kiến_trúc_ sư</w>
kim_jong- il_
k no
hội_ chủ</w>
hiểm_ yếu</w>
h tc</w>
g y
dư a_
dư _
cổ_ kính</w>
cổ _nhân</w>
chủ_ quản</w>
c ty</w>
an_h ồ
an_ nhiên</w>
_leagu e
16 0</w>
1 30</w>
đậu_ kiến_đức</w>
đ ắng_
vương_ công</w>
vun_v út</w>
tà _ma</w>
trần_ lão_mưu</w>
to ẹt</w>
thai_ nhi</w>
s pi
ruột_ gan</w>
rap tor</w>
quân_ mã</w>
po li</w>
nhân_ nghĩa_thương_yêu</w>
mổ _xẻ</w>
margar et</w>
lỡ _tay</w>
khổng_ minh_
khoản_đ ãi</w>
i ne
hắc_ ám</w>
hăm_ hở</w>
h ường</w>
gửi_ gắm</w>
gian_ ác</w>
di_ thể</w>
cõi_ lòng</w>
ck _
ch i_l
bột_ bột</w>
bồng_ bềnh</w>
bất_ kính</w>
bạch_ phát</w>
_x ương</w>
_t úc</w>
2, 5</w>
1, 2</w>
đại_ đao</w>
điể n_trai</w>
ð ổng_th
zab eth</w>
xã _tắc</w>
x ù</w>
x én</w>
vn m</w>
van_ persie</w>
tá n_đồng</w>
thiết_ giáp</w>
su zu
phủ _đệ</w>
nửa_ chừng</w>
nông_ sản</w>
nhân_ phẩm</w>
nhà _riêng</w>
ngoại_ tệ</w>
ngoái_ đầu</w>
ng_th ể</w>
ng_th oáng</w>
lago denko</w>
khởi_ binh</w>
kh ờ</w>
k ẹ
hạ _sơn</w>
hư ng_thịnh</w>
chị_ gái</w>
chiếu_ rọi</w>
bất_ lương</w>
bất_ chính</w>
bình_ thời</w>
bo r
27. 066</w>
199 3</w>
18 0</w>
12 ,
._ nếu</w>
„_ð ừng</w>
đồng_ mỗ</w>
yên_ khách</w>
x ẻng</w>
x iên</w>
và ng_r
va ng_lừng</w>
tông_ tích</w>
thủy_ tiên</w>
thủ_đ ức</w>
thủ_ khoa</w>
thiên_sách _phủ</w>
th ạc</w>
ten ni
sa in
s âm_
phùng_ chân</w>
no n_n
non_n ớt</w>
nhã _lan</w>
nhà m_
nhiễm_ khuẩn</w>
ngập_ tràn</w>
ngo ác</w>
mịt_m ù</w>
hộ c_
guardio la</w>
giao_ phó</w>
elvis _đậu</w>
eli zabeth</w>
dương_ vật</w>
dư_thượ ng_hải</w>
d ẳng</w>
d ro
cực_ khổ</w>
chằng_ chịt</w>
cao_ môn</w>
bí _đạo</w>
bo o
b ở</w>
a n_lạc</w>
đ ong</w>
ám_ hiệu</w>
xuất_ viện</w>
xa_ lánh</w>
x iêm_
vạ ch
vi_ chất</w>
vay_ mượn</w>
tù y_th
trứ _danh</w>
tr ói_
toàn_ phần</w>
to_ béo</w>
to ét</w>
tiểu_ tuấn</w>
thủy_ triều</w>
thông_ lệ</w>
thôn_ nữ</w>
thành_ kiến</w>
rắn_ chắc</w>
r ưởi</w>
qu ắt</w>
phùng_ xuân_
phong_th anh_
on ne</w>
nương_ tay</w>
n_đ ưa</w>
mặc_ nhiên</w>
mư u_l
mu ỗng</w>
mer s</w>
loá ng_thoáng</w>
l ẹ
kích_ cỡ</w>
kh ống</w>
hoảng_ công_thác</w>
giang_ ninh</w>
do r
d ằng_
cứ a</w>
cần_ ta</w>
cám_ dỗ</w>
bạch_ y_
b mw</w>
_đ iệu</w>
18 /2</w>
10 /12</w>
„_ có</w>
địa_ chủ</w>
xào_ xạc</w>
x ó
tội_ danh</w>
tư_mã _diệu</w>
tóm_ tắt</w>
tiếp_ viên</w>
thượ ng_đ
thâm_ ý</w>
thao_ tác</w>
su shi</w>
su m_
sinh_ lực</w>
si las</w>
san_h ô</w>
s àn_
rình_ rập</w>
quay_ phắt</w>
oni ka</w>
nh ờ_v
nghi_ thanh</w>
ng_th ững</w>
n òng</w>
m éo</w>
lữ ng_thững</w>
lệ _hằng</w>
lả _tả</w>
lưỡ i_l
linh_ tinh</w>
li nes</w>
le i
kết_ tội</w>
kho ải</w>
hèn_ nhát</w>
huyền_ hoa</w>
cột_ buồm</w>
chính_ thị</w>
c e_
bất_ kì</w>
bàn_ phím</w>
201 8
199 5</w>
„ _ng
ậm_ chân</w>
ảo_ diệu</w>
đăng_ kí</w>
đông_ tây</w>
xa_ giá</w>
vương_ cung</w>
vđ v</w>
univer si
tập_ kết</w>
tăm_ tối</w>
tây_ đạo</w>
trung_ đoàn</w>
thủ _công</w>
thời_ sự</w>
tan_ xương</w>
tam_ đại</w>
sung_ mãn</w>
rách_ rưới</w>
q úy</w>
olive tti</w>
nông_ cạn</w>
ngõa_ cương</w>
nguyễn_đức_ tâm</w>
ng o</w>
na sa</w>
mẫu_ hậu</w>
mon t
làm_ thinh</w>
khắp_ nơi</w>
khách_ khứa</w>
kh ớ
hạt_ châu</w>
dân_ ca</w>
d ụa</w>
cựa_ quậy</w>
cáu_ kỉnh</w>
chiều_ hướng</w>
chi_ phái</w>
ch iêng</w>
_d ài</w>
787 7</w>
đại_ lượng</w>
ôi_ chao</w>
y_ sĩ</w>
x ú
w in</w>
vân_ soái</w>
tử_lăng_ đáp</w>
tần_th ủy_
tin_ chắc</w>
t ã</w>
song_ sinh</w>
sai f</w>
ro v</w>
phùng_xuân_ nhạ</w>
ph er
p_th ịt</w>
[...]
