, 3062719
. 2356580
không 697041
của 627473
là 617914
: 588924
- 579837
một 534163
có 514203
và 441882
người 436372
đã 413560
được 396778
nói 388058
trong 365126
lại 354423
cho 349433
ra 313320
? 309006
cũng 287703
này 280715
" 274661
đến 273324
với 265827
vào 256853
thì 244758
phải 241098
những 235596
đi 235390
như 231040
ở 223245
để 220567
các 218969
đó 215101
! 210728
mà 208998
” 203919
“ 203220
lên 200429
ta 196327
về 188528
rồi 183107
thấy 182034
còn 180819
) 180666
( 180255
tôi 179771
làm 176841
gì 173415
biết 171589
chỉ 168022
hai 165796
nhưng 155108
khi 153853
sẽ 152995
trên 151044
mình 149423
bị 141576
anh 126596
ông 126248
nhìn 125599
từ 125355
đang 120342
con 117994
sau 117848
tới 117341
mới 115058
năm 114793
cô 112099
rất 111130
trước 111082
cái 109606
đây 104744
có_thể 104493
nhiều 103130
nào 102554
hơn 102108
cả 97963
vẫn 97820
tay 97803
nên 97775
lúc 96385
hỏi 96174
nữa 92112
theo 91800
nghe 91763
đầu 91227
họ 90266
tiếng 89777
xuống 88299
tại 87949
muốn 87221
cười 86507
bên 86186
ấy 85121
ngày 84557
nhà 84160
đều 83851
chưa 82565
vì 81840
cùng 80459
việc 79528
gã 79527
nàng 79386
lão 78559
vừa 76969
khác 76455
qua 75748
vậy 72513
lấy 72447
rằng 71703
y 71364
ngươi 71006
; 70099
lần 69281
ai 69191
sự 68583
thế 67761
chẳng 67632
mắt 67040
mặt 66739
hay 66236
Tôi 66226
chuyện 65586
nó 64511
tên 64501
em 63978
hắn 63964
đâu 63875
nước 62253
nhất 61997
nhau 61615
phía 61099
chàng 60538
đáp 59983
bọn 59447
lớn 58656
nghĩ 58386
lòng 57649
... 57573
ba 56585
đứng 56394
đưa 55573
đường 55234
Nhưng 55023
thật 54875
chết 54741
cần 54718
bằng 54381
Anh 54208
thành 54194
Từ 53876
ngoài 53820
bà 52547
chúng_ta 52194
sao 52136
mấy 51651
ngay 51617
khỏi 51360
& 50175
kiếm 49668
nếu 49480
điều 49313
bước 48473
cách 47704
quá 47546
hạ 47529
nơi 46740
chính 46728
thứ 46534
hết 46525
chiếc 46381
Trong 46189
gặp 45675
liền 45358
vị 45219
bạn 45195
Không 45144
ngồi 44861
cao 44622
đánh 44168
tìm 43969
mọi 43719
chạy 43630
khiến 43272
dùng 43183
không_thể 43036
lời 42689
thêm 42623
hiểu 42527
thi 42390
Nếu 42273
nay 42163
xem 41122
Các 40793
quay 40623
trường 40233
sống 40134
… 40062
chân 39926
kia 39201
xe 38870
Một 38799
càng 37856
gần 37729
rõ 37389
số 36872
do 36748
từng 36715
học 36664
lắm 36662
dưới 36548
nhỏ 36540
chỗ 36523
thôi 36222
chúng 35987
cứ 35942
tháng 35217
mất 35015
nhận 34925
ăn 34635
Người 34634
phòng 34627
giữa 33983
trẻ 33845
Cô 33509
bảo 33379
đúng 33336
Những 33319
Ông 33262
Hai 32823
chứ 32677
câu 32486
tin 32350
thế_nào 32272
đất 32251
gọi 32134
tiền 32089
cửa 31118
dám 30877
Việt_Nam 30739
mẹ 30519
kẻ 30257
hàng 29941
Ta 29920
sợ 29860
bài 29803
tuổi 29650
giờ 29549
tự 29332
xong 29160
điểm 28937
# 28889
đồng 28821
đại 28643
cuộc 28620
tăng 28458
Hạng 28400
bé 28181
2 28133
chúng_tôi 28005
tiếp 28004
mang 27923
bỏ 27748
cây 27709
tốt 27682
mỗi 27661
hãy 27573
quân 27527
Có 27453
khó 27256
nhân 27214
giết 27160
sang 27136
xin 27040
Khi 27031
Lão 27003
chịu 26918
giọng 26877
Chỉ 26874
tỷ 26855
Sau 26841
Khấu_Trọng 26643
huynh 26533
Thiếu_Long 26154
chị 26048
Tử_Lăng 25991
Mỹ 25956
cảm_thấy 25763
cậu 25352
công 25287
đủ 25037
giữ 24880
nổi 24825
chủ 24817
đêm 24802
thời_gian 24649
tất_cả 24513
lâu 24453
ngựa 24423
áo 24369
xa 24362
đối_với 24359
nằm 24336
nhớ 24199
môn 24059
hoặc 23997
sáng 23815
giúp 23808
trời 23805
đấy 23633
người_ta 23612
– 23509
đem 23494
dậy 23383
luôn 23173
đọc 23025
núi 23022
bốn 22855
Lúc 22797
3 22739
Chàng 22477
1 22440
gái 22439
đôi 22368
phái 22349
7/3 22076
gia 22066
kêu 21985
coi 21933
mười 21828
Theo 21617
đá 21542
Hà_Nội 21417
giống 21374
lưng 21299
Gã 21176
giá 21147
tiểu 21131
chắc 21013
miệng 21006
đặt 20969
Vi 20922
vẻ 20908
hơi 20897
bắt 20848
tỉnh 20777
đầy 20755
cầm 20651
đáng 20610
đời 20467
Ngươi 20453
gây 20357
lập_tức 20008
phần 19985
thân 19983
tiến 19935
Dân_trí 19922
tuy 19914
bàn 19860
kể 19751
trận 19727
loại 19723
dài 19700
bộ 19692
/ 19642
chưởng 19531
uống 19518
cháu 19517
bao_giờ 19450
báo 19376
vốn 19371
trông 19362
đừng 19304
vô_cùng 19267
nhanh 19149
vàng 18976
yêu 18939
đứa 18897
Còn 18807
tính 18803
thường 18752
mở 18669
ánh 18653
bay 18382
vội 18376
tiếp_tục 18270
mạnh 18220
xảy 18052
Nàng 17956
thẳng 17950
bắt_đầu 17944
khoảng 17934
to 17927
đẹp 17892
định 17851
bây_giờ 17712
vụ 17684
lạ 17667
viết 17637
10 17622
rượu 17581
cạnh 17558
đột_nhiên 17486
bệnh 17478
thế_giới 17470
| 17428
thuyền 17401
Tiểu_Bảo 17400
Vương 17344
kỳ 17334
giảm 17296
Tiêu 17291
muội 17264
gia_đình 17238
ý 17220
Bà 17135
máu 17131
lớp 17116
% 17093
đầu_tiên 17057
gật 16994
nữ 16929
trả_lời 16900
nắm 16883
mua 16877
học_sinh 16862
đao 16832
ít 16808
chiêu 16779
sai 16699
vài 16690
đen 16688
dù 16682
sử_dụng 16655
cha 16644
màu 16554
chung 16531
làm_sao 16392
Và 16371
chữ 16362
chờ 16345
Hắn 16316
mức 16272
bán 16197
hề 16148
Chuyện 16136
biến 16127
một_cách 16092
dẫn 16061
hoàn_toàn 16033
động 15924
như_thế 15887
dân 15826
chút 15762
kéo 15747
khí 15716
hồi 15713
ngủ 15579
vòng 15570
Bọn 15544
phu_nhân 15540
trăm 15530
Việt 15511
Em 15471
sớm 15449
Nói 15434
một_chút 15428
quả 15362
hôm 15330
mặc 15295
hướng 15282
vấn_đề 15268
bỗng 15257
Phong 15217
nhảy 15203
lộ 15190
già 15115
tạo 15073
võ_công 15048
Y 15047
thuốc 15025
khẽ 14995
tránh 14952
trắng 14892
đạo 14877
Con 14849
4 14823
điện 14814
chặt 14765
trở_thành 14751
hoa 14733
giải 14725
Thanh 14707
cuối_cùng 14696
thích 14670
lửa 14541
Nam 14469
._@@ 14435
khách 14396
bức 14352
đông 14325
bóng 14317
trở_lại 14301
Tại 14262
ca 14261
Trường 14252
thầm 14221
đám 14218
Rồi 14161
Họ 14124
Số 14092
sinh 14057
tấm 14041
ngạc_nhiên 14038
triệu 14011
chi 13925
tổ_chức 13896
5 13887
thủ 13859
mỉm 13857
dừng 13831
Kỳ 13796
sông 13787
sư 13787
như_vậy 13781
nửa 13687
thuộc 13634
vùng 13634
thần 13634
Cái 13632
xuất_hiện 13623
quyết_định 13592
bản 13592
mời 13553
thực_hiện 13545
ảnh 13456
chuyển 13448
vợ 13447
một_số 13435
phát 13403
cứu 13389
vai 13369
pháp 13345
biển 13341
rơi 13331
thiếu 13325
lo 13323
Chúng_ta 13317
mạng 13297
quyền 13278
hiện 13272
khá 13212
bởi 13191
nhờ 13175
„ 13173
sách 13159
huyện 13141
so 13132
kịp 13078
thở_dài 13074
hoạt_động 13059
ư 13050
đặc_biệt 12990
thanh 12986
hẳn 12968
gió 12956
2012 12950
thí_sinh 12937
ngờ 12935
xanh 12862
rời 12825
buổi 12791
tuần 12755
Đây 12699
cổ 12640
Lệnh 12620
thu 12603
tối 12596
ngọn 12589
Bộ 12551
phát_triển 12535
bụng 12533
làm_việc 12521
trái 12508
sắp 12506
thay_đổi 12496
Thế 12482
khóc 12458
chồng 12450
Xem 12436
bắn 12422
con_người 12311
đệ 12221
đạt 12218
Sao 12215
khắp 12197
nặng 12140
phóng 12108
cánh 11970
đàn_ông 11947
nói_chuyện 11934
Pháp 11916
riêng 11867
quan_trọng 11858
viên 11844
bèn 11844
quên 11842
chơi 11838
chiều 11805
thoát 11779
6/3 11766
khu 11757
lực 11690
Tuy_nhiên 11682
Đó 11676
hôm_nay 11651
chợt 11648
cơ_hội 11630
trả 11595
đồ 11575
sát 11554
đệ_tử 11540
thiên_hạ 11528
khả_năng 11507
vui 11496
rừng 11496
6 11482
độc 11479
bờ 11472
thư 11441
tưởng 11427
vang 11406
dễ 11400
Trung_Quốc 11389
cô_nương 11380
lắc_đầu 11359
Vậy 11355
vật 11327
đành 11321
ôm 11287
đội 11268
Ba 11251
thấp 11235
sâu 11203
nhóm 11190
suốt 11185
đỏ 11136
Nó 11132
quanh 11129
mũi 11127
ngôi 11044
cảm_giác 11043
quan 11041
nhất_định 11026
thằng 11003
thương 10990
cũ 10969
bao_nhiêu 10954
ngừng 10945
Phương 10935
đối_phương 10912
rút 10890
quát 10884
à 10878
chục 10861
phủ 10824
sức 10823
ngã 10820
truyền 10803
7 10787
đóng 10764
nhẹ 10764
Phi 10747
thử 10668
bang 10656
song 10648
chống 10636
cầu 10636
phu 10617
tấn_công 10611
đuổi 10611
ngài 10600
Bây_giờ 10588
Sở 10582
dạy 10573
địch 10573
Chính 10562
lạnh 10560
mối 10496
Triệu 10445
cố 10436
có_vẻ 10415
dòng 10398
2011 10380
trúng 10378
dường_như 10370
tại_sao 10359
Ở 10346
công_tử 10326
cảnh 10318
tường 10314
hết_sức 10304
giả 10293
Trên 10262
thị_trường 10251
tám 10251
Như 10217
Lý 10217
toàn 10214
cuối 10198
rõ_ràng 10192
ĐH 10185
đảo 10174
mày 10160
đoạn 10159
xây_dựng 10151
tướng 10148
chú 10136
vượt 10128
cấp 10089
Thạch 10084
Ngày 10061
bàn_tay 10047
con_gái 10028
chuẩn_bị 10014
thành_phố 10002
khó_khăn 9997
thịt 9996
da 9981
ngực 9956
cung 9941
sáu 9939
thắng 9913
tai 9891
xã_hội 9887
cúi 9885
Mọi 9872
Lâm 9838
Đúng 9794
sư_phụ 9793
tình 9753
thở 9733
tung 9732
− 9720
phát_hiện 9713
đấu 9708
một_mình 9705
bảo_vệ 9701
cuốn 9665
giang_hồ 9655
từ_từ 9653
trở 9633
đau 9615
gửi 9613
chừng 9613
nỗi 9606
đầu_tư 9602
liên_quan 9590
thời 9578
in 9548
cơn 9525
trượng 9460
giơ 9454
phút 9447
suy_nghĩ 9439
nam 9402
quan_hệ 9397
diễn 9388
8 9383
phụ_nữ 9383
mong 9378
tóc 9377
ngành 9335
Dương 9332
thầy 9319
ngang 9290
hiệp 9285
kỹ 9278
tử 9266
chọn 9254
lệnh 9253
hình 9242
thông_tin 9221
đồng_thời 9214
Xin 9201
cháy 9199
bật 9196
căn 9193
mùa 9163
công_việc 9161
hành_động 9134
đoán 9131
phản_hồi 9122
đợi 9121
nhân_vật 9114
giao 9104
dành 9069
Để 9063
Bình 9062
] 9060
Đức 9058
tàu 9058
tham_gia 9027
cao_thủ 9026
xông 9002
Với 8999
võ_lâm 8981
bữa 8977
nhằm 8942
phố 8929
kinh 8929
anh_em 8918
Đường 8910
giường 8897
mãi 8894
lạnh_lùng 8874
ngàn 8864
vung 8856
trở_về 8849
n 8847
tuyệt 8843
món 8834
trở_nên 8821
c 8813
trang 8792
đâm 8792
Trước 8765
quán 8759
la 8742
kết_quả 8734
yêu_cầu 8731
sinh_viên 8712
đón 8708
lên_tiếng 8700
Đến 8694
đại_sư 8668
Việc 8662
xã 8652
lao 8619
nghiên_cứu 8605
t 8605
bảy 8578
tài 8577
công_ty 8575
lo_lắng 8563
tiểu_đệ 8561
chăng 8558
có_lẽ 8515
rộng 8511
Lại 8497
ghế 8488
binh 8485
dự_án 8466
tự_nhiên 8463
Tần 8462
Vì 8459
Tiêu_Lĩnh_Vu 8448
Nga 8433
mau 8424
độ 8415
Đã 8409
Cả 8404
Tiếng 8403
buồn 8401
giật_mình 8396
Tình_yêu 8394
đàn_bà 8390
chùa 8371
trốn 8358
thay 8336
bậc 8333
hán 8333
Hàn 8327
đẩy 8323
Thiếu 8317
ơi 8289
luyện 8286
đổ 8280
tỏ 8275
đại_ca 8254
tâm 8249
Điều 8238
vua 8230
Chúng_tôi 8223
Bé 8221
' 8215
nương 8215
chương_trình 8203
Ai 8198
đỡ 8173
quốc_gia 8161
Thiên_@@ 8122
Chị 8115
Đoàn 8095
chiếm 8086
Cũng 8084
vạn 8061
nét 8058
vương 8057
đăng 8054
quan_tâm 8050
huynh_đệ 8036
khu_vực 8034
đại_học 8034
Bạn_đọc 8029
trưởng 8028
cặp 8011
chém 8004
cơm 7987
Thể_thao 7985
dần 7973
bố 7963
máy 7958
kinh_hãi 7947
tranh 7933
Nguyên 7925
đề 7916
Quỷ 7912
.. 7904
bản_thân 7901
chắc_chắn 7883
mụ 7873
Kinh_doanh 7872
Nhi 7866
Giáo_dục 7866
mưa 7859
giáo_dục 7835
tiên_sinh 7802
9 7797
hại 7761
nóng 7738
cắt 7719
thành_công 7715
Năm 7713
lối 7679
Sự_kiện 7671
m 7659
bí_mật 7657
B@@ 7656
Nhân_ái 7652
Sức_khỏe 7650
môi 7643
Hồng 7640
kinh_tế 7634
ng 7625
phá 7610
khổ 7605
nâng 7600
cuộc_sống 7587
Nhiều 7582
lát 7577
Sức_mạnh 7566
chúa 7560
Pháp_luật 7557
ủng_hộ 7548
Tây 7542
Ngân 7536
Xe_máy 7525
Hải 7500
Thần 7498
Bắc 7497
quốc_tế 7495
ạ 7472
Ô_tô 7462
Thế_giới 7441
lúc_nào 7424
huyệt 7413
Kim 7401
chảy 7394
quyết 7394
Thứ 7390
lễ 7388
lá 7381
20 7379
Nhạc 7368
tình_trạng 7365
thực_sự 7362
quy_định 7358
điện_thoại 7354
Hãy 7351
sản_phẩm 7349
thăm 7346
doanh_nghiệp 7340
Thiết 7340
ma 7338
T@@ 7333
S@@ 7325
mùi 7324
chú_ý 7317
L@@ 7305
giấy 7299
đập 7299
ảnh_hưởng 7283
võ 7280
tinh_thần 7278
phong 7274
lượng 7272
má 7259
chất 7250
bình_thường 7249
quản_lý 7235
giỏi 7225
lập 7223
bất_cứ 7223
tận 7219
H@@ 7210
hay_sao 7196
Tống 7188
bạc 7184
ngón 7174
Thái 7170
Yến 7158
hóa 7156
bất_ngờ 7150
5/3 7149
hát 7148
hệ_thống 7147
i 7141
gỗ 7130
Tên 7130
giới 7119
tình_hình 7113
chia 7108
nghỉ 7104
lãnh_đạo 7101
kế 7097
cơ_quan 7095
USD 7094
Cậu 7092
hy_vọng 7087
nguy_hiểm 7074
nhắc 7071
THPT 7067
bác 7063
đổi 7058
vội_vàng 7051
giận 7039
an_toàn 7034
đoàn 7031
tòa 7029
mừng 7025
khẳng_định 7022
kém 7020
thậm_chí 7003
Thôi 6999
chụp 6996
Sơn 6995
ý_kiến 6993
đèn 6993
12 6987
ánh_sáng 6981
kế_hoạch 6979
viện 6955
vận 6949
Đông 6946
Tại_sao 6931
lùi 6914
M@@ 6912
cá 6911
nhị 6904
phim 6895
Chu 6892
bị_thương 6872
2019 6864
tặng 6851
Mẹ 6845
quần 6839
hiện_nay 6838
trường_hợp 6832
s@@ 6827
đối_phó 6814
quý 6798
xét 6793
túi 6778
Chân 6778
dầu 6770
may 6764
yên 6759
chia_sẻ 6754
câu_chuyện 6752
cơ_thể 6749
tập 6735
bao 6734
đại_nhân 6702
duy_nhất 6694
sắt 6682
Bỗng 6678
nguồn 6665
cố_gắng 6651
cực_kỳ 6640
điều_kiện 6622
lẫn 6612
công_tác 6610
[ 6609
nội 6608
dựa 6594
trao 6590
thua 6588
bác_sĩ 6584
Linh 6583
C@@ 6580
tội 6573
Du 6570
dự 6554
Ảnh 6547
nụ 6540
n@@ 6536
niềm 6521
hồ 6517
vui_vẻ 6515
ngân_hàng 6514
cửa_sổ 6504
tiêu 6497
kiểm_tra 6497
dây 6492
Xã_hội 6488
tim 6478
luồng 6471
tiên 6462
Mấy 6455
nước_mắt 6437
Được 6426
Hùng 6423
giải_thích 6414
Văn_hóa 6413
xung_quanh 6410
trai 6409
dễ_dàng 6408
tập_trung 6407
hạnh_phúc 6407
Chi 6403
quang 6400
nghĩa 6399
nhân_ái 6399
xoay 6387
xinh 6379
mà_còn 6360
Viên 6354
thực 6347
Trương_Tiểu_Phàm 6325
tức_giận 6313
toàn_bộ 6305
m@@ 6299
để_ý 6298
Đại_@@ 6296
Long 6292
xử_lý 6289
Lưu_Dụ 6289
giáo 6285
giải_quyết 6284
Nguyễn_@@ 6281
nhé 6277
Nghe 6264
tiền_bối 6263
cất 6252
V@@ 6249
chó 6249
quen 6241
ra_tay 6241
hỗ_trợ 6233
N@@ 6228
đỉnh 6207
chuyến 6196
d@@ 6195
Thương 6195
miền 6188
Phải 6187
nhạc 6187
Chủ_tịch 6181
Nhân 6170
lượt 6166
Tuy 6158
u 6155
chiếu 6144
kình 6139
nuôi 6130
Minh 6127
sắc 6123
nền 6121
t@@ 6116
11 6112
thú 6104
thân_hình 6100
góc 6096
băng 6094
Thật 6094
nổi_tiếng 6084
mã 6081
b@@ 6079
cán_bộ 6071
Quân 6071
D@@ 6063
Hà 6053
ả 6047
Tiểu 6047
Công_ty 6034
Lần 6032
ngó 6028
Vu 6027
buông 6022
sân 6021
Mộc 6020
thơ 6011
nhi 6010
cánh_tay 6008
kiểu 5999
hội 5983
lui 5975
địa_phương 5974
gấp 5969
quần_áo 5967
Hoàng 5955
con_trai 5951
địch_nhân 5950
điều_tra 5948
hạng 5946
tiểu_thư 5942
nhẹ_nhàng 5931
Diễn_đàn 5931
tiếc 5925
vợ_chồng 5920
Đào 5910
phương 5907
Vân 5902
Vô_Kỵ 5900
phân 5897
anh_hùng 5894
ban 5878
vị_trí 5878
Nhịp 5878
giáo_viên 5878
-@@ 5876
đăng_ký 5875
trầm 5859
30 5851
gian 5845
cướp 5836
mảnh 5831
đàn 5814
Tấm_lòng 5804
im_lặng 5800
sau_này 5799
chậm 5798
đánh_giá 5796
trách_nhiệm 5796
hình_ảnh 5794
15 5789
Tết 5789
cho_nên 5781
thưa 5771
phụ 5767
đảm_bảo 5766
thái 5753
làng 5743
tui 5737
Trần_@@ 5736
súng 5723
Dù 5714
Chúng 5710
lý_do 5705
lợi_hại 5702
Bạt_Phong_Hàn 5687
sợ_hãi 5674
c@@ 5671
sản_xuất 5662
chớ 5648
phi 5644
khuyến_học 5641
nợ 5630
chín 5628
Tạ 5603
cổng 5599
Vũ 5596
bò 5594
Lệ 5586
trải 5585
Dân_Trí 5582
Về 5581
phí 5578
thiếu_nữ 5577
ghi 5574
–_@@ 5574
Chẳng 5573
mẫu 5569
Báo_điện_tử 5561
tựa 5550
chức 5549
cơ 5548
Tất_cả 5539
A 5537
Thanh_Vân 5534
Blog 5528
chữa 5526
chén 5526
dân_trí 5514
quan_sát 5512
nguyên 5500
cẩn_thận 5496
thị 5479
quỷ 5479
Ngay 5475
vô 5473
dịch_vụ 5472
Giao_diện 5472
ngọc 5467
cơ_sở 5463
Hay 5454
English 5451
đài 5442
Mua_bán 5440
Mình 5436
Mỗi 5430
lướt 5429
>> 5428
ra_sao 5425
Tuần_báo 5423
PDA_Mua 5414
ng@@ 5389
đằng 5387
xưa 5364
nhanh_chóng 5363
mắc 5361
giá_trị 5359
xấu 5358
e 5355
Đi 5350
xinh_đẹp 5348
yếu 5345
xuất 5342
tròn 5341
tất 5336
răng 5335
buộc 5332
đề_nghị 5331
lớn_tiếng 5327
Nhật 5326
bất_giác 5323
Thành 5318
che 5316
tiểu_tử 5315
Tú 5311
Lê_@@ 5308
tuyển 5308
chốn 5307
Đ@@ 5306
lương 5303
lao_động 5299
tờ 5296
Đại_học 5292
đến_nỗi 5291
vẽ 5290
bình 5289
âm 5287
nguyên_nhân 5272
thổi 5268
h@@ 5267
nổ 5261
đòi 5248
hiệu_quả 5240
tuyết 5239
gồm 5238
Sự 5236
mi 5228
khóa 5221
lưỡi 5221
phép 5208
cá_nhân 5207
trà 5203
tan 5183
sơn 5182
nghìn 5179
trước_mắt 5170
hồng 5164
thật_sự 5163
Trúc 5161
đào 5159
Lã 5156
lính 5151
ch@@ 5148
giành 5145
dâng 5143
toàn_thân 5135
lãnh 5130
Lý_@@ 5128
chất_lượng 5125
tuyển_sinh 5121
khuôn_mặt 5115
cỏ 5112
a 5109
xương 5108
Lôi 5107
giáo_chủ 5106
sóng 5101
sức_khỏe 5096
thực_tế 5087
giúp_đỡ 5076
ném 5073
tình_cảm 5072
Bạch 5072
nghề 5069
nhân_viên 5068
r@@ 5064
đốt 5063
Thấy 5054
Nhìn 5048
ngoại 5043
giấu 5042
x@@ 5039
R@@ 5036
Lục 5036
Lan 5034
kinh_doanh 5031
chào 5024
khoản 5016
tạm 5016
chim 5010
họp 5009
kinh_ngạc 5004
Sư 5004
dịch 5002
lục 5000
không_thể_nào 4999
kim 4996
nhỉ 4994
vỡ 4992
miếng 4991
vách 4986
G@@ 4981
liệu 4981
ô_tô 4981
Vừa 4981
Liên 4978
dặm 4977
Vi_Tiểu_Bảo 4970
cụ 4967
đơn 4965
bối 4963
vườn 4961
„_@@ 4959
tao 4954
tức 4953
tươi 4951
l@@ 4947
danh 4946
mỗ 4945
làn 4944
tình_yêu 4941
lăn 4934
nghi_ngờ 4926
phục 4921
Chính_phủ 4920
Tổng_thống 4920
Đừng 4916
đồng_ý 4915
tiện 4913
Đồ 4912
tôn 4911
Âu 4906
ác 4904
sự_kiện 4902
trách 4898
tầng 4892
TP 4892
lựa_chọn 4889
thanh_niên 4884
chấp_nhận 4882
Phó 4879
An 4878
hình_như 4878
bá 4871
chuyên 4858
giao_thông 4857
có_mặt 4856
vui_mừng 4847
chạm 4845
màn 4845
thoáng 4845
Langdon 4844
xuân 4839
báo_cáo 4838
nọ 4838
Ngũ 4836
khách_hàng 4826
Kiếm 4821
vọng 4820
50 4819
lợi 4817
Quách 4816
đương_nhiên 4813
kéo_dài 4812
bắc 4811
thốt 4809
Giang 4802
trẻ_em 4797
cốc 4778
đơn_giản 4774
h 4773
…_@@ 4771
trung_tâm 4762
nắng 4759
Trương_@@ 4759
liếc 4759
quái 4757
nước_ngoài 4739
vọt 4739
đeo 4739
lý 4723
vỗ 4714
tả 4711
Có_lẽ 4708
Trương_Vô_Kỵ 4707
Bên 4704
sư_huynh 4701
giới_thiệu 4696
cho_phép 4688
* 4683
kính 4681
Song 4674
công_bố 4667
chờ_đợi 4663
C 4661
Bảo 4651
ngắn 4650
Gửi 4649
án 4648
du_lịch 4645
thúc 4643
Biên 4636
chính_thức 4634
sắc_mặt 4633
tương_lai 4632
hợp 4629
Như_vậy 4628
hộp 4623
tư 4619
khoa_học 4616
bình_tĩnh 4613
dấu 4609
không_khí 4609
K@@ 4608
quá_trình 4604
Cứ 4596
cha_mẹ 4586
nghĩ_thầm 4584
s 4582
Đại 4582
hô 4574
nh@@ 4572
Hán 4572
v@@ 4570
cân 4569
hút 4564
chứa 4561
kết 4553
bệnh_viện 4552
trại 4549
Hương 4543
gốc 4542
vừa_rồi 4541
điều_trị 4536
than 4528
thời_điểm 4526
Có_thể 4516
i@@ 4512
Tôn 4512
Là 4511
ngược 4508
Toàn 4500
lọt 4498
thiếp 4497
khen 4494
trực_tiếp 4493
lịch_sử 4492
xây 4491
hào 4490
Lãnh 4490
triển_khai 4483
Trung 4479
mơ 4476
run 4469
đau_đớn 4469
chủ_nhân 4469
cung_cấp 4462
Dương_@@ 4461
Loan 4459
nghèo 4457
giờ_đây 4453
cuộc_đời 4452
hương 4447
sợi 4447
hậu 4446
vải 4444
xứ 4444
Hoa 4443
phiên 4437
xăng 4437
hôn 4434
vây 4432
tiến_hành 4427
lũ 4426
Điền 4425
thông_minh 4424
Ch@@ 4415
treo 4414
yên_tâm 4412
Tiêu_điểm 4410
Chắc 4409
lưu 4404
thể_hiện 4396
Hạ_Mạt 4391
Lưu_@@ 4376
Cha 4370
trôi 4369
trầm_ngâm 4362
tìm_kiếm 4360
kín 4359
Tiên 4340
b 4337
_@@ 4336
Châu 4333
Thủ_tướng 4332
100 4320
khối 4317
thông 4317
Làm 4311
Thưa 4308
gạt 4306
theo_dõi 4300
tổng 4299
tuyên_bố 4299
tình_thế 4299
lời_nói 4298
bát 4296
tự_do 4293
thèm 4290
hiện_tại 4285
hiệu 4283
tổ 4281
tựa_hồ 4281
đào_tạo 4275
g@@ 4272
hạt 4272
e_rằng 4266
sẵn 4264
lực_lượng 4263
A@@ 4258
khắc 4258
thông_báo 4257
chiến 4256
ly 4252
sự_việc 4251
bởi_vì 4245
bụi 4239
dịp 4229
đơn_vị 4225
Nhà 4225
hét 4223
lệ 4213
kinh_nghiệm 4205
sữa 4200
Hoàng_@@ 4197
hận 4189
thái_độ 4189
2018 4186
khúc 4184
tượng 4183
gương_mặt 4180
quận 4179
bốc 4179
Thượng_Quan_Linh 4177
Vua 4176
mặt_trời 4171
Chiếc 4170
an 4168
sứ 4167
Người_ta 4164
6@@ 4162
liên_tục 4160
Ngoài_ra 4160
ý_nghĩ 4158
dao 4152
đầy_đủ 4143
phù_hợp 4142
vết 4140
quả_nhiên 4129
thôn 4126
toan 4124
mượn 4124
nhu_cầu 4120
Nhậm 4120
bớt 4117
Tiểu_đệ 4114
trị 4109
kết_thúc 4105
Nghĩ 4102
tinh 4099
mục_tiêu 4093
đoạt 4083
Khấu 4078
công_nghệ 4076
UBND 4068
Hồ_Xung_@@ 4068
Kiều 4066
trừ 4065
dần_dần 4063
trưa 4060
thiếu_niên 4058
cổ_phiếu 4057
đống 4057
th@@ 4056
đối_thủ 4055
trăng 4052
đồng_hồ 4050
Thiết_Mộc 4048
Lý_Trọc 4047
nạn 4045
hả 4042
tay_trái 4041
đau_khổ 4038
Lương 4036
sẵn_sàng 4035
tin_tức 4031
sự_thật 4028
vì_thế 4027
Cháu 4026
thuê 4023
thể 4021
hứa 4019
sạch 4018
tốt_nghiệp 4009
tây 4008
nhiệm_vụ 3997
Quỷ_Lệ 3991
13 3990
quê 3989
Dự 3989
Thiếu_Lâm 3986
p@@ 3984
Tiểu_@@ 3984
ha_hả 3983
Hội 3982
lầu 3982
X@@ 3981
Mai 3981
thân_thể 3980
vết_thương 3974
khô 3969
chăm_chú 3969
thừa 3968
hộ 3958
thực_phẩm 3956
bày 3955
hai_mươi 3955
hoàn_thành 3953
dĩ_nhiên 3953
mồ_hôi 3949
Vụ 3942
bãi 3941
Bốn 3941
nhất_thời 3937
phản_ứng 3936
tiệc 3934
tài_chính 3933
Đêm 3933
Ngọc 3932
Kỳ_Sĩ 3932
phương_pháp 3930
dựng 3928
đứt 3925
phụ_huynh 3924
nhân_dân 3921
cờ 3920
siêu 3916
từ_chối 3912
thanh_âm 3909
Jobs 3906
Th@@ 3905
thường_xuyên 3900
bảng 3897
may_mắn 3897
ngày_càng 3896
vay 3896
tầm 3896
quả_thật 3894
máy_bay 3893
tuyến 3892
mái 3889
Lý_Thế_Dân 3889
xuyên 3888
cần_thiết 3887
Hoa_@@ 3887
000 3887
mây 3886
cất_tiếng 3886
khuyên 3885
Thu 3884
kỳ_lạ 3882
chớp 3881
lẩm_bẩm 3881
kiến_thức 3874
bạn_bè 3873
quỳ 3871
trộm 3870
nội_lực 3869
nhập 3865
ngắm 3863
Mà 3848
họa 3847
thước 3846
phục_vụ 3843
nếu_như 3841
quốc 3835
mặt_đất 3832
ngăn 3831
tuyệt_đối 3830
mục_đích 3829
dọc 3822
giai_đoạn 3821
khinh 3821
cảnh_sát 3818
Iran 3816
ruột 3815
xác 3815
Sinh 3813
trống 3812
không_gian 3803
thức 3802
Âu_Dương_Hải 3802
ai_nấy 3800
Văn_@@ 3797
học_tập 3795
nhịn 3794
Thế_là 3793
chiến_thắng 3791
bệnh_nhân 3790
khói 3783
Ngoài 3782
giàu 3780
Nay 3780
đ@@ 3779
E@@ 3777
xem_xét 3775
Thằng 3775
ngon 3772
vì_vậy 3771
mật 3771
trò 3771
thành_viên 3767
5@@ 3765
chiến_đấu 3765
liên_tiếp 3763
Hạ 3762
hành_vi 3762
bánh 3760
văn 3753
thiết_kế 3752
17 3750
tốc_độ 3747
thả 3743
Bất_Vi 3742
Phật 3741
thất 3740
Nếu_như 3740
thuật 3740
Vào 3739
Triều_Tiên 3739
môi_trường 3733
gà 3729
sức_mạnh 3729
chợ 3725
nở 3724
Kim_@@ 3722
Tùng 3721
chăm_sóc 3719
lĩnh_vực 3717
rửa 3717
chính_sách 3714
môn_phái 3714
Nam_@@ 3699
thế_này 3697
chiến_tranh 3694
nguy_cơ 3692
Vương_@@ 3692
khổng_lồ 3691
biện_pháp 3690
khai 3690
đức 3686
Sáng 3682
ý_nghĩa 3679
nhắm 3678
8@@ 3677
Hằng 3673
chấn_động 3669
gác 3669
đối_tượng 3662
bao_lâu 3662
công_chúa 3660
Dung 3659
gãy 3658
quà 3656
bút 3644
xác_định 3643
bọc 3643
ngầm 3641
Doãn 3641
nội_dung 3639
đất_nước 3638
Lưu 3638
Trọng 3637
vì_sao 3636
Đảng 3631
thò 3629
Tử 3626
Tuyết 3625
rắn 3623
sư_đệ 3613
Độc 3612
đáy 3610
Cửu 3607
tưởng_tượng 3604
tắt 3604
P@@ 3604
chị_em 3598
hợp_tác 3596
Công 3594
thị_trấn 3587
ký 3584
muộn 3584
hưởng 3583
tr@@ 3583
đại_@@ 3583
múa 3580
một_vài 3576
mặc_dù 3576
14 3566
thức_ăn 3563
bóng_tối 3563
tia 3562
Bộ_trưởng 3561
nh 3561
đụng 3560
sàn 3558
ngày_nay 3558
giặc 3558
16 3555
mươi 3555
Chưa 3553
tớ 3547
ô 3545
trọng 3543
pha 3541
ung_thư 3539
đối_diện 3537
Bạn 3533
âm_thanh 3531
thất_bại 3529
18 3528
ngưng 3527
nghiêng 3526
khó_chịu 3523
Băng 3521
nhất_là 3517
ăn_uống 3516
tiểu_nhân 3513
Ban 3508
Hàn_Thu 3508
Hàng 3507
giấc 3502
nhà_sư 3494
ép 3493
nhà_trường 3492
Huyền 3490
I 3486
long 3485
lỗi 3485
hè 3484
công_phu 3473
Bát 3472
thuế 3470
Hoàng_Dung 3470
linh 3468
dặn 3468
Vì_vậy 3467
Cuối_cùng 3467
khách_sạn 3463
triển 3462
Hôm 3460
tha 3458
Hôm_nay 3456
cấm 3450
đòn 3450
canh 3445
chính_trị 3442
Đột_nhiên 3442
tầm_thường 3439
phối_hợp 3438
lặng_lẽ 3435
7@@ 3434
sử 3433
GDĐT 3432
đại_diện 3431
giọt 3425
Nhật_Bản 3424
giao_dịch 3423
chuyên_gia 3423
Tĩnh 3423
Dưới 3421
Tích_Nhân 3417
tùy 3416
hẹn 3414
mở_rộng 3413
Mi 3413
Bang 3412
khẩu 3408
Vị 3407
căng_thẳng 3406
chuông 3404
4@@ 3399
Hưng 3396
mạnh_mẽ 3390
Vũ_@@ 3387
binh_khí 3385
nhíu 3383
văn_hóa 3381
Lời 3379
cát 3378
cột 3378
+ 3377
dịu_dàng 3377
tài_sản 3373
chìm 3373
Minh_@@ 3370
ph@@ 3369
hiếm 3369
đi_lại 3367
9@@ 3364
lừa 3363
vươn 3361
Cho 3359
nghỉ_ngơi 3358
Cách 3356
Tam_@@ 3355
chở 3353
vững 3352
tâu 3352
O@@ 3351
dắt 3349
Qua 3345
hành 3342
Thì_ra 3341
công_lực 3341
tặc 3339
Tr@@ 3338
Cùng 3337
thuộc_hạ 3337
Ngọc_@@ 3333
nghiêm_trọng 3332
cưới 3331
tham_dự 3329
hạn_chế 3328
Bố 3319
hữu 3314
kỹ_thuật 3313
Bóng_đá 3312
Hồi 3310
nô 3310
Nhà_nước 3307
toán 3306
bất_kỳ 3304
Hoàng_thượng 3302
bố_mẹ 3299
cực 3299
tiết_lộ 3295
học_trò 3292
công_trình 3289
tồn_tại 3289
Chung 3288
loài 3287
luôn_luôn 3287
40 3286
hoàn_cảnh 3284
hãng 3282
Thủy 3279
k@@ 3277
3@@ 3268
bếp 3268
Văn_Bình 3267
ẩn 3267
nãy 3263
I@@ 3260
a@@ 3258
o@@ 3258
khăn 3255
nhắm_mắt 3253
Quỹ 3250
mệt_mỏi 3250
Mụ 3249
đạo_nhân 3249
tình_huống 3247
đ 3247
hôm_qua 3246
phát_giác 3246
Trác 3245
THPT_Quốc_gia 3243
chính_xác 3243
xếp 3243
bầu 3242
d 3241
Ô 3241
ấm 3239
Mạc 3239
giận_dữ 3236
thông_qua 3235
huyết 3234
đậu 3227
chậm_rãi 3226
chỉ_đạo 3222
Phạm_@@ 3221
đỗ 3220
ít_nhất 3219
ấn_tượng 3218
Vì_thế 3218
Thư 3218
nhà_nước 3215
Huế 3215
đưa_mắt 3215
đạn 3212
đề_phòng 3211
Vinh 3210
chịu_đựng 3208
thoải_mái 3207
Bách 3207
ổn_định 3205
xuất_sắc 3202
bao_gồm 3200
vi_phạm 3200
khoe 3198
y@@ 3196
Tả 3194
thù 3192
tức_là 3189
Cát 3189
Đối_với 3187
xử 3186
cởi 3185
tin_tưởng 3184
l 3181
trái_tim 3180
chủ_yếu 3179
máy_tính 3178
pháp_luật 3176
Apple 3175
không_những 3173
vỏ 3171
Môn 3171
cắn 3170
rớt 3170
tướng_quân 3168
g 3167
lôi 3165
đáp_ứng 3160
thơm 3158
tỳ 3157
cứng 3157
tỉ 3156
vân 3155
bám 3154
tử_vong 3148
hay_là 3148
khoa 3146
hình_thức 3142
cành 3142
Nhất 3141
mắng 3139
đột_ngột 3138
Chúa 3136
kiểm_soát 3135
hổ 3133
Ý 3132
Giữa 3131
du_học 3129
lật 3129
chi_tiết 3128
Tuấn 3126
cho_dù 3124
khoảnh_khắc 3123
đói 3123
chỉ_huy 3120
bố_trí 3117
áp_dụng 3116
tăng_cường 3116
chế_độ 3115
hệ 3112
mồm 3110
Thanh_Ngân 3109
quyển 3109
điều_chỉnh 3103
ch 3101
Thượng_Quan_Kỳ 3100
cố_ý 3097
thủ_hạ 3095
thất_vọng 3093
ra_lệnh 3092
đợt 3091
thánh 3091
tỷ_lệ 3089
to_lớn 3089
Tô 3089
4/3 3089
ngày_mai 3083
bí 3073
phạt 3072
Thời_gian 3068
tác_dụng 3066
hồn 3063
hùng 3063
pho 3061
dương 3060
nghi 3060
hất 3059
Hoàng_đế 3056
quân_sự 3056
cục 3050
triều 3050
Nhã 3049
dốc 3046
say 3045
Hồn 3044
A_@@ 3042
chế 3042
Liễu 3042
phạm 3038
dân_tộc 3034
lỗ 3030
bạn_đọc 3030
dạ 3030
hiện_giờ 3029
25 3027
xin_lỗi 3025
nghiêm 3024
mở_cửa 3023
ngược_lại 3023
Đôi 3022
gói 3021
thủ_đoạn 3019
ra_mắt 3012
hít 3012
mê 3012
âu 3009
nạn_nhân 3008
Tăng 3007
giây_lát 3007
bại 3004
Tông 3002
u@@ 3001
tấn 2997
gọi_là 2996
nát 2993
273 2992
chui 2991
hiển_nhiên 2985
chặn 2982
mục 2982
bất_động_sản 2981
Mặc_dù 2978
Giọng 2975
cụ_thể 2973
Bác 2972
Tâm 2967
Lĩnh 2967
ghé 2966
Ngài 2966
Putin 2961
hấp_dẫn 2961
nặng_nề 2960
thai 2959
mọc 2956
gan 2955
phức_tạp 2954
cảm_nhận 2954
vai_trò 2950
ni 2950
bông 2948
thương_mại 2946
Thượng_Quan 2945
hợp_đồng 2942
Cuộc 2942
thiên_@@ 2939
ngấm_ngầm 2939
luật 2938
cỗ 2932
sỹ 2930
phản 2930
qua_đời 2929
e@@ 2928
đùa 2927
Âm 2927
dứt 2925
năng_lực 2923
râu 2921
Ngô_@@ 2920
dính 2919
lầm 2918
tiếp_theo 2915
Yến_Phi 2915
Trang 2914
’ 2912
cú 2908
xuất_khẩu 2906
tệ 2906
lạng 2905
ghét 2902
tâm_sự 2902
nữ_nhân 2902
Ôi 2900
tình_dục 2898
suối 2898
lão_gia 2897
Đà_Nẵng 2896
bổ_sung 2894
Vâng 2892
Có_điều 2892
chi_phí 2891
tự_tin 2890
Tố 2890
tam 2886
Phải_chăng 2884
điên 2884
thét 2883
tính_toán 2882
Ngân_hàng 2882
ghê_gớm 2881
giải_pháp 2879
Mùa 2879
tai_nạn 2878
cưỡi 2877
Giám_đốc 2876
Hòa 2876
Tiền 2876
mộ 2873
Dạ 2873
vi 2871
phó 2871
chứng_kiến 2870
lan 2870
lâm 2868
dãy 2868
Thẩm 2865
đại_gia 2864
Sư_phụ 2863
dạng 2860
Chương 2860
Sài_Gòn 2859
iPad 2859
trán 2857
cương 2855
lông 2851
tác_phẩm 2849
Hắc 2848
thưởng 2847
châm 2847
Nguyễn_Thị_@@ 2846
Này 2843
o 2841
mũ 2841
nấu 2835
__ 2835
giây 2833
1/3 2826
thú_vị 2826
tảng 2823
hừ 2821
xúc_động 2820
trần 2816
Ðiền 2812
26 2811
lạc 2808
biến_sắc 2806
an_ủi 2805
Ðoàn 2804
Quang 2803
cửa_hàng 2803
mệt 2803
thu_hút 2802
Hiểu 2801
Câu 2797
phản_đối 2797
bổn 2797
Thừa_Chí 2792
Hoa_Sơn 2790
VN 2789
giày 2788
Hồng_@@ 2788
hiện_đại 2787
Hà_@@ 2785
Thường 2785
hang 2784
lạy 2784
2/3 2783
giật 2781
gầm 2780
ấn 2779
Hơn 2777
Ph@@ 2776
bầu_cử 2771
xe_máy 2770
Hồ_@@ 2770
v 2770
Hơn_nữa 2769
Trời 2767
chính_phủ 2763
p 2762
tổn_thương 2762
chia_tay 2762
lau 2761
Thanh_@@ 2759
trình 2754
10@@ 2754
Dũng 2753
cộng_đồng 2752
Thiên 2752
mong_muốn 2749
áp 2747
Thi 2742
quét 2741
việc_làm 2740
29/2 2740
Phụng 2739
kinh_hoàng 2736
khai_thác 2735
tỏ_vẻ 2735
vũ_khí 2734
chí 2733
hắc 2730
tứ 2729
trồng 2729
ổn 2727
giả_vờ 2725
sửa 2723
móc 2721
Trịnh_Vi 2720
vừa_mới 2718
thần_sắc 2718
dấu_hiệu 2716
gạo 2715
cước 2713
tìm_hiểu 2712
Rất 2712
chả 2711
phi_thường 2709
đà 2708
Chú 2705
cô_giáo 2704
yếu_tố 2703
18@@ 2702
ngại 2702
mừng_rỡ 2702
trao_đổi 2700
nộp 2699
toàn_cầu 2698
Viện 2697
phẫu_thuật 2696
dày 2696
Hư 2695
loạn 2692
vô_tình 2692
Ðào 2689
nghệ_thuật 2688
mai 2687
quân_đội 2686
leo 2686
Nên 2684
nêu 2683
Lỗ 2681
cao_cường 2680
bầu_trời 2679
sáng_tạo 2674
thể_thao 2674
Cao 2674
tâm_lý 2668
Hồ 2665
duy_trì 2664
vũ_trụ 2660
đám_cưới 2657
Quách_Tĩnh 2655
số_lượng 2653
sa 2653
agrave 2649
kh@@ 2646
lên_đường 2646
Hiếu 2645
y_@@ 2642
hồ_sơ 2641
đầu_óc 2641
quen_thuộc 2640
24 2637
giám_đốc 2637
bỏ_qua 2637
tỏa 2636
cạn 2636
chắp_tay 2635
Muốn 2633
Công_an 2631
T 2629
lén 2628
áp_lực 2626
Dao 2624
vừa_qua 2622
432 2622
Giá 2621
Thục 2617
đề_xuất 2615
thừa_nhận 2614
top 2611
mạch 2611
người_yêu 2611
phân_tích 2610
hợp_lý 2610
khám 2607
ắt 2605
hầu 2604
sắp_xếp 2601
công_an 2600
tiếng_nói 2600
chấm 2598
Phía 2598
F@@ 2596
tiết 2595
lái 2592
kết_luận 2591
trói 2589
cà_phê 2588
Ma_@@ 2588
19 2587
Phòng 2587
non 2587
thảm 2586
Cao_Ngạn 2586
thản_nhiên 2585
tiễn 2584
hành_lang 2584
chớp_mắt 2581
cử_động 2579
tích_cực 2577
ba_mươi 2577
miếu 2577
Siêu 2576
Bích 2576
Chẳng_lẽ 2576
ơn 2575
Tháng 2571
thế_kỷ 2570
viêm 2570
A_Tử 2569
nữ_sinh 2567
tác_giả 2563
Tân 2557
phường 2557
ống 2556
tắm 2556
ngửa 2554
gánh 2553
khán_giả 2552
diện 2549
thiết 2549
Tử_@@ 2549
ý_định 2547
dị 2547
U@@ 2546
thiết_bị 2545
trẻ_con 2544
cảm_ơn 2543
Giờ 2541
đạp 2537
sư_thúc 2537
Trương 2536
tu 2535
đuôi 2534
hầm 2533
giám_sát 2530
Gần 2530
vô_số 2528
ông_già 2526
cắm 2526
Quần 2526
vãn 2526
tràn 2524
giáo_sư 2523
biểu_diễn 2523
Cao_@@ 2521
cảm 2516
ung_dung 2513
nén 2512
nhà_đầu_tư 2510
thùng 2509
tăng_trưởng 2508
kết_hợp 2507
bảo_đảm 2506
văn_phòng 2503
TPHCM 2501
Bất_Quần 2501
té 2496
Trung_@@ 2494
Bạch_@@ 2493
như_thể 2492
bạch 2490
thì_ra 2489
phương_tiện 2483
căn_hộ 2483
há 2483
thành_lập 2481
dụng 2481
Xuân 2481
Công_chúa 2481
ngắt_lời 2480
Huyết 2478
tà 2477
ho 2475
60 2474
Đoạn 2473
thượng 2472
Hạnh 2469
Bên_cạnh 2468
lợi_dụng 2466
Toán 2465
gắn 2462
Nhân_@@ 2459
ái 2457
sảnh 2456
Phùng_Phá 2455
hầu_như 2454
nhiễm 2453
Trường_An 2453
Phá 2450
chính_quyền 2447
Ngụy 2446
đô_thị 2445
rót 2441
B 2440
ước 2439
tràng 2439
hướng_dẫn 2432
tuyệt_vời 2432
thâm 2431
Quan 2430
toàn_lực 2429
kiến 2428
.... 2428
Đế 2428
gi@@ 2426
Quốc_hội 2426
rít 2423
chăn 2423
thuận 2422
lành 2422
đồi 2420
liên_lạc 2419
Thủ 2419
di_chuyển 2416
Long_@@ 2415
Lăng_Độ 2415
f@@ 2414
ha 2414
khuya 2414
Tam 2413
chuẩn 2409
hoang_mang 2409
Ng@@ 2408
y_phục 2406
kèm 2404
tính_mạng 2403
trung 2402
mệnh 2400
dược 2399
Ð@@ 2399
sở_hữu 2398
Khấu_Trọng_@@ 2398
Tiểu_Hôi 2397
bia 2395
Tư_Mã 2392
khỉ 2391
14@@ 2390
tiếp_xúc 2390
yêu_thương 2390
Cương 2390
sung_sướng 2390
hàng_đầu 2389
mé 2388
nỗ_lực 2387
kiếp 2386
khỏe 2385
3/3 2385
e_@@ 2384
tạm_thời 2383
soái 2383
Kỷ_Yên_Nhiên 2383
thân_phận 2382
Giả 2381
Lộc 2378
Nh@@ 2377
sương 2377
lần_lượt 2376
200 2376
roi 2374
À 2371
hòn 2371
th 2369
lạt 2368
dồn 2367
ban_đầu 2364
công_@@ 2362
khủng_khiếp 2362
trúc 2362
Trung_Nguyên 2362
bằng_hữu 2362
lều 2360
phe 2359
lắc 2358
thuyết_phục 2356
bưng 2356
Công_@@ 2355
căn_cứ 2354
Hoang_Tập 2354
cử 2353
tâm_thần 2353
mãnh_liệt 2353
trang_chủ 2353
Thánh 2349
tất_nhiên 2347
Quảng_Bình 2345
mộng 2344
Lạc_Dương 2344
gia_tăng 2343
co 2340
ngẩng_đầu 2339
báo_chí 2337
xem_ra 2336
trợn 2335
Kẻ 2335
vụt 2330
vụ_việc 2329
lang 2329
Dư 2328
kích 2328
tương_tự 2327
nháy_mắt 2327
bến 2326
Cục 2325
điều_khiển 2325
Gi@@ 2325
Tề 2325
hạt_nhân 2324
sai_lầm 2324
tiệm 2324
ti@@ 2323
Trung_tâm 2321
TP.HCM 2321
quyết_tâm 2319
xé 2319
khống_chế 2319
nghĩa_là 2318
con_số 2316
Hàn_Quốc 2316
thống_nhất 2315
chiến_lược 2312
Hải_Phòng 2312
đô 2312
vội_vã 2311
hòa_thượng 2311
phụ_trách 2310
chủ_động 2309
lạ_lùng 2308
Dĩ_nhiên 2307
chứng_minh 2306
biến_đổi 2306
anh_chàng 2306
tụi 2304
Hiện_giờ 2301
lợn 2300
li@@ 2299
Chiêu 2298
nhận_xét 2296
năng_lượng 2295
t_@@ 2295
vĩnh_viễn 2295
ứng_dụng 2294
Mộ_Dung 2294
điện_tử 2293
giam 2292
80 2290
danh_sách 2288
lợi_ích 2286
Một_số 2286
bơi 2286
tốn 2286
thí_chủ 2286
cơ_bản 2285
Bằng 2285
Vạn 2284
tác_động 2283
Đầu 2282
dì 2282
nổi_giận 2281
thay_thế 2280
nguy 2280
đời_sống 2279
tiếng_động 2279
nhầm 2278
nhường 2277
Ðịch 2274
thanh_toán 2273
Ân 2273
cộng 2273
Ồ 2272
điều_hành 2270
‘ 2270
xác_chết 2268
Tấn 2267
Nhược 2263
muối 2263
Doanh_Doanh 2263
Chu_@@ 2260
21 2258
hối_hận 2258
chau_mày 2257
gục 2255
châu_Âu 2252
_S@@ 2252
dinh_dưỡng 2252
y_tế 2250
mặt_mũi 2250
chầm_chậm 2250
Tống_Cương 2250
người_thân 2248
bịt 2248
Khâu 2246
Nơi 2245
mái_tóc 2245
bất_@@ 2244
Lăng 2243
truyền_thống 2240
Giáo_chủ 2240
cốt 2239
chỉ_tiêu 2238
tâm_hồn 2235
phân_biệt 2235
tù 2234
thạch 2234
nội_công 2233
mức_độ 2232
rốt_cuộc 2232
16@@ 2231
hoàn 2230
tài_liệu 2230
ứng_phó 2229
ám 2227
bận 2226
cản 2225
thẻ 2225
hòa 2221
sửng_sốt 2220
não 2218
tài_năng 2217
xen 2217
Nghệ_An 2216
cảm_xúc 2216
ngơ_ngác 2216
quen_biết 2214
thi_thể 2214
thực_ra 2211
nuốt 2211
quan_điểm 2209
Khánh 2207
hoang 2207
hậu_quả 2206
khám_phá 2205
Tào 2205
Nhị 2205
a_@@ 2203
sổ 2202
15@@ 2202
liên 2201
Châu_@@ 2201
minh 2201
lắng_nghe 2200
gậy 2200
Bản 2197
Bị 2195
aacute 2195
Do 2194
Lam 2192
hoàn_hảo 2191
vâng 2191
Đông_@@ 2190
Bệnh_viện 2187
mạo_hiểm 2187
Đang 2187
an@@ 2186
địa 2184
dứt_lời 2183
thu_hồi 2178
Quyên 2177
khe 2176
chẳng_lẽ 2176
w@@ 2174
tách 2173
chuyển_động 2172
Tuần 2171
Phi_Huyên 2171
đối_mặt 2170
bấy_giờ 2169
tay_phải 2169
hở 2167
mỹ_nhân 2167
Nước 2164
rồng 2162
Té_ra 2161
thảo 2160
Long_Vương 2159
hơn_nữa 2158
kho 2158
hầu_hết 2156
rau 2154
địa_bàn 2152
trỏ 2152
quyền_lực 2151
Tướng 2150
kẻ_thù 2149
Trung_ương 2148
ám_khí 2146
Thảo 2144
500 2143
Phong_@@ 2143
trứng 2143
Đặt 2143
bổ 2143
phần_lớn 2142
rẽ 2142
Cung 2141
Chưởng 2141
an_ninh 2140
bỗng_nhiên 2140
mực 2138
Hội_đồng 2138
thiệt 2138
thế_là 2136
kỷ_niệm 2134
Mười 2134
sở 2133
Tử_Lăng_@@ 2133
Đồng_thời 2130
Gia_@@ 2129
Thầy 2128
cười_nhạt 2128
nha 2127
300 2126
lấp_lánh 2126
kịp_thời 2125
toà 2123
tư_cách 2123
vực 2122
Kinh 2122
reo 2121
buồn_bã 2121
ngẩn 2120
kể_cả 2119
Phúc 2118
rút_lui 2118
cao_thâm 2118
lưới 2116
Trịnh_@@ 2116
thề 2116
Cổn 2116
Thái_hậu 2115
trùng 2111
Văn 2110
hài_lòng 2109
im 2108
Thủy_@@ 2107
rẻ 2106
thỉnh_thoảng 2106
bom 2106
dạo 2105
ngăn_cản 2104
thu_nhập 2103
Mẫn 2103
thương_hiệu 2102
chứng_tỏ 2101
tiếp_cận 2098
cừu 2097
nổi_bật 2097
n_@@ 2096
nhiệt 2095
căn_bản 2095
Mông_Cổ 2095
2010 2094
vậy_mà 2094
Thích 2093
nhà_máy 2092
12@@ 2091
chứng 2091
phụ_thân 2091
Thị_@@ 2090
dáng 2090
N 2089
hình_thành 2089
Giờ_đây 2089
diệt 2089
văn_bản 2086
triều_đình 2086
Lâu 2085
trạm 2083
thế_lực 2083
bối_rối 2083
điếm 2082
Thanh_Thanh 2082
cung_kính 2082
con_bé 2081
Điểm 2080
vất_vả 2080
ngôi_sao 2080
2@@ 2079
Tỉnh 2078
đáng_kể 2078
La_@@ 2078
vệ 2077
đầm 2076
do_dự 2076
đựng 2075
biên_giới 2074
tay_chân 2074
làm_ăn 2073
điệt 2073
Đặc_biệt 2070
en 2069
giải_thưởng 2069
Đồng_@@ 2068
chung_quanh 2067
cãi 2066
đồn 2065
sự_nghiệp 2064
tiêu_dùng 2064
sĩ 2064
Mộ_Dung_Phục 2064
lúng_túng 2063
Nguyễn_Văn_@@ 2062
trung_bình 2061
trước_kia 2060
Thiếu_nữ 2060
Bao 2059
địa_vị 2059
ra_hiệu 2058
Vũ_Văn_Hàn 2058
né_tránh 2056
xách 2056
lo@@ 2055
ý_muốn 2055
Hiện 2054
bộ_phận 2054
thiên 2053
Đất 2052
chức_năng 2052
_l@@ 2052
thủ_tục 2051
kỳ_dị 2051
1,@@ 2050
tiểu_@@ 2050
cảm_kích 2050
tướng_công 2050
22 2049
rối_loạn 2049
cải_thiện 2046
châu 2045
liên_hệ 2044
bản_lĩnh 2043
hung 2043
nhận_định 2039
xóm 2035
nhanh_nhẹn 2035
Hoang 2035
mỏng 2034
ứng 2032
bào 2032
19@@ 2031
Kế 2031
Trí 2031
nguyện 2030
lỡ 2030
ăn_mặc 2030
xưa_nay 2028
thế_hệ 2027
Do_đó 2027
thích_thú 2026
Tính 2024
thanh_tra 2023
ngay_lập_tức 2023
Tổ 2023
biểu 2022
sườn 2022
Cốc 2022
nối 2021
tốt_đẹp 2021
Công_tử 2020
Katie 2020
Kha 2018
óc 2018
tuân 2017
Lý_Uyên 2016
tín_dụng 2015
Kh@@ 2014
can_thiệp 2011
báo_thù 2011
vận_động 2008
tay_áo 2007
tạ 2006
kg 2005
bí_ẩn 2005
hàng_loạt 2004
ty 2004
Thành_@@ 2004
Thất 2004
Nghĩa 2003
Mã 1998
thận 1996
đình 1995
cáo 1994
hảo 1994
thần_bí 1994
Tứ 1993
tiết_kiệm 1991
khác_biệt 1991
cách_mạng 1990
hiện_tượng 1990
Tôn_@@ 1990
dáng_vẻ 1990
Ngô_Tam_Quế 1990
Sử 1989
rực_rỡ 1989
lụa 1989
Hậu 1988
xám 1988
nhặt 1988
an_@@ 1987
gặp_mặt 1987
đại_biểu 1986
Y@@ 1986
nhạt 1985
Đoạt 1985
chất_độc 1983
Biết 1983
đảng 1982
trèo 1981
Bữa 1981
trình_độ 1980
mẹ_con 1980
uy 1980
hoài_nghi 1980
mù 1979
thị_vệ 1978
Cần 1977
Lý_Mật 1977
xô 1974
Lạc_Hi 1974
nầy 1973
Hừ 1973
70 1972
cớ 1972
Hiện_nay 1971
17@@ 1970
trào 1970
mau_lẹ 1970
thói_quen 1969
đĩa 1969
di_động 1967
đồng_chí 1967
kêu_gọi 1966
đè 1966
bất 1965
Huyền_@@ 1965
ân 1965
hiểu_biết 1963
tương_đương 1962
Thắng 1961
28 1959
nghiến 1957
i_@@ 1955
rung 1955
thế_gian 1955
kỳ_quái 1955
loạt 1954
dữ_dội 1954
truyện 1954
lạnh_lẽo 1954
chủ_tịch 1953
cổ_tay 1953
qu@@ 1951
Bởi 1950
chẳng_thể 1950
Hiền 1948
Võ_@@ 1947
tán 1946
Lao 1945
không_ngớt 1945
clip 1944
đa 1943
đùi 1943
ngũ 1942
tự_nhủ 1942
Điện_thoại 1939
Bá 1939
bầy 1938
phất 1937
Tập_đoàn 1936
Ánh 1936
en@@ 1935
công_khai 1933
Cơ 1933
biểu_hiện 1932
gặp_gỡ 1931
xứng_đáng 1929
tổ_hợp 1929
béo 1929
trấn 1929
Bất_Dịch 1929
tế 1928
đại_sảnh 1928
nhãn 1927
Sách 1927
Thái_@@ 1926
Mày 1926
váy 1925
quan_tài 1924
thích_hợp 1922
Kể 1921
VTC 1921
thận_trọng 1920
nhấn_mạnh 1920
CĐ 1920
âm_mưu 1920
đắc_ý 1920
dư_luận 1919
cao_cấp 1919
ưng 1919
phổ_biến 1918
dữ 1918
dụ 1918
lo_ngại 1917
giở 1917
đòi_hỏi 1916
Bảo_@@ 1916
Hành 1916
Lục_@@ 1916
Ðinh 1915
trí 1914
chửi 1914
Mã_@@ 1913
khoang 1913
mổ 1912
ngõ 1910
xu_hướng 1909
hội_nghị 1909
quỹ 1908
ra_vẻ 1908
al@@ 1907
công_nhân 1907
Nhờ 1906
ý_tưởng 1906
quá_khứ 1904
chôn 1903
23 1902
điệu 1901
ván 1900
thi_lễ 1900
bão 1899
Tích 1899
tư_tưởng 1898
Thậm_chí 1897
tuy_nhiên 1896
hàn 1896
Tín 1896
Hướng 1894
er@@ 1894
on 1892
dự_kiến 1891
toát 1890
Hồ_Xung 1890
phun 1889
ấm_áp 1888
Làm_sao 1888
tác 1888
Khôi 1888
sâu_sắc 1887
thọ 1887
một_nửa 1886
xác_nhận 1886
thời_trang 1886
vắng 1885
khoảng_cách 1885
thúc_đẩy 1884
trò_chuyện 1884
mát 1883
kiềm_chế 1883
đền 1883
ar@@ 1882
nhấc 1882
thân_thiết 1880
công_chức 1878
.@@ 1876
phát_huy 1875
Tao 1871
quả_thực 1869
Hoài 1867
bóng_đá 1867
Đạt 1867
HIV 1867
Video 1867
Thực_ra 1866
lo_sợ 1866
nghiêm_túc 1865
đóng_góp 1864
Sáu 1864
28/2 1864
0,@@ 1863
km 1863
nhiên 1863
truy 1863
Anna 1863
giương 1862
Ấn_Độ 1859
trước_tiên 1859
La 1858
Phương_@@ 1857
ưa 1857
chấm_dứt 1856
VFF 1856
tiêu_diệt 1856
HLV 1855
Tư 1854
đua 1853
băn_khoăn 1853
09@@ 1852
Mạnh 1851
hứng_thú 1851
Paris 1850
20@@ 1849
W@@ 1849
k 1849
Lệnh_Hồ_Xung_@@ 1849
cầu_thang 1846
liều 1845
màn_hình 1845
học_bổng 1845
săn 1845
giếng 1845
mềm 1844
rậm 1844
mèo 1843
Tống_@@ 1843
Góp_ý 1840
nghĩ_ngợi 1839
−_@@ 1839
đánh_bại 1839
Ma 1839
Tây_@@ 1837
giáp 1837
quãng 1836
Cho_nên 1836
Thái_Lan 1834
gương 1834
z@@ 1833
Bắc_@@ 1833
gõ 1833
đồng_thanh 1833
nhịp 1832
xấu_hổ 1832
Đinh_@@ 1831
chứng_khoán 1830
nhát 1830
Xuân_@@ 1830
giục 1830
27 1829
27/2 1829
Tối 1829
công_nghiệp 1828
yên_lặng 1828
sờ 1826
duyên 1826
quản 1824
lái_xe 1824
báo_điện_tử 1823
Chiều 1821
sân_khấu 1821
nhà_khoa_học 1820
tham 1820
cạnh_tranh 1818
hoài 1818
ong 1818
Dường_như 1817
Gặp 1817
rộng_rãi 1816
Nữ 1816
Lý_Xuân_Hoa 1816
Liên_hệ 1815
bao_vây 1815
thái_giám 1815
mẫu_thân 1815
Lý_Viên 1814
vô_địch 1813
trọng_thương 1812
phảng_phất 1811
dân_chúng 1811
phóng_viên 1809
mờ 1809
Khang 1809
hoảng_sợ 1809
ngự 1808
Quốc 1807
tò_mò 1806
liệt 1805
sốc 1805
diễn_viên 1805
chống_đỡ 1805
Tưởng 1804
cảm_động 1804
x 1803
ca_sĩ 1802
phúc 1801
tâm_trạng 1801
Bất_@@ 1800
SV 1800
Giấy_phép 1799
thành_tích 1798
Hiện_tại 1796
phổ 1796
vuốt 1796
Thiện 1795
tông 1795
đồng_@@ 1794
trường_học 1794
son 1793
khanh_khách 1792
Bắc_Kinh 1789
phát_sinh 1789
Kiên 1789
khéo 1789
dở 1788
qua_lại 1788
Ðại_@@ 1788
ngăn_chặn 1787
Thượng_@@ 1787
bất_luận 1787
00 1786
Ba_@@ 1786
nông_dân 1785
văng 1785
cuộc_chiến 1785
vé 1783
Đỗ_@@ 1783
Thúy 1783
bề 1782
in@@ 1781
Yên 1781
thở_phào 1781
nóc 1780
cầu_thủ 1780
Hoa_Thiên_Hồng 1779
Phần 1778
13@@ 1777
Quả_nhiên 1777
Thế_thì 1777
đạo_đức 1776
không_trung 1776
D 1775
Thêm 1775
Ninh 1775
nói_dối 1774
Hình_như 1773
0 1772
gối 1772
Lạc 1772
đầu_hàng 1771
cung_@@ 1768
thợ 1768
Mao 1767
Huynh 1766
Thản_Chi 1766
Vừa_rồi 1765
28@@ 1764
Mắt 1763
Đám 1763
sát_hại 1763
Lâm_@@ 1762
chiêu_thức 1762
tiêu_chuẩn 1761
sinh_hoạt 1760
Qu@@ 1759
luận 1759
Mời 1759
địa_điểm 1758
xà 1758
thời_kỳ 1758
quạt 1758
Nguyệt 1758
đương 1758
GP 1757
ri@@ 1756
chai 1756
Quỳnh 1755
M 1754
hễ 1754
tư_vấn 1753
thi_hành 1753
trướng 1753
suýt 1753
Libya 1751
chẳng_qua 1751
HS 1750
Phi_@@ 1750
khó_lòng 1748
chân_tay 1748
Ngô 1748
ngốc 1748
vỗ_tay 1747
đam_mê 1746
J@@ 1745
động_tác 1745
diện_tích 1744
bề_ngoài 1744
Thông 1743
tủ 1743
một_phen 1743
1050 1743
thủ_pháp 1742
tổng_số 1741
lãi_suất 1741
gầy 1739
tiến_sĩ 1739
chân_nhân 1739
tát 1738
tươi_cười 1738
nhà_thờ 1737
Chúc 1735
đích_thân 1735
thay_vì 1734
BTTTT 1734
ven 1733
hoảng_hốt 1733
ga 1731
Triệu_@@ 1731
đả 1730
Đạo 1729
biết_bao_nhiêu 1729
nhập_khẩu 1728
nghệ_sĩ 1728
Unicode 1728
er 1727
Bài 1727
Font 1727
Vương_Thế_Sung 1727
châu_Á 1726
quảng_cáo 1726
run_rẩy 1726
phiền 1726
[_Back 1726
|_Giáo_dục 1726
|_Nhịp 1726
Internet_số 1726
15-07-2008 1726
giới_hạn 1725
trạng_thái 1725
hẹp 1725
bái 1725
khủng 1724
|_Xã_hội 1724
|_Thế_giới 1724
|_Nhân_ái 1724
|_Văn_hóa_| 1724
mô_hình 1722
miễn_phí 1722
Tiếp 1722
Thì 1722
yên_tĩnh 1721
một_trăm 1721
tết 1720
ngửi 1720
Thân 1719
Cái_Bang 1719
thuận_lợi 1718
le@@ 1716
Nhu 1714
coi_thường 1714
Chủ 1714
La_Sát 1714
Nào 1713
Phan_@@ 1713
vó 1713
S 1712
thi_đấu 1712
biểu_tình 1712
góp_phần 1711
lô 1711
tới_nơi 1711
đồ_đệ 1710
Mau 1709
công_nhận 1708
cưỡng_chế 1708
tộc 1708
vận_chuyển 1707
Bởi_vì 1707
vitamin 1707
Diệp 1706
tím 1706
quấn 1705
Xe 1704
giải_trí 1703
lợi_nhuận 1702
hư 1702
phẫn_nộ 1702
cao_minh 1702
Bức 1701
huy_động 1700
Quan_@@ 1700
Tới 1699
Mới 1699
xá 1698
miễn_cưỡng 1698
diễn_biến 1697
thờ 1697
Đức_@@ 1696
đường_phố 1696
dọn 1696
gạch 1696
to@@ 1695
gượng 1695
H 1694
Quân_Bình 1694
trầm_trọng 1693
biết_bao 1693
Syria 1693
kiệu 1693
Riêng 1692
bắt_buộc 1692
bất_động 1691
so_sánh 1689
1_. 1688
ướt 1688
dại 1688
m2 1687
ôn 1685
lẹ 1685
vứt 1682
cựu 1680
nhà_@@ 1679
Cổ 1679
Di_@@ 1677
Khúc 1677
Đài 1677
đỏ_mặt 1676
minh_bạch 1675
cõi 1675
trút 1674
sốt 1671
s_@@ 1670
Liên_@@ 1669
lam 1669
04 1668
dung 1668
quy_hoạch 1667
chán 1667
vụ_án 1666
bày_tỏ 1666
nhận_thức 1665
o_@@ 1665
sơ_hở 1665
Nghi 1663
hủy 1662
_t@@ 1662
phương_án 1662
thép 1662
võ_sĩ 1661
chương 1660
công_bằng 1660
Tàu 1659
lúa 1659
ý_thức 1659
Tinh 1659
r 1658
Hư_Trúc 1658
nút 1657
màu_sắc 1656
vú 1656
ập 1656
Thọ 1655
hành_trình 1654
thông_thường 1654
em_gái 1654
rượt 1654
người_đẹp 1654
lưu_ý 1653
vệ_sinh 1652
dời 1652
Danh_sách 1651
ngày_xưa 1651
Tiểu_Hoàn 1651
trình_diễn 1650
lăng 1650
buôn_bán 1649
45 1649
Trời_ơi 1648
Xương 1647
thần_công 1647
Dân 1645
Vẫn 1645
quy_mô 1644
hồi_phục 1644
trụ 1644
THCS 1644
nạp 1642
trình_bày 1642
quyến_rũ 1642
thắc_mắc 1641
Đàm 1641
lẽ_nào 1641
phong_cách 1640
Bác_sĩ 1640
nói_nhỏ 1640
cau_mày 1640
tự_hào 1639
Vadim 1638
tiến_bộ 1637
tụ 1637
đáp_án 1637
Ðây 1637
hạ_thủ 1637
Tỷ 1636
khanh 1636
ra_đời 1635
_h@@ 1635
kinh_@@ 1634
Cầm 1633
Thần_@@ 1633
rú 1633
tử_tế 1632
tháo 1632
Ăn 1630
phen 1630
mở_mắt 1630
Đơn 1630
Harry 1630
Đồng 1629
phản_ánh 1629
25@@ 1628
hình_dung 1628
nhốt 1628
Tay 1627
Đấy 1627
khoác 1626
thì_thầm 1625
dán 1624
hé 1624
dưỡng 1623
Kinh_@@ 1623
va 1623
phần_mềm 1622
mét 1622
tính_cách 1622
công_dân 1622
ca_ca 1622
Oscar 1621
xuất_thủ 1621
Du_học 1620
tái 1618
đề_cập 1616
cán 1615
TH@@ 1615
A_Châu 1615
24@@ 1613
sinh_tử 1613
khôi_phục 1612
hạ_sát 1612
Địch_Vân 1612
bước_đi 1610
u_@@ 1610
U 1609
Tiến 1608
chặt_chẽ 1607
quân_@@ 1607
đội_ngũ 1606
mỹ 1605
Quý 1605
hy_sinh 1604
cao_lớn 1604
Mặt 1604
Ả 1604
Lượng 1602
khẩn_trương 1600
thối 1600
tre 1600
trả_thù 1600
Phu_nhân 1600
m_@@ 1599
vạch 1599
Mục 1599
Thúc 1598
Vàng 1597
Võ_công 1597
Dương_Thu 1596
khí_thế 1595
rung_động 1594
thiền_sư 1594
Tiếp_theo 1593
Quản 1593
chằm_chằm 1593
kích_thích 1591
ốm 1591
Thế_mà 1591
tối_đa 1589
khỏe_mạnh 1589
khác_thường 1589
Kiến 1589
bất_quá 1589
có_khi 1588
chúc 1587
hảo_hán 1587
ổ 1586
Tất_nhiên 1585
cảnh_báo 1585
Nguyên_@@ 1585
Quốc_@@ 1585
nhỏ_bé 1585
tuôn 1585
_M@@ 1583
phát_biểu 1582
mặt_nạ 1582
-_@@ 1582
đả_thương 1582
mở_miệng 1580
cơ_hồ 1580
đối_xử 1579
tha_thứ 1579
> 1578
kịch 1578
hoàng_đế 1577
khuất 1577
điểm_huyệt 1576
ngôn_ngữ 1575
Chợt 1575
đối 1574
đếm 1574
am 1573
Tân_@@ 1573
nhà_hàng 1573
phát_hành 1572
khơi 1572
năm_ngoái 1572
ngước 1572
Kết_quả 1570
chủ_trương 1570
Nhớ 1570
Tố_Tố 1570
âm_nhạc 1569
Nhân_tài 1569
01 1568
mưu 1568
Co@@ 1567
đấm 1567
Buổi 1565
tự_động 1565
lùn 1565
năm_học 1564
lặng 1564
nấp 1564
lẽ 1563
khép 1562
An_@@ 1561
dâu 1561
quái_dị 1561
hằng 1560
con_cái 1560
_th@@ 1560
Đạo_Huyền 1560
SN 1559
kiện 1559
tửu 1559
trẫm 1559
rộng_lớn 1558
người_bệnh 1557
35 1557
rách 1556
mặt_mày 1556
đế 1556
hỏng 1553
trâu 1553
thuở 1553
bồi 1553
chép 1553
rắc_rối 1552
đấu_tranh 1551
ngập_ngừng 1551
mộc 1550
Tham_gia 1550
truyền_thụ 1550
Muội 1550
gian_lận 1549
News 1549
Quang_@@ 1549
căng 1548
Hứa 1548
bổng 1547
trang_bị 1546
hiền 1546
Sẽ 1545
tranh_cãi 1545
Tiên_Lãng 1545
tủm_tỉm 1544
Ngôn 1544
tôn_giáo 1541
7879 1541
truyền_hình 1540
tiểu_học 1540
có_lý 1540
Luật_@@ 1539
nhắc_nhở 1539
do_đó 1539
đệ_nhất 1539
lường 1538
Cường 1538
nói_năng 1537
Lý_Băng 1537
Al@@ 1536
Hồ_Chí_Minh 1536
Chelsea 1536
Ðúng 1536
thang 1535
P 1534
nhúc_nhích 1534
ngày_đêm 1533
cam_kết 1532
buồng 1532
ấp 1531
thiện 1531
phiến 1531
hông 1531
26@@ 1530
can 1530
đan 1529
Liệu 1529
Đại_ca 1529
chân_thành 1528
vẫy 1528
cử_chỉ 1527
thế_mà 1527
Ho@@ 1526
Dự_án 1526
1@@ 1526
23@@ 1526
tr 1526
ngân_sách 1525
soi 1525
Ðồng 1525
Thanh_Hóa 1524
thắp 1524
liệng 1524
Đinh 1523
tư_thế 1521
nghiệp 1521
ồn_ào 1521
Vì_sao 1520
Gia_đình 1520
nắp 1520
thiên_nhiên 1519
người_lớn 1518
vô_hình 1518
lò 1517
đắt 1517
củi 1517
trị_giá 1516
gào 1516
xóa 1515
lâu_dài 1515
Doanh 1515
Thiệu 1515
rùng_mình 1515
lai_lịch 1515
ngẫm_nghĩ 1515
thành_@@ 1514
ngọt 1514
trang_phục 1514
Trận 1514
nhà_vua 1513
Vấn_đề 1512
ruộng 1512
Chi_Hiên 1512
Chương_trình 1509
Ra 1509
Khuyến_học 1509
Kim_Hoa 1507
Tôn_Quách 1507
thủy 1506
Tốn 1506
nảy 1505
bi 1504
kiến_trúc 1504
kìa 1503
tôn_trọng 1502
Không_thể 1502
nấy 1502
bà_con 1501
nỡ 1501
Lễ 1499
bụng_bảo_dạ 1499
Mai_@@ 1498
khung 1498
hồ_đồ 1498
Lĩnh_Vu 1498
nghĩ_lại 1497
Chỗ 1497
uy_hiếp 1497
ngoại_giao 1496
một_khi 1496
tính_tình 1496
rủi_ro 1495
29@@ 1495
địa_chỉ 1495
nhổ 1495
chuỗi 1493
ho@@ 1493
suy 1493
tôm 1493
Vô 1493
vi@@ 1493
cỡ 1493
vu 1492
mặt_nước 1492
Phục 1492
Nghi_Lâm 1492
Nguồn 1491
vở 1491
Phát_hiện 1491
thong_thả 1490
đôi_khi 1489
ồ 1489
chánh 1489
mỹ_nữ 1489
kỹ_năng 1488
mã_đề 1488
sanh 1488
chốc_lát 1488
tí 1488
Phải_rồi 1488
gia_@@ 1487
bể 1487
tương_đối 1486
Italia 1486
người_nhà 1485
niệm 1485
hàng_hóa 1484
vút 1484
chấn 1483
trượt 1482
Tường 1482
thảo_luận 1481
kênh 1481
thanh_@@ 1481
GMT 1481
Y_Lam 1481
tháp 1480
Khách 1480
ngả 1480
mười_lăm 1480
Lấy 1479
bế 1479
chuyên_môn 1478
bất_thường 1477
Phát 1477
mãi_mãi 1477
ban_ngày 1476
nhân_@@ 1475
mỡ 1475
ăn_@@ 1475
hỗn_loạn 1474
cảnh_giác 1473
nhọn 1472
bình_thản 1472
nhục 1472
Sophie 1472
nhắn 1471
Ni 1471
Q@@ 1470
Cụ_thể 1470
bột 1470
Tiên_@@ 1469
Tốt 1469
bệ_hạ 1469
đau_lòng 1468
chuột 1468
chộp 1468
chỉ_trích 1467
vụn 1467
27@@ 1466
cổ_phần 1466
Sơn_La 1466
tàn 1466
Tư_@@ 1464
xoáy 1464
khen_ngợi 1464
côn 1463
khiêng 1463
Khang_Hy 1463
Khu 1462
tưởng_chừng 1462
lóe 1461
trung_thành 1461
Càng 1460
đối_đầu 1460
phục_hồi 1459
nhà_ngươi 1459
HCM 1458
Quốc_gia 1457
khom 1457
A_Kha 1456
móng 1455
sức_lực 1455
nhào 1454
ghép 1454
dẫn_đầu 1453
khớp 1453
hú 1453
1.@@ 1452
Ngồi 1452
quê_hương 1452
phách 1452
ra_chiều 1452
hiền_đệ 1452
tiếp_nhận 1451
Dực 1451
Đột_Lợi 1451
Hầu_Hi_Bạch 1451
Nhóm 1450
Bình_@@ 1450
trùm 1450
Thị_trường 1449
men 1449
Xích 1449
muôn 1448
út 1447
Khuê 1447
Quế 1447
độc_đáo 1446
ngọt_ngào 1446
phẩm 1445
Thanh_tra 1445
tỉnh_táo 1445
gia_nhập 1444
hoá 1444
thủ_đô 1444
SEA_Games 1444
một_ít 1443
Địch 1443
chưa_thể 1442
sang_trọng 1442
tự_chủ 1442
Thẩm_Mộc_Phong 1442
Cổ_phần 1441
danh_tiếng 1441
ao 1441
36 1440
Câu_chuyện 1440
phần_nào 1440
Bạt 1440
phản_kích 1440
kê 1439
trí_tuệ 1439
sơ 1439
Hiểu_Phong 1438
Đô 1437
triệu_chứng 1437
nhận_lời 1437
eo 1436
âm_thầm 1436
đắp 1436
Ủy_ban 1435
biệt 1435
Tự 1435
Sa 1435
phiên_bản 1434
tiểu_Bàn 1434
sân_bay 1433
tuyệt_vọng 1433
số_phận 1433
Đứng 1433
giải_phóng 1432
luyện_tập 1432
khẩn_cấp 1431
tạp_chí 1431
ôi 1431
dấu_vết 1431
khuyến_khích 1429
hồi_hộp 1429
Quả 1429
khâm_phục 1429
Thất_@@ 1429
Ngã 1429
Ðằng 1429
tiêu_biểu 1428
yếu_ớt 1428
lông_mày 1427
Lòng 1427
thưởng_thức 1425
bừng 1425
cảnh_tượng 1425
Alexandra 1425
Vĩnh 1424
New_York 1423
ầm 1423
chiến_trường 1423
na 1422
GS 1422
toàn_diện 1421
trung_@@ 1421
Lang 1421
vô_ích 1421
Israel 1421
đe_dọa 1420
am@@ 1420
hỏa 1420
rủ 1420
xa_xa 1420
nam_nhân 1420
0@@ 1419
di 1419
oán 1418
kiêm 1417
Lão_@@ 1417
như_là 1416
quy 1416
Trần 1416
vũ 1416
Ðó 1416
tâm_trí 1415
trọn 1415
phát_động 1415
dễ_chịu 1415
nhẫn 1415
Tiêu_@@ 1414
phải_chăng 1414
ghi_nhận 1413
ngôn 1413
ngây 1413
34 1412
Đài_Loan 1410
giây_phút 1410
Đội 1409
Lâm_Hồng 1407
man 1406
Đan 1406
hốt_hoảng 1406
gỡ 1405
ti 1405
bẩm 1405
dù_sao 1405
trời_đất 1404
ngập 1403
bùn 1403
thực_lực 1403
Tiểu_Bạch 1403
29 1402
kề 1402
Ma_giáo 1402
độc_lập 1400
hoàng 1400
dê 1400
danh_hiệu 1399
Ngờ_đâu 1399
thách_thức 1398
Ro@@ 1398
cổ_quái 1398
Tiết 1397
Gia_gia 1397
Rõ_ràng 1395
đất_đai 1395
Học_viện 1395
theo_đuổi 1395
cao_điểm 1395
thác 1395
phán 1394
thảm_khốc 1394
Giáo_sư 1393
rùa 1393
bộ_mặt 1392
vật_chất 1392
as 1392
tình_cảnh 1392
xích 1391
hiểu_lầm 1391
khổ_sở 1391
ngất 1390
sấm 1390
London 1389
Hưng_@@ 1388
dập 1388
Linh_San 1388
Thổ_ti 1388
Quốc_tế 1387
bốn_mươi 1386
cuộn 1386
tấc 1385
._Trong 1384
châu_@@ 1383
ông_bà 1383
ia 1383
ị 1383
thư_viện 1383
hiệp_sĩ 1383
uy_tín 1382
Hạ_@@ 1382
Thông_báo 1382
Na 1381
kỷ_luật 1381
lý_tưởng 1381
hầu_@@ 1381
24/2 1381
thuốc_lá 1380
trung_niên 1380
hung_thủ 1380
dẫu 1380
Trông 1380
tại_chỗ 1377
vận_dụng 1377
gần_gũi 1376
xuất_phát 1376
Thùy 1376
sống_chết 1376
cảnh_giới 1376
vĩ_đại 1375
hố 1375
bình_yên 1375
Bước 1374
thu_thập 1374
chủ_đề 1372
Thiên_Phong 1372
co@@ 1371
tràn_đầy 1371
gọn 1371
nhè_nhẹ 1371
chỉ_số 1370
Đáng 1370
Clip 1370
Ðông 1370
Vân_@@ 1369
Lịch_sử 1368
thừa_cơ 1368
tiện_thiếp 1368
kỷ_lục 1367
sống_sót 1367
quí 1367
32 1366
mồi 1366
Thế_@@ 1365
còi 1364
Thông_tin 1362
biết_đâu 1361
Trưởng 1360
tiền_bạc 1360
khí_giới 1360
cô_đơn 1359
tế_bào 1359
Tìm 1359
Hân 1357
ỷ 1356
đồng_tiền 1355
Trì 1355
Obama 1355
ban_hành 1354
mô 1354
mâu_thuẫn 1354
nhai 1353
Phượng 1353
Trầm 1353
đi_nữa 1353
Nhà_sư 1353
giảng 1352
Vậy_mà 1352
mỏ 1352
kín_đáo 1352
Thiếu_niên 1351
Vãn 1351
giải_cứu 1350
Tiểu_tử 1350
huấn_luyện 1349
Dã 1349
May 1348
lặn 1348
Huy 1348
tập_đoàn 1347
ngoại_trừ 1347
chu_đáo 1347
hoảng 1347
at@@ 1346
08 1346
Vạn_@@ 1346
kỷ 1346
Quảng_cáo 1346
đại_thần 1346
lấp 1343
Đao 1343
phương_thức 1342
run_run 1342
Đương_nhiên 1342
Arsenal 1342
mất_tích 1341
MU 1341
Quân_@@ 1340
cản_trở 1340
độc_ác 1339
Suốt 1338
chắn 1338
sự_thực 1338
V 1337
xoa 1337
Má 1337
trú 1336
thời_đại 1335
phạm_vi 1335
ưu_tiên 1335
Bưu_điện 1334
thật_ra 1334
Bảy 1334
Nô 1334
Tiểu_San 1334
Cổ_@@ 1332
Sau_này 1332
Bàn 1332
Tiểu_nhân 1332
Âu_Thần 1332
tương 1331
biểu_tượng 1331
gieo 1331
tàn_nhẫn 1331
vui_lòng 1331
_ 1331
Thái_Hậu 1330
Hoa_Kỳ 1329
bài_học 1329
đinh 1329
tổng_thống 1328
hi_vọng 1328
do@@ 1327
ảo 1327
hà 1327
Yêu 1327
Bùi_@@ 1326
thần_kinh 1326
tra 1326
sạch_sẽ 1326
mềm_mại 1326
khủng_bố 1326
Dù_sao 1326
sắc_bén 1324
hổng 1324
ky 1324
thời_khắc 1324
xiết 1324
bằng_lòng 1323
oan 1323
Hà_Tĩnh 1322
bì 1322
liều_mạng 1322
Gia 1322
ăn_nói 1321
tước 1321
hớn_hở 1321
Tháo 1321
nam_nữ 1320
đổi_mới 1319
hứng 1319
Xây_dựng 1318
09 1318
giàu_có 1318
Kiệt 1318
thăm_dò 1318
Khanh 1318
buồn_rầu 1317
Đệ 1317
j@@ 1316
đo 1316
pháo 1316
kết_nối 1314
quan_@@ 1313
video 1312
y_như 1312
Thác 1312
lên_ngôi 1311
es@@ 1311
Tháp 1311
nhiệt_độ 1310
Cuồng 1310
11@@ 1309
lương_thực 1309
_D@@ 1309
le 1309
đạo_sĩ 1309
_B@@ 1307
Nhĩ 1307
cơ_chế 1307
nguyện_vọng 1307
sứ_giả 1307
L 1306
dàn 1306
lo_âu 1306
góp 1305
chế_tạo 1305
tam_@@ 1305
Vô_@@ 1305
trưởng_thành 1304
33 1304
mơ_hồ 1304
Cảnh 1304
400 1303
hiếu 1303
rèn_luyện 1302
Hảo 1302
võ_nghệ 1302
Ðằng_Dực 1302
hoàn_thiện 1301
chuyên_nghiệp 1301
dữ_liệu 1301
nữ_tử 1301
lách 1299
giấc_ngủ 1299
cuồng 1298
ngoan_ngoãn 1298
ma_@@ 1297
kiên_quyết 1297
Peter 1297
es 1296
thấm 1296
sai_phạm 1296
Gió 1296
kịch_liệt 1295
hành_chính 1294
khâu 1294
Tôn_Ân 1294
Phụng_Tam 1293
cười_cười 1292
bắt_tay 1290
truyền_thông 1289
nóng_nảy 1289
uy_lực 1289
ổng 1288
hành_tinh 1288
tín_hiệu 1287
trò_chơi 1287
Linh_@@ 1287
cố_tình 1287
ngưỡng_mộ 1286
7841 1286
rèm 1286
hiệu_trưởng 1286
bảo_hiểm 1285
Huỳnh_@@ 1285
trực_tuyến 1284
Đáp_án 1284
nến 1284
động_tĩnh 1284
độc_giả 1283
no 1283
sáng_rực 1283
nốt 1282
bất_chấp 1282
Mông 1282
thẹn 1282
đắc_tội 1282
chế_biến 1281
tân 1281
Hổ 1281
Phiên 1280
el@@ 1280
Ðược 1280
hạ_lệnh 1279
K 1278
thời_tiết 1278
gáy 1278
binh_sĩ 1278
8/3 1277
Hầu_@@ 1277
Giới 1276
Y_tế 1276
lịch 1276
dặn_dò 1276
trước_hết 1275
ngón_tay 1275
dễ_thương 1275
mai_phục 1275
nguồn_gốc 1274
chê 1274
Thanh_âm 1274
Nếu_vậy 1273
tâm_tình 1273
te@@ 1272
Trọng_@@ 1272
iPhone 1271
Nghị_quyết 1270
đỏ_bừng 1270
as@@ 1269
quì 1269
đẻ 1268
lảo_đảo 1268
công_viên 1267
thấu 1267
phòng_thủ 1267
tình_nguyện 1267
thần_thái 1267
liên_kết 1266
chiến_sĩ 1266
is@@ 1265
tràn_ngập 1265
Bấy_giờ 1265
quan_chức 1264
phòng_ngủ 1264
mông 1264
Trịnh 1264
làm_@@ 1263
làm_chủ 1263
tùng 1262
xa_lạ 1262
chúc_mừng 1262
lĩnh 1262
đồng_nghiệp 1261
EU 1261
Ðại 1261
trước_đây 1260
Như_thế 1259
trọ 1259
bản_đồ 1257
sỏi 1257
trước_nay 1257
mênh_mông 1257
ĐT 1256
tài_xế 1256
lai 1256
du_khách 1255
hỏi_thăm 1255
mốc 1254
al 1254
chen 1254
7871 1254
ngẩng 1254
Vả_lại 1254
nín 1253
tên_tuổi 1252
ngoài_ra 1252
tê 1252
tham_nhũng 1252
Hoàn_Huyền 1252
Ánh_mắt 1251
ấp_úng 1251
nguyên_tắc 1250
buồn_cười 1250
nhét 1249
Cơ_quan 1248
ô@@ 1248
khoái 1248
lịch_sự 1248
buột_miệng 1248
thắt 1247
phật 1247
Kiều_Phong 1247
mất_mạng 1246
Lý_Hàn_Thu 1246
tố_cáo 1245
vuông 1245
hành_sự 1245
thương_tâm 1245
thương_yêu 1245
Gray 1243
á 1242
Tổ_chức 1242
Huệ 1242
virus 1241
PV 1240
trải_nghiệm 1240
đích 1240
Y_@@ 1240
Cây 1240
Chờ 1238
Dược_Sư 1238
Ừ 1237
xưng 1236
hôn_nhân 1236
cài 1236
kem 1235
bỏng 1234
Lữ 1234
Đột_Quyết 1234
cư_dân 1233
Phố 1233
Anh_em 1233
phắt 1233
ni@@ 1232
chúng_nó 1232
ra_sức 1231
vô_lễ 1231
hào_kiệt 1231
bần_đạo 1231
Triệu_Mục 1231
Duy 1230
trắc_nghiệm 1230
nhẫn_nại 1230
làm_gì 1230
Tuyết_Kiều 1230
đột_biến 1229
bức_xúc 1229
rét 1229
nhảy_vọt 1229
Ngao 1229
Đặng_@@ 1228
ngộ 1228
Bắt 1228
thỏa_thuận 1226
tu@@ 1226
cổ_họng 1226
đại_tướng 1225
rụng 1224
thương_lượng 1222
trật_tự 1220
điên_cuồng 1220
biệt_thự 1220
Trầm_Lạc_Nhạn 1220
tơ 1219
Sát 1218
Dứt_lời 1218
bó 1217
khéo_léo 1217
bé_nhỏ 1217
chủ_trì 1216
sập 1216
tranh_chấp 1215
Yên_@@ 1215
Bành 1214
Hội_nghị 1213
tẩu 1213
ngói 1213
khảo_sát 1212
kỳ_diệu 1212
nhún_vai 1212
phổi 1211
thấp_thoáng 1211
Trinh 1210
suất 1210
căn_bệnh 1210
re@@ 1210
túm 1210
Bất_luận 1210
nói_chung 1209
Chứng_khoán 1209
thành_phần 1209
nhỏ_tuổi 1209
tô 1208
chẳng_hạn 1208
tích 1208
tướng_mạo 1208
dày_đặc 1207
Ngũ_@@ 1207
thầy_trò 1207
oacute 1207
kháng_cự 1207
Đỗ_Phục_Uy 1207
cấp_cứu 1206
thiền 1206
con_cháu 1206
da_thịt 1205
Mong 1204
Tuy_vậy 1204
trở_lên 1204
giảng_dạy 1204
Phùng_@@ 1203
chán_nản 1203
Thuyên 1203
thê_thảm 1202
ngoan 1201
tội_nghiệp 1200
phỏng_vấn 1199
cải_cách 1198
nhẹ_nhõm 1198
mép 1198
cảng 1197
nồi 1197
nửa_đêm 1197
_m@@ 1196
bức_bách 1196
bar 1195
Gia_Cát 1195
30@@ 1194
chung_cư 1194
đặc 1194
Hết 1194
show 1194
thỉnh 1194
Ðổng 1194
mảng 1193
03 1193
ráng 1193
khủng_hoảng 1192
biến_hóa 1192
hô_hấp 1191
tấu 1191
môn_hạ 1191
ngâm 1190
on@@ 1190
bẩn 1190
Ðến 1190
quảng_trường 1189
Bột 1188
Tư_Hãn 1188
Khoa_học 1187
cao_@@ 1187
te 1187
động_viên 1186
mồ_côi 1186
Tiểu_Trừng 1186
cong 1185
il@@ 1184
cám_ơn 1184
khoan 1183
Trình 1183
Liêu 1183
lẳng_lặng 1183
bất_hạnh 1182
cung_nữ 1181
nói_@@ 1180
phương_trượng 1180
Singapore 1179
Z@@ 1179
yến 1179
Chắc_chắn 1179
đẩy_mạnh 1178
hành_hạ 1178
nhà_thơ 1178
khiếp_sợ 1178
chổ 1178
vận_khí 1178
cầu_@@ 1177
tuyệt_diệu 1177
bộ_dạng 1177
Ðiền_Ðan 1177
xâm_nhập 1176
đường_hầm 1176
tụ_tập 1176
Khương 1176
buồm 1176
xuất_thân 1176
Facebook 1175
ecirc 1175
Kinh_tế 1174
ro@@ 1174
Tớ 1174
ốc 1173
Ma@@ 1173
My 1173
cuồn_cuộn 1173
7889 1173
55 1172
linh_hoạt 1172
tiêu_thụ 1172
Sơn_@@ 1172
Tài_chính 1171
90 1171
vùng_đất 1171
cân_nhắc 1170
dịu 1170
Tung_Sơn 1170
kỳ_vọng 1168
Bệnh 1168
Doanh_nghiệp 1167
tiểu_thuyết 1167
chậm_chạp 1167
đối_tác 1166
quầy 1166
bất_lợi 1166
lu@@ 1166
hái 1166
Cánh 1166
cơ_quan_chức_năng 1165
phiếu 1165
khoá 1165
trừng_phạt 1164
thắng_bại 1164
Bộ_GDĐT 1164
Trương_Thúy_Sơn 1164
lê 1163
Pha 1163
mãnh 1163
quỉ 1162
Đạo_@@ 1162
Nga_Mi 1162
bắt_giữ 1161
cẩu 1161
nướng 1161
ma_túy 1161
:@@ 1161
Simon 1161
tiêu_cực 1160
ra@@ 1160
sửa_đổi 1159
G 1158
ví_dụ 1158
yêu_thích 1158
cân_bằng 1158
xấu_xa 1158
linh_hồn 1157
đa_số 1157
Thánh_@@ 1157
nếm 1157
ê 1156
tội_phạm 1155
22/2 1155
rước 1154
Hỏi 1154
khắc_phục 1153
vận_hành 1153
Con_người 1153
bỏ_rơi 1153
công_lập 1152
dư 1152
el 1152
gas 1151
thổ 1151
thân_mật 1151
sát_khí 1151
thủy_thủ 1150
thụ 1149
Mar@@ 1149
nhà_cửa 1149
21/2 1149
Hiệu_trưởng 1149
vầng 1148
Trấn 1148
cấu_trúc 1147
tính_chất 1147
oai 1147
ngữ 1147
kìm 1147
Tiên_sinh 1147
Tôlic 1147
tiền_tệ 1146
tập_thể 1146
tắc 1146
Thạch_@@ 1146
cường 1146
tịnh 1146
chức_vụ 1145
Tags@@ 1145
bằng_chứng 1144
bối_cảnh 1144
tít 1144
tập_kích 1144
xe_hơi 1143
Bầu 1143
xung_đột 1143
bạo_lực 1143
Tám 1143
Diêu 1143
150 1142
sánh 1142
de 1142
Thật_ra 1142
sôi 1142
đích_thực 1142
dũng_cảm 1142
Ngữ_văn 1141
Quy 1141
sự_cố 1140
nhà_văn 1140
Đợi 1140
Trịnh_Khắc_Sảng 1140
nhủ 1139
nâu 1139
công_kích 1139
ưu_đãi 1138
xoay_chuyển 1138
John 1138
Hàm_Dương 1138
Úc 1137
at 1137
Hữu_@@ 1137
Cho_dù 1137
xạ 1137
Hãn 1137
ê@@ 1137
Trung_Hoa 1137
Ðoạn 1137
bấm 1136
mầm_non 1136
Whitney_Houston 1136
2017 1135
trích 1135
thất_kinh 1135
thư_sinh 1135
or@@ 1134
tọa 1134
phấn 1134
xa_xôi 1134
động_vật 1133
kinh_khủng 1133
búa 1133
quăng 1133
Miêu 1133
đại_sự 1132
Kinh_Tuấn 1132
Đoàn_Dự 1132
trái_cây 1131
Li@@ 1130
hâm_mộ 1130
điếu 1130
Khoảng 1130
ích 1130
thẳng_thắn 1130
hổ_thẹn 1130
Lu@@ 1129
E 1129
đau_đầu 1129
tự_tử 1129
trầm_mặc 1129
Tống_Khuyết 1129
văn_học 1128
rối 1128
kinh_mạch 1128
xôn_xao 1127
bàn_bạc 1127
đầu_gối 1127
42 1126
Google 1126
xét_nghiệm 1125
thêu 1125
ad@@ 1124
hiểm 1124
năng 1123
đặt_chân 1123
Tình 1123
Hợp 1123
Kính 1123
Hiên 1123
Đa_tạ 1123
2,@@ 1122
_d@@ 1122
chọc 1122
gai 1122
coi_trọng 1121
đậm 1121
Vậy_thì 1121
thê_lương 1121
75 1120
dò 1120
Gia_Kỳ 1120
mua_sắm 1119
Internet 1119
Lương_@@ 1119
nhăn 1119
kính_trọng 1119
kỹ_sư 1118
sáo 1118
mới_đây 1117
si@@ 1116
ban_đêm 1115
phấn_khởi 1115
nào_ngờ 1115
20/2 1115
ơ 1114
Hiệp 1113
lồng 1113
dâm 1113
Bộ_@@ 1112
Đỗ 1112
lòng_dạ 1112
bao_trùm 1111
Vi@@ 1111
2009 1111
giảng_viên 1111
ngân 1111
trợ_giúp 1111
chuồn 1111
53 1110
giấy_tờ 1110
mệnh_lệnh 1110
Triển_lãm 1110
II 1109
chốt 1109
hàm 1109
tranh_thủ 1109
thái_tử 1109
thạch_thất 1109
đâu_đó 1108
Căn 1108
Phù 1108
ngụm 1108
hải 1108
vô_dụng 1108
bất_tất_phải 1108
sững 1107
Cừu 1107
Hải_@@ 1106
bận_rộn 1106
sói 1106
lờ_mờ 1106
nghiêm_nghị 1106
Tổng_@@ 1105
né 1105
CLB 1105
áo_quần 1105
khóe 1105
thất_thanh 1105
Lư 1105
thềm 1104
Khoa 1104
điền 1104
gấu 1104
bấy_nhiêu 1104
Thái_tử 1104
sinh_@@ 1103
vén 1102
Barcelona 1102
Đại_nhân 1102
hành_khách 1101
kích_động 1101
luật_sư 1101
khố 1100
Lăng_@@ 1100
động_đậy 1100
MC 1099
ac@@ 1099
bất_lực 1099
Gadhafi 1099
nhựa 1098
nếp 1098
Thuần 1098
37 1097
chinh_phục 1097
Thiên_Tôn 1097
tối_thiểu 1096
không_chỉ 1096
05 1096
Le@@ 1096
vạt 1096
đuốc 1096
đạo_trưởng 1096
hương_chủ 1096
anh_chị 1095
hàng_xóm 1095
gót 1095
một_mặt 1095
Trạch 1095
Thúy_Ái 1095
nhân_tài 1094
nguyệt 1094
Chu_Cơ 1094
rõ_rệt 1093
Phú_@@ 1092
Vi_@@ 1092
2020 1091
Bình_Dương 1091
Đề 1091
trừng 1091
Tạ_Tốn 1091
thiên_thần 1090
Chuyến 1090
Côn 1090
nude 1090
Vĩnh_@@ 1089
ine 1089
kẽ 1088
Khổng_Minh 1088
Đỗ_Thiên_Ngạc 1088
ngưỡng 1087
bền_vững 1087
dự_đoán 1087
hạn 1087
xuôi 1087
Nhất_@@ 1087
doanh 1086
chuồng 1086
cao_nhân 1086
May_mà 1086
ngắn_ngủi 1085
Báo 1084
di_@@ 1084
bực_mình 1083
Ông_già 1082
Học_sinh 1082
đánh_chết 1082
gởi 1081
xe_đạp 1080
Bao_nhiêu 1080
kẻ_địch 1080
đặng 1080
Bích_Dao 1080
lãi 1079
tụt 1079
thầy_cô 1079
Thí_sinh 1079
Thạch_Thanh_Tuyền 1079
mớ 1078
hành_tung 1078
Bảo_Ngọc 1077
chấm_thi 1077
tiềm_năng 1076
Vài 1076
giới_tính 1076
07@@ 1075
hóa_ra 1075
ph 1075
Quái 1075
mâu 1074
Cần_Thơ 1074
nghẹn_ngào 1074
thủy_chung 1074
gằn 1074
31 1073
đạo_lý 1073
tư_nhân 1073
xơ 1073
kẹp 1073
Học 1072
bẻ 1072
38 1071
bo@@ 1071
Hoặc 1071
chìa_khóa 1071
ca_khúc 1071
cửu 1071
nhì 1070
đề_tài 1070
quan_niệm 1070
vái 1070
chân_trời 1070
Dương_Hư_Ngạn 1070
ý_chí 1068
thỏa_mãn 1068
bắt_gặp 1067
Giải 1067
minh_chủ 1066
kiến_nghị 1065
Thuỷ 1065
Uyên 1065
tập_luyện 1065
194 1065
danh_dự 1064
dầy 1063
Lát 1063
Nhị_@@ 1063
nông_nghiệp 1062
Re@@ 1062
thắng_lợi 1062
ra_mặt 1062
lãng_mạn 1062
Đại_Nhân 1062
đại_hội 1061
tranh_luận 1061
can_đảm 1061
ước_mơ 1061
định_thần 1061
Car@@ 1060
chung_kết 1060
thư_phòng 1060
đồ_chơi 1059
thầy_giáo 1059
mò 1059
Lạc_@@ 1059
vậy_thì 1058
Quản_lý 1057
phổ_thông 1057
Cảnh_sát 1057
đón_tiếp 1057
loạng_choạng 1057
cõng 1057
định_hướng 1056
2.@@ 1056
xu 1056
07 1055
mau_chóng 1055
âm_@@ 1055
chủ_ý 1055
Huống_chi 1055
khoan_khoái 1054
giai_nhân 1054
đêm_tối 1054
gươm 1054
Tùy 1053
cam 1053
sưu_tập 1053
» 1053
Việt_@@ 1052
Diễm 1052
huyền 1052
Xin_lỗi 1051
ngu_ngốc 1050
Hạc 1050
lật_đật 1050
thái_hậu 1050
hiện_diện 1049
z 1049
áo_dài 1049
Ê 1049
tăng_giá 1047
chậm_trễ 1047
tình_cờ 1047
vợ_con 1046
sót 1046
dị_thường 1046
hấp_tấp 1046
đại_quân 1046
đục 1045
nhánh 1045
vặn 1045
Khánh_@@ 1045
Nghiêm 1045
vô_danh 1045
sực 1045
Tịch 1044
kỵ_binh 1044
Bất_quá 1044
mua_bán 1043
ngh@@ 1043
động_cơ 1043
gắn_bó 1043
giáng 1043
ầm_ầm 1043
lượm 1043
Cầu 1042
dự_định 1041
heo 1041
TS 1041
đóa 1041
khe_khẽ 1041
huyết_áp 1040
lẻn 1040
mừng_thầm 1040
tiền_lương 1039
nghiêm_khắc 1039
lớp_học 1039
Thiền 1038
nhô 1038
gả 1038
_tr@@ 1037
Miệng 1037
cao_hứng 1037
kết_hôn 1036
Hóa_@@ 1036
tin_đồn 1035
hòa_@@ 1035
thân_thiện 1035
buông_tha 1035
quái_vật 1035
phong_trào 1034
Nỗi 1034
An_Long 1034
dải 1033
Ngày_mai 1033
Thanh_Thành 1033
thống_kê 1032
chân_chính 1032
trang_trại 1032
thà 1032
thảo_nguyên 1032
Cross 1032
pháp_lý 1031
Luật 1031
Thu_@@ 1031
sau_cùng 1031
thuốc_độc 1031
cháo 1030
ải 1030
thâu 1030
Sợ 1030
bất_chợt 1030
Tang 1030
cổ_đông 1029
quyền_lợi 1029
củ 1029
bình_luận 1029
phong_phú 1029
Định 1029
hết_lòng 1029
kiếm_thuật 1029
tổng_hợp 1028
Cặp 1028
mà_lại 1028
Hàn_@@ 1028
học_phí 1028
kim_cương 1028
nổi_danh 1028
16/2 1028
2008 1027
Thời 1027
quất 1027
kh 1027
Thế_nào 1027
Cưu 1027
Quỷ_Vương 1027
bóng_dáng 1026
Toàn_cảnh 1026
cao_tăng 1026
Ngạc 1026
bắt_cóc 1026
trúng_tuyển 1026
Quyết_định 1025
thành_tựu 1025
nho_nhỏ 1025
hiến 1025
Nhất_định 1025
đô-la 1025
Myszka 1025
Giống 1024
ít_ra 1024
cằm 1024
hóa_giải 1024
Trát 1024
rảo 1024
ngẫu_nhiên 1023
độc_thủ 1023
mục_quang 1023
nông_thôn 1022
Lập 1022
địch_thủ 1022
Phủ 1022
bảo_@@ 1022
lộn 1022
Chín 1022
so@@ 1021
tin_cậy 1021
thử_thách 1021
lơ_lửng 1021
tục 1021
hòng 1021
Ha_ha 1021
tư_duy 1020
điều_động 1020
học_@@ 1020
sĩ_quan 1020
trảo 1020
chúng_mình 1020
cất_bước 1020
đại_vương 1020
nền_tảng 1019
say_mê 1019
đôi_chút 1019
xếp_hạng 1019
bè 1019
An@@ 1018
gõ_cửa 1018
ra_@@ 1017
phụ_thuộc 1017
chiến_dịch 1017
Đứa 1017
nghĩa_phụ 1017
quyết_liệt 1016
Paul 1016
bẫy 1016
rạp 1016
ào 1016
bất_kể 1016
tạm_biệt 1016
sắp_đặt 1016
ham 1015
Phật_giáo 1015
26/2 1015
ng_@@ 1014
nội_bộ 1014
Giáo 1014
phản_bội 1014
bộ_lạc 1014
sinh_sống 1013
biên 1013
tuyển_dụng 1013
vui_sướng 1013
Thứ_trưởng 1012
U23 1012
xấu_xí 1012
búng 1012
si 1011
Thuyền 1011
chính_đạo 1011
Tim 1010
vẫy_tay 1010
Tinh_Tú 1010
Quyền 1009
Cập 1009
Thúc_Bảo 1009
quy_chế 1008
dự_báo 1008
su@@ 1008
hôn_mê 1008
thuyết 1008
hình_dáng 1007
đê 1007
nghề_nghiệp 1006
Lập_tức 1006
náo_nhiệt 1006
phân_phối 1005
44 1002
ám_ảnh 1002
tránh_né 1002
Tiểu_Bàn 1002
Loan_Loan 1002
nhấn 1001
O 1001
rưỡi 1001
dứt_khoát 1001
Trung_Tà 1001
Thương_@@ 1000
thượng_@@ 1000
kinh_điển 1000
Chân_@@ 1000
Hiệt_Lợi 1000
Ban_Nha 999
kiên_nhẫn 999
Real_Madrid 999
ma_giáo 999
Hầu_Hy_Bạch 999
Hoàn_Độ 999
ròng 998
02 998
tội_lỗi 998
thóa_mạ 998
tuyệt_thế 998
Khải 997
phương_hướng 997
vận_tải 996
bùng 996
bệnh_tật 996
hoan_hô 996
Lo@@ 995
hầu_hạ 995
rạng_rỡ 994
The_@@ 994
sáng_suốt 994
cải 994
xuất_bản 994
chút_nữa 993
tương_ứng 993
Bo@@ 993
trễ 993
chèo 993
Vợ 993
sự_tình 993
đàm_phán 992
thiết_lập 992
46 992
trang_trí 992
nam_giới 992
Stevie 992
đồ_đạc 992
ăn_mày 992
Phú 991
tĩnh 991
cục_diện 991
dọa 990
đồng_loạt 990
nhiệt_tình 990
Lợi 990
sa_mạc 990
mo@@ 989
taxi 989
tu_hành 989
công_cụ 989
xả 989
mô_tô 989
lấp_loáng 989
Tiêu_Phong 989
Chính_@@ 988
doanh_nhân 988
bồng 988
hoàn_tất 987
sa_thải 987
ít_nhiều 987
cấp_bách 987
Nương 987
Huyền_Ðức 987
39 986
Tâm_@@ 986
Tài 986
chậu 986
quản_gia 986
AM 985
teen 985
ai@@ 985
23/2 985
Ðã 985
Thập_Bát 985
48 984
Hiển_nhiên 984
phù 984
tinh_@@ 984
khôn 984
Thịnh 984
chi_bằng 984
nhân_lực 983
sen 983
Ôn 983
22@@ 982
Chấn 982
đạo_diễn 982
đông_đảo 981
CES 981
tài_trợ 980
buôn 980
hòa_bình 980
NG 980
du 979
hứa_hẹn 979
nảy_sinh 979
>>_@@ 979
mốt 979
phận 978
rống 978
ton 977
7843 977
ng-@@ 976
ki@@ 976
Tiến_sĩ 976
lời_lẽ 976
công_chúng 975
bỗng_dưng 975
bu@@ 975
Hoài_@@ 975
Soái 975
ar 974
hưng_phấn 974
thăng 974
tả_hữu 974
dồn_dập 973
chỉ_thị 973
phạm_tội 972
Nhà_@@ 972
bất_đồng 972
tố 972
đẫm 972
tạ_ơn 972
cười_hì_hì 972
đối_địch 972
Đưa 971
nhà_báo 971
lang_thang 971
tang 971
Katherine 970
dụng_cụ 969
Ngôi_sao 969
Đôn_Kihôtê 969
văn_minh 968
tiên_phong 967
cảnh_cáo 967
lột 967
long_lanh 967
chống_cự 967
Kỷ_Thiên_Thiên_@@ 967
hóa_@@ 966
cơ_cấu 966
thiệt_hại 966
lứa 966
thủng 966
đẹp_đẽ 966
nghị 966
hài_nhi 966
trọng_đại 966
Dương_Thống 966
chủ_nhiệm 965
Văn_Đế 965
_T@@ 964
bất_đắc_dĩ 964
mồng 964
Lào 962
phủ_nhận 962
dẹp 962
khúc_khích 962
táo 961
lợi_thế 961
rác 961
ghi_nhớ 961
thủng_thẳng 961
đóng_cửa 960
Tư_Mã_Đạo_Tử 960
Vittoria 960
bản_chất 959
thử_nghiệm 959
viện_trợ 959
Tiểu_muội 959
giữ_gìn 958
Trang_@@ 958
chùm 958
vác 958
Thừa 958
rên 958
rúng_động 958
hoàng_hôn 958
„_Ta 958
Mặc 957
toàn_thể 957
bao_phủ 957
liễu 957
Hành_@@ 957
ocirc 957
thời_cơ 956
nghệ 956
bực_bội 956
ghen 956
hội_đồng 955
hào_quang 955
Ái 954
tài_khoản 954
Cụ 954
Tướng_công 954
Thiếu_Soái 954
đào_tẩu 953
giúp_việc 952
Duy_@@ 952
'_@@ 952
bảo_tàng 952
Kỷ_Thiên_Thiên 952
Hồng_y 952
Đàn 951
miễn 951
bộ_đội 951
khách_sáo 951
đạo_@@ 950
văn_@@ 950
say_sưa 950
doanh_trại 950
Mộc_Phong 950
tiêu_hóa 949
Minh_giáo 949
bóp 948
Nghĩa_@@ 948
sầu 948
quốc_@@ 947
tự_sát 947
Liền 947
Tiêu_Dao 947
thư_ký 946
Bốc 946
quy_trình 945
thiệt_mạng 945
hàng_rào 945
Thiết_@@ 945
vòng_tay 945
kẻo 945
chữa_trị 944
Chân_dung 944
liên_thủ 944
công_lao 943
nhan_sắc 943
thiếu_phụ 943
Loại 942
ca_nhạc 942
tiện_nghi 941
đe_doạ 941
vô_@@ 941
7901 941
thực_là 941
Cảm_ơn 940
Phó_@@ 940
mu@@ 940
thanh_thế 940
Phương_Tú 940
Thư_Thư 940
trụ_sở 939
ASEAN 939
nheo 939
sương_mù 939
Bá_Quang 939
thời_hạn 938
hưu 938
Đường_@@ 938
Mãi 938
gh@@ 937
06 937
mô_tả 936
từ_bỏ 936
Hứa_Sĩ_Công 936
bàn_chân 935
tuột 935
kíp 935
Tui 934
đầu_ra 933
Cơ_@@ 933
Chí 933
Ngôi 933
đám_mây 933
nóng_bỏng 933
Đình_@@ 933
ngày_một 932
voi 932
siêu_phẩm 932
25/2 932
Adam 932
Khước 932
Chính_trị 931
trục 931
hân_hoan 931
/@@ 930
Tin 930
Chi_@@ 930
Oanh 930
thông_cảm 930
xua_tay 930
hữu_@@ 929
đa_dạng 929
chỉnh 929
Á 929
se 929
thây 929
tung_tích 929
Vân_Nam 929
toàn_quốc 928
phòng_chống 928
Dương_Châu 928
tồi_tệ 927
Quảng_Nam 927
Dùng 927
Luân 927
Hòa_Bình 926
sinh_nhật 926
Hệ_thống 926
Thái_Bình 926
vắt 926
lay_động 926
Bái 926
bái_kiến 926
mâm 925
Dịch 925
đại_chiến 925
X 924
d_@@ 924
So@@ 923
phấn_chấn 923
Bỗng_nhiên 923
nông 922
tham_khảo 922
minh_họa 922
quả_quyết 922
sốt_ruột 922
vòng_tròn 922
Biển_Đông 922
Võ_Đương 922
Nha 921
Góc 921
ra_vào 921
khoát 921
nhìn_nhận 920
Tào_Tháo 920
lưỡng 920
em_trai 920
Viễn 920
động_tâm 920
xe_tải 919
bàn_tán 919
dĩ 919
thình_lình 919
xét_xử 918
chân_@@ 918
Ma_Trí 918
may_mà 917
Phái 917
canh_gác 917
kệ 916
trung_ương 916
áo_khoác 916
tiễn_biệt 916
hung_dữ 916
Quán 916
Đoan 916
Mỹ_@@ 915
nước_@@ 915
Su@@ 915
Ca 915
vò 915
vòng_vây 915
bắt_chước 915
tập_trận 915
ngơ_ngẩn 915
tận_dụng 914
khiêm_tốn 914
Ar@@ 914
thống_lĩnh 914
lây 914
đũa 914
Sĩ 914
Triều 914
Đông_Phương 914
xem_chừng 914
khách_khí 914
mặt_hàng 913
phương_diện 913
dã 913
chất_vấn 913
Kiến_Khang 913
nghịch 912
hàng_không 912
nuôi_dưỡng 912
mập 912
càng_ngày_càng 912
sét 912
ăn_cắp 912
Joanne 912
ag@@ 911
Thìn 911
năn_nỉ 911
rồi_sao 911
tính_năng 910
cắp 910
tình_nhân 910
quân_tử 910
mau_mau 910
Ðàm 910
đình_chỉ 909
ôtô 909
tâm_linh 909
kiêu_ngạo 909
tánh 909
thích_khách 908
tay_mặt 908
Cung_@@ 907
đánh_bạc 907
lừa_gạt 907
lỏi 907
nhập_viện 906
sẹo 906
___@@ 906
tuấn 906
tỉ_lệ 905
Quảng_Ninh 905
Washington 905
gãi 905
trái_đất 905
Tống_Bi_Phong 905
64 904
Tương 904
bầu_không_khí 904
đồng_bào 904
Càn 904
Độc_Thủ 904
I_@@ 903
Se@@ 903
lâu_nay 903
mẩu 903
dò_xét 903
ngờ_đâu 903
10_triệu 902
Thổ 902
tham_quan 902
kẹt 902
vịt 902
acirc 902
c_@@ 901
lớn_lao 901
đánh_@@ 901
câm 901
hoả 901
Triệu_Nhã 901
giám_thị 900
ngục 900
thiêu 900
đầu_@@ 900
hắn_ta 900
đăng_tải 899
lừa_đảo 899
thô 899
lặp 899
di@@ 899
tuần_lễ 899
Càn_Khôn 899
Thành_phố 898
Australia 898
thần_kỳ 898
chập 898
ngu 898
Trung_Nguyệt 898
NH@@ 897
Nguyên_nhân 897
đệm 897
làm_nên 897
Cửa 897
Chết 897
Thuộc_hạ 897
tro 896
tuyên_truyền 896
Chỉ_tiêu 896
học_hành 896
quận_công 896
sụp_đổ 895
sửa_chữa 895
vững_chắc 895
417 895
bồ 895
hộ_tống 895
Thứ_Ba 895
cô_dâu 895
Tống_Ngọc_Trí 895
bán_lẻ 894
át 894
2013 893
cọp 892
dạ_dày 892
Windows 892
Ví_dụ 891
vui_chơi 891
bản_quyền 891
huống_chi 891
é@@ 890
nan 890
bừa 890
vô_tận 890
trọng_tài 890
Ðoàn_Dự 890
35@@ 889
Lê_Thị_@@ 889
an_tâm 889
ab@@ 889
chấp 889
Ngọn 889
quản_trị 888
đối_thoại 888
Thông_@@ 888
ký_ức 888
canh_giờ 888
chi_@@ 887
sơ_bộ 887
ngớt 887
lâu_đài 887
Kim_Jong-il 887
tự_xưng 887
Ðột 887
thống_trị 886
bù 886
Inter 886
rập 886
Tô_@@ 885
cụm 885
ẩm 885
phụng 885
Anh_Kiệt 885
Trái_đất 884
Đằng 884
hoàng_cung 884
7875 884
Thiếp 884
ví 883
56 883
thầy_thuốc 883
con_em 883
lắp 883
Ðừng 883
Côxchia 883
Tư_vấn 882
Đồng_Nai 882
dinh 882
đỉnh_đầu 882
Mùi 882
hàm_răng 882
nam_tử 882
et 881
lành_mạnh 881
hệt 881
xuất_thần 881
Kế_hoạch 880
t-@@ 880
trực 880
Hình_ảnh 880
trở_ngại 880
đọng 880
lượn 880
nức_nở 880
gợi 879
trúng_độc 879
Ðan 879
tín_nhiệm 878
ức 878
us@@ 878
hào_hứng 878
rực 878
sáng_mai 878
len 877
fan 877
vòm 877
ào_ào 877
khốn_khổ 877
trở_gót 877
xuất_gia 877
thoái 876
hội_thảo 876
cây_cối 876
ve 876
ùa 876
ngây_thơ 876
Vương_gia 876
Xantrô 876
thủy_sản 875
khôn_ngoan 875
cảm_ứng 875
Hoàn 875
Bàng 875
7845 875
dõi 875
toán_học 875
Tứ_@@ 875
Ðường 875
Lưu_Lao_Chi 875
Lý_Tịnh 875
tiến_độ 874
làm_quen 874
a-@@ 874
siết 873
sư_phạm 873
Trần_Cận_Nam 873
Lý_Nguyên_Cát 873
De@@ 872
công_cộng 872
thu_xếp 872
Độ 872
sâu_xa 872
đường_lối 872
cây_số 872
táng 872
tiếng_tăm 872
Vợ_chồng 871
cự 871
hoàng_hậu 871
củng_cố 870
thủ_phạm 870
khởi 870
đón_nhận 870
So 870
se@@ 870
xua 870
Khả_Hãn 870
chỉ_điểm 869
Từng 868
trang_điểm 868
trọng_yếu 868
Mạt 868
quân_sĩ 868
Cửu_@@ 867
Hội_@@ 867
phi_cơ 867
phá_hoại 867
áy_náy 867
yên_ổn 867
lạnh_nhạt 867
nho 866
khóc_lóc 866
ngửng 866
41 865
VietNamNet 865
tia_sáng 865
ghê 865
Xung_quanh 865
khiêu_chiến 865
Quận 864
xâm_phạm 864
tanh 864
coi_chừng 864
cao_đẳng 864
Ngọc_Sơn 864
Thực_tế 863
Chạy 863
bàng_hoàng 863
rụt 863
Tuyển_sinh 863
1_@@ 862
chuyên_ngành 862
bạt 862
dao_động 862
MS 862
giao_lưu 862
[_@@ 862
Giáp 862
ngăn_trở 862
thanh_danh 862
loại_trừ 861
ứa 861
Thái_Sơn 861
tới_tấp 861
nhân_sự 860
2015 860
Trước_hết 860
vang_dội 860
cải_trang 860
Triệu_Minh 860
Quân_Trung_Phụng 860
hiệu_lực 859
ế 859
chọn_lựa 859
Ðể 859
7897 859
Hàm_Ðan 859
biến_cố 858
sững_sờ 858
tĩnh_lặng 858
14/2 858
Nào_ngờ 858
Hách 858
Chúc_Ngọc_Nghiên 858
Sắp 857
yên_lòng 857
hổn_hển 857
T_@@ 856
49 856
che_chở 856
Valentine 856
bảo_kiếm 856
doanh_thu 855
et@@ 855
núp 855
ak@@ 855
úp 855
giờ_phút 855
38@@ 854
ám_sát 854
tinh_tế 854
Khiêm 854
ni_cô 854
Nhất_là 853
Uống 853
thần_tiên 853
xinh_xắn 853
đằng_xa 853
43 852
thi_cử 852
Sư_@@ 852
động_lòng 852
thần_tình 852
ầm_ĩ 851
lưu_thông 851
nhân_loại 851
đồng_tình 851
bìa 851
ù 851
Thuận 851
tất_phải 851
bách 850
sản 850
trêu 850
Trân 850
Thơ 850
suýt_nữa 850
pháp_bảo 850
đạo_hạnh 850
đột_phá 849
Quảng_@@ 849
một_tí 849
hôi 849
dội 849
en_@@ 849
giang 849
Truyện_ngắn 849
lẻ 848
nhạy_cảm 848
phơi 848
Tấm 848
chối 848
Tập 847
đẳng_cấp 847
bất_tỉnh 847
Quay 847
hài 847
lội 847
cười_khẩy 847
bần_tăng 847
Lãnh_đạo 846
47 846
10/2 846
BankPlus 846
hẻm 846
« 846
Ngạo 846
chỉ_giáo 846
thẩm_định 845
ang 845
Nhân_dân 845
Thiếu_@@ 845
trong_sáng 845
yêu_mến 845
Lâm_Kinh_Vũ 845
Bí_thư 844
Phổ 844
kẹo 844
song_song 844
nhiệm 844
Đình 844
tập_hợp 844
đãi 844
liên_miên 844
ân_sư 844
nhất_quyết 843
Khoát 843
điêu 843
không_chừng 843
Quảng_Ngãi 842
giản_dị 842
au@@ 842
n_t@@ 842
Bá_@@ 842
đứng_yên 842
MWC 842
sắc_đẹp 841
Dược 840
Sống 840
diễn_đàn 840
Diệm 840
bóng_người 840
Trừng 840
Động 839
yếu_đuối 839
thật_là 839
la_hét 839
Tôn_Giả 839
phần_trăm 838
màng 838
bánh_@@ 838
Điệp 838
trọc 838
lót 838
điện_ảnh 838
Thứ_Tư 838
vâng_lời 838
Sinh_viên 837
Nhận 837
công_văn 837
sút 837
Vật_lý 837
che_giấu 837
Công_việc 837
khiếu 837
Lý_Tuân 837
sáng_lập 836
chuối 836
tâm_@@ 836
kính_cẩn 836
người_mẫu 836
tàn_sát 836
tai_mắt 836
Hu@@ 835
Kỷ 835
lựa 835
CH@@ 835
truyền_thuyết 835
bồn_chồn 834
tha_thiết 834
đúc 833
chào_hỏi 833
Tuân 833
Mã_số 833
chiếu_cố 833
Công_nghệ 832
âm_u 832
tóm 832
Hanh 832
úy 832
Mathias 832
ter 831
Lê 831
Tuyên 831
địa_ngục 831
/12/2011 831
trừ_phi 831
càn 831
Ðêm 831
Minh_chủ 831
kỵ 830
mị 830
chốc 830
Lục_Tuyết_Kỳ 830
Tiểu_Quyên 830
tải 829
tối_cao 829
Đọc 829
cứ_việc 829
Cô_nương 829
Cuối 828
mặt_bằng 828
giầy 828
khách_quan 828
Ngọc_Lan 828
Phóng 828
Ewa 828
p_@@ 827
thuần 827
nguy_cấp 827
tẩm 827
ghi_chép 827
tội_ác 827
nhăn_nhó 827
Hiển 826
Hy 826
nằm_xuống 826
phàm 826
ngon_lành 826
dụng_ý 826
giở_trò 826
tỉnh_ngộ 826
Chu_Nhất_Tiên 826
sản_lượng 825
phong_@@ 825
cua 825
Hôm_qua 825
hậu_@@ 825
mầu 825
Sai 825
giùm 825
chiến_thuyền 825
trái_phiếu 824
Phát_triển 824
800 824
tận_mắt 824
Sắc_mặt 824
Nghiên_cứu 823
Đông_Á 823
tiêu_chí 823
con_@@ 823
Phù_@@ 823
người_thường 823
tình_@@ 823
rà_soát 822
ụ 822
Cơn 822
cây_xăng 822
lụy 822
áo_vàng 822
Nữ_lang 822
/5 821
vỉa_hè 821
vùi 821
Bách_Hoa 821
52 820
lọ 820
chói 820
La_Hán 820
Vũ_Văn_Hóa_Cập 820
ru@@ 819
mù_mịt 819
chăm_chăm 819
Trương_Tam_Phong 819
dừa 818
Xuyên 818
Ly 818
hối_hả 818
dân_cư 817
chết_đuối 817
trợ 817
làm_phiền 817
cau 817
Cám_ơn 817
Bất_giác 817
dân_chủ 816
sẻ 816
hiên 816
ngậm 816
bàn_thờ 816
ý_đồ 816
Barca 816
ngần_ngừ 816
rương 816
chỉ_định 815
gay_gắt 815
Lê_Văn_@@ 815
mới_mẻ 815
tiêu_tan 815
tối_tăm 815
mưu_đồ 815
kinh_động 815
góc_độ 814
tiện_ích 814
7899 814
êm 813
gắng_gượng 813
làm_ra_vẻ 813
vuốt_ve 812
Hô 812
Mộ_Dung_Chiến 812
thương_nghị 812
lít 811
min 811
nghiện 811
HN 811
hiện_trường 811
đấu_giá 810
email 810
Thanh_Long 810
Uy 810
cô_độc 810
rể 810
ngờ_vực 810
3.@@ 809
phấn_đấu 809
Phước 809
Liệt 809
sở_dĩ 809
Sư_phạm 809
Nhật_@@ 808
Luyện 808
Vậy_là 808
diệu 808
hiện_thực 807
bôi 807
Thực_hư 807
thế_công 807
đánh_thức 806
bất_an 806
tản 806
soạn 806
sướng 805
thẩm_quyền 805
họng 805
lễ_vật 805
nghiêm_trang 805
Jake 805
tán_thành 804
tỷ_phú 804
Câu_nói 804
ủ 804
Tần_@@ 804
cao_siêu 804
hòm 804
hành_lý 803
Hà_Lan 803
Di 803
Đảo 803
tạt 803
Lạt 803
Indonesia 802
3,@@ 802
3_@@ 802
phê_duyệt 801
choáng_váng 801
tình_báo 801
bực 801
Quyết 801
sắp_sửa 801
thảm_thiết 801
nghi_hoặc 801
Mộ_Dung_Thùy 801
cách_thức 800
loại_bỏ 800
đường_@@ 800
vi_khuẩn 800
lược 800
lý_thuyết 800
ân_hận 800
Duyên 800
Ngoại_trưởng 800
tu_luyện 800
Lã_Bất_Vi 800
đội_trưởng 799
1.000 799
Nghi_@@ 799
2007 798
Bu@@ 798
Be@@ 798
dạy_học 798
Ban_đầu 798
Dừng 798
Bút 798
vương_phủ 798
Giang_@@ 797
gi 797
nhu 797
Quan_Trung 797
thân_binh 797
Do@@ 796
trái_lại 796
Matt 796
đồng_hành 795
thông_điệp 795
Đăng 795
trí_thức 795
hộ_vệ 795
ý_niệm 795
ủy 794
chi_tiêu 794
Chí_@@ 794
thủy_@@ 794
chút_ít 794
Mai_Hoa 794
Cộng_hoà_Mỹ 794
Huynh_đệ 794
gia_gia 794
Hiệp_hội 793
giảm_giá 793
ngoại_@@ 793
đắng 793
nể_mặt 793
ay 792
Bởi_vậy 792
thí_nghiệm 792
áp_đảo 792
Thỉnh_thoảng 791
Thập_@@ 791
Seoul 791
phỏng 791
hạm 791
rũ 791
chân_tướng 791
hợp_nhất 790
xe_buýt 790
phong_độ 790
chìa 790
biến_động 789
bồi_thường 789
06@@ 789
học_hỏi 789
kim_loại 789
lắng 789
nứt 789
Triển 789
uy@@ 789
phiêu 789
sảnh_đường 789
Liễu_Mi 789
57 788
kiệt 788
loài_người 788
sôi_nổi 788
giám 788
cười_rộ 788
Trẫm 788
In@@ 787
cu@@ 787
diện_mạo 787
òa 787
từ_biệt 787
ngoại_ngữ 787
Ủng_hộ 787
địa_đạo 787
nguyên_liệu 786
45@@ 786
chứng_nhận 786
nhất_thiết 786
Kim_Cương 786
biểu_lộ 786
kia_mà 786
mất_hút 786
Ðại_sư 786
Dược_Vương 786
600 785
Bản_thân 785
chống_đối 785
Chà 785
tai_họa 785
chém_giết 785
Lục_Tuyết 785
Tiểu_Phàm 785
Hòa_Thị_Bích 785
e_ngại 784
7883 784
bự 784
Cầm_Thanh 784
Hoàn_@@ 783
nhà_bếp 783
trống_rỗng 783
ngắt 783
hoảng_loạn 783
Chào 783
Đâu 783
tín 783
dân_số 782
Cơ_hội 782
đều_đặn 782
siêu_thị 782
duyên_dáng 782
mơ_ước 782
số_liệu 781
thực_hành 781
liên_hoàn 781
đường_bộ 780
va_chạm 780
Đa 780
thương_tích 780
nhạc_sĩ 780
Tống_Kha 780
bồi_dưỡng 779
Cát_@@ 779
Thăng_Long 779
cửa_@@ 779
Tiểu_học 779
mạ 779
há_hốc 779
cất_giọng 779
Nhất_Tiên 779
Tương_@@ 778
thương_vong 778
cày 778
kinh_dị 778
bộ_đồ 778
tuốt 778
ừ 778
phước 778
chéo 777
Phạm 777
sâu_thẳm 777
trắng_bệch 777
Á@@ 776
sếp 776
cưng 776
Cáp 776
nóng_lòng 776
thi_@@ 776
Cố 776
tiếp_lời 776
tán_thưởng 776
Do_vậy 775
ta@@ 775
cm 775
Độc_@@ 775
mạo 775
động_đất 775
hành_lễ 775
Rốt_cuộc 775
lãng_phí 774
Mo@@ 774
Vốn 774
bội_phục 774
Sư_Phi_Huyên 774
65 773
Môi_trường 773
vô_tội 773
hoà_thượng 773
động_lực 772
37@@ 772
năm_tháng 772
nhóc 772
côn_đồ 772
08@@ 771
Nội_@@ 771
it@@ 770
người_dân 770
ur@@ 770
36@@ 770
58 770
hình_@@ 770
DN 770
ang@@ 770
ồn 770
rảnh 770
giống_hệt 770
than_thở 770
tóe 770
Lệnh_Hồ_Xung 770
nội_thương 770
Ko@@ 769
đô_la 769
Mặt_trời 769
cầu_xin 769
Ai_nấy 769
nhỏ_xíu 768
cứng_rắn 768
riêng_tư 768
ngang_nhiên 768
88 767
ưu_thế 767
Po@@ 767
vệt 767
ngỏ 767
xéo 767
Chi_bằng 767
Hiu 767
lộ_trình 766
thuận_tiện 766
hư_hỏng 766
PH@@ 766
nhuộm 766
lệnh_cấm 766
Ðột_nhiên 766
Văn_phòng 765
Thái_Nguyên 765
ngần_ngại 765
Diệu 765
huống_hồ 765
xưng_hô 765
Nữ_sinh 765
nói_thẳng 765
Ronaldo 765
giao_đấu 765
Mu@@ 764
Cuộc_sống 764
máy_móc 764
Tình_@@ 764
áo_@@ 763
rát 763
muỗi 763
camera 763
Phật_@@ 763
yêu_quý 763
chĩa 763
Ðang 763
Bọn_ta 763
Malaysia 762
Tổng_cục 762
Điện 762
Tình_hình 762
Miên 762
Dật_Tài 762
Vô_Lượng 762
05@@ 761
Canada 761
trân_trọng 761
mặt_@@ 761
Xuân_Thu 761
chọi 761
Quá 760
đoàn_kết 760
mạch_máu 760
Tuệ 760
chót 760
8/2 760
làm_quan 760
chính_@@ 759
sư_tử 759
chồm 759
đại_phu 759
thực_chất 758
39@@ 758
Giải_@@ 758
sáng_tác 758
Trần_Hiếu 758
Messi 758
đao_kiếm 758
khối_lượng 757
phòng_ngừa 757
tuổi_trẻ 757
trơ 757
Villas-Boas 757
200,000 757
nhích 756
ri 756
04@@ 755
gò 755
bộ_máy 755
Dã_Cẩu 755
niên 754
Đầu_tiên 754
chấp_thuận 754
báo_động 754
Sergei 754
smartphone 753
ah@@ 753
21@@ 753
sơ_sinh 753
ác_@@ 753
Cặp_đôi 753
Chuyên 753
Thụ 753
bất_mãn 753
hiên_ngang 753
ngẩn_người 753
Khả_Đạt_Chí 753
Trước_kia 752
hoa_@@ 752
ca_ngợi 752
13/2 752
tuân_thủ 751
sức_khoẻ 751
cầu_nguyện 751
quát_tháo 751
Đương 751
de@@ 750
ơ@@ 750
khôn_lường 750
vốn_dĩ 750
Thứ_Năm 750
mến 750
Cái_bang 750
tổng_cộng 749
7873 749
giăng 749
khung_cảnh 749
phản_công 749
nách 748
giựt 748
Lang_Quân 748
bổ_nhiệm 747
hạ_tầng 747
54 747
gắt 747
ối 747
sọ 747
17/2 747
ngụy 747
xử_phạt 746
Lạ 746
rên_rỉ 746
ngóng 746
luống_cuống 746
Tiêu_Lĩnh 746
Con_trai 745
hu@@ 745
vô_lý 745
thịnh 745
Cảnh_@@ 745
Thang 745
tài_trí 745
No@@ 744
99@@ 744
vướng 744
xúc_phạm 744
độc_@@ 744
lắp_bắp 744
âu_yếm 744
Trang_chủ 744
quật 744
reo_hò 744
Thiên_Địa 744
lão_thân 744
bình_@@ 743
Khả 743
Sương 743
thái_phó 743
ap@@ 742
Địa_@@ 742
ba_@@ 742
Huy_@@ 742
hi 742
hoan_hỉ 742
7,@@ 741
kinh_phí 741
Ðiều 741
Chồng 741
Chân_Nhân 741
tra_xét 741
Steve_Jobs 740
ảm_đạm 740
ia_@@ 740
tật 740
Hy_vọng 740
Dì 740
Ngắm 740
sách_vở 740
Mộng 740
Bao_Công 740
đại_dương 739
Lai 739
đẹp_trai 739
Thứ_Sáu 739
Phí 739
Champions_League 739
hoạ 739
ngu_xuẩn 739
đánh_dấu 738
Ngược_lại 738
tri 738
Đoàn_@@ 738
chú_trọng 738
xứng 738
Đề_nghị 738
hà_tất 738
lia_lịa 738
mì 737
mi@@ 737
buốt 737
nấm 737
hỏa_@@ 737
lừng_lẫy 737
cảm_tạ 737
Tạ_Huyền 737
Khưu 737
Đổng 736
Rượu 736
Vĩ 736
đò 736
EVN 735
com 735
đảng_viên 735
từ_thiện 735
sưng 735
ter@@ 735
ngày_tháng 735
7907 735
chao 735
ôn_nhu 735
Cảm_giác 734
i-@@ 734
chắc_hẳn 734
kho@@ 734
Sa_@@ 734
giết_hại 734
Tiểu_thư 734
cảm_tình 733
sinh_vật 733
mùng 733
Bóng 733
lạ_thường 733
xót_xa 733
tinh_thông 733
Đảng_viên 733
Antoine 733
khởi_tố 732
ne@@ 732
hưởng_ứng 732
vượn 732
Ngưu 732
ưng_thuận 732
Hỡi 732
o0o 732
me 731
vũng 731
Tp._HCM 730
bình_quân 730
ốt 730
hãm 730
Lẽ_nào 730
thoát_thân 730
Bẩm 730
nghỉ_dưỡng 729
giao_@@ 729
is 729
lương_tâm 729
thám_tử 729
khuất_phục 729
cập_nhật 728
chua 728
ung 728
chỉ_dẫn 728
Đậu 728
Ngọc_Nữ 728
bệnh_hoạn 728
phê_bình 728
tâm_tư 728
Dật 728
Mã_Văn_Phi 728
Lâm_Tĩnh 728
nắm_bắt 727
rào 727
Quà 726
n_đ@@ 726
Thái_Tổ 726
bản_tính 726
hành_quân 726
Trần_Thị_@@ 725
chứng_chỉ 725
51 725
lễ_hội 725
lôi_kéo 725
chóng 725
nhận_biết 725
ngỡ 725
y_tá 725
/01/2012 725
hung_ác 725
đầu_đuôi 725
nhảy_xổ 725
Philippines 724
bảy_mươi 724
đáp_lễ 724
kịch_bản 724
Nội 724
sáng_tỏ 724
cổ_xưa 724
triển_lãm 724
chịu_thua 724
khốn 724
Giao_thông 723
R 723
ống_@@ 723
00@@ 723
rạng 723
xác_minh 723
tiêm 723
Bách_@@ 723
Giác 723
the 723
Phàm 723
Quặn_lòng 723
công_cuộc 722
ng_t@@ 722
quyết_đấu 722
văn_tự 722
.000 721
sáu_mươi 721
cò 721
To@@ 721
que 721
Tinh_@@ 721
Scott 721
dõng_dạc 721
đăm_đăm 721
Giang_Văn_Thanh 721
Hóa 720
bi@@ 720
hành_@@ 720
giác 720
mù_lòa 720
Ô@@ 720
Đệ_tử 720
cung_cấm 720
Đầu_tư 719
dẫn_dắt 719
Thăng 719
kích_thước 719
Ngạn 719
Ði 719
trung_học 719
tỏ_tình 719
]_@@ 719
căm_hận 719
nhất_tề 719
hình_dạng 718
đai 718
lãnh_tụ 718
quá_đáng 718
tối_qua 718
chi_trả 717
bí_quyết 717
tuổi_tác 717
trí_nhớ 717
bảo_vật 717
cúng 717
nô_lệ 717
chìa_khoá 717
không_lẽ 717
từ_bi 717
thỉnh_giáo 717
Tiên_Sinh 717
?_@@ 716
Nước_@@ 716
bận_tâm 716
sở_trường 716
xưởng 716
Công_Khanh 716
tầm_mắt 716
Sự_việc 716
kính_phục 716
cười_thầm 716
thoắt 716
cự_tuyệt 716
Hồ_Xung_đáp 716
võng 715
lơ 715
Milan 715
Hầu_Hạo 715
thông_@@ 714
nội_@@ 714
Đại_tá 714
trấn_tĩnh 714
ông_@@ 713
NG@@ 713
gẫy 713
Thuật 713
nghênh_tiếp 713
Chính_Thuần 713
thu@@ 712
rạch 712
hạnh 712
tàn_ác 712
Đại_sứ 712
ba_chục 712
bất_tất 712
Lâm_Bình 712
Uyển_Thanh 712
điều_hòa 711
thung_lũng 711
khuyến_cáo 711
đàng_hoàng 711
Hương_@@ 711
tý 711
GV 711
Hầu_hết 710
lở 710
Hòa_@@ 710
tim_mạch 710
and@@ 710
Thanh_niên 710
nhện 710
đồng_môn 710
tỷ_thí 710
Nhạc_Sơn 710
suy_đoán 709
chẩn_đoán 709
thống 709
Hữu 709
thắt_lưng 709
Lộ 709
ác_mộng 709
Nhâm 709
lườm 709
Rachel 709
bao_la 709
dự_thảo 708
lề 708
vật_liệu 708
ig@@ 708
khởi_đầu 708
lạm_phát 708
Giáng_sinh 708
khát 708
bánh_mì 708
anh_trai 708
giải_@@ 708
rậm_rạp 708
cường_địch 708
đại_danh 708
Mặt_khác 707
k_@@ 707
kỹ_lưỡng 707
bực_tức 707
Kim_Lan 707
VN-Index 706
Android 706
nhức 706
and 706
2006 706
xong_xuôi 706
học_viên 706
Nạn 706
Lý_Tử_Thông 706
_triệu 705
T. 705
Đài_@@ 705
lậu 705
thực_tiễn 705
toả 705
phản_chiếu 705
loé 705
tranh_đấu 705
ng_th@@ 704
cập 704
cảnh_vật 704
khua 704
bảo_hộ 703
ie 703
mơ_màng 703
er_@@ 703
cầm_đầu 703
nể 703
gợi_ý 703
Bắc_Ninh 703
cơ_mà 703
cương_quyết 703
đồn_đại 703
sấn 703
Thạch_Thanh 703
chuyển_đổi 702
Tự_@@ 702
ần 702
100,000 702
kiều 702
Dương_Tiêu 702
sơn_trang 702
Hồ_Xung_nói 702
Minh_Giáo 702
bộc_lộ 701
tổ_tiên 701
Dượng 701
thượng_nhân 701
Trước_đây 700
Diên 700
bắt_@@ 700
tri_thức 700
đánh_cắp 700
quốc_phòng 700
Dự_kiến 699
hi@@ 699
truy_cập 699
au 699
ẩn_nấp 699
02/2012 699
nói_riêng 698
Trung_Đông 698
Kỹ_thuật 698
sinh_học 698
quy_tắc 698
luồn 698
hãm_hại 698
bình_sinh 698
Lão_gia 698
gia_nhân 697
sát_thủ 697
Xót_xa 697
cuồng_phong 697
quyết_chiến 697
hoàng_thượng 697
Vô_Vi_đạo_trưởng 697
Elinor 697
giao_tiếp 696
He@@ 696
giải_thoát 696
thủ_lĩnh 696
Nhạc_Linh_San 696
Thế_Sung 696
lon 695
phát_@@ 695
ay@@ 695
game 695
ma@@ 695
phá_hủy 695
đấng 695
dã_man 695
Mưa 695
nhân_gian 695
binh_mã 695
thị_xã 694
vong 694
tan_vỡ 694
Uông 694
giám_khảo 694
Steve 694
đối_đãi 694
sôi_động 693
triệt_để 693
đường_sắt 693
thất_@@ 693
thành_thật 693
trái_phép 693
nhợt_nhạt 693
nhả 693
độc_thân 693
lén_lút 693
Lao_động 692
hình_sự 692
sẫm 692
kiên_trì 692
đồ_vật 692
n_th@@ 692
tai_nghe 692
gia_sư 692
Bát_@@ 692
địa_@@ 691
viên_chức 691
cay 691
H5N1 691
cậy 691
nhuyễn 691
Nữ_hoàng 691
Sĩ_@@ 691
„_Ð@@ 691
Di@@ 690
Nobel 690
Thi_@@ 690
khoa_học_tự_nhiên 690
ùn_tắc 690
Minh_bạch 690
thuyền_trưởng 690
Phụ_nữ 689
thi_công 689
khí_hậu 689
lãnh_thổ 689
ngổn_ngang 689
nít 689
ẩn_thân 689
quan_binh 689
w 688
khởi_động 688
Mộc_@@ 688
lồng_ngực 688
tuyệt_đỉnh 688
kém_cỏi 688
Quý_Phái 688
chiếm_đoạt 687
120 687
nghẹn 687
Nghĩa_là 687
y_học 687
tín_đồ 687
vắng_vẻ 687
Tiễn 687
gấm 687
đại_trượng_phu 687
ir@@ 686
vàng_bạc 686
cửa_hiệu 686
Đông_Dương 686
tự_ý 686
chống_chọi 686
ngất_xỉu 686
dục 686
Văn_Mẫn 686
phân_@@ 685
Bình_quân 685
Đời 685
li 685
đúng_đắn 685
Phim 685
tốp 685
Chánh 685
tấm_gương 685
Khuôn_mặt 685
báo_đáp 685
ha_ha 685
tổn_hại 684
Đà 684
chăn_nuôi 684
vấp 684
chất_béo 684
tối_đen 684
nhập_học 684
uy_thế 684
y_thị 684
bất_ổn 683
lão_@@ 683
vinh_dự 683
ol@@ 683
công_sức 683
vù_vù 683
thần_trí 683
phản_kháng 683
Âm_Dương 683
nghĩ_bụng 683
thảm_họa 682
câu_hỏi 682
biến_chứng 682
Truyền_thông 682
giỏ 682
tôn_kính 682
căn_dặn 682
ló 682
Mạc_@@ 682
Ác 682
Con@@ 681
chuyện_trò 681
dìu 681
kêu_la 681
Grant 681
Phụng_Phi 681
cóc 680
Me@@ 680
kinh_sợ 680
hươu 680
Tiền_bối 680
thảm_hoạ 679
ì 679
bài_toán 679
Ô_@@ 679
ngỡ_ngàng 679
Thân_@@ 679
Ưng 679
thất_sắc 679
Kim_Bình_Nhi 679
văn_hoá 678
bàn_luận 678
Hà_Nam 678
Cẩm_@@ 678
ờ 678
thần_tượng 678
kinh_thành 678
Linh_Nhi 678
Không_sao 678
Ðức 678
tiền_mặt 677
phi_công 677
thường_ngày 677
Hễ 677
sinh_mạng 677
San 677
đồng_đạo 677
nhiệm_kỳ 676
ước_tính 676
59 676
yếu_kém 676
vặt 676
lẽ_ra 676
ed@@ 676
tỉ_mỉ 676
há_miệng 676
trên_dưới 676
nghiệt 676
Biên_Hoang_tập 676
/6 675
cởi_mở 675
Báo_cáo 675
ngớ_ngẩn 675
Mục_@@ 675
giận_dỗi 675
hộ_pháp 675
me@@ 674
mê_hoặc 674
cao_su 674
dạy_bảo 674
hoang_dã 674
choàng 674
ci@@ 673
100_% 673
chênh_lệch 673
ò 673
Con_@@ 673
sải 673
lừa_dối 673
Tây_Hạ 673
Quý_@@ 672
tướng_sĩ 672
xi@@ 672
sừng 672
Bản_@@ 672
Chủ_nhật 672
khiếp 672
Nghị 672
phượng 672
chắp 672
kiểm_điểm 672
thống_khổ 672
Đại_Lý 672
Cùng_với 671
toa 671
sụp 671
trì 671
rong 671
Ngừng 671
thán_phục 671
giao_thủ 671
PM_GMT7@@ 671
sức_ép 670
trở_đi 670
mong_đợi 670
canxi 670
có_ích 670
Thoát 670
Khổ 670
262 670
ngoảnh_đầu 670
Diên_Khánh 670
thân_hành 670
Song_Nhi 670
chiến_thuật 669
vê 669
thiêng_liêng 669
chát 669
Trình_@@ 669
trịnh_trọng 669
hỏi_han 669
Đua 669
phì_cười 669
họ_hàng 668
Sắc 668
Mậu 668
Võ_Ðang 668
trọn_vẹn 667
chảo 667
vớ 667
Lên 667
trạc 667
rơi_lệ 667
Ðại_ca 667
Xa 666
Si@@ 666
chấn_thương 666
sex 666
quần_chúng 666
Quận_chúa 666
Tư_Đồ 666
Thị_thần 666
câu_lạc_bộ 665
trơn 665
Lang_@@ 665
Megan_Fox 665
hoàng_tử 665
nép 665
vả_lại 665
Cao_Thức 665
tuyệt_luân 665
Đại_sư 665
lão_bà 665
tổng_@@ 664
đồng_bộ 664
san 664
cấu_kết 664
dung_mạo 664
giai_cấp 664
hi_sinh 663
lớn_nhỏ 663
Ngày_nay 663
lý_giải 663
cưỡng 663
khoẻ 663
ngư 663
Gương_mặt 663
Song_@@ 663
an_bài 663
cay_đắng 663
hí 663
Noel 663
sủa 663
song_thân 663
Thái_Bình_Dương 662
sai_sót 662
bất_bình 662
gân 662
Hình 662
trẻ_trung 662
đội_tuyển 662
Real 662
văn_chương 662
canh_giữ 662
bốn_phương 661
Sang 661
lọc 661
Thúy_@@ 661
ếch 661
Ngày_@@ 661
một_mạch 661
Nhà_vua 661
Hắc_@@ 661
quân_sư 661
ác_độc 661
Tổng_giám_đốc 660
bùng_nổ 660
_% 660
hoa_hồng 660
/2010 660
bình_an 660
giặt 660
nã 660
đoản_kiếm 660
Lý_Tư 660
kì 659
Đ 659
ngời 659
manh_mối 659
ic@@ 659
GD-ĐT 659
Miền 659
Vương_Quốc 659
lẩn 659
95 658
1/2 658
đẹp_mắt 658
Hà_Giang 658
Tán 658
79@@ 658
Mi@@ 658
hiền_lành 658
Lân 658
tivi 657
Ấn 657
Trường_hợp 657
đau_nhói 657
rọi 657
Triệu_Long 657
Vũng_Tàu 656
í@@ 656
Ti@@ 656
chủ_nhật 656
khoét 656
thỏ 656
Thử 656
đầm_đìa 656
chim_ưng 656
cấm_vệ 656
Du_@@ 655
lộc 655
đồng_tử 655
John_@@ 655
phong_tỏa 655
ngẩn_ngơ 655
xa_cách 655
uổng 655
2000 654
phân_chia 654
Hán_@@ 654
Hoàng_hậu 654
bướm 654
u_ám 654
tía 654
sửa_soạn 654
bội 654
Trường_Sinh 654
._Ông 653
nội_thất 653
Phổ_@@ 653
ang_@@ 653
Vươn 653
Thượng_Tú_Phương 653
ngăn_ngừa 652
tinh_vi 652
liên_minh 652
thứ_bảy 652
thổ_lộ 652
thói 652
ẩn_hiện 652
sơn_động 652
ngắn_hạn 651
tự_nguyện 651
mạn 651
= 651
điểu 651
bánh_xe 651
chiến_@@ 651
châu_Phi 650
85 650
Mũi 650
Không_khí 650
Đánh 650
nôn 650
thuốc_@@ 650
xẩy 650
duy 650
chầu 650
Mỗ 650
thân_thế 650
tổ_sư 650
chư_vị 650
duyệt 649
thang_máy 649
no@@ 649
vô_song 649
áo_choàng 649
Chớ 649
bần_bật 649
điềm_đạm 649
Giết 649
Tàn 649
Khoan 648
xử_trí 648
phong_bì 648
tướng_lĩnh 648
ác_liệt 648
mạng_lưới 647
dọn_dẹp 647
hoành_hành 647
kiên_cố 647
tại_chức 647
lão_sư 647
Biển 646
điện_thoại_di_động 646
30_triệu 646
nhảy_múa 646
CH 646
dòng_họ 646
như_thường 646
tung_hoành 646
tiếp_ứng 646
nha_môn 646
cổ_tức 645
bi_thương 645
Mạnh_@@ 645
trân 645
Rớt 645
đồng_bọn 645
cam_tâm 645
Bạch_Phong 645
Tú_Tú 645
Tương_Dương 644
quý_giá 644
Định_@@ 644
Trí_@@ 644
may_ra 644
Hỏa_@@ 644
rao 643
88@@ 643
chuyển_nhượng 643
miễn_dịch 643
C_@@ 643
Nét 643
Vy 643
giêng 643
cống 643
Chủ_Nhật 643
Hác 643
Trả_lời 642
du_học_sinh 642
ứng_viên 642
ứng_biến 642
chủ_@@ 642
tống 642
Trường_Giang 642
tử_thi 642
dũng 642
Đại_Trúc_Phong 642
mỹ_lệ 642
/7 641
TR@@ 641
van 641
Sự_thật 641
iện 641
đâm_ra 641
vờ 641
21/11 641
Mới_đây 640
2005 640
bóc 640
ân_cần 640
hết_thảy 640
phú 640
ẵm 640
thiêu_đốt 640
văng_vẳng 640
tùy_tùng 640
trố 640
Hoàng_cung 640
kháng 639
nhân_tạo 639
luật_pháp 639
7913 639
Ký 639
Kỳ_@@ 639
Vatican 639
Lý_Kiến_Thành 639
hải_quân 638
tái_@@ 638
Chẳng_hạn 638
Bắc_Giang 638
tâm_huyết 638
Phục_@@ 638
lay 638
hủy_diệt 638
Võ 638
cực_điểm 638
Ðiền_Bá_Quang 638
Tất_Huyền 638
tốc 637
chải 637
khí_lực 637
bàn_giao 636
VN@@ 636
Trước_mắt 636
sào 636
tha_hồ 636
trượng_phu 636
cứu_viện 636
rễ 635
chủ_quyền 635
hài_cốt 635
rung_chuyển 635
thâm_tâm 635
Tín_Lăng_quân 635
46@@ 634
Bill 634
ô_nhiễm 634
protein 634
dô 634
Quả_thật 634
bộc 634
điềm 634
Richard 634
ngàn_dặm 634
làm_bộ 634
tinh_diệu 634
Lịch 633
website 633
259 633
giá_cả 633
Giúp 633
Nhiên 633
tròng 633
cảm_tưởng 633
đau_thương 633
đắm 633
Hay_là 633
nón 632
ách 632
Danh_@@ 632
Quách_@@ 632
thừng 632
Tây_Tạng 632
56@@ 631
hiếm_hoi 631
đồng_tính 631
sâm 631
cho@@ 631
trọng_lượng 631
Toàn_bộ 631
tuân_lệnh 631
Phù_Kiên 631
bị_cáo 630
72 630
thứ_tự 630
huyên_náo 630
tinh_nhuệ 630
Tướng_quân 630
vành 629
á@@ 629
cạo 629
qui 629
bản_năng 629
Chiến 629
nhung 629
ngắm_nghía 629
Học_bổng 629
vận_mệnh 629
đối_đáp 629
Gaddafi 629
ọ 628
tiêu_@@ 628
ẩn_mình 628
rơm 628
phiền_phức 628
n-@@ 628
lan_can 628
nghĩa_vụ 628
Quảng 628
/11/2011 628
trà_trộn 628
quý_tộc 628
suy_giảm 627
sở_thích 627
Ri@@ 627
2004 627
Âm_nhạc 627
bó_tay 627
đột_kích 627
điển_hình 626
trang_sức 626
ngư_dân 626
Hình_@@ 626
ng_l@@ 626
cá_tính 626
chép_miệng 626
ma_quỷ 626
Mã_phu_nhân 626
Tổng 625
Thượng 625
Tiến_@@ 625
chăm 625
Pa@@ 625
tu_@@ 625
ne 625
Hoa_hậu 625
ủng 625
xếp_hàng 625
thời_giờ 625
tàng 625
bại_trận 625
đàng 625
nhà_sản_xuất 624
đề_án 624
mong_manh 624
Tòa 624
Không_những 624
trả_giá 624
triệu_tập 624
mưa_gió 624
ân_oán 624
thâm_hậu 624
Hậu_@@ 623
mỏi 623
ứ 623
Tự_nhiên 623
é 623
phong_cảnh 623
vì_lẽ 623
xẹt 623
Thái_Cực 623
Nguyệt_Ðàm 623
Long_Dương 623
Cầu_Giấy 622
đút 622
Thức 622
Kiều_@@ 622
Lũ 622
phân_vân 622
Vẻ 622
Hoang_nhân 622
khẻ 622
tiên_tiến 621
lạc_quan 621
lắc_lư 621
dùm 621
Đào_@@ 620
lệch 620
lung_tung 620
Hi 620
7847 620
đùng_đùng 620
phong_lưu 620
hành_thích 620
đem_lòng 620
Vương_Ngọc_Yến 620
thần_tốc 619
Sp@@ 619
định_@@ 619
Phùng 619
trung_cấp 619
Cúc 619
tồi 619
Ngoại_ngữ 619
Bẩy 619
Thiếu_phụ 619
lưu_tâm 618
báo_@@ 618
xăm 618
tứ_kết 618
F 617
Đông_Nam_Á 617
trường_@@ 617
cơ_@@ 617
po@@ 617
nguyên_@@ 617
go@@ 617
Tác_giả 617
9/2 617
rùng_rợn 617
Sấm 617
Tú_Sĩ 617
Sư_huynh 617
dự_trữ 616
máy_ảnh 616
ưu 616
mòn 616
tỷ_số 616
Ấy 616
ăn_xin 616
Khất 616
Ni@@ 615
78@@ 615
đột 615
người_đời 615
of 615
hài_hước 615
giò 615
thân_@@ 615
lộn_xộn 615
ngước_mắt 615
đại_sứ 615
Âm_@@ 615
tranh_giành 615
chuôi 615
Ma_Giáo 615
thái_dương 614
trổ 614
mím 614
tái_hiện 614
Hoành 614
oai_phong 614
oán_hận 614
ngạo 614
sơn_cốc 614
Lãnh_Thiền 614
Hoàng_Phủ_Tinh 614
cân_đối 613
nghi_vấn 613
TT@@ 613
Bỏ 613
giải_độc 613
cầu_cứu 613
xe_khách 613
mỏi_mệt 613
cứu_chữa 613
Cứu 613
hiện_thân 613
Cầu_@@ 613
lánh 613
dằn 613
điện_hạ 613
rải 612
Nhung 612
thím 612
hót 612
63 611
rất_đỗi 611
Ngân_@@ 611
Dịch_@@ 611
Phúc_@@ 611
nhỏ_nhẹ 611
Olympia 611
cuồng_nhiệt 611
mục_trường 611
công_đường 611
nghĩa_khí 611
5,@@ 610
nạc 610
đầu_vào 610
Thiệu_@@ 610
binh_lính 610
từ_tốn 610
dụng_tâm 610
vn 610
lãnh_đạm 610
Lý_huynh 610
h30 609
ka 609
Cẩu 609
Hư_Vô 609
_G@@ 608
Già 608
Đáp 608
người_ngoài 608
Nằm 608
Khả_Ngọc 608
Chữ 607
GTVT 607
Tấn_@@ 607
thực_thi 607
Khắc_@@ 607
Thân_hình 607
Gương_sáng 607
nhắm_nghiền 607
kết_nghĩa 607
ăn_trộm 607
tịch_mịch 607
Lưu_đại_nhân 607
người_người 606
Phạm_Thị_@@ 606
Đồ_@@ 606
áng 606
thừa_kế 606
1/@@ 605
gấp_rút 605
lý_luận 605
thực_vật 605
hắng_giọng 605
máy_@@ 605
sắm 605
chần_chừ 605
48@@ 604
Đại_diện 604
31@@ 604
nhăn_mặt 604
quấy_nhiễu 604
mặc_dầu 604
Hốt 604
môn_đồ 604
quan_quân 604
thoáng_qua 603
ngụ 603
Bởi_thế 603
phòng_thí_nghiệm 603
AIDS 603
Bàn_tay 603
Binh 603
Đôn 603
thượng_phong 603
mươi_lăm 603
Đỗ_Cửu 603
Mối 602
amp 602
kế_tiếp 602
tài_nguyên 602
chực 602
dối 602
Tra 602
st@@ 601
Canh 601
cùng_cực 601
hung_hãn 601
Kinh_Châu 601
chặng 600
già_nua 600
gọn_gàng 600
thành_thử 600
Đại_Minh 600
thủ_lãnh 600
Ða 600
Tiểu_huynh 600
dài_hạn 599
Nghị_định 599
tài_nghệ 599
làn_sóng 599
Địa 599
ế@@ 599
mềm_nhũn 599
ý_tứ 599
Điểm_nóng 599
trực_thăng 599
Cup_Châu_Âu 599
TBN_Tennis 599
1_, 598
Viện_@@ 598
bảo_tồn 598
ngoài_trời 598
bản_@@ 598
cây_@@ 598
ớt 598
ư@@ 598
câu_thơ 598
500,000 598
Tiện_thiếp 598
hợp_pháp 597
KH@@ 597
pp@@ 597
bảo_toàn 597
quấy 597
lìa 597
Tru 597
mỉa_mai 597
rón_rén 597
hung_hiểm 597
Thiên_Thu 597
Thương_mại 596
tổn_thất 596
tức_thì 596
rỉ 596
Hành_động 596
ard 596
trầm_tư 596
c-@@ 596
văn_võ 596
khởi_hành 595
thực_@@ 595
2_@@ 595
nhật 595
ẩu 595
Federer 595
Ðộc 595
trừ_khử 595
Âu_Dương_Phong 595
cung_ứng 594
Lý_do 594
thư_giãn 594
Đôi_khi 594
thế_@@ 594
Tu@@ 594
Kiều_bào 594
binh_lực 594
khuyết 593
2016 593
tiến_triển 593
S_@@ 593
chu@@ 593
Tạ_@@ 593
Túc 593
ớ 593
gật_gù 593
vô_sự 593
tu_viện 593
lắng_tai_nghe 593
quả_nhân 593
Bình_Định 592
hot 592
hoà 592
thú_nhận 592
Hồng_Lan 592
buồn_thảm 592
áo_bào 592
lùm 591
sáng_ngời 591
chóng_mặt 591
thẩm_mỹ 591
Thủ_@@ 591
ưa_thích 591
Tuyết_@@ 591
lớn_tuổi 591
ai_ai 591
hăng_hái 591
tịch 591
lật_đổ 591
Got_Talent 591
giả_dối 591
gian_tặc 591
Thủy_Nguyệt 591
4.@@ 590
Du@@ 590
nhà_vệ_sinh 590
showbiz 590
Trừ 590
thoái_lui 590
Tu_@@ 590
Tý 590
dậm 590
báu 590
hò_hét 590
Tạ_An 590
Câu_hỏi 589
cử_tri 589
ki 589
bất_cập 589
trộn 589
Tình_trạng 589
Hào 589
n_l@@ 589
hiệu_lệnh 589
cao_quý 589
Thị 589
tuyệt_@@ 589
Thường_@@ 589
ngay_ngắn 589
quay_cuồng 589
nam_sinh 589
tranh_đoạt 589
nghênh_đón 589
Trường_Lâm 589
tham_vọng 588
đối_lập 588
62 588
đắc 588
tiểu_đường 588
tử_cung 588
ham_muốn 588
Ngh@@ 588
đề_cử 588
quân_địch 588
Thay 587
phán_đoán 587
đỉnh_cao 587
bịch 587
hóa_chất 587
Go@@ 587
đặc_điểm 587
us 587
ét 587
hung_hăng 587
đại_tá 587
Xem_chừng 587
700 586
miêu_tả 586
Thủ_đô 586
nghiêm_ngặt 586
bại_lộ 586
NH 585
đường_dây 585
khuỷu 585
điên_rồ 585
cuả 585
Thật_là 585
chẳng_mấy_chốc 585
cạm_bẫy 585
ina 584
cửa_lớn 584
đối_@@ 584
Hạt 584
@ 584
dang 584
bổn_phận 584
Trấn_Thành 584
làm_loạn 584
hắt 584
giả_bộ 584
kết_giao 584
Pe@@ 583
chủ_nghĩa 583
ứng_xử 583
Học_@@ 583
ái_@@ 583
mờ_mờ 583
àng 583
Hung 583
Lôi_@@ 583
Hài_nhi 583
vi_@@ 582
chi_nhánh 582
Microsoft 582
FPT 582
đâm_chết 582
đa_tạ 582
châu_báu 582
thiên_tử 582
Teabing 582
Tống_Sư_Đạo 582
giấy_phép 581
Nha_Trang 581
Thừa_@@ 581
đơn_thuần 581
phát_điên 581
tu_sĩ 581
đột_nhập 581
dạy_dỗ 580
Liên_bang 580
xin_phép 580
tự_@@ 580
trật 580
vịnh 580
cư_xử 580
hình_bóng 580
Vọng 580
15/2 580
ướt_đẫm 580
kinh_hoảng 580
đại_pháp 580
Tiểu_Siêu 580
huyền_thoại 579
Hoà 579
Trần_Văn_@@ 579
4,@@ 579
hưởng_thụ 579
Bao_@@ 579
che_kín 579
Món 579
Par@@ 579
thể_xác 579
*_* 579
thần_thánh 579
dẫn_dụ 579
đội_hình 579
hoãn 578
Ngoại_giao 578
Hà_Đông 578
Huyết_@@ 578
hải_@@ 578
loa 578
điềm_tĩnh 578
Liên_Xô 578
sợ_sệt 578
Lý_Lan 578
66 577
đánh_lừa 577
hồn_nhiên 577
Bar@@ 577
chủ_quan 577
nhà_nghiên_cứu 577
bú 577
Xong 577
hỷ 577
ô-@@ 577
thảy 577
thân_pháp 577
mật_thiết 576
Đón 576
thử_hỏi 576
a_] 576
af@@ 575
‘_@@ 575
ca_@@ 575
huyền_bí 575
bừa_bãi 575
mầm 575
Máu 575
Dòng 575
bục 575
vệ_tinh 575
f 575
HCV 575
tan_nát 575
không_tưởng 575
Niên 575
nộ 575
è@@ 574
anh_@@ 574
Thú 574
Chừng 574
Coi 574
thương_hại 574
nhe 574
lo_liệu 574
hậm_hực 574
thần_thông 574
Uyển 574
NDĐT 574
Frankie 574
TP. 573
hình_phạt 573
CP 573
hoàng_kim 573
nguyên_vẹn 573
cắt_giảm 573
Can 573
Liêm 573
tốt_lành 573
nổi_nóng 573
truy_đuổi 573
tàn_bạo 573
xế 573
rảo_bước 573
liên_@@ 572
Bích_@@ 572
Như_@@ 572
xu@@ 572
xúm 572
tổng_kết 571
Phạm_Văn_@@ 571
nồng 571
vấn 571
Hành_Sơn 571
chiến_mã 571
nổi_cơn 571
Lôi_Cửu_Chỉ 571
Bân_Ni 571
thập_@@ 570
khái_niệm 570
Sa@@ 570
biếu 570
Khí 570
uyển_chuyển 570
bằng_được 570
phiền_não 570
Thái_Úy 570
nâng_cấp 569
ngô 569
vững_vàng 569
quy_củ 569
trốn_tránh 569
cổ_thụ 569
Trao 569
Xung_@@ 569
Tuyền 569
Phụng_@@ 569
lộng_lẫy 569
náo 569
hoa_quả 568
BĐS 568
nhiễm_trùng 568
tối_@@ 568
sai_khiến 568
Marianne 568
mợ 568
Tào_@@ 568
ước_hẹn 568
Thiên_Ma_@@ 568
67 567
rắc 567
hợp_@@ 567
gấp_bội 567
uể_oải 567
vô_hạn 567
Minh_Hóa_bơi 567
nẻo 567
quách 567
tâm_phúc 567
Huyền_Tông 567
ồng 566
vắng_mặt 566
điếc 566
sừng_sững 566
2729@@ 566
Tehran 566
trừng_trừng 566
68 565
lưu_hành 565
thể_chất 565
nấu_ăn 565
Chọn 565
thiệt_thòi 565
thất_nghiệp 565
Trường_Sa 565
hóa_trang 565
Tiểu_Quế_Tử 565
tất_@@ 564
TNHH 564
họp_báo 564
vô_tư 564
khả_thi 564
ố 564
viện_phí 564
hiểm_trở 564
liên_quân 564
Ngốc 564
hoan_nghênh 563
Sở_dĩ 563
Đà_@@ 563
El@@ 563
rầu_rĩ 563
nhất_trí 563
vần 563
Bình_Nguyên 563
Hồ_Xung_. 563
mưu_kế 563
Thiên_Kiều 563
thập_niên 562
công_suất 562
Bình_Thuận 562
vật_dụng 562
Dân_@@ 562
neo 562
Hồi_giáo 562
sứ_quán 562
Tiêu_Dao_Tử 562
2.000 561
phá_sản 561
nghiệp_vụ 561
Giao 561
thon 561
Ngủ 561
phồng 561
tiết_mục 561
du_kích 561
Tiêu_Tiêu 561
49@@ 560
danh_mục 560
Sinh_@@ 560
mùi_vị 560
điển 560
dự_liệu 560
016@@ 560
nội_địa 559
trang_web 559
Bệnh_nhân 559
lẫn_lộn 559
tận_lực 559
đồng_đội 559
hoan 559
làm_nhục 559
thằng_cha 559
Thương_Bát 559
tiểu_sư 559
Nguyễn_Nguyễn_@@ 559
chăm_chỉ 558
vật_lý 558
â@@ 558
giải_đáp 558
Top 558
Trường_@@ 558
thoạt 558
trông_nom 558
lộ_diện 558
trùng_trùng 558
hùng_vĩ 557
chào_đón 557
chăng_nữa 557
bao_bọc 557
Nhạc_@@ 557
Chiêu_@@ 557
Tiếu 557
nước_bọt 556
phát_minh 556
chận 556
hàn_quang 556
Mộc_Hợp 556
Thiên_Cơ 556
sụt 555
dự_phòng 555
giãn 555
Kiến_@@ 555
Nam_Định 555
Tri_@@ 555
chế_ngự 555
Bao_giờ 555
cổ_vũ 555
chuộc 555
Phương_Nghị 555
Thúy_Sơn 555
Tây_Bắc 554
Nhân_Nghĩa 554
Thuốc 554
gấp_gáp 554
ục 554
Hành_trình 554
Tất_@@ 554
Hợp_@@ 554
igrave 554
nữ_nhi 554
Juventus 554
sát_nhân 554
trang_nghiêm 554
Lưu_Hắc_Thát 554
Sơn_Trang 554
lõi 553
nhậu 553
độc_nhất 553
sơn_@@ 553
gập 553
mảy_may 553
rời_bỏ 553
hùng_hậu 553
phù_thủy 553
Thanh_Nhã 553
vệ_sĩ 553
kinh_hồn 553
Lạt_Ma 553
Landry 553
Lý_Văn_Tú 553
ký_kết 552
dồi_dào 552
thủy_tinh 552
ke 552
Hy_Lạp 552
tử_@@ 552
ry 552
bạn_hữu 552
ngoại_quốc 552
sách_lược 552
nhúng_tay 552
nãy_giờ 552
siêu_@@ 551
aw@@ 551
kết_@@ 551
mê_hồn 551
thanh_tú 551
Âu_Dương_Thống 551
N_@@ 550
hoàn_chỉnh 550
Tú_@@ 550
bảo_quản 550
Truyền 550
tinh_trùng 550
trách_móc 550
chẳng_ngờ 550
môn_học 550
Hận 550
hang_động 550
Hiền_đệ 550
Côdét 550
Đổi 549
chấp_hành 549
cụt 549
gia_tộc 549
bồn 549
chịu_khó 549
kỳ_thực 549
tức_tối 549
Honda 549
luật_lệ 549
Bồ_Tát 549
im_bặt 549
Ninh_Đạo_Kỳ 549
cống_hiến 548
thiết_thực 548
Ninh_Bình 548
cao_ốc 548
tận_hưởng 548
ói 548
khàn_khàn 548
thua_kém 548
chuyền 548
Pi@@ 548
kính_@@ 548
một_mực 548
vùng_vẫy 548
phút_chốc 548
nội_tình 548
Bổng 548
Cẩn 547
Sông 547
liệt_sĩ 547
Nga_Châu 547
dấu_ấn 546
Sâm 546
tráng 546
búp_bê 546
địa_thế 546
sầm 546
mất_mặt 546
giòng 546
phi_@@ 545
VI@@ 545
Nội_vụ 545
Jo@@ 545
nhiên_liệu 545
khay 545
FC 545
dân_lập 545
Ha 545
nghiêng_mình 545
thuận_tay 545
Võ_Ðương 545
đầu_mối 544
trương 544
đậy 544
thân_yêu 544
rụt_rè 544
Xử 544
lễ_phép 544
khốn_kiếp 544
Garin 544
lạm_dụng 543
tru@@ 543
hoán 543
ong_@@ 543
Thiên_hạ 543
ô_@@ 543
bọt 543
Trẻ 543
lò_sưởi 543
kết_cục 543
nhướng 543
lưỡng_lự 543
thối_tha 543
dứt_điểm 542
đại_lộ 542
vị_thế 542
đốm 542
đặc_trưng 542
duỗi 542
điểm_tâm 542
James 542
tiên_@@ 542
đồng_phục 542
Đầu_@@ 541
tham_lam 541
ảng 541
thí 541
trạng 541
’@@ 541
dò_hỏi 541
Chiến_@@ 541
nhẫn_tâm 541
thương_xót 541
hô_hoán 541
Chúa_@@ 541
cảm_hứng 540
H. 540
ây 540
cách_biệt 540
sàng 540
tùy_ý 540
tú 540
xúc 540
Tay_trái 540
khủng_long 540
Chung_@@ 540
thảm_hại 540
lanh_lảnh 540
trúng_kế 540
thượng_thư 540
5_triệu 539
thay_mặt 539
ler 539
Tụi 539
Nguyễn_Hữu_@@ 539
ly_hôn 539
gợi_cảm 539
nè 539
Dọc 539
ông_ta 539
Trừ_phi 539
đi_đi 539
ống_tay_áo 539
Ài 539
Brazil 538
bích 538
ley 538
Sứ 538
chủ_lực 538
cào 538
đám_tang 538
gào_thét 538
binh_@@ 538
xuồng 538
ngây_ngất 538
nhẩy 538
nương_nương 538
Vũ_Cường 538
Giáo_dục_và_Đào_tạo 537
trợ_cấp 537
tử_nạn 537
giả_mạo 537
ăng@@ 537
báo_hiệu 537
ăng 537
Bất_cứ 537
chì 537
kế_thừa 537
đít 537
lỗ_hổng 537
đốc 537
tuấn_tú 537
thủ_cấp 537
đương_gia 537
pin 536
chi@@ 536
thuốc_mê 536
đánh_đập 536
20/11 536
mặt_biển 536
Chung_kết 536
Ba_Tư 536
nửa_lời 536
thân_thủ 536
„_Hạng 536
trỗi 535
GI@@ 535
Giáo_viên 535
cuốc 535
chết_@@ 535
ăn_thua 535
sinh_linh 535
luân 535
diếm 535
thu_phục 535
Bần_đạo 535
Quản_trị 534
Xét 534
bê 534
der@@ 534
tệ_hại 534
gian_khổ 534
mũi_tên 534
Tổ_quốc 534
bốp 534
Trung_Châu 534
Long_Dương_quân 534
dân_sự 533
phân_công 533
đẩy_lùi 533
bình_phục 533
săn_sóc 533
'@@ 533
Trước_tiên 533
vương_quốc 533
Nữ_@@ 533
cơ_chứ 533
củng 533
Nhà_thơ 533
quanh_co 532
ce 532
Dị 532
kiệt_sức 532
Hoạt 532
khuyết_tật 532
í 532
Canh_@@ 532
ự 532
nguôi 532
tác_chiến 532
Wall 532
dũng_mãnh 532
bịa 532
đồ_uống 531
hàm_lượng 531
phế 531
mặc_kệ 531
dưa 531
bảo_mật 531
mất_mát 531
hờ 531
ngo@@ 531
giải_tán 531
đàn_@@ 531
Diệt 531
sắc_diện 531
Hiệp_định 530
sân_chơi 530
khai_mạc 530
ay_@@ 530
Thượng_Hải 530
Hướng_dẫn 530
Olympic 530
thu_hoạch 530
mạt 530
sự-Ký 530
năm_mươi 530
Tuyệt 530
té_ra 530
soạt 530
Thiên_Âm_Tự 530
Maura 530
Mức 529
/1@@ 529
khuyết_điểm 529
chiên 529
tàn_phá 529
ru 529
háo_hức 529
đất_liền 529
hạm_đội 529
Ðồng_Mỗ 529
5.@@ 528
av@@ 528
đồng_nghĩa 528
TV 528
U_@@ 528
lỗi_lầm 528
Thủy_sinh 528
giám_mục 528
chiêm_ngưỡng 528
7/2 528
Titanic 528
Phổ_Hoằng 528
dị_ứng 527
mải 527
hạc 527
nhỏ_nhắn 527
bàn_ghế 527
Anh_chàng 527
thù_oán 527
phiệt 527
Sư_đệ 527
5_@@ 526
vùng_biển 526
nghị_quyết 526
Khê 526
khôn_tả 526
mê_man 526
Ba_Lan 526
tuyên 526
xảo 526
đại_khái 526
sinh_mệnh 526
riêng_biệt 525
Thay_đổi 525
Ty 525
mới_lạ 525
phân_tán 525
quần_đảo 525
láng_giềng 525
ủa 525
cung_điện 525
THPT_@@ 525
Nhan 525
giáo_huấn 525
Cao_Dương 525
Tào_Ứng_Long 525
Kumiko 525
1_triệu 524
nội_tâm 524
mạnh_dạn 524
Chứ 524
tạp 524
nghĩa_trang 524
thỉnh_cầu 524
diệu_kế 524
Con_mẹ 524
Tạm 523
Xanh 523
dơ 523
mệt_nhọc 523
giáo_@@ 523
khiêu_khích 523
tình_nghĩa 523
phi_trường 523
bền 522
ng_h@@ 522
Vũ_Văn_@@ 522
ú 522
tẩy 522
chúng_con 522
Niềm 522
đồ_sộ 522
kiên_cường 522
Liễu_@@ 522
đỏ_rực 522
giao_tình 522
võ_phục 522
Pippi 522
Q 521
ana 521
Dự_trữ 521
car@@ 521
dân_gian 521
đuối 521
7853 521
bình_minh 521
Chloe 521
Miss_Teen 521
Kính_@@ 521
Trương_Tĩnh_Chi 521
Hồ_Thanh_Ngưu 521
Thu@@ 520
ou@@ 520
chuyển_biến 520
xuất_@@ 520
Hoa_kỳ 520
nôn_nóng 520
khả_nghi 520
Diện 520
Ðào_Phương 520
Vigor 520
vài_ba 519
250 519
khát_vọng 519
trung_thực 519
mạc 519
Mang 519
Nữ_diễn_viên 519
chu 519
chịu_chết 519
tự_phụ 519
Nửa 518
hấp_thụ 518
trông_coi 518
nệm 518
đề_cao 518
thương_@@ 518
khu_tập_thể 518
Mặt_trăng 518
bí_hiểm 518
lý_trí 518
mầy 518
cải_tạo 517
Iraq 517
xâm_hại 517
học_đường 517
bung 517
thực_tập 517
8,@@ 516
Tham_@@ 516
mg 516
thái_@@ 516
năng_động 516
hữu_ích 516
thiếu_thốn 516
hợp_lực 516
Hoàn_cảnh 516
ộ 516
ích_kỷ 516
tối_om 516
bừng_bừng 516
giang_sơn 516
Vương_Phi_Dương 516
cư_sĩ 516
sở_hữu_@@ 515
An_ninh 515
phân_loại 515
gánh_vác 515
Đỉnh 515
lạnh_buốt 515
đanh 515
ngộ_nghĩnh 515
thường_lệ 515
thành_thực 515
trăm_ngàn 515
lẩm_nhẩm 515
hoa_viên 515
lách_cách 515
sân_nhà 514
chat 514
Vu_@@ 514
nghiêm_chỉnh 514
hoành 514
hacker 514
AC_Milan 514
Jesus 514
Chu_Du 514
Hiếu_Thành_vương 514
/4 513
khuôn 513
tượng_trưng 513
Bàn_@@ 513
Cô_giáo 513
ngoại_ô 513
Stephen 513
bướng_bỉnh 513
Lữ_@@ 513
không_kích 513
Giỏi 513
thì_thào 513
kỵ_mã 513
Tài_@@ 512
song_phương 512
vùng_sâu_vùng_xa 512
cứu_giúp 512
trâm 512
khích 512
Dương_Phong 512
a_đ@@ 511
hội_nhập 511
cơ_chế_thị_trường 511
Thuận_@@ 511
7_, 511
Bố_mẹ 511
Lệ_@@ 511
lụt 511
Thời_trang 511
Ðối 511
Nhưng_mà 511
Công_Tôn 511
Thác_Bạt_Khuê 511
Tần_Nhi 511
Am@@ 510
thi@@ 510
Hàm_@@ 510
nguồn_lực 510
bơm 510
phi_mã 510
chè 510
giấy_@@ 510
một_@@ 510
hèn 510
lôi_cuốn 510
thúc_giục 510
Lẽ_ra 510
phản_cảm 510
lương_thiện 510
tra_hỏi 510
ngáp 510
đả_kích 510
lương_thảo 510
Điền_Linh_Nhi 510
Lao_ái 510
kiểm 509
bất_tiện 509
bài_tập 509
cộng_sản 509
thiên_đường 509
người_tình 509
đau_xót 509
ngoảnh 509
chẳng_thể_nào 509
hối 509
cung_tên 509
Nữ_nhân 509
hỏng_bét 509
Lý_Xuân_Hồng 509
hẹn_hò 508
ỏ 508
rán 508
ngứa 508
tỉnh_giấc 508
âm_dương 508
xứ_sở 508
đực 508
11/9 508
Thu_Cúc 508
xưa_kia 508
điềm_nhiên 508
Bèn 508
chuyển_giao 507
mãn_nguyện 507
Lào_Cai 507
bất_trắc 507
Nạp 507
hảo_tâm 507
chuyển_hướng 507
Tà_@@ 507
đèn_@@ 507
bình_phong 507
Bân 507
Không_lẽ 507
vườn_hoa 507
Ngự 507
rắn_độc 507
dới 507
Huyền_Nạn 507
Lịnh 507
điểm_số 506
liên_tưởng 506
79 506
khí_huyết 506
Vệ 506
tắm_rửa 506
thớt 506
òng 506
rồi_đây 506
đính 506
sóng_gió 506
The 505
mp@@ 505
đen_tối 505
la@@ 505
chuốc 505
on_@@ 505
quy_luật 505
ec@@ 505
học_kỳ 505
tòa_án 505
chồn 505
ngượng 505
sa_sầm 505
Tiểu_Thi 505
Chứng 504
đại_lý 504
dạt 504
đổ_bộ 504
chứa_đựng 504
Trà 504
Lý@@ 504
hết_@@ 504
Ðảng 504
nhĩ 503
74 503
phát_ngôn 503
Uất 503
lây_nhiễm 503
khao_khát 503
danh_@@ 503
Afghanistan 503
ân_@@ 503
ghê_rợn 503
Liên_Tuyết_Kiều 503
Samsung 502
Mal@@ 502
cư 502
Chất 502
Mất 502
tá 502
điều_dưỡng 502
Ne@@ 502
Hall 502
Kiến_thức 502
iên 502
cờ_bạc 502
dung_nhan 502
Giáo_hoàng 502
tứ_phía 502
tĩnh_mịch 502
Yvette 502
Ðạo 502
Thiên_Trúc 502
Bạch_Vạn_Kiếm 502
9,@@ 501
ver@@ 501
biên_bản 501
loại_hình 501
Giải_thưởng 501
ạ@@ 501
sảng_khoái 501
thóc 501
vực_thẳm 501
dựng_đứng 501
ly_khai 501
len_lén 501
ko 500
Quân_đội 500
thành_thị 500
da_@@ 500
ực 500
ẹt 500
chập_chờn 500
Cháy 500
đăng_quang 500
khai_huyệt 500
ồ_ạt 499
con@@ 499
thoa 499
mại_dâm 499
đau_buồn 499
lề_đường 499
đờ 499
xẻ 499
rối_bời 499
Mr_Đàm 499
lục_soát 499
thám_thính 499
khốn_nạn 499
Thằng_cha 499
đặt_hàng 498
Tĩnh_@@ 498
chiết 498
khoanh_tay 498
bén 498
tập_@@ 498
tì 498
quán_trọ 498
nghiêm_mật 498
Tây_Vực 498
Lôi_Phi 498
hao 497
kiêu_hãnh 497
Dương_Hải 497
khát_khao 497
người_@@ 497
ngày_lễ 497
BTC 497
Triết 497
chạy_thoát 497
sủng_ái 497
đông_đúc 496
Gọi 496
bình_chọn 496
đạm 496
xem_thường 496
khai_@@ 496
phẳng 496
phòng_ngự 496
Chủ_nhân 496
binh_pháp 496
Tư_Không 496
Ngành 495
du@@ 495
thải 495
12-@@ 495
Lam_@@ 495
lăn_lộn 495
lừng_danh 495
Chùa 495
mờ_mịt 495
Ờ 495
Hạo 495
đình_đám 494
thị_trường_chứng_khoán 494
ngoại_lệ 494
Ít 494
tập_thể_dục 494
thô_lỗ 494
Tránh 494
tái_nhợt 494
ài 494
Tạm_biệt 494
Poirot 494
Đào_Gia_Kỳ 494
Nhi_@@ 493
ara 493
sung 493
1,5 493
ban_@@ 493
internet 493
phòng_bệnh 493
cây_cỏ 493
làm_khó 493
iacute 493
dân_@@ 493
Ban_@@ 493
ngẩng_mặt 493
khấu 493
thủ_thành 493
Bobby 493
Thôn 493
tức_cười 493
„_Thiếu_Long 493
công_thức 492
68@@ 492
lỏng 492
tường_tận 492
nấc 492
bề_mặt 492
sưởi 492
thăm_hỏi 492
vô_cớ 492
chật 492
đồ_@@ 492
rải_rác 492
sớm_muộn 492
2730@@ 492
cũ_kỹ 492
tri_kỷ 492
thạch_động 492
Lưu_Bị 491
Điều_kiện 491
tầng_lớp 491
cải_tiến 491
thể_lực 491
19/11 491
el_@@ 491
cầu_hôn 491
thình_thịch 491
trợ_lý 491
ỉ 491
bà_cụ 491
Do_Thái 491
Chao_ôi 491
ly_kỳ 491
như_tờ 491
truyền_lệnh 491
bịnh 491
hạ_giọng 491
Thời_@@ 490
kinh_đô 490
trái_ngược 490
cá_@@ 490
tác_phong 490
ành 490
ngượng_ngùng 490
níu 490
Cao_đẳng 490
34@@ 490
hàng_ngũ 490
Khai 490
phẫn 490
Trung_Thổ 490
Trang_Tương_vương 490
Thanh_Vân_Sơn 490
kép 489
Hạ_Long 489
ic 489
trong_sạch 489
Ngọc_Anh 489
Hải_quân 489
rền 489
Viết 489
thương_cảm 489
đổ_nát 489
Thuý_Sơn 489
Trư_Cốc 489
điện_@@ 488
thuẫn 488
luộc 488
phì 488
mất_ngủ 488
vòi 488
thiện_cảm 488
Âu_Dương_@@ 488
mơ_mộng 488
xòe 488
thi_sĩ 488
Lạy 488
Phụng_Hoàng 488
Huyền_Hoàng_Giáo_chủ 488
be 487
è 487
đơn_độc 487
Har@@ 487
hội_@@ 487
Chiến_tranh 487
dệt 487
Gu@@ 487
đồng_minh 487
Ánh_sáng 487
hiểm_nghèo 487
ff@@ 487
tiếp_@@ 487
tiếp_đón 487
đền_bù 487
cận 487
liên_hồi 487
PM 487
Hoằng_@@ 487
đèo 487
như_vầy 487
nhộn_nhịp 487
Thứ_Hai 487
quái_lạ 487
Bất_Tà 487
/0@@ 486
Một_vài 486
hụt 486
nguy_kịch 486
khích_lệ 486
nhà_giáo 486
bu 486
tốt_bụng 486
chinh 486
giam_giữ 486
quát_mắng 486
Thượng_Quan_Sách 486
Liên_quan 485
Nguyễn_Đức_@@ 485
dè_dặt 485
khu_phố 485
An_toàn 485
Hội_thảo 485
Phụ 485
kim_@@ 485
la_@@ 485
quang_cảnh 485
scandal 485
Nhạn 485
mật_mã 485
giao_chiến 485
Bổn 485
khía_cạnh 484
Hoàng_gia 484
thường_trực 484
Cha_mẹ 484
ăn_ở 484
khăng_khăng 484
nai 484
Từ_Thiên_Xuyên 484
đa_phần 483
Phụ_huynh 483
nguyên_tử 483
7909 483
Kỷ_@@ 483
Tệ 483
đầy_tớ 483
cười_gượng 483
Mariuyt 483
tổng_thể 482
tho@@ 482
sức_sống 482
báu_vật 482
thê 482
bộ_hạ 482
tuấn_mã 482
đại_huynh 482
niêm_yết 481
phàn_nàn 481
trực_thuộc 481
ương 481
xe@@ 481
gia_súc 481
phiêu_lưu 481
Nhà_Vua 481
của_cải 481
khinh_thường 481
thanh_lâu 481
A_Bích 481
Vin@@ 480
al_@@ 480
thành_hình 480
bắt_nguồn 480
Siêu_@@ 480
Bảng 480
kết_bạn 480
Huyện 480
NG_@@ 480
cất_giấu 480
mướn 480
đê_tiện 480
truy_kích 480
Thiên_Chí 480
hiện_hữu 479
Trao_đổi 479
2003 479
ver 479
Bà_@@ 479
súc_vật 479
Hai_@@ 479
mở_đầu 479
Hấp 479
Phan 479
nước_nhà 479
xui 479
Cực 479
xanh_biếc 479
tuyệt_nhiên 479
Ðông_@@ 479
dã_tâm 479
78 478
minh_@@ 478
địa_hình 478
chiếu_sáng 478
Pháp_@@ 478
biết_ơn 478
Kurt 478
Athena 478
Trân_Ân 478
bỏ_phiếu 477
kéo_theo 477
công_vụ 477
dầu_@@ 477
buồn_ngủ 477
mài 477
Uỷ 477
Diên_@@ 477
nhục_nhã 477
6,@@ 476
Cửa_@@ 476
hoạn_nạn 476
Hải_Dương 476
trắc 476
Sự_thực 476
trở_mặt 476
thẫn_thờ 476
trọng_@@ 476
nạt 476
Xê 476
sĩ_tử 476
tái_hợp 476
kháng_chiến 476
Xem_ra 476
Ki@@ 475
mật_độ 475
ới 475
Cuốn 475
dự_tính 475
chân_dung 475
quẻ 475
Lệnh_@@ 475
náo_loạn 475
thị_phi 474
3/@@ 474
mác 474
bế_tắc 474
đàm 474
ấu 474
tức_thời 474
đề_@@ 474
tiếp_thu 474
êm_ái 474
Ngoan 474
banh 474
uẩn_khúc 474
tuổi_đầu 474
ngạo_mạn 474
Hồn_@@ 474
hậu_viện 474
Thủy_Sanh 474
Tổng_công_ty 473
bệnh_lý 473
am_@@ 473
tài_@@ 473
Cuộc_chiến 473
gù 473
Argentina 473
nồng_nặc 473
Gia_Lai 473
Lê@@ 473
Hoa_Yêu 473
ing 472
Trượng 472
trình_làng 472
lanh 472
pi@@ 472
bẩm_sinh 472
vơi 472
Sơn_Đông 472
ngang_ngược 472
còng 472
phong_thái 472
Bái_Tử_Đình 472
thập_kỷ 471
76 471
ua 471
Dịch_vụ 471
rầm_rộ 471
mặn 471
Thống 471
Nước_mắt 471
phòng_vệ 471
thuộc_lòng 471
khựng 471
12/2 471
nổi_loạn 471
bất_thần 471
toạ 471
quang_minh 471
Tề_Hạo 471
Myanmar 470
47@@ 470
thiên_tài 470
Mor@@ 470
thờ_ơ 470
ngày_ngày 470
chính_đáng 470
diều 470
quán_rượu 470
người_hầu 470
tám_mươi 470
California 469
Dự_thảo 469
58@@ 469
nghiệm 469
ny 469
Băng_@@ 469
lũ_lụt 469
thi_tuyển_sinh 469
trong_trẻo 469
xăng_dầu 468
sh@@ 468
Trái_lại 468
Tuyến 468
ai_ngờ 468
quanh_quẩn 468
đắc_lực 468
Murray 468
dáng_điệu 468
dập_tắt 468
bất_công 468
phù_hộ 468
kế_sách 468
Chúng_mình 468
Năm_xưa 468
chỉnh_tề 468
Vân_Ngọc_Chân 468
Ngô_ứng 468
Chu_Thiên_@@ 468
AM_GMT7@@ 468
Tỷ_lệ 467
ọc 467
khó_coi 467
Man 467
Của 467
bẩy 467
tàn_@@ 467
phục_kích 467
oai_danh 467
Vũ_Văn_huynh 467
Cục_trưởng 466
Hàng_@@ 466
Đàm_@@ 466
vụng_về 466
chiến_binh 466
thẳm 466
to_tướng 466
Quỷ_@@ 466
bẽn_lẽn 466
Lệnh_Hồ_huynh 466
tăng_tốc 465
Nguyệt_@@ 465
nước_biển 465
mặt_khác 465
tinh_binh 465
Man_City 465
khinh_bỉ 465
Tần_Vương 465
chuyên_viên 464
đun 464
độc_hại 464
gian_nan 464
nguyên_do 464
lưu_giữ 464
quàng 464
khảo 464
nhập_@@ 464
mẫn 464
Giả_sử 464
Cu 464
chùng 464
Giao_@@ 464
bốn_bề 464
lục_@@ 464
Tứ_Xuyên 464
300,000 464
Vũ@@ 464
đếm_xỉa 464
ẩn_cư 464
cười_mát 464
99 463
kỳ_hạn 463
Quảng_Trị 463
61 463
sáng_kiến 463
BS 463
Trắng 463
hoạt 463
trạch 463
phục_@@ 463
QU@@ 463
ót 463
cu 463
kình_địch 463
tay_vợt 463
suy_tư 463
nẩy 463
tiện_tay 463
nhiếp 463
tích_hợp 462
xuất_xứ 462
Lực 462
71 462
chứng_cứ 462
đa_@@ 462
iêu 462
cứu_vãn 462
nghĩa_@@ 462
dưới_trướng 462
Ô_gia 462
tàn_khốc 461
nhầm_lẫn 461
tiềm_ẩn 461
ôn_hòa 461
bơ 461
yêu_đương 461
ê_@@ 461
quyết_đoán 461
biên_chế 461
vạn_@@ 461
Tội_nghiệp 461
tâm_nguyện 461
con_nít 461
Harvey 461
phò_mã 461
thiền_trượng 461
69 460
201@@ 460
Nhân_viên 460
ẩn_chứa 460
Đốt 460
dạo_chơi 460
cơ_sở_vật_chất 460
yên_trí 460
kỵ_sĩ 460
77 459
q@@ 459
tiền_đạo 459
tủ_lạnh 459
Yến_@@ 459
Quy_@@ 459
bẩn_thỉu 459
dơi 459
thể_diện 459
Andrei 459
bĩu 459
cười_vang 459
Thiên_Thiên 459
Ủa 459
Tiên_Tử 459
Tư_Thừa 459
Nga_@@ 458
nhược_điểm 458
az@@ 458
kiểm_định 458
chuộng 458
Bối 458
Hắc_Bạch_Tử 458
tân_khách 458
Thanh_y 458
vượt_trội 457
trọng_tâm 457
dấy 457
lân_cận 457
UNICEF 457
M_@@ 457
Madrid 457
Xà 457
bình_đẳng 457
tự_ái 457
Tranh 457
thế_thì 457
Bệ_hạ 457
Ngữ_Yên 457
đặc_thù 456
Tuyên_@@ 456
xài 456
Quang_Minh 456
triển_vọng 456
rau_@@ 456
cọ 456
tiến_thoái 456
ỵ 456
ình 456
ổi 456
cố_vấn 456
Tửu 456
xúc_xắc 456
phong_thư 456
bách_tính 456
bắt_nạt 455
cơ@@ 455
thuỷ 455
tái_phát 455
găm 455
ập_@@ 455
Chim 455
cả_thảy 455
sơ_ý 455
nhún 455
hội_họp 455
thất_lễ 455
Ngụy_@@ 455
Ngao_Bái 455
Quy_định 454
suy_yếu 454
III 454
mắt_xanh 454
quang_@@ 454
4_@@ 454
tốn_kém 454
nhấp 454
phấn_khích 454
ba_mẹ 454
thần_@@ 454
say_xỉn 454
dép 454
du_@@ 454
đợi_chờ 454
thu_dọn 454
tính_nết 454
vang_vọng 454
Tuyết_Sơn 454
Phùng_Tích 454
Tiểu_sư 454
Tôn_Quyền 453
vô_nghĩa 453
Tô@@ 453
ngại_ngùng 453
hương_vị 453
thức_giấc 453
thành_quả 453
biếc 453
cử_nhân 453
Thuyết 453
Kình 453
lung_linh 453
sơ_mi 453
hình_thù 453
Phệ 453
304 452
Trưởng_phòng 452
khốc_liệt 452
cảm_@@ 452
họa_sĩ 452
nguyên_khí 452
nghi_lễ 452
môi_giới 451
Rồng 451
03@@ 451
ám_chỉ 451
Ảnh_@@ 451
Bán 451
ba_lô 451
cúc 451
ình_@@ 451
đáng_lẽ 451
tài_ba 451
Cẩm_nang 451
danh_vọng 451
Giáo_@@ 451
nói_nhăng 451
thập_phần 451
Angielic 451
Nghi_Hòa 451
Ngô_Chi_Vinh 451
kim_ngạch 450
6-@@ 450
tưới 450
Hãng 450
trọng_trách 450
calo 450
sao_@@ 450
chi_phối 450
tận_tâm 450
hãn 450
hoa_hậu 450
Ju@@ 450
vạ 450
đằng_hắng 450
Phương_Chứng 450
Quan_Tam_Thắng 450
Quỳnh_@@ 449
tư_@@ 449
khắc_nghiệt 449
đặc_@@ 449
xung_@@ 449
phá_tan 449
cồn 449
đái 449
les 449
nhắn_tin 449
Ca@@ 449
làm_bạn 449
hồng_@@ 449
qui_@@ 449
nghị_lực 449
7911 449
23/12 449
vừa_ý 449
ê-@@ 449
hãi 449
tiểu_nữ 449
cẩn_trọng 448
lo_nghĩ 448
thật_thà 448
nghẹt_thở 448
cholesterol 448
mát_mẻ 448
co_@@ 448
sáng_chế 448
Phân 448
file 448
chòm 448
sấm_sét 448
Cao_Phong 448
Sato 448
súc_sinh 448
1975 447
khuôn_viên 447
73 447
online 447
Cuộc_đời 447
diêm 447
phân_tâm 447
vào_cuộc 447
ràng_buộc 447
Tình_thế 447
IAEA 447
Part 447
xa_xăm 447
tề 447
bất_tuyệt 447
ngạnh 447
Hàn_Sấm 447
GDP 446
Toàn_@@ 446
thân_cận 446
Per@@ 446
phiên_tòa 446
Tóm_lại 446
mở_đường 446
Đăng_@@ 446
lười 446
cà 446
xì 446
bùa 446
Nokia 446
công_nhiên 446
Dịch_Lam 446
97@@ 445
xào 445
Thay_vì 445
ỉ@@ 445
Việt_kiều 445
thiên_tai 445
ơng 445
hùng_mạnh 445
triết_lý 445
Tin_tức 445
lỗ_mãng 445
Xuống 445
dòm_ngó 445
Đạo_Phúc 445
huy_hoàng 444
bức_xạ 444
góp_ý 444
mía 444
chân_thật 444
giải_tỏa 444
nghịch_ngợm 444
phăng 444
lên_án 444
Bangkok 444
lạnh_ngắt 444
liều_lĩnh 444
ngông_cuồng 444
boong 444
hoang_vu 444
Lena 444
ngàn_vạn 444
Nam_Bút 444
Sanh_Xuân 444
Lục_Bất_hòa_thượng 444
vô_ý 443
chơi_đùa 443
trưng_bày 443
đờ_đẫn 443
sự_vật 443
Her@@ 443
gắng 443
tiếp_đãi 443
mỏng_manh 443
ugrave 443
xe_lăn 443
chân_tình 443
Bình_An 443
Mourinho 443
chôn_cất 443
Trần_Thủ_Độ 443
Hoàng_Dược_Sư 443
Hướng_@@ 442
nhân_dịp 442
loay_hoay 442
inh 442
Cà_Mau 442
xõa 442
uốn 442
bửa 442
Khẩu 442
nhứt 442
ʺ@@ 442
59@@ 441
Mục_đích 441
Sử_dụng 441
Ngoại_@@ 441
ạt 441
hột 441
Khai_@@ 441
huy_chương 441
mặt_trăng 441
Trần_Quốc_Tuấn 441
nhọc 441
say_đắm 441
réo 441
tan_tành 441
Ðệ_tử 441
tiêu_sái 441
ati@@ 440
Sơn_Tây 440
biển_cả 440
lớn_mạnh 440
900 440
béo_phì 440
36,@@ 440
phao 440
Cầu_thủ 440
Hiến 440
hớp 440
of_Me 440
ban_nãy 440
Ðình_Phương 440
Thiến 440
Vịnh 439
82 439
rèn 439
công_trường 439
bàng 439
chích 439
kỳ_thị 439
mục_@@ 439
chật_hẹp 439
trừng_trị 439
Mỹ_Dung 439
Vật 439
ổn_thỏa 439
tiên_liệu 439
Thôi_@@ 439
võ_sư 439
biết_chừng 439
Ðáng 439
27309@@ 439
Loren 439
Tống_Phàm_Bình 439
lưu_trữ 438
do_vậy 438
bằng_@@ 438
véo 438
chớp_nhoáng 438
Hộ 438
bộ_binh 438
Nhật_ký 438
bay_bổng 438
chủ_chốt 437
dỡ 437
ca_hát 437
động_mạch 437
hấp_thu 437
ẩm_ướt 437
chanh 437
mãn 437
Vòng 437
hẻo_lánh 437
Thái_độ 437
Nùng 437
Ford 437
Vietnam's 437
van_xin 437
lầy 437
bay_lượn 437
thâm_trầm 437
tiên_tử 437
Tẩu 437
chăm_lo 436
10.000 436
nhà_ở 436
nhà_trọ 436
xương_sống 436
chừa 436
đu 436
vinh_quang 436
vàng_@@ 436
ắng 436
liên_can 436
nguyền_rủa 436
diễn_tả 436
Triều_@@ 436
Lê_Văn_Luyện 436
tái_ngộ 436
bâng_khuâng 436
Ðông_Phương_Bất_Bại 436
Truật 436
hữu_thủ 436
Hà_Vỹ 436
Đại_hội 435
trọng_điểm 435
tàn_phế 435
nguội 435
tự_dưng 435
tà_@@ 435
cút 435
tra_tấn 435
Ebola 435
cao_tốc 435
then 435
bạo 435
che_khuất 435
cảm_khái 435
phản_nghịch 435
Đại_Giang 435
Reuters 434
Kiểm_tra 434
lập_trường 434
bầm 434
Khó 434
tàu_ngầm 434
7919 434
7855 434
khó_nhọc 434
vâng_dạ 434
Dụ 434
tương_trợ 434
qua_mặt 434
căm_ghét 434
tối_sầm 434
nội_thể 434
Thông_Thiên_Phong 434
Tĩnh_Chi 434
thư_thư 434
giấu_giếm 433
Toyota 433
mí 433
Phương_pháp 433
bả_vai 433
cuống 433
Tăng_@@ 433
19/2 433
Hoàng_tử 433
Lầu 433
Hóa_ra 433
Ngọc_Đường 433
Thiên_Sơn 433
khẳng_khái 433
thừa_thế 433
6.@@ 432
phẩm_chất 432
Kết 432
ương_@@ 432
lan_truyền 432
Trúc_@@ 432
Diệu_@@ 432
dằn_mặt 432
trêu_chọc 432
quấy_rầy 432
Thiện_@@ 432
linh_mục 432
loang_loáng 432
biến_hoá 432
bộ_trưởng 431
T.@@ 431
Tòa_án 431
Tokyo 431
TT 431
chứng_bệnh 431
BV 431
vóc_dáng 431
1000 431
rốt 431
chìm_đắm 431
ất 431
án_@@ 431
thoảng 431
táo_bạo 431
đánh_rơi 431
văn_nghệ 431
chúng_sinh 431
Liên_Châu 431
uổng_mạng 431
nhân_tố 430
khiếu_nại 430
cùng_với 430
tiền_@@ 430
khoai 430
động_thái 430
Tiền_@@ 430
loãng 430
thẫm 430
Nghệ_sĩ 430
cao_cả 430
lí 430
Ngoại_trừ 430
Đào_tạo 430
bán_kết 430
bí_thư 430
hào_khí 430
Biết_đâu 430
Lãng 430
Tông_@@ 430
khuyên_giải 430
Doãn_Hạ_Mạt 430
Phần_lớn 429
ro 429
cổ_điển 429
Tử@@ 429
ngáy 429
xó 429
La@@ 429
nghi_thức 429
quyền_thế 429
Girls_Aloud 429
đùa_giỡn 429
Đình_Phương 429
Vương_Tông 429
Triệu_Chi 429
Ba@@ 428
Ninh_Thuận 428
phụ_@@ 428
Anh_@@ 428
ấn_@@ 428
Chợ 428
Xuyên_@@ 428
họa_@@ 428
hằn 428
Ru@@ 428
biểu_thị 428
dính_líu 428
6/2 428
Chiếu 428
điên_khùng 428
Trần_Hải 428
cáo_biệt 428
CEO 427
cố_định 427
thập 427
bù_đắp 427
Báo_chí 427
tuyển_chọn 427
Kết_luận 427
Khác 427
bệnh_tình 427
dịch_chuyển 427
quẳng 427
ruồi 427
gom 427
Nổ 427
ã 427
Thập 427
lên_lớp 427
La_Mã 427
quý_phái 427
Falko_Goetz 427
tây_bắc 427
xử_tử 427
trận_thế 427
Lý_Tú_Ninh 427
Thông_tư 426
tích_lũy 426
ranh 426
cư_trú 426
Mưu 426
động_kinh 426
Thực_@@ 426
chứng_thực 426
cặp_đôi 426
Te@@ 426
huyền_ảo 426
Thoa 426
nhân_chứng 426
Làng 426
tính_khí 426
tôn_vinh 426
quẹo 426
kỹ_nữ 426
Lưu_huynh 426
Vấn_Thiên 426
Ma_môn 426
Bần_tăng 426
Xung_Hư 426
Thảo_@@ 425
110 425
thành_đạt 425
Xuất_@@ 425
hồi_tưởng 425
rụi 425
Thực 425
thìa 425
đương_đầu 425
Nhai 425
nom 425
chúng_em 425
kỳ_quặc 425
hờ_hững 425
bệ 425
xao_xuyến 425
làm_phản 425
Vấn_Thiên_@@ 425
Phí_Công 425
23.@@ 424
hoàng_gia 424
5-@@ 424
phiền_muộn 424
hoành_tráng 424
thực_trạng 424
cấy 424
Man@@ 424
Sh@@ 424
Tóc 424
lên_@@ 424
sinh_đôi 424
chủng 424
quanh_năm 424
cúp 424
nhí 424
cọc 424
trấn_áp 424
bịa_đặt 424
dây_thanh_quản 424
phát_tài 424
Đại_Việt 424
Hỏa 424
thu_hẹp 423
hết_mình 423
92 423
11-@@ 423
quân_nhân 423
ưu_điểm 423
tê_liệt 423
đường_nét 423
vẩy 423
Ạ@@ 423
đều_đều 423
vứt_bỏ 423
hân_hạnh 423
thạc_sĩ 423
Mở 423
nước_da 423
cửa_ải 423
viếng 423
rặng 423
cảnh_sắc 423
Roma 423
phú_quý 423
áp_giải 423
hơi_sức 423
Chung_Ly 423
Đinh_Xuân_Thu 423
đáo 422
Ư@@ 422
đắn_đo 422
Ấ@@ 422
chùi 422
thế_trận 422
A1 422
sắc_@@ 422
Huống_hồ 422
vơ 422
làm_lễ 422
Mãn_Châu 422
Justin 422
Kohler 422
tâm_địa 422
Phụng_Tường 422
Ngọc_Chân 422
Đạo_Nhân 422
Dương_Quảng 422
xi 421
gần_như 421
Ninh_@@ 421
nhiệt_huyết 421
gia_vị 421
e_dè 421
ề 421
đèn_đuốc 421
Nhiếp 421
Địch_nhân 421
niên_hiệu 421
ngu_huynh 421
ngành_nghề 420
sách_giáo_khoa 420
độc_quyền 420
tiếc_nuối 420
ly@@ 420
vôi 420
nấu_nướng 420
Tuần_lễ 420
Chấn_@@ 420
Áo 420
hãi_hùng 420
tận_cùng 420
Một_mình 420
Thao 420
bi_thảm 420
Nam_Cương 420
nhấp_nháy 420
Thiêu 420
dữ_tợn 420
Tề_@@ 420
cười_gằn 420
Bắc_Phủ_binh 420
Đô_@@ 419
Lớp 419
Kho@@ 419
cứu_hộ 419
thoi 419
Hổ_@@ 419
phụng_mệnh 419
đêu 419
thở_hắt 419
Thông_Huệ 419
2014 418
,@@ 418
tấp_nập 418
ent@@ 418
túi_xách 418
Mạch 418
múc 418
hình_tượng 418
chua_xót 418
Ms@@ 418
hối_lộ 418
Quyển 418
Trước_nay 418
Nil 418
vèo 418
Bạt_Khuê 418
thượng_tướng_quân 418
Âu_Dương 418
Diễn 417
Phan_Thiết 417
bộ_môn 417
giao_diện 417
to_@@ 417
cao_độ 417
vĩ 417
ạ_@@ 417
Cơ@@ 417
đồng_cỏ 417
cổ_đại 417
ăn_mừng 417
khổ_tâm 417
Eleanor 417
Chùm 417
bèo 417
Đô_đốc 417
điên_đảo 417
Hoàng_Đế 417
Ðầu 417
Ðồ 417
uy_phong 417
Thương_Hải 417
Mẹ_kiếp 417
Chu_Chỉ 417
đảm_nhiệm 416
hạng_mục 416
City 416
ú@@ 416
viễn_thông 416
Xuất_hiện 416
nước_tiểu 416
cưa 416
mồ 416
gò_má 416
/2011 416
Hoàng_Hà 416
thẩm_vấn 416
đánh_cá 416
suy_tính 416
xướng 416
rầm 416
ngớ 416
bừng_tỉnh 416
trủy_thủ 416
vị_tất 416
như_bay 416
Tiết_@@ 415
Du_lịch 415
triều_đại 415
quý_báu 415
sống_động 415
Trâm 415
tình_thương 415
Thư_viện 415
khởi_nghĩa 415
Thanh_Tuyền 415
Trăng 415
thân_tín 415
rối_rít 415
yêu_kiều 415
cười_@@ 415
chư 415
trủy 415
thiếu_hụt 414
giúp_sức 414
à@@ 414
sinh_sản 414
_lực 414
chết_chóc 414
tuần_tra 414
từ_chức 414
đừng_hòng 414
bênh_vực 414
là_lạ 414
tôn_sư 414
phát_xuất 414
thâm_nhập 413
dịch_bệnh 413
run_sợ 413
ạch 413
xo@@ 413
um 413
huynh_trưởng 413
địa_lý 413
ù@@ 413
đồng_bằng 413
Mua 413
điệp 413
Mão 413
ngây_người 413
Ct 413
giảo_hoạt 413
phò 413
Thiên_Thiên_@@ 413
Lý_đệ 413
Lực_lượng 412
khởi_công 412
Thụy_Sĩ 412
lập_@@ 412
tinh_xảo 412
Viêm 412
gắng_sức 412
chuẩn_xác 412
xỏ 412
Danh 412
xếp_bằng 412
Lạng_Sơn 412
đốn 412
ào_ạt 412
Chơi_Lễ 412
linh_@@ 412
thù_hận 412
Tổng_đà 412
đại_sư_huynh 412
oOo 412
01@@ 411
chuyên_@@ 411
ỡ 411
Thời_tiết 411
mạng_@@ 411
Cor@@ 411
Ngày_xưa 411
Cup 411
trấn_an 411
/8 411
truy_tìm 411
bỏ_hoang 411
định_đoạt 411
hành_hung 411
tắt_thở 411
đạo_quân 411
công_sai 411
trấn_thủ 411
giảm_thiểu 410
96 410
6_@@ 410
kháng_sinh 410
động_@@ 410
trao_tặng 410
Gar@@ 410
thực_tại 410
thỏa_đáng 410
khô_khan 410
giao_thừa 410
cùng_@@ 410
phu_quân 410
Liverpool 410
Khắc 410
yên_@@ 410
Gì 410
thiên_địa 410
Côn_Luân 410
Luật_sư 409
Công_Thương 409
US@@ 409
ấ@@ 409
hữu_hiệu 409
bắp 409
đảo_lộn 409
hủy_hoại 409
ate 409
không_dứt 409
tru 409
cài_đặt 409
Nụ_cười 409
dù_cho 409
lưng_chừng 409
9/1 409
Hồng_Ngọc_Celine_Dion 409
Oa 409
lịnh 409
Tiểu_Thúy 409
nới 408
Chia_sẻ 408
Cựu 408
Hẳn 408
N.@@ 408
che_đậy 408
Nhanh 408
cầm_cự 408
3/2 408
Cộng_sản 408
đại_bác 408
mười_@@ 408
tế_nhị 408
vẳng 408
Hồ_Xung_cười 408
giáo_đồ 408
Triệu_Mẫn 408
hấp 407
P_@@ 407
gen 407
Dựa 407
be@@ 407
mách 407
thư_thái 407
àm 407
FIFA 407
loạn_xạ 407
căm_thù 407
thoá_mạ 407
Yên_Nhiên 407
trá 406
mong_ước 406
tự_lập 406
4-@@ 406
côn_trùng 406
83 406
chính_quy 406
chào_đời 406
giẫm 406
nhược 406
gượng_gạo 406
xâm_lược 406
Djokovic 406
chạm_trán 406
tức_mình 406
Kissinger 406
Đỗ_Tất_Thư 406
đi_@@ 405
An_Khánh 405
57@@ 405
Máy 405
Bi@@ 405
ber@@ 405
Đạm 405
kẽm 405
bộ_@@ 405
sinh_dục 405
tứ_chi 405
sặc_sỡ 405
nện 405
ers 405
bọ 405
cửa_kính 405
nhếch 405
đặc_sắc 405
bản_sao 405
phụ_cận 405
nhà_nghỉ 405
26/12 405
cầm_quyền 405
Tịnh 405
cử_hành 405
Giăng 405
nỏ 405
Trúc_Anh 405
khấu_đầu 405
phất_trần 405
Gia_Bang 405
Rôlinh 405
Ngộ_Xuân 405
Pakistan 404
e-@@ 404
hàng_hoá 404
Vinamilk 404
tự_vệ 404
_tử 404
lờ 404
mấu_chốt 404
Thuý 404
bặt_tin 404
sự_vụ 404
om_sòm 404
trai_gái 404
ca_tụng 404
vồ 404
Campuchia 403
mã_số 403
đơn_@@ 403
land 403
2/@@ 403
Mon@@ 403
So_sánh 403
Pro@@ 403
Ả@@ 403
Bangladesh 403
kim_tự_tháp 403
mặt_trận 403
sinh_động 403
mong_mỏi 403
chữ_ký 403
Phiên_@@ 403
Ra_mắt 403
Hỏa_hoạn 403
Truy_tìm 403
chính_diện 403
Mãn 403
Môn_@@ 403
hồn_vía 403
Hương_Ngọc_Sơn 403
râu_bạc 403
Tiểu_nữ 403
vướng_mắc 402
VN30 402
._Giá 402
Đà_Lạt 402
Tích_@@ 402
làm_giàu 402
lột_xác 402
thiệp 402
H.@@ 402
nâng_đỡ 402
đầu_bếp 402
ton_@@ 402
quay_phim 402
tròn_xoe 402
ôn_tập 402
Vân_Canh 402
Quang_Liêm 402
nhà_quê 402
dí 402
bóng_ma 402
bảo_trọng 402
Chẳng_mấy_chốc 402
un 401
84 401
SJC 401
oz 401
ạc 401
đánh_máy 401
im_lìm 401
Phân_@@ 401
bệnh_@@ 401
ca@@ 401
gắp 401
ell 401
ọ@@ 401
bản_thảo 401
uacute 401
Quỳ 401
Â@@ 401
ó 401
nhàn_nhã 401
kiều_diễm 401
bồi_hồi 401
Nixon 401
nhỏm 401
Giả_như 401
Hoa_Hoa 401
Ngọc_Đỉnh 401
hội_chứng 400
quốc_lộ 400
Khánh_Hòa 400
tột_cùng 400
Bạc 400
Sức 400
lùa 400
khẩn 400
bình_ổn 400
oi 400
giắt 400
giản 400
tham_@@ 400
QH 400
tức_khắc 400
hự 400
yểu_điệu 400
ròng_ròng 400
tù_binh 400
động_dung 400
Trần_Viên_Viên 400
Thiên_Ðịa_Hội 400
Thiệu_Đông_Tử 400
lô@@ 399
như_@@ 399
di_truyền 399
Cách_mạng 399
tai_hại 399
đố 399
Kar@@ 399
Kim_Dung 399
Bửu_Châu 399
Yo@@ 399
linh_cảm 399
nữ_lang 399
nghị_luận 399
Tuyệt_@@ 399
bất_tận 399
tuồng 399
Phấn 399
đương_thời 399
chua_chát 399
thánh_thượng 399
Thiếu_Long_@@ 399
ngườI 399
VC@@ 398
mệnh_danh 398
Harvard 398
sắn 398
dy 398
bỏ_mạng 398
đau_nhức 398
Hưng_Yên 398
hồng_hào 398
đâu_đâu 398
thấu_hiểu 398
7903 398
Vẻ_mặt 398
suy_ngẫm 398
có_điều 398
Al 398
cốp 398
Khổng 398
quí_vị 398
Hồi_lâu 398
7.@@ 397
Sản_phẩm 397
Tạo 397
Ku@@ 397
1-@@ 397
thể_dục 397
Biểu 397
nước_ngọt 397
con_nuôi 397
Nguyễn 397
lốp 397
Trụ 397
chạy_@@ 397
nhoáng 397
Phương_trượng 397
ngừi 397
Vương_Ngữ_Yên 397
ắc 396
chiến_hạm 396
hiện_hành 396
0.000 396
Vượng 396
tiện_lợi 396
khuẩn 396
un@@ 396
đấu_trường 396
hối_tiếc 396
cơ_bắp 396
phần_thưởng 396
Cộng_đồng 396
Mc@@ 396
ghê_tởm 396
ngăn_cách 396
Nghiệp 396
ít_lâu 396
trìu_mến 396
nhà_thầu 396
cướp_bóc 396
Hát 396
Bính 396
phanh 396
hoang_đường 396
Lisa 396
Vương_phủ 396
Khất_Ðan 396
._Về 395
200@@ 395
Hoá 395
hàng_@@ 395
nhói 395
Công_tác 395
ăn_chơi 395
Texas 395
gầy_gò 395
khôn_xiết 395
ah 395
thi_tuyển 395
trần_gian 395
một_lượt 395
cố_thủ 395
Dante 395
bắt_sống 395
chẳng_trách 395
Biên_Hoang 395
Nam_Song_Hiệp 395
Hài_tử 395
Khán_Như 395
Vô_Sắc 395
ệ 394
thầu 394
/2009 394
es_@@ 394
vạn_vật 394
trì_hoãn 394
ngừa 394
or 394
mon@@ 394
Vệ_@@ 394
di_tích 394
tiến_công 394
Hoả 394
khấn 394
từ_giã 394
thành_hôn 394
hốt 394
bá_đạo 394
xương_cốt 394
Dương_Nghiệp 394
hiền_muội 394
Vô_Tình 394
cáo_buộc 393
suy_thoái 393
chán_ghét 393
thị_@@ 393
cơ_nghiệp 393
trung_gian 393
ời 393
tuỳ 393
thoang_thoảng 393
ngu@@ 393
sắc_sảo 393
Hóa_học 393
núi_non 393
chằm_chặp 393
ăm 392
Yêu_cầu 392
giàn 392
ngạo_nghễ 392
gia_cầm 392
Trị 392
buồn_phiền 392
Nghệ_@@ 392
lạnh_giá 392
thứ_Ba 392
đặc_tính 392
buồn_bực 392
Diễm_@@ 392
lảng 392
nghiên 392
chật_vật 392
xảo_quyệt 392
moi 392
đượm 392
kỳ_ảo 392
bình_nguyên 392
Nhị_Cổ 392
Tiểu_Hương 392
khuôn_khổ 391
Phiến 391
Mark 391
sáng_sủa 391
hao_tổn 391
ranh_giới 391
úc 391
ngần 391
du_ngoạn 391
chân_lý 391
thanh_thản 391
đền_đáp 391
rình 391
quân_lính 391
đích_xác 391
điều_tức 391
Bất_Đồng 391
điều_lệ 390
Nội_dung 390
101 390
Nghiêm_@@ 390
Mục_tiêu 390
Thụy 390
Dựng 390
thực_tình 390
rết 390
Gian 390
Robert 390
Olivia 390
lốc 390
đụng_chạm 390
dụ_dỗ 390
thiết_tha 390
đáng_giá 390
két 390
Thanh_Lan 390
tiến_cử 390
vi_diệu 390
gián_điệp 389
Phát_@@ 389
định_kỳ 389
Đồng_Tháp 389
tương_tác 389
Phụ_@@ 389
hòa_hợp 389
xôi 389
cá@@ 389
bởi_vậy 389
giường_bệnh 389
trang_trọng 389
Cửu_Long 389
thân_mến 389
Năm_học 389
hiếp 389
vù 389
thương_tiếc 389
do_thám 389
uyển 389
Quý_Phi 389
nghĩa_hiệp 389
quỷ_quái 389
bỉ_nhân 389
Tam_điểm 389
Điền_Bất_Dịch 389
tù_và 388
xua_đuổi 388
ngậm_ngùi 388
Nguyễn_Ngọc_@@ 388
úi 388
Mùa_đông 388
cẳng 388
Như_Hải 388
Không_@@ 388
Quang_Trung 388
toàn_quân 388
thẹn_thùng 388
lý_lẽ 388
tư_chất 388
hãnh_diện 388
dẫm 388
quan_lại 388
quạ 388
Nhiếp_Thiên_Hoàn 388
Khai_Sơn 388
Khấu_Trọng_thầm 388
Tỉ_Vương 388
Căn_cứ 387
1990 387
tình_tiết 387
5.000 387
học_giả 387
Trưa 387
cải_@@ 387
cấp_độ 387
công_hiệu 387
băng_@@ 387
ưỡn 387
bát_@@ 387
học_vấn 387
ái_ngại 387
chen_chúc 387
nương_tựa 387
khoe_khoang 387
ngùn_ngụt 387
gầm_gừ 387
nhếch_mép 387
tình_ý 387
bánh_bao 387
đàn_bà_con 387
Park 386
,5 386
Thông_thường 386
sang_@@ 386
thiếu_sót 386
cô@@ 386
ol 386
Ver@@ 386
pháp_@@ 386
tuổi_thơ 386
vớ_vẩn 386
trổ_tài 386
ên 386
quét_sạch 386
Làm_@@ 386
Toàn_thân 386
Ngọ 386
19-8 386
11/1 386
Huệ_@@ 386
Tát 386
lục_tục 386
dập_đầu 386
thành_thân 386
quyết_ý 386
động_thủ 386
he@@ 385
Cầm_@@ 385
mỹ_phẩm 385
danh_tính 385
gu@@ 385
Toán_học 385
túy 385
bất_thình_lình 385
Trực 385
Y_Dược 385
Trái_tim 385
trầm_tĩnh 385
phái_đẹp 385
trọng_dụng 385
Nhân_vật 385
bấy_lâu 385
nhỡ 385
30/12 385
làm_trò 385
Tư_Mã_@@ 385
Sáng_mai 385
tính_mệnh 385
đại_loạn 385
Mộ_Dung_@@ 385
đĩnh 385
Thần_Kỳ 385
Tích_Hương 385
Bất_Hoán 385
cấp_@@ 384
2-@@ 384
bảo_trì 384
lâu_đời 384
ngốc_nghếch 384
ngắn_gọn 384
tự_tiện 384
đổ_dồn 384
ẩn_náu 384
Chi_cục 384
VPF 384
trinh_sát 384
Thiên_. 384
bá_tánh 384
-_Dạ_dạ 384
Thành_Cát 384
A_di_đà 384
số_một 383
đồ_dùng 383
hiện_thời 383
biện 383
ner 383
Giảo 383
Cấm 383
nhượng_bộ 383
Hồ@@ 383
Camry 383
Tây_phương 383
phương_vị 383
hình_thế 383
Đại_Hoàng 383
Đạt_Chí 383
bụng_dạ 383
Thánh_thượng 383
Đinh_Điển 383
Tuấn_@@ 382
khai_trương 382
Mây 382
nồng_nhiệt 382
dây_chuyền 382
mui 382
Vận_tải 382
tụ_họp 382
cột_sống 382
Hai_mươi 382
ết 382
mỏm 382
rỗng 382
vạm_vỡ 382
tỵ 382
ẳng 382
bãi_cỏ 382
con_voi 382
đèn_lồng 382
dối_trá 382
khoé 382
hằn_học 382
phất_phơ 382
Hélène 382
đăm_chiêu 382
hắng_dặng 382
Ðịnh_Tĩnh_sư 382
bán_@@ 381
kiên_định 381
chất_liệu 381
St 381
buồn_nôn 381
nồng_độ 381
_thủ 381
Lá 381
giã 381
vớt 381
Mễ 381
sứ_mệnh 381
ngòi 381
nhật_ký 381
Đem 381
thiêng 381
ngưng_tụ 381
mer@@ 381
ùn_ùn 381
rừng_núi 381
danh_nghĩa 381
ngang_hàng 381
mông_lung 381
*_*_@@ 381
tái_mét 381
Kìa 381
to_gan 381
hạ_thần 381
thường_niên 380
lập_luận 380
vương_@@ 380
Đỏ 380
Nghệ 380
tập_huấn 380
cuốn_hút 380
băng_bó 380
xa_@@ 380
Dạo 380
Khương_@@ 380
sóng_thần 380
Bản_lĩnh 380
đày 380
huỵch 380
Nigel 380
Lệnh_Hồ 380
Ðào_cốc 380
Phổ_Trí 380
Ông_@@ 379
quá_tải 379
cởi_bỏ 379
Ngoại 379
ND 379
ghe 379
ll@@ 379
thụt 379
Liêu_@@ 379
Thiệt 379
bổ_ích 379
bộ_tộc 379
nhân_số 379
hay_ho 379
chuyên_tâm 379
làm_chứng 379
um_tùm 379
Đông_Hải 379
hầm_hầm 379
Dân_chúng 379
bôn_tẩu 379
Ba_Cực 379
Quản_Trung_Tà 379
Bất_Hối 379
kỳ_@@ 378
tỷ_giá 378
am_hiểu 378
7_@@ 378
xa_xưa 378
bồi_bổ 378
ngay_tức_khắc 378
sà 378
nuông_chiều 378
tán_loạn 378
Ứng_@@ 378
Lửa 378
ngưỡng_cửa 378
tranh_cử 378
tài_giỏi 378
đạo_pháp 378
Diêm_Vương 378
Thiếu_Lâm_@@ 378
Quân_Du 378
Chấn_Nam 378
hiển_thị 377
chân_thực 377
Hiệp_@@ 377
xáo_trộn 377
IS@@ 377
axit 377
chóp 377
hương_@@ 377
trò_đùa 377
thu_nạp 377
bình_dân 377
ân_nhân 377
lặng_yên 377
loan 377
nhìn_thấu 377
thủ_@@ 377
Nhà_trường 377
ằng 377
vừa_lòng 377
khét_tiếng 377
tụ_hội 377
chùy 377
y_nhân 377
Ba_Thục 377
Nợ 376
As@@ 376
stress 376
Tiết_lộ 376
trùng_hợp 376
Khá 376
mở_màn 376
đột_quỵ 376
càn_quét 376
Hà@@ 376
gián_tiếp 376
ngoại_thành 376
quá_độ 376
tủy 376
sáp 376
nhũn 376
thân_xác 376
đẳng 376
Ý_tưởng 376
tham_mưu 376
nhao_nhao 376
Ferrari 376
Giản 376
bậy 376
sào_huyệt 376
Phù_Dung 376
Thí_chủ 376
Kihôtê 376
Phạm_Dao 376
Koko 376
ráo 375
xốc 375
dụi 375
phong_tục 375
hốc 375
sành 375
ường 375
Đẹp 375
nhang 375
bà_@@ 375
nối_liền 375
móc_túi 375
Fache 375
._Tại 374
phương_@@ 374
98 374
Phú_Yên 374
chia_rẽ 374
sốt_xuất_huyết 374
Chả 374
atilde 374
bặt 374
Cưới 374
chữ_@@ 374
tưng_bừng 374
cạy 374
dòm 374
thăm_thẳm 374
trống_không 374
-- 374
đầu_lâu 374
Hannah 374
thốt_nhiên 374
Xung_lang 374
Misca 374
ít_ỏi 373
ứng_@@ 373
riết 373
sa_@@ 373
0_@@ 373
per@@ 373
San_@@ 373
sấp 373
ủi 373
nhỏ_nhặt 373
bấy_lâu_nay 373
lóng_lánh 373
Anh_hùng 373
kí 373
triền 373
khùng 373
định_mệnh 373
Châu_Du 373
Kat 373
Bửu_Khoa 373
ngoạn_mục 372
vật_lộn 372
Mặt_@@ 372
lâm_@@ 372
keo 372
nho@@ 372
Trải 372
Nói_@@ 372
thương_tổn 372
vui_nhộn 372
Xã 372
trống_trải 372
nhấp_nhô 372
khai_giảng 372
thời_@@ 372
thành_danh 372
Thùy_Trang 372
Hannibal 372
Luồng 372
Jeff 372
thái_sư 372
khí_độ 372
Ðao 372
xấp_xỉ 371
bùng_phát 371
91 371
10-@@ 371
Bri@@ 371
Kiên_@@ 371
Quy_mô 371
trống_ngực 371
phẩy 371
vinh_hạnh 371
nhan 371
ấm_ức 371
sim 371
công_thành 371
Diêm 371
tiếu 371
manh 371
quý_khách 371
Thiên_Lý 371
chúa_thượng 371
Thế_ra 371
Buru 371
tối_ưu 370
En@@ 370
Ad@@ 370
ghi_điểm 370
Lối 370
mặc_cảm 370
mượt 370
cối 370
vả 370
ủ_rũ 370
vịn 370
Huyền_thoại 370
cổ_@@ 370
thoả_mãn 370
xe_@@ 370
tiều_tụy 370
album 370
xâu 370
bàn_cờ 370
giảng_giải 370
Tạng 370
đen_sì 370
Thiên_Lộc 370
cơ_mật 370
ửng_hồng 370
Nguyên_Hiển 370
Diệp_Thanh 370
Châu_Âu 369
dầu_khí 369
nam_@@ 369
thuê_bao 369
À@@ 369
không_@@ 369
ví_như 369
Có_vẻ 369
thỏa 369
vòng_quanh 369
Hầu 369
rẫy 369
Bất_ngờ 369
ác_nhân 369
bằng_phẳng 369
quốc_hội 369
Bugatti_Veyron 369
bóng_hồng 369
Hứa_@@ 369
nhảy_nhót 369
Quan_Công 369
Thái_thú 369
tráng_sĩ 369
Hầu_huynh 369
trận_pháp 369
Công_Tôn_Ngọc_Sương 369
Thành_Đô 368
ý@@ 368
2_, 368
hiển 368
mịn 368
thu_@@ 368
cuộc_chơi 368
7863 368
trót 368
nhiêu 368
Giáo_hội 368
Chanel 368
màn_kịch 368
phủi 368
«_@@ 368
Tốc 368
lẫm_liệt 368
Thương_Tùng 368
Lộc_Công 368
Claudia 368
Monk 368
tái_tạo 367
/10@@ 367
năng_khiếu 367
Điều_chỉnh 367
Trẻ_em 367
cổ_truyền 367
cáu 367
tri@@ 367
iê@@ 367
tràn_trề 367
Tức 367
xay 367
ngấm 367
Mãnh 367
vùn_vụt 367
vá 367
chịu_@@ 367
lối_thoát 367
giằng 367
hầu_tòa 367
Ơ@@ 367
Robin 367
bây 367
giáo_phái 367
dũng_khí 367
Dương_Công_Bảo_Khố 367
lão_trượng 367
chú_tâm 366
tất_yếu 366
ra_quân 366
phô_trương 366
id 366
l_@@ 366
trườn 366
phòng_bị 366
kèn 366
vo 366
tương_@@ 366
mê_mẩn 366
Xung 366
trát 366
Cố_@@ 366
con_tin 366
Bạch_Dương 366
giao_tranh 366
xuất_chúng 366
thiên_văn 366
sai_bảo 366
0O0 366
vô_biên 365
giảm_sút 365
Mas@@ 365
re 365
Núi 365
nhàn_rỗi 365
Chụp_ảnh 365
Phó_Thủ_tướng 365
like 365
sát_@@ 365
Tiếp_tục 365
hạt_giống 365
cất_giữ 365
il 365
ớn 365
nhổm 365
ống_kính 365
chúi 365
ể 365
Báo_@@ 365
Văn_hoá 365
nhất_nhất 365
Kỵ 365
án_mạng 365
thảng_thốt 365
Trời_đất 365
Bá_Thông 365
Không_chừng 365
phi_đao 365
phóng_xạ 364
Lập_@@ 364
dấn_thân 364
không_đổi 364
phụ@@ 364
ồi 364
thẩm 364
Chàng_trai 364
biến_chuyển 364
phê_phán 364
cõi_đời 364
Đại_tướng 364
chu_toàn 364
khẩu_khí 364
chú_rể 364
ẩn_@@ 364
Ứng 364
buông_tay 364
nói_láo 364
kêu_gào 364
Công_phu 364
vuốt_râu 364
Hoàng_Thượng 364
Hiển_Hạc 364
Thành_Cát_Tư_Hãn 364
Phi_Mã 364
Đình_Phụng 364
TAND 363
Nhĩ_@@ 363
ren 363
Sông_@@ 363
ại 363
rảnh_rỗi 363
ai_@@ 363
khoa_học_@@ 363
quá_sức 363
hạ_@@ 363
nữ_giới 363
Ke@@ 363
iêng 363
om 363
nịnh 363
phê 363
Venezuela 363
chửi_bới 363
Phỉ 363
oan_uổng 363
che_mắt 363
mở_toang 363
muôn_ngàn 363
kết_liễu 363
giỡn 363
kế_toán 362
óng 362
Ngay_lập_tức 362
Tổng_hợp 362
bàng_quang 362
Giữ 362
Tỉ 362
tán_dương 362
èo 362
thần_diệu 362
xâm_chiếm 362
địa_phận 362
giằng_co 362
Goetz 362
Teng 362
nhoẻn 362
làm_tình 362
pháp_sư 362
ngoài_mặt 362
Ernest 362
Ðịnh 362
Mẫu_thân 362
phản_tặc 362
Tây_Vương 362
uy_danh 362
Thích_Phương 362
Chấn_Sơn 362
for@@ 361
Can@@ 361
Ac@@ 361
Sài_@@ 361
khối_u 361
nh_@@ 361
ari@@ 361
iền 361
Địa_lý 361
Ả-rập_Xê-út 361
điệu_bộ 361
Năm_@@ 361
Cận_cảnh 361
băng_giá 361
chẳng_sao 361
bán_đứng 361
yết_kiến 361
hớt 361
Vân_Trường 361
Long_An 360
Tố_@@ 360
lanh_lợi 360
đầy_rẫy 360
ầu 360
trái_@@ 360
Sal@@ 360
vinh_danh 360
ĩ 360
xe_cộ 360
xác_thực 360
thu_nhận 360
phái_đoàn 360
rộ 360
Toại 360
lá_cờ 360
nhân_tình 360
oán_trách 360
hồ_ly 360
đánh_xe 360
giật_nảy 360
thống_lãnh 360
–_Ngươi 360
Tống_gia 360
Thát_Đát 360
Tế 359
xấp 359
ồng_@@ 359
rốt_cục 359
thao_túng 359
xoắn 359
góp_mặt 359
len_lỏi 359
Tiếc 359
cha_@@ 359
giả_sử 359
thầy_tu 359
đinh_ninh 359
dò_la 359
Jesse 359
kiểm_toán 358
Tuổi 358
hành_nghề 358
thăng_bằng 358
ẩy 358
97 358
chay 358
sa@@ 358
ậy 358
Ít_nhất 358
vô_phương 358
Bất_chợt 358
viễn 358
4/2 358
Mộng_@@ 358
dầu_lửa 358
cắm_đầu 358
hò_reo 358
cận_vệ 358
Khâm 358
cầm_tù 358
Khuyết 358
trung_úy 358
thái_bình 358
Ðạt 358
thình_thình 358
Cửu_Chỉ 358
Quân_Sước 358
sẳn 358
Quân_trung_Phụng 358
Cú 357
ủ@@ 357
QL@@ 357
bơi_lội 357
Louis 357
phần_nhiều 357
gan_@@ 357
phối 357
Ê@@ 357
Nhỏ 357
hũ 357
Ka@@ 357
Bí_mật 357
ẽ 357
Âm_thanh 357
tưởng_nhớ 357
bản_án 357
Hồi_@@ 357
Giải_trí 357
trở_tay 357
vui_tươi 357
đánh_đắm 357
SL 357
ác_ý 357
sư_cô 357
Thiếu_gia 357
thiết_@@ 357
mấp_máy 357
huyền_diệu 357
cành_lá 357
công_nghệ_cao 356
con_mẹ 356
Khối 356
phập_phồng 356
ẹ 356
Xa_@@ 356
Biện 356
cảnh_ngộ 356
ộc 356
_thế 356
24/1 356
-_Dân_trí 356
thảm_bại 356
• 356
phòng_học 356
làm_ơn 356
Hoằng 356
hiểm_độc 356
Thi_Lang 356
gian_tế 356
khổ_não 356
Thú_Thần 356
Cô_ta 356
Mexico 355
Giảm 355
giai 355
Ố@@ 355
măng 355
bus 355
ội 355
2001 355
ngày_@@ 355
News_@@ 355
Thượng_đế 355
tạc 355
Đại_gia 355
Tày 355
__@@ 355
canh_phòng 355
Tàng 355
nhát_gan 355
Solomon 355
Diệt_Tuyệt_sư 355
hồi_sinh 354
330.000 354
Đen 354
90_% 354
chu_kỳ 354
We@@ 354
quyền_hạn 354
nội_tạng 354
nối_tiếp 354
thơ_ấu 354
chuyển_@@ 354
chổi 354
lu 354
che_lấp 354
ly_dị 354
Bỉ 354
mờ_ảo 354
Xưa_nay 354
Phượng_Hoàng 354
chói_tai 354
Côn_Lôn 354
Ðệ 354
ban_thưởng 354
cà_sa 354
Khất_Đan 354
Giải_Tử_Nguyên 354
._Các 353
nhà_băng 353
năng_suất 353
tiếp_thị 353
bới 353
7-@@ 353
pe 353
ắn 353
bước_đầu 353
Mật 353
phở 353
3D 353
thuần_thục 353
sông_@@ 353
nhà_tù 353
lặng_thinh 353
trộm_cắp 353
quả_phụ 353
quyền_cước 353
Lý_Mục 353
lạI 353
thành_bại 352
du_thuyền 352
mất_@@ 352
bướu 352
rượu_vang 352
nhân_đạo 352
Tái 352
ten 352
tiếng_kêu 352
xem_lại 352
Làn 352
bảo_bối 352
Đánh_@@ 352
7885 352
cựa 352
khiêm_nhường 352
làm_bàn 352
Giêng 352
tan_rã 352
5/12 352
Lời_nói 352
Bộ_GD-ĐT 352
thám 352
êm_đềm 352
lão_luyện 352
xe_ngựa 352
Lưu_Nhất_Chu 352
Khiên 352
Thẫm 352
Kim_Thống 352
ẻ 351
1998 351
đảm_nhận 351
TC@@ 351
Vùng 351
Dẫu 351
tỷ_trọng 351
thiết_yếu 351
Thực_phẩm 351
khoáng_chất 351
ngoại_hình 351
nhạt_nhẽo 351
lên_cơn 351
đường_cong 351
trăn 351
tuyền 351
đảm 351
nổi_@@ 351
rãnh 351
máng 351
triết_học 351
xử_sự 351
tình_tứ 351
Dù_cho 351
trách_mắng 351
dã_thú 351
thánh_chỉ 351
Trâu 351
tha_tội 351
tuyệt_nghệ 351
ngữ_khí 351
Hề 351
sư_phó 351
thị_phần 350
Ber@@ 350
lân 350
Từ_Liêm 350
èn 350
trăn_trở 350
khoanh 350
mẻ 350
gài 350
dong 350
khoảng_trống 350
Học_tập 350
lạc_đà 350
Rome 350
di_sản 350
nhẩm 350
Rita 350
to_tiếng 350
trần_truồng 350
thọc 350
tử_chiến 350
ao@@ 349
Ste@@ 349
uốc 349
lưu_truyền 349
bản_sắc 349
chữ_cái 349
ý_@@ 349
tử_hình 349
Liên_hoan_phim 349
lôi_thôi 349
đồng_tâm 349
ôn_tồn 349
Ngô_Lục_Kỳ 349
Trương_Tử_Thanh 349
hành_xử 348
lí_do 348
WHO 348
rủi 348
mạnh_tay 348
rang 348
thịnh_vượng 348
nửa_ngày 348
cọng 348
quan_lớn 348
thệ 348
Chắc_hẳn 348
Mô@@ 348
tư_thục 348
tín_ngưỡng 348
viếng_thăm 348
trắng_xóa 348
1,000,000 348
hoang_vắng 348
tư_bản 348
E_rằng 348
oang_oang 348
Sư_thúc 348
như_ý 347
3.000 347
86 347
đường_cao_tốc 347
Tham 347
Br@@ 347
tạng 347
ắc_@@ 347
ịch 347
1997 347
bước_tiến 347
sáng_@@ 347
phản_@@ 347
Khám_phá 347
For@@ 347
Nguyễn_Đình_@@ 347
chế_giễu 347
mắt_@@ 347
Ngại 347
nhòa 347
Bố_@@ 347
che_phủ 347
ì_@@ 347
chấn_chỉnh 347
chỉnh_đốn 347
thoi_thóp 347
lâm_nguy 347
biên_cương 347
Vân_Trung 347
Long_Tuyền 347
ác_tăng 347
thị_lang 347
/2014 346
biến_@@ 346
room 346
tràn_lan 346
tor 346
sinh_lý 346
Đa_@@ 346
Da 346
lấn 346
Sử_@@ 346
nồng_nàn 346
è_@@ 346
ko@@ 346
7887 346
< 346
niêm_phong 346
Nổi_tiếng 346
vang_động 346
Cao_Hiên 346
giao_phong 346
nương_tử 346
ate@@ 345
Phước_@@ 345
nhân_cách 345
0.@@ 345
May_mắn 345
Lan_@@ 345
Bụng 345
xanh_xao 345
khiêu_vũ 345
quầng 345
bản_nhạc 345
én 345
bo 345
BBC 345
Đính 345
Hillary_Clinton_Nga 345
Rihanna 345
lộng 345
đa_tình 345
Quan_Âm 345
Thạch_Chi_Hiên 345
Nhị_Nương 345
Hải_quan 344
Nguyễn_Minh_@@ 344
_hóa 344
Group 344
93 344
minh_chứng 344
pe@@ 344
man@@ 344
dưới_quyền 344
ố@@ 344
thiếu_máu 344
đè_nén 344
sô 344
thích_nghi 344
day 344
viền 344
Quế_@@ 344
băm 344
ation 344
Nghệ_thuật 344
Hy_@@ 344
7893 344
hình_tròn 344
biết_sao 344
Pri@@ 344
thủ_thế 344
Dần 344
ân_tình 344
góa 344
nhốn_nháo 344
Kim_Lăng 344
Tam_Nhãn 344
Thế_Dân 344
sĩ_khí 344
Hồng_Thất 344
Tử_Lan 344
su 343
Tho@@ 343
cá_mập 343
sản_sinh 343
ảo_giác 343
lũy 343
AS 343
Người_@@ 343
cửa_xe 343
á_@@ 343
Cam 343
Ca_sĩ 343
Triều_Dương 343
dỗ_dành 343
chồng_chất 343
cổ_tích 343
bi_kịch 343
thôi_miên 343
CEO_Facebook 343
thanh_quang 343
la_liệt 343
Quả_là 343
úy_kỵ 343
nhã 343
lưu_manh 343
nhãi 343
._Ly 343
Tổng_quản 343
Thiên_Thạch 343
tươi_đẹp 342
Phú_Thọ 342
chí_ít 342
ts 342
công_sở 342
uỷ 342
nhái 342
it 342
Cam_@@ 342
nung 342
ải_@@ 342
_học 342
lõm 342
Quan_hệ 342
khám_xét 342
giả_thuyết 342
thi_thoảng 342
khả_dĩ 342
ủy_ban 342
công_đức 342
trảm 342
ác_chiến 342
22/11 342
Khả_@@ 342
bàn_tính 342
tướng_quốc 342
chuẩn_mực 341
hòa_nhập 341
Thúc_@@ 341
Khả_năng 341
Vĩnh_Phúc 341
Bí_quyết 341
ư_@@ 341
phô 341
vị_@@ 341
nhọc_nhằn 341
ngà 341
ă@@ 341
/11@@ 341
Diệp_@@ 341
từ_ngữ 341
nhạc_@@ 341
dàn_xếp 341
phả 341
đỏ_ửng 341
quá_đỗi 341
Thổ_@@ 341
tưởng_niệm 341
giông 341
đánh_cuộc 341
yến_tiệc 341
dòng_dõi 341
cao_ngạo 341
quắc_mắt 341
Ðại_Lương 341
thịnh_nộ 340
kĩ 340
phòng_@@ 340
Nhưỡng 340
dai 340
cây_xanh 340
nhãn_hiệu 340
ì@@ 340
chí_@@ 340
khách_mời 340
Hiệu 340
lơ_đãng 340
yết_hầu 340
quỳ_gối 340
Martin 340
mất_công 340
ính 340
cai_quản 340
nhỏ_nhoi 340
Dám 340
hộ_thân 340
cơ_trí 340
Ðức_Nặc 340
bất_đồ 340
Tiểu_Hoàn_@@ 340
Tam_gia 340
Nhắc 339
thừa_tướng 339
Công_nghiệp 339
ẩm_thực 339
blog 339
Tập_@@ 339
Thẩm_@@ 339
Fi@@ 339
Cẩn_thận 339
liếm 339
Ăn_@@ 339
hải_sản 339
Kiên_Giang 339
Dạy 339
Cal@@ 339
Chẳng_ngờ 339
chợp 339
lịm 339
ầy 339
háo 339
Chiếm 339
lia 339
1945 339
Buồn 339
Vân_Anh 339
khác_nào 339
28/12 339
tù_nhân 339
thứ_lỗi 339
làm_khó_dễ 339
Đầu_óc 339
tăng_lữ 339
„_Ngươi 339
khu_công_nghiệp 338
Quá_trình 338
bị_can 338
thượng_lưu 338
_hoá 338
ợ 338
lâm_sàng 338
làm_hỏng 338
mụn 338
Nu@@ 338
Ab@@ 338
Tức_là 338
ria 338
by 338
Ẩn 338
bỗng_chốc 338
tống_tiền 338
nham_hiểm 338
lưu_luyến 338
bất_tử 338
Lynda 338
Châu_Tấn 338
cai_trị 338
Quận_Chúa 338
mười_bảy 338
loảng_xoảng 338
phá_giải 338
Đỗ_Hưng 338
Đại_Sư 338
Diêu_@@ 338
Virginie 338
Ngô_Lập_Thân 338
vĩ_mô 337
sáp_nhập 337
Sacombank 337
cất_cánh 337
Youtube 337
hội_tụ 337
trong_lành 337
Chủ_@@ 337
cúm_A 337
tăm 337
AP 337
dầm 337
đọ 337
cam_chịu 337
kỳ_cục 337
phục_tùng 337
Vĩnh_Hưng 337
CSGT 337
thính 337
thượng_thặng 337
Nương_Nương 337
phi_ngựa 337
Lưu_gia 337
GMT7@@ 337
p-@@ 336
B_@@ 336
thành_khẩn 336
MS@@ 336
gìn_giữ 336
tân_@@ 336
vô_vàn 336
Gra@@ 336
biến_dạng 336
tiêu_tán 336
Hùng_@@ 336
u_uất 336
mang_tiếng 336
Cuba 336
vía 336
tâm_can 336
võ_thuật 336
chòi 336
ảo_tưởng 336
đom_đóm 336
tái_mặt 336
khí_chất 336
Tung 336
nũng_nịu 336
sớm_mai 336
thành_trì 336
quyến_luyến 336
cao_kiến 336
thộn 336
đương_trường 336
Hồ_Xung_nghe 336
Chu_Thiên 336
NHNN 335
TW 335
Tín_@@ 335
biểu_@@ 335
điểm_@@ 335
ke@@ 335
Ham@@ 335
ướng 335
che@@ 335
anh_chị_em 335
vật_thể 335
ama 335
Hammond 335
tựu 335
khẩu_hiệu 335
phỏng_đoán 335
chột_dạ 335
diệt_trừ 335
giảng_đường 335
vết_tích 335
Chiêm_Thành 335
khinh_địch 335
cướp_đoạt 335
Hư_Hành_Chi 335
Tâu 335
khí_khái 335
Fêlixitê 335
dự_bị 334
nhất_cử 334
long_@@ 334
Tối_@@ 334
thực_khách 334
linh_động 334
CS@@ 334
đẩy_lui 334
Biệt 334
giời 334
hàm_@@ 334
Thu_Hà 334
bê_tông 334
Người_đẹp 334
sơ_suất 334
rộn_ràng 334
ghen_tuông 334
vô_tuyến 334
ột 334
Luận 334
hỉ 334
đứng_đắn 334
hăm_dọa 334
Trích 334
CIA 334
Miếu 334
/2/2012 334
hoảng_hồn 334
Hỡi_ôi 334
trực_giác 334
trụ_trì 334
càu_nhàu 334
bầu_bạn 334
chênh_chếch 334
Giáo_Chủ 334
Tử_Lăng_thầm 334
Bàng_Nghĩa 334
Mal’akh 334
Thu_Ðạo 334
Đại_Trí 334
thâu_tóm 333
nbsp 333
/2013 333
Công_viên 333
trang_thiết_bị 333
ck@@ 333
toàn_@@ 333
Khu_vực 333
lắp_đặt 333
tiêu_hao 333
rô 333
Câu_@@ 333
Thịt 333
đèn_đỏ 333
sto@@ 333
nước_hoa 333
ốp 333
ảo_@@ 333
đổ_vỡ 333
Hiếu_@@ 333
Phu_@@ 333
Nụ 333
trách_cứ 333
ửng 333
giao_cấu 333
887.104 333
Mĩ 333
hoa_lệ 333
Bậc 333
mẹ_già 333
hát_@@ 333
trào_dâng 333
tụng_kinh 333
chửi_rủa 333
biến_ảo 333
mua_chuộc 333
Kiều_Loan 333
bẩm_báo 333
đại_cuộc 333
đui 333
cương_vị 332
tiềm_lực 332
W 332
bất_tài 332
loét 332
tích_tụ 332
khoa_@@ 332
cứng_đờ 332
hừng_hực 332
bảo_lãnh 332
vẩn 332
Ken 332
Cô_gái 332
hội_trường 332
1.980 332
22/12 332
Hoa_Tiên 332
Sát_@@ 332
Ơn 332
khoa_trương 332
lôi_đình 332
Ðào_@@ 332
Thanh_tiên_sinh 332
Lệnh_Hồ_đại_ca 332
HĐQT 331
cao_tuổi 331
Dạ_@@ 331
Nguyễn_Thanh_@@ 331
ngoặt 331
Tổ_@@ 331
khuyên_nhủ 331
Vượt 331
11/2 331
Trang_Đài 331
Cánh_Diều 331
thần_linh 331
Đế_@@ 331
siêu_phàm 331
the_thé 331
Túy 331
Hoa_Vân 331
2638 331
van@@ 330
vào_khoảng 330
HNX 330
cơ_sở_hạ_tầng 330
thôi_thúc 330
hích 330
3-@@ 330
danh_giá 330
soạn_thảo 330
ừng 330
vật_@@ 330
từng_trải 330
phát_tán 330
lạnh_toát 330
Lưỡi 330
bồ_câu 330
Phu 330
trinh_tiết 330
cười_phá 330
thất_thủ 330
Lộ_diện 330
TTK 330
quân_phục 330
lỗi_lạc 330
ngân_phiếu 330
Bất_Bình 330
Acker 330
Fadette 330
Thượng_hoàng 330
công_nghệ_thông_tin 329
ck 329
bác_bỏ 329
Q. 329
cô_lập 329
nước_miếng 329
age 329
chạy_đua 329
ngán 329
ký_hiệu 329
Rõ 329
trẻ_thơ 329
dân_làng 329
hành_trang 329
quấy_rối 329
Thích_@@ 329
38.050 329
cố_@@ 329
phạm_nhân 329
khởi_@@ 329
Nguyễn_Tấn_Dũng 329
băng_tuyết 329
lui_tới 329
Ai_ngờ 329
Triệu_Vân 329
Sân 329
khoác_lác 329
trắng_muốt 329
e_thẹn 329
Cái_gì 329
thè 329
Đánh_máy 329
Du_Thản_Chi 329
thị_nữ 329
Gideon 329
chip 328
ds 328
thông_suốt 328
cường_độ 328
hạ@@ 328
ngột_ngạt 328
Mil@@ 328
hữu_nghị 328
Ý_kiến 328
suy_sụp 328
định_cư 328
ép_buộc 328
trú_ngụ 328
Trà_@@ 328
Nhàn 328
áp_đặt 328
Ed@@ 328
túc 328
dân_thường 328
lặn_lội 328
bãi_@@ 328
kì_thi 328
sánh_vai 328
Dục 328
lập_công 328
Du_Học 328
dúi_dụi 328
chiến_công 328
đoản 328
lượng_thứ 328
tối_hậu 328
Hựu 328
tâm_cơ 328
Lão_thân 328
Thiên_Si_đạo_trưởng 328
Lý_phiệt 328
233.977 328
622.925 328
7022 328
30.202 328
HS@@ 327
đầu_cơ 327
94 327
Chu@@ 327
ngạch 327
Đông_Bắc 327
thù_địch 327
dao_@@ 327
Da@@ 327
Liệt_@@ 327
Ái_@@ 327
Bắt_đầu 327
bê_bối 327
ngân_hàng_không 327
mắng_chửi 327
Nhượng 327
Hà_hà 327
linh_vị 327
Tích_Lương 327
Lý_Thu_Thủy 327
Hội_đồng_quản_trị 326
khả_quan 326
Khu_@@ 326
tinh_hoàn 326
ngứa_ngáy 326
tiến_trình 326
Thống_@@ 326
bánh_chưng 326
tới_mức 326
nhồi 326
Khêu 326
_hình 326
sofa 326
Gal@@ 326
thành_thạo 326
tay_@@ 326
mái_chèo 326
trông_cậy 326
Vi_tính 326
rỡ 326
rưng_rưng 326
biết_chừng_nào 326
nghênh_ngang 326
Cổ_Mộ 326
Cha_xứ 326
Hột 326
hư_truyền 326
Gia_Cát_Dật 326
C.I.A. 326
Ðỗ_Cửu 326
hóa_học 325
San@@ 325
tái_định_cư 325
lưu_@@ 325
ứ@@ 325
khiếm_khuyết 325
Kể_cả 325
Nông_@@ 325
điều_@@ 325
Hoàng_Anh 325
ya 325
inch 325
&@@ 325
tư_liệu 325
Tượng 325
ao_ước 325
Quảng_Châu 325
vô_duyên 325
06/03/2012 325
giọng_điệu 325
dũng_sĩ 325
cẩn_mật 325
thầy_@@ 325
rợn 325
hững_hờ 325
nhân_nghĩa 325
gia_quyến 325
Bất_Tử 325
cố_nhiên 325
Đạo_nhân 325
nữ_tỳ 325
Nor@@ 324
trưởng_phòng 324
chức_vị 324
linh_thiêng 324
tiếp_diễn 324
Dự_@@ 324
Ngư_@@ 324
K_@@ 324
bàng_quan 324
Đặc_@@ 324
bỏ_cuộc 324
Điền_@@ 324
tóm_lại 324
ghì 324
ăn_chay 324
rã_rời 324
sưu_tầm 324
tột_độ 324
săn_bắn 324
Alex 324
Lãnh_@@ 324
tháo_chạy 324
hộc 324
Ms4@@ 324
chê_cười 324
mền 324
nói_bậy 324
Trịnh_Thạch 324
Tuyệt_sư 324
dầu_thô 323
Điện_@@ 323
cáng 323
New@@ 323
rạ 323
Cu@@ 323
ano 323
87 323
Dầu 323
bụng_dưới 323
tinh_hoa 323
Hoàn_Kiếm 323
nội_thành 323
hệ_số 323
thủ@@ 323
đất_@@ 323
chim_@@ 323
rành 323
át_@@ 323
Sam 323
truyền_đạt 323
Uy_@@ 323
sòng_bạc 323
Rừng 323
tài_hoa 323
chài 323
tài_phiệt 323
05/03/2012 323
giam_cầm 323
thủ_tiêu 323
xếp_đặt 323
quật_cường 323
Bellamy 323
Kiếm_@@ 323
Huệ_Huy 323
Trịnh_Đáng 323
20.000 322
TH 322
FED 322
Kết_thúc 322
Bến_@@ 322
tăng_@@ 322
HP 322
cách_ly 322
Cảm_@@ 322
ran 322
lục_địa 322
Ha@@ 322
Ba_Đình 322
ngày_trước 322
5/2 322
dượng 322
Hyundai 322
Giấc_mơ 322
Bom 322
húc 322
Bầu_cử 322
tiểu_vương 322
di_tản 322
khoái_lạc 322
quan_viên 322
Đồ_Long 322
Tây_Nguyên 321
V_@@ 321
gặt 321
Châu_Á 321
cà_chua 321
Bí 321
vụng 321
lẩy_bẩy 321
bất_định 321
nghi_ngút 321
thân_nhân 321
thổn_thức 321
buộc_tội 321
Nguy 321
Dallas 321
quá_cố 321
Xuân_Thân 321
hiệp_lực 321
xa_hoa 321
Diệp_Chi 321
nhớ_nhung 321
chân_truyền 321
đại_đội 321
quê_mùa 321
cừu_hận 321
tiểu_đồng 321
Bội 321
Cửu_Dương 321
phiền_toái 320
nu@@ 320
O_@@ 320
web 320
one 320
khu@@ 320
hoàng_@@ 320
đái_tháo 320
trở_xuống 320
ngăn_kéo 320
Nói_chung 320
phát_sóng 320
tương_đồng 320
ấm_cúng 320
ey 320
Màu 320
tinh_nghịch 320
cắn_răng 320
Tai_nạn 320
ngôi_vị 320
thương_gia 320
quét_dọn 320
đích_thị 320
xinh_tươi 320
vắng_lặng 320
răn 320
Lã_@@ 320
khuyên_can 320
danh_môn 320
trấn_giữ 320
Ảo 320
thực_lòng 320
Cu-ba 320
Illuminati 320
V.@@ 319
nông_@@ 319
Tây_Nam 319
Thành_Công 319
ch_@@ 319
ml 319
dị_dạng 319
Động_@@ 319
tận_tình 319
gọt 319
tươi_tắn 319
y_hệt 319
súc 319
nguy_nan 319
tiệc_rượu 319
Hồng_Ngọc 319
xơi 319
giật_thót 319
bản_xứ 319
bả 319
đội_trời 319
hậu_bối 319
kỳ_tài 319
vô_sỉ 319
Thanh_Nguyên 319
hỏi_nhỏ 319
Túc_@@ 319
Tương_tự 318
GD 318
chính_thống 318
Phú_Quốc 318
tiếp_tay 318
giải_trình 318
bị_động 318
Hoàn_toàn 318
IMF 318
PC@@ 318
cấp_tốc 318
hăng 318
lợt_lạt 318
/12@@ 318
khai_sinh 318
đất_đá 318
lạc_lõng 318
Mê_@@ 318
Sớm 318
đắc_thắng 318
ngoạm 318
ăn_học 318
100,000_@@ 318
Binh_@@ 318
vỗ_về 318
cầu_khẩn 318
ra_dáng 318
hiếu_@@ 318
cợt 318
năm_trăm 318
–_Ta 318
quỷ_kế 318
Thiên_Môn 318
thống_khoái 318
Quyên_Nhi 318
thế_huynh 318
Tức_thì 318
Tô_Thiên_Bình 318
Quy_Nhơn 317
tự@@ 317
phê_chuẩn 317
Mẫu 317
Đủ 317
Bầu_trời 317
Bắt_@@ 317
tang_lễ 317
210@@ 317
mờ_nhạt 317
Vườn 317
gây_sự 317
bát_ngát 317
chửi_mắng 317
Cười 317
canh_chừng 317
hèn_hạ 317
Bạch_Long 317
Vương_Quốc_Bảo 317
vô_luận 317
Dương_Khang 317
Ba_La_Tinh 317
ảo_thuật 316
Quốc_phòng 316
phân_nửa 316
Máy_bay 316
môn_@@ 316
/2015 316
thư@@ 316
bộ@@ 316
bin 316
gân_cốt 316
ẫn 316
căm_giận 316
kỳ_tích 316
y_thuật 316
7891 316
Biên_@@ 316
da_đỏ 316
nhà_hát 316
thăm_viếng 316
chiêu_@@ 316
31/1 316
quá_chừng 316
Cọp 316
tổng_binh 316
Đại_Hãn 316
Thẩm_Tường 316
ve_@@ 315
kị 315
trai_trẻ 315
bóng_@@ 315
ino@@ 315
thức_tỉnh 315
Viettel 315
khẩu_phần 315
soát 315
thực_đơn 315
ráp 315
Bình_thường 315
ill@@ 315
Thống_Nhất 315
du_dương 315
mệnh_@@ 315
dầu_mỏ 315
7921 315
tri_@@ 315
lí@@ 315
15/12 315
thân_thích 315
sở_@@ 315
Premier_League 315
ký_túc_xá 315
thất_thần 315
đùa_cợt 315
rủa 315
bá_chủ 315
khoan_thai 315
khí_phách 315
cố_chấp 315
tri_phủ 315
Giang_Đô 315
vô_lực 315
tâm_pháp 315
kiệt_lực 315
rác_thải 314
P.@@ 314
thí_điểm 314
ở@@ 314
eo_@@ 314
Hàm 314
mày_râu 314
vô_thức 314
bứt 314
ộp 314
T-@@ 314
ái_nữ 314
trông_chờ 314
Sóng 314
đảng_@@ 314
Kiến_trúc 314
cơ_duyên 314
khất 314
ất_@@ 314
Lạp 314
ứng_chiến 314
Thảo_nào 314
Ngô_Khảm 314
8_@@ 313
ốc_@@ 313
ce_@@ 313
81 313
Thủ_thuật 313
Tuệ_@@ 313
cách_@@ 313
khốc 313
Khuất 313
Tội 313
ùm 313
thiếu_nhi 313
bưu_điện 313
thủ_tướng 313
Cờ 313
Victoria_Beckham 313
tiểu_tốt 313
mù_quáng 313
hệ_trọng 313
sám_hối 313
Ngạch 313
ái_tình 313
da_dê 313
đô_thống 313
tổng_quản 313
Phụng_Tam_@@ 313
1657@@ 313
Spoon 313
Han@@ 312
Ban@@ 312
hạ_cánh 312
ngũ_cốc 312
Đan_@@ 312
khoẻ_mạnh 312
chung_sống 312
trợ_thủ 312
Mer@@ 312
nước_mắm 312
dường 312
thân_mình 312
điêu_khắc 312
nghèo_khổ 312
cực_đoan 312
núi_rừng 312
thi_đua 312
sổ_sách 312
mặt_đường 312
thông_hiểu 312
Côn_Sơn 312
rê 312
hồi_ức 312
Ngựa 312
Phật_Giáo 312
nguyên_soái 312
lầm_bầm 312
Ô_Quyển 312
hài_tử 312
Nicôn 312
Hồ_Nhị_Tẩu 312
Nguyễn_Xuân_@@ 311
Thống_kê 311
89 311
ưu_tú 311
ad 311
par@@ 311
đoàn_tụ 311
TQ 311
Chiến_lược 311
di_cư 311
loanh_quanh 311
hoạt_bát 311
độ@@ 311
hoà@@ 311
khuynh_hướng 311
thất_thường 311
cơn_sốt 311
nhân_văn 311
Gh@@ 311
tầu 311
Cự_@@ 311
qu 311
ước_chừng 311
tuy_rằng 311
dúi 311
vinh 311
nhậm_chức 311
Nhân_Ái 311
200,000_@@ 311
Thúy_An 311
Kiến_Thành 311
ma_quái 311
vô_vị 311
Chúng_nó 311
tê_dại 311
gia_đinh 311
đặng_@@ 311
khinh_miệt 311
chết_tiệt 311
Trung_nguyên 311
tợ 311
Nhớn 311
Uyển_Tinh 311
CNTT 310
đoàn_thể 310
lưu_trú 310
we@@ 310
tiền_sử 310
tự_tại 310
Tắc 310
Bạch_Mai 310
TI@@ 310
Cốt 310
ịt 310
2002 310
cầu_vồng 310
thỏ_thẻ 310
huy 310
bậc_thang 310
Ngu 310
Sau_cùng 310
..... 310
cảnh_quan 310
casino 310
đa_nghi 310
áo_giáp 310
ghi_bàn 310
e_sợ 310
huýt_sáo 310
Cử 310
Chung_Ly_Triết 310
nhãn_quang 310
giới_luật 310
Antôn 310
Bạch_Quân_Nghi 310
truy_tố 309
hủy_bỏ 309
10,@@ 309
ba@@ 309
B.@@ 309
Thực_hiện 309
đường_thủy 309
huyết_mạch 309
hoa_mắt 309
An_Giang 309
Khâm_@@ 309
Trưởng_ban 309
huỷ 309
đối_kháng 309
Chicago 309
0-@@ 309
lòi 309
xen_lẫn 309
tay_lái 309
đổi_@@ 309
sơ_tán 309
hiếp_dâm 309
vũ_lực 309
đầy_ắp 309
cách_chức 309
xe_lửa 309
nguyên_bản 309
Giật_mình 309
Xót_thương 309
cứng_cỏi 309
tạnh 309
nhỏ_mọn 309
Có_lý 309
bộp 309
Tiểu_Huyền_Tử 309
Tam_Cô 309
Dư_@@ 308
Quan_trọng 308
mu 308
,_5 308
kho_tàng 308
áp_@@ 308
bả@@ 308
Mơ 308
khổ_luyện 308
ã@@ 308
Trở_lại 308
ghìm 308
diễm_lệ 308
yên_bình 308
Kia 308
7_,_chăm 308
vãn_hồi 308
loáng 308
Chử 308
lưu_lạc 308
Giả_@@ 308
khước 308
hỡi 308
chung_quy 308
Phi_Yến 308
bọn_ta 308
Thiên_Sư 308
phục_binh 308
Như_Băng 308
bá_phụ 308
Đô_thống 308
Trương_Tuyền 308
Tiểu_Linh 308
Thục_@@ 307
TN@@ 307
tự_thân 307
cúm 307
bong 307
éo 307
MI@@ 307
thốc 307
Lớn 307
Chuẩn_bị 307
ằn 307
Tu 307
đàm_luận 307
hạ_lưu 307
Mê 307
đường_mòn 307
mai_táng 307
thày 307
nói_sai 307
tàn_độc 307
khà_khà 307
tiến_quân 307
kinh_sư 307
vô_lại 307
Đáp_An 307
N. 306
ổ_@@ 306
Chiêm 306
hiệu_ứng 306
định_nghĩa 306
sp@@ 306
khí_@@ 306
co_giật 306
ọng 306
ax@@ 306
sa_sút 306
Vị_@@ 306
chối_cãi 306
tái_sinh 306
ậu 306
thương_nhân 306
Ý_nghĩ 306
Sóc_Trăng 306
cam_đoan 306
hận_thù 306
vũ_trang 306
ữ 306
24/12 306
giả_dạng 306
tường_thuật 306
chú_thích 306
súng_lục 306
nguỵ 306
Dượng_Đế 306
Ngọc_Tiêu 306
Thừa_Tướng 306
nhà_kho 305
Dung_@@ 305
Nhà_máy 305
đồng_cảm 305
/2012 305
công_đoàn 305
ả@@ 305
suy_dinh_dưỡng 305
Thị@@ 305
ron 305
khoai_tây 305
Tra_@@ 305
ỏi 305
ích_lợi 305
Cẩm 305
thỏi 305
Cas@@ 305
suy_luận 305
Ra@@ 305
nam_nhi 305
khám_nghiệm 305
quyền_@@ 305
điểm_cao 305
bô 305
Sony 305
địa_chấn 305
đụng_độ 305
/03 305
La_Thành 305
trẻo 305
sâu_đậm 305
quá_ư 305
Phán 305
quân_dân 305
ám_hại 305
đê_hèn 305
giễu_cợt 305
Edward 305
Triệu_Thiên 305
Phiền 305
dược_vật 305
Raoul 305
Đắc_@@ 304
Giao_dịch 304
chết_đói 304
2019@@ 304
Thụy_Điển 304
khép_kín 304
Sắt 304
nhận_diện 304
mịn_màng 304
ần_@@ 304
ử 304
áo_lót 304
Về_phần 304
ms 304
Âu_@@ 304
nghèo_khó 304
một_thể 304
vô_cảm 304
ngây_ngô 304
cực_kì 304
hoà_bình 304
tổng_giám_đốc 304
nghiễm_nhiên 304
trù 304
VP 304
nội_thị 304
Bentley 304
can_ngăn 304
điệp_viên 304
lãng 304
công_thần 304
trầm_lặng 304
cây_bút 304
pháp_thuật 304
ar_@@ 303
’_@@ 303
son_@@ 303
đường_bay 303
lây_lan 303
Hạnh_@@ 303
thở_dốc 303
màn_ảnh 303
óng_ánh 303
Ai_Cập 303
Không_gian 303
nở_rộ 303
2/2 303
u-@@ 303
Lộc_Sơn 303
Lễ_hội 303
chính_nghĩa 303
thương_nhớ 303
cực_nhọc 303
mắc_bẫy 303
Cô_Tô 303
Tài_trí 303
11:@@ 303
phi_tần 303
tiếp_viện 303
Sao_vậy 303
Tiêu_Nguyệt_Ðàm 303
Tôn_Bất_Tà 303
Chu_Thông 303
Đại_Nham 303
Xê-va 303
Khéo_Tay 303
x_@@ 302
mb@@ 302
cơm_@@ 302
diễn_xuất 302
sức_@@ 302
gián_đoạn 302
Leo 302
ậ@@ 302
thưa_thớt 302
cầu_mong 302
Giấy 302
ắm 302
kiến_tạo 302
hàm_ý 302
hình_vẽ 302
tráng_lệ 302
Xavi 302
oanh 302
ngã_ngửa 302
chói_lọi 302
thanh_nhã 302
vế 302
phế_bỏ 302
nhãn_lực 302
Nương_Dung 302
Hoàn_Xỉ 302
ủy_thác 301
Resort 301
sai_trái 301
mar@@ 301
im_@@ 301
da_gà 301
Thanh_Hải 301
Phòng_@@ 301
cầm_@@ 301
Chăm_sóc 301
đôla 301
Tổng_thư_ký 301
phân_giải 301
ngân_@@ 301
ngày_kia 301
Quyền_@@ 301
lưu_chuyển 301
biên_tập 301
khiếm_thị 301
tranh_@@ 301
đúp 301
Teen 301
Gia_Minh 301
ruộng_đất 301
châm_chọc 301
độc_dược 301
nghỉ_việc 300
Tạp_chí 300
lang_@@ 300
tro@@ 300
Khí_@@ 300
Chế_độ 300
tử_thần 300
Sy@@ 300
phụ_lòng 300
dật 300
giả_tạo 300
Hội_An 300
Michael 300
lung_lay 300
dỗ 300
uất_ức 300
ép_@@ 300
khổ_đau 300
Tổng_Bí_thư 300
Phúc_Kiến 300
tồn_vong 300
nhộn_nhạo 300
nhân_tâm 300
áp_chế 300
lầm_lẫn 300
quận_chúa 300
choang 300
quần_thần 300
Phổ_Côn 300
Hương_chủ 300
Mục_Niệm 300
Tôn_giá 300
Quy_chế 299
linh_kiện 299
mong_chờ 299
gam 299
Chính_sách 299
xà_phòng 299
bao_cao_su 299
khóm 299
Lao_@@ 299
Bí_@@ 299
Dưỡng 299
Pu@@ 299
nặng_trĩu 299
Xá 299
co_rúm 299
Hoành_@@ 299
đại_cục 299
Bửu 299
tơi_bời 299
biết_mấy 299
5/2012_Dịch_cúm_A 299
cá_voi 299
quái_gở 299
hưng 299
Dịch_giả 299
khích_động 299
xảo_diệu 299
Việt_Minh 299
Giave 299
Tô_Khôn 299
Siêu_Phong 299
bài_bản 298
ấn_định 298
96@@ 298
Năng_lượng 298
rổ 298
anh@@ 298
Chủ_nhiệm 298
nhiệt_đới 298
sơ_@@ 298
Lộc_@@ 298
Khoa_@@ 298
thoái_hóa 298
_thuật 298
Ngưng 298
thô_bạo 298
ẹo 298
ắ@@ 298
úa 298
vóc 298
vận_tốc 298
tiên_đoán 298
Nhã_@@ 298
chần_chờ 298
thửa 298
ngoái 298
la_ó 298
Đáng_lẽ 298
nháy 298
đánh_phá 298
mãnh_thú 298
chả_lẽ 298
Thanh_Lương 298
lần_mò 298
chúng_mày 298
hô_hố 298
Liên_Châu_@@ 298
trung_quân 298
veo_véo 298
Thao_Thiết 298
Ðinh_Ðiển 298
Tênácđiê 298
mo 297
ưu_ái 297
Mừng 297
máy_vi_tính 297
Tức_@@ 297
Mật_@@ 297
Sung 297
ngao 297
tiết_@@ 297
làm_ngơ 297
cá_tra 297
ắt_hẳn 297
Chén 297
khẩn_cầu 297
oanh_tạc 297
nhà_Vua 297
Ối 297
vời 297
truyền_thần 297
tử_thương 297
Đào_Hoa 297
Ðại_Nham 297
Hồng_Kông 296
Viet@@ 296
Min@@ 296
tuần_hoàn 296
thể_nào 296
chuyên_đề 296
ak 296
trầm_cảm 296
Bảo_vệ 296
vô_sinh 296
kiềm 296
vợt 296
ĩ@@ 296
Mac@@ 296
ợ@@ 296
art 296
huấn 296
Emma 296
phút_giây 296
tầng_hầm 296
đỏ_hoe 296
bực_dọc 296
bỉ_ổi 296
chống_trả 296
chứ_sao 296
Terry 296
7/12 296
Nadal 296
long_trọng 296
thâm_độc 296
Hối 296
dĩ_vãng 296
Vú 296
hàm_hồ 296
Uyển_Nhi 296
Hải_Lưu 296
phu_phụ 296
Kinh_Vũ 296
phần_phật 296
Quảng_Lăng 296
−_Lão 296
gặm 295
hỗn_độn 295
vẻ_ngoài 295
Nạn_nhân 295
giải_ngân 295
trích_dẫn 295
Trả 295
tai_biến 295
Liên_Hợp_Quốc 295
áng_@@ 295
trục_xuất 295
lồi 295
nhường_nhịn 295
rộn 295
dăm 295
xiên 295
Tường_@@ 295
khí_công 295
bán_hoa 295
Ngày_hội 295
nan_giải 295
tẩu_thoát 295
hờn 295
tuyệt_sắc 295
hư_thực 295
tiên_nữ 295
Võ_lâm 295
hung_tợn 295
kiếng 295
khẩn_yếu 295
đèn_lửa 295
Mộ_Bình 295
Phát_biểu 294
4.000 294
chào_mừng 294
đổ_xô 294
hóa_đơn 294
9/@@ 294
ều 294
Thạnh 294
tiêu_chảy 294
tảo 294
sang_sảng 294
Vết_thương 294
Ứ@@ 294
để_dành 294
chưng 294
ạn 294
bán_chạy 294
suy_@@ 294
ụt 294
nhượng 294
mặt_trắng 294
LHQ 294
hào_phóng 294
Trấn_@@ 294
hào_hiệp 294
thổ_dân 294
độc_địa 294
niệm_Phật 294
Chưởng_@@ 294
phụ_hoàng 294
hốt_nhiên 294
Võ_Đang 294
Thượng_Quan_Long 294
Thời_điểm 293
ban_công 293
Cá 293
xa_xỉ 293
huyết_@@ 293
ài_@@ 293
th_@@ 293
lâm_trận 293
Pierre 293
mật_@@ 293
miên_man 293
RE 293
cứu_@@ 293
giám_định 293
kềm 293
suy_xét 293
dại_dột 293
Du_khách 293
cấm_@@ 293
chất_phác 293
đổi_thay 293
làm_thuê 293
nói_xấu 293
Thịnh_@@ 293
Oai 293
Nỗi_lòng 293
_tình 293
Bầy 293
phụ_họa 293
keng 293
ai_oán 293
tỉ_thí 293
rịt 293
thành_ý 293
lồm_cồm 293
tiếp_kiến 293
Tuyên_Vĩnh 293
Tam_Nương 293
Phan_Ma_Lôi 293
Kỷ_Thiến 293
ật 292
TB@@ 292
nguy_hại 292
xi_măng 292
Rời 292
Like 292
iệ@@ 292
ac 292
ỏ@@ 292
tọa_lạc 292
Vận_@@ 292
Nguyễn_Hoàng_@@ 292
hoa_văn 292
…@@ 292
Land 292
Tranh_chấp 292
ngoại_tình 292
Lạnh 292
đại_lễ 292
Cỗ 292
hiểm_ác 292
Tả_@@ 292
Hoàng_My 292
Phen 292
Trư 292
Khuông 292
Truyện 292
đại_ác 292
xu_thế 291
360 291
đảm_đương 291
chuyên_khoa 291
_thể 291
M. 291
na@@ 291
Nho 291
biên_soạn 291
mê_tín 291
qua_loa 291
ơ_@@ 291
nán 291
đung_đưa 291
kế_đó 291
Tiếp_@@ 291
Mai_Sơn 291
nghênh 291
đô_đốc 291
16/12 291
_tướng 291
Úy 291
ra_gì 291
--- 291
căm_tức 291
mồn_một 291
Thù 291
văn_sĩ 291
Nhan_@@ 291
khiếu_hoá 291
nhuệ_khí 291
„_Ðó 291
le_@@ 290
tháo_gỡ 290
thứ_Sáu 290
golf 290
aya 290
phím 290
chướng 290
Trái 290
triệt 290
cũi 290
era 290
Nông 290
ÊN 290
ến 290
ọt 290
trầm_trồ 290
trinh 290
khuỵu 290
bộ_óc 290
Tế_@@ 290
bi_@@ 290
Ngô_Thị_Diễn 290
Nhâm_Thìn 290
Tỏa 290
chìa_tay 290
Ơ 290
khiếp_đảm 290
nhạn 290
Vong 290
Nhất_Tiếu 290
phụ_nhân 290
Sculley 290
tạo_dựng 289
tion 289
in_@@ 289
bắt_lấy 289
CN 289
giả@@ 289
đám_đông 289
tập_quán 289
Thiền_@@ 289
tích_tắc 289
trí_óc 289
ắt_@@ 289
ân_ái 289
nanh 289
đối_ngoại 289
tuyệt_chiêu 289
trợ_lực 289
thảm_sát 289
Kính_Bentley 289
lùng 289
giải_trừ 289
Sanh 289
mượn_cớ 289
trách_phạt 289
chòng_chọc 289
bồ_tát 289
chiện 289
Khấu_Trọng_ta 289
cải_biến 289
nô_bộc 289
tri_huyện 289
ừ@@ 288
Quảng_trường 288
tâng_bốc 288
Tờ 288
xoang 288
Năng 288
bạch_@@ 288
tư@@ 288
Ước 288
tử@@ 288
ớn_lạnh 288
Suy_nghĩ 288
_thành 288
rộng_mở 288
thạo 288
chốc_chốc 288
Mái_tóc 288
ngũ_tạng 288
mút 288
nga 288
my 288
cứu_hỏa 288
Quan_chức 288
net 288
Hoang_@@ 288
Chơi 288
Bay 288
Mặc_dầu 288
máu_me 288
nh-@@ 288
Hưởng_ứng 288
Ngũ_Hành 288
khôn_khéo 288
phó_tướng 288
làm_thịt 288
khờ 288
khôi_ngô 288
râu_ria 288
giãy_giụa 288
nóng_nẩy 288
leng_keng 288
số_mệnh 288
gảy 288
Bành_@@ 288
đại_bại 288
tương_kiến 288
Ðào_Cốc 288
Vương_Bá 288
giám_mã 288
Pazini 288
8.@@ 287
thượng_đỉnh 287
thế_chấp 287
thổ_@@ 287
ent 287
xô_đẩy 287
ess 287
mỳ 287
ụi 287
Hoàng_Mai 287
ene 287
lý_thú 287
bằng_cấp 287
trắng_trẻo 287
hội_viên 287
Hoan 287
đầu_độc 287
Pan@@ 287
biết_việc 287
chơi_bời 287
Luân_@@ 287
Johnson 287
/19@@ 287
_lòng 287
ngọ 287
xa_rời 287
thiểu_số 287
Mậu_@@ 287
dáng_dấp 287
toàn_tâm 287
quảng_đại 287
TBN 287
Khiết_Đan 287
Bùi_Thị_@@ 286
học_thuật 286
giá_thành 286
khắt_khe 286
ự@@ 286
Năm_ngoái 286
thủy_điện 286
Điều_@@ 286
Hội_đồng_@@ 286
cảm_thông 286
pho@@ 286
tuổi_thọ 286
PGS 286
nhức_nhối 286
hỗn_hợp 286
nhúng 286
chà 286
Ben@@ 286
Chuyên_@@ 286
Giá_như 286
nóng_hổi 286
nóng_ruột 286
Đèn 286
ráo_riết 286
phe_phẩy 286
biên_@@ 286
mê_cung 286
xung_phong 286
tính_chuyện 286
Chánh_@@ 286
SUV 286
Nóng_bỏng 286
photoshop 286
hẹp_hòi 286
Hà_Bắc 286
minh_châu 286
Hồ_Xung_hỏi 286
Huyền_Trinh 286
Hoàng_Chung_Công 286
Đồng_Mỗ 286
D_@@ 285
như@@ 285
AS@@ 285
nhiễu 285
trụ_cột 285
phản_xạ 285
Chỉ_số 285
hải_ngoại 285
ngộ_độc 285
oxy_hóa 285
đồ_ăn 285
Khang_@@ 285
Chi@@ 285
tơ@@ 285
phương_Đông 285
Uỷ_ban_@@ 285
Mười_@@ 285
thị@@ 285
ón 285
ễ 285
Mao_@@ 285
xổ 285
Nguyễn_Quang_@@ 285
Cái_@@ 285
Đăng_ký 285
Trạm 285
sẵn_lòng 285
rung_rinh 285
iết 285
Hồi_âm 285
thật_tình 285
hôn_lễ 285
đương_kim 285
thành_tâm 285
khoái_chí 285
Sài_gòn 285
Nguyên_văn 285
sực_tỉnh 285
gan_dạ 285
Phong_Ba 285
bất_nghĩa 285
dìa 285
Tiểu_Lăng 285
Brandon 285
UB@@ 284
Trương_Phi 284
cộng_sự 284
ine_@@ 284
ngon_miệng 284
nặng_nhọc 284
hình_vuông 284
tàn_tật 284
bách_bệnh 284
Huân 284
nể_nang 284
kiêu 284
cực_mạnh 284
Khắp 284
Phút 284
thiên_hà 284
Cavalli 284
Điên 284
truyện_ngắn 284
nết 284
bạc_phơ 284
lâu_la 284
nhà_bác_học 284
Chú_thích 284
võ_@@ 284
Ma_Thường 284
Tú_Phương 284
sư_huynh_đệ 284
Dôia 284
1992 283
Ủy_viên 283
_tỉ 283
tham_chiếu 283
Thuế 283
Yêu_@@ 283
bốc_hơi 283
Viện_trưởng 283
Shi@@ 283
đô@@ 283
ó@@ 283
khiên 283
Vụ_việc 283
phần_tử 283
nhàn 283
VÀ 283
thoại 283
Hệ_TCCN 283
hắng 283
xích_mích 283
Con_nhỏ 283
Ai_bảo 283
sỉ_nhục 283
Thỉnh 283
nực_cười 283
ôm_đầu 283
hôn_quân 283
quang_lâm 283
Mã_Cát 283
Đào_Thục_Nhi 283
rau_quả 282
bến_xe 282
NATO 282
nóng_bức 282
biệt_@@ 282
cảnh_@@ 282
rào_cản 282
350 282
Tái_@@ 282
Quản_@@ 282
trị_liệu 282
86@@ 282
Cán_bộ 282
1994 282
sinh_tồn 282
khuyến_nghị 282
ấm_@@ 282
Cương_@@ 282
café 282
quảng_bá 282
297 282
Hạnh_phúc 282
bé_bỏng 282
lợp 282
bào_chữa 282
ba_má 282
dấu_tích 282
khen_thưởng 282
Tụ 282
Chứt 282
ghế_bành 282
Xích_@@ 282
Macintosh 282
triều_chính 282
sằng_sặc 282
Phục_Khiên 282
soẹt 282
thở_hồng_hộc 282
Thân_Vương 282
Dương_Văn_Can 282
Đà_Lôi 282
khen_thầm 282
Cửu_Trùng 282
Bút_Chì 282
ten@@ 281
thích_ứng 281
giữa_chừng 281
trú_ẩn 281
ban@@ 281
thua_lỗ 281
xuống_cấp 281
vo@@ 281
phình 281
Hỗ_trợ 281
lin 281
nhu_@@ 281
nốt_ruồi 281
Thọ_@@ 281
cốt_lõi 281
'_' 281
Bối_@@ 281
bụi_bặm 281
thương_binh 281
bênh 281
khỏa_thân 281
quá_@@ 281
cao_vút 281
đen_kịt 281
lóa 281
sâu_rộng 281
mềm_lòng 281
/08/2011 281
đoá 281
sáng_trưng 281
mất_hồn 281
tình_ái 281
Mộ 281
châm_biếm 281
sớ 281
bình_định 281
nhân_sĩ 281
nho_sinh 281
càn_rỡ 281
sáng_quắc 281
địa_đồ 281
Daswood 281
cộng_tác 280
thoả_thuận 280
điều_khoản 280
mẹo 280
tỉnh_thành 280
công_dụng 280
Win@@ 280
hy@@ 280
Trinh_@@ 280
Is@@ 280
ât 280
nhút_nhát 280
nước_lớn 280
Có_@@ 280
ỹ 280
Thông_điệp 280
hồi_@@ 280
hỗn_chiến 280
đè_bẹp 280
Mỹ_nữ 280
nha_dịch 280
Diệu_Tử 280
cường_đạo 280
Dương_Khắc 280
Xương_Văn_quân 280
Chúa_công 280
Tô_Phổ 280
lắp_ráp 279
Vui 279
OPEC 279
khởi_nghiệp 279
Ý_@@ 279
oc@@ 279
Giải_pháp 279
đề_kháng 279
thức_@@ 279
vít 279
02@@ 279
mm 279
_môn 279
vất 279
ini 279
And@@ 279
ưởng 279
ăn_năn 279
mail 279
ứng_cử_viên 279
Vinh_@@ 279
Quả_bóng_vàng 279
Thầy_giáo 279
chôn_vùi 279
quốc_vương 279
cố_sức 279
sinh_sự 279
cỡi 279
Hồ_Tiểu_Tiên 279
bất_phàm 279
Thiện_Nhu 279
Hắc_Bạch 279
hiệp_định 278
Thành_ủy 278
Fu@@ 278
Kha_@@ 278
Nắng 278
Ag@@ 278
tận_tay 278
robot 278
ngũ_@@ 278
ãi_@@ 278
kỳ_công 278
ênh 278
Nhữ_@@ 278
nơ 278
Bộ_Quốc_phòng 278
Đạo_diễn 278
hồ_nghi 278
khó_hiểu 278
Lư_@@ 278
Nhà_xuất_bản 278
25/12 278
Beckham_Benfica 278
V-League 278
Napoli 278
thăng_quan 278
ảo_ảnh 278
hẳn_hoi 278
coi_bộ 278
Loa 278
Đóa 278
tha_lỗi 278
Thân_thể 278
diện_mục 278
A_Tú 278
Ðinh_Xuân_Thu 278
/6/2019 277
xúc_tiến 277
đồng@@ 277
tắc_nghẽn 277
ủy_viên 277
triền_miên 277
sữa_chua 277
đầu_bảng 277
1980 277
lún 277
cô_@@ 277
ôi_@@ 277
hà@@ 277
Coi_chừng 277
pu@@ 277
hôi_thối 277
Tặng 277
đánh_tan 277
chán_ngán 277
Bạn_bè 277
dây_cót 277
lãng_quên 277
nhà_ga 277
âng 277
khoan_dung 277
Tiệp 277
khung_cửa 277
vũ_@@ 277
người_xưa 277
Nhức_nhối 277
cãi_vã 277
yahoo 277
ướt_sũng 277
thâm_sâu 277
thiểm 277
tinh_quang 277
hầu_gia 277
Châu_Nhân_Ký 277
Thiên_Nhận 277
Hoa_Thiết_Can 277
Giăng_VanGiăng 277
Vietnam 276
Air@@ 276
muôn_vàn 276
trào_lưu 276
1999 276
tt@@ 276
phản_bác 276
Đổ 276
gắn_kết 276
qui_định 276
gia_truyền 276
cẩm 276
Hen@@ 276
rêu 276
23/1 276
sành_điệu 276
Huấn 276
nôi 276
cực_@@ 276
vi-rút 276
8/3_Điểm 276
Nhân_Từ 276
mấy_mươi 276
lẻ_loi 276
chế_nhạo 276
Cheng 276
Phàn 276
quyền_quý 276
Hỏng 276
Ðịnh_Dật_sư 276
chư_tướng 276
đại_nghiệp 276
Tiểu_Trúc_Phong 276
Lý_Tự_Thành 276
Lâm_Bình_Chi 276
Quách_Khai 276
khuyến_mãi 275
Wal@@ 275
Bà_Rịa 275
HI@@ 275
tằm 275
A. 275
­ 275
sáng_chói 275
vừa_vặn 275
Đề_@@ 275
khánh_thành 275
ướp 275
ung_@@ 275
đói_bụng 275
ograve 275
nhất_@@ 275
sơ_sài 275
vé_số 275
_thị 275
Nhẫn 275
khác_xa 275
dính_dáng 275
Màn 275
Án 275
thấp_thỏm 275
Thùy_Dung 275
nhấc_bổng 275
hùa 275
Đại_Vương 275
Trác_Nhượng 275
Gia_Luật_@@ 275
A_Tử_@@ 275
Doãn_Trừng 275
chức_danh 274
khó_tính 274
Hạn_chế 274
Đối_tượng 274
4S 274
Tăng_cường 274
vã 274
phụt 274
đường_kính 274
áo_len 274
kề_cận 274
Pho 274
cực_độ 274
nghẹt 274
Fer@@ 274
lười_biếng 274
đưa_đón 274
/1/2012 274
Ngữ 274
VNM 274
sân_cỏ 274
hấp_hối 274
đánh_đuổi 274
xộc 274
ngoằn_ngoèo 274
căm_phẫn 274
thượng_du 274
Nhậm_Dao 274
trại_chủ 274
vạn_nhất 274
Huyền_Hoa 274
Huyết_Ðao 274
._Đối_với 273
não_bộ 273
euro 273
chỉ_@@ 273
ốm_yếu 273
._Khoảng 273
giá_bán 273
Đa_khoa 273
nghèo_nàn 273
bút_chì 273
Sợi 273
chất_@@ 273
Đa_số 273
Ngộ 273
phúc_lợi 273
Thủ@@ 273
rỗi 273
BMW 273
trồi 273
kềm_chế 273
…_Anh 273
thoăn_thoắt 273
A-@@ 273
/06/2019 273
ge 273
Wenger 273
Becks 273
dửng_dưng 273
đại_họa 273
Kiếp 273
kia_kìa 273
trác_tuyệt 273
quốc_công 273
cự_địch 273
võ_quan 273
ngồi_phệt 273
468.000 273
Tru@@ 272
TS. 272
ngụ_ý 272
điểm_nóng 272
op@@ 272
rìa 272
tần 272
CSĐT 272
dế 272
cần_dùng 272
PGS.TS 272
M.@@ 272
quỵ 272
im@@ 272
xước 272
quyết_@@ 272
hợp_thành 272
ệ@@ 272
dị@@ 272
à_@@ 272
máu_@@ 272
ngang_dọc 272
độn 272
mạo_danh 272
truy_cứu 272
Amsterdam 272
Quốc_Hưng 272
phong_thủy 272
Lệ_Hằng 272
Chiêm_ngưỡng 272
gớm 272
Vòng_quanh 272
thắm 272
vạc 272
thô_tục 272
tứ_tung 272
quân_chủ 272
Thản 272
thánh_giá 272
tung_toé 272
Xung_nhi 272
Cơ_Biệt 272
Mộ_Dung_Bảo 272
Đường_Toàn 272
hung_thần 271
Quy_hoạch 271
gánh_chịu 271
50.000 271
chủ_nghĩa_@@ 271
nghiêm_minh 271
tác_hại 271
Dinh_dưỡng 271
272 271
phát_âm 271
hỏa_khí 271
xúc_cảm 271
mát_@@ 271
Khoảnh_khắc 271
đèn_pin 271
Đại_học_@@ 271
êm_dịu 271
thẩm_phán 271
lẩn_tránh 271
nhấn_chìm 271
thong_dong 271
khởi_sự 271
uy_nghi 271
giai_điệu 271
Tốp 271
Lừa 271
Đoàn_Văn_Vươn 271
an_táng 271
dễ_nghe 271
phong_kiến 271
lồng_lộng 271
Khôn 271
Diễm_Nữ 271
thế_thủ 271
Lý_gia 271
đại_biến 271
Vân_Soái 271
Mục_Trường 271
Tam_Lại_Tử 271
nước_sạch 270
ari 270
Z 270
Gr@@ 270
chủ_sở_hữu 270
pro@@ 270
ùng 270
vận_động_viên 270
ặc 270
cấu_tạo 270
Thư_@@ 270
trục_trặc 270
vin 270
sức_nặng 270
nuốt_chửng 270
ục_@@ 270
ích_@@ 270
Wi@@ 270
Mạng 270
rúc 270
Sóc 270
thể_chế 270
quốc_dân 270
Cảng 270
tồn_kho 270
Quán_@@ 270
Khỏi 270
HTC 270
éc 270
bất_hiếu 270
gia_tài 270
Thái_sư 270
Không_đâu 270
biết_@@ 270
tự_đắc 270
Keng 270
Tử_Lăng_lắc_đầu 270
Tiêu_Tiễn 270
Uông_Dụ_Hàm 270
Sử_Địa 270
Clericuzio 270
Bất_Ðồng 270
Senga 270
Thiên_ca 270
sinh_thái 269
leo_thang 269
àn 269
trăm_nghìn 269
KI@@ 269
Đơn_@@ 269
chất_lỏng 269
đoàn_viên 269
kinh_nguyệt 269
khiển_trách 269
Ken@@ 269
u_buồn 269
ngượng_nghịu 269
ấp_ủ 269
Nguyễn_Duy_@@ 269
nam_châm 269
Thí_dụ 269
sạt_lở 269
Cây_@@ 269
mìn 269
AVG 269
kiếm_khách 269
VĐV 269
mưu_trí 269
thám_hiểm 269
hợp_tình 269
Nguyên_tử 269
đứng_tuổi 269
thi_thố 269
chúng_bay 269
Chư_vị 269
Chấn_Kỳ 269
Công_nghệ_@@ 268
Đống 268
Thông_qua 268
Dầu_khí 268
dòng_chảy 268
chiều_tối 268
nắn 268
ặt 268
Xương_@@ 268
chửa 268
cung_đình 268
lể 268
ngón_trỏ 268
bói 268
lũng_đoạn 268
triều_@@ 268
LulzSec 268
Bồ_@@ 268
chết_ngạt 268
Meryl 268
Streep 268
cửa_miệng 268
hư_danh 268
trơ_trọi 268
đao_phủ 268
Bất_thình_lình 268
nghĩa_quân 268
cả_giận 268
Trương_Khang_Niên 268
phản_loạn 268
Vích-ky 268
com@@ 267
lời_@@ 267
Au@@ 267
hiểm_nguy 267
kích_hoạt 267
sin 267
Email 267
lưỡng_@@ 267
Yu@@ 267
Cl@@ 267
số@@ 267
Margaret 267
Ngo@@ 267
giỗ 267
Thủy_. 267
oa 267
Bor@@ 267
Rắc_rối 267
Diễn_@@ 267
khuy 267
Phận 267
ém 267
căn_cơ 267
can_dự 267
hùng_hồn 267
rìu 267
17/12 267
Đồng_chí 267
Ðức_@@ 267
hoạn 267
linh_nghiệm 267
nhập_môn 267
đen_ngòm 267
một_chốc 267
thâm_tình 267
Chính_Phong 267
Nhà_ngươi 267
Nhất_thời 267
thông_tri 267
Trác_Kiều 267
Tà_Đế_Xá_Lợi 267
pháp_môn 267
Lagodenko 267
._Việc 266
định_giá 266
AR@@ 266
100.000 266
Thường_vụ 266
tự_trọng 266
óc_@@ 266
ma_tuý 266
og@@ 266
ồ@@ 266
Hồng_Anh 266
mắc_kẹt 266
Qui_@@ 266
đóng_@@ 266
nội_trú 266
Gái 266
Si 266
mưu_sinh 266
Mộ_@@ 266
laptop 266
dân_tộc_thiểu_số 266
Hoanh 266
đấu_@@ 266
VnEconomy 266
thất_lạc 266
ngập_tràn 266
đại_bàng 266
đôn 266
[_Trang 266
di_chúc 266
NXB 266
ký_tên 266
Derek 266
bao_xa 266
vây_hãm 266
định_bụng 266
Phất 266
GDĐT_@@ 266
Mục_quang 266
Mông_Ngao 266
Tam_đệ 266
Ngọc_Thanh_Điện 266
„_Vậy 266
Vạn_Hương 266
diệt_vong 265
160 265
130 265
Trải_nghiệm 265
Giai 265
kìm_nén 265
thức_uống 265
Phường 265
ôn@@ 265
Thụy_@@ 265
ino 265
đặc_sản 265
dấn 265
George_@@ 265
ảy 265
què 265
trả_đũa 265
ẫm 265
ngọc_@@ 265
phù_@@ 265
sưa 265
đồng_hương 265
tha_chết 265
Thiểm 265
thợ_@@ 265
Đả 265
muôn_đời 265
Nhà_thờ 265
tú_tài 265
lầm_lỗi 265
tiền_sảnh 265
Hoàng_thái_hậu 265
hiểm_yếu 265
Trương_huynh 265
Trần_Lão_Mưu 265
biến_sắc_mặt 265
Kunađu 265
News_VTC_News 265
Tỉnh_ủy 264
dư_nợ 264
chiếm_lĩnh 264
1,2 264
1/2019 264
thu_mua 264
Comp@@ 264
2,5 264
hoạch_định 264
Cơ_thể 264
XH 264
MA@@ 264
Bel@@ 264
J 264
trưng 264
Y_khoa 264
ổ@@ 264
than_@@ 264
chằng_chịt 264
Thật_sự 264
ôm_ấp 264
bõ 264
òm 264
m-@@ 264
chếch 264
đài_@@ 264
bùi_ngùi 264
Hoàng_Sa 264
tuỳ_tiện 264
nội_chiến 264
Nhân_Nghĩa_thương_yêu 264
mọn 264
vun_vút 264
Khuất_@@ 264
sốt_sắng 264
toẹt 264
quân_Thanh 264
gian_ác 264
im_phăng_phắc 264
Tướng_@@ 264
cầm_thú 264
hắc_ám 264
hầu_bàn 264
Ðồ_Long 264
Đậu_Kiến_Đức 264
khoản_đãi 264
Khai_Phong 264
Bột_Bột 264
nông_sản 263
12,@@ 263
đại_đa_số 263
tâm_điểm 263
đắt_đỏ 263
doanh_số 263
1993 263
man_@@ 263
í_@@ 263
kiểm_lâm 263
180 263
đồ@@ 263
giải_mã 263
biệt_danh 263
phân_bổ 263
ons 263
the@@ 263
dể 263
ở_@@ 263
lằn 263
trí_tưởng_tượng 263
vệ_binh 263
container 263
MobiFone 263
Thành_thử 263
cổ_kính 263
cuống_cuồng 263
khôn_cùng 263
con_nhỏ 263
vãi 263
10:@@ 263
bậy_bạ 263
bất_nhẫn 263
nhòm 263
khởi_binh 263
Nữ_tử 263
Đại_Thanh 263
Chúa_Trời 263
mĩm 263
Ngọc_Dương_Tử 263
27.066 263
nhà_riêng 262
điển_trai 262
ngoại_tệ 262
War@@ 262
_liệu 262
Tinh_thần 262
download 262
AC@@ 262
._Nếu 262
ngoác 262
quần_@@ 262
hữu_dụng 262
chen_lấn 262
sinh_trưởng 262
ste@@ 262
non_nớt 262
Kỳ_thực 262
Bông 262
Henry 262
bất_chính 262
lỗ_tai 262
sứ_mạng 262
lựu_đạn 262
Xóm 262
sáng_loáng 262
Tối_qua 262
vang_lừng 262
ưu_tư 262
láo 262
cha_anh 262
bất_kính 262
thúi 262
uổng_công 262
lão_hủ 262
thần_lực 262
„_Ðừng 262
Trọng_Viễn 262
Dư_Thượng_Hải 262
Vương_tử 262
trị_tội 262
Tôn_giả 262
Nhã_Lan 262
Thiếu_Nguyên 262
CN@@ 261
ãi 261
Duyên_@@ 261
tương_phản 261
quyền_sở_hữu 261
toàn_phần 261
then_chốt 261
xoá 261
bồng_bềnh 261
Đắc 261
gửi_gắm 261
lỗ_mũi 261
ani 261
gạt_bỏ 261
dan@@ 261
Hiếm 261
Liên_đoàn 261
Elizabeth 261
nhân_hậu 261
giao_phó 261
luống 261
Bằng_@@ 261
học_lực 261
VCB 261
toan_tính 261
Sch@@ 261
an_nhiên 261
18/2 261
10/12 261
cứa 261
xẻng 261
đại_nạn 261
rứa 261
bất_lương 261
toét 261
cần_ta 261
binh_quyền 261
Nghĩa_phụ 261
Hoảng_Công_Thác 261
Giang_Ninh 261
Thượng_Quan_@@ 261
ảo_diệu 261
mũi_nhọn 260
CA@@ 260
bong_bóng 260
đình_@@ 260
Morgan 260
quả@@ 260
ò@@ 260
độc_chất 260
rình_rập 260
Mari@@ 260
rắn_chắc 260
Dàn 260
núi_lửa 260
8-@@ 260
to_béo 260
1995 260
Mặc_@@ 260
Phép 260
Na_@@ 260
ử@@ 260
vay_mượn 260
tán_đồng 260
đường_sá 260
cực_khổ 260
nhơ 260
cáp 260
nương_tay 260
Cty 260
Quên 260
lỡ_tay 260
tông_tích 260
lững_thững 260
nửa_chừng 260
Hả 260
lả_tả 260
song_toàn 260
Tư_Mã_Diệu 260
Dư_Hồng 260
„_Có 260
nghĩa_huynh 260
Huyết_Châu 260
Olivetti 260
Veronika 260
nòng 259
ế_@@ 259
chật_chội 259
,000 259
ẽ@@ 259
thế@@ 259
Bur@@ 259
choáng 259
mủ 259
muỗng 259
X_@@ 259
za 259
linh_chi 259
dĩa 259
tiếng_vang 259
ôn_@@ 259
7877 259
vô_t@@ 259
dâm_ô 259
vãng 259
hăm_hở 259
_tính 259
Thủ_lĩnh 259
Van_Persie 259
cung_cách 259
Nguyễn_Đức_Tâm 259
quái_đản 259
ngoái_đầu 259
Búp 259
dụa 259
thí_dụ 259
nông_cạn 259
tăm_tối 259
chiếu_rọi 259
phịch 259
yêu_quái 259
Silas 259
Ngõa_Cương 259
Khoản 258
lệ_phí 258
thương_vụ 258
nhị_@@ 258
cám_dỗ 258
Bảo_hiểm 258
bã 258
phai 258
Doãn_@@ 258
ăng_@@ 258
a_h@@ 258
xa_lánh 258
Khách_sạn 258
nghỉ_hè 258
gian_@@ 258
thống_soái 258
xào_xạc 258
Phùng_Xuân_Nhạ 258
xén 258
Chỉ_huy 258
bạ 258
Kỳ@@ 258
công_phá 258
ồn_@@ 258
30/1 258
ác_quỷ 258
ụp 258
tụng 258
điểm_chuẩn 258
bát_quái 258
Bát_Nhã 258
tan_xương 258
Tử_Lăng_đáp 258
Chính_Tâm 258
Nghi_Thanh 258
Elvis_Đậu 258
Đại_biểu 257
ND@@ 257
Y_học 257
/199@@ 257
chiều_hướng 257
gia_hạn 257
cho_biết 257
cựa_quậy 257
quế 257
truyền_@@ 257
cáu_kỉnh 257
sung_mãn 257
ệ_@@ 257
hơi_lạnh 257
linh_tinh 257
qua_ngày 257
mô_phỏng 257
ly_@@ 257
xe_tăng 257
khả_ái 257
8/@@ 257
bỉ 257
cặn_kẽ 257
Kiểu 257
Mary 257
Bé_gái 257
Fre@@ 257
Đô@@ 257
ngủ_say 257
toàn_quyền 257
kết_tội 257
Ngoại_thương 257
trứ_danh 257
Lật_tẩy 257
IELTS 257
tí_hon 257
nhỏ_Người_mẫu 257
Mỹ_nhân 257
quây 257
Tà 257
giậm_chân 257
quay_phắt 257
thanh_tịnh 257
trung_thần 257
quan_ải 257
Hoa_Thiết_Cán 257
Chung_Linh 257
9.@@ 256
Hường 256
Trump 256
TV@@ 256
thanh_lịch 256
liên_bang 256
khoáng_sản 256
Khách_hàng 256
Men@@ 256
ling 256
miệt_mài 256
ẹp 256
từ_@@ 256
váng 256
tái_xanh 256
xoài 256
Đốc 256
Wil@@ 256
thổ_huyết 256
ượng 256
nhờ_vả 256
20/1 256
Hollywood 256
Bài_hát 256
Online 256
cánh_tay_phải 256
khảm 256
thanh_bình 256
ỳ 256
Mông_@@ 256
Xe_@@ 256
Tottenham 256
nguy_ngập 256
vẩn_vơ 256
lặng_im 256
Hoàng_Liên 256
lạ_mặt 256
mịt_mù 256
vở_kịch 256
phu_thê 256
Saif 256
ám_hiệu 256
cao_môn 256
Ðiện 256
Huyền_Thúy 256
Hoàn_Nhan_Khang 256
Hầu_Cương 256
Số_Không 256
Chu_Bá_Thông 256
Kunadu 256
THPT.Sau 256
chủ_đạo 255
4.0 255
chị_gái 255
sữa_tươi 255
triệu_đô 255
2030 255
truy_nã 255
30.000 255
hải_quan 255
sinh_lực 255
Điện_tử 255
nhiễm_khuẩn 255
tổn 255
xốp 255
Hoà_@@ 255
hơi_nước 255
nhỏ_giọt 255
Tục 255
rô@@ 255
ina_@@ 255
song_sinh 255
ôm_chầm 255
Hoà@@ 255
có_một_không_hai 255
Cải_cách 255
vui_thích 255
ẩn_tàng 255
nợ_nần 255
thừ 255
Tuất 255
hèn_nhát 255
nguyền 255
Ðặng_@@ 255
há_mồm 255
quỷ_thần 255
Tam_Bí 255
khinh_bạc 255
Tát_Khắc 255
Phước_Oai 255
đao_thương 255
đại_Tần 255
„_Nếu 255
tửu_điếm 255
Vương_Hãn 255
Gia_Luật_Hồng_Cơ 255
Lý_Hóa_Sinh 255
062019 255
Nông_nghiệp 254
Số_lượng 254
Đau 254
ản 254
àu 254
khắc_khổ 254
chi_chít 254
ts@@ 254
ur 254
Hầu_như 254
cai 254
Phương_Anh 254
eacute 254
đổi_giọng 254
Dan@@ 254
báo_giới 254
thánh_@@ 254
tài_tình 254
gán 254
mặc_nhiên 254
gợn 254
tập_kết 254
Hư_@@ 254
Khinh 254
gian_trá 254
vỗ_ngực 254
Chẳng_@@ 254
tay_cầm 254
bất_hòa 254
hý 254
cướp_lời 254
ngào_ngạt 254
vô_vi 254
tận_trung 254
Ðộng 254
làm_thinh 254
Thát_Ðát 254
Thiên_Nhân_Viên 254
Lăng_Sơ_Bát 254
052019 254
._Đây 253
ày 253
cao_tầng 253
76@@ 253
1_% 253
IV 253
Thủ_Đức 253
hợp_ý 253
kiểm_chứng 253
Vitamin 253
min@@ 253
thai_nhi 253
trắng_@@ 253
dương_vật 253
kính_nể 253
li_ti 253
Tú_Anh 253
Bách_khoa 253
dùi 253
kéo_@@ 253
thầm_kín 253
ầm_@@ 253
7/11 253
bài_giảng 253
mây_khói 253
sột_soạt 253
cạch 253
ệt 253
Đông_Đô 253
Hoán 253
Nam_Hải 253
12/2011 253
nghĩa_địa 253
chui_lọt 253
rách_nát 253
Thình_lình 253
dạ_@@ 253
giáo_sĩ 253
cốt_nhục 253
cột_buồm 253
thâm_ý 253
giặc_cướp 253
Ngô_Hán_Thanh 253
thông_lệ 252
10.@@ 252
ưa_chuộng 252
Basel 252
Đề_án 252
Sinh_tử 252
Anh_Tuấn 252
kích_cỡ 252
Cấp 252
Quốc_Tuấn 252
Tường_Vi 252
thao_tác 252
zi@@ 252
mẫu_giáo 252
ngót 252
Ă@@ 252
bốc_lửa 252
sống_@@ 252
Hơi 252
gian_hàng 252
hói_đầu 252
gốm 252
Li 252
thèm_khát 252
Trại 252
cường_quốc 252
thế_rồi 252
31/12 252
môn_Sinh 252
đánh_trống 252
tiên_tri 252
xiềng 252
hết_hồn 252
bi_ai 252
thấp_kém 252
Lương_Đô 252
chi_phái 252
Tạ_Nam 252
Diêm_La 252
66@@ 251
ặng 251
tỉnh_@@ 251
thất_thoát 251
xoa_dịu 251
Ung 251
xanh_lè 251
thuần_khiết 251
mắm 251
thì_giờ 251
vô_giá 251
tịch_thu 251
Ngón_tay 251
nỗi_niềm 251
phương_trình 251
tội_danh 251
gùi 251
Hàng_không 251
phạm_@@ 251
vạch_trần 251
tường_trình 251
Nội_lực 251
Tripoli 251
Nhà_văn 251
Thảm_hoạ 251
/02/2012 251
Betty 251
nghiêng_ngả 251
biệt_hiệu 251
vạn_tuế 251
ác_ma 251
Quý_Ly 251
Phụ_thân 251
kịch_chiến 251
Chu_Xán 251
bí_đạo 251
Chu_Triệu_Long 251
Trần_Đại_Dũng 251
Thái_Hư 251
Tống_Thanh_Thư 251
Eileen 251
công_danh 250
te_@@ 250
ạc_@@ 250
ha@@ 250
ụ@@ 250
thanh_xuân 250
xương_@@ 250
Sữa 250
thuốc_men 250
La_Tinh 250
thanh_minh 250
Or@@ 250
hòa_giải 250
mini 250
thời_sự 250
Bình_Minh 250
quỹ_đạo 250
ạp 250
cơm_nước 250
tạm_trú 250
thôi_việc 250
tâm_phục 250
lo_@@ 250
iển 250
khôi 250
dây_xích 250
đại_lượng 250
Thượng_Đế 250
chiêng 250
Dậu 250
Rắn 250
Yvonne 250
hạ_sơn 250
dây_cương 250
tam_gia 250
Lặc 250
chó_đẻ 250
Tạ_gia 250
Trương_giáo_chủ 250
Quan_Tây 250
Bạch_Thế_Kính 250
PM_GMT7Ngày 250
._Nhiều 249
đăng_kí 249
lễ_@@ 249
300@@ 249
VND 249
CD 249
00_@@ 249
phụ_cấp 249
C.@@ 249
TP@@ 249
phúc_@@ 249
cà_rốt 249
val@@ 249
nhân_ảnh 249
ard@@ 249
òi 249
ạnh 249
nóng_bừng 249
nghi_ngại 249
mất_trí 249
thuyết_trình 249
học_viện 249
Sùng 249
đơ 249
ass@@ 249
14/11 249
Bang_@@ 249
Hiến_pháp 249
đàn_em 249
dân_ca 249
Chả_lẽ 249
Kiều_Linh 249
bất_nhân 249
rách_rưới 249
tình_lang 249
Nam_Dương 249
Tịch_Ứng 249
Thiên_tử 249
A_Hoàn 249
Biata 249
1996 248
Thực_sự 248
than_vãn 248
Val@@ 248
LĐ 248
ATM 248
bàn_phím 248
ẩ@@ 248
nhìn_chung 248
y_khoa 248
TS_@@ 248
Một_@@ 248
tan@@ 248
ngón_chân 248
xuất_viện 248
tô@@ 248
lột_da 248
361 248
nặn 248
quệt 248
hời_hợt 248
Tin_học 248
tìm_tòi 248
xao_động 248
nỗi_lòng 248
Mercedes 248
nhơn 248
đại_thắng 248
đắm_đuối 248
Điêu 248
hạt_châu 248
giáp_công 248
Phương_Di 248
quân_mã 248
„_Ðã 248
Ðầu_Ðà 248
Trần_Hữu_Lượng 248
Uyển_Phụng 248
quán_triệt 247
thủ_công 247
1973 247
13,@@ 247
kiểm_@@ 247
phòng_khám 247
dẫn_@@ 247
ter_@@ 247
Kiện 247
ali@@ 247
nguyên_lý 247
B. 247
iểu 247
ven@@ 247
dây_@@ 247
nội_trợ 247
ùi 247
let 247
thủy_triều 247
cưỡng_bức 247
Văn_học 247
quý_mến 247
ku@@ 247
đối_chiếu 247
Thuỵ 247
ện 247
nhân_phẩm 247
chủ_quản 247
Sách_@@ 247
tin_chắc 247
thuốc_nổ 247
tàu_chiến 247
nhẹ_tênh 247
Bảo_Ngọc_@@ 247
Ly_@@ 247
thợ_săn 247
xe_ôm 247
lành_lạnh 247
đế_quốc 247
Giai_@@ 247
khai_quật 247
ngay_thẳng 247
dè 247
rào_rào 247
Bưu 247
vọng_tưởng 247
tự_tận 247
Rick 247
thượng_hoàng 247
huy@@ 246
bất_kì 246
Ta@@ 246
sushi 246
giản_đơn 246
Ang@@ 246
lâng_lâng 246
siêu_âm 246
rò_rỉ 246
tiếp_viên 246
Dẫn 246
ther@@ 246
toàn_vẹn 246
ền 246
sai_lệch 246
ờ@@ 246
sống_còn 246
quây_quần 246
Lâm_Đồng 246
phán_xét 246
/6@@ 246
Montgomery 246
lĩnh_hội 246
đói_rách 246
hò 246
1248@@ 246
huơ 246
Ôn_@@ 246
Phật_tử 246
đắc_chí 246
Yết 246
tà_ma 246
Điểu 246
khôi_hài 246
lui_binh 246
Thần_Quân 246
chiếm_cứ 246
Cảnh_Lăng 246
Đông_Tử 246
Lý_Yên_Yên 246
Giles 246
vỏn_vẹn 245
Thống_đốc 245
bắt_mắt 245
_tay 245
chiếu_phim 245
cường_tráng 245
Nhằm 245
thầm_lặng 245
AN@@ 245
đi_đứng 245
ầu_@@ 245
y_th@@ 245
âm_đạo 245
Phản_ứng 245
ỉa 245
chủng_tộc 245
số_@@ 245
môt 245
Thả 245
Hi@@ 245
Marie 245
cưỡng_hiếp 245
Ác_@@ 245
tuýt 245
địa_chủ 245
bưu_thiếp 245
đồn_điền 245
mây_mù 245
loáng_thoáng 245
béo_mập 245
cõi_lòng 245
vô_thượng 245
Diêm_Vương_Tôn 245
chả_trách 245
11,@@ 244
44@@ 244
fi@@ 244
cáo_@@ 244
TA@@ 244
thú_vui 244
quả_tang 244
san_hô 244
xuất_huyết 244
giúp_ích 244
Dược_@@ 244
chỉ@@ 244
rã 244
phá@@ 244
vu@@ 244
chu_@@ 244
bắp_thịt 244
tuy_vậy 244
tt 244
canh_@@ 244
êu 244
phong_thanh 244
7915 244
David 244
chân_mày 244
lưu_động 244
bé_con 244
tương_xứng 244
/10/2011 244
chi_viện 244
xã_hội_chủ_nghĩa 244
Cô@@ 244
Á_@@ 244
Cừ 244
SIM 244
tạp_hoá 244
Uy@@ 244
diễu 244
vô_tri 244
khinh_khỉnh 244
đằng_đằng 244
hùng_hổ 244
tứ_tán 244
mê@@ 244
chứng_cớ 244
hành_hình 244
thành_ra 244
photon 244
ống_nghe 244
Vũ_Văn_Hóa_Cốt 244
qùy 244
phủ_đệ 244
Ầm 244
Đại_Đường 244
Vương_Cung 244
Dương_Thiết_Tâm 244
Bảo_Tượng 244
Ðại_Lý 244
Bexi 244
giác_ngộ 243
set 243
Dinh 243
1989 243
tí@@ 243
hưng_thịnh 243
dd@@ 243
dịch_@@ 243
are 243
ment 243
nhợt 243
Je@@ 243
trữ 243
phi_hành 243
Tai 243
hứng_khởi 243
*_@@ 243
Ân_@@ 243
động_trời 243
di_dời 243
chung_thân 243
hiếu_thắng 243
Man_@@ 243
cứu_vớt 243
Bờ 243
lỡ_lời 243
Xưởng 243
Thuần_@@ 243
lất_phất 243
Lão_bà 243
phóng_hỏa 243
kín_mít 243
Phạn 243
đại_úy 243
ngồi_phịch 243
vỗ_đùi 243
Bần 243
Perắc 243
Hư_Ngạn 243
Đại_Ma_Tôn 243
Bách_Chiến 243
HĐND 242
cục_trưởng 242
tic 242
Thiết_kế 242
._Năm 242
ớp 242
Nguyễn_Trãi 242
kin 242
Khởi_tố 242
vi_chất 242
vận_@@ 242
ngton 242
buồng_trứng 242
1991 242
ghim 242
dẻo 242
gen@@ 242
đầy_đặn 242
tiền_vệ 242
hậu_vệ 242
Nghề 242
Nhị@@ 242
1/12 242
đón_chào 242
khăn_@@ 242
NT@@ 242
pháo_hoa 242
Trùm 242
thuỷ_thủ 242
ỉnh 242
lộn_nhào 242
Quốc_vương 242
diễn_văn 242
mọp 242
Tần_Thủy_Hoàng 242
Ô_hay 242
Bất_Giới_hòa_thượng 242
Hầu_Lượng 242
Hoàn_Nhan 242
dặn_bảo 242
Tây_Hồ 241
dằn_vặt 241
phơi_bày 241
nước_đá 241
mạn_tính 241
Dù_@@ 241
dai_dẳng 241
Sơ_@@ 241
_trọng 241
ẳn 241
giầu 241
phông 241
liên_hoan 241
chồng_con 241
òn 241
ầ@@ 241
lè 241
ngoan_cố 241
tươi_tỉnh 241
niên_kỷ 241
hiền_hòa 241
ăn_cướp 241
119@@ 241
hết_sạch 241
bất_phân 241
lãng_tử 241
Liên_hoan_Thơ 241
diễm 241
bert 241
vô_tâm 241
Tỵ 241
dương_dương 241
đàm_đạo 241
xiêu 241
đào_thoát 241
thiết_giáp 241
bôn_ba 241
rày 241
kiêu_căng 241
Phùng_Mậu 241
Lặc_Miệt 241
Dã_Hạc 241
5_% 240
cứ_điểm 240
Chống 240
phân_tử 240
loang 240
tóm_tắt 240
bạn_tình 240
xung 240
Bất_kể 240
mơ_tưởng 240
thốn 240
you 240
cứu_trợ 240
đành_chịu 240
thân_thuộc 240
Phó_thủ_tướng 240
Hồ_sơ 240
ú_ớ 240
Khoái 240
nghi_@@ 240
16/1 240
khiển 240
tức_@@ 240
HOSE 240
302 240
Khoe 240
xích_lô 240
cẩn 240
Ưng_@@ 240
thường_tình 240
truyền_tin 240
Bốp 240
thuyền_bè 240
lạc_thú 240
Huyền_soái 240
chế_phục 240
Lôi_Phương 240
Dịch_Lâm 240
phong_bế 240
Vương_Tiễn 240
Trọng_Tôn_Long 240
/2018 239
rộng_lượng 239
Ge@@ 239
ũ 239
biên_phòng 239
all 239
Euro 239
chí@@ 239
triệu_hồi 239
TẠI 239
vừng 239
quyên_góp 239
Lô 239
cứng_nhắc 239
con_trẻ 239
quyện 239
định_kiến 239
ợi 239
Kon_Tum 239
du_hành 239
ban_mai 239
chao_đảo 239
nên_chăng 239
dục_vọng 239
mở_mang 239
cầm_đồ 239
Bảo_tàng 239
cư_ngụ 239
rất_mực 239
2012_Thị_trường 239
Kim_Jong-il_Nhà 239
về_phần 239
Cốc_@@ 239
Suzuki 239
ruột_thịt 239
Đinh_La_Thăng 239
thẳng_tay 239
xẻo 239
tất_là 239
Phật_pháp 239
Tịnh_@@ 239
đở 239
báo_cừu 239
Gennaro 239
thập_bát 239
Nguyễn_Tinh_Trúc 239
Sàigòn 239
khuấy_động 238
khuyến_mại 238
che_chắn 238
và_@@ 238
kho_báu 238
MT 238
FDI 238
ho_khan 238
đa_khoa 238
nặng_nhẹ 238
gừng 238
tâm_niệm 238
ngậm_miệng 238
ld@@ 238
ell@@ 238
ise 238
lởm_chởm 238
ÂN 238
ngồi_bệt 238
kết_cấu 238
ậu_@@ 238
Em@@ 238
Anderson 238
chữ_số 238
Nhiệm_vụ 238
tiến_hóa 238
George 238
phập 238
chủ_nghĩa_xã_hội 238
lòng_dân 238
lập_cập 238
Phẫn_nộ 238
thảm_kịch 238
ghen_tị 238
ký_giả 238
2012_Nhiều 238
dầu_Vụ 238
ruột_gan 238
tán_tỉnh 238
phong_ba 238
ngai_vàng 238
ngôn_từ 238
trời_ơi 238
Bà_cụ 238
lâm_chung 238
ẵng 238
trận_địa 238
dây_dưa 238
lịch_duyệt 238
trần_tục 238
a_hoàn 238
chủ_soái 238
huyết_khí 238
Trừng_Quang 238
Phong_Thanh_Dương 238
Tam_Tuyệt 238
„_Hãy 238
Hỏng_bét 238
Ðan_Nhi 238
„_Ðổng 238
Tích_Nhân_@@ 238
Vân_Mộng 238
Hoạt_động 237
cao_ngất 237
chuyển_tiếp 237
đổ_lỗi 237
Đại_sứ_quán 237
thánh_địa 237
Dưới_đây 237
New_Zealand 237
Thạc_sĩ 237
ắp 237
vằn 237
Ánh_@@ 237
Lợi_dụng 237
đong 237
phương_cách 237
uyên 237
Sẻ 237
2/2012 237
Mạn 237
Hỷ 237
ạt_@@ 237
Thủy_Tiên 237
Muôn 237
thừa_@@ 237
thảm_đỏ 237
áp_bức 237
Huyên 237
nhân_nhượng 237
Kim_Jong-un 237
27/12 237
Hé 237
toàn_thắng 237
Khổng_@@ 237
dơ_bẩn 237
tài_nào 237
CỦA 237
lăm_lăm 237
ẩn_giấu 237
lung 237
Úi 237
xã_tắc 237
Ðỗ 237
U_Châu 237
di_thể 237
Lưu_Kim_Đính 237
đại_đao 237
Slade 237
Ca_ca 237
Lăng_Hạo 237
lạ_lẫm 236
báo_danh 236
Ali@@ 236
Tháp_@@ 236
tái_diễn 236
gây_dựng 236
Khách_@@ 236
_lượng 236
Hạt_@@ 236
phân_bố 236
Đánh_giá 236
NH_@@ 236
Mầm_non 236
Bi 236
đánh_bật 236
uất 236
Mường_@@ 236
phồn_hoa 236
tai_tiếng 236
sát_cánh 236
bao_quát 236
303 236
dễ_dãi 236
mỹ_thuật 236
cần_@@ 236
trượt_tuyết 236
lục_lọi 236
tỉa 236
chiến_trận 236
khắc_khoải 236
ừa 236
ác_cảm 236
thân_chinh 236
sự_thể 236
chúa_@@ 236
cười_ồ 236
thợ_rèn 236
mưu_lược 236
Hành_Chi 236
Hồng_Tử_Xuân 236
Bạch_Thanh_Nhi 236
Thủ_pháp 236
Kodensky 236
ata 235
XI 235
Gen@@ 235
Long_Thành 235
phòng_tránh 235
sặc 235
đo_lường 235
mứt 235
HỒ 235
iếc 235
ot 235
Cha_@@ 235
CS 235
nguyên_thủy 235
Giám 235
diễn_đạt 235
nhà_chức_trách 235
giả_thiết 235
thứ_sáu 235
Hoàng_Thị_@@ 235
n_thân 235
ỗ_@@ 235
tua 235
tầm_@@ 235
Maria 235
1974 235
luật_@@ 235
thúc_thủ 235
cây_đèn 235
nhà_ăn 235
chướng_ngại 235
sung_túc 235
kế_vị 235
kẻ_gian 235
tính_sổ 235
mưa_tuyết 235
CĐV 235
đáo_để 235
4_Lễ 235
linh_tính 235
Thuỵ_Sĩ 235
giám_@@ 235
thiếu_tá 235
Quả_thực 235
cát_bụi 235
rầm_rập 235
thều_thào 235
sát_thân 235
Bạt_Nghi 235
Bạch_Mi 235
Lưỡng_@@ 235
Phăngtin 235
thạch_môn 235
Tống_Lỗ 235
Thiên_Hải 235
St@@ 234
VHM 234
thăng_tiến 234
125 234
dung_@@ 234
Hiểu_@@ 234
sc@@ 234
Dấu_hiệu 234
cơ_tim 234
hen 234
Ex@@ 234
Bàng_@@ 234
Đống_Đa 234
Đơn_giản 234
lương_khô 234
quy_tụ 234
héo 234
Ca_@@ 234
Hạ@@ 234
ùn 234
vui_đùa 234
Jennifer 234
ỏng 234
không_quân 234
buồn_buồn 234
giáo_dục_phổ_thông 234
kê_khai 234
công_trái 234
ghi_âm 234
sư_trưởng 234
xoay_xở 234
8/12 234
cửa_Phật 234
Lỗi 234
gia_sản 234
Biệt_@@ 234
thành_kiến 234
Sửu 234
nhẽ 234
xí 234
hỗn 234
tinh_anh 234
giao_du 234
Nhân_Kiệt 234
nhẫn_nhịn 234
Chẳng_trách 234
bạt_tai 234
Lệ_Hoa 234
sư_tổ 234
Lex 234
Nhị_vị 234
Ma_Kiếm 234
thần_hồn 234
Long_Môn 234
Thượng_Nhân 234
Mađơlen 234
đenphin 234
._ʺ 234
._Thí_sinh 234
Tính_@@ 233
FLC 233
Bru@@ 233
hộ_khẩu 233
thể_loại 233
tem 233
ỡ@@ 233
chênh 233
bưởi 233
Bài_@@ 233
lạc_@@ 233
Lan@@ 233
Vương_quốc 233
đóng_băng 233
Lâu_nay 233
cạn_kiệt 233
nhử 233
mưa_rào 233
thân_tình 233
rạn_nứt 233
tam_giác 233
gay_go 233
bơ_vơ 233
sinh_khí 233
Mai_Phương_Thúy 233
áy 233
đề_bạt 233
trầm_@@ 233
Buông 233
Hiền_@@ 233
giải_vây 233
Ban_giám_hiệu 233
tòng 233
làm_hại 233
Miles 233
khoái_trá 233
hà_hà 233
hung_tàn 233
nhân_thế 233
đỡ_lời 233
Vưu 233
Quân_Bảo 233
một_hơi 233
Thần_Đạo_giáo 233
Âu_Dương_Khắc 233
Vương_Hột 233
Ngạc_@@ 233
Lý_Tiểu_Hổ 233
GDĐT_Sơn_La 233
1985 232
’s 232
phân_trần 232
điều_tiết 232
PC 232
2-3 232
LI@@ 232
suy_tim 232
cửa_ngõ 232
ce@@ 232
lạc_hậu 232
gội 232
miễn_là 232
ka@@ 232
ch_th@@ 232
có@@ 232
My_@@ 232
mướt 232
kì_@@ 232
tạo_hóa 232
xế_chiều 232
đi@@ 232
43@@ 232
Ti 232
táp 232
cói 232
lả 232
bình_tâm 232
sao_chép 232
thân_quen 232
khêu_gợi 232
phản_biện 232
chiêu_đãi 232
sạp 232
An_Bình 232
eo_biển 232
276 232
lòng_đường 232
bão_táp 232
UEFA 232
lăng_nhăng 232
K-pop 232
đính_hôn 232
khảo_cổ 232
phụ_tá 232
khoa_học_gia 232
điên_dại 232
tôn_@@ 232
phóng_túng 232
chúc_tụng 232
thút_thít 232
thực_dân 232
thao_thao 232
chí_khí 232
Tổng_đốc 232
danh_tướng 232
Hiệp_sĩ 232
Sao_thế 232
Viễn_Kiều 232
„_Ðêm 232
Căn_Tiên 232
Sylvinet 232
Ðại_Nương 232
VanGiăng 232
Đinh_Hãm 232
phơrăng 232
Đinh_Tàn 232
Chuyên_gia 231
lỳ 231
ía 231
kali 231
140 231
xung_kích 231
đả_thông 231
hứng_chịu 231
lý@@ 231
tal@@ 231
Từ_@@ 231
st 231
Dù_vậy 231
lập_nghiệp 231
ơi_@@ 231
10/1 231
nơm_nớp 231
chu_vi 231
trông_đợi 231
xe_gắn_máy 231
Xi@@ 231
Bãi 231
Vì_lẽ 231
Đền 231
Tự@@ 231
náo_động 231
Phải_biết 231
chí_mạng 231
mõ 231
Jan 231
khinh_thị 231
nhạc_phụ 231
xuất_binh 231
tửu_quán 231
xú 231
U_Linh 231
Độc_Thần 231
Thần_Y 231
Bất_Tứ 231
Gordie 231
Bank 230
ả_@@ 230
Giai_đoạn 230
Ó@@ 230
chơi_@@ 230
3G 230
hư_hại 230
rốn 230
khàn 230
ức_chế 230
cám 230
Ú@@ 230
xương_sườn 230
khả_@@ 230
đảo_ngược 230
chặn_đứng 230
9X 230
huấn_luyện_viên 230
hoài_bão 230
di_vật 230
làm_gương 230
gắt_gỏng 230
hơ 230
thần_thoại 230
Bác_Hồ 230
san_sát 230
sôi_sục 230
bành_trướng 230
bốt 230
kì_lạ 230
nhuốm 230
Mệnh 230
ẩn_ý 230
buông_thõng 230
SGK 230
bấu 230
Võ@@ 230
lần_lần 230
Ngu_@@ 230
Thái_Dương 230
cam_lòng 230
Phi_Yên 230
trung_nghĩa 230
Khấu_Trọng_vỗ 230
Ðại_Hữu 230
ngân_lượng 230
tông_đồ 230
Tát_Nhi 230
042019 230
nói_bừa 229
visa 229
ây_@@ 229
nhà_đất 229
.com 229
tủi_thân 229
ngày_sinh 229
va@@ 229
Andre@@ 229
bi_quan 229
AC 229
quý_hiếm 229
giáp_@@ 229
tinh_khiết 229
dấu_@@ 229
Chinh 229
lủng_lẳng 229
boy 229
AA@@ 229
nhàn_nhạt 229
ăng-@@ 229
xót 229
quý_trọng 229
hăm 229
kết_án 229
Bão 229
công_tâm 229
bảo_thủ 229
Uông_@@ 229
1A 229
Lam@@ 229
ù_@@ 229
27/1 229
học_bạ 229
thi_hài 229
nhã_nhặn 229
ghê_sợ 229
nuốt_lời 229
toáng 229
khuyển 229
Trường_Lạc 229
nhất_thống 229
đường_cái 229
chi_chi 229
thư_sinh_Cơ_Thiên_Khuyết 229
Lại_bộ 229
xa_giá 229
Diêu_Hưng 229
Hội_chủ 229
Bạch_Văn_Nguyên 229
Ô_Quả 229
Trác_Mã 229
Vương_Minh 229
ca_vũ 229
Phong_Vân_hội 229
62019 229
Com@@ 228
RO@@ 228
105 228
Mac 228
thu_nhỏ 228
Pal@@ 228
Cổng 228
Xuất 228
ín 228
Hiện_tượng 228
khuyên_bảo 228
đường_huyết 228
quằn_quại 228
nghiền 228
sốt_rét 228
Ngưu_@@ 228
bún 228
Bánh_@@ 228
mạnh_khỏe 228
hội_ngộ 228
Pr@@ 228
sexy 228
tại_Nhà 228
thừa_hưởng 228
bao_dung 228
girl 228
xuống_đường 228
hàng_hải 228
thay_áo 228
Quốc_tính 228
uy_nghiêm 228
hỏi_vặn 228
sắc_chỉ 228
Vô_Vi_đạo 228
Khâm_sai 228
bình_thời 228
Nhi_Thiếp 228
Trượng_Khách 228
Liên_Tấn 228
chướng_khí 228
52019 228
/2016 227
._Được 227
Eximbank 227
tác_@@ 227
Kate 227
1-2 227
nước_thải 227
Chính_quyền 227
._Cô 227
mao 227
nhịp_nhàng 227
hiển_hiện 227
Công_trình 227
ngơi 227
định_hình 227
Moscow 227
ks 227
ll 227
ace 227
khôn_lớn 227
Oxford 227
éc@@ 227
day_dứt 227
Liên_hợp_quốc 227
Xuân_Hương 227
Vic@@ 227
thượng_đế 227
cướp_biển 227
hùm 227
29/12 227
Ngô_Bảo_Châu 227
tinh_quái 227
danh_sĩ 227
mạo_muội 227
lí_nhí 227
tư_sản 227
nho_nhã 227
viên_tịch 227
đánh_lui 227
Tổ_Sư 227
Đạo_trưởng 227
Tà_kiếm 227
Vi_An 227
Thiên_Mộc 227
Tổng_Công_ty 226
kỉ_niệm 226
ành_@@ 226
liệt_kê 226
ngoại_hối 226
den@@ 226
chứa_chất 226
Vị_trí 226
Vũ_Thị_@@ 226
thầy_lang 226
Thú_@@ 226
ala 226
sóc 226
sóng_@@ 226
Cho@@ 226
nhàm_chán 226
1979 226
tăng_tiến 226
lòa 226
-4 226
gióng 226
lộ_liễu 226
cây_nến 226
Festival 226
al-@@ 226
nguy_nga 226
_hồ 226
18/1 226
phô_diễn 226
bút_@@ 226
trộm_cướp 226
ngoa 226
trọng_thưởng 226
kiểu_cách 226
Thà 226
vô_thường 226
vái_lạy 226
CÔ 226
Ðầu_@@ 226
Chử_@@ 226
luyến_tiếc 226
GDĐH 226
giả_trang 226
Nhạc_Bất_Quần 226
Ðịnh_Nhàn_sư 226
Thoạt_tiên 226
„_Nàng 226
Lưỡng_Hồ_bang 226
._28 226
Quân_Tùng 226
3_% 225
Bến_Tre 225
GD@@ 225
bản_tin 225
World 225
Bạc_Liêu 225
tiết_canh 225
AN 225
CT 225
nguời 225
trí_não 225
đo@@ 225
Yên_tâm 225
bạo_hành 225
gỉ 225
Ế@@ 225
nhân_công 225
Che@@ 225
/7@@ 225
quái_ác 225
MERS 225
/3 225
bằng_không 225
Tiền_Giang 225
chệch 225
tuyên_dương 225
Viễn_@@ 225
khách_khứa 225
Sáng_@@ 225
lâu_lâu 225
sư_@@ 225
Tôn_Đức_Thắng 225
phone 225
Thiên_Long 225
kiệt_tác 225
Keangnam 225
mấy_ai 225
ừng_ực 225
khán_đài 225
Mạng_@@ 225
Huê 225
lang_quân 225
cổ_động 225
tu_đạo 225
lim_dim 225
Kim_tự_tháp 225
tổ_tông 225
hộc_máu 225
tiền_đồ 225
Oliver 225
chí_tôn 225
ngự_sử 225
Bắc_Kiếm 225
Di_Lặc_giáo 225
Lý_Băng_đáp 225
nóng_giận 224
dư_thừa 224
Khó_khăn 224
ran@@ 224
bể_bơi 224
phần_đông 224
y-@@ 224
Los_Angeles 224
bổ_@@ 224
lẫy_lừng 224
chê_bai 224
T_. 224
tin_@@ 224
chất_chứa 224
ị@@ 224
wi@@ 224
Xà_@@ 224
ũng 224
điện_toán 224
ặn 224
đời_thường 224
Ry@@ 224
Tình_huống 224
Thanh_Phong 224
thảnh_thơi 224
họp_mặt 224
khánh 224
vói 224
Chơn 224
Tila 224
khoảnh 224
tiễn_đưa 224
chưng_hửng 224
túi_bụi 224
chuộc_tội 224
947@@ 224
xa_vọng 224
linh_dược 224
ước_định 224
Hồ_Xung_lại 224
cút_đi 224
Xú 224
Yển_Sư 224
tự_lượng 224
Thần_Long 224
Tỉnh_@@ 223
Trương_Thị_@@ 223
bản_địa 223
Biện_pháp 223
đói_khát 223
cas@@ 223
Cro@@ 223
nang 223
thơm_tho 223
Cao_Bằng 223
ừng_@@ 223
lin@@ 223
Ngọc_Linh 223
tri_ân 223
quân_bình 223
v.v... 223
lau_chùi 223
ge@@ 223
bỏ_sót 223
Chiều_@@ 223
cơ_khí 223
Thuấn 223
dị_nghị 223
tươi_sáng 223
Cảnh_tượng 223
SE@@ 223
văn_kiện 223
Ký_ức 223
cầm_quân 223
ĐKDT 223
18/11 223
Nguyễn_sốc 223
Điện_ảnh 223
Tác_phẩm 223
Balotelli 223
Toán_@@ 223
úng_@@ 223
cuồng_nộ 223
khẽ_khàng 223
yên_lành 223
lớp_lớp 223
biện_bạch 223
hồn_phách 223
nền_trời 223
nói_thầm 223
hoàn_hồn 223
ẩn_núp 223
thê_tử 223
nam_trang 223
Muldoon 223
trường_thương 223
Bớ 223
Mộ_Dung_Thuỳ 223
cả_mừng 223
–_Lão 223
Tô_Như 223
ác_ôn 223
Tiểu_Bắc 223
Đại_Dũng 223
BHXH 222
đức_tính 222
tứ_@@ 222
Tầm 222
đứt_đoạn 222
lấn_át 222
L. 222
Dầu_@@ 222
đấu_thầu 222
lênh_đênh 222
hormone 222
lây_truyền 222
Dần_dần 222
méo_mó 222
bảo_trợ 222
is_@@ 222
_TR@@ 222
54@@ 222
xát 222
Chuyển 222
suôn_sẻ 222
quy_@@ 222
ồm_ồm 222
rằm 222
Bất_chấp 222
mương 222
cẩm_thạch 222
Tranh_cãi 222
quan_họ 222
hoá_trang 222
khói_lửa 222
dự_tuyển 222
vẹn_toàn 222
Phiệt 222
Nam_Bắc 222
máu_thịt 222
miệng_lưỡi 222
Đối_phương 222
nội_cung 222
nhức_óc 222
dao_găm 222
bái_tạ 222
Trung_thổ 222
trợn_trừng 222
Tử_Lăng_huynh 222
Hoàn_Nhan_Hồng_Liệt 222
Trần_đại_hiệp 222
Lục_sư 222
cung_Linh_Thứu 222
Jennings 222
Italy 221
Ban_Bí_thư 221
ch_t@@ 221
ngs 221
Vật_@@ 221
mer 221
._Thị_trường 221
niên_@@ 221
Na@@ 221
hài_hòa 221
don 221
máu_huyết 221
bao_@@ 221
Tham_quan 221
õ 221
Por@@ 221
sông_nước 221
doạ 221
to_nhỏ 221
đàn_anh 221
Th 221
Đàn_bà 221
25/11 221
Thì_@@ 221
phớt_lờ 221
giày_vò 221
Kennedy 221
Ắ@@ 221
ngõ_hẻm 221
câu_@@ 221
gia_chủ 221
Trai 221
Premier_League_VFF_quyết 221
Falko_Goetz_Barcelona 221
Bernabeu_Basel 221
cấm_địa 221
dê_rừng 221
vân_@@ 221
cheo_leo 221
chọc_tức 221
đại_loại 221
giao_thiệp 221
sùng_bái 221
qui_củ 221
nghênh_chiến 221
đóng_đinh 221
lọt_tai 221
căm_hờn 221
đầu_mục 221
Vân_Dương_Tử 221
Thiếu_Danh 221
khởi_kiện 220
Bất_động_sản 220
p_th@@ 220
Giá_trị 220
go 220
thu_giữ 220
văn_thư 220
xoa_bóp 220
ản_@@ 220
ọ_@@ 220
Thanh_Xuân 220
xịt 220
thú_y 220
Lin@@ 220
CT@@ 220
1970 220
tráng_kiện 220
thanh_thiếu_niên 220
Giám_@@ 220
Nhuận 220
thèm_muốn 220
Anh_Thư 220
mõm 220
ire 220
Ký_@@ 220
Lucy 220
thót 220
tay_ba 220
cấu 220
vật_tư 220
Tình_cảm 220
hoàn_@@ 220
Phan_Văn_@@ 220
õng 220
thua_thiệt 220
linh_cữu 220
Emily 220
xê 220
chán_chường 220
hụp 220
hiềm_khích 220
hạ_du 220
chính_tà 220
hả_giận 220
ngũ_sắc 220
Tư_Khoa 220
phân_thân 220
Capone 220
Ðinh_@@ 220
đại_nghĩa 220
Khấu_Trọng_đáp 220
đa_mưu 220
thanh_y 220
Bất_Phụ 220
Dương_Tố 220
Tiểu_Oanh 220
Lưu_Hướng 220
20192020 220
147 219
trân_châu 219
ff 219
Xu_hướng 219
HPG 219
Lợi_@@ 219
cầu_kỳ 219
gara 219
ướ@@ 219
iêu_@@ 219
màu_@@ 219
tế_@@ 219
sàng_lọc 219
lạ@@ 219
hoàng_tộc 219
tra_cứu 219
trang_trải 219
Stu@@ 219
TP.HCM. 219
Ban_ngày 219
da_cam 219
men@@ 219
lăm 219
ể@@ 219
vô_vọng 219
lực_lưỡng 219
Stanton 219
thâm_@@ 219
đơn_sơ 219
ngồi_xổm 219
thị_trưởng 219
hoàn_trả 219
11/2011 219
Bồ 219
tổ_quốc 219
tất_thảy 219
Hao 219
lắm_chuyện 219
chữ_nghĩa 219
đổi_ý 219
cà_vạt 219
tuyệt_không 219
yên_thân 219
thế_sự 219
tà_môn 219
thân_vương 219
Dương_Châu_@@ 219
ba_quân 219
tự_đại 219
phi_phàm 219
nói_càn 219
Kỳ_Lân 219
Huyền_Ứng 219
Cát_Thiên_Phong 219
Ma_Cung 219
ý_trung_nhân 218
Bộ@@ 218
Sức_@@ 218
trùng_vây 218
Dĩ_An 218
chèn_ép 218
có_thai 218
bạc_@@ 218
ảm 218
ạo 218
Hiển_@@ 218
Nguyễn_Trọng_@@ 218
mắc_@@ 218
yếm 218
mai_sau 218
At@@ 218
oàn 218
xa_vời 218
cứng_đơ 218
kịch_tính 218
0,000 218
Sao_@@ 218
vắng_tanh 218
Nườm_nượp 218
xoè 218
lẽ_phải 218
Thùy_Vân 218
ằn_@@ 218
khô_khốc 218
mạn_thuyền 218
_danh 218
co_ro 218
ngất_trời 218
thông_tuệ 218
hoá_giải 218
lễ_độ 218
chân_chạy 218
sa_trường 218
Bắc_Phủ_Binh 218
-_Đạo_trưởng 218
Tavi 218
Mậu_Công 218
Ðổng_Thục_Trinh 218
tỹ 218
Bà_Tử 218
Tổng_Giám_đốc 217
Vietcombank 217
VIB 217
Bal@@ 217
Du_học_sinh 217
đánh_đổi 217
truyền_bá 217
thấm_thía 217
thống_đốc 217
SA@@ 217
loạn_@@ 217
Thanh_Bình 217
ưu_@@ 217
âu_@@ 217
nữ@@ 217
lờ_đờ 217
pa 217
bít 217
trầu 217
Alice 217
cực_nhanh 217
Y. 217
hàm_chứa 217
cầm_cập 217
mật_khẩu 217
cây_gỗ 217
vali 217
Tạm_thời 217
ẩu_đả 217
Vietnam's_Got_Talent 217
Đổng_@@ 217
đông_đủ 217
tâm_thức 217
hóm_hỉnh 217
mộ_@@ 217
tôn_sùng 217
Trí_Quang 217
độ_lượng 217
tể_tướng 217
hư_vô 217
Khấu_Trọng_h@@ 217
nhảy_bổ 217
thủy_sư 217
trí_mạng 217
Thiên_Ưng_giáo 217
Thiên_Thiên_tiểu_thư 217
phụ_vương 217
Mai_Siêu_Phong 217
Ðỗ_Bích 217
fải 217
032019 217
30-@@ 216
dưa_hấu 216
BĐ@@ 216
nội_vụ 216
Quốc_lộ 216
xã_giao 216
1968 216
Tiểu_Vương 216
chiêu_mộ 216
buôn_lậu 216
mạ@@ 216
dưỡng_@@ 216
Quan_điểm 216
minh_mẫn 216
trôi_chảy 216
Mat@@ 216
Đông_Nam 216
Thơm 216
nhạy_bén 216
Phù@@ 216
Thành_viên 216
Nic@@ 216
Đỗ_Văn_@@ 216
con_ngươi 216
an-@@ 216
Nhạc_sĩ 216
kĩ_năng 216
bán_đảo 216
Jean 216
tiềm 216
Đệ_Nhất 216
Hài 216
Frank 216
ô-mai 216
Đám_cưới 216
Anonymous 216
đầu_giường 216
lễ_cưới 216
hào_hùng 216
mênh_mang 216
mập_mờ 216
yêu_quí 216
đường_đột 216
Táng 216
chư_tăng 216
danh_gia 216
Xa_xa 216
trung_hậu 216
Ðơn 216
Can_Quy 216
Đa_Long 216
phát_tiết 216
sơn_trại 216
Càn_Long 216
lệnh_ái 216
Tôn_huynh 216
Đồ_Lôi 216
phần_@@ 215
MB 215
PV@@ 215
đùng 215
sh 215
Barack_Obama 215
vẻ_vang 215
ể_@@ 215
cận_kề 215
Đau_@@ 215
ght 215
hụt_hẫng 215
Biến 215
oxy 215
tàu_@@ 215
hậu_môn 215
P. 215
chủ@@ 215
nhiễm_bệnh 215
Lựa_chọn 215
Đan_Mạch 215
facebook 215
Tri@@ 215
chế_tác 215
mải_mê 215
ato@@ 215
bộ_nhớ 215
lê@@ 215
_tâm 215
est 215
ằm 215
rời_rạc 215
Quảng_Tây 215
than_phiền 215
chung_@@ 215
hên 215
đạo_cô 215
Truyền_hình 215
phân_định 215
địa_danh 215
vẹn 215
trường_phái 215
14/12 215
28/1 215
Lamborghini_Aventador_J 215
trù_ẻo 215
01/03/2012 215
đường_hoàng 215
uý 215
Duẫn 215
Cuồng_@@ 215
khuân 215
xúi 215
mắc_lừa 215
Napoleon 215
nham_thạch 215
rờ 215
Đại_vương 215
Khưu_@@ 215
huýt 215
mãnh_tướng 215
nhất_loạt 215
tương_tư 215
Ðiển 215
Tác_Giả 215
hậu_đường 215
Ngụy_Trưng 215
Hà_Khiêm 215
điệp_báo 215
Khổng_Minh_@@ 215
Lê_Ngọc_Hàng 215
Lâm_U 215
Mariuytx 215
Cơ_Thiên_Khuyết 215
bởi_lẽ 214
Tổng_số 214
Bác_@@ 214
tác_nhân 214
Biểu_@@ 214
ên@@ 214
sơ_thẩm 214
phi_thuyền 214
Nhơn 214
/9 214
shop 214
xấu_số 214
ore 214
tỏi 214
tai_@@ 214
rẻ_tiền 214
bỏ_@@ 214
cà_@@ 214
nạng 214
à_l@@ 214
quần_thể 214
sục 214
chính_trị_gia 214
Lễ_@@ 214
tài_tử 214
120@@ 214
Chợ_@@ 214
Quyết_@@ 214
,_@@ 214
cụp 214
khốn_đốn 214
phá_huỷ 214
gang 214
Bắn 214
vu_vơ 214
Vinh_quang 214
đàn_áp 214
ấ 214
chê_trách 214
vui_thú 214
man_rợ 214
CÓ 214
phục_sinh 214
vèo_vèo 214
treo_cổ 214
ô_uế 214
ẻo 214
đối_nghịch 214
Ðánh 214
nông_nỗi 214
giơ_@@ 214
rên_la 214
nhọn_hoắt 214
Tổng_đàn 214
Lao_Ðức_Nặc 214
Thanh_Vân_Môn 214
Tiểu_Hồng 214
gầm_thét 214
Bàng_Ngọc 214
Tu_viện 214
Kỳ_Phi 214
Ba_Lê 214
Giorgio 214
42019 214
/2017 213
nới_lỏng 213
tương_quan 213
Gates 213
logic 213
thăng_hoa 213
H_@@ 213
Hậu_quả 213
toàn_cảnh 213
der 213
giun 213
vị_thành_niên 213
ạng 213
khớp_xương 213
3000 213
ps 213
ặc_@@ 213
ẹ@@ 213
ấu_@@ 213
họ@@ 213
ước_lượng 213
ổng_@@ 213
yếu_@@ 213
Khô 213
bè_bạn 213
tâm_tính 213
trũng 213
Len@@ 213
túc_trực 213
lay_chuyển 213
n_thủ 213
gây_án 213
răn_đe 213
Hương_Sơn 213
bảng_@@ 213
hội_kiến 213
giả_như 213
Phượng_@@ 213
bét 213
Key_Lime_Pie 213
-_Văn_hóa 213
cổ_vật 213
tuyên_thệ 213
phân_minh 213
Hoắc 213
yểm_hộ 213
đổ_máu 213
Audrey 213
Kì 213
đổi_hướng 213
đề_đốc 213
đạo_hữu 213
yên_dạ 213
chúa_công 213
xục 213
thế_tử 213
Tháp_Nhi 213
Nhĩ_Văn_Hoán 213
Lung_Kiều 213
Lâm_An 213
cô_ả 213
Thiên_long 213
thiết_vệ 213
﻿ 212
èo_@@ 212
Hàng_loạt 212
Đợt 212
tin_vui 212
đại_tướng_quân 212
C-@@ 212
ani@@ 212
/4@@ 212
phiền_lòng 212
Cơ_sở 212
đồng_thuận 212
nội_soi 212
thuyên_giảm 212
ăn_kiêng 212
cực_hình 212
tính_@@ 212
đu@@ 212
nữ_tính 212
nặng_@@ 212
chót_vót 212
of_@@ 212
_thế_@@ 212
Franc@@ 212
bịp 212
quận_huyện 212
Quần_@@ 212
vùng_cao 212
bàn_cãi 212
nhà_khách 212
xuýt_xoa 212
256 212
bóc_lột 212
Beckham 212
Than 212
xiếc 212
Hộ_@@ 212
[...]
