, 2961513
. 2302313
không 725493
là 606316
của 604971
- 582392
: 577567
một 555080
có 513030
người 488684
và 430210
đã 410625
nói 399963
trong 391942
được 388731
lại 351354
cho 335216
ra 312430
? 309356
cũng 286448
đến 268849
này 266164
" 265975
với 259992
ta 256476
những 255316
vào 251439
tôi 244012
phải 242397
thì 240374
các 236491
đi 235384
ở 225777
đó 219660
để 218278
! 210798
nhưng 206105
mà 203030
” 202935
“ 202337
rồi 197793
lên 196916
về 195102
còn 194369
hai 193989
như 193923
thấy 183092
chỉ 182039
anh 176169
) 174697
( 174224
gì 172611
làm 171471
khi 171345
biết 166604
ông 157179
trên 155552
mình 151571
sẽ 147233
con 144172
sau 139683
cô 139584
bị 137848
từ 133258
nhìn 129835
cái 119816
đang 118829
tới 117375
lúc 116095
mới 112902
rất 110221
năm 109841
đây 109297
trước 108644
theo 105820
cả 104171
có_thể 103611
nhiều 103331
lão 102973
họ 102844
tay 102207
gã 100239
hỏi 98371
nào 98214
nghe 97642
nàng 97128
đầu 96340
vẫn 96081
nên 95869
hơn 95800
vì 94844
tại 94750
tiếng 94401
ngươi 92432
bên 91787
y 90912
nếu 89843
ngày 89724
cười 89361
muốn 89043
nữa 88671
sao 86212
xuống 85913
ấy 85018
nhà 84882
việc 83569
chưa 83463
chàng 83392
đều 82711
cùng 81118
hắn 80933
chuyện 80514
vừa 79947
em 79242
mặt 78211
bọn 75963
qua 75192
nó 74404
rằng 74061
hay 73590
lần 73343
khác 72916
ai 72605
ba 71102
sự 71003
chẳng 70819
tên 68405
bà 67919
lấy 66808
thế 65413
; 65390
mắt 65130
nghĩ 64949
chúng_ta 64452
đáp 63690
đâu 63525
lòng 63298
phía 62775
nhau 60917
vậy 60905
thật 60321
nước 60021
đường 59969
chết 58915
nhất 58678
thành 58425
đứng 57782
mấy 57209
... 57120
ngoài 56905
ngay 56220
lớn 55561
thứ 55182
trường 54368
chính 54126
cần 54122
bằng 54060
kiếm 52912
mọi 52534
lời 52065
xem 51392
khỏi 50934
số 50715
& 50395
nhân 50358
đưa 50181
cách 49610
chiếc 49598
hạ 49190
đánh 48868
điều 48546
bước 47450
chân 47250
bạn 47200
vị 47086
gặp 46908
liền 46136
hết 46131
quá 45933
ngồi 45797
chạy 44965
… 44708
tìm 44601
hiểu 44529
thi 44203
không_thể 43592
nơi 43322
tiểu 42875
như_vậy 42831
dùng 42730
thêm 42406
quân 42179
cao 42138
khiến 42024
đúng 41704
quay 41695
nay 41623
chúng 41621
thôi 41018
sống 40240
đại 39985
kia 39950
cứ 39597
xe 39484
học 39320
dưới 38986
gần 38275
càng 38138
phòng 37993
chỗ 37366
rõ 36957
do 36914
bảo 36463
lắm 36411
từng 36397
câu 36121
mẹ 36047
giữa 35799
xin 35627
huynh 35480
nhỏ 35355
bé 35200
khấu_trọng 35023
chúng_tôi 34973
mất 34879
hãy 34719
gọi 34569
nhận 34492
tin 34112
chứ 33779
hạng 33773
bộ 33426
ăn 33397
chị 33326
kẻ 33160
gái 33142
gia 33065
tháng 32475
giờ 32322
cậu 32175
trẻ 32133
hàng 32119
cửa 31945
bài 31554
công 31334
đất 31330
giọng 31301
dám 31240
– 31201
tự 31088
sợ 30726
cuộc 30622
mỗi 30545
tiền 30486
bỏ 29926
tiếp 29713
| 29558
dân_trí 29520
môn 29319
tất_cả 29191
cây 29142
# 28917
tử 28883
xong 28736
từ_tử_lăng 28214
đêm 28150
chịu 28137
bây_giờ 28078
chủ 28008
đạo 27873
giết 27728
tuổi 27694
thiếu_long 27684
điểm 27426
bốn 27338
tốt 27264
sáng 27139
sư 26970
mang 26856
sang 26771
trời 26748
tuy 26514
khó 26499
2 26430
nữ 26261
việt_nam 26229
cảm_thấy 26222
áo 26111
đôi 26083
thế_nào 25936
xa 25860
thời_gian 25534
nhớ 25434
lâu 25347
chắc 25347
đối_với 25249
đồng 25240
thế_giới 25158
pháp 24762
mỹ 24638
đấy 24570
đừng 24425
nổi 24311
đủ 24038
đọc 23858
tỷ 23774
đem 23576
vụ 23575
cháu 23551
phần 23485
kêu 23226
giữ 23183
núi 23105
1 23074
bắt 23053
nằm 23048
ngựa 22963
luôn 22789
phái 22641
bàn 22571
thủ 22559
kỳ 22512
đá 22328
miệng 22323
coi 22228
vi_tiểu_bảo 22111
7/3 22055
chưởng 21958
vẻ 21945
bỗng 21919
trận 21850
hoặc 21818
giống 21772
như_thế 21755
yêu 21722
dậy 21676
cầm 21645
giúp 21600
trở 21598
tỉnh 21490
ánh 21440
dù 21384
ý 21264
tăng 21257
lưng 21199
đáng 21162
hoa 20973
lập_tức 20906
địch 20874
thương 20848
đột_nhiên 20830
đầy 20671
thường 20648
3 20645
trông 20596
mua 20548
thầm 20534
đặt 20474
đông 20432
muội 20392
thân 20312
tiến 20295
báo 20234
hà_nội 20191
vàng 20032
đời 20011
mười 19852
uống 19799
cạnh 19621
đứa 19589
kể 19580
ca 19509
a 19496
nam 19426
bao_giờ 19378
dài 19365
thanh 19360
nhanh 19315
tính 19266
vô_cùng 19141
hôm 19128
cha 19099
hồi 19092
khí 19079
đẹp 19014
định 19007
triệu 18698
thuyền 18638
vội 18548
rượu 18473
gây 18461
bay 18419
ảnh 18390
chiêu 18290
hơi 18289
loại 18285
làm_sao 18151
gia_đình 18083
giá 18075
thẳng 18005
đao 17975
lạ 17947
sai 17906
bắt_đầu 17889
mở 17816
sinh 17663
cuối_cùng 17635
xảy 17627
toàn 17533
thần 17519
giáo_dục 17437
to 17430
vốn 17406
lớp 17315
chờ 17314
phu_nhân 17305
tại_sao 17272
viết 17263
chung 17246
mạnh 17232
vài 17207
đệ 17173
chút 17163
học_sinh 17144
trả_lời 17115
giải 17114
đen 17057
đám 17002
võ_công 16976
tiếp_tục 16966
cô_nương 16943
quan 16924
chữ 16913
đầu_tiên 16910
ngủ 16819
viên 16656
lộ 16639
nắm 16559
máu 16488
động 16429
thích 16390
màu 16355
bóng 16350
xã_hội 16242
hề 16152
10 16100
biến 16086
mày 16078
quả 16030
song 16018
mặc 16001
bệnh 15978
hoàn_toàn 15955
một_cách 15949
khoảng 15921
vương 15814
tấm 15776
đoàn 15753
ít 15684
kéo 15653
dẫn 15641
bức 15635
một_chút 15576
trăm 15567
gật 15554
vấn_đề 15544
sách 15520
hướng 15453
> 15394
điện 15260
khẽ 15238
thư 15223
tối 15172
sớm 15113
vòng 15105
nhảy 15092
mời 15069
thằng 14840
trắng 14834
tránh 14723
sông 14720
già 14686
chặt 14665
thuốc 14650
khách 14648
bản 14625
hiện 14624
nhờ 14506
sử_dụng 14474
nửa 14470
bởi 14363
hôm_nay 14343
dừng 14317
lửa 14309
phát 14174
kinh 14159
trở_thành 14128
vợ 14080
mỉm 14078
ngạc_nhiên 14032
trở_lại 14027
gió 14022
chi 14019
thiếu 13932
lực 13929
trưởng 13858
bang 13834
quyền 13831
rơi 13828
buổi 13815
biển 13807
nhân_ái 13807
lệnh_hồ_xung 13781
tạo 13737
thu 13730
ngờ 13727
một_số 13704
quyết_định 13666
rời 13622
nguyên 13597
con_người 13530
4 13505
cung 13495
xuất_hiện 13461
phong 13441
hán 13439
trai 13430
hẳn 13422
chợt 13394
gửi 13358
lo 13342
ư 13314
ngọn 13313
đặc_biệt 13280
sắp 13238
đỏ 13210
tổ_chức 13202
ngài 13201
thí_sinh 13164
chú 13159
cứu 13129
xanh 13124
thở_dài 13122
huyện 13096
bán 13096
tình_yêu 13088
à 13072
5 13053
− 13043
có_lẽ 13017
đoạn 12999
kịp 12984
sư_phụ 12981
mức 12950
đại_học 12943
độc 12941
lệnh 12931
mạng 12924
bắn 12909
chồng 12899
2012 12851
đồ 12849
cánh 12844
phóng 12795
cổ 12788
riêng 12748
thuộc 12686
khóc 12668
tiểu_đệ 12656
/ 12651
trang 12636
vùng 12609
khá 12593
chuyển 12593
tiêu_lĩnh_vu 12584
đội 12570
vật 12552
chơi 12547
đệ_tử 12492
khu 12468
công_tử 12411
bèn 12398
văn_hoá 12392
tướng 12353
mau 12352
ô_tô 12339
truyền 12333
sức_khoẻ 12313
chúa 12297
phủ 12276
suốt 12237
sáu 12237
thay_đổi 12229
vai 12209
nói_chuyện 12175
đàn_ông 12143
tuần 12109
vang 12095
việt 12088
thiên_hạ 12086
nặng 12084
tưởng 12078
hội 12077
mùa 12073
dường_như 12067
quên 12032
ngôi 12014
thoát 12011
quốc_gia 11955
sở 11940
sâu 11932
nhất_định 11922
ôm 11897
chiều 11880
tuy_nhiên 11848
hồ 11813
công_ty 11789
rừng 11775
6/3 11773
làm_việc 11740
tình 11708
thực_hiện 11707
sức 11682
trái 11668
bao_nhiêu 11643
thượng_quan 11633
bắc 11621
kinh_doanh 11603
tai 11586
sắc 11567
vui 11529
đành 11529
trả 11490
ngừng 11489
] 11479
bờ 11468
lý 11438
thử 11431
cơ_hội 11422
_ 11408
chục 11395
hoạt_động 11364
cảm_giác 11364
cố 11327
phương 11325
lễ 11324
da 11305
rút 11299
nhóm 11284
rõ_ràng 11276
lắc_đầu 11235
hồng 11228
thế_này 11226
lao 11210
' 11208
lạnh 11177
sát 11143
sức_mạnh 11143
tiêu 11137
quan_trọng 11116
trúng 11113
c 11110
đối_phương 11110
phó 11094
giả 11068
thời 11057
cảnh 11036
dễ 11034
bụng 11031
thắng 11025
bạn_đọc 11013
thầy 11007
mối 10995
bố 10992
mụ 10964
quang 10951
ngã 10924
quát 10924
la 10918
có_vẻ 10902
tường 10900
so 10892
cũ 10880
cầu 10875
sơn 10855
đuổi 10847
lưu 10820
đức 10818
dự 10784
phát_hiện 10765
linh 10755
nỗi 10734
mong 10732
dạy 10695
hiệp 10677
tâm 10673
thpt 10662
viện 10637
đảo 10612
tấn_công 10585
khả_năng 10569
nhẹ 10558
cơn 10524
kim 10508
đại_ca 10486
đồng_thời 10480
nga 10462
đại_sư 10445
đấu 10400
mũi 10398
giảm 10386
vua 10378
trung_quốc 10375
dân 10325
nhị 10292
hết_sức 10253
phát_triển 10247
xe_máy 10231
cuốn 10225
đợi 10222
quanh 10221
thể_thao 10218
cặp 10200
giao 10196
bảy 10195
ban 10193
bàn_tay 10184
đạt 10168
tiên_sinh 10157
ma 10142
anh_em 10112
trượng 10104
pháp_luật 10083
dòng 10075
một_mình 10071
đh 10054
có_điều 10041
đau 10035
ngực 10032
cúi 9982
căn 9980
tám 9976
vượt 9956
quán 9953
thở 9950
lên_tiếng 9909
chuẩn_bị 9903
cuối 9877
giơ 9875
toà 9863
tham_gia 9862
chống 9862
phố 9850
tiên 9830
6 9807
binh 9796
giang_hồ 9796
yên 9790
t 9772
thành_phố 9765
quần 9764
đón 9762
tàu 9743
thịt 9740
nhi 9722
công_việc 9715
thưa 9705
phụ_nữ 9692
mãi 9690
cháy 9690
thay 9660
suy_nghĩ 9660
từ_từ 9637
[ 9616
sinh_viên 9615
n 9603
xây_dựng 9588
bình 9562
tung 9555
hành_động 9550
e 9529
tây 9521
khó_khăn 9519
khắp 9519
vạn 9514
thấp 9490
quan_hệ 9475
chọn 9447
đâm 9424
ngang 9420
võ_lâm 9401
* 9400
dương 9362
cấp 9358
hình 9298
ngọc 9284
đoán 9278
bảo_vệ 9265
2011 9245
nhân_vật 9233
kết_quả 9215
thông_tin 9196
bật 9196
châu 9183
đề 9178
tóc 9161
phút 9145
đàn_bà 9103
phản_hồi 9094
điện_thoại 9089
xông 9036
thái 9031
kế 9016
phá 8966
luyện 8958
liên_quan 8953
đóng 8943
diễn 8941
tuyệt 8938
nghĩa 8937
huynh_đệ 8897
giường 8895
vung 8886
lạnh_lùng 8874
bậc 8873
nhịp 8872
chùa 8842
quyết 8833
chương_trình 8832
bác 8823
đổi 8811
in 8778
thúc 8778
độ 8773
món 8761
ngàn 8735
chắc_chắn 8725
7 8717
cao_thủ 8705
lúc_nào 8698
xã 8697
tài 8695
giật_mình 8694
tư 8679
ngón 8678
đẩy 8617
thiên 8602
lá 8594
nét 8566
đổ 8544
tự_nhiên 8537
nhạc 8530
lát 8520
mưa 8509
tranh 8479
mi 8476
trở_nên 8470
đại_nhân 8454
lo_lắng 8452
an 8452
bản_thân 8451
đỡ 8400
thậm_chí 8382
8 8364
nhằm 8357
cơ 8355
yêu_cầu 8343
minh 8339
nghiên_cứu 8330
dành 8315
tỏ 8298
rộng 8293
bạc 8293
trốn 8273
má 8271
xuất 8268
nội 8253
ủng_hộ 8252
máy 8231
hát 8223
buồn 8213
thị 8191
huyệt 8174
ô 8170
đăng 8169
phụ 8150
ghế 8147
.. 8136
thực 8124
lục 8091
may 8086
chừng 8077
tôn 8075
câu_chuyện 8073
võ 8071
cơm 8019
khổ 7982
bí_mật 7980
giáo_chủ 7979
ngành 7977
lão_phu 7966
lối 7962
cuộc_sống 7942
quỷ_lệ 7917
kinh_hãi 7907
giấy 7905
tam 7903
hiện_nay 7899
tập 7885
dần 7883
lập 7878
đèn 7862
đập 7857
tội 7854
hơn_nữa 7841
đưa_mắt 7820
hại 7805
nếu_như 7796
quỷ 7796
m 7790
chém 7789
môi 7775
bác_sĩ 7746
báo_điện_tử 7726
chia 7715
thơ 7711
giỏi 7690
hy_vọng 7679
bát 7675
giáo 7672
thanh_ngân 7653
quốc_tế 7649
mùi 7635
thiếu_nữ 7625
ng 7613
vận 7610
chăng 7607
cho_nên 7596
yến_phi 7594
quan_tâm 7592
tim 7565
âm 7551
bất_cứ 7547
phim 7545
chiếm 7519
long 7471
bao 7469
giới 7423
băng 7421
tình_hình 7416
lâm 7399
ánh_sáng 7395
cơ_quan 7394
trung 7370
chủ_tịch 7359
tinh_thần 7352
kỹ 7351
tết 7347
bất_ngờ 7331
mã 7315
chụp 7312
siêu 7301
văn 7283
nóng 7280
vội_vàng 7277
thành_công 7275
người_dân 7265
i 7260
mừng 7259
ạ 7256
tất 7253
thực_sự 7250
ơi 7246
đàn 7242
bữa 7230
án 7228
kiện 7222
cắt 7221
bình_thường 7210
nhắc 7206
sau_này 7203
hoàng 7200
bị_thương 7194
dạ 7183
u 7178
như_thế_nào 7176
nụ 7161
đỉnh 7157
5/3 7152
hương 7149
xung_quanh 7145
khuyến_học 7136
thăm 7133
góc 7132
gỗ 7121
hậu 7115
đằng 7111
trao 7102
vì_thế 7102
nâng 7072
vân 7072
giận 7049
tiền_bối 7036
xét 7027
tận 7011
bạch 7000
kinh_tế 6992
ả 6976
xuân 6975
tình_trạng 6974
nguy_hiểm 6964
chú_ý 6960
lùi 6949
đối_phó 6945
dây 6944
phật 6940
tặng 6935
khu_vực 6933
chuyến 6921
gian 6915
kế_hoạch 6895
quận 6889
hầu 6860
sự_kiện 6856
chiếu 6848
lương 6837
kém 6836
dứt 6833
hệ_thống 6827
tiểu_thư 6826
nghỉ 6818
diễn_đàn 6810
hình_như 6809
niềm 6807
luồng 6797
buông 6793
nước_mắt 6781
thua 6777
dựa 6754
cực_kỳ 6720
ý_kiến 6719
khẳng_định 6711
vì_vậy 6706
phục 6703
trường_hợp 6696
tao 6688
lẫn 6678
thiếu_lâm 6673
tui 6669
kình 6668
thị_trường 6663
thân_hình 6660
trước_đây 6647
miền 6645
toàn_bộ 6628
liệu 6626
xoay 6618
cửa_sổ 6609
vợ_chồng 6598
sắt 6597
túi 6580
cố_gắng 6577
cướp 6572
đài 6571
hạnh_phúc 6566
tiếc 6553
hoá 6552
duy_nhất 6550
ra_tay 6550
chảy 6525
xinh 6514
mà_còn 6484
vui_vẻ 6484
chớ 6471
hình_ảnh 6466
thế_là 6463
quen 6456
tả 6443
s 6430
giải_thích 6414
ảnh_hưởng 6406
vô 6404
bệnh_viện 6397
9 6391
trương_tiểu_phàm 6391
chia_sẻ 6389
chín 6389
lưu_dụ 6389
hùng 6387
danh 6383
dĩ_nhiên 6371
ác 6371
tức_giận 6358
mua_bán 6356
lui 6350
nguồn 6346
anh_hùng 6304
để_ý 6301
ngân_hàng 6292
tinh 6292
trầm 6288
trung_tâm 6282
vừa_rồi 6280
cá 6261
chim 6250
điều_kiện 6245
công_tác 6237
nổi_tiếng 6223
nhé 6222
b 6217
sân 6202
an_toàn 6182
giáo_viên 6170
quý 6161
kiểm_tra 6152
kiểu 6141
quần_áo 6135
tuyết 6134
bất_giác 6126
mặc_dù 6125
tổng_thống 6118
cánh_tay 6102
đương_nhiên 6100
lý_do 6097
phi 6092
giờ_đây 6081
thú 6079
dễ_dàng 6077
vâng 6077
lý_hàn_thu 6073
ngó 6054
lớn_tiếng 6054
lượng 6051
cất 6047
tổng 6043
nuôi 6033
quản_lý 6029
tuyển_sinh 6028
che 6018
thông 6016
đầu_tư 6009
phân 6007
chính_phủ 6002
vô_kỵ 6001
im_lặng 5984
lượt 5976
dịch 5974
chất 5972
tờ 5972
công_chúa 5966
xương 5947
giải_quyết 5943
trần 5941
tổ 5928
hàn 5924
sư_huynh 5920
dặm 5901
đào 5896
cổng 5890
cụ 5889
làng 5888
lệ 5887
nhẹ_nhàng 5885
12 5882
giao_diện 5881
nền 5875
quy_định 5871
phép 5863
mỗ 5856
kính 5853
lợi_hại 5844
quả_nhiên 5833
trước_mắt 5825
cán_bộ 5823
lãnh_đạo 5823
thoáng 5817
lấy_làm 5815
bởi_vì 5799
ngũ 5794
vi 5788
bá 5769
tuyển 5768
cốc 5757
khuôn_mặt 5756
cỏ 5753
cẩn_thận 5751
lịch_sử 5749
điều_tra 5747
20 5741
chó 5741
tựa 5738
bạt_phong_hàn 5715
mảnh 5706
đăng_ký 5697
vọng 5696
sợ_hãi 5696
quả_thật 5693
tan 5687
tập_trung 5680
hiện_tại 5669
đảng 5662
thanh_niên 5654
ái 5631
đề_nghị 5625
gấp 5623
toàn_thân 5621
súng 5618
mục 5616
nhất_là 5597
s@@ 5589
vườn 5587
 @@ 5578
phí 5574
doanh_nghiệp 5566
trải 5560
chào 5537
nguyên_nhân 5534
quốc 5532
dự_án 5527
buộc 5513
hữu 5512
trách_nhiệm 5511
tay_trái 5504
cục 5500
sóng 5498
lưỡi 5484
tuần_báo 5483
vị_trí 5470
ghi 5467
quan_sát 5453
đốt 5451
n@@ 5438
chậm 5429
thông_báo 5418
pda 5417
mẫu 5414
blog_tấm 5414
english_sự 5414
nổ 5408
bò 5408
thiếu_niên 5404
mai 5396
cơ_thể 5376
nhân_viên 5362
xinh_đẹp 5362
thực_tế 5356
không_thể_nào 5348
đến_nỗi 5340
lướt 5330
đơn 5327
trại 5324
tức 5321
lời_nói 5320
cờ 5315
màn 5314
thật_sự 5313
hiện_giờ 5309
thiếp 5301
mây 5296
mắc 5293
thổi 5292
vỡ 5291
thanh_âm 5287
tình_cảm 5286
hà 5285
tạm 5280
chén 5277
vẽ 5273
răng 5270
trí 5263
hoà_thượng 5251
lính 5245
nghề 5243
toán 5241
thạch 5219
sản_phẩm 5212
bất 5210
xử_lý 5203
liếc 5203
gdđt 5195
lao_động 5188
khen 5186
dâng 5178
bối 5168
giành 5167
30 5158
đòi 5154
không_chỉ 5151
chức 5147
tầng 5142
trà 5136
tròn 5136
xấu 5126
quỳ 5114
không_khí 5109
ném 5103
chốn 5093
địa_phương 5090
-@@ 5089
chuyên 5088
giấu 5081
cơ_sở 5080
canh 5078
ẩn 5078
tống 5077
vách 5076
2019 5074
yếu 5072
hợp 5061
nhỉ 5053
nghìn 5050
lang 5045
dung 5041
hô 5040
đào_tạo 5037
du_học 5035
giúp_đỡ 5026
hiệu 5018
hỗ_trợ 5014
chữa 5003
khai 5002
nhanh_chóng 4995
kinh_ngạc 4991
tần 4981
trương 4972
đánh_giá 4971
xuyên 4970
cảnh_sát 4964
công_an 4962
dầu 4962
làn 4959
d@@ 4954
lũ 4953
lợi 4952
trống 4948
ngoại 4934
giao_thông 4925
hai_mươi 4924
đồng_ý 4922
có_mặt 4910
cha_mẹ 4904
lăn 4891
nghi_ngờ 4886
thất 4878
vỗ 4875
xưa 4868
cát 4867
hừ 4866
tùng 4864
vây 4856
sự_việc 4852
nhà_sư 4849
vui_mừng 4843
thốt 4828
đeo 4824
mặt_trời 4817
chủ_nhân 4814
langdon 4814
hải 4810
11 4809
kết 4807
nhật 4807
thuỷ 4802
đảm_bảo 4799
sử 4799
’ 4797
than 4794
trẻ_em 4791
c@@ 4787
cuộc_đời 4785
tiểu_nhân 4783
đơn_giản 4782
chạm 4779
nợ 4777
bãi 4765
trừ 4763
hoàng_đế 4763
thế_thì 4763
phải_chăng 4758
gương_mặt 4757
nọ 4754
trách 4747
ngắn 4743
chấp_nhận 4742
cực 4740
lọt 4740
trương_vô_kỵ 4727
chẳng_lẽ 4721
gạt 4714
bụi 4713
tình_thế 4699
gồm 4693
cho_phép 4688
tớ 4684
cất_tiếng 4680
giới_thiệu 4676
@@ 4675
hào 4671
bình_tĩnh 4660
thuật 4650
khoa_học 4648
sự_thật 4647
chúc 4640
t@@ 4634
tươi 4634
vọt 4633
hôn 4625
chiến 4624
dấu 4620
tiện 4612
tha 4611
xây 4605
nắng 4601
dao 4598
cá_nhân 4587
nhà_nước 4587
hứa 4578
cấm 4574
chờ_đợi 4568
ngược 4567
trăng 4567
bầu 4564
thái_độ 4564
hoà 4563
trọng 4560
nhân_dân 4558
vũ 4556
ai_nấy 4556
vải 4548
lã_bất_vi 4547
dịch_vụ 4546
tứ 4543
tiêu_điểm 4543
tương_lai 4542
miếng 4539
mượn 4536
yên_tâm 4534
bóng_đá 4532
hộp 4527
ngân 4525
thôn 4517
lực_lượng 4514
nương 4513
15 4507
run 4507
sợi 4507
công_nghệ 4505
sứ 4497
giám_đốc 4496
khoá 4495
hạt 4495
xứ 4495
thức 4494
ngắm 4481
đau_đớn 4481
họp 4473
ngoài_ra 4468
tin_tức 4451
nạn 4447
thèm 4446
ám 4445
m@@ 4443
sản_xuất 4438
trầm_ngâm 4435
a@@ 4429
lựa_chọn 4427
tích_nhân 4427
ng@@ 4426
ly 4425
tư_mã 4425
quách_tĩnh 4422
kéo_dài 4413
chất_lượng 4411
khinh 4410
thánh 4407
tựa_hồ 4401
nghèo 4400
ý_nghĩ 4398
gốc 4393
một 4392
âu_dương_hải 4388
trôi 4384
lan 4382
thông_minh 4375
luật 4375
khối 4375
vết 4372
nguyễn_@@ 4370
lam 4369
tp. 4367
pha 4359
tạ 4356
khắc 4347
trúc 4344
tấn 4343
dịp 4341
hoàng_thượng 4341
hả 4331
lạc 4327
thuộc_hạ 4327
h 4325
sạch 4321
dọc 4318
ôi 4317
tượng 4315
nhất_thời 4314
cân 4313
thế_mà 4311
nhiên 4310
tìm_kiếm 4308
hộ 4305
bốc 4302
treo 4301
trưa 4299
trị 4294
tuyên_bố 4293
lầm 4290
hắc 4282
quê 4281
hét 4277
di 4276
xem_ra 4274
khúc 4268
liên 4266
quà 4261
hay_là 4261
hiệu_quả 4260
tiến_hành 4258
báo_cáo 4254
thủ_tướng 4243
lỗi 4242
thừa 4241
hành 4238
dần_dần 4233
mơ 4229
thân_thể 4229
cương 4226
lý_trọc 4221
ngẩng 4212
tiếp_theo 4208
toan 4207
kiến_thức 4204
vết_thương 4204
đoạt 4203
cho_dù 4202
phụ_huynh 4202
sư_đệ 4201
i@@ 4196
hận 4195
h@@ 4192
xác 4190
lầu 4190
tắt 4189
thể_hiện 4187
chính_thức 4169
mật 4167
thái_hậu 4161
chương 4160
nhập 4159
theo_dõi 4156
phương_pháp 4155
_@@ 4154
ðại 4152
công_lực 4151
kinh_nghiệm 4140
đỗ 4137
môi_trường 4135
thể 4134
may_mắn 4129
chí 4125
học_tập 4124
kỳ_lạ 4124
l 4121
lôi 4121
dựng 4112
tự_do 4108
sẵn 4105
đống 4102
usd 4101
công_bố 4100
đối_thủ 4097
giá_trị 4095
nội_lực 4092
bảng 4088
kết_thúc 4085
trực_tiếp 4074
khoản 4065
sa 4063
quá_trình 4062
một_hơi 4060
đau_khổ 4053
xin_lỗi 4053
p 4050
khô 4049
cột 4048
ơn 4038
bánh 4035
chính_trị 4030
hút 4029
bạn_bè 4025
âm_thanh 4022
gà 4021
mạch 4014
lỗ 4012
giặc 4012
thực_ra 4011
kín 4009
mục_đích 4008
thượng 4008
thì_ra 4002
tướng_quân 4000
đứt 3999
phản_ứng 3998
giáo_sư 3994
ha_hả 3992
ngày_mai 3986
tiệc 3982
thiết_mộc 3981
vãn 3974
quái 3969
chăm_chú 3961
máy_bay 3958
chiến_thắng 3957
rớt 3956
chứa 3955
hiển_nhiên 3952
chớp 3951
x@@ 3950
khoa 3950
hoạ 3949
thả 3949
bớt 3939
lý_thế_dân 3939
tài_chính 3929
đồng_hồ 3929
ngăn 3926
mồ_hôi 3920
thiết 3919
thời_điểm 3909
nước_ngoài 3900
nhiệm_vụ 3899
nhịn 3897
đói 3896
triều_tiên 3894
mái 3894
nô 3893
khuyên 3892
tưởng_tượng 3890
vươn 3889
từ_chối 3887
ni 3886
vậy_mà 3885
jobs 3882
ngầm 3878
chợ 3878
mục_tiêu 3876
ngược_lại 3875
sẵn_sàng 3874
tuyệt_đối 3866
lẩm_bẩm 3864
d 3861
bày 3861
rắn 3858
tất_nhiên 3856
đà 3856
một_vài 3854
mặt_đất 3851
thước 3850
hcm 3846
lẽ 3843
thanh_vân 3835
khói 3833
ngon 3830
tà 3829
b@@ 3823
nghi 3823
cởi 3823
ngày_nay 3812
mà_lại 3807
tốt_nghiệp 3807
trộm 3805
liên_hệ 3800
râu 3794
bệnh_nhân 3789
triển 3789
tu 3789
hoàng_dung 3776
loạn 3775
say 3775
hôm_qua 3771
hoàn_cảnh 3770
danh_sách 3766
liên_tục 3763
giật 3762
liên_tiếp 3753
tp 3752
chiến_tranh 3752
e@@ 3752
công_phu 3747
bóng_tối 3746
chấm 3745
chăm_sóc 3743
diện 3741
nh 3741
chấn_động 3741
ngưng 3736
hổ 3729
thị_trấn 3725
o@@ 3723
thiết_kỳ_sĩ 3712
triển_khai 3709
bố_mẹ 3707
môn_phái 3704
chiến_đấu 3702
cưới 3702
ông_già 3695
tầm 3693
thò 3687
mươi 3686
mở_cửa 3686
nhà_trường 3682
ubnd 3679
nhắm 3677
gãy 3675
không_những 3672
đòn 3671
hư_trúc 3671
hẹn 3667
huyết 3667
xử 3664
bao_lâu 3662
âu 3661
điều_trị 3660
phen 3654
r@@ 3652
ân 3646
khổng_lồ 3645
đất_nước 3644
tỉ 3639
000 3631
bọc 3627
đầy_đủ 3625
iran 3625
dặn 3625
đối_diện 3623
chuông 3621
triều 3616
nội_dung 3611
hoàn_thành 3607
phạm 3604
ý_nghĩa 3602
lừa 3602
thất_bại 3601
tiết_lộ 3601
tâu 3599
hoang 3597
đả 3593
muộn 3591
tiêu_phong 3591
hè 3589
giấc 3586
ít_nhất 3577
đơn_vị 3574
há 3574
không_gian 3572
thuê 3572
tia 3572
50 3571
khẩu 3570
tặc 3561
gác 3555
ký 3549
nở 3549
đụng 3547
múa 3547
phu 3546
thuận 3541
giọt 3536
xăng 3534
hành_vi 3532
ấn 3530
cành 3529
đ 3527
lãnh 3525
chả 3524
nhíu 3524
đối_tượng 3523
ngày_càng 3519
thành_viên 3515
100 3515
phạt 3507
đến_nơi 3503
xem_xét 3502
ngô 3501
trái_tim 3497
cung_cấp 3493
hiếm 3493
tay_phải 3493
tốc_độ 3492
binh_khí 3491
du_lịch 3485
đại_diện 3483
bút 3481
thường_xuyên 3479
phục_vụ 3468
phản 3468
lặng_lẽ 3465
ch 3462
tuyến 3460
vn 3459
l@@ 3458
v 3454
nghiêm 3453
khoe 3445
tệ 3443
chị_em 3440
khó_chịu 3439
biện_pháp 3433
khách_sạn 3433
cụ_thể 3427
cảm_ơn 3421
tầm_thường 3420
tình_huống 3419
dắt 3419
mê 3419
bổn 3415
trò 3412
ép 3411
u@@ 3408
hảo 3406
tức_là 3405
tiếng_nói 3404
bấy_giờ 3403
rửa 3403
.@@ 3395
p@@ 3393
bất_kỳ 3392
dịu_dàng 3391
loài 3390
ra_mắt 3389
bếp 3389
khoảnh_khắc 3386
vững 3383
ghé 3381
phù_hợp 3376
mồm 3373
cần_thiết 3372
có 3369
học_trò 3363
của 3362
đạn 3361
trần_@@ 3359
giàu 3356
hợp_tác 3354
xếp 3353
apple 3352
ồ 3352
khắp_nơi 3350
đáy 3348
hít 3345
xác_định 3344
nãy 3344
quyển 3341
luôn_luôn 3340
hồn 3337
hất 3333
g@@ 3332
mộ 3331
khăn 3326
kỹ_thuật 3320
lật 3319
thẩm_mộc_phong 3319
chắp 3317
thủ_hạ 3316
văn_bình 3307
tham_dự 3306
lăng 3302
hưởng 3301
thiết_kế 3301
chỉ_huy 3300
chở 3295
đùa 3294
tuân 3293
gương 3291
ba_mươi 3289
bí 3289
mắng 3285
chui 3278
chậm_rãi 3278
13 3276
khách_hàng 3276
nữ_sinh 3271
pho 3265
giận_dữ 3263
phát_giác 3261
phiên 3260
hãng 3259
nạn_nhân 3259
đậu 3258
chìm 3257
nghỉ_ngơi 3255
sữa 3249
nhắm_mắt 3248
thét 3246
nh@@ 3243
điên 3239
clip 3236
ống 3234
tuỳ 3233
đi_lại 3228
đề_phòng 3223
nghiêng 3222
lạy 3222
trình 3221
đại_gia 3219
lông 3219
internet 3217
tác_giả 3217
nát 3217
mẹ_con 3213
tướng_công 3211
trưởng_lão 3205
ngắt 3200
ung_thư 3193
thơm 3192
thưởng 3185
ấn_tượng 3184
vừa_mới 3182
cố_ý 3181
y_tế 3175
vỏ 3175
bộ_trưởng 3172
nguy_cơ 3168
quân_đội 3168
giây_lát 3168
dương_@@ 3164
ma@@ 3163
vô_tình 3162
xuất_sắc 3157
tử_vong 3156
bông 3154
cứng 3152
và 3152
thủ_đoạn 3149
cỗ 3147
đô 3146
chịu_đựng 3145
quảng_cáo 3144
nghiêm_trọng 3138
phối_hợp 3138
cắn 3136
chính_sách 3135
căng_thẳng 3135
tồn_tại 3135
ăn_uống 3134
thức_ăn 3134
k@@ 3123
ra_lệnh 3121
mệt_mỏi 3119
bám 3117
thảo 3116
công_trình 3113
văn_phòng 3113
thoải_mái 3112
lĩnh_vực 3110
thất_vọng 3103
v@@ 3102
mộc 3101
6@@ 3100
dân_tộc 3098
mạnh_mẽ 3097
phúc 3094
quét 3092
4/3 3089
đại_@@ 3086
tin_tưởng 3085
nhật_bản 3082
sàn 3082
bầu_cử 3079
dính 3075
chế 3073
giai_đoạn 3068
biến_sắc 3066
tâm_sự 3065
chính_xác 3062
chuyên_gia 3060
to_lớn 3059
mũ 3058
nhu_cầu 3054
đột_ngột 3054
chỉ_đạo 3049
khoẻ 3045
tác_phẩm 3044
giày 3039
bỗng_nhiên 3039
trang_chủ 3039
tài_sản 3038
đương 3038
ngôi_sao 3034
tháp 3033
tai_nạn 3027
tiễn 3027
ma_giáo 3024
gầm 3023
ấm 3022
dì 3017
mở_rộng 3016
chặn 3016
1/3 3013
quản 3012
bố_trí 3006
thần_sắc 3004
bất_luận 3000
tống_cương 2999
hưng 2998
quân_sự 2998
đình 2993
tụi 2992
ipad 2991
mọc 2987
hoàn 2987
thù 2987
273 2986
bầu_trời 2986
dạo 2982
‘ 2980
kiều_phong 2979
am 2977
do_đó 2976
hầm 2975
suối 2975
hỏng 2974
rốt_cuộc 2971
17 2970
leo 2968
máy_tính 2967
ban_đầu 2966
cộng_đồng 2965
lạng 2963
cú 2961
toả 2961
nghệ_thuật 2961
bước_đi 2959
châm 2956
dãy 2956
chỉ_tiêu 2948
thiếu_gia 2948
ngửa 2947
top 2946
chi_tiết 2945
hội_đồng 2941
5@@ 2939
cảm_nhận 2938
trao_đổi 2935
ngấm_ngầm 2932
ch@@ 2931
tông 2929
đầu_óc 2929
là 2928
dốc 2925
video 2921
tảng 2920
xúc_động 2918
thừa_chí 2918
qua_đời 2914
chia_tay 2910
sài_gòn 2905
trán 2898
huyền 2894
thú_vị 2890
lục_tuyết_kỳ 2890
ngẩn 2888
ghê_gớm 2886
nặng_nề 2884
người 2884
nguỵ 2880
thông_qua 2879
doanh_doanh 2879
cưỡi 2877
mệt 2874
trịnh_vi 2873
thỉnh_thoảng 2872
bại 2870
tự_tin 2869
hang 2868
tái 2864
việc_làm 2863
đám_cưới 2862
hình_thức 2860
18 2860
dày 2858
tiết 2857
huế 2855
hội_nghị 2852
sương 2851
chu 2848
bữa_nay 2847
ứng 2845
mệnh 2845
giây 2842
g 2841
té_ra 2838
chứng_kiến 2836
cước 2836
người_yêu 2836
cô_giáo 2830
lau 2828
vay 2824
ngớt 2820
du 2817
anh_chàng 2817
gói 2816
cửa_hàng 2816
thiên_@@ 2815
đợt 2814
tân_@@ 2811
phức_tạp 2810
vương_@@ 2810
phản_đối 2810
kinh_hoàng 2809
tộc 2807
hạ_mạt 2803
tính_toán 2801
8@@ 2800
2/3 2797
bơi 2797
an_ủi 2797
chớp_mắt 2796
giả_vờ 2795
trung_nguyên 2795
ghét 2790
ưng 2788
soái 2787
th 2784
thục 2782
nghĩa_là 2780
co 2774
kết_luận 2773
ôn 2773
vi_phạm 2772
hạn_chế 2771
trước_kia 2771
con_bé 2770
gan 2768
có_khi 2765
tình_dục 2761
putin 2758
dũng 2752
vũ_trụ 2750
thí_chủ 2750
29/2 2746
7@@ 2742
trương_@@ 2738
tắm 2738
không_chừng 2735
tỏ_vẻ 2734
chủ_yếu 2733
bất_quá 2733
nhạc_bất_quần 2733
cừu 2730
trẻ_con 2729
vực 2727
lều 2726
nhường 2725
địa 2723
lên_đường 2717
hợp_đồng 2715
yến 2713
khanh 2712
ta@@ 2711
đà_nẵng 2710
ruột 2710
10@@ 2708
  2703
dị 2702
mừng_rỡ 2701
sa@@ 2699
cắm 2695
phi_thường 2693
dù_sao 2690
trung_ương 2689
cao_cường 2687
đã 2687
bao_gồm 2686
ra_vẻ 2686
lôi_phi 2686
ngại 2684
sáng_tạo 2681
kha 2677
kiếp 2676
la@@ 2673
diệu 2673
li@@ 2672
hiếu 2670
bỏ_qua 2669
năng_lực 2668
vu 2662
mỹ_nhân 2659
cử_động 2657
tìm_hiểu 2656
thạch_chi_hiên 2650
agrave 2649
miếu 2648
9@@ 2645
hấp_dẫn 2645
thảm 2645
hồ_sơ 2644
yêu_thương 2644
ổn_định 2642
hoa_sơn 2641
tăng_cường 2640
đinh 2639
chung_quanh 2638
nhân_tài 2636
40 2634
phẫu_thuật 2634
hành_lang 2634
người_thân 2633
vô_số 2628
khán_giả 2627
lén 2626
trồng 2625
duyên 2624
nhà_vua 2621
vai_trò 2620
lợi_dụng 2620
như_thể 2614
phường 2612
432 2612
16 2608
quy 2608
đua 2607
tỳ 2605
tiến_sĩ 2600
nấu 2600
lạc_hi 2598
hầu_hết 2596
ca@@ 2596
chế_độ 2594
thản_nhiên 2593
dạng 2590
thực_phẩm 2588
quen_thuộc 2587
đan 2587
o 2586
thế_kỷ 2583
mong_muốn 2579
kiểm_soát 2574
giải_pháp 2571
nguy 2567
loan_loan 2567
hiểu_phong 2567
hoà_bình 2566
sắp_xếp 2565
kim_@@ 2564
điều_chỉnh 2561
dồn 2561
chẳng_những 2560
đạp 2559
tổn_thương 2557
chẳng_thể 2555
biên_hoang 2553
cái_bang 2551
móc 2549
chi_phí 2546
lành 2544
một_nửa 2541
an_ninh 2540
thống_nhất 2540
thiện 2540
trói 2540
hư 2538
vương_gia 2538
26 2537
nén 2537
ổn 2536
bằng_hữu 2536
thừa_nhận 2534
hầu_như 2532
na@@ 2527
quảng_bình 2526
y_phục 2526
nội_công 2526
biên_hoang_tập 2526
ba@@ 2525
vũ_khí 2525
mái_tóc 2525
biểu_diễn 2524
đế 2524
được 2521
14 2520
ý_định 2518
tạm_thời 2516
chính_quyền 2507
xé 2506
nộp 2505
18@@ 2504
tạ_tốn 2503
gánh 2501
báo_chí 2499
lạc_dương 2499
đáp_ứng 2498
dấu_hiệu 2496
kho 2496
dư 2496
vừa_qua 2493
ti@@ 2493
.... 2491
áp 2491
phe 2491
hòn 2485
ung_dung 2484
căn_cứ 2482
khám_phá 2478
cửu 2478
khỉ 2475
tính_mạng 2471
chăn 2468
đ@@ 2464
25 2463
dụng 2463
tâm_lý 2461
chau 2460
phùng_phá_thạch 2459
áp_dụng 2457
hạnh 2456
nha 2452
tâm_thần 2451
tiểu_@@ 2449
rót 2444
k 2444
tháo 2444
đông_phương_thanh_vân 2443
giải_thưởng 2441
diễn_viên 2441
cao_ngạn 2440
doãn_hạ_mạt 2440
vệ 2438
tương_tự 2437
phương_tiện 2436
biểu 2434
khuya 2433
thật_ra 2431
mộng 2431
mé 2428
thiệt 2428
lẽ_nào 2428
tế 2427
vụt 2427
nghĩ_bụng 2427
hoang_mang 2425
roi 2425
đuôi 2425
phổ 2424
nháy_mắt 2424
thành_lập 2423
hệ 2423
tiếng_động 2423
lăng_độ_vũ 2423
kỷ_yên_nhiên 2421
thọ 2420
cau 2420
lãnh_như_băng 2417
ho 2416
giang 2415
thề 2415
tiểu_hôi 2415
hướng_dẫn 2413
sung_sướng 2413
ðằng_dực 2412
sườn 2411
tù 2409
thai 2409
sai_lầm 2406
tác_dụng 2405
dược 2405
rít 2404
thanh_tra 2403
liên_lạc 2403
bom 2403
hễ 2402
lắng_nghe 2401
bản_lĩnh 2399
té 2399
kiến 2398
tán 2398
cộng 2397
đề_xuất 2395
tphcm 2395
thiết_bị 2392
tham 2392
3/3 2391
ước 2390
bưng 2387
học_bổng 2385
tuyệt_vời 2384
chôn 2383
im 2383
xưa_nay 2379
rồng 2379
non 2374
sửa 2372
trấn 2372
nêu 2371
thân_phận 2371
tài_năng 2369
số_lượng 2363
nam_@@ 2359
phần_lớn 2359
khủng_khiếp 2359
hiệu_trưởng 2359
cạn 2358
thu_hút 2357
cà_phê 2357
tràn 2355
trợn 2354
trẫm 2354
phụ_thân 2352
14@@ 2351
tâm_hồn 2351
vụ_việc 2350
trước_tiên 2350
châu_âu 2347
những 2345
gắn 2344
vương_thế_sung 2344
có_lý 2341
khám 2340
mãnh_liệt 2339
biến_hoá 2339
âu_thần 2339
xác_chết 2337
ðịch 2331
kể_cả 2330
triệu_mục 2330
mạc 2328
nhu 2328
gậy 2328
thi_thể 2327
gục 2327
đời_sống 2326
thuyết_phục 2326
béo 2326
hung 2325
x 2324
thuế 2324
điền_bất_dịch 2324
tiệm 2322
chẳng_qua 2322
tập_đoàn 2317
vội_vã 2317
thời_trang 2315
con_số 2314
ngay_lập_tức 2314
chầm_chậm 2313
áp_lực 2312
tràng 2309
ắt 2306
quyết_tâm 2305
vĩnh_viễn 2304
lạ_lùng 2303
khống_chế 2303
ngự 2301
đồi 2300
đóng_cửa 2296
quả_thực 2296
hiền 2295
cuộc_chiến 2295
dụ 2295
a_@@ 2295
biết_đâu 2295
dập 2294
cử 2293
điếm 2293
nguyệt 2292
nuốt 2291
bổ 2289
tốn 2288
hối_hận 2287
quốc_hội 2286
di_chuyển 2286
kẻ_thù 2286
đe_doạ 2285
lái 2285
phạm_@@ 2284
nổi_giận 2284
chấn 2281
phụ_trách 2279
rung 2279
lưu_@@ 2277
mông_cổ 2275
lạt 2273
r 2272
giấy_phép 2270
cảm_xúc 2268
đồn 2268
điền 2267
lỡ 2266
nỗ_lực 2265
24 2265
tỷ_lệ 2261
biến_đổi 2261
cổ_tay 2261
hiện_đại 2260
tiểu_học 2260
bến 2259
góp_ý 2259
ngờ_đâu 2257
đền 2256
xám 2255
bề 2255
hậu_quả 2254
truyện 2254
tài_liệu 2251
nhận_xét 2250
đùi 2250
lần_lượt 2249
tiếp_xúc 2248
nhầm 2248
thâm 2248
triều_đình 2248
quen_biết 2247
sư_phi_huyên 2246
giám_sát 2245
một_khi 2245
sửng_sốt 2245
dân_chúng 2243
ty 2239
cớ 2239
tách 2237
ngước 2232
viêm 2231
kích 2229
tay_chân 2227
hằng 2226
lâm_bình_chi 2226
trạm 2225
gạo 2224
ca_sĩ 2223
á 2221
làm_chi 2221
phẩm 2219
sổ 2218
thái_tử 2217
phân_biệt 2216
ứng_phó 2216
gót 2215
gượng 2214
kèm 2212
lo@@ 2211
đồng_chí 2208
minh_bạch 2206
gi@@ 2205
rẽ 2205
khe 2203
bận 2202
mặt_mũi 2201
đa 2200
năm_học 2200
kỷ_niệm 2200
cha_con 2199
dáng 2199
aacute 2199
nghệ_an 2198
cười_nhạt 2198
âm_nhạc 2197
ngơ_ngác 2197
hoài 2195
ý_tưởng 2195
hoàng_@@ 2194
hoàn_hảo 2194
kết_hợp 2192
mạo_hiểm 2191
bảo_đảm 2190
tư_vấn 2190
diệt 2190
bổng 2190
reo 2189
bia 2188
y@@ 2187
bí_ẩn 2186
rau 2185
nhiễm 2185
mẫu_thân 2184
xen 2181
lưới 2180
mực 2179
15@@ 2178
quỹ_nhân 2178
tay_áo 2174
xóm 2173
quyền_lực 2172
chứng_minh 2171
lý_uyên 2171
le@@ 2170
cách_mạng 2170
lệnh_hồ 2170
chuyển_động 2168
nhấc 2167
phân_tích 2166
nhà_máy 2162
trứng 2162
hải_phòng 2158
nhãn 2158
vtc 2158
hoá_ra 2157
vẫy 2157
tuấn 2152
tương 2150
xà 2150
sảnh 2150
cung_kính 2148
cường 2147
căn_bản 2145
giam 2143
trước_nay 2139
cốt 2138
vuốt 2138
mổ 2136
điều_khiển 2136
buồn_bã 2135
ngốc 2134
đối_mặt 2133
mưu 2133
sở_hữu 2131
vứt 2131
truyền_thống 2129
gối 2129
nghiệp 2129
thế_lực 2129
lấp_lánh 2129
tiểu_hoàn 2128
16@@ 2127
đồ_phụng_tam 2127
giáp 2126
thập 2125
cầu_thủ 2124
rút_lui 2123
sinh_tử 2123
bẩm 2121
cản 2120
làm_ăn 2120
dê 2119
đôi_khi 2118
du_thản_chi 2118
cao_thâm 2117
bổ_sung 2115
địa_vị 2115
mù 2113
thiền 2113
loé 2106
phất 2106
công_nhân 2105
mộ_dung_phục 2105
ri@@ 2102
do_dự 2102
ra@@ 2101
tr@@ 2100
vất_vả 2098
chứng_tỏ 2098
kỳ_quái 2098
nghệ_sĩ 2097
côn 2097
hành_trình 2095
chủ_động 2094
thạch_phá_thiên 2093
thay_thế 2092
yếu_tố 2091
th@@ 2091
thần_bí 2091
ms 2090
não 2088
cho_hay 2087
khó_lòng 2087
bối_rối 2087
chán 2084
tề 2084
f@@ 2083
thùng 2082
ra_hiệu 2082
kìa 2081
cãi 2081
sự_nghiệp 2080
bào 2080
lái_xe 2078
xách 2078
bừng 2078
bản_lãnh 2078
lý_mật 2078
ứng_dụng 2075
may_mà 2073
ngăn_cản 2072
luận 2071
hiền_đệ 2070
4@@ 2069
phương_tú 2068
duy_trì 2066
12@@ 2066
hạt_nhân 2066
bịt 2066
thu_hồi 2065
hài_lòng 2061
tư_cách 2061
sĩ 2061
biết_bao_nhiêu 2060
đầm 2059
trước_hết 2059
mũi_tên 2059
bích_dao 2059
ngôn 2058
nhạc_linh_san 2058
lúng_túng 2056
kh@@ 2055
thế_gian 2055
kỳ_dị 2053
mười_hai 2052
cảm_kích 2051
né_tránh 2050
đựng 2049
thị_vệ 2049
na 2048
bất_tất 2048
thái_giám 2047
trỏ 2042
19 2041
lê@@ 2038
nhanh_nhẹn 2038
báo_thù 2036
thanh_thanh 2036
kỷ_thiên_thiên 2036
katie 2033
dáng_vẻ 2032
gặp_mặt 2031
nghiến 2031
biên_giới 2030
xô 2030
mo@@ 2029
chất_độc 2028
vỗ_tay 2028
re@@ 2027
nào_ngờ 2026
ha_ha 2026
bầy 2025
hoài_nghi 2023
đè 2021
2018 2020
chúng_mình 2020
uy 2019
kỵ 2018
hàng_đầu 2015
nổi_bật 2014
chu_nhất_tiên 2014
vi@@ 2013
ăn_mặc 2013
ph@@ 2012
so_sánh 2011
đối 2010
di_động 2009
khoang 2009
thích_thú 2009
ngày_xưa 2008
nhặt 2008
trèo 2007
ngõ 2005
tố_tố 2005
khoảng_cách 2003
tích_cực 2002
vắng 2001
nhà_thờ 2001
nầy 2001
liễu 2000
chửi 2000
lụa 2000
năng_lượng 1999
quá_khứ 1999
trùm 1999
không_trung 1995
hở 1994
cám_ơn 1994
âm_mưu 1993
màn_hình 1992
tàn 1991
trào 1991
ngây 1991
ngoại_giao 1989
rực_rỡ 1989
mỏng 1988
nhiệt 1987
hứng_thú 1986
loạt 1984
rẻ 1983
nhà_khoa_học 1981
hàn_quốc 1981
quan_điểm 1979
kỷ 1979
quan_tài 1977
bộ_phận 1976
hiện_tượng 1975
tím 1975
tần_nhi 1975
cựu 1974
cổn_long_vương 1974
dư_luận 1973
tốt_đẹp 1972
mèo 1972
thay_vì 1971
năm_xưa 1971
hàng_loạt 1968
đại_sảnh 1968
trình_độ 1967
thế_hệ 1966
tô 1966
thủ_pháp 1965
mau_lẹ 1965
2010 1964
cảm 1963
gặp_gỡ 1963
ừ 1963
200 1962
ngô_tam_quế 1962
váy 1960
đáp_án 1960
to@@ 1959
thi_lễ 1958
lợi_ích 1957
hợp_lý 1957
thương_mại 1956
mức_độ 1956
thang 1956
dại 1956
cđ 1956
huống_chi 1955
vinh 1953
chứng 1952
nhát 1952
giương 1952
cơ_bản 1951
tiện_thiếp 1951
hiểu_biết 1950
trò_chuyện 1949
phụng 1946
bệ_hạ 1944
quỹ 1943
ván 1943
tự_nhủ 1943
vả_lại 1943
giở 1940
ðoàn_dự 1939
bề_ngoài 1938
tư_tưởng 1937
kêu_gọi 1937
vô_địch 1935
sự_thực 1935
xá 1935
thủ_đô 1934
nối 1932
60 1929
rậm 1927
dự_kiến 1926
óc 1926
phẫn_nộ 1926
chánh 1925
đồng_thanh 1924
minh_chủ 1924
địa_bàn 1923
lạnh_lẽo 1923
đánh_bại 1922
di@@ 1920
can_thiệp 1919
quãng 1919
lợn 1918
động_tác 1918
liệt 1916
vff 1913
dữ_dội 1913
chiêu_thức 1913
ý_muốn 1912
suy 1912
muôn 1912
_h@@ 1910
chiến_lược 1910
niệm 1910
giếng 1910
bắc_kinh 1909
ê 1908
co@@ 1908
thói_quen 1906
văn_@@ 1905
sờ 1903
toát 1903
dữ 1903
phóng_viên 1902
ấm_áp 1901
chủ_nhật 1901
xứng_đáng 1900
tủ 1900
khéo 1900
ỷ 1899
anna 1899
kiên 1895
tử_lăng 1895
21 1892
mông 1891
bái 1889
đại_tướng 1887
đi_nữa 1887
thân_pháp 1887
độc_thủ 1884
an_@@ 1882
trùng 1882
vũ_văn_hàn_đào 1882
thợ 1881
trời_ơi 1881
dọn 1880
đĩa 1880
sốc 1879
biết_bao 1879
nghĩ_ngợi 1878
mở_mắt 1877
yên_lặng 1877
n.@@ 1874
hoa_@@ 1874
thanh_@@ 1874
thấu 1873
tát 1873
t_@@ 1871
hiv 1871
cầu_thang 1871
hoa_thiên_hồng 1871
thần_công 1866
ấn_độ 1865
28/2 1865
quỷ_vương 1865
tâm_trạng 1864
khoé 1863
lo_sợ 1862
khác_biệt 1861
khai_thác 1861
ro@@ 1861
dâu 1861
mát 1860
điệt 1860
sâu_sắc 1858
do@@ 1858
chìa_khoá 1858
cũng_nên 1857
kiềm_chế 1857
nảy 1856
băn_khoăn 1855
thành_tích 1854
biểu_hiện 1854
mộ_dung_thuỳ 1854
thích_hợp 1853
28 1853
khâu 1853
công_khai 1851
tò_mò 1850
chân_tay 1849
phảng_phất 1849
ha@@ 1848
khoan 1848
mi@@ 1847
3@@ 1846
dương_thu 1845
ví_dụ 1844
trút 1844
sân_khấu 1843
cảm_động 1843
tú 1843
dẫu 1841
lẹ 1841
ho@@ 1840
trái_đất 1840
xấu_hổ 1840
lý_xuân_hoa 1839
thờ 1838
tiêu_dao 1838
công_nghiệp 1837
vật_chất 1837
khôn 1837
trung_bình 1836
thông_thường 1836
sau_cùng 1836
oai 1836
đầu_hàng 1836
khôi 1836
chống_đỡ 1835
giao_dịch 1834
văn_bản 1834
ð@@ 1834
kịch 1834
đắc_ý 1834
27/2 1833
hé 1833
càn 1833
tiếp_cận 1831
de@@ 1831
giục 1831
ngọc_@@ 1830
n_@@ 1829
nhục 1829
lại 1828
khấu 1828
phát_huy 1827
bằng_lòng 1827
rú 1827
minh_@@ 1826
suýt 1826
truyền_thông 1825
phun 1824
liên_tuyết_kiều 1824
tiêu_diệt 1823
gầy 1822
nói_nhỏ 1822
man 1821
soi 1821
trọng_thương 1821
đặng_@@ 1820
khác_nào 1817
thi_hành 1816
thời_kỳ 1816
kịp_thời 1815
đòi_hỏi 1815
hoảng_sợ 1815
bao_vây 1814
chỉ_trích 1813
triển_lãm 1813
bách_lý_băng 1813
nhận_định 1812
với 1812
an@@ 1811
vú 1809
nhã 1809
back 1809
thu_nhập 1808
ga 1808
rắc_rối 1806
xua 1806
thcs 1805
điện_tử 1802
thuở 1802
syria 1800
lo_ngại 1799
300 1796
thủ_tục 1796
địa_điểm 1796
huy 1796
qua_lại 1796
khanh_khách 1795
vận_động 1794
đoạt_hồn_kỳ 1794
thận_trọng 1793
lai 1793
triệu_nhã 1793
nói_dối 1792
xoa 1791
libya 1790
quái_nhân 1788
em_gái 1787
thở_phào 1786
chấm_dứt 1785
vở 1785
chi_bằng 1785
thân_thiết 1784
nóc 1783
ts 1780
17@@ 1780
ngửi 1779
kiệu 1779
thổ 1778
đam_mê 1778
vé 1777
dù_cho 1777
mờ 1776
đích_thân 1776
nghiêm_túc 1775
chứng_khoán 1774
500 1772
nông_dân 1772
đáng_kể 1771
_l@@ 1771
mỹ_nữ 1771
nhạt 1770
bạt 1769
gia_tăng 1768
rối_loạn 1768
hạ_sát 1768
hoa_kỳ 1767
huỷ 1767
lý_viên 1767
hlv 1766
đạo_đức 1766
nút 1766
hảo_hán 1766
xác_nhận 1765
hoảng_hốt 1765
cán 1764
tác_động 1763
bần_đạo 1763
khuất 1761
giảng 1760
thuần 1759
al@@ 1759
nhăn 1759
ngoại_trừ 1757
căng 1756
trường_học 1756
gp 1756
đồ_đệ 1756
hoả 1755
tiết_kiệm 1753
tổ_hợp 1753
tửu 1753
từ_khoá 1752
hình_thành 1751
vó 1750
_c@@ 1749
muối 1748
biểu_tình 1748
chuột 1747
rộng_rãi 1745
trăm_năm 1744
1050 1744
phiến 1743
pa@@ 1742
tố 1741
tươi_cười 1741
80 1739
tranh_cãi 1739
_m@@ 1738
miễn_cưỡng 1737
chuẩn 1736
tích 1736
nghĩ_lại 1735
btttt 1734
nghi_lâm 1734
gõ 1731
nhà_thơ 1730
sát_hại 1730
mu 1728
yên_tĩnh 1728
hông 1727
coi_thường 1727
da@@ 1726
thỉnh 1726
font_unicode_đặt_dân 1726
15-07-2008 1726
sấm 1726
thăng 1724
tính_cách 1724
09@@ 1722
facebook 1722
người_nhà 1722
sv 1721
trâu 1720
thì_thầm 1720
ne@@ 1719
22 1719
giải_trí 1719
ha 1717
thành_ra 1717
trời_đất 1716
cưỡng_chế 1715
mở_miệng 1715
pm 1715
hằng_sơn 1715
văng 1714
tra 1714
nhà_ngươi 1714
bế 1713
quấn 1713
sư_phạm 1713
địch_vân 1713
khủng 1712
ngôn_ngữ 1712
mềm 1711
thi_đấu 1710
thiền_sư 1709
liều 1708
chẳng_hạn 1708
run_rẩy 1708
cử_chỉ 1708
khung 1707
tu@@ 1707
lĩnh 1706
võ_sĩ 1705
thương_hiệu 1704
2@@ 1704
13@@ 1703
tiểu_bạch 1703
tước 1701
đa_tạ 1700
nạp 1699
tr 1699
quạt 1699
thẳm 1698
se@@ 1697
toạ 1697
dời 1696
duy 1696
tử_tế 1695
me@@ 1692
mặt_nạ 1691
cao_minh 1691
người_lớn 1690
dán 1690
đường_phố 1689
mép 1687
sơ_hở 1687
phát_biểu 1686
_b@@ 1686
công_chức 1686
ar@@ 1684
lặng 1684
gmt 1683
khoẻ_mạnh 1682
tre 1681
gạch 1680
+ 1677
dàn 1677
đô_thị 1676
tính_tình 1675
đóng_góp 1674
tổng_số 1672
màu_sắc 1672
rượt 1672
thanh_hoá 1671
la_@@ 1670
cộng_hoà 1670
phàm 1670
tĩnh 1669
trình_diễn 1669
kim_hoa 1669
phán 1669
bão 1668
si@@ 1667
lu@@ 1667
thư_viện 1667
phải_biết 1666
ý_thức 1664
xa_xa 1664
khôi_phục 1661
đông_@@ 1661
thiếu_soái 1660
phương_trượng 1659
liễu_mi 1659
trung_@@ 1658
so@@ 1657
tập_thể 1657
quân_bình 1656
hs 1655
sốt 1655
sn 1654
hy_sinh 1654
ngu 1654
thuý_ái 1654
chai 1653
ngoan 1653
đó 1653
thảm_hoạ 1651
phát_sinh 1651
con_cái 1650
rách 1650
cõi 1650
tạp_chí 1649
bắt_buộc 1649
thúc_bảo 1649
trình_bày 1648
ðột 1648
ăn_nói 1646
sơ 1646
sanh 1645
hài 1644
phiền 1644
uỷ_ban 1643
mười_lăm 1643
địa_chỉ 1643
quí 1643
bội 1643
nhận_thức 1642
miễn_phí 1642
ngả 1642
học_viện 1641
tôn_giáo 1641
rảo 1641
vadim 1641
tam_@@ 1640
quyến_rũ 1639
trịnh 1639
vào_khoảng 1638
bách 1638
hạ_thủ 1638
bắc_@@ 1637
bưu_điện 1637
cảnh_tượng 1637
ngăn_chặn 1636
hình_dung 1636
nhốt 1636
buôn_bán 1635
số_phận 1635
thác 1633
tội_nghiệp 1633
trả_thù 1633
ðây 1633
ưa 1631
lô 1631
bà_con 1631
khí_thế 1631
lò 1630
tôn_quách 1630
bo@@ 1627
năm_ngoái 1627
kg 1627
hiệp_sĩ 1627
phần_mềm 1626
lên_ngôi 1626
nhà_lãnh_đạo 1626
sinh_hoạt 1626
tụ 1626
ong 1625
8/3 1625
khác_thường 1624
kiến_trúc 1623
harry 1623
công_nhận 1622
chức_năng 1622
tự_hào 1621
_s@@ 1621
săn 1621
khép 1619
trạng_thái 1619
cơ_hồ 1619
phắt 1618
đại_biểu 1617
va 1617
châu_á 1616
trầm_trọng 1616
quản_trung_tà 1615
vạch 1614
xưng 1613
xích 1613
truy 1613
ni@@ 1612
tư_thế 1611
tôn_trọng 1611
ướt 1611
lạt_ma 1611
trang_phục 1610
khâm_phục 1610
thắp 1610
ðiền_bá_quang 1610
thắc_mắc 1609
đào_gia_kỳ 1609
ảo 1608
mét 1606
bụng_bảo_dạ 1606
dưỡng 1605
nhào 1605
giới_hạn 1604
ra_chiều 1603
long_@@ 1602
lắc 1602
củi 1602
te@@ 1601
tiến_bộ 1600
cao_lớn 1599
trụ 1598
phong_cách 1598
rung_động 1598
hiểm 1598
đối_xử 1597
tuôn 1597
chelsea 1595
âu_dương_thống 1595
kim_cương 1593
tiêu_@@ 1592
nhấn_mạnh 1591
phổ_biến 1589
thẻ 1589
hoàng_cung 1589
đắt 1588
thép 1588
lùn 1588
chằm_chằm 1587
truyền_hình 1586
vô_hình 1586
công_bằng 1585
bốn_mươi 1584
ban_ngày 1584
nhổ 1584
ngập_ngừng 1584
xung 1583
đột_lợi 1583
bày_tỏ 1582
su@@ 1582
cuộn 1582
20@@ 1581
ra_đời 1580
sở_dĩ 1579
bất_chấp 1578
nấp 1578
_t@@ 1577
giám 1577
tha_thứ 1576
chung_kết 1575
ruộng 1575
thiếu_phụ 1574
thái_@@ 1573
ngẫm_nghĩ 1572
ông_bà 1571
doanh 1571
chân_thành 1570
tình_cảnh 1570
công_dân 1570
lúa 1569
nhậm 1569
nghệ 1568
mặt_mày 1568
cát_tư_hãn 1568
thái_lan 1566
thí 1566
đề_cập 1566
quái_dị 1566
nắp 1565
gào 1565
hiển 1564
dẹp 1563
thương_yêu 1563
lai_lịch 1563
khẩn_trương 1561
thừa_cơ 1561
tức_thì 1559
nhỏ_bé 1558
bồi 1558
chắn 1557
nói_năng 1557
oscar 1556
cảnh_báo 1555
bất_động 1554
điểm_huyệt 1554
w@@ 1553
cao_@@ 1552
tủm_tỉm 1552
ngữ 1551
cạnh_tranh 1550
giây_phút 1549
bể 1549
tiên_lãng 1549
paris 1548
thời_tiết 1547
quan_chức 1546
nhà_văn 1546
đội_ngũ 1544
kê 1544
ầm 1544
xoáy 1543
ngày_đêm 1543
hài_nhi 1543
chốc_lát 1543
vận_chuyển 1541
sơn_la 1541
7879 1541
rùng_mình 1541
mới_đây 1540
liệng 1540
bất_động_sản 1538
ðúng 1537
chiến_trường 1536
nỡ 1536
vút 1534
thận 1532
lê_@@ 1532
chúng_nó 1532
truyền_thụ 1532
be@@ 1531
mãi_mãi 1531
nhúc_nhích 1531
để 1529
xem_chừng 1529
mười_tám 1529
no 1528
công_@@ 1528
hoảng 1528
đạo_huyền 1528
hồ_đồ 1527
dinh_dưỡng 1526
buồng 1526
quê_hương 1526
23 1524
27 1523
cải_thiện 1523
nguyện 1523
bó 1523
tí 1523
trang_bị 1522
đếm 1519
rộng_lớn 1518
phù 1517
hồ_chí_minh 1516
lịch 1516
ốm 1516
cất_bước 1516
lưu_ý 1515
pháo 1515
thong_thả 1515
sáng_rực 1515
la_sát 1515
chép 1514
ập 1512
ồn_ào 1512
kỹ_năng 1511
bộ_mặt 1511
nhắc_nhở 1509
cười_cười 1509
hầu_hi_bạch 1509
cảnh_giác 1508
0 1508
sứ_giả 1508
hung_thủ 1508
thời_đại 1507
năm_mươi 1507
uy_hiếp 1507
kim_bình_nhi 1507
kinh_tuấn 1507
phượng 1506
xe_ngựa 1506
móng 1505
tạm_biệt 1505
tẩu 1505
triệu_@@ 1504
ngoảnh 1504
tưởng_chừng 1503
khiêng 1502
hỗn_loạn 1502
phiên_bản 1501
chu_cơ 1500
mô_hình 1499
nghị_quyết 1499
chà 1499
giải_phóng 1498
nến 1498
nấy 1498
nhà_hàng 1497
thời_khắc 1497
nguyễn_thị@@ 1496
tạ_huyền 1496
lâm_hồng 1495
trung_thành 1493
toàn_cầu 1492
hàm 1492
bích 1492
bột 1491
lường 1489
cỡ 1488
israel 1488
đau_lòng 1485
_th@@ 1485
giấc_ngủ 1483
hổng 1481
lâm_kinh_vũ 1480
chưa_thể 1478
lộc 1478
trung_niên 1478
dở 1478
đẻ 1477
hòng 1477
bài_học 1475
độc_lập 1474
chu_@@ 1474
sophie 1474
+7 1473
chộp 1473
hú 1473
tâm_trí 1472
thanh_toán 1471
nhắn 1471
sea_games 1471
khiếu 1470
điệu 1469
bình_thản 1469
vua_khang_hy 1469
đối_đầu 1468
đt 1467
nam_nữ 1467
19@@ 1465
rùa 1465
hành_tinh 1465
tơ 1464
gs 1464
úc 1463
đại_vương 1463
phát_động 1462
nhai 1462
khoái 1462
ổng 1461
thư_sinh 1461
nguyễn_văn_@@ 1459
trí_tuệ 1459
đại_thần 1459
lông_mày 1458
một_mặt 1458
nhưng_mà 1458
tiêu_dùng 1456
vĩ_đại 1456
khom 1456
thực_lực 1456
gia_nhập 1454
độc_đáo 1454
huy_động 1452
thúc_đẩy 1452
thổ_ti 1452
thà 1451
khen_ngợi 1450
đến 1450
trượt 1449
vụn 1449
ðó 1449
sập 1448
chủ_trương 1448
men 1448
vòng_tay 1448
luật_sư 1447
ti 1446
thuỷ_thủ 1444
phản_kích 1444
dấu_vết 1443
nhọn 1443
vô_ích 1443
alexandra 1443
trái_lại 1442
trọn 1441
nhận_lời 1441
mã_đề 1441
gian_lận 1440
quy_mô 1440
căn_hộ 1439
chúc_mừng 1439
thiên_nhiên 1438
danh_tiếng 1438
đắp 1438
danh_hiệu 1437
luyện_tập 1436
tuyệt_vọng 1436
hi_vọng 1435
thuận_lợi 1434
ninh 1434
vô_vi 1433
ki@@ 1432
đảng_viên 1432
thủng 1432
sống_chết 1432
hoàng_hậu 1430
11@@ 1430
tiền_bạc 1430
kiêm 1429
trướng 1429
gươm 1429
phách 1429
khơi 1428
đấu_tranh 1428
hồi_hộp 1428
m_@@ 1427
phản_ánh 1427
hốt_hoảng 1427
le 1426
chân_dung 1426
đấm 1426
đôn_kihôtê 1425
italia 1424
tấc 1422
tự_động 1421
tín 1421
cổ_phiếu 1420
quảng_trường 1420
ngất 1420
khí_giới 1420
âm_thầm 1419
ven 1419
ga@@ 1419
yếu_ớt 1418
đạo_sĩ 1417
nhân_@@ 1416
cổ_quái 1416
tranh_chấp 1414
chen 1414
trinh 1413
phần_nào 1413
rủ 1413
phấn 1413
tỉnh_táo 1412
24/2 1411
ở 1411
diễn_biến 1410
tự_chủ 1410
mâu_thuẫn 1410
binh_sĩ 1409
thu_thập 1408
lịch_sự 1408
khổng_minh 1408
cổ_phần 1407
tiêu_biểu 1407
mơ_hồ 1407
đại_hội 1406
điều_hành 1406
thoả_mãn 1406
thoá_mạ 1405
uổng 1404
thưởng_thức 1403
còi 1403
gỡ 1402
một_ít 1402
ghép 1402
khẩn_cấp 1401
cao_cấp 1401
hãn 1401
thịnh 1399
huấn_luyện 1399
cô_đơn 1398
con_nhỏ 1397
chê 1397
oan 1397
no@@ 1396
mỏ 1396
mặt_nước 1396
thảm_khốc 1396
oán 1396
gieo 1395
phiếu 1392
ngọt_ngào 1392
ðiền_ðan 1392
tào_tháo 1391
tâm_tình 1390
en 1389
tại_chỗ 1389
vương_quốc 1388
sống_sót 1387
ráng 1386
khổ_sở 1385
tiêu_tiêu 1384
nhẫn 1383
tuyệt_diệu 1382
giải_cứu 1381
giáng 1380
pv 1379
kênh 1379
bùng 1379
dễ_chịu 1379
thầy_giáo 1378
nhè_nhẹ 1377
góp 1375
ngọt 1375
bất_thường 1374
gia_@@ 1374
thần_thái 1374
chỉ_điểm 1374
quý_vị 1374
dẫn_đầu 1372
en@@ 1371
cao_điểm 1370
ô@@ 1370
trừ_phi 1370
sáo 1370
xuất_phát 1369
theo_đuổi 1369
vận_dụng 1369
phú 1368
ao 1368
loan 1368
diện_tích 1367
chủ_đề 1367
trước_sau 1367
sang_trọng 1366
z@@ 1366
lặn 1366
mồi 1366
voi 1365
rèm 1365
y_như 1365
hạ_lệnh 1365
út 1364
phật_giáo 1364
sực 1364
khớp 1362
gần_gũi 1362
tràn_đầy 1362
nghị 1361
chặt_chẽ 1361
xiết 1361
đất_đai 1360
ổ 1360
obama 1359
xót_xa 1359
ấp 1358
nửa_đêm 1358
tri 1357
rước 1357
chuyên_môn 1357
bất_chợt 1357
buồn_cười 1357
rét 1354
võ_nghệ 1354
trịnh_@@ 1353
xu_hướng 1352
uyên 1352
vũ@@ 1351
can 1351
độc_giả 1350
sự_cố 1350
đồng_tiền 1349
mô 1349
kề 1349
run_run 1349
trầm_lạc_nhạn 1349
khoác 1348
hà@@ 1346
ai_ai 1346
sức_lực 1346
thầy_trò 1346
trác 1346
bu@@ 1345
28@@ 1344
hồi_phục 1344
cảnh_giới 1344
hương_chủ 1344
kiên_quyết 1343
giàu_có 1342
mất_tích 1342
thăm_dò 1341
eo 1341
buồm 1341
thảo_luận 1340
biểu_tượng 1340
tiếp_nhận 1340
tôn_ân 1340
tàn_nhẫn 1339
phiệt 1339
cứu_mạng 1338
quế 1338
thể 1338
ít_ra 1338
uy_lực 1338
ka@@ 1337
thẩm 1337
son 1335
vầng 1335
bảo_ngọc 1335
lương_thực 1334
quỉ 1334
phương_án 1333
35 1333
cam 1333
tê 1333
lâu_dài 1332
po@@ 1332
thuỷ_chung 1332
bi@@ 1331
23@@ 1331
dịu 1331
vĩnh 1331
độc_ác 1331
văn_học 1330
gọn 1330
khuyến_khích 1329
bi 1329
chu_đáo 1329
khâu_tiểu_san 1329
45 1328
hà_tĩnh 1328
đại_sứ 1328
đắc_tội 1328
công_viên 1327
cự 1327
ngâm 1326
bẫy 1326
hố 1326
khánh 1325
vui_lòng 1325
hoàn_huyền 1325
chấp 1324
ma_tuý 1324
cao_đẳng 1323
chiến_sĩ 1323
dương_hư_ngạn 1323
tài_xế 1322
tuy_vậy 1322
mầm_non 1320
bóp 1319
khủng_bố 1318
mu@@ 1317
thiên_địa 1317
đài_loan 1316
of 1316
ra_sức 1316
phạm_vi 1315
tương_đương 1315
kích_thích 1314
bấm 1313
buồn_rầu 1313
thạch_thất 1312
thoát_thân 1312
đỗ_phục_uy 1312
tôlic 1312
hớn_hở 1311
tạ_nam 1311
phụng_phi 1311
km 1309
ngưỡng_mộ 1308
đỏ_bừng 1308
trò_chơi 1307
tướng_mạo 1307
hứng 1306
chùm 1306
tiêu_chuẩn 1305
đoá 1304
hào_kiệt 1304
tương_đối 1303
hôn_nhân 1303
7841 1303
ngoại_ngữ 1303
iphone 1301
ngoan_ngoãn 1301
hết_lòng 1301
tả_hữu 1300
nhún_vai 1300
quyên_nhi 1300
đuốc 1299
kiệt 1298
phước 1298
kh 1298
hẹp 1298
va@@ 1297
tuần_lễ 1297
u_@@ 1296
cung_nữ 1296
thẹn 1296
arsenal 1295
cải_cách 1294
bì 1294
dặn_dò 1294
thềm 1293
tôm 1293
nguyện_vọng 1293
tro 1293
kiều 1293
bắt_tay 1292
chuỗi 1292
cọp 1292
nốt 1291
kín_đáo 1291
kịch_liệt 1291
thấp_thoáng 1291
quì 1291
lý_tưởng 1290
liều_mạng 1290
đốc 1290
tăng_trưởng 1289
lo_âu 1289
ngộ 1288
rèn_luyện 1288
về 1288
real_madrid 1287
sững 1287
góp_phần 1286
thứ_sáu 1286
hoá_giải 1286
thương_tâm 1286
thần_kỳ 1285
phòng_thủ 1285
đặc 1284
70 1284
ng.@@ 1283
google 1283
tên_tuổi 1282
buột_miệng 1282
hàng_hoá 1281
sắc_bén 1281
vệ_sinh 1280
quốc_@@ 1280
nóng_nảy 1280
cản_trở 1280
động_tĩnh 1279
xuất_khẩu 1278
dễ_thương 1278
nín 1278
in@@ 1276
thách_thức 1276
bé_nhỏ 1276
mai_phục 1276
triệu_minh 1276
gáy 1275
24@@ 1274
cổ_họng 1274
ngày_trước 1273
lảo_đảo 1273
nghĩa_phụ 1273
kỹ_sư 1272
tiểu_thuyết 1272
hỏi_thăm 1272
sạch_sẽ 1272
trừng 1271
vuông 1270
mênh_mông 1270
trưởng_thành 1269
lột 1269
phương_@@ 1269
trú 1268
trọ 1268
mềm_mại 1267
london 1266
nói_chung 1265
miêu 1265
bần_tăng 1265
triệu_mẫn 1265
34 1264
qu@@ 1264
liêu 1264
thất_kinh 1264
tống_khuyết 1264
bản_đồ 1263
bùi_@@ 1263
đa_số 1263
thiết_@@ 1263
quách 1262
ky 1262
bình_yên 1262
mộ_dung 1262
go@@ 1261
cố_tình 1261
thiên_phong 1261
đổi_mới 1260
thuốc_lá 1260
sáng_mai 1260
tràn_ngập 1259
cong 1258
da_thịt 1258
thác_bạt_khuê 1258
ngập 1257
xuất_thân 1257
tối_đa 1255
i_@@ 1255
mất_mạng 1255
milan 1255
phỏng_vấn 1254
cảng 1254
hay_biết 1254
7871 1254
04 1254
kỷ_lục 1253
bỏng 1253
nhỏ_tuổi 1252
nhét 1252
25@@ 1251
tang 1251
ph 1250
vào 1250
mãnh 1250
môn_hạ 1250
chủ_nhiệm 1249
xuân_@@ 1249
thắt 1248
ðiền 1248
xoá 1247
năng 1247
xa_lạ 1247
thuyết 1246
new_york 1245
gray 1245
bảo_@@ 1244
chói 1244
jong-il 1244
mai_@@ 1243
toán_học 1243
t.@@ 1242
er@@ 1242
nhẫn_nại 1242
vô_lễ 1242
phương_thức 1241
ma_@@ 1241
thiên_thần 1241
hành_sự 1241
cam_kết 1240
giang_nam 1240
trực 1239
đại_lý 1239
rác 1239
đại_tá 1239
con_cháu 1239
tên_lửa 1238
trì 1237
tục 1236
kem 1236
lách 1235
linh_hồn 1235
phải 1235
tây_@@ 1235
đạo_diễn 1235
ị 1235
nhà_cửa 1234
tinh_tú 1234
ra_mặt 1233
toàn_diện 1232
hái 1232
bất_kể 1231
búa 1231
show 1230
chổ 1230
biệt 1229
kỷ_luật 1229
́t 1228
trung_hoa 1228
cài 1227
sự_tình 1227
sai_phạm 1226
me 1225
kỳ_diệu 1225
thái_bình 1225
rụng 1224
không_lẽ 1224
vùng_đất 1223
hiến 1223
tít 1223
trải_nghiệm 1222
nguyên_tắc 1221
ban_đêm 1220
thần_@@ 1220
nhảy_vọt 1220
sót 1219
tịnh 1219
tôn_bất_tà 1219
cẩu 1218
toàn_cảnh 1218
dò 1217
thê_thảm 1217
bất_hạnh 1216
tố_cáo 1215
tác 1214
bùn 1214
khủng_hoảng 1213
san 1213
nhà_đầu_tư 1212
phùng 1212
uy_tín 1212
virus 1212
đường_hầm 1211
cáo 1210
gấu 1210
buốt 1210
ngói 1209
căn_bệnh 1208
phục_hồi 1207
c. 1207
oacute 1207
chuyên_nghiệp 1206
mồ_côi 1206
thái_sư 1206
chán_nản 1205
nóng_bỏng 1205
tô@@ 1204
xu 1204
tắc 1204
mập 1204
thoả_thuận 1203
túm 1203
bức_bách 1203
bằng_chứng 1202
lễ_hội 1202
29 1202
đích_thực 1202
1@@ 1201
sát_khí 1201
lôi_cửu_chỉ 1201
du_khách 1200
bắt_giữ 1200
doạ 1200
vương_tử 1200
tiểu_trừng 1200
bỏ_rơi 1199
trật_tự 1197
phát_hành 1196
kết_hôn 1196
lê 1196
kiến_khang 1196
bar 1195
khéo_léo 1195
phi_thân 1195
trị_giá 1194
vào_cuộc 1194
dày_đặc 1194
vái 1194
đại_quân 1194
quy_chế 1193
ngữ_văn 1193
mã_số 1193
_đ@@ 1193
kiếm_thuật 1193
se 1192
y_@@ 1191
thương_lượng 1191
ảnh_@@ 1191
giai_nhân 1191
trương_thuý_sơn 1191
lâm_@@ 1189
hoàng_tử 1189
gas 1188
những_ai 1187
nhẹ_nhõm 1187
whitney_houston 1187
long_dương 1187
lộn 1186
đồng_nghiệp 1185
hải_@@ 1184
thối 1184
ghi_nhận 1183
nướng 1183
pi@@ 1183
li 1182
thấm 1182
thụ 1182
làm 1182
dũng_cảm 1182
lẳng_lặng 1182
_d@@ 1181
peter 1181
đạo_lý 1181
bạo_lực 1180
huống_hồ 1180
đêm_tối 1180
chi@@ 1179
khiếp_sợ 1179
thất_thanh 1179
ðồng 1179
điếu 1178
bẩn 1178
đo 1177
giảng_dạy 1177
vận_khí 1177
trác_cuồng_sinh 1177
suất 1176
động_cơ 1176
lẽ_ra 1176
tung_sơn 1176
cơ_chế 1175
ưu_tiên 1175
ecirc 1175
tấu 1174
mệnh_lệnh 1174
thê_lương 1174
te 1173
giới_tính 1173
tự_tử 1173
7889 1173
lớp_học 1172
cuồn_cuộn 1172
hội_thảo 1171
bức_xúc 1171
ca_khúc 1171
kỳ_dao 1171
nhì 1170
nhiệt_độ 1170
thình_lình 1170
ngọc_nghiên 1170
lấp 1169
hành_hạ 1169
hàng_xóm 1169
trầm_mặc 1169
hầu_hy_bạch 1169
_ch@@ 1167
cấp_cứu 1167
bấy_nhiêu 1167
tụ_tập 1166
đột_quyết 1166
giảng_viên 1165
vặn 1165
cuồng 1165
tây_ban_nha 1164
quốc_phòng 1164
tình_nguyện 1164
xấu_xa 1163
quản_gia 1163
o_@@ 1162
thuyên 1162
lưỡng 1162
đại_sự 1161
ấp_úng 1161
xe_hơi 1160
anh_chị 1160
sinh_nhật 1160
các 1160
khả_đạt_chí 1160
22/2 1159
bộ_dạng 1159
hàm_dương 1158
đạo_tử 1158
xôn_xao 1157
bởi_vậy 1157
ai_cập 1157
cứ_việc 1157
36 1156
ước_mơ 1156
lòng_dạ 1156
len 1155
nếm 1155
tham_nhũng 1155
tổng_hợp 1154
khảo_sát 1154
nhậm_ngã_hành 1154
áo_quần 1153
coi_trọng 1152
chậm_chạp 1152
động_viên 1152
n_t@@ 1152
nói 1152
nheo 1152
nâu 1151
nguồn_gốc 1149
lý@@ 1149
tranh_thủ 1149
rực 1149
21/2 1149
m2 1148
người_mẫu 1148
tý 1148
tình_cờ 1147
ối 1147
sánh 1146
nhân_nghĩa 1146
mâu 1146
áo_dài 1146
lục_@@ 1146
xoay_chuyển 1146
thâm_hậu 1146
ðến 1146
hì_hì 1145
âu_dương_phong 1145
liên_kết 1144
bẻ 1144
thuý 1143
ham 1142
hổ_thẹn 1142
hành_tung 1142
đặt_chân 1141
ko@@ 1141
toà_án 1141
ghê 1141
kính_trọng 1140
simon 1139
bình_@@ 1139
cũng 1139
i.@@ 1138
chế_tạo 1138
coi_chừng 1138
trảo 1138
tập_kích 1138
thêu 1138
cầm_thanh 1138
trịnh_khắc_sảng 1138
trực_tuyến 1137
thẳng_thắn 1137
hạn 1136
câm 1136
mc 1135
đề_tài 1135
kể_ra 1135
du@@ 1134
biên 1134
chăm 1134
càn_khôn 1134
đỗ_thiên_ngạc 1134
xâm_nhập 1133
bàn_bạc 1133
đích 1133
tô_như 1133
thầy_cô 1132
thân_mật 1131
thằng_cha 1131
ban_hành 1130
né 1130
phong_trào 1130
hô_hấp 1130
phận 1130
hâm_mộ 1129
đột_biến 1129
tia_sáng 1129
chỉ_thị 1129
vạt 1128
ðược 1128
chậu 1127
hồng_@@ 1127
chuồng 1127
chủ_trì 1126
nhà_báo 1126
rạp 1125
chủ_ý 1125
chốc 1125
xưởng 1124
trơ 1123
bực_mình 1123
toàn_thể 1123
cơ_quan_chức_năng 1121
my 1121
20/2 1121
miễn 1120
thắng_lợi 1120
xi@@ 1120
khuê 1120
gả 1120
myszka 1120
hu@@ 1119
bỗng_dưng 1119
mỡ 1119
nhủ 1118
công_lập 1118
z 1117
chiến_dịch 1116
t-@@ 1116
lờ_mờ 1116
chuồn 1115
chắc_hẳn 1114
đầu_gối 1114
thiệu 1114
ces 1114
tay_mặt 1114
teen 1112
đầu 1112
kìm 1112
kinh_khủng 1112
lâu_nay 1111
bà_già 1111
hoan_hô 1111
32 1110
sảnh_đường 1110
mò 1109
vô_dụng 1109
gởi 1109
ðoạn 1109
điên_cuồng 1108
clb 1108
quỳnh 1108
đê 1108
kỵ_binh 1108
truỷ 1108
thuý_sơn 1108
bất_lợi 1107
u23 1107
phấn_khởi 1107
bất_lực 1107
vào_vai 1107
lợi_nhuận 1106
gõ_cửa 1106
gadhafi 1106
kì 1105
bao_trùm 1105
quy_hoạch 1105
hành_chính 1105
xa_xôi 1105
mộ_dung_chiến 1105
chu_chỉ_nhược 1105
ngụm 1104
ngân_sách 1103
khởi 1103
quầy 1103
kích_động 1103
tuyệt_kỹ 1103
sôi 1102
cao_nhân 1102
uý 1102
hải_quân 1101
400 1101
chung_cư 1101
nude 1101
quái_vật 1101
nghiêm_nghị 1101
de 1100
nồi 1099
ầm_ầm 1099
dược_vương 1099
lãi_suất 1098
tin_đồn 1098
nghẹn_ngào 1098
danh_dự 1097
trợ_giúp 1096
xét_nghiệm 1096
định_thần 1096
hoàng_hôn 1096
bét 1096
đinh_@@ 1095
đục 1095
bận_rộn 1095
sâm 1095
ii 1094
sen 1094
đâu_đó 1094
barcelona 1094
si 1094
lồng 1094
đầu_ra 1093
đau_đầu 1092
công_kích 1092
vietnam 1091
vợ_con 1091
chức_vụ 1091
sân_bay 1091
33 1091
sĩ_quan 1091
chính_đạo 1091
dương_châu 1091
07@@ 1090
vén 1090
gai 1090
mỗi_một 1090
quăng 1090
mao_thập_bát 1090
châu_@@ 1089
anh_@@ 1089
dự_đoán 1088
đồng 1088
làm_vậy 1088
tả_lãnh_thiền 1088
giấy_tờ 1087
hùng_vương 1087
đông_đảo 1087
cân_nhắc 1086
cu 1086
chìa 1086
lượm 1086
đón_tiếp 1085
quan_niệm 1085
lãng_mạn 1085
lão_thân 1085
điền_linh_nhi 1085
bắt_gặp 1084
bừa 1083
chinh_phục 1083
hiên 1083
ru@@ 1082
hình_sự 1082
linh_@@ 1082
xe_đạp 1081
tú_tú 1081
cô_dâu 1080
bí_thư 1079
thạch_thanh_tuyền 1079
mớ 1078
cư_dân 1078
thảo_nguyên 1078
động_đậy 1077
biệt_thự 1076
tống_@@ 1076
tiểu_bàn 1076
dải 1075
nghịch 1074
ít_nhiều 1074
gằn 1074
_tr@@ 1073
bình_luận 1073
ngắn_ngủi 1073
bóng_dáng 1073
xuống_nước 1073
trọng_đại 1073
ký_ức 1073
thuốc_độc 1073
sắp_đặt 1073
thư_phòng 1073
tam_lại_tử 1073
90 1072
t. 1072
đại_chiến 1072
mà 1071
người_bệnh 1070
do_vậy 1070
fan 1070
bồng 1070
cõng 1070
can_đảm 1069
thái_dương 1069
lương_@@ 1068
cấu_trúc 1068
tín_hiệu 1068
mảng 1068
ý_chí 1067
hoa_hậu 1067
hình_dáng 1067
dã 1067
thâu 1067
bộ_đội 1067
đậm 1064
singapore 1063
chân_chính 1063
dâm 1063
khoan_khoái 1063
quản_trị 1062
hành_khách 1062
cục_diện 1062
đồ_chơi 1061
loạng_choạng 1061
dương_tiêu 1061
linh_hoạt 1060
niên 1060
nông 1059
q@@ 1059
194 1059
biết_điều 1058
mặt_khác 1058
vong 1058
tuỳ_tiện 1058
bộ_lạc 1058
dự_định 1057
nhức 1056
buông_tha 1056
xăng_dầu 1055
triệu_chứng 1055
xung_đột 1055
sẻ 1054
từ_bỏ 1054
lật_đật 1054
tổng_giám_đốc 1053
29@@ 1053
tính_chất 1053
xuất_bản 1053
27@@ 1052
cưu_ma_trí 1052
nghề_nghiệp 1051
rống 1051
26@@ 1050
tranh_luận 1050
sầu 1050
bầu_không_khí 1050
sưu_tập 1050
ngẫu_nhiên 1049
hạc 1049
chân_@@ 1049
biết 1049
lẻn 1049
hương_ngọc_sơn 1049
doanh_nhân 1048
ngu_ngốc 1048
âm_@@ 1048
vò 1048
say_mê 1047
nếp 1047
dị_thường 1047
học_phí 1047
vô_danh 1047
giáng_sinh 1046
khiếp 1046
mau_chóng 1046
nổi_dậy 1046
việt_@@ 1045
taxi 1045
giờ_phút 1045
kết_nối 1043
nông_nghiệp 1042
bí_quyết 1042
vietnamnet 1042
tags@@ 1042
khe_khẽ 1042
lời_lẽ 1041
tài_trí 1041
tu_hành 1040
ơ 1040
động_tâm 1040
tế_bào 1039
phan_@@ 1039
đồ_đạc 1039
sương_mù 1039
mạn 1038
mừng_thầm 1038
huyền_ðức 1038
trừng_phạt 1037
gd-đt 1037
nhô 1037
cao_tăng 1037
nghiêm_khắc 1036
̀ 1036
lang_thang 1036
bắt_cóc 1036
điều_động 1034
khố 1034
tiền_lương 1033
nổi_danh 1033
an_long 1033
tống_đại_nhân 1033
tội_phạm 1032
địch_thủ 1032
hưng_phấn 1032
nhánh 1032
cao_hứng 1032
chọc 1031
thiên_thiên 1031
j@@ 1030
tư_duy 1030
cằm 1030
kinh_@@ 1030
xạ 1030
sa_mạc 1030
16/2 1030
nghênh 1030
dứt_khoát 1029
hi@@ 1028
ngục 1028
phổ_thông 1027
này 1027
phản_bội 1027
nhất_@@ 1027
thanh_thành 1027
rạng_rỡ 1026
chậm_trễ 1026
lơ_lửng 1026
cross 1026
cu@@ 1025
văn_minh 1025
200,000 1025
hiệt_lợi 1025
tuyệt_thế 1025
dữ_liệu 1024
windows 1024
buôn 1024
hà_tất 1024
thời_cơ 1023
hấp_tấp 1023
kia_mà 1023
hoàng_gia 1022
nho 1022
email 1022
gắn_bó 1022
bảo_tàng 1022
tội_lỗi 1022
nam_tử 1022
luân 1021
dân_chủ 1020
quyên 1020
cháo 1020
điện_ảnh 1020
100,000 1020
30@@ 1019
ke@@ 1019
tham_quan 1019
vui_sướng 1019
2009 1018
ài 1018
xấu_xí 1017
tịch 1017
mặc_dầu 1017
26/2 1017
thành_tựu 1016
suýt_nữa 1016
mốt 1016
thắng_bại 1015
bản_chất 1014
on 1014
điệp 1014
hôn_mê 1014
mẫn 1014
triệu_chi 1014
hôi 1013
thích_khách 1012
kinh_điển 1012
paul 1011
nhung 1011
sáng_suốt 1010
tai_hoạ 1010
sét 1010
búng 1010
đắc 1009
ta_đây 1009
as 1008
đồng_bào 1008
tống_bi_phong 1008
trang_trí 1007
mồng 1007
n_th@@ 1007
thực_hư 1007
nho_nhỏ 1007
tối_cao 1006
vân_@@ 1006
pháp_bảo 1005
phương_hướng 1004
tuổi_trẻ 1003
làm_phiền 1003
thần_kinh 1003
quân_sĩ 1003
vũ_văn 1003
sa_thải 1002
phòng_bị 1002
tránh_né 1002
thống_kê 1001
heo 1001
tập_luyện 1001
ám_ảnh 1001
bậy 1001
0@@ 1000
táo 1000
nhạc_sĩ 1000
bồ 1000
f 999
nhan_sắc 999
trạch 999
náo_nhiệt 999
hiện_diện 998
ăn_mày 998
phạm_tội 997
thống_lĩnh 997
hầu_hạ 997
ngửng 997
khắc_phục 996
choàng 996
ờ 996
nông_thôn 995
nảy_sinh 995
khoa_học_tự_nhiên 995
tiền_tệ 994
rõ_rệt 994
tình_báo 994
kiên_nhẫn 993
quân_tử 993
đồ_ăn 992
minh_hoạ 992
ông_@@ 992
lấp_loáng 992
tư_nhân 991
trễ 991
vòng_quanh 991
hứa_sĩ_công 991
ðã 990
stevie 990
công_lao 989
nhiệt_tình 989
hưởng_ứng 988
mô_tô 988
adam 988
rối 986
một_tí 985
n-@@ 984
ngư 984
ốc 984
thủng_thẳng 983
hào_quang 983
23/2 983
chẳng_mấy_chốc 982
tánh 982
ng_@@ 980
giám_thị 979
công_văn 979
he@@ 978
phổi 978
bàn_chân 978
hiếu_kỳ 978
doanh_trại 978
gấm 978
thử_thách 977
mâm 977
7843 977
viện_trợ 977
vác 977
trúng_tuyển 977
đối_địch 977
ce@@ 976
tâm_linh 976
bè 975
kẻo 975
xe_tải 975
vương_phủ 975
gmt7@@ 975
trang_điểm 974
tuyên 973
phiêu 972
thấy 972
mạo 972
xảo 972
tĩnh_chi 972
s_@@ 971
long_lanh 971
rên 971
phơi 970
oà 970
ni_cô 970
ta 970
nhựa 969
kẹp 969
rảnh 969
hẻm 969
kệ 968
gu@@ 968
bình_nguyên 968
150 967
tiếng_tăm 967
khúc_khích 967
tự_sát 966
ải 966
tối_qua 966
mặt_trăng 965
quan_@@ 965
chống_cự 965
trần_cận_nam 965
mốc 964
mã@@ 964
cấp_bách 964
cần_thơ 964
kẹo 963
nhấn 963
dinh 963
ocirc 963
đãi 963
vittoria 963
giống_hệt 962
qua_@@ 962
khương 962
tống_kha 962
nam_giới 961
đẩy_mạnh 960
phong_phú 960
thành_phần 960
rưỡi 960
đúc 960
thế 960
tốp 960
nữ_hoàng 960
ðoàn 960
đôi_chút 959
quất 959
tin_cậy 958
vùi 958
say_sưa 958
hoàn_thiện 957
thư_ký 957
bực_bội 957
lãi 956
trọc 956
kháng_cự 956
chân_trời 956
kiến_nghị 955
đẹp_đẽ 955
rúng_động 955
tụt 954
dồn_dập 954
cảnh_cáo 954
kíp 954
đoan 954
pe@@ 953
công_cụ 953
em_trai 953
đàm 953
mar@@ 952
phi_cơ 952
biến_cố 952
thây 952
katherine 952
,@@ 951
08@@ 951
quyền_lợi 951
bất_đắc_dĩ 951
làm_nên 951
huyền_thoại 949
hân 949
thứ_trưởng 948
tra@@ 948
động_vật 948
sự 948
trụ_sở 947
quyết_liệt 947
vòng_tròn 947
hàng_rào 947
vận_tải 946
mô_tả 946
tuyển_dụng 946
giữ_gìn 946
lựa 946
thanh_danh 946
khoát 946
văn_đế_đế 946
yên_@@ 945
vịt 945
ghi_nhớ 945
kẹt 945
thể_nào 945
trung_nguyệt 945
thầy_thuốc 944
trung_học 944
thì 944
để_tâm 944
ngao_bái 944
tiêu_cực 943
nội_bộ 943
thiêu 943
đào_tẩu 943
bái_kiến 943
dục 942
cây_cối 942
ích 942
bao_phủ 942
võ_đương 942
sinh_sống 941
vật_lý 941
vòm 941
7901 941
gi 941
ci@@ 940
31 940
thông_cảm 940
vòng_vây 940
thiệt_mạng 939
ghen 939
xuôi 939
quảng 938
phủ_nhận 938
dự_trữ 938
sướng 938
ca_nhạc 938
thần_tình 938
lào 937
khốn_khổ 937
hân_hoan 937
cắp 937
chát 937
đình_chỉ 936
trọng_tài 936
bàn_tán 935
càng_ngày_càng 935
thần_tiên 935
tối_thiểu 934
đồng_loạt 934
bình_an 934
lâu_đài 934
tung_tích 934
tự_xưng 934
trúng_độc 934
ewa 934
n @@ 933
thủ_lĩnh 933
25/2 933
ðào 933
song_song 932
que 932
đáng_lẽ 932
bắt_chước 932
cộng_sản 932
chèo 931
kẽ 931
tiêu_nguyệt_ðàm 931
hạ@@ 930
anh_tuấn 930
sốt_ruột 930
vũ_văn_hoá_cập 930
_v@@ 929
01 928
thử_nghiệm 928
sói 928
hàm_răng 928
phấn_chấn 928
got_talent 928
khốn 928
lay_động 927
tuyên_truyền 926
nhìn_nhận 926
lý_tịnh 926
con_mẹ 925
xả 925
oanh 925
truyền_thuyết 925
anh_kiệt 925
canh_gác 925
cút 925
ðổng 925
cưng 924
ăn_cắp 924
nương_nương 924
chư_vị 924
vô_lượng 924
củ 923
cân_bằng 923
khải 923
đánh_bạc 923
điêu 923
hứa_hẹn 922
ám_sát 922
vân_nam 922
joanne 922
vịnh 921
53 921
quang_minh 921
dội 921
mua_sắm 920
tồi_tệ 920
bôi 920
phương_diện 920
tiễn_biệt 920
55 919
xếp_hạng 919
năn_nỉ 919
vân_ngọc_chân 919
đối_thoại 918
xét_xử 918
thân_thiện 918
màng 917
tập_trận 917
lừa_gạt 917
dõi 916
cải 915
giúp_việc 915
mẩu 915
hộ_pháp 915
kiêu_ngạo 914
bệnh_tật 913
hung_dữ 913
thất_@@ 912
tai_mắt 912
thánh_thượng 912
rủi_ro 911
car@@ 911
ngày_tháng 911
thi_tuyển 910
trân_ân 910
the 909
tống_ngọc_trí 909
2008 908
ng-@@ 908
qui 908
vô_tận 908
xéo 908
bình_dương 906
công_chúng 906
động_lòng 906
hộ_tống 906
lưu_lao_chi 906
nhân_lực 905
lỏi 905
tăng_thư_thư 905
đào_như_hải 905
acirc 904
hoàn_tất 903
dụng_cụ 903
thiệt_hại 903
ngọc_nữ 903
hiện_trường 903
bản_quyền 903
dò_xét 903
tào 903
xuất_gia 903
đức_@@ 902
lượn 902
chu_triệu_long 902
thủ_phạm 901
37 901
hắc_@@ 901
bảo_kiếm 901
lược 900
áo_khoác 900
địa_ngục 899
gợi 899
diêm 899
trung_phụng 899
lây 898
38 897
phụ_thuộc 897
quảng_nam 897
ng_t@@ 897
đâm_ra 897
chiến_thuyền 897
thích_phương 897
cha@@ 896
min 896
tuột 896
sững_sờ 896
ủa 896
trái_cây 895
phá_huỷ 895
từ_biệt 895
nằm_xuống 895
cúm 895
đũa 895
nói_thẳng 895
dự_thảo 894
c-@@ 894
nhất_thiết 894
chỉ 894
khách_quan 894
quả_quyết 894
sửa_đổi 893
chữa_trị 893
tình_nhân 893
lý_tuân 893
đạo_hạnh 893
thống_trị 892
quang_@@ 892
thoa 892
học_hành 892
gia_sư 892
quan_trung 892
phương_di 892
thông_điệp 891
trang_trại 891
truyện_ngắn 891
thiện_nhu 891
khởi_tố 890
washington 890
sẽ 890
một_triệu 890
sư_tử 890
rể 890
khách_sáo 890
khách_khí 890
cửu_@@ 889
lớn_lao 889
417 889
chống_đối 889
xantrô 889
quân_@@ 888
hn 888
một_hai 888
tổ_sư 888
mục_trường 888
hàn_sấm 888
bàng_hoàng 887
ngoại_trưởng 887
lăm 887
hồng_thất 887
thời_hạn 886
khiêm_tốn 886
lớn_tuổi 886
khả 886
giao_lưu 886
sụp_đổ 885
đắm 885
lý_nguyên_cát 885
côxchia 885
giản_dị 884
tanh 884
7875 884
trắng_bệch 884
tbn 884
tha@@ 883
lừa_đảo 883
ngây_thơ 883
ðừng 883
thiên_tử 883
phi_mã 882
từ 882
trâm 882
ửng 882
cùng 882
trục 882
inter 882
tiên_phong 881
sẹo 881
ai_ngờ 881
ngơ_ngẩn 881
chỉ_giáo 880
hưu 879
tỷ_phú 879
bất_bình 879
ngô@@ 879
phá_hoại 879
bự 879
asean 878
quặn 878
sọ 878
trêu 878
mình 878
tú_tuần 878
ðồng_mỗ 878
khôn_ngoan 877
liên_minh 876
mwc 876
mười_ba 876
ôtô 875
hành_lý 875
tiêm 875
7845 875
mạ 875
dượng_đế 875
năm_tháng 874
ngăn_trở 874
tần_vương 874
hướng_vấn_thiên 874
người_đời 873
vũng 873
đô-la 873
ào_ào 873
nền_tảng 872
sếp 872
tĩnh_lặng 872
thành_thử 872
chỉ_nhược 872
smartphone 871
thiết_lập 871
lội 871
hoàng_dược_sư 871
vi_@@ 870
el@@ 870
cảm_ứng 870
sâu_xa 870
trân 870
kiếm_@@ 870
cải_trang 870
cáo_từ 870
tiên_@@ 869
lạnh_nhạt 869
khiêu_chiến 869
định_hướng 868
ac 868
c.@@ 867
huỳnh_@@ 867
đối_tác 867
áy_náy 867
tài_nguyên 866
an_tâm 866
bài_tập 866
nuôi_dưỡng 866
đường_lối 866
núp 866
rụt 866
thái_phó 866
hoa_hồng 865
anh_trai 865
ngọc_lan 865
nức_nở 865
khóc_lóc 865
vang_dội 865
cho_xong 865
diệm 865
tham_khảo 864
yên_ổn 864
thanh_thế 864
ào 864
nhập_viện 863
nhất_quyết 863
tính_năng 862
nhân_loại 862
quật 862
phi_@@ 862
cười_khẩy 862
tiện_nghi 861
sh@@ 861
hàm_ðan 861
dã_cẩu 861
giảm_giá 860
trở_ngại 860
gãi 860
cây_số 860
đẫm 860
tôn_@@ 860
ý_niệm 860
vương_ngữ_yên 860
xâm_phạm 859
xinh_xắn 859
7897 859
bìa 859
14/2 859
chập 859
thanh_long 858
hào_hứng 858
chào_hỏi 858
ví 857
cổ@@ 857
sơ_bộ 857
liên_hoàn 857
làm_quen 857
nói_@@ 857
chúng 857
lẻ 857
đô_la 856
phương_chứng 856
quy_trình 855
bối_cảnh 855
thị@@ 855
lót 855
động_đất 855
trọng_yếu 855
mộc_uyển_thanh 855
1.@@ 854
hoá_học 854
nấm 854
như_thường 854
khước_hoàn_độ 854
tiếp_lời 853
dụng_ý 853
yên_lòng 853
mathias 853
nhà 852
muỗi 852
bao_công 852
toàn_quốc 851
sắc_đẹp 851
thuyền_trưởng 851
thu_xếp 850
ầm_ĩ 849
hãm 849
che_chở 849
10/2 849
chuyên_ngành 848
nhuộm 848
toàn_cầu_hoá 848
tới_tấp 848
kính_cẩn 848
bồ_tát 848
lứa 847
̣t 847
sơn_@@ 847
tàn_sát 847
tu_viện 847
sửa_chữa 846
thành_thật 846
chọn_lựa 846
giăng 846
hòm 846
nhập_khẩu 845
loài_người 845
điểm_nóng 844
cô_độc 844
thái_cực 844
cười_rộ 844
hợp_nhất 843
tải 843
du_học_sinh 843
sưng 843
liên_miên 843
tuỳ_tùng 843
ngần_ngừ 843
ceo 842
dầy 842
siết 842
phát_tác 842
hiu 842
mến 841
tinh_tế 840
đọng 840
lọ 840
kỳ_thực 839
đồng_tử 839
thám_tử 839
lệ_hằng 839
tỉnh_ngộ 839
thân_binh 839
bầm 838
câu_lạc_bộ 838
vo@@ 838
lắp 838
giầy 837
dĩ 836
ðại_@@ 836
tỉ_lệ 835
nguy_cấp 835
tập_hợp 835
đồng_tình 835
vốn_dĩ 835
cây_xăng 835
giở_trò 835
rương 835
cò 834
còn 834
chầu 834
hối_hả 834
hoá_trang 834
chiếu_cố 834
lễ_vật 834
hoà_thị_bích 834
p_@@ 833
75 833
cm 833
ghi_chép 833
thực_hành 832
che_giấu 832
bị 832
chăm_chăm 832
ùa 832
ðể 832
phòng_chống 831
họng 831
khát 831
lý_thuyết 831
tha_thiết 831
soạn 831
viễn 831
tận_mắt 831
hư_vô 831
đăng_tải 830
tận_dụng 830
địa_lý 830
la_hét 830
nhăn_nhó 830
nghiêng_mình 830
vinh_quang 829
huỷ_diệt 829
tội_ác 829
bàn_thờ 828
dạy_học 828
giùm 828
dừa 827
báu 827
ưu 827
yếu_đuối 827
́n 827
miên 827
tín_nhiệm 826
loại_trừ 826
bình_sinh 826
chết_đuối 825
ung 825
lý_@@ 824
đón_nhận 824
the@@ 824
bộ_đồ 824
ý_đồ 824
kinh_động 824
vững_chắc 823
ngọ 823
âm_u 823
cao_thức 823
sôi_nổi 822
vỉa_hè 822
hổn_hển 822
ðêm 822
đại_trượng_phu 822
bồn_chồn 821
trí_nhớ 821
quân_sư 821
bản_tính 821
trường_sinh 821
cầu_xin 821
văn_võ 821
trương_tam_phong 821
trong_sáng 820
gtvt 819
tẩm 819
tản 819
con_em 819
không_@@ 819
nghiêm_trang 819
chân_tướng 819
xe_buýt 818
ng @@ 818
choáng_váng 818
bực 818
hộ_vệ 818
mị 818
lý_tư 818
ge@@ 817
diệp 817
đem_lòng 817
vận_hành 816
dn 816
ngon_lành 816
thượng_đế 816
lương_tâm 816
khung_cảnh 816
kinh_dị 815
dưới_trướng 815
bị_cáo 814
mãn 814
7899 814
kỳ_vọng 813
vuốt_ve 813
tiêu_tan 813
cao_siêu 813
nhân_từ 812
trợ 812
nhật_ký 812
trí_thức 812
mưu_đồ 812
ðệ 812
jake 812
com 811
hiện_thực 811
thung_lũng 811
truy_tìm 811
lánh 811
tạ_an 811
chảy_máu 810
c_@@ 810
êm 810
thi_cử 810
va_chạm 809
tạt 809
1,@@ 808
đánh_thức 808
tổng_cộng 808
tóm 808
đội_trưởng 808
ân_hận 808
tổ_quốc 808
́ 807
nghiện 807
cúc 807
chu_thiên 807
trước 806
than_thở 806
ngờ_vực 806
bất_an 805
bình_minh 805
địa_đạo 805
thình 805
05@@ 804
bảo_hiểm 804
vĩnh_@@ 804
xong_xuôi 804
chúng_em 804
từ_bi 804
bình_định 803
nghi_hoặc 803
phú@@ 802
rắc 802
phong_độ 802
nội_thương 802
tuốt 802
ton 801
xứng 801
cuồng_phong 801
doãn 801
đao_kiếm 801
tiểu_phàm 801
cách_thức 800
báo_động 800
ngỡ_ngàng 800
nhếch 800
sát_thủ 800
thảm_thiết 800
đại_phu 800
tân 798
australia 798
thí_nghiệm 798
bất_@@ 798
sắp_sửa 798
tu_luyện 798
steve_jobs 797
mơ_ước 797
sáng_tác 797
cạo 797
cái 797
thượng_thư 797
thương_nghị 797
công_cộng 796
ngỏ 796
khoa_học_xã_hội 795
hoành 795
phong_@@ 795
cậy 795
matt 795
39 794
tử@@ 794
mù_mịt 794
khôn_lường 794
ứa 794
tennis 793
võ@@ 792
ra_@@ 792
bất_tử 792
diện_mạo 791
game 791
châu_mỹ 791
mầu 791
con_nít 791
tây_hạ 791
camera 790
đầu_@@ 790
chém_giết 790
đại_dương 789
tài_khoản 789
phỏng 789
điển 789
phong_toả 789
vô_lý 788
hoảng_loạn 788
nhạy_cảm 787
ja@@ 787
ăn_@@ 787
có_ích 787
gắng_gượng 787
trấn_tĩnh 787
y_học 786
việc 786
barca 786
bà_cụ 786
tâm_tư 786
ðinh_xuân_thu 786
mì 785
sụp 785
nào 785
biểu_lộ 785
công_cuộc 784
bát_@@ 784
bởi_thế 784
mất_hút 784
yêu_mến 784
7883 784
mạnh_@@ 784
nóng_lòng 784
huệ 784
ả_rập 784
ngang_nhiên 784
thuỷ_nguyệt 784
âm_quý_phái 784
phì 783
đội_tuyển 783
véo 783
chiêm_ngưỡng 783
khởi_động 782
tăng_giá 782
hà_nam 782
mới_mẻ 782
phi_công 782
gì 782
ðiều 782
thái_sơn 782
hành_quân 782
trích 781
bồi_dưỡng 781
may_ra 781
trống_rỗng 781
nhóc 781
đàng 781
một_ngàn 781
tung_toé 781
đàm_phán 780
phấn_đấu 780
lợi_thế 780
chi_@@ 780
duyên_dáng 780
chịu_thua 780
cảnh_vật 780
06@@ 779
ce 779
làm_đẹp 779
gò 779
tổ_tiên 779
indonesia 778
nhiệm 778
chuối 778
_n@@ 778
nhà_bếp 778
mùng 778
seoul 778
chuộc 778
há_hốc 778
tín_dụng 777
hoà@@ 777
trân_trọng 777
xưng_hô 777
chao 777
hiên_ngang 777
giả_như 777
lưu_thông 776
nan 776
hoặc_giả 776
tín_lăng 776
tán_thành 775
_r@@ 775
cô@@ 775
android 775
đệm 775
cầu_nguyện 775
tán_thưởng 775
lãnh_tụ 775
64 774
nghẹn 774
mao 774
bộ_máy 774
thỉnh_giáo 774
củng_cố 773
đào_@@ 773
thỏ 773
hồng_ngọc 773
điểu 773
thi_lang 773
kim_lan 773
giao_đấu 773
thực_chất 772
thoái 772
vệt 772
cảm_tạ 772
nhận_biết 771
mai_hoa 771
ăng 771
không_tài_nào 771
rũ 771
tống_sư_đạo 771
ang 770
gân 770
valentine 770
pháp_lý 769
áp_đảo 769
phản_công 769
chốt 768
xúc_phạm 768
côn_đồ 768
chĩa 768
ưu_đãi 767
nguyên_@@ 767
re 767
trong_trẻo 767
máy_ảnh 766
góc_độ 766
đồng_nai 765
ri 765
thường_ngày 765
ế 765
35@@ 764
đột_phá 764
tâm_@@ 764
phi_huyên 764
liên_bang 763
vặt 763
nứt 763
or@@ 762
huyền_@@ 762
diễm 762
ụ 762
tiêu_dật_tài 762
ngỡ 761
y_tá 761
đai 761
riêng_tư 761
chút_ít 761
nể_mặt 761
giựt 761
tiêu_thụ 760
ứng_viên 760
cho@@ 760
thánh_@@ 760
8/2 760
gật_gật 760
hương_cốc 760
42 759
học_hỏi 759
giả_sử 759
vô_tội 759
gv 759
chồm 759
ngày_một 758
tật 758
sút 758
hương_@@ 758
nguyên_tử 758
chót 758
khiêm 758
34@@ 757
đề_án 757
đánh_máy 757
hà_lan 757
bánh_xe 757
đẹp_trai 757
dằn 757
sergei 757
chế_biến 756
gay_gắt 756
sách_vở 756
giải_thoát 756
bất_mãn 756
ðông 756
bảo_vật 756
xem_lại 755
á@@ 755
e_ngại 755
tt 755
hết_thảy 755
tinh_thông 755
thử_hỏi 755
» 755
vắt 754
ngần_ngại 754
cống 754
nokia 754
tròng 753
quát_tháo 753
bốp 753
sáng_lập 752
thần_tượng 752
cứng_rắn 752
lườm 752
villas-boas 752
13/2 752
quảng_ngãi 751
bồi_thường 750
fpt 750
hoài_@@ 750
tỏ_tình 750
yêu_quý 750
giám_khảo 750
văn_tự 750
hệt 750
kim_tự_tháp 750
đầu_đuôi 750
cung_cấm 750
ðào_phương 750
suy_đoán 749
gắt 749
7873 749
ronaldo 749
17/2 749
hành_lễ 749
hoan_hỉ 749
luống_cuống 748
nghe_nói 748
ngu_xuẩn 747
ve@@ 746
hư_hỏng 746
từ_thiện 746
nhỏ_xíu 746
đò 746
uyển 746
tra_xét 746
khả_hãn 746
hiệp_hội 745
vàng_bạc 745
cảm_tình 745
trắc 745
sơ_sinh 745
rồi 745
sản 744
vitamin 744
sừng 744
lâm_tĩnh 744
vậy_thì 743
đỗ@@ 743
từ_thiên 743
cảnh_@@ 743
ồn 743
vượn 743
bá@@ 742
lý_giải 742
tầm_mắt 742
gia_nhân 742
rên_rỉ 741
âu_yếm 741
rong 741
ngậm 741
gợi_ý 740
tuổi_tác 740
44 740
nhợt_nhạt 740
đính 740
ford 740
hoạ_sĩ 740
đoàn_kết 739
nhích 739
nã 739
văn_chương 739
quá_đáng 739
cường_địch 739
thái_úy 739
2007 738
wa@@ 738
hi 738
bất 738
giác 738
lừng_lẫy 738
kiều_bào 738
messi 738
tuỳ_ý 738
song_thân 738
thiệu_đông_tử 738
vướng 737
học_viên 737
đô_đốc 737
antoine 737
đồng_môn 737
không_tưởng 736
chất_vấn 736
7907 735
bác_sỹ 735
làm_trò 735
giang_văn_thanh 735
trần_hiếu_chính 735
tối_tăm 734
thoắt 734
thừa_tướng 733
bánh_mì 733
mù_loà 733
ưng_thuận 733
hung_ác 733
điện_hạ 733
lý_tử_thông 733
jo@@ 732
vì 732
lia 732
di_@@ 732
chi_tiêu 731
giết_hại 731
khuất_phục 731
dạy_bảo 731
lia_lịa 731
rạng 730
sở_trường 730
bây 730
vấn 730
chí@@ 730
tro@@ 730
cơ@@ 730
đấng 730
chuyện_trò 730
tỷ_thí 730
21@@ 729
bền_vững 729
hình_dạng 729
thẩm_định 729
evn 729
đồng_@@ 729
nhuyễn 729
vô_song 729
phù_thuỷ 729
quyết_chiến 729
phần_trăm 728
ưu_thế 728
chiến_thuật 728
thói 728
news@@ 728
úp 728
thần_trí 728
cổ_xưa 728
bệnh_hoạn 728
ca_ngợi 728
binh_mã 728
mã_văn_phi 728
ne 727
người_tình 727
thoạt 727
h. 727
lạ_thường 727
nách 727
tư_đồ 727
hầu_hạo 727
tru@@ 726
lãng_phí 726
thái_nguyên 726
đường_bộ 726
trật 726
ảm_đạm 725
khởi_đầu 725
quần_chúng 725
«@@ 725
hiếu_thành 725
ngũ@@ 724
đàng_hoàng 724
họ 724
giản 724
nhảy_xổ 724
ki 723
lôi_kéo 723
tướng_sĩ 723
ác_mộng 723
kỹ_càng 723
quyết_đấu 723
dung_mạo 723
người_người 722
cụm 722
lân 722
ve 722
kinh_thành 722
luồn 722
tranh_đấu 722
thuỷ_sản 721
̉ 721
điều_hoà 721
chu@@ 721
_ph@@ 721
kính_phục 721
căm_hận 721
dân_cư 720
đều_đặn 720
nô_lệ 720
dõng_dạc 720
is@@ 719
_kh@@ 719
sáng_tỏ 719
thím 719
chọi 719
cự_tuyệt 719
keng 719
kịch_bản 718
cua 718
bù 718
nghênh_tiếp 718
nếu 718
chuyện 718
hạng 718
scott 717
cả 717
bao_la 717
lã 717
lắp_bắp 717
quan_quân 717
đô@@ 716
50% 716
nội_vụ 716
điều 716
nó 716
kinh_phí 715
làn_sóng 715
thương_tích 715
lồng_ngực 715
lậu 714
xoè 714
thị_thần 714
thi@@ 713
đồng_hành 713
siêu_thị 713
bực_tức 713
mặc_kệ 713
tàn_ác 713
là_lạ 713
chỉ_dẫn 712
khánh_@@ 712
phì_cười 712
mợ 712
ði 712
lô@@ 711
lặp 711
đồn_đại 711
phù_kiên 711
bận_tâm 710
fi@@ 710
phế 710
vành 710
tín_đồ 710
tri_thức 710
500,000 710
sơn_động 710
bặt 709
nhân_gian 709
thanh_y 709
sôi_động 708
thô 708
quy_tắc 708
đến_cùng 708
uy_thế 708
02 707
đẳng_cấp 707
03 707
thứ_bảy 707
rachel 707
gẫy 707
sải 707
sấn 707
khả_ngọc 707
vui_chơi 706
vạn_@@ 706
ka 706
rát 706
rậm_rạp 706
2006 706
dòng_họ 706
đăm_đăm 706
uỷ 705
mơ_màng 705
thu@@ 705
46 705
nè 705
phản_chiếu 705
nô_tỳ 705
elinor 705
khuyết 704
tiêu_chí 704
nhật_@@ 704
cầm_đầu 704
ân_@@ 704
thẫm 704
nằm_mơ 704
hối 704
phong_lưu 704
mầy 704
ù 703
trạc 703
lắng_tai 703
ẩm 702
ngo@@ 702
hươu 702
kinh_châu 702
đốm 701
cúng 701
cương_quyết 701
võ_ðang 701
diệt_tuyệt 701
nhĩ 700
họ_hàng 700
nhan 700
nghiệt 700
đời_nào 700
thôi_thì 699
đánh_cắp 699
honda 699
22@@ 698
như@@ 698
_nh@@ 698
mùi_vị 698
vù_vù 698
tuyệt_đỉnh 698
02/2012 698
vương_ngọc_yến 698
chứng_nhận 697
tan_vỡ 697
bước_tiến 697
cưỡng 697
chư 697
dương_công_khanh 697
minh_giáo 697
chóng 696
m.@@ 695
hoàng_kim 695
lành_mạnh 695
bất_tỉnh 695
duỗi 695
kêu_la 695
khó_coi 695
thạch_thanh 695
cơ_cấu 694
38@@ 694
bộc_lộ 694
độc_thân 694
dìu 694
phong_cảnh 694
điềm_đạm 694
reo_hò 694
đối_đãi 694
nhất_tề 694
ðông_phương_bất_bại 694
cấm_vệ 694
philippines 693
thuận_tiện 693
nón 693
kích_thước 693
giai_cấp 693
tề_hạo 693
nghe_ngóng 692
hãm_hại 692
mạc_@@ 692
tiểu_quế_tử 692
lâm_chấn_nam 692
kim_loại 691
tây_nam 691
an_bài 691
mưa_gió 691
tất_huyền 691
nắm_bắt 690
loại_bỏ 690
rồi_đây 690
ẩn_nấp 690
lén_lút 690
vĩ 690
dang 690
giỏ 690
ngổn_ngang 690
bộc 690
trư_cốc 690
48 689
per@@ 689
er 689
sinh_vật 689
ấy 689
cập 689
o0o 689
triệu_đức_ngôn 689
tự_ý 688
đồng_đạo 688
bàn_luận 687
dã_man 687
_g@@ 686
chéo 686
tồi 686
tóm_lại 686
đột_nhập 686
chu_du 686
grant 686
nu@@ 685
ya@@ 685
bài_toán 685
trắc_nghiệm 685
thiêng_liêng 685
mô@@ 685
nữ_nhi 685
ùn_tắc 685
bạch_@@ 685
kết_nghĩa 685
kém_cỏi 685
bái_tử_đình 685
cửa_hiệu 684
mê_hoặc 684
kháng 684
căn_dặn 684
ê@@ 684
nhả 684
thanh_tú 684
báo_đáp 684
nhiếp_thiên_hoàn 684
văn_mẫn 684
% 683
gia@@ 683
mong_manh 683
vắng_vẻ 683
hốt 683
tàng 683
cổ_đông 682
xe_khách 682
nghi_vấn 682
truy_cập 682
gh@@ 682
giao_tiếp 682
sex 682
độc_@@ 682
đồ_vật 682
tôn_kính 682
thất_sắc 682
chỉ_định 681
2.@@ 681
xăm 681
chống_chọi 681
̃ 681
nhện 681
phản_kháng 681
tía 681
sân_chơi 680
2013 680
bướm 680
át 680
mạt 680
đại_khái 680
giận_dỗi 680
điềm 680
đoản_kiếm 680
thủ_lãnh 680
hoàng_phủ_tinh 680
dân_số 679
ck 679
chỉnh 679
thứ_tự 679
hỏi_han 679
bỉ 679
uy@@ 679
ngũ_hành 679
giám_mục 679
trung_uý 679
đánh_dấu 678
ku@@ 678
kinh_sợ 678
thán_phục 678
binh_lính 678
hí 678
trượng_phu 678
đại_trúc_phong 678
che@@ 677
hủ 677
rao 676
kiểm_điểm 676
trên_dưới 676
noel 676
tây_tạng 676
nãy_giờ 676
xử_phạt 675
ran 675
táng 675
steve 675
tích_thư_nhân 675
2020 674
động_lực 674
cay 674
ng_th@@ 673
triệt_để 673
rạch 673
bàng 673
giờ 673
khua 673
chẳng_trách 673
hoạt 672
thành_@@ 672
canada 672
trẻ_trung 672
kiên_trì 672
thượng_@@ 672
vận_mệnh 672
chận 672
lý_kiến_thành 672
cóc 671
cát_@@ 671
vinh_dự 671
tại 671
đồng_minh 671
sinh_mạng 671
megan_fox 671
ọ 671
thống_khổ 671
hắng_giọng 671
máy_móc 670
thẩm_quyền 670
sẫm 670
cay_đắng 670
vớ 670
túc 670
từ_chức 670
phê_bình 670
hi_sinh 669
tài_trợ 669
công_sức 669
thuỷ_tinh 669
bản_năng 669
trịnh_trọng 669
cấu_kết 669
lừa_dối 669
nép 669
gia_cát_dật 669
chu_bá_thông 669
tivi 668
sở_thích 668
hồ@@ 668
đa_dạng 668
̀n 668
bọt 668
/12/2011 668
một_mạch 668
nhập_học 668
tướng_lĩnh 668
phân_phối 667
sim 667
rọi 667
cập_nhật 666
88 666
ngất_xỉu 666
ngớ_ngẩn 666
262 666
điểm_chuẩn 666
xương_bình 666
thiên_lý 666
nhạc_sơn 666
vật_liệu 665
đắng 665
tiêu_hoá 665
nghiên 665
tráng 665
hàn_@@ 665
tha_hồ 665
ngạn 665
tuyệt_luân 665
cởi_mở 664
xác_minh 664
hà_giang 664
triệu_tập 664
ba_mẹ 664
thiên_đường 664
hoang_dã 664
tỉ_mỉ 663
ma_quỷ 663
ác_độc 663
thân_hành 663
̣n 662
rà_soát 662
chấp_thuận 662
xử_trí 662
ngẩn_ngơ 662
sửa_soạn 662
trường_giang 662
mờ_mờ 662
canh_giữ 662
thâm_tâm 662
bất_ổn 661
manh_mối 661
thổ_lộ 661
thìn 661
tâm_nguyện 661
sủa 661
du_bạch_phong 661
tiểu_siêu 661
chiếm_đoạt 660
thuỵ_sĩ 660
thị_xã 660
tứ_kết 660
bằng_không 660
malaysia 659
điển_hình 659
khuôn 659
1/2 659
chú_trọng 659
thời_giờ 659
khí_lực 659
lâu_thiên_tôn 659
tư@@ 658
mạch_máu 658
al 658
phong_bì 658
thân_@@ 658
ẩn_hiện 658
cam_tâm 658
đẹp_mắt 657
bi_thương 657
từ_tốn 657
chải 657
thừng 657
nhe 657
thoả 656
tổn_hại 656
bảo_toàn 656
đau_nhói 656
xê 656
vatican 656
mỹ_lệ 656
thượng_tú_phương 656
nể 655
ng_l@@ 655
kỳ@@ 655
đút 655
trực_thăng 655
bắc_phủ_binh 655
nha_môn 655
châu_phi 654
phòng_thí_nghiệm 654
ðầu 654
ân_oán 654
bổ_nhiệm 653
đường_sắt 653
dọn_dẹp 653
thay_mặt 653
ớn 653
cá_tính 653
tung_hoành 653
ngạo 653
cư_sĩ 653
lộ_trình 652
trung_cấp 652
dao_động 652
dối 652
một_lòng 652
lớn_nhỏ 652
hoành_hành 652
xa_cách 652
tống_phàm_bình 652
hiền_lành 651
ngoái 651
phút_chốc 651
cp 650
đúng_đắn 650
tiền_@@ 650
luật_pháp 650
trăm_ngàn 650
tại_chức 650
ngoài_mặt 650
hiệu_lực 649
fa@@ 649
chẩn_đoán 649
sai_sót 649
04@@ 649
tử_thi 649
xì 649
nhà_xuất_bản 649
xi 648
hot 648
lạm_phát 648
nhảy_múa 648
like 648
giáo_hoàng 648
đồng_bọn 648
21/11 648
bần_bật 648
bất_thình_lình 648
phân_chia 647
xin_@@ 647
ác_liệt 647
văng_vẳng 647
mắt_thấy 647
website 646
microsoft 646
thang_máy 646
dô 646
lấy_lòng 646
quý_tộc 646
tiếp_ứng 646
tiềm_năng 645
tinh_vi 645
samsung 645
mong_đợi 645
il@@ 645
rào 645
xẩy 645
huyền_tông 645
khí_hậu 644
ôn_hoà 644
cảm_tưởng 644
binh_lực 644
bảo_hộ 643
yếu_kém 643
kỹ_lưỡng 643
thạc_sĩ 643
chịu_khó 643
làm_nhục 643
ðàm_dược_sư 643
tho@@ 642
hao 642
đội_hình 642
iên 642
kiên_cố 642
thiêu_đốt 642
quả_nhân 642
trát_mộc_hợp 642
chứng_chỉ 641
ngoài_trời 641
tự_nguyện 641
ức 641
xếp_hàng 641
vê 641
u_ám 641
quảng_ninh 640
trái_phép 640
xế 640
hài_cốt 640
hoá_giá 640
cuồng_nhiệt 640
đau_thương 640
phong_ba 640
sơn_cốc 640
bar@@ 639
lãnh_thổ 639
búp_bê 639
7913 639
ân_cần 639
đột_kích 639
chép_miệng 639
hình_bóng 639
cực_điểm 639
nẩy 639
nhân_sự 638
600 638
dẫn_dắt 638
tình_@@ 638
dè 638
mặt_bằng 637
bất_đồng 637
thắt_lưng 637
phúc_@@ 637
ẵm 637
câu_thơ 637
thi_công 636
tiến_độ 636
259 636
phiền_phức 636
tiết_mục 636
rung_chuyển 636
thân_thế 636
trố 636
cứu_viện 636
tinh_diệu 636
nữ_tỳ 636
võng 635
quý_giá 635
van 635
chủ_quyền 635
lạc_@@ 635
tổng_công_ty 634
tài_nghệ 634
200@@ 634
giai 634
làm_loạn 634
ất_@@ 634
chuôi 634
mười_bảy 634
800 633
cày 633
nhậm_thanh_thị 633
i-@@ 632
hy_lạp 632
trơn 632
nhạc_@@ 632
quán_trọ 632
xẹt 632
sung 631
w 631
37@@ 631
ba_@@ 631
cụt 631
hữu_@@ 631
tháng_giêng 631
bại_trận 631
miss_teen 631
thành_hình 630
q 630
nguyễn 630
mỏi 630
ngày 630
phân_vân 630
sầm 630
rùng_rợn 630
tinh_nhuệ 630
đầm_đìa 630
trà_trộn 630
uỷ_viên 629
nhà_sản_xuất 629
tương_dương 629
thông_@@ 629
trang_web 629
chinh 629
hoả_hoạn 629
liên_quân 629
soạt 629
tt@@ 628
lan_can 628
hoàng_hà 628
trang_sức 627
bén 627
toa 627
khuỷu 627
hột 627
thôi_bác 627
ste@@ 626
đình_@@ 626
đặc_điểm 626
rằng 626
har@@ 626
9/2 626
huyên_náo 626
ăn_xin 626
thối_lui 626
định_@@ 625
n_đ@@ 625
diều 625
lung_tung 625
khúc_ngạo 625
2015 624
doanh_thu 624
lý_luận 624
ry 624
rất 624
trổ 624
biếu 624
rất_đỗi 624
lãnh_đạm 624
tiểu_bảo 624
khẻ 624
chỉ_số 623
ngư_dân 623
nhà_nghiên_cứu 623
bán_kết 623
rơm 623
thực_tiễn 623
vương_phi_dương 623
dự_báo 622
thuỷ@@ 622
nhà_nghỉ 622
khoét 622
thần_thánh 622
gaddafi 622
dùm 622
dụng_tâm 622
đột 621
minh_hoá 621
hài_hước 621
cùng_cực 621
oai_phong 621
am@@ 620
bảo_tồn 620
xơ 620
7847 620
mím 620
ngụ 619
thăng_long 619
nạc 619
sào 619
lắc_lư 619
ngắm_nghía 619
du_tiểu_quyên 619
điểm_tâm 618
đùng_đùng 618
giả_dối 618
richard 618
hành_thích 618
giả_bộ 618
phổ_hoằng 618
trọn_vẹn 617
chảo 617
rải 617
vệ_tinh 617
đa@@ 617
trả_giá 617
cung_điện 617
tỷ_số 617
hót 617
của_cải 617
ương 616
huyền_bí 616
chấn_thương 616
hờ 616
du_@@ 616
sắc_diện 616
thiên_kiều 616
bàng_nghĩa 616
thường_trực 615
p.@@ 615
điện_thoại_di_động 615
nghẹt_thở 615
mer@@ 615
mỏi_mệt 615
qua_mặt 615
tụng 615
oán_hận 615
môn_đồ 615
ðường 615
_x@@ 614
lon 614
é@@ 614
khang 614
tinh_binh 614
đối_đáp 614
sáng_ngời 613
giặt 613
news 613
nam_sinh 613
chao_ôi 613
rón_rén 613
sta@@ 612
định_cư 612
tổn_thất 612
cúp 612
quay_cuồng 612
tần_@@ 612
kiểm 611
trọng_lượng 611
chần_chừ 611
lay 611
lộn_xộn 611
giang_sơn 611
ôn_@@ 611
trúc_anh 611
huyền_hoàng_giáo 611
05 610
52 610
ngh@@ 610
nhiều 610
thành 610
thù_hận 610
đại_minh 610
chiến_mã 610
tịch_mịch 610
ðình_phương 610
đỗ_cửu 610
41 609
ủ 609
bổn_phận 609
du_kích 609
cơ_mà 609
quấy_nhiễu 609
bành 609
ì 608
tâm_huyết 608
tạng 608
tu_sĩ 608
tiêu_hậu 608
mưu_kế 608
xung_hư 608
nam_hải_ngạc_thần 608
cứu_chữa 607
́c 607
hạm_đội 607
vần 607
hung_hiểm 607
mạng_lưới 606
tham_vọng 606
hoãn 606
huy@@ 606
lật_đổ 606
âu_dương_khắc 606
56 605
hiện_thân 605
thừa_kế 605
công_đường 605
huy_chương 604
hụt 604
thủ_thành 604
nhắm_nghiền 604
như_không 604
cạm_bẫy 604
qua@@ 603
nội_thất 603
con@@ 603
99@@ 603
dạ_dày 603
nd 603
trầm_tư 603
vá 603
hồi_giáo 603
hung_hãn 603
liên_luỵ 603
ý_tứ 603
2000 602
gấp_rút 602
hiếm_hoi 602
lệch 602
khuyến_cáo 602
trộn 602
chính_@@ 602
lốc 602
bạn_hữu 602
mỉa_mai 602
cái_thế 602
triệu_thiên 602
gian_tặc 602
100% 601
số_liệu 601
phán_đoán 601
đánh_@@ 601
giò 601
tì 601
quy_củ 601
quang_cảnh 601
tới 601
lý_trí 601
nhiếp 601
thần_tốc 600
khởi_hành 600
phân_@@ 600
aids 600
trùng_trùng 600
vệ_sĩ 600
ðạo 600
trừ_khử 600
đối_lập 599
nhân_dịp 599
gắng 599
cup_châu_âu_bóng 599
hắng 599
trấn_thành 599
dậm 599
ngưỡng 598
bóc 598
cận 598
ter@@ 598
showbiz 598
vụng_về 598
cung_@@ 598
sứ_quán 598
nẻo 598
bùng_nổ 597
thu_@@ 597
mải 597
thượng_phong 597
diệu_kế 597
vị@@ 596
phục_@@ 596
kết_giao 596
thường_lệ 595
giỡn 595
giá_cả 594
bê 594
thoái_lui 594
cao_quý 594
sát_nhân 594
chú_thích 594
chung_linh 594
vài_ba 593
trung_đông 593
đỉnh_cao 593
sân_nhà 593
cầu_cứu 593
mềm_nhũn 593
làm_khó 593
bại_lộ 593
ða 593
chặng 592
ver@@ 592
viễn_thông 592
uốn 592
hình_phạt 592
buồn_thảm 592
hạm 592
65 591
như_ý 591
hưởng_thụ 591
2004 591
tri@@ 591
phan 591
không_kích 591
gật_gù 591
ăn_trộm 591
lùm 590
pu@@ 590
tổng_kết 590
ngạt 590
che_kín 590
thể_xác 590
ngay_ngắn 590
hăng_hái 590
hồng_lan 590
hắt 590
không_trách 590
nhiệm_kỳ 589
bđs 589
con_trẻ 589
động 589
tái_hiện 589
phương_nghị 589
hoan_nghênh 588
khát_vọng 588
xúc 588
olympia 588
bankplus 588
federer 588
ngọc_tiêu_lang_quân 588
mỹ@@ 587
vô_tư 587
hung_hăng 587
luật_lệ 587
tranh_giành 587
sách_lược 587
đông_hải 587
châu_báu 587
0,@@ 586
mác 586
bị_can 586
gọn_gàng 586
tuyền 586
già_nua 586
viện_phí 586
nhị@@ 586
đậu_kiến_đức 586
đồng_tính 585
ăn_ở 585
đề_cử 585
lìa 585
trang_nghiêm 585
thần_thông 585
đại_lộ 584
lê_thị@@ 584
vô_hạn 584
làm_bạn 584
học 584
truy_đuổi 584
cuả 584
ðức_nặc 584
khưu_xử_cơ 584
gra@@ 583
lề 583
gấp_bội 583
phù@@ 583
mặt 583
nhà_vệ_sinh 583
nhận 583
15/2 583
hang_động 583
ướt_đẫm 583
việt_kim 583
kinh_đô 582
phong_thái 582
dẫn_dụ 582
ðịnh_dật 582
không 582
thanh_lan 582
thượng_hoàng 582
43 581
hấp 581
địa_@@ 581
̣ 581
chiết 581
đạo_@@ 581
thương_vong 581
điềm_tĩnh 581
phật_@@ 581
quỷ_vương_tông 581
an_bân_ni 581
ngời 580
hiểm_trở 580
giòng 580
eu 579
_thành 579
chì 579
sợ_sệt 579
ước_tính 578
dấy 578
cầu_giấy 578
cử_nhân 578
tan_nát 578
thương_hại 578
liên_hoan 578
phóng_hoả 578
quái_lạ 578
ngàn_vạn 578
khái_niệm 577
dấu_ấn 577
giang_@@ 577
hiện 577
kế_tiếp 577
cư_xử 577
liên_xô 577
mê_hồn 577
kinh_hoảng 577
ống_tay_áo 577
lưu_hắc_thát 577
frankie 577
hùng_tín 577
00 576
lê_văn_@@ 576
hồn_nhiên 576
nhậu 576
hoá_chất 576
đám_tang 576
tạp 576
đường 576
đôi_lúc 576
sai_khiến 576
dường 576
đứng_tuổi 576
kết_cục 576
hỡi 576
đại_huynh 576
phục_khiên 576
dạy_dỗ 575
miêu_tả 575
ed@@ 575
tuấn_tú 575
nổi_nóng 575
nấu_ăn 575
tứ@@ 575
hcv 575
nhỏ_nhẹ 575
khủng_long 575
việt_john 575
bạch_quân_nghi 575
47 574
cống_hiến 574
nói_riêng 574
loa 574
trợ_lý 574
phiền_não 574
quốc_vương 574
thượng_thừa 573
sắm 573
điên_rồ 573
ứng_xử 573
dân_lập 573
lý_lan 573
e_@@ 572
trọng_@@ 572
tinh_@@ 572
hậm_hực 572
thi_sĩ 572
thượng_tướng 571
2005 571
uể_oải 571
120 571
một_mực 571
cửa_mở 571
nội_tình 571
ước_hẹn 571
đánh_lừa 570
shi@@ 570
lít 570
thái_bình_dương 570
bục 570
cẩn 570
tranh_đoạt 570
võ_ðương 570
lão_trượng 570
marianne 570
mật_thiết 569
lạc_quan 569
giải_độc 569
bó_tay 569
uyển_chuyển 569
bửa 569
ndđt 569
thủ_cấp 569
huyền_nạn 569
gập 568
mới 568
từng_trải 568
môn_học 568
lộng_lẫy 568
sừng_sững 568
thiếu 568
ber@@ 567
chênh_lệch 567
tầng_lớp 567
tốt_lành 567
300,000 567
tàn_bạo 567
hà_hà 567
lưu_chính_phong 567
= 566
nang 566
phát_minh 566
từ@@ 566
ke 566
2729@@ 566
hắc_bạch_tử 566
họp_báo 565
áng 565
gù 565
áo_choàng 565
mật_mã 565
nghĩa_trang 565
tâm_phúc 565
tử_cung 564
ham_muốn 564
trốn_tránh 564
ngoại_quốc 564
vờ 564
cho_rồi 564
mộc_kiếm_bình 564
us@@ 563
đường_dây 563
đồng_đội 563
bừa_bãi 563
lo_liệu 563
thuốc_mê 563
luỹ 562
thập_niên 562
ô_nhiễm 562
một_@@ 562
nồng 562
dung_nhan 562
cử_tri 562
cổ_vũ 562
hiệu_lệnh 562
xúm 562
tiếu 562
chuyển_đổi 561
giải_đáp 561
tận_lực 561
trông_nom 561
dự_liệu 561
fc 561
rầu_rĩ 561
này_@@ 561
chiêu_@@ 561
thuỷ_sinh 561
chúa_công 561
chăm_chỉ 560
chào_đón 560
lanh 560
lơ 560
chat 560
hộc 560
lạm_dụng 559
kho@@ 559
song_phương 559
nhược 559
thiệt_thòi 559
ly_kỳ 559
hãi 559
trăm_họ 559
côdét 559
khai_mạc 558
mắt_xanh 558
ru 558
phồng 558
ái_@@ 558
khay 558
tức_tối 558
hò_hét 558
đồng_phục 558
trừng_trừng 558
đô_thống 558
phò_mã 558
có 558
lỏng 557
nguyên_vẹn 557
sư@@ 557
ưa_thích 557
bàn_ghế 557
thỉnh_cầu 557
sinh_mệnh 557
sức_ép 556
lưu_tâm 556
hoán 556
ới 556
văn_nghệ 556
thứ_bẩy 556
trường_sa 556
thác_bạt_nghi 556
trung_châu 556
ân_tố_tố 556
landry 556
00@@ 555
trỗi 555
là@@ 555
vững_vàng 555
tự_dưng 555
nhất 555
ít_lâu 555
ferrari 555
khốn_kiếp 555
tào_ứng_long 555
đồ_lôi 555
ly_hôn 554
igrave 554
gợi_cảm 554
tỉnh_giấc 554
mảy_may 554
thương_xót 554
giao_tình 554
thiên_âm_tự 554
triển_diệp_thanh 554
lý_văn_tú 554
dậy_thì 553
2017 553
vắng_mặt 553
lẫn_lộn 553
liệt_sĩ 553
truy_sát 553
dựng_đứng 553
mất_mặt 553
nhúng_tay 553
vinh_phụng_tường 553
ninh_đạo_kỳ 553
toyota 552
thú_nhận 552
đảm 552
sa_@@ 552
vùng_vẫy 552
xuồng 552
cách_biệt 552
juventus 552
trang_tương 552
anh_đào 551
thu_phục 551
nước_bọt 551
ngày_ngày 551
đại_hoàng 551
mê@@ 551
nai 551
củng 551
khất 551
im_bặt 551
viên_ngoại 551
vu_trường_thanh 551
tuân_thủ 550
tổng_cục 550
loay_hoay 550
con_@@ 550
gấp_gáp 550
sớm_muộn 550
nỗi_lòng 550
địa_thế 550
đại_cao_thủ 550
âu_dương 550
pin 549
nh.@@ 549
bịch 549
thư_giãn 549
bồn 549
cả_thảy 549
quẻ 549
quạ 549
nới 548
lư 548
để_dành 548
rụt_rè 548
lưỡng_lự 548
hacker 548
titanic 548
lễ_phép 548
thực_tình 548
phiên_toà 547
hà_đông 547
james 547
điếc 547
huỷ_hoại 547
afghanistan 547
đông_á_eu 547
hô_hoán 547
tử_nạn 546
hy 546
gia_tộc 546
20/11 546
nhức_nhối 546
giáo_hội 546
tây_phương 546
garin 546
vương_thông_huệ 546
49 545
bán_lẻ 545
wall 545
mở_đầu 545
bao_bọc 545
nhướng 545
mặt_biển 545
hoa_viên 545
thối_tha 545
tham_lam 544
mặt_@@ 544
dò_hỏi 544
chối 544
nhà_giáo 544
dơ 544
đâu_đâu 544
hiền_muội 544
n. 543
bắc_giang 543
mở_đường 543
ba_lan 543
hậu_@@ 543
đỏ_rực 543
nhẫn_tâm 543
áo_bào 543
tnhh 542
mặt_hàng 542
54 542
phòng_ngừa 542
̣c 542
ư@@ 542
thiên_thạch 542
khàn_khàn 542
hách_liên_bột_bột 542
ko 541
đậy 541
rễ 541
ự 541
kiệt_sức 541
dũng_mãnh 541
thảm_hại 541
khốn_nạn 541
vu_ô_quyển 541
teabing 541
hùng_vĩ 540
cao_ốc 540
thoảng 540
tinh_trùng 540
trách_móc 540
lỗ_hổng 540
sinh_linh 540
giải_tán 540
tuyên_vĩnh 540
tệ_hại 539
phòng_vệ 539
cuốc 539
đèo 539
thiếu_gì 539
nguyên_khí 539
hết_lời 539
lanh_lảnh 539
vật_dụng 538
ng_h@@ 538
rô@@ 538
bắc_ninh 538
hùng_hậu 538
ngoại_ô 538
tàn_độc 538
tác_chiến 538
chồn 538
tiên_tiến 537
58 537
bà@@ 537
dưa 537
như_điên 537
vẫn 537
giắt 537
sóng_gió 537
chúa_thượng 537
thiên_cơ 537
lãng 536
1.000 536
hợp_pháp 536
brazil 536
trái_ngược 536
sỏi 536
nguyên_do 536
̀ng 536
gian_khổ 536
linh_thanh_tra 536
khoanh_tay 536
ngây_ngất 536
đanh 536
phi_trường 536
kim_lăng 536
lục_bất 536
be 535
sức_sống 535
lò_sưởi 535
thù_oán 535
sơ_mi 535
56@@ 534
sinh_học 534
fe@@ 534
lần 534
huyết_áp 534
nam_định 534
thú_thần 534
côn_luân 534
hác_trường_hanh 534
maura 534
for@@ 533
thi_@@ 533
45@@ 533
thái_quá 533
gào_thét 533
diếm 533
thì_thào 533
online 532
lỗi_lầm 532
7/2 532
săn_sóc 532
nghĩa_khí 532
đa_phần 531
20% 531
nào_là 531
thể_chất 531
nghiêm_ngặt 531
tốc 531
bình_phục 531
nghĩa_vụ 531
hoà_hợp 531
lề_đường 531
chuyền 531
tự_phụ 531
hư_hành_chi 531
tôn_sư 531
2,@@ 530
bill 530
lan_toả 530
phùng_@@ 530
nôn 530
hói 530
đánh_đập 530
sự-ký 530
ngượng 530
thốt_nhiên 530
tỉ_vương 530
sáng_kiến 529
10:@@ 529
sơ@@ 529
khuyết_tật 529
wi@@ 529
ố 529
háo_hức 529
láng_giềng 529
trương_tĩnh_chi 529
bạch_tiêu_thiên 529
ck@@ 528
phá_sản 528
khảo 528
đơn_thuần 528
ju@@ 528
thu_hà 528
tuổi_đầu 528
lẩm_nhẩm 528
rắn_độc 528
lắng 527
đực 527
chủ_quan 527
a-@@ 527
đờ 527
phòng_ngự 527
tình_nghĩa 527
thuẫn 527
kumiko 527
72 526
bút_chì 526
tỵ 526
xoã 526
bất_công 526
chloe 526
nôn_nóng 526
thưa_@@ 526
cao_dương 526
ếch 525
giá_lạnh 525
dơi 525
thí_dụ 525
lên_tiếng_nói 525
ổn_thoả 525
nhộn_nhịp 525
tiểu_thi 525
võ_phục 525
giả_mạo 524
vùng_sâu_vùng_xa 524
chua 524
mầm 524
mất_mát 524
kiên_cường 524
ngộ_nghĩnh 524
thất_nghiệp 524
htc 524
sĩ_tử 524
thuỵ 524
hồ_thanh_ngưu 524
vigor 524
u.@@ 523
nội_tâm 523
thẩm_mỹ 523
tắm_rửa 523
cây_cỏ 523
dân_gian 523
chanh 523
ăn_thua 523
như_vầy 523
mr_đàm 523
đau_xót 523
giáo_huấn 523
quắc 523
bú 522
tàn_phá 522
báo_hiệu 522
tra_hỏi 522
ai_lại 522
bốc_thiên_chí 522
lưu_hành 521
biên_bản 521
mộc_@@ 521
cầu_@@ 521
7853 521
đề_cao 521
mệt_nhọc 521
khả_nghi 521
đồ_sộ 521
học_đường 521
nệm 521
bình_phong 521
náo 521
giang_đô 521
kỵ_mã 521
nghiệp_vụ 520
chuyển_nhượng 520
mạnh_dạn 520
thon 520
lách_cách 520
mai_siêu_phong 520
iraq 519
ly@@ 519
pro@@ 519
79@@ 519
phạm_thị@@ 519
trông_coi 519
thành_thực 519
kế_sách 519
bác_học 519
ðáng 519
trung_thổ 519
tổng_@@ 518
nghị_định 518
phân_công 518
khí_huyết 518
chực 518
lầy 518
vua_@@ 518
bẩy 518
hoá@@ 517
es 517
trung_thực 517
hành_@@ 517
ẩu 517
nhỏ_nhắn 517
stephen 517
nhiên_liệu 517
man_city 517
khiêu_khích 517
lương_thiện 517
ly_khai 517
thảy 517
bịnh 517
tân_khách 517
viên_chức 516
tiền_đạo 516
es@@ 516
mòn 516
cọ 516
́p 516
tru 516
duyệt 516
mờ_mịt 516
bịa 516
phân_tán 516
phịch 516
lương_thảo 516
vũ_@@ 515
bỏ_phiếu 515
vi_khuẩn 515
hệ_điều_hành 515
xứ_sở 515
ley 515
a. 515
tượng_trưng 515
ðối 515
hẹn_hò 514
khoa_@@ 514
ớt 514
bướng_bỉnh 514
ương_@@ 514
tác_phong 514
hợp_lực 514
hoàng_thái_hậu 514
pippi 514
thiết_thực 513
và@@ 513
hiện_thời 513
liên_tưởng 513
gánh_vác 513
ngưu 513
11/9 513
cố@@ 513
cứu_giúp 513
kết_bạn 513
bí_hiểm 513
ngáp 513
binh_pháp 513
thê 513
đại_đội 513
dới 513
quanh_co 512
́m 512
tức_thời 512
thiếu_thốn 512
nghiêm_chỉnh 512
tứ_phía 512
thi_trắc_nghiệm 512
vân_dịch_lam 512
thái_hân 512
lõi 511
ad@@ 511
bệnh_tình 511
phòng_bệnh 511
thua_kém 511
rải_rác 511
sưởi 511
bu 511
quy_luật 511
nhạn 511
lập_công 511
kế_thừa 511
đả_kích 511
bộ_hạ 511
du_vũ_cường 511
ạch 510
đầu_mối 510
mới_lạ 510
bộ 510
cờ_bạc 510
bộ_binh 510
tri_kỷ 510
điềm_nhiên 510
thường_hà 510
lý_xuân_hồng 510
bất_trắc 509
cầu_hôn 509
nhà_hát 509
quần_đảo 509
đại_hoạ 509
lục_soát 509
chiếc 509
kinh_hồn 509
yvette 509
giăng_vangiăng 509
tiến_triển 508
cư 508
hảo_tâm 508
thực_tập 508
lung_linh 508
tối_om 508
ghê_rợn 508
myanmar 507
700 507
land 507
ọ@@ 507
thiệp 507
́ng 507
ướp 507
cao_thấp 507
đăng_quang 507
btc 507
ðảng 507
hall 507
ler 506
nghị_lực 506
tá 506
/11/2011 506
lôi_cuốn 506
tôn_vinh 506
triết_lý 506
len_lén 506
chuỳ 506
dã_tâm 506
sa_sầm 506
thanh_lâu 506
hoa_yêu 506
thị_phi 505
57 505
bv 505
chật 505
điều_dưỡng 505
thăm_hỏi 505
tay_vợt 505
bừng_bừng 505
bạch_vạn_kiếm 505
5% 504
/@@ 504
i @@ 504
nước_nhà 504
lắc_lắc 504
kế_toán 503
yo@@ 503
tường_tận 503
đau_buồn 503
nguyễn_th@@ 503
bung 503
champions_league 503
rối_bời 503
biếc 503
chập_chờn 503
kháng_chiến 503
thái_thú 503
khối_lượng 502
xa@@ 502
kỳ 502
dạt 502
vấp 502
y_dược 502
ví_như 502
định 502
linh_cảm 502
đất_liền 502
phản_cảm 502
ích_kỷ 502
đại_việt 502
nộ 502
nhứt 502
bất_thần 502
quách_khai 502
tây_bắc 501
tố@@ 501
11:@@ 501
mặt_trận 501
ngày_kia 501
liên_hợp_quốc 501
úi 501
pho@@ 500
kiêu_hãnh 500
tim_mạch 500
vô_cớ 500
nước 500
ơ@@ 500
sòng 500
khát_khao 500
thu_cúc 500
thúc_giục 500
mơ_mộng 500
thám_thính 500
a_hoàn 500
com@@ 499
thiên_tài 499
nguyên_liệu 499
nước_@@ 499
euro 499
tạ@@ 499
khao_khát 499
phiêu_lưu 499
lụt 499
tĩnh_mịch 499
ðang 499
thuỳ 498
mồ 498
huỳnh 498
xem_thường 498
scandal 498
hàng_ngũ 498
tiêu_tán 498
sủng_ái 498
chi_nhánh 497
mài 497
lăn_lộn 497
báu_vật 497
bảo_mật 497
thương_cảm 497
mãn_nguyện 497
nghiêm_mật 497
man@@ 496
mại_dâm 496
dáng_điệu 496
nhất_trí 496
náo_loạn 496
tưng_bừng 496
tuyệt_nhiên 496
lịnh 496
thiểm 496
cải_tạo 495
bơm 495
thô_lỗ 495
ồ_ạt 495
cẩm_@@ 495
duy@@ 495
iacute 495
thóc 495
nói_gì 495
giao_chiến 495
thớt 495
nhớn 495
biến_động 494
nâng_cấp 494
huy_hoàng 494
cơ_chế_thị_trường 494
bất_tiện 494
y_khoa 494
tận_hưởng 494
thủ_thuật 494
quý_phi 494
giãn 493
chủ_nghĩa 493
tv 493
cảm_hứng 493
vũng_tàu 493
hoan 493
bạo 493
cũ_kỹ 493
khó_dễ 493
đầy_tớ 493
đạo_huyền_chân_nhân 493
xoá_bỏ 492
khuyết_điểm 492
chuyên_@@ 492
đen_tối 492
dệt 492
sảng_khoái 492
việt_kiều 492
bạn 492
thình_thịch 492
ngượng_ngùng 492
cào 492
chủ_lực 492
bobby 492
nhất_nhất 492
tuấn_mã 492
hiền_điệt 492
dứt_điểm 491
vùng_biển 491
sinh_@@ 491
chuyển_hướng 491
dép 491
hồi_âm 491
ú 491
lạ_mặt 491
thảo_nào 491
vù 491
bách_tính 491
huyết_ðao 491
đình_đám 490
ngoại_@@ 490
hoàn_chỉnh 490
dầu_khí 490
tái_nhợt 490
điểm_số 490
19/11 490
rền 490
đuối 490
biết_ơn 490
đào_hoa 490
uông_dụ_hàm 490
thuộc_lòng 489
giá_như 489
au@@ 489
xe@@ 489
đa_khoa 489
thu_hoạch 489
tuổi_thơ 489
tình 489
john_@@ 489
lừng_danh 489
binh_@@ 489
hắn 489
châu_nhân_ký 489
51 488
lưu_bị 488
chứa_đựng 488
ủng 488
tận_tâm 488
tiếng 488
ngang_ngược 488
mới_rồi 488
dương_quảng 488
ðinh_ðang 488
công_thức 487
36@@ 487
cao_su 487
par@@ 487
đổ_bộ 487
phá@@ 487
giải_toả 487
chương_@@ 487
rỉ 487
cố_vấn 487
níu 487
nghị_luận 487
quát_mắng 487
khán_như 487
cát_hiểu_phong 487
/5 486
nấc 486
au 486
lọc 486
bùa 486
choáng 486
m. 486
đổ_nát 486
mướn 486
còng 486
cảnh_sắc 486
đê_tiện 486
mẹ_kiếp 486
đít 486
kỵ_sĩ 486
thệ 486
ðịnh_tĩnh 486
huyền_từ 486
thuỷ_sanh 486
số_một 485
fo@@ 485
rán 485
09:@@ 485
khăng_khăng 485
́i 485
trường 485
_dương 485
tốt_bụng 485
học_kỳ 485
016@@ 485
ninh_bình 484
bình_chọn 484
hoạn_nạn 484
vi_tính 484
thiện_cảm 484
ã 484
boong 484
mariuyt 484
vậy 484
mạch_kỳ 484
lào_cai 483
chuyển_biến 483
xốc 483
hiểm_nghèo 483
7909 483
trong_sạch 483
liên_hồi 483
xâm_hại 483
tính_nết 483
ban_nãy 483
jesus 483
tru_tiên 483
truy_kích 483
hạ_thần 483
ðoàn_chính_thuần 483
hán_@@ 482
ngoại_lệ 482
thẫn_thờ 482
đơ 482
tiếng_vang 482
lũ_lụt 482
giam_giữ 482
sắc_màu 482
trần_hải 482
súc_sinh 482
tây_vực 482
doãn_trừng 482
thường_vụ 481
john 481
ngao 481
fifa 481
nghi_lễ 481
thiếu_@@ 481
khinh_thường 481
we@@ 480
đặt_hàng 480
xo@@ 480
gian_nan 480
nguy_kịch 480
có_thai 480
trạng 480
lở 480
phỉ 480
yên_trí 480
đơn_độc 480
nữa 480
tiếp_đón 480
uẩn_khúc 480
pierre 480
rầm 480
kurt 480
trần_thị@@ 479
phê_duyệt 479
chi_trả 479
kha@@ 479
thoả_đáng 479
mê_man 479
chỉ_bảo 479
phu_quân 479
làm_ơn 479
xu@@ 478
bất_cập 478
nước_da 478
unicef 478
nhoẻn 478
chúng_sinh 478
thiêu_hoả_côn 478
63 477
trình_làng 477
thực_thi 477
chuyên_viên 477
ag@@ 477
thanh_quản 477
argentina 477
ba_lô 477
xót_thương 477
tái_hợp 477
í 477
thám 477
nỏ 477
giang_nam_song_hiệp 477
thiên_si 477
trúc_pháp_khánh 477
athena 477
harvey 477
ny 476
công_đoàn 476
riêng_biệt 476
chóng_mặt 476
chu_kỳ 476
thành_thị 476
xài 476
  @@ 476
a_s@@ 476
chung_@@ 476
dong 476
vu_@@ 476
dự_tính 476
linh_mục 476
nổ_súng 476
cất_giấu 476
nhục_nhã 476
đợi_chờ 476
võ_sư 476
tâm_địa 476
tăng_tốc 475
biện 475
dè_dặt 475
ia 475
thành_quả 475
xui 475
nil 475
thiên_trúc 475
ngô_chi_vinh 475
.000 474
xương_sống 474
sàng 474
chế_ngự 474
chòm 474
iên_@@ 474
phụ@@ 473
đa_@@ 473
đặc_trưng 473
thứ 473
êm_ái 473
tài_ba 473
phù_hộ 473
khấn 473
quách_tỉnh 473
phàn_nàn 472
công_nghệ_thông_tin 472
nha@@ 472
85 472
chăn_nuôi 472
ir@@ 472
buồn_ngủ 472
đái 472
sĩ 472
hầu_@@ 472
tự_ái 472
quý_khách 472
_hoả 472
tức_cười 472
thế_ra 472
3.@@ 471
tiền_mặt 471
tự@@ 471
bàn_giao 471
ct 471
chân_thật 471
bề_mặt 471
nồng_nặc 471
súc_vật 471
lên_lớp 471
đánh_rơi 471
12/2 471
ề 471
ngạo_mạn 471
ghì 471
mãn_châu 471
hành_sơn 471
vô_luận 471
nam_bút 471
độc_ma 471
cáp 470
nhi_đồng 470
trình_@@ 470
< 470
banh 470
bình_đẳng 470
nổi_loạn 470
suy_tư 470
an_nguy 470
68 469
đồng_nghĩa 469
tình_thương 469
nguyên_văn 469
năng_động 469
then 469
địa_hình 469
danh_vọng 469
điểm_cao 469
hình_thù 469
lý_mục 469
bình_quân 468
thật_thà 468
làm_@@ 468
thoại 468
vơi 468
file 468
quang_liêm 468
cử_hành 468
thu_dọn 468
chỉnh_tề 468
khựng 468
đạo_phúc 468
tuyết_nghi 468
v.v 467
nghi_thức 467
quanh_quẩn 467
thời 467
ở@@ 467
đồng_cỏ 467
đền_bù 467
khó_nhọc 467
hình_@@ 467
kình_địch 467
thiêng 467
công_sai 467
vèo 467
nhậm_dao 467
âm_hiển_hạc 467
sh 466
hữu_ích 466
bẩm_sinh 466
n_l@@ 466
ồng 466
thế_@@ 466
vâng_dạ 466
6/2 466
hỏi_đáp 466
bĩu 466
cựa 466
hân_hạnh 466
khinh_bỉ 466
ẩn_cư 466
ðinh_ðiển 466
cân_đối 465
tàn_khốc 465
39@@ 465
62 465
tẩy 465
̣p 465
cứu_vãn 465
khích 465
bà 465
thất_lễ 465
phù_dung 465
ʺ@@ 465
cung_ứng 464
tính_khí 464
để_mắt 464
ám_chỉ 464
el 464
ứ 464
–@@ 464
xướng 464
cái_@@ 464
hứa_@@ 464
đại_uý 464
kiều_loan 464
nam_cương 464
bách_hoa 464
nhược_điểm 463
ác_@@ 463
tiều_tuỵ 463
sự_vật 463
ló 463
đèn_lồng 463
bẽn_lẽn 463
đếm_xỉa 463
làm_phản 463
cười_mát 463
giáo_đồ 463
đại_chu_thiên 463
dân_sự 462
bức_xạ 462
biển_cả 462
bế_tắc 462
hãi_hùng 462
manh 462
nhàn 462
yêu_đương 462
sấm_sét 462
lôi_thôi 462
xúc_xắc 462
tào_thu_ðạo 462
kéo_theo 461
giá@@ 461
kép 461
huynh_trưởng 461
nước_biển 461
nhìn_chung 461
say_xỉn 461
thờ_ơ 461
chòi 461
to_tướng 461
angielic 461
lý_thu_thuỷ 461
nói.@@ 460
ss 460
thành_đạt 460
trọng_trách 460
chùng 460
bi_kịch 460
thiên_hà 460
poirot 460
tưởng_tư_thừa 460
phao 459
thanh_xuân 459
nom 459
sơ_ý 459
quàng 459
mạnh_lương 459
liên_@@ 458
66 458
tôn_quyền 458
bánh_@@ 458
khu_phố 458
tương_@@ 458
hư@@ 458
chân_tình 458
khích_lệ 458
quyết_đoán 458
_sơn 458
phục_kích 458
hội_họp 458
âm_dương 458
kỹ_nữ 458
 458
dồi_dào 457
số@@ 457
khê 457
tông_@@ 457
tổng_bí_thư 457
liễu_@@ 457
thoi 457
phò 457
vương_tích_hương 457
mặn 456
bản_thảo 456
tiếp_đãi 456
phùng_tích_phạm 456
chuyển_giao 455
3,@@ 455
ị@@ 455
chính_đáng 455
bóng_ma 455
andrei 455
phi_yến 455
nghi_hoà 455
a.@@ 454
vô_ý 454
bắt_nạt 454
cải_tiến 454
vóc_dáng 454
văn_th@@ 454
gia_súc 454
bắt_nguồn 454
vòi 454
phấn_khích 454
sơn_đông 454
chuốc 454
trắng_xoá 454
người_xưa 454
trở_mặt 454
xử_tử 454
lo_nghĩ 453
quân_nhân 453
sô 453
bẩn_thỉu 453
part 453
quẳng 453
đằng_hắng 453
youtube 452
tion 452
_ng@@ 452
huấn 452
lưu_giữ 452
tả@@ 452
news_@@ 452
găm 452
sato 452
đông_nam_á 451
ds 451
hàng_không 451
neo 451
ngại_ngùng 451
ss@@ 451
nhiễm_trùng 451
cồn 451
đắc_lực 451
vôi 451
nguyễn_hữu_@@ 451
chiến_binh 451
sáng_chế 451
hỉ 451
chấp_hành 451
bạch_dương 451
4-@@ 450
tưới 450
năng_khiếu 450
cà 450
nguôi 450
tận_cùng 450
quốc_dân 450
say_đắm 450
thể_diện 450
lục_ðại_hữu 450
10% 449
nhầm_lẫn 449
bền 449
sto@@ 449
phú_quý 449
oa 449
chiên 449
7911 449
23/12 449
vừa_ý 449
lập_trường 449
iaea 449
tàu_ngầm 449
thế_trận 449
vả 449
hoang_vu 449
dư_hồng 449
liên_tấn 449
khất_ðan 449
phân_loại 448
nội_@@ 448
nhấp 448
ya 448
thức_giấc 448
hào_khí 448
bịa_đặt 448
đèn_đuốc 448
cơ_thiên_khuyết 448
dư_thượng_hải 448
quan_tam_thắng 448
hồi_tưởng 447
triều_đại 447
thể_dục 447
mí 447
ngạc 447
công_trường 447
giáo_@@ 447
hớp 447
bửu_châu 447
cao_cả 447
lạnh_ngắt 447
lên_án 447
hoài_lâm 447
chôn_cất 447
xa_xăm 447
ngông_cuồng 447
thừa_thế 447
ngạnh 447
kinh_sư 447
304 446
m-@@ 446
bạch@@ 446
bin 446
đa_tình 446
ớ 446
trừng_trị 446
tuy_rằng 446
trấn_thủ 446
78@@ 445
van@@ 445
je@@ 445
dỡ 445
tú_anh 445
trí@@ 445
nếu 445
đất_trời 445
album 445
bâng_khuâng 445
điên_đảo 445
hạ_mình 445
khởi_nghĩa 445
vị_tất 445
tổ_thiên_thu 445
đại_giang 445
kim_bất_hoán 445
thập_kỷ 444
california 444
5-@@ 444
ẩn_chứa 444
cơn_sốt 444
mỏng_manh 444
quyền_thế 444
bản_sao 444
phát_tài 444
lỗ_mãng 444
lena 444
tráng_sĩ 444
phản_nghịch 444
ngừi 444
chơi_đùa 443
khía_cạnh 443
thực_trạng 443
biến_chứng 443
nhắn_tin 443
ugrave 443
súc 443
les 443
tiết_@@ 443
mấu_chốt 443
bắt_@@ 443
trì_sanh_xuân 443
dự_phòng 442
ab@@ 442
st 442
gây_chuyện 442
tiếp_thu 442
chớp_nhoáng 442
ách 442
liên_can 442
diễn_tả 442
chữ_viết 442
hoàng_thành 442
xanh_biếc 442
quý_phái 442
tuyết_sơn 442
đào_thục_nhi 442
hiệp_định 441
đi_@@ 441
sơn_tây 441
gd 441
đông_đúc 441
hội_chứng 441
tiểu_đường 441
lam_@@ 441
sát_@@ 441
nghịch_ngợm 441
môn_@@ 441
bô@@ 441
bố_con 441
tái_ngộ 441
trần_thủ_độ 441
đờ_đẫn 441
tiêu_sái 441
tổng_binh 441
đình_phương 441
giả@@ 440
rầm_rộ 440
vn@@ 440
thảo_dược 440
am_@@ 440
tra_tấn 440
bả_vai 440
gar@@ 440
biểu_thị 440
chân_lý 440
chừa 440
celine_dion 440
tiên_liệu 440
vang_vọng 440
hăm_doạ 440
dòm_ngó 440
thâm_trầm 440
thái_tôn 440
khất_đan 440
hội_nhập 439
hà_@@ 439
nd@@ 439
2/@@ 439
số_ít 439
đồng_bằng 439
cấy 439
67 439
phân_tâm 439
lười 439
vậy 439
chủng 439
tử_thần 439
kính_@@ 439
nắn 439
ực 439
ỵ 439
rợn 439
chẳng_là 439
khẳng_khái 439
yên_nhiên 439
giúp_sức 438
phạm_văn_@@ 438
ố@@ 438
nhận_diện 438
cây_bút 438
gia_lai 438
danh_nghĩa 438
lùng 438
biên_chế 438
mẻ 438
căm_ghét 438
tương_trợ 438
hỡi_ơi 438
thế_dân 438
_châu 437
quả@@ 437
as@@ 437
trường_@@ 437
08:@@ 437
thể_lực 437
quấy 437
̀m 437
b. 437
ệ 437
nhượng 437
thiên_tai 437
liều_lĩnh 437
kiều_@@ 437
thanh_bình 437
trần_quốc_tuấn 437
kỳ_bí 437
bay_bổng 437
hự 437
réo 437
quan_lại 437
nhăng 437
cảm_khái 437
đỗ_hưng 437
vân_soái 437
lộc_công 437
bộ_môn 436
lây_nhiễm 436
men@@ 436
nguyền_rủa 436
chìm_đắm 436
nghi_@@ 436
nóng_ruột 436
trai_gái 436
đĩnh 436
cười_gằn 436
niên_hiệu 436
chung_thất 436
hoa@@ 435
59 435
250 435
30% 435
uỷ_thác 435
chứng_cứ 435
chật_hẹp 435
cổ_đại 435
cửa_ải 435
hẻo_lánh 435
ràng_buộc 435
hình_tượng 435
che_khuất 435
khẩu_khí 435
hơi_sức 435
ngoã_cương 435
phạm_dao 435
tù_và 434
ngăn_ngừa 434
q. 434
bs 434
vạn_vật 434
chi_cục 434
giấu_giếm 434
and 434
phẳng 434
kỳ_thị 434
rằm 434
7855 434
7919 434
chứng_thực 434
n1 434
thân_yêu 434
girls_aloud 434
triết_học 434
tứ_xuyên 434
khấu_đầu 434
mộc_cao_phong 434
nhã_lan 434
công_suất 433
nha_trang 433
mong_ước 433
chỉ@@ 433
chăm_lo 433
ca_hát 433
lời 433
p. 433
trấn_an 433
nhiêu 433
nạt 433
hùng_mạnh 433
19/2 433
van_xin 433
tan_tành 433
gợn 433
vạn_nhất 433
1975 432
ninh_@@ 432
tàn_phế 432
hữu_nghị 432
â@@ 432
2730@@ 432
nhân_chứng 432
ục 432
dằn_mặt 432
rặng 432
suy_tính 432
loang_loáng 432
bàn_cờ 432
thật_tình 432
thánh_chỉ 432
khuyên_giải 432
cáo_biệt 432
lý_tú_ninh 432
phổ_trí 432
lữ_bố 432
tứ_chi 431
vật_thể 431
đắn_đo 431
lúc 431
nhà_trọ 431
teng 431
khai_@@ 431
tức_khắc 431
quẹo 431
quân_lính 431
hầm_hầm 431
bay_lượn 431
ernest 431
2003 430
hằn 430
nhìn 430
quấy_rầy 430
cài_đặt 430
_hà 430
bangkok 430
trong_ngoài 430
tối_sầm 430
quí_vị 430
phụng_mệnh 430
thông_thiên_phong 430
dương_khang 430
loren 430
tiêu_lĩnh 430
đỗ_tất_thư 430
hà_vỹ 430
tương_ứng 429
/7 429
ròng 429
95 429
quốc_lộ 429
quảng_trị 429
her@@ 429
trêu_chọc 429
ngà 429
kỳ_quặc 429
hờ_hững 429
áp_giải 429
tri_phủ 429
lưu_trữ 428
lan@@ 428
khắc_nghiệt 428
hoà_nhập 428
trưng_bày 428
sĩ@@ 428
chính 428
tốn_kém 428
ruồi 428
ngoài_miệng 428
con_nuôi 428
táo_bạo 428
suy_ngẫm 428
kohler 428
tù_binh 428
giới_luật 428
phong_tế_trung 428
ác_tăng 428
đinh_xuân_thu 428
suy_giảm 427
chí_ít 427
cuống 427
cha_xứ 427
dính_líu 427
1,000,000 427
gia_trang 427
vớ_vẩn 427
thở_hắt 427
phí_công_lượng 427
động_thái 426
hoa_quả 426
khuôn_viên 426
hai_bà_trưng 426
lã@@ 426
hưng_@@ 426
rụi 426
gò_má 426
quá@@ 426
ebola 426
bấy_lâu_nay 426
vinh_danh 426
đều_đều 426
tự_vẫn 426
trương_phi 425
trần_th@@ 425
cuộc 425
cầm_cự 425
biên_tập 425
fu@@ 424
thác 424
hốc 424
lư@@ 424
dư@@ 424
muốn 424
đương_đầu 424
bằng_phẳng 424
huyền_ảo 424
thuỳ_trang 424
nhấp_nháy 424
tạo_hoá 424
thanh_nhã 424
trá 424
bần 424
tiểu_thuý 424
ngoạn_mục 423
thâm_nhập 423
đường_thuỷ 423
mật_độ 423
ch_@@ 423
ắng 423
d_@@ 423
sinh_đôi 423
tĩnh_@@ 423
tày 423
đánh_cá 423
nhâm_thìn 423
thẩm_@@ 423
xao_xuyến 423
từ_giã 423
chùi 423
công_nhiên 423
phát_xuất 423
ooo 423
tiêu_tiễn 423
57@@ 422
p-@@ 422
công_vụ 422
đi_chăng_nữa 422
hành 422
xe_lăn 422
roma 422
viếng 422
húc 422
làm_tình 422
tính_mệnh 422
nhị_nguyễn_@@ 422
cẩn_trọng 421
46@@ 421
88@@ 421
vừa_phải 421
chè 421
da_@@ 421
phiền_muộn 421
tiếc_nuối 421
đấu_trường 421
hùng_@@ 421
viền 421
ngồi_xếp_bằng 421
lờ 421
khéo_tay 421
cứu_hộ 421
tuồng 421
tư_chất 421
thính 421
đương_thời 421
đêu 421
vu_anh 421
khiếu_nại 420
3% 420
ký_kết 420
học_@@ 420
nhiệt_huyết 420
vị_thế 420
rốt_cục 420
đố 420
ngứa 420
ge 420
trấn_áp 420
lê_văn_luyện 420
lưng_chừng 420
lãnh_giáo 420
bỉ_nhân 420
tạ_yên_khách 420
hết_mình 419
lớn_mạnh 419
khoai 419
tuyển_chọn 419
khốc_liệt 419
nữ@@ 419
hương_vị 419
ll 419
số 419
ẩm_ướt 419
_viên 419
quý_báu 419
moi 419
đùa_giỡn 419
không_khéo 419
đại_bác 419
dữ_tợn 419
thẩm_vấn 419
giảo_hoạt 419
thư@@ 418
khổ_tâm 418
cửa_kính 418
túi_xách 418
bi_thảm 418
lý_lẽ 418
thừ 418
tiến_công 418
hèn 418
dương_nghiệp 418
thiên_gia 418
03@@ 417
thành_đô 417
bị_động 417
giàn 417
cà_mau 417
dân_làng 417
̉ng 417
hàng 417
chua_xót 417
phần_thưởng 417
cầm_quyền 417
mấy_mươi 417
thiên_văn 417
núi_non 417
phất_trần 417
 đáp 417
sách_giáo_khoa 416
lan_truyền 416
trọng_tâm 416
mạnh_tay 416
tokyo 416
nghiền 416
mát_mẻ 416
hiếu_@@ 416
phái_đoàn 416
nhỡ 416
yến_tiệc 416
diên_khánh 416
hoang_đường 416
hình_thế 416
ðinh 416
bất_đồ 416
lộc_trượng_khách 416
ra_quân 415
nhọc_nhằn 415
trang_@@ 415
báo_giới 415
chị_em_ruột 415
khoác_áo 415
tin_học 415
mái_chèo 415
dượng 415
trổ_tài 415
đáng_giá 415
tắt_thở 415
rối_rít 415
tức_mình 415
hoa_hoa 415
2.000 414
hoành_tráng 414
ta_@@ 414
ống_kính 414
tơ@@ 414
thi_thoảng 414
lối_thoát 414
rốt 414
e_dè 414
đỗ_@@ 414
ỉ 414
djokovic 414
múc 414
bảo_trọng 414
tướng_quốc 414
thiên_ðịa_hội 414
vương_hột 414
tình_tiết 413
cơ_nghiệp 413
đường_nét 413
đi@@ 413
bảo_quản 413
khai_sinh 413
cái_trò 413
phong_thuỷ 413
bệ 413
yêu_kiều 413
đường_đường 413
long_tuyền 413
trác_kiều 413
ð@@ 413
08 412
cá@@ 412
ur@@ 412
cia 412
gom 412
quay_phim 412
chơi_lễ 412
khắc_@@ 412
chữ_ký 412
thực_tại 412
justin 412
sư_cô 412
chạm_trán 412
danh_từ 412
thứ_lỗi 412
dương_công_bảo_khố 412
tiên_thiên 412
doãn_thanh_nhã 412
cừu_thiên_nhận 412
net 411
74 411
tập_thể_dục 411
hấp_thụ 411
sử@@ 411
vỗ_về 411
hải_dương 411
đi_sâu 411
eleanor 411
gác 411
do_thám 411
thoang_thoảng 411
bênh_vực 411
ðộc 411
ðan 411
dư_thương_hải 411
trợ_cấp 410
phòng_không 410
kiểm_định 410
us 410
ai@@ 410
nghiệm 410
n_s@@ 410
trao_tặng 410
at@@ 410
thân_mến 410
phê 410
khô_khan 410
chết_chóc 410
ân_nhân 410
linh_chi 410
nhói 410
bỏ_hoang 410
phanh 410
phăng 410
kỳ_sơn 410
phụ_cận 410
bụng_dạ 410
hạ_tầng 409
lập_luận 409
run_sợ 409
đau_nhức 409
yết_hầu 409
sống 409
thủ@@ 409
9/1 409
xẻ 409
vồ 409
phục_nan_đà 409
phẩm_chất 408
ngô_@@ 408
đặc_thù 408
3/2 408
côn_trùng 408
tấp_nập 408
dạ@@ 408
cận_cảnh 408
ây 408
tai_hại 408
ranh_giới 408
giẫm 408
tuần_tra 408
nhân_tâm 408
rập 408
xương_cốt 408
tri_huyện 408
nắng_nóng 407
cao_độ 407
thầy_cô_giáo 407
nữ_thần 407
choang 407
thiết 407
cối 407
đại_lễ 407
tế_nhị 407
dí 407
nhàn_nhã 407
loạn_xạ 407
dặng 407
nhân_số 407
quách_tương 407
cố_định 406
bảo_trì 406
ll@@ 406
nga@@ 406
che_đậy 406
tu_@@ 406
bách_khoa 406
bơ 406
giường_bệnh 406
ăng_@@ 406
không_lưu 406
cổ_tích 406
uông 406
26/12 406
màn_kịch 406
quỳnh_anh 406
chú_rể 406
ào_ạt 406
qh 406
bánh_bao 406
bá_tánh 406
uy_phong 406
cố_nhiên 406
đinh_điển 406
bao_bất_đồng 406
đơn_uyển_tinh 406
bao_bất_ðồng 406
tô_phi 406
vô_biên 405
tự_lập 405
cách 405
khác 405
đại 405
chị 405
ùng 405
chiều_tối 405
gượng_gạo 405
phong_tục 405
sóng_thần 405
mourinho 405
liverpool 405
om_sòm 405
thanh_tuyền 405
chuẩn_xác 405
bồi_hồi 405
thôi_@@ 405
căm_thù 405
quốc_công 405
bách_hoa_sơn_trang 405
pa 404
chiến_hạm 404
cư_trú 404
tinh_xảo 404
bỏ_mạng 404
tư_pháp 404
chào_đời 404
ner 404
ngần 404
/01/2012 404
đoan_trang 404
lùa 404
sước 404
ðào_căn_tiên 404
lạ@@ 403
vô_nghĩa 403
ứ@@ 403
ban@@ 403
luộc 403
protein 403
lai_@@ 403
rèn 403
cor@@ 403
1000 403
thật 403
thư_thái 403
di_tích 403
biết_mấy 403
hành_hung 403
vẳng 403
tham_kiến 403
ngữ_khí 403
thông_tư 402
hung_thần 402
pakistan 402
pha@@ 402
im_lìm 402
gắng_sức 402
đu@@ 402
tang_lễ 402
mong_mỏi 402
lisa 402
lữ@@ 402
bạch_liên 402
định_mệnh 402
nện 402
đích_xác 402
ác_nhân 402
dĩnh_thuỷ 402
tích_luỹ 401
đông_dương 401
ine 401
tê_liệt 401
uacute 401
nhún 401
khăn_tay 401
con_tin 401
hối_lộ 401
cố_thủ 401
liên_hoan_phim 401
dẫm 401
lý_h@@ 401
chính_diện 401
hậu_bối 401
đúng_ra 401
uy_danh 401
vương_hãn 401
hàm_@@ 400
huỷ_bỏ 400
tạp_hoá 400
đồng_bộ 400
82 400
tột_cùng 400
bước_đầu 400
học_vấn 400
nguội 400
cưa 400
phần_nhiều 400
kim_dung 400
bé_con 400
tròn_xoe 400
nhí 400
vân_canh 400
làm_bàn 400
sặc_sỡ 400
cốp 400
xâm_lược 400
hỡi_ôi 400
trinh_sát 400
rình 400
5,@@ 399
2019@@ 399
phát_@@ 399
tiếp 399
chật_vật 399
tay_trong 399
chi_phối 399
đảo_lộn 399
ngăn_cách 399
bangladesh 399
thiếu_tá 399
chua_chát 399
trần_viên_viên 399
gia_bang 399
nguyễn_nguyễn_@@ 399
rôlinh 399
la_võng_cơ 399
bốn_phương 398
_thanh 398
na_@@ 398
ẩm_thực 398
từ_ngữ 398
trống_ngực 398
đăng_@@ 398
ngu@@ 398
_hải 398
7903 398
tự_vệ 398
võ_thuật 398
xuống_đường 398
kiều_diễm 398
chăng_nữa 398
lôi_@@ 398
ca_tụng 398
pháp_sư 398
nghĩa_hiệp 398
hằn_học 398
quỷ_quái 398
thiên_sư 398
mp@@ 397
đà@@ 397
ngậm_ngùi 397
bê@@ 397
nấu_nướng 397
chuyện 397
du_ngoạn 397
cô_lập 397
bấy_lâu 397
trảm 397
bộ_chính_trị 397
sống_động 397
án_mạng 397
định_đoạt 397
két 397
đã_đành 397
rết 397
ôn_tập 397
nhỏm 397
nói_láo 397
thống_lãnh 397
tiểu_hương 397
ngọc_đỉnh 397
trái_phiếu 396
bộ@@ 396
tự_tại 396
môi_giới 396
lột_xác 396
chích 396
kar@@ 396
gắp 396
vận_tốc 396
gài 396
ghê_tởm 396
la_mã 396
lặng_yên 396
đâu_đây 396
trìu_mến 396
lảng 396
lại_@@ 396
thắm 396
thành_hôn 396
bá_đạo 396
hạo 396
buồn_bực 396
uyển_nhi 396
tiểu_quận 396
bình_tây_vương 396
nhị_cổ 396
nguyên_soái 396
68@@ 395
nguyệt_@@ 395
học_giả 395
bùng_phát 395
77 395
quanh_năm 395
sưu_tầm 395
tử_@@ 395
mất_công 395
chống_trả 395
luân_hồi 395
27309@@ 395
elvis_đậu 395
y.@@ 394
gián_điệp 394
cắt_giảm 394
dị_nhân 394
hồng_hào 394
triệt 394
thân_xác 394
ngay_tức_khắc 394
triền 394
cướp_bóc 394
dante 394
ròng_ròng 394
tiểu 394
hồi_sinh 393
61 393
mẹo 393
hiển_thị 393
ca_@@ 393
làm_giàu 393
ứng_biến 393
blog 393
ngạo_nghễ 393
nhồi 393
khôn_xiết 393
rỡ 393
ả-rập 393
sony 393
thiết_tha 393
đượm 393
tiến_cử 393
kinh_thiên_động_địa 393
trúc_@@ 393
bát_quái 393
ngớ 393
thành_thân 393
phi_ngựa 393
xua_đuổi 392
iii 392
keo 392
nguyễn_thị_@@ 392
gầy_gò 392
ay 392
ngư@@ 392
lốp 392
lạng_sơn 392
ngưỡng_cửa 392
lẩn 392
xảo_quyệt 392
lưu_nhất_chu 392
phú_thọ 391
chán_ghét 391
mui 391
78 391
:@@ 391
bụng_dưới 391
̉i 391
bắt 391
tiền 391
thế@@ 391
thân_nhân 391
chen_chúc 391
nương_tựa 391
mini 391
dụ_dỗ 391
chính_quy 391
camry 391
falko_goetz 391
tí_hon 391
chằm_chặp 391
đạo_pháp 391
cơ_mật 391
tần_thuỷ_hoàng 391
văn_sĩ 391
phong_vân 391
hồng_hộc 391
harvard 390
đun 390
hối_tiếc 390
đơ@@ 390
kèn 390
khí_công 390
trót 390
thụt 390
sắc_sảo 390
sành 390
ộ 390
thanh_thản 390
ghế_ngồi 390
ngập_tràn 390
hạt_giống 390
trực_giác 390
ct.ly 390
koko 390
sắn 389
cổ_điển 389
è@@ 389
76 389
79 389
mụn 389
tuỳ_thuộc 389
nước_hoa 389
sinh_động 389
/2010 389
ấm_ức 389
oan_uổng 389
đền_đáp 389
đụng_chạm 389
thẹn_thùng 389
ăn_chơi 389
khoe_khoang 389
bất_tận 389
kiến_thành 389
ngang_hàng 389
trở_tay 389
phản_tặc 389
đàm_dược_sư 389
xú 389
thạch_đầu 389
misca 389
danh_tính 388
cần 388
thấu_hiểu 388
bản_án 388
ngoại_thương 388
triển_chiêu 388
đẩu 388
nhẩy 388
sà 388
trừng_quan 388
khai_trương 387
phóng_xạ 387
nguyễn_đức_@@ 387
gen 387
thuê_bao 387
chuyển_hoá 387
nhang 387
tủ_lạnh 387
mất_ngủ 387
hũ 387
đọ 387
buồn_phiền 387
bản_nhạc 387
chuyên_tâm 387
sáng_sủa 387
vpf 387
ngùn_ngụt 387
trầm_tĩnh 387
thương_tiếc 387
tự_tiện 387
đinh_ninh 387
này.@@ 386
the_@@ 386
đảm_nhiệm 386
nội_địa 386
thống_đốc 386
mở_màn 386
bo 386
phái_đẹp 386
sốt_xuất_huyết 386
đầu_bếp 386
hao_tổn 386
texas 386
cứu_hoả 386
khổng 386
ăn_mừng 386
hay_ho 386
mộ@@ 386
19-8 386
11/1 386
ngọc_anh 386
hãnh_diện 386
yểu_điệu 386
phạn 386
nixon 386
chúng_mày 386
sào_huyệt 386
chừng_như 386
thoạt_tiên 386
ðàm 386
tiên_đế 386
trần_văn_@@ 385
nn 385
ạc 385
ac@@ 385
lên_cơn 385
bằng 385
2011-2012 385
óng 385
đặc_sắc 385
rừng_núi 385
30/12 385
giáo_phái 385
phất_phơ 385
khổ_não 385
quách_tường 385
vô_sắc 385
thi.@@ 384
06 384
ưu_điểm 384
bảo 384
chổi 384
olivia 384
công_hiệu 384
tham_mưu 384
bèo 384
cọc 384
móc_túi 384
lục_tục 384
đa_long 384
bạch_y 384
đình_phụng 384
rủi 383
u_l@@ 383
mệnh_danh 383
71 383
cao_to 383
ái_ngại 383
hiếp 383
mỹ_thuật 383
tụ_họp 383
nghe_đâu 383
dòm 383
phụ_hoạ 383
đầu_lâu 383
bôn_tẩu 383
đức_cha 383
kha_ngạch_luân 383
mỹ_phẩm 382
2% 382
cá_mập 382
l_@@ 382
đài_truyền_hình 382
mỏm 382
vạm_vỡ 382
bình_dân 382
ria 382
thu_nạp 382
xa_@@ 382
nhân_văn 382
nigel 382
tán_loạn 382
ần 382
lăng_@@ 382
đen_sì 382
tái_mét 382
đăm_chiêu 382
ngô_lập_thân 382
101 381
cs 381
bình_nhưỡng 381
trì_hoãn 381
vịn 381
nhũn 381
ùn_ùn 381
liêm 381
ẩn_náu 381
ngáy 381
nghĩa_@@ 381
đốn 381
a1 381
rita 381
đoàn_@@ 381
mông_lung 381
tụ_hội 381
thì_thôi 381
quan_công 381
vương_đạm_chân 381
thành_bại 380
trùng_hợp 380
chất_liệu 380
nho@@ 380
on@@ 380
/1@@ 380
ghi_điểm 380
lin 380
mách 380
trăn_trở 380
chóp 380
tay_@@ 380
diên 380
mal 380
nhà_tù 380
ngưng_tụ 380
muôn_ngàn 380
gầm_gừ 380
nhượng_bộ 380
hélène 380
ðào_chi_tiên 380
ắc 379
1990 379
ạ@@ 379
riết 379
ngốc_nghếch 379
ngắn_gọn 379
trang_trọng 379
thường 379
hỷ 379
nối_liền 379
ba_má 379
bugatti_veyron 379
xử_sự 379
xâu 379
vừa_lòng 379
kat 379
không_trí 379
châu_du 379
trịnh_thạch_như 379
hiện_hữu 378
thương_binh 378
tổng_thể 378
vu@@ 378
càn_quét 378
thực_vật 378
sứ_mệnh 378
quá_sức 378
thực 378
sam 378
lạc_đà 378
nhao_nhao 378
trọng_dụng 378
khét_tiếng 378
thăm_thẳm 378
dật 378
fache 378
thẩm_phán 377
sha@@ 377
sinh_sản 377
băng_bó 377
mang_tiếng 377
bộ_tộc 377
dối_trá 377
với_lại 377
kinh_thánh 377
tô_tinh_hà 377
monk 377
nồng_nhiệt 376
phú_yên 376
đà_lạt 376
lún 376
thuỵ_điển 376
chia_rẽ 376
ung_@@ 376
hữu_hiệu 376
mặc_cảm 376
ren@@ 376
đường_cong 376
qua_ngày 376
vô_phương 376
cẩm 376
khai_giảng 376
quảng_@@ 376
mê_mẩn 376
tài_giỏi 376
gớm 376
ân_tình 376
vui_nhộn 376
coi_bộ 376
buru 376
cao_tôn_giả 376
chung_ly 376
phi_đao 376
ðại 376
du_liên_châu 376
sinh.@@ 375
lâu_đời 375
za@@ 375
tú@@ 375
tương_tác 375
thuý@@ 375
búp 375
nuông_chiều 375
đối 375
nâng_đỡ 375
vừa 375
cạy 375
lữ 375
um_tùm 375
la_hán 375
an_ngọc_tình 375
vật_lộn 374
hạng_mục 374
48@@ 374
thân_cận 374
73 374
lân_cận 374
vinh_hạnh 374
cảm 374
atilde 374
xuống 374
giả_thuyết 374
giao_thừa 374
giằng 374
huệ@@ 374
chốc_chốc 374
thầy_tu 374
quả_phụ 374
hannibal 374
bất_giới 374
lưỡng_hồ 374
cầm_@@ 373
hđqt 373
4% 373
tand 373
đồ_dùng 373
et 373
cấp_độ 373
khẩn 373
zi@@ 373
sinh_dục 373
mĩ 373
vui_buồn 373
xê-út 373
bân 373
liên_châu 373
sai_bảo 373
tưởng_bình 373
công_tôn_ngọc_sương 373
tích_hợp 372
6,@@ 372
khánh_hoà 372
lên_xuống 372
ủ_rũ 372
nhân_tạo 372
cảnh_ngộ 372
xa_xưa 372
nhấp_nhô 372
khoanh 372
hưng_yên 372
điệu_bộ 372
giao_tranh 372
nam_an_khánh 372
chiêm 372
đáo 372
đàn 372
thanh_quang 372
giảng_giải 372
quân_chủ 372
ðổng 372
trực_thuộc 371
am_hiểu 371
nguồn_lực 371
lí_do 371
1-@@ 371
nữ_giới 371
qu 371
jean 371
xỏ 371
chúi 371
bỗng_chốc 371
victoria_beckham 371
dũng_khí 371
kim_hoàn 371
râu_tóc 371
lóng_lánh 371
kissinger 371
lí@@ 370
nhiệt_đới 370
đu 370
đặc_tính 370
chướng 370
69 370
nhân_đạo 370
hiền_hoà 370
5/2012 370
kỳ_ảo 370
cận_vệ 370
tiểu_đồng 370
hiểm_độc 370
quá_tải 369
31@@ 369
der@@ 369
cuốn_hút 369
phân_tử 369
đổ_dồn 369
quá_độ 369
phê_phán 369
trát 369
xe_cộ 369
chanel 369
kẻ_gian 369
giậm 369
jeff 369
chung_ly_triết 369
thẩm_tường 369
ðinh_bất_tứ 369
kiên_định 368
đống_đa 368
thiếu_sót 368
triển_vọng 368
độc_hại 368
7863 368
máy_@@ 368
báo_@@ 368
thần_diệu 368
trống_trải 368
tay_không 368
khùng 368
ban_giám_hiệu 368
điên_khùng 368
bõ 368
hannah 368
ðịnh_nhàn 368
việt_minh 368
khang_hy 368
ngô_lục_kỳ 368
ðổng_thục_trinh 368
4.@@ 367
hội_trường 367
ngành_nghề 367
ngoại_hình 367
is 367
vo 367
_lan 367
chân_thực 367
hiến_pháp 367
cừ 367
chu_toàn 367
thực_lòng 367
thảng_thốt 367
nhảy_nhót 367
bả 367
bảo_bối 367
chúng_bay 367
lẫm_liệt 367
tú_sĩ 367
kim_thống 367
suy_yếu 366
bù_đắp 366
phô_trương 366
inh 366
vùn_vụt 366
cắn_răng 366
bồi_bổ 366
ghe 366
nhỏ_nhặt 366
bus 366
ngôi_vị 366
đàm_@@ 366
giọng_điệu 366
thốc 366
trấn_@@ 366
cầm_tù 366
bán_đứng 366
ngoắt 366
gian_tế 366
tiểu_huyền_tử 366
claudia 366
0o0 366
thị_lang 366
cát_thiên_phong 366
khởi_công 365
phủ@@ 365
dấn_thân 365
xấp 365
lỗ@@ 365
cuộc_chơi 365
nối_tiếp 365
bắp 365
bổ_ích 365
trăn 365
độc_nhất 365
tà@@ 365
diệu_@@ 365
cõi_đời 365
ệ@@ 365
trần_gian 365
xuất_chúng 365
tràn_trề 365
quốc_hưng 365
kết_liễu 365
nội_thị 365
sẳn 365
ngọc_dương_tử 365
1% 364
thị_@@ 364
tổ@@ 364
phở 364
é 364
cột_sống 364
lời_@@ 364
ca_sỹ 364
cất_giữ 364
võ_đang 364
giác_viễn 364
hoà_giải 363
rảnh_rỗi 363
10-@@ 363
3d 363
trườn 363
u-@@ 363
chửi_bới 363
không_quân 363
xâm_chiếm 363
tiệc_rượu 363
vô_duyên 363
lâm_nguy 363
hoảng_hồn 363
nhổm 363
tuyệt_@@ 363
kêu_gào 363
bát_vương 363
hội_đồng_quản_trị 362
vượt_trội 362
chú_tâm 362
cáo_buộc 362
suy_thoái 362
trai_trẻ 362
ai_@@ 362
đầy_rẫy 362
ngoại_thành 362
dụi 362
quầng 362
thu_nhận 362
tuệ 362
len_lỏi 362
lạnh_giá 362
sỹ 362
băng_giá 362
mời_@@ 362
thống_khoái 362
bá_tước 362
nhãn_quang 362
cao_chiếm_đạo 362
trần_trường_lâm 362
dã_cẩu_đạo_nhân 362
nhậm_huyền 362
ường 361
1,5 361
97@@ 361
độc_quyền 361
gia_hạn 361
web 361
ói 361
hỏi 361
tập_huấn 361
nt 361
tưởng_nhớ 361
tán_dương 361
quyền_cước 361
thát_đát 361
4,@@ 360
1/@@ 360
loại_hình 360
lanh_lợi 360
chay 360
liếm 360
mã_@@ 360
khan 360
4/2 360
hài_hoà 360
nhà_thầu 360
ó 360
kiếm_khách 360
toé 360
ðông_@@ 360
tống_lỗ 360
ðiền_mỹ_mỹ 360
hoa_vân 360
/0@@ 359
thôi_thúc 359
biên_phòng 359
hải_ngoại 359
hô@@ 359
sáp 359
vẩy 359
trung_gian 359
khuy 359
cẩm_nang 359
sửa_sang 359
ế@@ 359
lui_tới 359
sớm_mai 359
bán_đấu_giá 359
mấp_máy 359
phủi 359
trung_quân 359
vừa_nãy 359
khâm_sai 359
tử_nguyên 359
chủ_chốt 358
ít_ỏi 358
nhàn_rỗi 358
ap@@ 358
st. 358
um 358
khoả_thân 358
tranh_cử 358
24/1 358
tù_nhân 358
real 358
đường_mòn 358
ác_ý 358
nhân_tình 358
thành_danh 358
canh_phòng 358
nhà_quê 358
dò_la 358
ðan_thanh 358
vương_tiễn 358
hạ_hầu_cương 358
jesse 358
bến_xe 357
thuỷ_điện 357
thải 357
tảo 357
ang_@@ 357
bi_@@ 357
mắt 357
bé 357
phu@@ 357
cầu_vồng 357
đích_thị 357
công_đức 357
oán_trách 357
huyền_diệu 357
yết_kiến 357
vui_tươi 357
vân_trường 357
hoả_khí 357
đồ_tiên 357
hốt_nhiên 357
vân_dương_tử 357
thu_hẹp 356
tiềm_ẩn 356
anh_chị_em 356
góp_mặt 356
thuỷ_triều 356
thảm_bại 356
tú_tài 356
nguyên_bản 356
chiến_công 356
lão_luyện 356
nham_hiểm 356
đánh_cuộc 356
lẩy_bẩy 356
cao_kiến 356
thủ_thế 356
tiểu_lăng 356
nạp_lan 356
tang_kết 356
84 355
soát 355
nung 355
chẳng 355
mạnh_khoẻ 355
òng 355
đứng_đắn 355
giảng_đường 355
trụ_trì 355
trào_dâng 355
ra_dáng 355
nhát_gan 355
han@@ 354
ou@@ 354
cẳng 354
ngấm 354
xào 354
tệ_nạn 354
bơ@@ 354
ưỡn 354
bằng_an 354
tưởng_niệm 354
5/12 354
to_tiếng 354
làm_gì 354
thần_linh 354
tuyết_hoa 354
chiêm_thành 354
trừng_quang 354
tàn_hồn 354
la_tinh 354
ngũ_phù 354
công_thương 353
360 353
dịch_chuyển 353
lão_hoá 353
huyết_@@ 353
gia_cầm 353
hạ_@@ 353
à@@ 353
đề@@ 353
phập_phồng 353
y_t@@ 353
trộm_cắp 353
giêng 353
nh_@@ 353
_nhân 353
khiêm_nhường 353
khốc 353
trương_tử_thanh 353
tô_phổ 353
h30 352
dự_bị 352
xáo_trộn 352
có@@ 352
day 352
thăng_bằng 352
đạm 352
you 352
bồ_câu 352
chứng_bệnh 352
7885 352
hơn_bao_giờ_hết 352
kỳ_cục 352
goetz 352
trù 352
nxb 352
mờ_ảo 352
hò_reo 352
dã_thú 352
quân_dân 352
thọc 352
tăng_lữ 352
người 352
sĩ_khí 352
cảnh_lăng 352
vạn_chấn_sơn 352
ro 351
330.000 351
đi_đôi 351
í@@ 351
bánh_chưng 351
trò_đùa 351
bbc 351
n_b@@ 351
ổi 351
̀i 351
ly_dị 351
cao_bằng 351
cam_chịu 351
đom_đóm 351
quân_phục 351
êm_đềm 351
ưng_@@ 351
thành_trì 351
ảo_ảnh 351
bàn_tính 351
hô_lôi_phương 351
tiếp_thị 350
hành_xử 350
:00 350
kĩ 350
kháng_sinh 350
ý 350
thuần_thục 350
lòi 350
cóng 350
cười_phá 350
bới 350
lặng_thinh 350
tan_rã 350
lưu_truyền 350
đâu_đấy 350
ái_tình 350
thót 350
y_thuật 350
to_gan 350
chư_tướng 350
trác_nhượng 350
trọng_tôn_long 350
mẫn_nhu 350
du_trường_thuỷ 350
it 349
min@@ 349
bơi_lội 349
đẩy_lùi 349
nam_nhi 349
che_lấp 349
lý 349
xoắn 349
v. 349
dàn_xếp 349
tử_hình 349
cơm_nước 349
nồng_nàn 349
dịch_giả 349
dòng_dõi 349
thôi_miên 349
bá_chủ 349
thì_giờ 349
cơ_trí 349
giao_phong 349
ảo_giác 348
ly_@@ 348
bri@@ 348
chắc 348
cầu_mong 348
tuyệt_chiêu 348
niêm_phong 348
chỉnh_đốn 348
nhơn 348
vơ 348
phượng_hoàng 348
chối_từ 348
hồn_vía 348
ôn_tồn 348
oang_oang 348
ngươi 348
bột_nhi_thiếp 348
ðại_lý 348
bửu_khoa 348
tư_bản 347
di_truyền 347
đèn_đỏ 347
bản_sắc 347
khiêu_vũ 347
lịm 347
ký_hiệu 347
ttk 347
thư_từ 347
lượng_thứ 347
thiên_sơn 347
vang_động 347
bẩm_báo 347
nha_dịch 347
long_an 346
dị_ứng 346
nước_ngọt 346
mút 346
tăng_@@ 346
cứng_đờ 346
7887 346
việt 346
rỗng 346
rộn_ràng 346
phỏng_đoán 346
sặc 346
giao_cấu 346
toán_@@ 346
kiêu 346
la_liệt 346
diệt_trừ 346
trách_mắng 346
lưu_manh 346
lục_cao_hiên 346
diệp_nhị_nương 346
thị_nữ 346
bong_bóng 345
tào_@@ 345
sấp 345
rãnh 345
nguyên_thuỷ 345
giải_@@ 345
ghen_tuông 345
khẩu_hiệu 345
đường_@@ 345
đè_nén 345
quá_đỗi 345
hillary_clinton_nga 345
rihanna 345
hoàng_my 345
ảo_tưởng 345
vạn_tuế 345
lãnh_@@ 345
ðức 345
không_văn 345
đổng_thục_ni 345
chu_thông 345
70% 344
cuộc_gọi 344
hành_nghề 344
linh_động 344
đồ@@ 344
murray 344
nguyễn_ngọc_@@ 344
7893 344
hành_trang 344
lớn 344
dỗ_dành 344
bằng_@@ 344
22/11 344
thoi_thóp 344
vía 344
đất_đá 344
chiêng 344
_kiều 344
âu_@@ 344
ma_quái 344
nhốn_nháo 344
làm_chứng 344
bầu_bạn 344
tối_hậu 344
cao_ngạo 344
khuông 344
nhãi 344
thao_thiết 344
mặc_kha 344
liệt_hà 344
vương_minh 344
thiếu_nguyên 344
thiến_như 344
thanh_thư 344
nhất_tiếu 344
gmt7ngày 344
10.000 343
07 343
den@@ 343
ộc 343
ốt 343
que@@ 343
cuba 343
thiếu_nhi 343
mượt 343
địa_phận 343
hổ@@ 343
lạc_thuỷ 343
quần_thần 343
bá_phụ 343
xuân_thân 343
o.@@ 342
rang 342
đơn_@@ 342
động_kinh 342
cơ_bắp 342
khả_dĩ 342
lu 342
sơ_suất 342
đáng_lý 342
che_phủ 342
tư_thục 342
châu_tấn 342
ổ@@ 342
nhớ_nhung 342
phục_tùng 342
veo 342
nghênh_ngang 342
ác_chiến 342
hỏi_nhỏ 342
hàn_kiệt 342
mạc_ðại 342
nhị_tẩu 342
thành_khẩn 341
chính_thống 341
thành_uỷ 341
der 341
lơ_đãng 341
phòng 341
một_chiều 341
khả_thi 341
hoả@@ 341
lấy_@@ 341
chồng_chất 341
28/12 341
thiệu_@@ 341
csgt 341
cọng 341
ngũ_sắc 341
hoang_vắng 341
tiên_tri 341
chó_săn 341
nghinh 341
thộn 341
akh 341
ðại_lương 341
fêlixitê 341
vu_dung 341
tử_lan 341
đông_phương_ngọc 341
tỉnh_uỷ 340
dài_hạn 340
dây_chuyền 340
định_nghĩa 340
to_@@ 340
bất_tài 340
bỏ_cuộc 340
giỗ 340
tự 340
and@@ 340
chung_quy 340
viếng_thăm 340
cách_chức 340
ngã_ngửa 340
dũng_sĩ 340
tầu 340
khí_chất 340
phi_yến_đa_la 340
quỳnh_@@ 339
mịn 339
ken 339
chợp 339
đỏ_ửng 339
chột_dạ 339
chấn_chỉnh 339
thày 339
sánh_vai 339
thương_gia 339
hồi_tỉnh 339
tuyệt_sắc 339
xếp_đặt 339
sám_hối 339
khoái_lạc 339
quan_viên 339
thè 339
nhãn_lực 339
gia_quyến 339
hộ_thân 339
loảng_xoảng 339
chỉ 339
tú_phương 339
mông_ngao 339
long_thiên_lộc 339
tô_thiên_bình 339
virginie 339
chào_mừng 338
thịnh_nộ 338
ssi@@ 338
hạ_long 338
tràn_lan 338
h.@@ 338
nội_tạng 338
u_uất 338
kỳ_tích 338
_minh_@@ 338
đổ_vỡ 338
trưng 338
xanh_xao 338
biến_chuyển 338
đê@@ 338
_minh 338
nườm_nượp 338
băng_tuyết 338
xinh_tươi 338
hừng_hực 338
quyến_luyến 338
đồ_long 338
chết_tiệt 338
tại 338
quỷ_tiên_sinh 338
campuchia 337
độ@@ 337
tươi_đẹp 337
thú_thật 337
trẻ_thơ 337
cai 337
p_t@@ 337
cứ 337
cty 337
thịnh_vượng 337
tống_tiền 337
bô 337
tỷ_như 337
siêu_phàm 337
cai_quản 337
lộng 337
chênh_chếch 337
diêu_mãnh 337
giảm_thiểu 336
tàu_hoả 336
dai 336
war@@ 336
cây_xanh 336
calo 336
xôi 336
tái_phát 336
huân 336
bình_ổn 336
_công 336
tạc 336
chân_truyền 336
hammond 336
doanh_chính 336
khí_khái 336
lỗ_diệu_tử 336
hoàn_nhan_hồng_liệt 336
chức_vị 335
wal@@ 335
dịch_bệnh 335
ranh 335
canxi 335
lan_@@ 335
cơ_duyên 335
gián_tiếp 335
trinh_tiết 335
ại 335
hoàn_@@ 335
áo_@@ 335
thanh_minh 335
/2/2012 335
nhỏ_nhoi 335
nũng_nịu 335
hê 335
hoá_thân 335
phạm_nhân 335
chói_lọi 335
thượng_thặng 335
_vương 335
linh_vị 335
gã 335
giảm_sút 334
2-@@ 334
thượng_hải 334
cư@@ 334
y_hệt 334
võ_@@ 334
nước_miếng 334
mấy_ai 334
tâm_can 334
chồng 334
khám_xét 334
khoác_lác 334
khoa_trương 334
hớt 334
mua_chuộc 334
cửu_nạn 334
hoàng_chung_công 334
nhậm_thiếu_danh 334
ðoàn_diên_khánh 334
trân_châu 333
59@@ 333
công_sở 333
who 333
diễn_xuất 333
thơ_ấu 333
14:@@ 333
one 333
hội 333
thương_@@ 333
bằng_cấp 333
hận_thù 333
laptop 333
giời 333
11/2 333
sl 333
22/12 333
hồi_ức 333
ên 333
gia_đinh 333
nhẩm 333
cạch 333
cai_trị 333
e_thẹn 333
càu_nhàu 333
phu_phụ 333
thế_tử 333
dã_lặc_miệt 333
thích_trường_phát 333
niêm_yết 332
xuất_xứ 332
bê_bối 332
khuyên_nhủ 332
dan@@ 332
quá_cố 332
chửi_rủa 332
ðỗ_cửu 332
illuminati 332
887.104 332
,5 331
thâu_tóm 331
69@@ 331
kị 331
thức_tỉnh 331
sống_còn 331
ngán 331
tay_lái 331
tằm 331
ước_chừng 331
vẩn 331
đại_bàng 331
rưng_rưng 331
tình_tứ 331
ao_ước 331
tạnh 331
trung_đoàn 331
giam_cầm 331
số_mệnh 331
thông_hiểu 331
truyền_thần 331
the_thé 331
cướp_đoạt 331
ngân_phiếu 331
lư_tuần 331
đui 331
tịch_ứng 331
fadette 331
gideon 331
2638 331
1.980 331
khuôn_khổ 330
ti_vi 330
thực_khách 330
cất_cánh 330
chuyên_khoa 330
khối_u 330
chế_giễu 330
thành_thạo 330
vớt 330
di_sản 330
toại 330
vết_tích 330
thất_thủ 330
biên_cương 330
luỵ 330
quê_mùa 330
mở_toang 330
đắc_thắng 330
cừu_hận 330
can_quy 330
ðầu_tử 330
nhạc_thừa 330
acker 330
triệu_tiền_tôn 330
gia_luật_hồng_cơ 330
nhân_tố 329
ý@@ 329
đồng_cảm 329
bác_bỏ 329
phân_nửa 329
tự_thân 329
buồn_nôn 329
xay 329
/4 329
khô@@ 329
lõm 329
giải_mã 329
xen_lẫn 329
rô 329
gân_cốt 329
quấy_rối 329
robin_@@ 329
ký_túc_xá 329
chính_nghĩa 329
..... 329
tài_hoa 329
khâm 329
quyền_sở_hữu 329
thủ_tiêu 329
lạnh_toát 329
vô_sỉ 329
lỗi_lạc 329
hứ 329
nhân_ảnh 329
bảo_định_đế 329
38.050 329
động_@@ 328
/6 328
du_thuyền 328
tất_yếu 328
cáng 328
s-@@ 328
9x 328
vô_vàn 328
lấn 328
premier_league 328
tháo_chạy 328
dúi_dụi 328
siêu_mẫu 328
triệu_vân 328
trần_truồng 328
cắm_đầu 328
nhạt_nhẽo 328
vô@@ 328
tiên_nữ 328
tổng_đốc 328
bách_chiến 328
233.977 328
622.925 328
7022 328
30.202 328
_ho@@ 327
man_@@ 327
ari@@ 327
vy 327
dù_vậy 327
pri@@ 327
mới_đầu 327
ngột_ngạt 327
đẳng 327
trí_óc 327
nguyễn_tấn_dũng 327
ủi 327
nịnh 327
mắng_chửi 327
khí_phách 327
thiên_môn 327
chả_trách 327
ngô_khảm 327
nbsp 326
liên_hiệp 326
mo 326
trọng_điểm 326
đại_sứ_quán 326
et@@ 326
áp_đặt 326
ven@@ 326
miễn_là 326
săn_bắn 326
lặn_lội 326
thổn_thức 326
lynda_trang_đài 326
giật_thót 326
quét_dọn 326
chài 326
nực_cười 326
thừa_@@ 326
thoạt_đầu 326
tiềm 326
thất_lạc 326
hững_hờ 326
99 325
ảo_thuật 325
sp@@ 325
linh_thiêng 325
09 325
thao_túng 325
15:@@ 325
2001 325
inch 325
1997 325
rã_rời 325
rúc 325
gìn_giữ 325
hàn_lâm 325
ù@@ 325
vp 325
06/03/2012 325
điệp_viên 325
ngưu_@@ 325
lưu_luyến 325
bất_khả 325
nho_sinh 325
thúi 325
ngự_tiền 325
110 324
201@@ 324
dầu_mỏ 324
tiện_lợi 324
khiếm_khuyết 324
sofa 324
rành 324
điêu_khắc 324
ngứa_ngáy 324
dallas 324
kiên_giang 324
thành_tâm 324
xa_hoa 324
tài_phiệt 324
dẫu_sao 324
tín_ngưỡng 324
thuý_an 324
chê_cười 324
cẩn_mật 324
nhoáng 324
thân_tín 324
canh_chừng 324
mền 324
kỳ_tài 324
hèn_hạ 324
vô_sự 324
khương_duy 324
trương_tuyền 324
v.@@ 323
cntt 323
ấ@@ 323
new@@ 323
tiế@@ 323
trà@@ 323
sáp_nhập 323
nguyễn_đình_@@ 323
khổ_luyện 323
sy@@ 323
hăng 323
ấu 323
_phương 323
sống_lưng 323
trách_cứ 323
5/2 323
05/03/2012 323
người_@@ 323
búi 323
chử 323
bàng_quan 323
lộc_sơn 323
spoon 323
quật_cường 323
lâu_la 323
biến_ảo 323
gã@@ 323
quỷ_kế 323
trầm_linh 323
vô_lại 323
tần_vô_viêm 323
reuters 322
1998 322
vă@@ 322
thù_địch 322
buộc_tội 322
cổ_truyền 322
ngự@@ 322
ard 322
ết 322
tinh_nghịch 322
mọi_khi 322
hình_tròn 322
1945 322
suy_luận 322
khác_gì 322
khen_thưởng 322
đôn 322
loáng 322
bốn_phương_tám_hướng 322
nam_hải 322
dĩ_vãng 322
căm_giận 322
pháp_thuật 322
thái_bảo 322
01@@ 321
sti@@ 321
ngân_@@ 321
chất_béo 321
tái_sinh 321
bmw 321
bất_định 321
tột_độ 321
thao 321
thương_nhớ 321
nguy_nan 321
núi_rừng 321
quảng_châu 321
hoa_lệ 321
trông_cậy 321
đương_kim 321
cây_cổ_thụ 321
bất_hoà 321
khuyên_can 321
cải_biến 321
thái_tông 321
83 320
điểm.@@ 320
nhà_trắng 320
hàm_lượng 320
7-@@ 320
imf 320
ts@@ 320
đứng 320
trú_ngụ 320
ái_nữ 320
tận_tình 320
khám_nghiệm 320
cụ_già 320
hiếp_dâm 320
ngoạm 320
ngòi 320
photoshop 320
kiến_@@ 320
yến_@@ 320
vắng_lặng 320
thất_thần 320
thiên_chúa_giáo 320
2019đáp 320
đảm_nhận 319
phát_ngôn 319
nhà_kho 319
suy_sụp 319
tê@@ 319
hoàng_anh 319
tinh_hoàn 319
tìm 319
năm_tuổi 319
truyền_đạt 319
/19@@ 319
lâu_lâu 319
vệ_binh 319
tư_liệu 319
robot 319
trấn_giữ 319
tiện_nhân 319
vi_thần 319
mục_niệm_từ 319
chuỷ 319
thị_trường_chứng_khoán 318
cương_vị 318
nhân_cách 318
ưu_tú 318
5.@@ 318
phiền_toái 318
hích 318
lê_th@@ 318
bur@@ 318
tươi_tắn 318
ủ@@ 318
rượu_vang 318
tre@@ 318
khuynh_hướng 318
nghèo_khổ 318
nguyễn_thanh_@@ 318
ban_mai 318
tuyết_@@ 318
y. 318
từ_liêm 318
da_gà 318
bao_@@ 318
ghi_bàn 318
quang_trung 318
cá_voi 318
diệp_chi 318
ắt_hẳn 318
di_tản 318
đế_quốc 318
hệ_trọng 318
cợt 318
tiến_quân 318
tể_tướng 318
tử_chiến 318
tần_thúc_bảo 318
độc_cô 318
phong_linh 318
minh_chứng 317
k. 317
nhiễu 317
danh_giá 317
anh_cả 317
thìa 317
quá 317
cách_ly 317
cây_@@ 317
kim_ngân 317
t&t 317
chửi_mắng 317
treo_cổ 317
nghi_ngút 317
đùa_cợt 317
nam_bắc 317
khoan_thai 317
hôn_quân 317
diêm_vương_tôn_giả 317
thứ_sử 317
5.000 316
0.000 316
ub@@ 316
mc@@ 316
pre@@ 316
ther@@ 316
nhà@@ 316
7891 316
vô_thức 316
xiên 316
lạc_lõng 316
liên_đoàn 316
cam_đoan 316
thăm_viếng 316
15/12 316
31/1 316
yên_bình 316
vạc 316
kho_tàng 316
lí 316
màn_ảnh 316
bản_xứ 316
cầu_khẩn 316
quá_chừng 316
đổ_máu 316
ứng_chiến 316
lợt_lạt 316
tiểu_tiên 316
phục_binh 316
gặt 315
quyền_hạn 315
hạ_cánh 315
louis 315
ser@@ 315
sóc 315
7921 315
tiến_trình 315
phát_tán 315
cho_qua 315
thọ@@ 315
ịnh 315
ngăn_kéo 315
giá_mà 315
rẫy 315
hôn_lễ 315
bát_ngát 315
chủ 315
thuỳ_dung 315
goá 315
tinh_hoa 315
làm_thinh 315
đổ_xô 314
tiềm_lực 314
san@@ 314
cla@@ 314
gia_vị 314
hy@@ 314
/2013 314
dấn 314
cửa_@@ 314
chạy_đua 314
kềm 314
venezuela 314
phai 314
du_dương 314
cn 314
ấm_cúng 314
giông 314
thanh_tịnh 314
mù_quáng 314
dã_tốc_cai 314
cửu_trùng 314
7,@@ 313
quý@@ 313
hoá_đơn 313
hàng_@@ 313
,000 313
băng_@@ 313
thích_nghi 313
mẹ 313
hà_thành 313
sành_điệu 313
xác_thực 313
khảm 313
tầm_@@ 313
ép_buộc 313
đụng_độ 313
mai_táng 313
khẩn_cầu 313
rủa 313
lưu_lạc 313
rứa 313
huýt_sáo 313
tê_dại 313
trầm_lặng 313
ai_oán 313
cô_tô 313
vô_lực 313
kiệt_lực 313
hà_thiết_thủ 313
nicôn 313
9/@@ 312
cra@@ 312
tiếp_tay 312
nê@@ 312
chim_@@ 312
thỏ_thẻ 312
pp@@ 312
xanh_@@ 312
bao_cao_su 312
bênh 312
cấp_tốc 312
ngoại_tình 312
nở_rộ 312
ok 312
tường_thuật 312
áo_giáp 312
cha_anh 312
dúi 312
phi_tần 312
thổ_dân 312
lý_tự_thành 312
diêu_hưng 312
tô_khôn 312
thiên_tôn 312
ban_chấp_hành 311
cao_ngất 311
định_kỳ 311
900 311
đoàn_tụ 311
c @@ 311
biến_dạng 311
lơ@@ 311
cam_@@ 311
vin 311
cực_đoan 311
qua_loa 311
hàm_ý 311
ăn_học 311
thạch@@ 311
chữ_cái 311
mất_hồn 311
vô_vị 311
phế_bỏ 311
hựu 311
hứa_khai_sơn 311
thần_phong 311
mậu_công 311
antôn 311
/2014 310
fer@@ 310
50@@ 310
kiểm_lâm 310
nghèo_khó 310
ò 310
động_mạch 310
giã 310
mari@@ 310
đôla 310
nhà_ăn 310
phút_giây 310
robert 310
đoàn_viên 310
mercedes 310
lhq 310
chiến_sỹ 310
qui_@@ 310
đàm_vĩnh_hưng 310
210@@ 310
u_linh 310
mờ_nhạt 310
e_sợ 310
cười 310
hạ_lưu 310
côn_sơn 310
vế 310
đa_nghi 310
ghìm 310
cô_hầu 310
khinh_miệt 310
bộp 310
lầm_bầm 310
lương_đô 310
hợp_đáp_an 310
truy_tố 309
bra@@ 309
phi@@ 309
nh @@ 309
tiêu_hao 309
thể@@ 309
xó 309
hoàng_liên 309
sóc_trăng 309
_thống 309
giả_thiết 309
trông_chờ 309
chết 309
bộ_óc 309
người_máy 309
thuỷ_tiên 309
_trung 309
can_ngăn 309
chuyên_trang 309
meryl_streep 309
ất 309
vãn_hồi 309
vợ 309
đánh_phá 309
kỳ_công 309
huỵch 309
thời_@@ 309
nhọc 309
diễm_lệ 309
chưa_biết_chừng 309
vnthuquan 309
kỷ_thiến 309
tống_thanh_thư 309
fran@@ 308
3-@@ 308
vũ_văn_@@ 308
olympic 308
mày_râu 308
đối_kháng 308
vô_cảm 308
phả 308
xíu 308
đông_tây 308
nhỏ_mọn 308
giáo_sĩ 308
nghiễm_nhiên 308
quốc_sư 308
tiểu_trúc_phong 308
trẻ_nít 308
thanh_nguyên 308
vương_huyền_ứng 308
đoàn_thể 307
l. 307
thanh_thiếu_niên 307
đều 307
j 307
tiên_đoán 307
hoạt_bát 307
mễ 307
đàm_luận 307
đè_bẹp 307
nhậm_chức 307
trắng_muốt 307
đại_cục 307
thái_tổ 307
nguỵ@@ 307
ðồ 307
phổ_côn 307
lý_hốt_đài 307
raoul 307
lệ@@ 306
đồng_tháp 306
khởi_nghiệp 306
nanh 306
vỡ_lẽ 306
chung_thân 306
ình 306
đầy_ắp 306
khóm 306
24/12 306
tồn_vong 306
nhân_các 306
/03 306
xe_lửa 306
bàn_@@ 306
giai_điệu 306
thầm_thì 306
xí 306
quỷ@@ 306
khinh_khi 306
tử_thương 306
tháng_ngày 305
lão_@@ 305
ụ@@ 305
trợ_thủ 305
tổn 305
bê_tông 305
tường_vi 305
ọc 305
mon@@ 305
2/2 305
uất_ức 305
óng_ánh 305
khổ_đau 305
núi_lửa 305
vũ_công 305
cảm_phục 305
lý_thú 305
hồng_liên 305
la_thành 305
gia_minh 305
lé@@ 305
ám_hại 305
1657@@ 305
bình_nhi 305
khiết_đan 305
vạn_khuê 305
công_nghệ_cao 304
thập_@@ 304
nato 304
len@@ 304
bố@@ 304
di_cư 304
92 304
thương_nhân 304
xương_@@ 304
kiềm 304
ba_đình 304
ngây_ngô 304
tổng_thư_ký 304
trong_trắng 304
tư_lệnh 304
cực_nhọc 304
_động 304
chúa_trời 304
nhân_sĩ 304
khích_động 304
danh_bất_hư_truyền 304
vương_bá 304
hoàn_nhan_khang 304
bất_hối 304
thông_suốt 303
lắp_đặt 303
chủ@@ 303
ốp 303
điện_@@ 303
nước_tiểu 303
tái_@@ 303
uyên_ương 303
thống 303
bồ@@ 303
ngoặt 303
nh-@@ 303
đổi_thay 303
cực_kì 303
tơi_bời 303
trầm_@@ 303
kỳ_anh 303
cương_@@ 303
cứng_cỏi 303
én 303
hoa_văn 303
sâu_đậm 303
hình_vẽ 303
câu_@@ 303
vạ 303
lần_mò 303
áp_chế 303
đê_hèn 303
yêu_ma 303
vời 303
tiếp_viện 303
chiện 303
ðằng 303
hận_thiên_nữ 303
thuỷ_sư 303
huyền_trinh 303
giave 303
tiểu_linh 303
kỳ_hạn 302
hướng_@@ 302
mủ 302
t @@ 302
nốt_ruồi 302
thẳng_tay 302
khánh_thành 302
phối 302
chối_cãi 302
sơ_tán 302
lật_tẩy 302
nhỏ_hẹp 302
quá_lời 302
cheng 302
lầm_lẫn 302
thợ_rèn 302
giễu_cợt 302
giả_dạng 302
ðiện 302
ðào_hoa_tiên 302
tái_tạo 301
tiền_sử 301
á. 301
cảm_thông 301
thượng_lưu 301
làm_ngơ 301
ánh_@@ 301
vô_sinh 301
độn 301
dị_dạng 301
trở 301
lâm_trận 301
bản_@@ 301
thở_dốc 301
lưu_chuyển 301
chần_chờ 301
đối_ngoại 301
khiếm_thị 301
xavi 301
cáu 301
phát_sóng 301
châm_chọc 301
hổ_phách 301
súng_lục 301
hồ_ly 301
ngôn_như_băng 301
lịnh_chấn_kỳ 301
học.@@ 301
6% 300
ji@@ 300
96 300
ấn_định 300
viettel 300
thí_điểm 300
cả@@ 300
miên_man 300
lục_địa 300
triều_dương 300
lĩnh_nam 300
danh_@@ 300
trung_thu 300
co_rúm 300
vũ_lực 300
mê_cung 300
hoa_khôi 300
tehran 300
hoả_tiễn 300
bảo_thủ 300
quái_gở 300
bửu 300
thâm_độc 300
mãnh_thú 300
độc_địa 300
hoàn_xỉ 300
ân_lê_đình 300
hà_thái_xung 300
win@@ 299
iện 299
chicago 299
_ma@@ 299
lồi 299
gần 299
hình 299
ăng@@ 299
nhân_hậu 299
thạch_@@ 299
thảm_sát 299
địa_chấn 299
v-league 299
casino 299
la_ó 299
lang_quân 299
tỉ_thí 299
nhộn_nhạo 299
mai_sơn 299
cu-ba 299
edward 299
lồm_cồm 299
ðại_nham 299
tiêu_liệt_vũ 299
nhnn 298
lex 298
st@@ 298
đường_cao_tốc 298
điều_@@ 298
mong_chờ 298
phúc_lợi 298
hoàn_kiếm 298
ngọc_thành 298
chết_@@ 298
chít 298
oanh_tạc 298
hùa 298
rê 298
quảng_đại 298
trí_quang 298
vỗ_ngực 298
thành_ý 298
võ_quan 298
thân_vương 298
giảo_kim 298
2016 297
thổ_nhĩ_kỳ 297
vụ 297
kin 297
ban_công 297
dế 297
tiếp_diễn 297
giả_tạo 297
xoa_dịu 297
hết 297
nặng_trĩu 297
thô_bạo 297
àng 297
măng 297
xã_hội_chủ_nghĩa 297
bài_@@ 297
thưa_thớt 297
đúp 297
vũ_trang 297
hội_viên 297
quyết 297
tính_chuyện 297
toạ_lạc 297
nói_xấu 297
kiều_linh 297
làm_thịt 297
gặm 297
côn_lôn 297
độc_dược 297
cố_chấp 297
tương_kiến 297
tiết_thần_y 297
xấp_xỉ 296
hoạch 296
láng 296
6-@@ 296
mark 296
golf 296
bệnh_lý 296
16:@@ 296
mm 296
nguyên_lý 296
ả@@ 296
ver 296
emma 296
nỗi_niềm 296
điền_@@ 296
đoản 296
gán 296
công_giáo 296
thi_đua 296
hào_phóng 296
làm_thuê 296
7/12 296
thiên_nga 296
hiểm_ác 296
phúc_kiến 296
toạc 296
chén_thánh 296
râu_ria 296
hung_tợn 296
chính_tâm 296
leng_keng 296
sang_sảng 296
truật_xích 296
xương_văn 296
vu_yêu 296
kha_trấn 296
thượng_đỉnh 295
81 295
ồ@@ 295
download 295
ang@@ 295
loanh_quanh 295
bún 295
phổ@@ 295
tuổi_thọ 295
chư@@ 295
suy_xét 295
martin 295
dại_dột 295
chơi_bời 295
nhà_ga 295
biên_soạn 295
bực_dọc 295
bỉ_ổi 295
đường_sá 295
túp 295
kính_bentley 295
bán_chạy 295
bentley 295
ðức_@@ 295
gia_tài 295
tẩu_thoát 295
giằng_co 295
nhường_nhịn 295
chết_thật 295
hô_hố 295
tam_đại 295
khẩn_yếu 295
phần_phật 295
phệ_huyết_châu 295
du_đại_nham 295
xê-va 295
đại_thắng 294
trào_lưu 294
sản_sinh 294
nhái 294
hội_tụ 294
bị@@ 294
thức 294
lung_lay 294
tương_đồng 294
chất_phác 294
nán 294
tiến_hoá 294
kí 294
dấu_tích 294
úc_@@ 294
lãng_tử 294
tráng_lệ 294
đại_nghĩa 294
triều_@@ 294
đao_@@ 294
quá_ư 294
hơi_nước 294
đại_bại 294
mã_cát 294
nhuệ_khí 294
giám_mã 294
2014 293
ao_@@ 293
hỗn_độn 293
chức_danh 293
dân_@@ 293
86 293
sai_trái 293
id 293
nước_lớn 293
rome 293
nan_giải 293
đung_đưa 293
đỏ_hoe 293
café 293
trục_xuất 293
nóng_hổi 293
xung_phong 293
xi_măng 293
tàu_chiến 293
dây_xích 293
di_chúc 293
long_trọng 293
hào_hiệp 293
khôi_ngô 293
như_trở_bàn_tay 293
ống_nghe 293
soẹt 293
tôn_giả 293
nhậm_tuấn 293
ðó 293
nguyễn_minh_@@ 292
nhà_băng 292
trang_thiết_bị 292
thạo 292
thiếu_hụt 292
thực_đơn 292
đảm_đương 292
ran@@ 292
từ_trường 292
soạn_thảo 292
nhúng 292
cro@@ 292
có_hạn 292
ngón_trỏ 292
ẹ 292
đày 292
phụt 292
mây_mù 292
bạc_phơ 292
thượng_du 292
ðào_cốc 292
nô_bộc 292
gdp 291
k_@@ 291
ă@@ 291
giác_@@ 291
nội_trú 291
trong_lành 291
tập_quán 291
khuỵu 291
giám_định 291
tán_đồng 291
xuân_thu 291
16/12 291
rạ 291
sổ_sách 291
khiếp_đảm 291
căm_tức 291
bellamy 291
mồn_một 291
hàm_hồ 291
gdđh 291
dìa 291
tiếp_kiến 291
ma_thường 291
phan_ma_lôi 291
bảo_tượng 291
danh_mục 290
tuấn_@@ 290
hàng_hải 290
đấu_giá 290
bỏ@@ 290
_hồ 290
thương_tổn 290
nội_thành 290
hợp 290
ân_ái 290
phải_chi 290
toàn_quyền 290
suv 290
ứng_cử_viên 290
khôn_khéo 290
bước_đường 290
tống_kim_cương 290
đông_cung 290
ngại_hổ 290
nhi@@ 289
8-@@ 289
tiền_vệ 289
mận 289
tất 289
nghĩ 289
giá 289
vương_quốc_anh 289
rung_rinh 289
thiểu_số 289
dáng_dấp 289
ữ 289
chủ_nghĩa_xã_hội 289
sớ 289
thánh_giá 289
thái_hư 289
đổng 289
hừm 289
đại_biến 289
bối_hải_thạch 289
hiện_hành 288
tw 288
7% 288
đông_y 288
hội_an 288
lả 288
kết_@@ 288
ngang_dọc 288
trư@@ 288
a_th@@ 288
mịn_màng 288
johnson 288
máu_me 288
yêu_@@ 288
sa_sút 288
khương_@@ 288
ngô_thị_diễn 288
cung_đình 288
• 288
ồi 288
khoái_chí 288
nhập_môn 288
giãy_giụa 288
lệ_hoa 288
triều_chính 288
giác_ngộ 288
kỳ_binh 288
mộ_dung_bảo 288
vi_nhất_tiếu 288
pazini 288
bộ_luật 287
go 287
phản_xạ 287
mor@@ 287
ưu_ái 287
3g 287
lâ@@ 287
13:@@ 287
thất_thường 287
mạo_danh 287
đầu_độc 287
gia_truyền 287
hà_bắc 287
hệ_tccn 287
nobel 287
hanh 287
hẹp_hòi 287
cả_gan 287
công_thần 287
nghe_ra 287
cũi 287
trợ_lực 287
kiếng 287
chớp_chớp 287
chòng_chọc 287
nóng_nẩy 287
giờ 287
đà_lôi 287
dương_thiết_tâm 287
ngao_nguỵ_mâu 287
tối_ưu 286
bank 286
tâng_bốc 286
mía 286
hiệu_ứng 286
xô_đẩy 286
des 286
thủ 286
chồng_con 286
sẵn_lòng 286
xa_rời 286
ký_giả 286
ắc_@@ 286
sỉ_nhục 286
ơng 286
cầm_thú 286
tuyết_như 286
_thị@@ 285
/2012 285
_ngọc_@@ 285
rộ 285
2002 285
_phong 285
nơ 285
phe_phẩy 285
ăn_năn 285
mail 285
hyundai 285
hỗn_chiến 285
cđv 285
giải_trừ 285
canh_@@ 285
ì@@ 285
bất_hiếu 285
luống 285
phì_thuỷ 285
thần_lực 285
vú_già 285
97 284
trường.@@ 284
king 284
ter 284
ú@@ 284
_anh 284
ngấn 284
đo@@ 284
_thanh_@@ 284
tích_tụ 284
bụi_bặm 284
bách_bệnh 284
kì@@ 284
chỗ_đứng 284
sưa 284
ngô_bảo_châu 284
chứt 284
cavalli 284
phía 284
ùng_@@ 284
hết_hồn 284
macintosh 284
khuyển 284
đao_phủ 284
bất_nghĩa 284
cường_đạo 284
trâu_diễn 284
sculley 284
dôia 284
cộng_tác 283
ry_@@ 283
ầu 283
_văn 283
bình 283
phím 283
ron 283
cù@@ 283
khoai_tây 283
vừa_vặn 283
lấy 283
chiếc_bóng 283
mục_@@ 283
vít 283
phần_tử 283
bước 283
tuyên_ngôn 283
hoàng_sa 283
linh_tính 283
vô_@@ 283
thấp_thỏm 283
muôn_đời 283
vất 283
dưỡng_thương 283
nhạc_phụ 283
quỷ_thần 283
sủng 283
công_tôn 283
dương_văn_can 283
sáng_quắc 283
tây_nguyên 282
công_danh 282
giữa_chừng 282
47@@ 282
muôn_vàn 282
xuống_cấp 282
băm 282
tàn_tật 282
ex@@ 282
ráo_riết 282
toà_soạn 282
mụ@@ 282
/2009 282
đạo_cô 282
sạt_lở 282
ngóng 282
trầm_trồ 282
lý_t@@ 282
đời_@@ 282
đề_đốc 282
xuân_vũ 282
phái_@@ 282
ba_quân 282
ni_huệ_huy 282
tô_chỉ_quỳnh 282
đại_đa_số 281
thường_niên 281
ngụ_ý 281
vừng 281
dỗ 281
chặn_đứng 281
hoạt_@@ 281
của_@@ 281
om 281
trắng_trẻo 281
tích_tắc 281
let 281
lỡ_lời 281
napoli 281
ielts 281
n_thành 281
khoa_học_gia 281
sài_@@ 281
nhuốm 281
u_minh 281
hư_danh 281
hoạn 281
châm_biếm 281
gan_dạ 281
trung_thần 281
nhân_thế 281
càn_rỡ 281
cơ_biệt 281
phụ_vương 281
phụng_hoàng 281
c.i.a. 281
vương_tố_thư 281
stress 280
anh_dũng 280
visa 280
mexico 280
yu@@ 280
triệu_hồi 280
vợt 280
pgs 280
̣i 280
xà_phòng 280
thỏi 280
đèn_pin 280
̣m 280
bào_chữa 280
hoàn_vũ 280
nghĩa_địa 280
đánh_đuổi 280
mão 280
xích_mích 280
rỗi 280
tuý 280
tình_ái 280
phục_sinh 280
kéo_lại 280
nhảy_dựng 280
quyền_quý 280
cỡi 280
nam_dương 280
hoan_hỷ 280
biên_bất_phụ 280
vân_trung_hạc 280
năng_suất 279
rick 279
u @@ 279
phần_đông 279
xa_xỉ 279
phình 279
đá@@ 279
hậu_vệ 279
12:@@ 279
lãng_quên 279
đề 279
ngũ_@@ 279
quẹt 279
xúc_cảm 279
tài_tình 279
khoan_dung 279
jong-un 279
hồ_nghi 279
lẽ_phải 279
galaxy_note 279
ngoằn_ngoèo 279
trong_vắt 279
saif 279
thái_uý 279
thâm_mạt_hoàn 279
trọng_viễn 279
hoa_thiết_cán 279
trác_linh 279
gang 278
khoáng_sản 278
nguy_hại 278
tận_tay 278
_vân 278
ks 278
quảng_bá 278
mê_tín 278
hoàng_th@@ 278
xe_tăng 278
ừ@@ 278
lợp 278
vé_số 278
vân_anh 278
beckham_benfica 278
chán_ngán 278
mọn 278
sáng_trưng 278
lên_giọng 278
ghế_bành 278
vọng_@@ 278
mềm_lòng 278
định_bụng 278
gảy 278
huơ 278
thành_công_lực 278
ngồi_phệt 278
del@@ 277
sản_lượng 277
cường_độ 277
thục_@@ 277
học_thuật 277
tq 277
csđt 277
nhút_nhát 277
quỹ_đạo 277
cấu_tạo 277
cửa 277
hỗn_hợp 277
mao_@@ 277
thị_trưởng 277
hoành_@@ 277
đưa_đón 277
cung_cách 277
dung_@@ 277
hoàng_thiên 277
mật_vụ 277
rợp 277
ruộng_đất 277
lung 277
thiên_ma 277
tống_viễn_kiều 277
nguyên_lai 277
tiêu_tông_kiệt 277
hoa_thiết_can 277
nv 276
san_@@ 276
ngạch 276
phản_bác 276
297 276
ngài_@@ 276
23/1 276
_long 276
_thiên_@@ 276
trắng_tinh 276
máy_vi_tính 276
làm_gương 276
phát_âm 276
ngày_sinh 276
phương_anh 276
huân_chương 276
wenger 276
25/12 276
phật_tử 276
lực_sĩ 276
song_toàn 276
sư_đoàn 276
ướt_sũng 276
nhảm 276
phẫn 276
ký_tên 276
an_lạc 276
lồng_lộng 276
tà_ma 276
sự_thể 276
mõ 276
ðừng 276
xích_phát_đại_ma 276
hoạ_đồ 276
ps 275
lệ_phí 275
cao_tốc 275
vĩnh_phúc 275
đông_nam 275
rêu 275
ograve 275
gặp 275
ỹ 275
hôi_thối 275
uất 275
cao_vút 275
định_kiến 275
đen_kịt 275
rộng_mở 275
_thuỷ 275
becks 275
terry 275
sân_cỏ 275
xơi 275
cãi_vã 275
lắm_chuyện 275
thâm_sâu 275
hẳn_hoi 275
uy_nghi 275
thần_long 275
chó_đẻ 275
ta_na 275
kunadu 275
tần_chung 275
thảo_@@ 274
1992 274
cổ_nhân 274
90% 274
ong_@@ 274
phòng_khám 274
lá@@ 274
quốc 274
bạch_mai 274
nhãn_hiệu 274
đi_đứng 274
wil@@ 274
sinh_tồn 274
lười_biếng 274
cầu 274
è 274
kềm_chế 274
pháo_hoa 274
ùi 274
thống_soái 274
4s 274
avg 274
trường_thành 274
lẻ_loi 274
chấp_pháp 274
dậu 274
khúc_@@ 274
bành_@@ 274
mặc_@@ 274
thâm_tình 274
đại_đường 274
ngọc_thanh_điện 274
mộng_hồ 274
lam_ngọc_đường 274
hồng_kông 273
_bình 273
bứt 273
tem 273
1994 273
siêu_@@ 273
mọi 273
ngặt 273
tăm 273
ợ 273
sao_chép 273
có_một_không_hai 273
hoanh 273
thần_chú 273
mobifone 273
vi-rút 273
chen_lấn 273
mưu_trí 273
lặng_im 273
ác_quỷ 273
giẻ 273
an_táng 273
cỏ_cây 273
kề_cận 273
căm_phẫn 273
trơ_trọi 273
giáo_lý 273
trác_tuyệt 273
khởi_sự 273
thông_tri 273
lãnh_huyết_diễm_nữ 273
phước_oai 273
468.000 273
đầu_cơ 272
m @@ 272
dầm 272
mỳ 272
don 272
́ch 272
ảo_@@ 272
bảo_trợ 272
thoăn_thoắt 272
chạy_@@ 272
vđv 272
trung_nghĩa 272
tỉa 272
moscow 272
lý_th@@ 272
xộc 272
khảo_thí 272
nể_nang 272
đại_nạn 272
thanh_lương 272
bồ_đề 272
thô_tục 272
ba_lê 272
biết_chừng_nào 272
tứ_tung 272
cực_độ 272
nhòm 272
cần_ta 272
tuần_phủ 272
vương_hoằng 272
quy_tân_thụ 272
khoát_nhi_xích 272
ten@@ 271
làm_tròn 271
hoàn_mỹ 271
ành_@@ 271
rìa 271
thuần_tuý 271
ốm_yếu 271
cen@@ 271
thường_@@ 271
sion 271
nhi_@@ 271
ét 271
 kỳ 271
bảo_an 271
kể_lể 271
alex 271
phập 271
audi 271
hấp_hối 271
bãi_@@ 271
chùn 271
biệt_hiệu 271
rìu 271
thi_thố 271
bá_đương 271
yêu_quái 271
khoản_đãi 271
trần_lão_mưu 271
hàn_đào 271
lắp_ráp 270
nhà_riêng 270
tương_phản 270
nước_sạch 270
phê_chuẩn 270
su 270
ngừa 270
michael 270
tiến_@@ 270
iếu 270
bong 270
ff@@ 270
gam 270
tâm_niệm 270
gian_hàng 270
sơ_sài 270
áo_lót 270
nên_chăng 270
dĩa 270
thửa 270
lulzsec 270
nhấn_chìm 270
17/12 270
tiệp 270
tuyệt_mỹ 270
mìn 270
học_lực 270
cửa_miệng 270
lẩn_trốn 270
tranh_@@ 270
dính_dáng 270
ưu_tư 270
thong_dong 270
tiền_sảnh 270
đại_thụ 270
thiên_long 270
thánh_hoả 270
địa_đồ 270
ðào_thực_tiên 270
senga 270
tạo_dựng 269
nòng 269
tây_hồ 269
ấp_ủ 269
cao_tuổi 269
huấn_luyện_viên 269
nasa 269
gián_đoạn 269
qui_định 269
vãi 269
đất 269
quây 269
vang_lừng 269
derek 269
tận_trung 269
nương_tay 269
ðồ_long 269
phản_loạn 269
lâm_phùng_chân 269
hạ_quân_bình 269
kunađu 269
đinh_nhất_bạch 269
mb@@ 268
trị@@ 268
tham_@@ 268
triền_miên 268
1999 268
hiểm_nguy 268
87 268
nội_ngoại 268
tiê@@ 268
noi 268
xà@@ 268
bí@@ 268
nặng_nhọc 268
̣ng 268
ca-@@ 268
nes 268
ội 268
lơ_là 268
phô 268
tuyên_dương 268
mưu_sinh 268
cau_có 268
êm_dịu 268
u_buồn 268
ngôn_từ 268
pháp_@@ 268
loáng_thoáng 268
lầm_lỗi 268
cửu_chân 268
huyết_khí 268
tà_đế_xá_lợi 268
trương_khang_niên 268
solomon 268
chu_xán 268
nghi_thanh 268
052019 268
ượng 267
diệt_vong 267
khuyến_mại 267
quản_lý_nhà_nước 267
yoga 267
thuyền_buồm 267
ấn_@@ 267
đới 267
tự_trọng 267
vóc 267
kẽm 267
ế_@@ 267
vã 267
biệt_danh 267
vét 267
lè 267
bùi_ngùi 267
lằn 267
ễ 267
nôi 267
dể 267
môt 267
tiêu_đề 267
iền 267
dửng_dưng 267
lũng_đoạn 267
can_dự 267
amsterdam 267
ản 267
cuống_cuồng 267
linh_nghiệm 267
bậy_bạ 267
bất_nhẫn 267
nuốt_chửng 267
căn_cơ 267
trận_địa 267
tiểu_đoàn 267
cười_ồ 267
phan_long 267
thế_sự 267
xiềng 267
nếu_mà 267
dây_cót 267
lạy_chúa 267
mĩm 267
tôn_huynh 267
veronika 267
chuẩn_mực 266
đột_quỵ 266
trích_dẫn 266
ục_@@ 266
sai_@@ 266
ôm_ấp 266
loang 266
mers 266
ton_@@ 266
he 266
thầy_lang 266
què 266
cực_khổ 266
lựu_đạn 266
rộn 266
chế_nhạo 266
ngượng_nghịu 266
thiên_th@@ 266
chí_tôn 266
rịt 266
quảng_lăng 266
brandon 266
tấn_@@ 265
thanh_lịch 265
hải_quan 265
thích_ứng 265
1980 265
miệt_mài 265
câ@@ 265
miễn_dịch 265
song_sinh 265
đậu_@@ 265
àn 265
bre@@ 265
chuộng 265
cứu 265
máng 265
ngầu 265
kìm_nén 265
điểm 265
dâm_ô 265
cụp 265
jan 265
câu_đối 265
xế_chiều 265
diễu 265
hờn 265
biên_@@ 265
hiểm_yếu 265
khởi_binh 265
hoảng_công_thác 265
hồng_tử_xuân 265
tửu_điếm 265
quan_tây 265
vân_cửu_long 265
lagodenko 265
cổ_thiên_nhân_viên 265
news_vtc_news 265
nóng_bức 264
trụ_cột 264
char@@ 264
ea@@ 264
thứ@@ 264
hường 264
quyến 264
nhà_chức_trách 264
nghỉ_hè 264
một_phép 264
kết_tội 264
truy_cứu 264
nùng 264
10/12 264
vô_tâm 264
cấp_uỷ 264
àm 264
phu_thê 264
toét 264
cõi_lòng 264
hướng_vân_thiên 264
trương_tam 264
lộc_ðan_nhi 264
chu_điên 264
93 263
chỉnh_sửa 263
ráo 263
co_@@ 263
kinh_nguyệt 263
ường_@@ 263
to_béo 263
hoàng_mai 263
vô_tuyến 263
xót 263
ẳng 263
thiện_@@ 263
ngóc 263
sứ_mạng 263
toan_tính 263
đoàn_văn_vươn 263
sáng_loáng 263
hùng_hồn 263
bấc 263
tứ_@@ 263
mậu 263
bao_xa 263
bà_cô 263
bất_kính 263
im_phăng_phắc 263
hạ_sơn 263
khôn_cùng 263
bi_ai 263
giang_hải_lưu 263
nguỵ_trưng 263
phương_kỳ 263
trần_đại_dũng 263
tả_pháp_thụ 263
27.066 263
park 262
nghỉ_việc 262
điều_khoản 262
89 262
iv 262
đạ@@ 262
tuần_hoàn 262
un@@ 262
hưng_thịnh 262
quỹ@@ 262
on_@@ 262
đường_kính 262
̃ng 262
̃i 262
nô@@ 262
ster 262
nông_@@ 262
hăm 262
thời_sự 262
video_putin 262
quái_đản 262
nhân_tiện 262
đồng_hương 262
xẻng 262
phong_thanh 262
chính_thị 262
hắc_ám 262
thư_lại 262
quan_ải 262
nạp_nha_a 262
phủ_đệ 262
thát 262
quế_tích_lương 262
olivetti 262
phước_@@ 261
_linh 261
điển_trai 261
3.000 261
gánh_chịu 261
vượng 261
son_@@ 261
nghèo_nàn 261
văn_t@@ 261
phát 261
272 261
mất 261
mô_phỏng 261
hoả_tốc 261
gre@@ 261
_ro@@ 261
chếch 261
ử@@ 261
/1/2012 261
hình_vuông 261
k-pop 261
tổng_biên_tập 261
18/2 261
phụ_tá 261
những_tưởng 261
ruột_gan 261
thường_tình 261
vun_vút 261
đổng_@@ 261
bồng_bềnh 261
lòng_thành 261
tương_tư 261
xa_giá 261
an_nhiên 261
binh_quyền 261
ngự_sử 261
đại_đao 261
âm_kỳ 261
silas 261
dịch_lâm 261
lục_quán_anh 261
mạc_ngạo 261
thủ_công 260
phí@@ 260
hộ@@ 260
đông_bắc 260
ăn_chay 260
07:@@ 260
tẩu_hoả 260
nguyễn_đ@@ 260
trưởng 260
vật 260
trục_trặc 260
chu_vi 260
xào_xạc 260
30/1 260
3/7/2012 260
thủ_khoa 260
cố 260
mịt_mù 260
ôi_chao 260
sốt_sắng 260
tông_tích 260
ô_hay 260
nhón 260
lững_thững 260
sgk 260
ám_hiệu 260
lả_tả 260
vô_thượng 260
đạo_nhân 260
uỷ_tôn 260
trọng_tôn_huyền_hoa 260
độc_thần 260
lăng_sơ_bát 260
eu@@ 259
89@@ 259
huyết_mạch 259
cám 259
vận_động_viên 259
gì@@ 259
nà@@ 259
eo_@@ 259
sáng 259
hiểu 259
7877 259
chiều_chuộng 259
váng 259
bán_@@ 259
hợp_thành 259
khách_khứa 259
margaret 259
nguyễn_đức_tâm 259
dân_ca 259
diễn_văn 259
hăm_hở 259
bất_nhân 259
cười_khà_khà 259
vây_hãm 259
bất_lương 259
nửa_chừng 259
lão_bộc 259
cười_sằng_sặc 259
lập_loè 259
hiền_huynh 259
giang_ninh 259
clericuzio 259
sàigòn 259
trịnh_đáng 259
sinh.khoảng 259
al-@@ 258
giá_thành 258
room 258
bru@@ 258
tối_ngày 258
kết 258
bàn_phím 258
ap 258
ngót 258
rắn_chắc 258
rò_rỉ 258
sinh_trưởng 258
bản 258
za 258
mary 258
ngoác 258
giao_phó 258
hoè 258
nguyền 258
vạch_trần 258
dăm 258
nông_cạn 258
tăm_tối 258
nghĩa_quân 258
nhu_hoà 258
kịch_chiến 258
bắc_kiếm 258
thổ_phồn 258
bạch_hàn_phong 258
phụng_trúc 258
4.000 257
dòng_chảy 257
chuyên_đề 257
vật_@@ 257
cám_dỗ 257
khả_ái 257
ye@@ 257
nguyễn_t@@ 257
jan@@ 257
bắp_thịt 257
ống_@@ 257
bé_bỏng 257
un 257
trung_học_phổ_thông 257
nhân_phẩm 257
tottenham 257
nguy_ngập 257
vẩn_vơ 257
ni_@@ 257
paris_cánh_diều_vàng 257
dụa 257
cứa 257
đàn_@@ 257
giữ_mình 257
rách_rưới 257
quyện 257
mặc_nhiên 257
photon 257
bạch_long 257
giáp_công 257
thổ_huyết 257
tửu_quán 257
kỳ_thật 257
áo_cà_sa 257
bành_liên_hổ 257
bình_thời 257
linh_thứu 257
nghiêm_tiểu_long 257
gmt7sáng 257
6.@@ 256
7.@@ 256
đảng_uỷ 256
ninh_thuận 256
nguyễn_xuân_@@ 256
chật_chội 256
thánh_địa 256
91 256
tí@@ 256
val@@ 256
sushi 256
khấu_@@ 256
lây_lan 256
vùng_cao 256
hoạ@@ 256
20/1 256
sung_mãn 256
dương_vật 256
thoái_hoá 256
con_ngươi 256
dịch_@@ 256
hội_@@ 256
kê@@ 256
úa 256
chằng_chịt 256
gửi_gắm 256
dân_tộc_thiểu_số 256
van_persie 256
bankplus_hướng 256
mục_kích 256
giàu_sang 256
linh_tinh 256
phải_trái 256
khinh_bạc 256
di_thể 256
lệnh_ái 256
cừu_thiên_nhậm 256
thpt.sau 256
tá@@ 255
chị_gái 255
chuyển_mình 255
land@@ 255
tạo_hình 255
cal@@ 255
ôm_chầm 255
mắc_kẹt 255
my@@ 255
hp 255
giải 255
cặn_kẽ 255
trầu 255
thầm_kín 255
hữu_dụng 255
p_h@@ 255
mổ_xẻ 255
thèm_khát 255
s. 255
vui_thích 255
gô 255
_hồng 255
nhà_quản_lý 255
gùi 255
mưa_tuyết 255
bốc_lửa 255
chữa_cháy 255
lòng_đường 255
thám_hiểm 255
hệ_số 255
khiên 255
đồn_điền 255
đông_đô 255
hèn_nhát 255
nuốt_lời 255
khôi_hài 255
chứng_cớ 255
chiếu_rọi 255
miệng_lưỡi 255
khai_phong 255
di_lặc_giáo 255
.tôi 255
bạch_thế_kính 255
lý_hoá_sinh 255
cơ_khí 254
ích_@@ 254
quy@@ 254
nhuận 254
hợp_ý 254
khí@@ 254
toàn 254
nghiêm_minh 254
xa_lánh 254
độc_chất 254
rình_rập 254
thú_y 254
eacute 254
ig@@ 254
trả 254
1995 254
1/12 254
tóm_tắt 254
công_lý 254
dân_thường 254
thảm_kịch 254
chiến_tranh_lạnh 254
nguyên_tiêu 254
bst 254
trứ_danh 254
o_th@@ 254
thợ_săn 254
khách 254
đại_lượng 254
nội_chiến 254
kẻ_cướp 254
119@@ 254
hỗn 254
đen_ngòm 254
sột_soạt 254
niềm_nở 254
ngào_ngạt 254
tuỳ_cơ_ứng_biến 254
niên_kỷ 254
thâm_ý 254
tam_công 254
âu_dương_hi_di 254
cát_nhĩ_đan 254
trị_tội 254
ðã 254
cửu_dương 254
đăng_kí 253
quán_triệt 253
xét_lại 253
sinh_lực 253
80% 253
le_@@ 253
gọt 253
gốm 253
gắn_kết 253
ben@@ 253
bưởi 253
trồi 253
lâm_đồng 253
cáu_kỉnh 253
bất_chính 253
rữa 253
báo 253
khắc_khổ 253
toàn_thắng 253
càn_long 253
cổ_vật 253
xã_tắc 253
khiển_trách 253
vương_phi 253
cựa_quậy 253
inh_@@ 253
danh_tướng 253
nhà_tu 253
dực 253
« 253
trống_không 253
thấp_kém 253
phục_long_đỉnh 253
hung_nô 253
thông_thiên 253
line 252
phụ_cấp 252
nguyễn_trãi 252
1993 252
li_ti 252
bàng_quang 252
chưng 252
hoài_bão 252
non_nớt 252
thuốc_@@ 252
chân_mày 252
hollywood 252
chủng_tộc 252
7/11 252
yvonne 252
sâu_rộng 252
kịch_tính 252
héo 252
bão_táp 252
đàn_em 252
nick 252
rách_nát 252
trong_veo 252
iêu 252
kính_nể 252
thuốc_nổ 252
trung_tá 252
cổ_động 252
dông 252
đạo_nghĩa 252
vô_thường 252
phong_kiến 252
tộc_trưởng 252
thụp 252
than_ôi 252
lần_lần 252
tam_bí 252
ơn_đức 252
12487@@ 252
bắc_hiệp 252
lạc_kỳ_phi 252
nghiêm_bình 252
thúc_mưu 252
nhuận_phủ 252
3/@@ 251
bình_thuận 251
điện_lực 251
khuyến_mãi 251
mũi_nhọn 251
cự@@ 251
thế_chấp 251
40% 251
thú_vui 251
khép_kín 251
đong 251
nói_tóm_lại 251
ngậm_miệng 251
ô-@@ 251
khịt 251
thân_thích 251
31/12 251
xích_lô 251
đại_loại 251
tán_tỉnh 251
vô_tri 251
tử_vi 251
khai_quật 251
chí_khí 251
bôn_ba 251
mẫu_hậu 251
thát_ðát 251
linh_lung_kiều 251
giang_hoài 251
ðỗ_bích 251
tạ_ánh_đào 251
ngô_hán_thanh 251
chiếm_lĩnh 250
rác_thải 250
quán_quân 250
truy_nã 250
cửu_long 250
lli@@ 250
sacombank 250
/2015 250
thuyết_trình 250
vô_vọng 250
xuất_viện 250
nhờ_vả 250
vị 250
km/h 250
điểm_@@ 250
cự_ly 250
máu_huyết 250
minh_mẫn 250
san_hô 250
cổ_kính 250
lượt_đi 250
vinh_@@ 250
đáo_để 250
đắm_đuối 250
địa_chủ 250
bích_hồng 250
xe_ôm 250
lành_lạnh 250
bói 250
nê 250
tức_@@ 250
chó_má 250
a_châu 250
tênácđiê 250
nor@@ 249
chuyển_tiếp 249
tái_diễn 249
giải_trình 249
hoạch_định 249
tiến_sỹ 249
tiếp_viên 249
thuốc_men 249
đi_tiểu 249
dần_dà 249
chất_@@ 249
chính_trị_gia 249
nước_mắm 249
kích_cỡ 249
can@@ 249
ngơi 249
bốc_hơi 249
tịch_thu 249
mất_trí 249
14/11 249
tạm_trú 249
dục_vọng 249
tội_danh 249
ẩn_tàng 249
â 249
đường_hoàng 249
2011-12-@@ 249
khắc_khoải 249
chọc_giận 249
nadal 249
tái_xanh 249
_tử 249
tình_ý 249
la_thiên 249
vũ_văn_hoá_cốt 249
phùng_mậu 249
đại_hãn 249
tự_tận 249
trác_mã 249
thiếu_thất 249
cáp_tát_nhi 249
tạ_diễm 249
eileen 249
biata 249
kim_lôi 249
_hưng 248
49@@ 248
việ@@ 248
mứt 248
thiếu_tướng 248
phán_xét 248
my_@@ 248
truyền_cảm 248
pen@@ 248
iệ@@ 248
cổ_thụ 248
tiết_chế 248
nhã@@ 248
lâng_lâng 248
sco@@ 248
_hu@@ 248
tam_giác 248
tìm_tòi 248
vay_mượn 248
tươi_tỉnh 248
đói_rách 248
việt_cẩm 248
nhẹ_tênh 248
chi_chít 248
nháy 248
hoà_khí 248
ngay_thẳng 248
tripoli 248
bạ 248
thuyền_bè 248
sinh_sự 248
chiếm_cứ 248
hung_tàn 248
perắc 248
chi_phái 248
lã_nương_dung 248
chúng 248
tần_hoài 248
lục_tiên_sinh 248
thang_bà_tử 248
chu_ðiên 248
nhà_thiết_kế 247
tắc_nghẽn 247
vướng_mắc 247
tỉnh_thành 247
sen@@ 247
đầu_bảng 247
cầm_chân 247
0-@@ 247
p_l@@ 247
cứu_trợ 247
gay 247
nhợt 247
bùn_đất 247
hời_hợt 247
lĩnh_hội 247
để_chế 247
lộn_nhào 247
george 247
phụng_@@ 247
bưu_thiếp 247
thời_buổi 247
gian_trá 247
lận 247
giọng_lưỡi 247
đường_đột 247
hạp 247
hoàn_hồn 247
hành_hình 247
nhưng 247
thái 247
lý_yên_yên 247
kỷ_hiểu_phù 247
giles 247
bexi 247
triệu_tam_cô 247
d. 246
ina 246
than_vãn 246
trữ 246
dd@@ 246
siêu_âm 246
bướu 246
tai_biến 246
sụt 246
bảo_lãnh 246
9-@@ 246
̉n 246
chữ_số 246
xuống_tay 246
xao_động 246
quỵ 246
toàn_@@ 246
tất_thảy 246
cưỡng_bức 246
trả_đũa 246
trưởng_phòng 246
gia_chủ 246
khoảnh 246
50,000 246
tường_trình 246
ba_hoa 246
khinh_khỉnh 246
ĩ 246
tam_bảo 246
tiên_sư 246
nàng 246
phệ_hồn 246
phan_nam 246
1973 245
vỏn_vẹn 245
đị@@ 245
khó_tính 245
phơi_bày 245
hồi_sức 245
axit 245
shi 245
361 245
̀o 245
đối_chiếu 245
di_vật 245
xê@@ 245
tua 245
montgomery 245
nợ_nần 245
cầm_quân 245
tập_kết 245
giường_nằm 245
hồi_ký 245
đinh_la_thăng 245
đàm_đạo 245
thuần_khiết 245
huýt 245
lạc_thú 245
phạm_minh 245
đenphin 245
tuyến_nương 245
chip 244
bắt_mắt 244
94 244
phi_thuyền 244
thiết_yếu 244
mark_zuckerberg 244
gen@@ 244
quý_mến 244
nghị_sĩ 244
dùi 244
7915 244
toàn_phần 244
chung_thuỷ 244
ne_@@ 244
cầm_đồ 244
cao_nguyên 244
ger@@ 244
ngoan_cố 244
nguời 244
/10/2011 244
quây_quần 244
mẫu_giáo 244
nhỏ_giọt 244
mưa_rào 244
302 244
âu_dương_@@ 244
vô_giá 244
đặc_sản 244
dầu_lửa 244
mừng_vui 244
đằng_đằng 244
tứ_tán 244
cạn_chén 244
nhất_thống 244
hậu_đường 244
mộc_hoa_lê 244
bình_nhất_chỉ 244
lễ@@ 243
người_quản_lý 243
bệnh 243
tối 243
đánh_bật 243
quệt 243
ghim 243
kiết 243
thúc_thủ 243
hiếu_thắng 243
cha_ông 243
uefa 243
/2011 243
henry 243
cường_quốc 243
thôi_việc 243
rất_mực 243
tuýt 243
nhân_duyên 243
gia_sản 243
đạt_@@ 243
suzuki 243
thọt 243
chó_sói 243
sùng_sục 243
dây_dưa 243
ái_chà 243
xanh_lè 243
bàng_ngọc 243
lam_phượng_hoàng 243
thiên_hải 243
bất_kì 242
a_h@@ 242
nhà_cái 242
đầy_đặn 242
cà_chua 242
thốn 242
bel@@ 242
en_@@ 242
ạt 242
xoang 242
ẹt 242
diễn 242
an_giang 242
phác 242
chi_viện 242
đă@@ 242
chủ_quản 242
container 242
đế_vương 242
nhâm_@@ 242
quốc_tuấn 242
thành_kiến 242
cá_sấu 242
mọp 242
cớ_sao 242
neutrino 242
hiềm 242
thư_quán 242
kiêu_căng 242
phong_bế 242
trần_hữu_lượng 242
ôn_thanh 242
lăng_hạo 242
khuấy_động 241
kremlin 241
thương_vụ 241
nhậ@@ 241
mõm 241
sán 241
mg 241
cup 241
thầm_lặng 241
chất_lỏng 241
quai 241
huống 241
xổ 241
khuyên_bảo 241
cưỡng_hiếp 241
phồn_hoa 241
mở_mang 241
mátxcơva 241
mùa_nobel 241
lục_lọi 241
lăng_mộ 241
đóng_băng 241
kì_lạ 241
2011-11-@@ 241
tang_@@ 241
ngai_vàng 241
lương_khô 241
lâm_chung 241
tái_xuất 241
nghiêng_ngả 241
gian_ác 241
pha_lê 241
láo 241
miles 241
kappa 241
tiền_đồ 241
phi_hành 241
nhậm_mi_mi 241
hãy 241
nguyễn_tinh_trúc 241
mandala 241
cứ_điểm 240
mac 240
lỳ 240
mỹ_@@ 240
dằn_vặt 240
tỉ@@ 240
đổ@@ 240
dị@@ 240
gái 240
đầu_vào 240
nghiệp 240
bởi 240
nhâ@@ 240
sse@@ 240
phương_cách 240
vĩnh_biệt 240
đêm_ngày 240
then_chốt 240
tuy@@ 240
đón_chào 240
thần_thoại 240
rolls-royce 240
luật_@@ 240
tiến_thoái_lưỡng_nan 240
áp_bức 240
chữ_nghĩa 240
sôi_sục 240
cốc_@@ 240
_đại 240
bá_@@ 240
thi_hài 240
toàn_vẹn 240
lẩn_tránh 240
lịch_duyệt 240
đở 240
ðương 240
ngạch_ðồ 240
tiền_độc_quan 240
lý_tiểu_hổ 240
ns 239
boo@@ 239
8% 239
_gia 239
nam_bộ 239
sau@@ 239
cường_tráng 239
san_francisco 239
dù_rằng 239
nữ_tính 239
hứng_khởi 239
khiến 239
gơ@@ 239
gỉ 239
lưu_động 239
lỡ_cơ 239
anderson 239
ngồi_bệt 239
diễm_@@ 239
bơ_vơ 239
khế 239
hiệp_@@ 239
ú_ớ 239
tinh_anh 239
16/1 239
27/12 239
động_trời 239
xuân_nhâm 239
tehran_con 239
ngẫm 239
nghi_ngại 239
ác_cảm 239
khước_từ 239
lăm_lăm 239
thực_dân 239
thần_hồn 239
huyền_thuý 239
mađơlen 239
yến_hồng 239
thường_ngộ_xuân 239
cố_viêm_võ 239
tang_côn 239
042019 239
giới_chức 238
86@@ 238
thăng_hoa 238
công_dụng 238
dự 238
kiến_tạo 238
hoàng_tộc 238
nguyên_tố 238
tù@@ 238
gái_bán_hoa 238
lên_tay 238
gay_go 238
bình_tâm 238
xe_gắn_máy 238
há@@ 238
303 238
wikileaks 238
ghen_tị 238
thảm_đỏ 238
tiếp_sức 238
người_hùng 238
cứu_vớt 238
balotelli 238
lất_phất 238
quýnh 238
kiểu_cách 238
dơ_bẩn 238
dương_lôi 238
đào_thoát 238
giao_du 238
thiên_thu 238
mưu_lược 238
vỹ 238
ngu_@@ 238
hoà_hoãn 238
hảo_ý 238
ngạch_đồ 238
lưu_kim_đính 238
phương_bách_xuyên 238
vích-ky 238
chướng_khí 238
tịch_tà 238
hào_bân 238
công_tôn_lạp 238
kodensky 238
daswood 238
đơn_hoành_chương 238
vin@@ 237
nhà_cung_cấp 237
nghiêm_@@ 237
98 237
vũ_khí_hạt_nhân 237
ali@@ 237
tiện_thể 237
ngoài 237
quả_tang 237
văn_thư 237
sinh@@ 237
ngon_miệng 237
phân_bố 237
mon 237
xốp 237
por@@ 237
chao_đảo 237
tận_tuỵ 237
linh_cữu 237
vĩnh_cửu 237
@yahoo 237
pt 237
công_phá 237
khói_lửa 237
mơ_tưởng 237
từ_điển 237
rào_rào 237
xẻo 237
nhẫn_nhịn 237
hý 237
tổ_tông 237
tiểu_liên 237
vương_huyền_thứ 237
tợ 237
hầu_lượng_sinh 237
tiểu_bắc 237
vi_an 237
phơrăng 237
far@@ 236
rộng_lượng 236
ô_@@ 236
ẩn_ý 236
set 236
uỷ@@ 236
 theo 236
thua_lỗ 236
_lâm 236
phần 236
gia_cảnh 236
vui_đùa 236
cựu_@@ 236
david@@ 236
tâm_lý_học 236
đh@@ 236
1991 236
bọ 236
tăng_tiến 236
sài 236
hơ 236
luyến 236
eo_biển 236
bác_hồ 236
chướng_ngại 236
bách_@@ 236
háo_sắc 236
thủ_@@ 236
sắc_chỉ 236
phong_thanh_dương 236
bạch_thanh_nhi 236
phăngtin 236
tỹ 236
đinh_hãm 236
lg 235
hđnd 235
bài_bản 235
giao_@@ 235
mại 235
ráp 235
sở@@ 235
giúp_ích 235
_học 235
cái_răng 235
nhẵn 235
hoà_nhã 235
dẻo 235
quyên_góp 235
phụ_tử 235
iệu 235
luật_giáo_dục 235
tính_sổ 235
8/12 235
quậy 235
chiêu_đãi 235
hcđ 235
bính 235
ự@@ 235
thúc_@@ 235
kiệt_tác 235
xiêu 235
qui_củ 235
thân_chinh 235
ptsc 235
gennaro 235
thê_tử 235
nhất_đăng 235
hàn_ðào 235
lưu_hướng 235
032019 235
mt 234
ker 234
nguyễn_l@@ 234
chú@@ 234
tiền_tài 234
tủi_thân 234
thai_nhi 234
thao_tác 234
mal@@ 234
bóng_đèn 234
đánh 234
xương_tuỷ 234
ời 234
hên 234
quý_trọng 234
ho_khan 234
mi_@@ 234
ỳ 234
mương 234
gián 234
chiến_trận 234
tra_@@ 234
danh_sĩ 234
pgs.ts 234
viện_bảo_tàng 234
thều_thào 234
ẩn_giấu 234
thuỷ_quân 234
bấu 234
liễn 234
vấn_an 234
ðêm 234
thần_đạo_giáo 234
vương_cung 234
dương_dật_chi 234
vu_bà_bà 234
al_obaydi 234
hải_âu 233
chàm 233
thể_loại 233
chủ_sở_hữu 233
180 233
hội_ngộ 233
bé@@ 233
hút_hồn 233
tài_@@ 233
trung_hậu 233
nơm_nớp 233
tươi_sáng 233
trực_@@ 233
rỏ 233
e-@@ 233
elizabeth 233
bạo_hành 233
tom 233
18/11 233
đính_hôn 233
sung_túc 233
ĩnh 233
khoảng_không 233
năm_@@ 233
mạo_muội 233
thiết_tưởng 233
buông_thõng 233
thông_tuệ 233
lập_cập 233
cốt_nhục 233
trí_minh 233
giả_trang 233
khinh_thị 233
chói_loà 233
sylvinet 233
đinh_tàn 233
thiên_mộc 233
1996 232
0.@@ 232
đồng_thuận 232
trầm_cảm 232
xung_kích 232
đắt_đỏ 232
mắt_@@ 232
10/1 232
rạn_nứt 232
giúp_@@ 232
inter@@ 232
hứng_chịu 232
buồn_buồn 232
đả_thông 232
khêu_gợi 232
chiến_@@ 232
windows_phone 232
náo_động 232
tục_ngữ 232
phóng_túng 232
sống_mũi 232
rầm_rập 232
cây_gỗ 232
bi_phẫn 232
sạp 232
thút_thít 232
tòng 232
công_trái 232
hỏi_vặn 232
khoái_trá 232
cam_lòng 232
sư_trưởng 232
huyền_minh 232
tuyết_kỳ 232
ca_vũ 232
gordie 232
trịnh_mã_thuỷ 232
lạ_lẫm 231
15% 231
ctcp 231
đông_lạnh 231
tết_nguyên_đán 231
thăng_tiến 231
gây_dựng 231
lênh_đênh 231
giản_đơn 231
kích_hoạt 231
sexy 231
ten 231
xuất_@@ 231
đàn_anh 231
el_@@ 231
oxford 231
trà_@@ 231
dưới 231
cói 231
may_sao 231
day_dứt 231
ử 231
ngọc_bích 231
cứng_nhắc 231
thể_thao_thể 231
lăng_nhăng 231
nhà_nguyện 231
ghi_âm 231
nhử 231
nhân_công 231
trượt_tuyết 231
đắm_chìm 231
máu_thịt 231
đố_kỵ 231
chí_mạng 231
toáng 231
tuy_thế 231
mái_hiên 231
kiếm_hiệp 231
bạt_tai 231
sứ_thần 231
ðạt 231
mộ_dung_@@ 231
gia_luật_@@ 231
duyên_hải 230
tin_vui 230
đồ_hoạ 230
rào_cản 230
điện_toán 230
chủ_nghĩa_@@ 230
120@@ 230
1989 230
lâm_sàng 230
kon_tum 230
diễn_đạt 230
rau_@@ 230
thủ_môn 230
nhẽ 230
tác 230
nhàn_nhạt 230
tài_tử 230
hiển_hiện 230
kết_cấu 230
tay_trên 230
họp_mặt 230
đây_đó 230
cẩm_thạch 230
cuồng_sát 230
dinh_thự 230
nhẹ_tay 230
_văn_@@ 230
chọc_tức 230
nhơ 230
ruột_thịt 230
cướp_biển 230
cư_ngụ 230
chúc_tụng 230
kín_mít 230
ra_vào 230
thơ@@ 230
tiễn_đưa 230
rừng_rực 230
ăn_cướp 230
ba-@@ 230
uy_nghiêm 230
phân_thân 230
thị_lô 230
062019 230
gr@@ 229
1985 229
kan@@ 229
gia_cát_lượng 229
sá@@ 229
xã_giao 229
truyền_bá 229
tác_hại 229
ể 229
muỗng 229
phớt_lờ 229
lộ@@ 229
cốt_lõi 229
loãng 229
lủng_lẳng 229
thị 229
iến 229
đỏ_ngầu 229
nhoà 229
chửa 229
bao_dung 229
27/1 229
tinh_quái 229
bành_trướng 229
kế_vị 229
séc 229
dao_@@ 229
mênh_mang 229
dễ_dãi 229
nguỵ_trang 229
nhân_nhượng 229
san_sát 229
chẳng_nói_chẳng_rằng 229
tan_xương_nát_thịt 229
kẻ_sĩ 229
long_môn 229
tiền_ðại_nương 229
tấn_từ 229
kỉ_niệm 228
phân_trần 228
qui@@ 228
_to@@ 228
cuối 228
vằn 228
em@@ 228
il 228
đình 228
thân_ái 228
nội_trợ 228
mba 228
cúc_@@ 228
nhà_khách 228
gắt_gỏng 228
electron 228
29/12 228
choáng_ngợp 228
12/2011 228
phô_diễn 228
ẩu_đả 228
đkdt 228
chụm 228
chi_bộ 228
mai_mốt 228
trộm_cướp 228
đan_@@ 228
văn_kiện 228
lì 228
trầm_luân 228
nhã_nhặn 228
cuồng_nộ 228
trọng_thưởng 228
ghê_sợ 228
vái_lạy 228
toang 228
luyến_tiếc 228
bức_điện 228
trần_tục 228
chư_tăng 228
thổ_địa 228
đời_đời 228
đầu_mục 228
bái_tạ 228
cao_quân_bảo 228
yển_sư 228
tông_đồ 228
ðường_tam_cô 228
quý_ly 228
kim_hoa_bà_bà 228
sử_địa 228
giáp_@@ 227
ây_@@ 227
thự 227
quan_khách 227
pan@@ 227
hấp_thu 227
bàn 227
quy_@@ 227
fa 227
1979 227
st_@@ 227
iện_@@ 227
sự_tích 227
đơn_sơ 227
hồng_phúc 227
ỉ@@ 227
như_@@ 227
lau_chùi 227
disney 227
mũ_bảo_hiểm 227
tai_tiếng 227
ila 227
nay_mai 227
anh_minh 227
đồng_lương 227
lởm_chởm 227
gặng 227
chưng_hửng 227
lim_dim 227
phân_hoá 227
lôi_đình 227
phụng_sự 227
lí_nhí 227
đường_cái 227
hầu_bàn 227
tình_lang 227
đạo_hữu 227
tạ_đông_dương 227
không_kiến 227
ước_định 227
trợn_trừng 227
châu_nhi 227
62019 227
đức_tính 226
ren 226
50.000 226
tsu@@ 226
dịch@@ 226
350 226
iêm 226
thủ_đức 226
ước_nguyện 226
quái_ác 226
đảo_ngược 226
cốt_@@ 226
rê@@ 226
núm 226
gia_bảo 226
ei@@ 226
_ngọc 226
xô@@ 226
1974 226
đến_nơi_đến_chốn 226
bao_quát 226
18/1 226
cấm_địa 226
ừng_ực 226
lao_xao 226
lhp 226
xoay_xở 226
hụp 226
tiền_nhân 226
tâm_thức 226
ót 226
hạ_du 226
phông 226
nho_nhã 226
thần_quan_tú_sĩ 226
bảo_nhi 226
muldoon 226
bọ_ngựa 226
xin 226
linh_dược 226
sơn_trại 226
trình_thương_cổ 226
bạch_văn_nguyên 226
tụ@@ 225
160 225
mình.@@ 225
che_chắn 225
doanh_số 225
tối_@@ 225
thoả_thích 225
chiêu_mộ 225
đài_phát_thanh 225
tiết_canh 225
co_giật 225
suy_dinh_dưỡng 225
loét 225
lạc_hậu 225
đồ 225
tập 225
mẫu_đơn 225
trình 225
glôcôm 225
đúng 225
kết_án 225
kĩ_năng 225
phản_biện 225
nguy_nga 225
khán_đài 225
ý_@@ 225
vói 225
thiến 225
giã_biệt 225
khẽ_khàng 225
nhật_nguyệt 225
oliver 225
vòm_trời 225
thế_gia 225
thiên_ưng_giáo 225
cao_lăng 225
thích@@ 224
/7@@ 224
1-2 224
8.@@ 224
lẫy_lừng 224
sinh_lý 224
mải_mê 224
nhân_sâm 224
sai_lệch 224
david 224
khôn_lớn 224
rẻ_tiền 224
tương_xứng 224
chệch 224
ng. 224
bán_đảo 224
hợp_@@ 224
giáo_dục_phổ_thông 224
quý_hiếm 224
lộ_liễu 224
110@@ 224
diệp_@@ 224
tài 224
cheo_leo 224
chán_chường 224
danh_y 224
biệt_@@ 224
tôn_sùng 224
sùng_bái 224
cà_vạt 224
nham_thạch 224
dài_dòng 224
hiền_từ 224
cảo 224
đứt_đoạn 224
dao_găm 224
nam_trang 224
đại_thanh 224
dương_tố 224
lệ_liên 224
8,@@ 223
n_ng@@ 223
khắt_khe 223
đỉnh_điểm 223
ộ@@ 223
đói_khát 223
hư_hại 223
tồn 223
lòng_@@ 223
ồm_ồm 223
xuất 223
định_hình 223
tốt 223
chỗ 223
ẫn 223
nhịp_nhàng 223
mả 223
mac@@ 223
sơ_đồ 223
_tâm 223
anne 223
girl 223
mật_khẩu 223
tila_nguyễn_sốc 223
lưu_thuỷ 223
_bang 223
276 223
hiềm_khích 223
túi_bụi 223
biện_bạch 223
một_trời_một_vực 223
mạc_tư_khoa 223
tiến_thoái 223
jennings 223
thu_mua 222
cơ_sở_hạ_tầng 222
đá_quý 222
họ@@ 222
marketing 222
ed 222
gara 222
xoa_bóp 222
nhạc_cụ 222
nhỏ 222
dị_nghị 222
pháp 222
nhừ 222
25/11 222
sông_nước 222
mắm 222
sinh_khí 222
thân_quen 222
vàng_@@ 222
học_bạ 222
nham 222
vẹn_toàn 222
giải_vây 222
thèm_muốn 222
thân_phụ 222
rờ 222
nói_thầm 222
ẩn_núp 222
nghênh_chiến 222
truỳ 222
căm_hờn 222
nhất_đẳng 222
trương_lộc 222
ðổng_khuông 222
ác_ôn 222
chu_cù 222
mộc_tang 222
công_nương 221
bks 221
chiều_hướng 221
b.@@ 221
bày_bán 221
ngs 221
chê_bai 221
ns@@ 221
kiến_trúc_sư 221
kiểm_chứng 221
cảm_@@ 221
thơm_tho 221
to_nhỏ 221
viễn_cảnh 221
by 221
xuyên_@@ 221
nắm_đấm 221
thảnh_thơi 221
/3/2012 221
premier_league_vff 221
falko_goetz_barcelona 221
bernabeu_basel 221
champions_league_quả 221
phóng_sự 221
diên_@@ 221
400,000 221
muôn_năm 221
chạm_mặt 221
lọt_tai 221
mãnh_tướng 221
xục 221
lã 221
lần 221
diêu_@@ 221
thọ_dương 221
thiên_ất_tử 221
tần_uyển_phụng 221
20192020 221
xúc_tiến 220
cn@@ 220
world 220
sơ_thẩm 220
thách 220
đánh_đổi 220
1968 220
_đức 220
tuổi 220
gây_rối 220
méo_mó 220
má@@ 220
chị@@ 220
p_th@@ 220
lucy 220
nước_đá 220
trác_@@ 220
ăm 220
trông_đợi 220
gióng 220
lưỡng_@@ 220
pháo_thủ 220
intel 220
cảnh_quan 220
thuần_@@ 220
ụp 220
giao_thiệp 220
xúi 220
túng 220
co_ro 220
trăm_tuổi 220
quyền_uy 220
hả_giận 220
ngoại_đạo 220
viễn_@@ 220
duyên_cớ 220
khúc_phi_yên 220
chủ_soái 220
sa_trường 220
biệt_lặc_cổ_đài 220
điệp_báo 220
tavi 220
triều_tôn 220
mariuytx 220
lo_@@ 219
gd@@ 219
bản_địa 219
ger 219
khả@@ 219
thấm_thía 219
vẹt 219
eri@@ 219
sou@@ 219
alice 219
dai_dẳng 219
giày_vò 219
_vân_@@ 219
có_hậu 219
thiết_nghĩ 219
kĩ_thuật 219
liêu_@@ 219
mất_lòng 219
thân_tình 219
emily 219
quằn_quại 219
hào_hùng 219
nhà_thương 219
hồn_@@ 219
vui_thú 219
kén 219
_thần 219
phân_minh 219
lạ_kỳ 219
ngố 219
răn 219
tề@@ 219
mắc_lừa 219
ô_uế 219
yên_lành 219
yên_thân 219
quí_phái 219
đại_đức 219
lễ_độ 219
danh_gia 219
phi_phàm 219
tam_tuyệt 219
mộ_dung_bác 219
lê_ngọc_hàng 219
fải 219
lư_thế_xuân 219
thông_lệ 218
khả_quan 218
al_@@ 218
ứng_@@ 218
cáo_trạng 218
bài_trí 218
trị_liệu 218
barack_obama 218
tửu_lượng 218
cli@@ 218
bi_quan 218
wo@@ 218
teo 218
căn_nguyên 218
stanton 218
fre@@ 218
thân_thuộc 218
bất_cẩn 218
nhà_lớn 218
di_dời 218
bóc_lột 218
cầm_cập 218
tte 218
cụm_từ 218
ub 218
đề_bạt 218
anh_vũ 218
trường_phái 218
ưởng 218
chất_chứa 218
mập_mờ 218
phong_trần 218
mãng 218
khuân 218
lạp 218
yêu_quí 218
si_tình 218
vèo_vèo 218
ngưòi 218
bán_tín_bán_nghi 218
hồn_phách 218
quốc_thái 218
thiên_cổ 218
nhất_loạt 218
bề_tôi 218
phương_sinh 218
quy_thuận 218
hà_khiêm 218
tiểu_quyên 218
nguỵ_diên 218
hành_si 218
lôi_hiểu 218
giải_thể 217
02@@ 217
nóng_giận 217
liệt_kê 217
bạc_liêu 217
cà@@ 217
tiện_ích 217
_an 217
zo@@ 217
cánh_@@ 217
lập_nghiệp 217
nạng 217
trọ@@ 217
cù 217
y_sĩ 217
ngồi_xổm 217
đời_thường 217
xuân_hương 217
lamborghini_aventador_j 217
quản_@@ 217
hò 217
chinh_chiến 217
keangnam 217
khô_khốc 217
iếu_@@ 217
hội_hoạ 217
đứa 217
suông 217
đông_đủ 217
ỏ 217
ý_trung_nhân 217
tráng_kiện 217
tư_sản 217
đánh_liều 217
ừa 217
tà_đạo 217
xong_chuyện 217
dương_tuyền 217
lan_hoa_phương_tử 217
vân_trung_nhạc 217
vân_mộng_bình 217
times 216
tic 216
bồ_đào_nha 216
logic 216
nước_thải 216
tuyên_@@ 216
đức_tin 216
los_angeles 216
công_nguyên 216
độ 216
điện 216
lực_lưỡng 216
mảnh_mai 216
ước_lượng 216
tâm_tính 216
thuý_nga 216
suôn_sẻ 216
xa_vời 216
bóng_chuyền 216
thực_@@ 216
hàm_chứa 216
trinh_@@ 216
giác_quan 216
maria 216
kiệm 216
mành 216
huê 216
tình_đầu 216
đắc_chí 216
napoleon 216
đối_nghịch 216
ra_bộ 216
toàn_gia 216
lĩnh_giáo 216
đàm_bách_thuỷ 216
phát_tiết 216
tiều_phu 216
võ_cử 216
đại_tống 216
phu 216
tiêu_minh_phượng 216
ban_bí_thư 215
mọt 215
ipod 215
buông_lỏng 215
new_zealand 215
sản_phụ 215
nhàm_chán 215
anh@@ 215
đái_tháo_đường 215
khàn 215
hạch 215
tra_cứu 215
ạnh 215
da_cam 215
chút_xíu 215
ner@@ 215
ém 215
gor@@ 215
key_lime_pie 215
14/12 215
28/1 215
anonymous 215
trù_ẻo 215
vũ_điệu 215
01/03/2012 215
đàn_áp 215
li_@@ 215
hóm_hỉnh 215
nguyễn_huệ 215
hào_hoa 215
man_rợ 215
khờ 215
đâ@@ 215
thượng_sách 215
đi_tu 215
già_trẻ 215
kiến_văn 215
nông_nỗi 215
chịu_lời 215
lễ_nghi 215
tay_sai 215
dụng_binh 215
hung_@@ 215
rên_la 215
tống_thái_tổ 215
mạnh_tam_nương 215
thiệc 215
chu_tước 215
chu_lão_thán 215
chung_vạn_cừu 215
bạch_hoàng_giáo 215
a_bích 215
tuấn_khương 215
kim_nguyên_đạo 215
nghỉ_dưỡng 214
cầu_kỳ 214
khuẩn 214
tâ@@ 214
at 214
way 214
từng 214
mặc 214
nia 214
sưng_vù 214
bè_bạn 214
bàn_cãi 214
hoại 214
đáng_ra 214
vu_vơ 214
đắk_lắk 214
_nguyệt 214
tủi 214
chế_tác 214
bích_ngọc 214
nhan_@@ 214
khốn_đốn 214
ngồi 214
hải_tặc 214
kỳ_thú 214
chê_trách 214
dự_tuyển 214
thần_t@@ 214
dùng_bữa 214
phục_hưng 214
mỵ 214
phiếm 214
nết 214
phong_hàn 214
hồ_lô 214
rút_cục 214
nhảy_bổ 214
trí_mạng 214
giang_lăng 214
quách_tùng 214
lâm_tri 214
dương_sơn 214
giorgio 214
tây_hoa_tử 214
phùng_như_nguyệt 214
tháo_gỡ 213
130 213
hiệ@@ 213
liều_mình 213
ã@@ 213
2-3 213
xoài 213
/11@@ 213
cà_rốt 213
cạn_kiệt 213
bít 213
ịch 213
áo 213
việt_đức 213
rời_rạc 213
sốt_rét 213
nam_châm 213
lay_chuyển 213
trở_mình 213
thể_chế 213
vân_vân 213
19/1 213
13/1 213
lì_xì 213
ấ 213
­@@ 213
frank 213
mễ@@ 213
loạn_lạc 213
cứ_cho_là 213
audrey 213
pê@@ 213
pháo_đài 213
xuýt 213
chư_hầu 213
hỏi_tội 213
huyết_chiến 213
kiến_đức 213
vua_tôi 213
huỳnh_dương 213
phát_xạ 213
lạy_tạ 213
nhĩ_văn_hoán 213
tiêu_hồng_tiến 213
thiết_sĩ_tâm 213
không_tâm_thái 213
thù_nhi 213
52019 213
cấp 212
d.@@ 212
ải_@@ 212
ze@@ 212
nguyễn_văn_th@@ 212
liên_hợp 212
lộc_@@ 212
đắc_@@ 212
cực_hình 212
radio 212
cơm_@@ 212
chức 212
vài 212
wu 212
1970 212
yê@@ 212
tiền_giang 212
găng_tay 212
nao_núng 212
/8 212
13/12 212
vali 212
đặng_thuỳ_trâm 212
nhóc_con 212
giá_rét 212
gia_phong 212
thiên_t@@ 212
buông_thả 212
thuỷ_@@ 212
dìm 212
trắc_bá 212
vờn 212
trừ_diệt 212
đoản_đao 212
lục_lâm 212
đơn_hùng_tín 212
phong_nhã 212
vương_bạc 212
tú_chân 212
ngọc_chiêu 212
khởi_kiện 211
ct@@ 211
quy_tụ 211
vẻ_vang 211
mỗi 211
nồng_độ 211
khỏi 211
_son 211
trang_trải 211
người_phát_ngôn 211
bến_tàu 211
ngày_giờ 211
tri_ân 211
trôi_chảy 211
kỷ_nguyên 211
12/1 211
hội_kiến 211
nguýt 211
thừa_thiên 211
tuyên_thệ 211
chót_vót 211
thông_thạo 211
yểm_hộ 211
rầy 211
độ_lượng 211
uổng_phí 211
báo_ứng 211
ruổi 211
triệt_thoái 211
oai_nghiêm 211
võ_tướng 211
11925@@ 211
cổ_kim 211
ðây 211
khổ_ðầu_ðà 211
willoughby 211
42019 211
vĩ_mô 210
tiếp_nối 210
_đường 210
lợi_@@ 210
thuận_@@ 210
xấu_số 210
olympic_@@ 210
cl@@ 210
về@@ 210
ận 210
tháng 210
tinh_khiết 210
tức_tốc 210
lờ_đờ 210
mục_sư 210
vệ@@ 210
thướt_tha 210
nhạy_bén 210
cộc 210
ô-mai 210
6/12 210
nốc 210
pixar 210
tường_@@ 210
phone 210
túi_tiền 210
àn_@@ 210
địa_danh 210
xám_xịt 210
thuỳ_vân 210
giãy 210
im_ắng 210
bính_@@ 210
yết 210
hùng_hổ 210
hợp_tình_hợp_lý 210
_binh 210
hoa_tranh 210
nàng 210
thất_phu 210
an_thế_thanh 210
lý_thế_tích 210
tông_bảo 210
mãn_thanh 210
lâm_an 210
thể_thống 210
vương_lăng 210
hồng_thất_công 210
nhiếp_ảnh_gia 209
ngắn_hạn 209
sca@@ 209
morgan 209
nhà_đất 209
cs@@ 209
lặt_vặt 209
âm_đạo 209
xịt 209
nhà_tắm 209
tan@@ 209
than_phiền 209
lam@@ 209
cứu_tinh 209
sông_@@ 209
chữ@@ 209
song_@@ 209
giữ_chân 209
ình_@@ 209
thừa_hưởng 209
cao_thượng 209
ngọc_sơn 209
tình_ca 209
11/2011 209
nhân_đức 209
ơi_là 209
âng 209
bóp_cổ 209
nhân_danh 209
chỉ_trỏ 209
thánh_mẫu 209
yếm 209
gianh 209
thượng_đẳng 209
lanh_lẹ 209
hoang_phế 209
giao_hảo 209
tư_không_diêu 209
hạ_quốc 209
sư_mẫu 209
cuống_quít 209
tà_thuật 209
ngũ_tử_tư 209
lâm_u 209
thanh_nhân 209
lợi_hanh 209
ff 208
nữ_trang 208
thu_giữ 208
oi 208
gừng 208
xước 208
chế@@ 208
du_hành 208
gầy_nhom 208
ment 208
phát_nổ 208
chát_chúa 208
xx 208
̉m 208
up 208
đầy 208
biểu_dương 208
marie 208
ạo 208
ire 208
uni@@ 208
túc_trực 208
ìn 208
thiền_định 208
loà 208
phương_trình 208
một_cái 208
rỉ_tai 208
nguyễn_phú_trọng 208
luận_án 208
hương_sơn 208
mông_@@ 208
rày 208
thời_thế 208
toại_nguyện 208
bập_bùng 208
xỉu 208
tọt 208
ngất_trời 208
xây_cất 208
tua_tủa 208
trắng_toát 208
nhà_lao 208
tây_đạo 208
nông_phu 208
hoài_thuỷ 208
tư_tình 208
đáp_lý_đài 208
hàn_kế_tín 208
phùng_xuân_nhạ 208
đồng@@ 207
ky@@ 207
_k@@ 207
147 207
lấn_át 207
phim_ảnh 207
bận_bịu 207
xh 207
nó@@ 207
tuyển_thủ 207
mật_@@ 207
thanh_thoát 207
tế 207
chứng 207
rạo_rực 207
quẩn 207
chẻ 207
máu_nóng 207
256 207
hộ_khẩu 207
hoằng_@@ 207
quyết_chí 207
25/1 207
yahoo 207
hùng_dũng 207
dạ_hội 207
khe@@ 207
phân_định 207
kiếm_ăn 207
tuần_dương_hạm 207
danh_thiếp 207
phẩy 207
ngang_tàng 207
gô@@ 207
khẩn_khoản 207
hổ_khẩu 207
tịnh_trai 207
disa 207
ưa_chuộng 206
xu_thế 206
247 206
gt 206
ft 206
rổ 206
2,5 206
chạnh_lòng 206
ino 206
trí_não 206
máu_@@ 206
quảng_tây 206
tony 206
thích 206
ré 206
vơ@@ 206
hẵng 206
trũng 206
dương_cầm 206
dành_dụm 206
nôn_nao 206
điện_biên 206
tri_@@ 206
hùng_vương_tphcm 206
thơ_mộng 206
bạo_động 206
thảm_cảnh 206
bốt 206
tin_tặc 206
đậm_đà 206
ngách 206
nhị_@@ 206
thõng 206
uy_quyền 206
ẽ 206
thảm_thương 206
chường 206
thẳng_tắp 206
yểm_trợ 206
tâm_tưởng 206
mạnh_giỏi 206
triết_la_tinh 206
ðinh_bất_tam 206
đông_á 205
cộng_sự 205
nhỏ@@ 205
tel 205
quảng_đông 205
viện_kiểm_sát 205
cafe 205
to_tát 205
cd 205
danh_lợi 205
á_châu 205
tâm_đắc 205
tự_ti 205
ana 205
sàng_lọc 205
uyên_@@ 205
bon 205
_phi 205
giới 205
dù 205
mil@@ 205
quận_huyện 205
_hương 205
hoặc 205
hụt_hẫng 205
tính 205
đủ 205
phô@@ 205
ẽ@@ 205
đan_mạch 205
giỏi_giang 205
cử@@ 205
tay_ba 205
hen@@ 205
thô_sơ 205
trắng_tay 205
rồ 205
mở 205
ửa 205
ầy 205
sắt_đá 205
diễn_@@ 205
lác_đác 205
chiếm_giữ 205
quỷ_sứ 205
đầu_lưỡi 205
ngút 205
ðánh 205
ắt_là 205
lầm_lì 205
wozniak 205
tôn_thất 205
lục_mạch_thần_kiếm 205
bao_hưng 205
tiên_tử 205
ngọc_trí 205
robert_langdon 205
đại_dũng 205
hiếu_sắc 205
tố_thư 205
hô_diên_táng 205
công_tôn_cửu 205
farewell 205
ược 204
chín_chắn 204
mạ@@ 204
60% 204
tp.hcm. 204
bao_hàm 204
khẩu_phần 204
nhân_sinh 204
_dung 204
vô_định 204
hoa_cúc 204
oẹ 204
nặn 204
fax 204
15/9 204
chiến_sự 204
nhĩ@@ 204
ốm_đau 204
điều_ước 204
cố_hữu 204
tỉnh_bơ 204
truy_lùng 204
vĩnh_hằng 204
anh_thư 204
tx@@ 204
gôn 204
tối_mịt 204
viện_binh 204
lố 204
ngô_kiến_huy 204
chiếm_đóng 204
trói_buộc 204
lãnh_địa 204
làm_chủ 204
hậu_cung 204
ngô_sĩ_liên 204
tranh_hùng 204
nợ_máu 204
thác_bạt 204
26189@@ 204
lã_hùng 204
giáng_long 204
bao_tích_nhược 204
dương_liên_ðình 204
tiểu_lạc 204
vina@@ 203
vênh 203
tiêu_huỷ 203
nhà_tài_trợ 203
hạn_hán 203
xịn 203
phẫu 203
ngộ_độc 203
ỉnh 203
tes 203
ara@@ 203
ers 203
̃n 203
là_hơi 203
giấy_@@ 203
t_m@@ 203
khổ_cực 203
vắn_tắt 203
phòng_ốc 203
vật_tư 203
nhân_quyền 203
inh_ỏi 203
t.ư 203
xanh_tươi 203
stamford_bridge 203
hậu_trường 203
tình_địch 203
tàu_sân_bay 203
mướt 203
phi_lý 203
530@@ 203
tuệ@@ 203
iết_@@ 203
thanh_thảo 203
hồ 203
giảng_hoà 203
chiêu_bài 203
tù_trưởng 203
vinh_hoa 203
tung_hô 203
triết_gia 203
điên_loạn 203
thang_@@ 203
mờ_ám 203
rì_rào 203
đa_đoan 203
xồm 203
nhọn_hoắt 203
bá_quan 203
lý_bạch 203
đại_phá 203
đồng_đảng 203
câu_hồn 203
tuý_đầu_đà 203
ʺ. 203
phần_cứng 202
pla@@ 202
dy 202
đường_bay 202
đo_lường 202
tật_nguyền 202
ling 202
ghi_hình 202
cửa_ngõ 202
ính 202
tất_@@ 202
sao_@@ 202
công_bộc 202
phương_linh 202
trang_hoàng 202
iều 202
le_lói 202
giờ_khắc 202
ngoa 202
bần_thần 202
hun_hút 202
thua_thiệt 202
lừa_bịp 202
uyên_bác 202
tịnh_@@ 202
thịnh_tình 202
lê_dương 202
cáo_lui 202
bở_vía 202
thuỷ_kỳ_lân 202
16569@@ 202
đồ_ma_cốt 202
mã_ngọc 202
ma_cung 202
hân_ly 202
trường_thi 201
tương_quan 201
25% 201
125 201
hạnh_@@ 201
dầu_@@ 201
12-@@ 201
cận_kề 201
_lực 201
/12@@ 201
:01 201
bệnh_nhi 201
đuợc 201
mọng 201
lành_lặn 201
máy 201
xuống_dốc 201
na_uy 201
ken@@ 201
quên_lãng 201
khản 201
diễn_tập 201
cơ_động 201
ậu 201
chói_chang 201
tự_giác 201
ajax 201
hoàn_trả 201
04/03/2012 201
tê_tái 201
huyên 201
mộng_@@ 201
quần_@@ 201
mã_lực 201
tốc_lực 201
ngao_ngán 201
loá_mắt 201
yên_nghỉ 201
thất_truyền 201
độc_tài 201
diện_kiến 201
ĩ@@ 201
đánh_hơi 201
hồng_nhan 201
vô_liêm_sỉ 201
tam_quan 201
nhu_mì 201
cố_nhân 201
truyện_dài 201
bờ_cõi 201
vô_đạo 201
hề_hề 201
võ_khí 201
điệp_luyến_hoa 201
diêu 201
tam_nhãn 201
lê_đại 201
hiễu 201
nhã_đại_ny 201
bạch_tự_tại 201
vi_thiên_cơ 201
gia_luật_sở_tài 201
lee 200
20.000 200
phiên_dịch 200
kiểu_dáng 200
chiếu_phim 200
atm 200
nhân_quả 200
ql@@ 200
y @@ 200
dj 200
ml 200
hình_thể 200
đế@@ 200
đen_nhánh 200
trọng 200
bỏ 200
nhận_dạng 200
xâm 200
vị_thành_niên 200
ngỗng 200
mệt_nhoài 200
hối_thúc 200
cấu 200
bật_lửa 200
xuýt_xoa 200
nài_nỉ 200
nghệ_sỹ 200
biếm_hoạ 200
la_liga 200
áo_mưa 200
khiết 200
phượt 200
hoang_@@ 200
tây_sơn 200
tan_tác 200
cửa_biển 200
đại_bộ_phận 200
học_thuyết 200
thơ_ngây 200
hồi_đáp 200
quơ 200
hoan_lạc 200
khứ 200
cữu 200
hẹn_ước 200
đông_kinh 200
phụ_mẫu 200
xuất_chinh 200
nguyên_lão 200
cầu_kiến 200
mạc_bắc 200
vu_thần 200
huyền_hoả_giám 200
hêluy 200
du_tấn 200
hoàn_độ 200
chu_đan_thần 200
hương_phi 200
diệp_my 200
hậu_phương 199
logo 199
thậm 199
hồ_hởi 199
_dũng 199
ẩ@@ 199
buông_xuôi 199
lý_lịch 199
lim 199
buồng_trứng 199
dan 199
7849 199
tươi_mát 199
thực_nghiệm 199
266 199
xù 199
ài_@@ 199
thời_thượng 199
hò_hẹn 199
thú_dữ 199
tiến_minh 199
lưu_ly 199
thổ@@ 199
chinh_phạt 199
mê_muội 199
tiếp_tân 199
chúa_tể 199
câu_kết 199
lảm_nhảm 199
ùm 199
chiêm_bao 199
phất_phới 199
sát_hợp 199
đắc_đạo 199
tiêu_diêu 199
úi_chà 199
khang_thân_vương 199
bọn 199
tiên_vương 199
không_động 199
diêu_cương 199
tiểu_quan 199
chu_trường_linh 199
định.@@ 198
9,@@ 198
nuối_tiếc 198
giám_đốc_điều_hành 198
tz 198
ật 198
cao_tầng 198
quy_nhơn 198
 các 198
ngũ_cốc 198
giải_phẫu 198
:05 198
tất_bật 198
7917 198
bor@@ 198
tựu 198
nhiếp_ảnh 198
hiện_đại_hoá 198
nhăm 198
12/11 198
ống_quần 198
-4 198
ão 198
con_ruột 198
đưa_đẩy 198
vãng 198
usb 198
kỉ 198
cầu_treo 198
tạo_dáng 198
thành_ngữ 198
chế_@@ 198
tôn_đức_thắng 198
bái_@@ 198
xa_gần 198
_sỹ 198
lùi_bước 198
công_trạng 198
hộ_giá 198
quở_trách 198
khoan_hồng 198
hung_bạo 198
dung_tha 198
cung_nga 198
thê_thiếp 198
tuyệt_trần 198
tổ_phụ 198
ân_thiên_chính 198
gian_thần 198
andré 198
độc_cô_phong 198
chu_nguyên_chương 198
nhãy 198
tôkita 198
vương_tiến_bảo 198
bạch_mi_giáo 198
thiết_chỉ_thư_sinh 198
oa_khoát_đài 198
con_dấu 197
r_@@ 197
/4@@ 197
linh_kiện 197
dàng 197
hồ_@@ 197
dãn 197
mãnh_hổ 197
châ@@ 197
rốn 197
ẩy 197
super@@ 197
ể@@ 197
tán_@@ 197
diễn_tiến 197
háo 197
́o 197
bộ_nhớ 197
ượng_@@ 197
tử 197
cảnh 197
vật_vã 197
_hoá 197
úng 197
ồng_@@ 197
gối_đầu 197
ổ_cứng 197
12/12 197
ậm_ừ 197
osin 197
14/1 197
huế_bằng 197
vũ_bão 197
bày_biện 197
mình_mẩy 197
biết_tay 197
hậu_duệ 197
tôn_t@@ 197
tán_tụng 197
lủi 197
hoang_tàn 197
thiết_giáp 197
bưu 197
trùng_điệp 197
raptor 197
thần_quyền 197
arnold 197
đánh_đòn 197
chút_đỉnh 197
cửa_quan 197
ngọc_yến 197
thánh_thót 197
nhún_mình 197
liêm_pha 197
vạn_hoá_đạo_tử 197
kiểm_toán 196
by@@ 196
gia_công 196
dy@@ 196
trú_ẩn 196
shar@@ 196
os 196
vnđ 196
ngo 196
phòng_tránh 196
bước_ngoặt 196
chèn_ép 196
1972 196
ney 196
_thu_@@ 196
bốc_@@ 196
dũng_@@ 196
ngấy 196
thớ 196
khâm_@@ 196
cô_chú 196
cải_tổ 196
valentine_bàng 196
xỉ 196
ằng 196
iệp 196
phục_sức 196
piano 196
bão_tố 196
phép_tắc 196
chánh_@@ 196
cùng_đường 196
_lại 196
đát 196
quấn_quít 196
si_mê 196
phúc_đáp 196
chiến_hữu 196
thôn_tính 196
tạ_thế 196
viễn_chinh 196
bụm 196
ðứng 196
diệc 196
vũ_văn_hàn_ðào 196
phàn_cương 196
lẹ_làng 196
miêu_@@ 196
66@@ 195
gates 195
giòn 195
30.000 195
1982 195
_do@@ 195
tổ_ấm 195
xát 195
ượ@@ 195
cấm_@@ 195
sức 195
lết 195
cổ 195
buổi 195
khẳng 195
lặp_đi_lặp_lại 195
nam_phi 195
_mi@@ 195
lòng 195
chủng_loại 195
y-@@ 195
william 195
ến 195
mường_tượng 195
gông 195
răn_đe 195
mưu_tính 195
nhục_mạ 195
cùng_@@ 195
vnpt 195
:4@@ 195
la_lối 195
_thái 195
ần_@@ 195
minh_tinh 195
thanh_hoa 195
trời_@@ 195
rơ@@ 195
tung_tăng 195
bề_trên 195
sục 195
nhoài 195
huých 195
trù_trừ 195
nữ_sắc 195
mé@@ 195
bịp 195
trạng_nguyên 195
định_tâm 195
ma_môn 195
nhọc_lòng 195
ngũ_tuyệt 195
vương_xử_nhất 195
kratz 195
huyền_thiên 195
tiêu_phụng_hoàng 195
trích_tinh_tử 195
èo 194
italy 194
thị_phần 194
ot 194
140 194
105 194
cnn 194
tình_nguyện_viên 194
khử 194
ngọc_linh 194
ld 194
giun 194
đau_ốm 194
phóng_khoáng 194
hà 194
hoàng_thị@@ 194
khẩu_trang 194
3000 194
đầm_ấm 194
mann 194
kham 194
phát_thanh 194
gốc_rễ 194
sát_cánh 194
ghi_chú 194
pi 194
strauss-kahn 194
ibm 194
đỡ_đầu 194
đb 194
lý_sơn 194
long_đình 194
đồ_cổ 194
iế@@ 194
đèn_@@ 194
tồi_tàn 194
vố 194
câu_nệ 194
tắt_ngấm 194
quên_mình 194
lăn_lóc 194
ly_gián 194
diêm_nguyên_cảnh 194
phổ_kiên 194
lệnh_bà 194
tra_y_hoàng 194
dịch_cân_kinh 194
tiêu_thất 194
tương_lão 194
hàn_tiểu_oanh 194
lỗ_công_hành 194
thông_thiên_giáo 194
chu_nhất_cuồng 194
sinh_thái 193
l.@@ 193
nhà_phân_tích 193
già_yếu 193
khá@@ 193
thiện_chí 193
thể_hình 193
ty@@ 193
.com 193
ise 193
hen 193
cc 193
sò 193
mát_@@ 193
lê_h@@ 193
cứ@@ 193
̀y 193
im@@ 193
ễ@@ 193
sờ_soạng 193
ham_mê 193
ón 193
hoá_thạch 193
gội 193
đồng_loại 193
chính_khách 193
đươc 193
pr 193
doãn_@@ 193
khái 193
nào_@@ 193
sừng_sỏ 193
2/12 193
ê_chề 193
ev71 193
15/11 193
gay_cấn 193
_lương 193
xối_xả 193
thô_thiển 193
bóng_loáng 193
uốn_éo 193
dầy_đặc 193
lẳng_lơ 193
chỉ_dụ 193
côn_minh 193
lấm_tấm 193
dâm_đãng 193
tư_vị 193
đầu_lĩnh 193
phạm_thiên 193
trảm_long_kiếm 193
phôsơlơvăng 193
dương_bất_hối 193
âu_trường_phong 193
huyết_ảnh_ma_tôn 193
công_tôn_hách 193
hơn.@@ 192
tuyên_quang 192
xông_pha 192
thâm_niên 192
time 192
lou@@ 192
nghẹt 192
hoàn 192
tì@@ 192
3:@@ 192
loang_lổ 192
khá_giả 192
bất_hủ 192
ngất_ngưởng 192
đặc_vụ 192
kennedy 192
cơ_cực 192
vượt_ngục 192
ẩn_số 192
nối_đuôi 192
liveshow 192
thưởng_ngoạn 192
vô_danh_tiểu_tốt 192
thương_mến 192
chu_văn 192
túa 192
sớm_tối 192
đi_sát 192
khổ_sai 192
viên_tịch 192
uy_vũ 192
tiếu_@@ 192
bạt_@@ 192
hoạn_quan 192
hải_sa 192
chuyển_vận 192
can_qua 192
thiên_ma_@@ 192
tử_trạch 192
nam_cung_ngọc 192
vạn_độc_môn 192
tích_mộc 192
shb 191
leo_thang 191
điều_tiết 191
lâm_nghiệp 191
chile 191
sho@@ 191
bộc_phát 191
că@@ 191
cá_thể 191
29/1 191
vũ_thị@@ 191
dor@@ 191
16/11 191
phạm_luật 191
gs.ts 191
ngựa_@@ 191
iệt 191
tháp_tùng 191
rooney 191
mạch_môn 191
vĩ_thanh 191
angelina_jolie 191
giắc 191
trọng_bệnh 191
buồn_tẻ 191
công_tước 191
ra_trò 191
vô_sản 191
bịt_mắt 191
tâm_lực 191
hồng_thuỷ 191
sồi 191
tử_địa 191
nhất_tâm 191
xuất_thế 191
võ_trang 191
ngộ_xuân 191
kinh_thiện 191
hoa_thích_tử_mô 191
chung_khí_tử 191
vân_thao 191
khoáng 190
trực_diện 190
đất_@@ 190
thạnh 190
đơn_thân 190
nhiễm_bệnh 190
văcxin 190
nguyê@@ 190
sky 190
dãi 190
i. 190
niêm 190
sọc 190
mang_tai 190
tránh_mặt 190
_vị 190
thơm_ngát 190
lang_@@ 190
thanh_lý 190
liệt_@@ 190
quỹ_khuyến 190
lã_chã 190
@gmail 190
phán_quyết 190
sĩ_diện 190
giấy_bạc 190
trụi 190
lán 190
xiêm_y 190
biền 190
không_đội_trời_chung 190
đâm_đầu 190
ẫm 190
đèn_pha 190
trân_trân 190
xúi_giục 190
quan_âm 190
betty 190
khổ_công 190
giử 190
chú_mày 190
đại_nghịch 190
trương_tiệp_dư 190
khôi_vĩ 190
thạch_tố_phương 190
slade 190
mai_lăng 190
liễu_văn 190
điền_tú_tú 190
bến_tre 189
tai_@@ 189
/8@@ 189
robert_@@ 189
định_vị 189
thất_thoát 189
dụ@@ 189
kiêng 189
trầm_lắng 189
gồng 189
hor@@ 189
phả@@ 189
khít 189
rõ 189
tróc 189
ều 189
đỗ_thị@@ 189
lực 189
phiền_lòng 189
mấy 189
đêm_đêm 189
luân_phiên 189
elli@@ 189
stu@@ 189
bán_trú 189
thích_đáng 189
serie_a 189
hiển_hách 189
quốc_học 189
nguyễn_quang_@@ 189
bẽ_bàng 189
_ninh 189
hì 189
dốt 189
mưu_mô 189
vắng_tanh 189
tuất 189
yên_vị 189
tamara 189
ngu_muội 189
rầm_rầm 189
róc_rách 189
chân_nhân 189
học_sĩ 189
đậu_khấu 189
ðịnh 189
thánh_nhân 189
lâm_lãng 189
bảo_tiêu 189
hữu_lượng 189
dương_diên_chiêu 189
vệ_bích 189
tầm_vóc 188
ắ@@ 188
.vn 188
đồ_án 188
tiêu_chảy 188
micro 188
sảy 188
plus 188
nội_soi 188
chăn_gối 188
thả_lỏng 188
7851 188
đời 188
vô_hiệu 188
lla@@ 188
ghẻ 188
ngất_ngây 188
đởm 188
bủn_rủn 188
phim_hoạt_hình 188
àng_@@ 188
trưởng_thôn 188
sân_vận_động 188
tân_binh 188
tỉ_phú 188
kêu_ca 188
nghi_án 188
siêu_việt 188
_vinh 188
phẳng_lặng 188
tại_trận 188
1248@@ 188
sạn 188
thấu_đáo 188
sắc_thái 188
cuội 188
quầy_quậy 188
toàn_tâm_toàn_ý 188
tấm_tắc 188
oan_hồn 188
xá_lợi 188
ríu_rít 188
đạo_tặc 188
tuệ_mẫn 188
phí_bân 188
môn_đệ 188
tru_tiên_cổ_kiếm 188
hổ_lao 188
ngốc_bút_ông 188
đui_mù 188
ðỉnh 188
lý_tĩnh 188
vu_sở_hồng 188
lưu_dung 188
thâm_hiểm 188
triệu_bá 188
vạn_kiếm_nhất 188
mộc_kiếm_thanh 188
đồ_thúc_phương 188
thiên_ma_thế_vương 188
bạch_tố_nghi 188
tự_phát 187
nhà_@@ 187
tối_tân 187
thun 187
đi_cầu 187
ký@@ 187
kt 187
17:@@ 187
1950 187
sợ 187
bố 187
dát 187
pe 187
dụng 187
khoa_học_kỹ_thuật 187
_so@@ 187
cá_kình 187
tận_thế 187
xoá_sổ 187
@@@ 187
lông_mi 187
rock 187
ngự_trị 187
_hoàng 187
ức_hiếp 187
ngán_ngẩm 187
rần 187
như_ai 187
nhá 187
hat-trick 187
công_tâm 187
kẻ_trộm 187
:5@@ 187
khuất_tất 187
xiềng_xích 187
đối_chọi 187
uốn_lượn 187
ngân_sơn 187
_đạo 187
hả_hê 187
ôn_luyện 187
thắm_thiết 187
làu_bàu 187
xui_xẻo 187
lừ 187
lút 187
suối_vàng 187
phẫn_uất 187
xuất_quân 187
vua_chúa 187
ly_biệt 187
khảy 187
sắc_lạnh 187
thò_lò 187
ðương 187
phản_gián 187
gia_nô 187
ðông_phương 187
hoa_thương_thương 187
lỗ_túc 187
﻿@@ 186
kate 186
iề@@ 186
viet@@ 186
ngấu_nghiến 186
đần_độn 186
bỏ_dở 186
lệ_thuộc 186
cò@@ 186
xã 186
tuỳ@@ 186
cy 186
trí 186
nổi 186
lơ_mơ 186
thú_vật 186
lan_anh 186
nhập_cư 186
tính_@@ 186
trau_dồi 186
phantom 186
âm_lịch 186
đồng_tâm 186
cang 186
chủ_toạ 186
bịn_rịn 186
thùng_thình 186
tủ_sách 186
năm_ba 186
như_chơi 186
phiêu_bạt 186
vô_thanh 186
quí_giá 186
sọt 186
phúc_châu 186
sùng_@@ 186
ẻo 186
già_dặn 186
ngoi 186
trang_nhã 186
trắng_nõn 186
thục_mạng 186
quên_bẵng 186
thần_long_giáo 186
tiên_nhân 186
mạo_xưng 186
nội_ứng 186
nữ_chân 186
lạc_phương 186
lề_luật 186
xét_đoán 186
phổ_hoằng_thượng_nhân 186
huyện_uỷ 185
_mỹ@@ 185
for 185
ms@@ 185
ầ@@ 185
gro@@ 185
hệ_quả 185
triệu_phú 185
 trong 185
tuỷ 185
khuấy 185
an_th@@ 185
nảy_nở 185
lây_truyền 185
chạy 185
sát 185
màng_trinh 185
vĩnh_long 185
hâm 185
lời_giải 185
tour 185
đó_đây 185
trái_@@ 185
đồi_bại 185
phố_phường 185
cấu_hình 185
abramovich 185
ước_@@ 185
ibra 185
29/02/2012 185
quyết_thắng 185
nương_nhờ 185
đâu_vào_đấy 185
cổ_tự 185
nóng_rực 185
óm 185
truy@@ 185
1a 185
gió@@ 185
trần_t@@ 185
bob 185
h00 185
kê_khai 185
câm_lặng 185
_thần_@@ 185
hàn_huyên 185
cân_@@ 185
hậu_sinh 185
gàn 185
ghế_dài 185
uất_hận 185
dọ 185
vương_hầu 185
nước_đại 185
nghĩa_sĩ 185
dạ_oa_tử 185
phóng_đãng 185
quí_tộc 185
cao_ly 185
hồng_mao 185
hốt_lan 185
độc_chủ_hành 185
thá@@ 184
giãi_bày 184
lực_lượng_vũ_trang 184
đóng_dấu 184
_re@@ 184
bả@@ 184
đ. 184
thuỵ@@ 184
ui 184
quýt 184
lúa_mì 184
vẻ 184
mẫu_@@ 184
chuyên_dùng 184
dân_nghèo 184
ngọc_thạch 184
ẳm 184
_nhi 184
tin_@@ 184
und@@ 184
ram 184
asha 184
từ_trần 184
canh_bạc 184
vi_hiến 184
bi_đát 184
thư_pháp 184
lài 184
uý@@ 184
_hùng 184
hoàng_thái_tử 184
xén 184
kỳ_quan 184
sửu 184
bại_hoại 184
cách_@@ 184
dữ_dằn 184
vẹn 184
thanh_cao 184
ngõ_hẻm 184
nghen 184
thứ_bậc 184
vai_vế 184
ngoạn 184
dây_leo 184
bố_thí 184
thiên_chúa 184
nghinh_tiếp 184
răng_rắc 184
ngạc_lan 184
dương_toàn_kỳ 184
tiêu_viễn_sơn 184
ðặng_bách_xuyên 184
tomek 184
có_dễ 183
nhu@@ 183
bá_vương 183
mà@@ 183
hormone 183
rà 183
chấn_@@ 183
phàn 183
bán_nguyệt 183
đường_sinh 183
trung_hoà 183
thịnh_hành 183
1984 183
vạ@@ 183
26/1 183
dubai 183
điê@@ 183
chằng 183
thủ_thỉ 183
thế_kỉ 183
sãi 183
phũ_phàng 183
iết 183
ngây_dại 183
long_th@@ 183
võ_sỹ 183
minh_quân 183
tam_anh 183
khổ@@ 183
trối 183
quách_@@ 183
trần_thế 183
luân_@@ 183
ái_mộ 183
sương_@@ 183
cười_xoà 183
phấp_phới 183
mê_đắm 183
nhác 183
vụng 183
bê_bết 183
mát_rượi 183
bôn 183
tiểu_đội 183
ân_huệ 183
computer 183
bặm 183
oanh_liệt 183
giũ 183
dễ_sợ 183
947@@ 183
tốc_bất_đài 183
uất_trì_kính_đức 183
hạnh_hoa 183
tiết_mộ_hoa 183
huyền_tịch 183
hàn_thanh_quân 183
tôlan 183
thần_hành_tiểu_la 183
tti 182
basel 182
buôn_lậu 182
_tình 182
hoà_mình 182
ston 182
mer 182
trẻ@@ 182
thủa 182
chăm_chút 182
james@@ 182
nhăn_nheo 182
chèn 182
fan@@ 182
nâng_niu 182
ín 182
_mai 182
đường_thẳng 182
cở 182
đồng_ruộng 182
đồng_bạc 182
cấm_vận 182
tip 182
bội_phần 182
7:@@ 182
biện_hộ 182
ảng 182
trống_trơn 182
cơm_rượu 182
thủ_trưởng 182
kim_đính 182
thầy_bói 182
...... 182
nhảm_nhí 182
tra_khảo 182
xuất_đầu_lộ_diện 182
diễm_phúc 182
thù_hằn 182
quán_@@ 182
sỉ 182
mộng_tưởng 182
chúc_thọ 182
minh_minh 182
đại_lão 182
phong_tình 182
phân_tranh 182
ðịa 182
hầu_cận 182
thư_trai 182
tô_thuyên 182
mông_lực_khắc 182
hô_diên_tán 182
tiền_lão_bản 182
bao_nhất_thiên 182
trát_lan_đinh 182
hoàng_vân_nhi 182
tô_lỗ_khắc 182
thô@@ 181
uỷ_ban_nhân_dân 181
bình_dị 181
đưa_@@ 181
thăng_trầm 181
nhôm 181
ol@@ 181
_mo@@ 181
lươ@@ 181
hệ 181
cholesterol 181
bứt_rứt 181
bước_sóng 181
lê_phương 181
đầu_lòng 181
o @@ 181
thuyên_giảm 181
ền 181
kí@@ 181
ẹ@@ 181
field 181
1987 181
khó 181
phòng_@@ 181
lọt_lòng 181
rã 181
ỏng 181
tiếng_@@ 181
nhập_@@ 181
câu_đố 181
bật_mí 181
ạn 181
nuôi_trồng 181
21/1 181
bin_laden 181
lãm 181
hiệu_nghiệm 181
hùm 181
cần_@@ 181
nhu_nhược 181
cô_cậu 181
kỳ_@@ 181
niên_@@ 181
thatcher 181
mười 181
đánh_úp 181
gái_điếm 181
khinh_suất 181
cổ_mộ 181
lắc_@@ 181
quái_quỷ 181
chiến_quốc 181
chết_tươi 181
cao_hoài_đức 181
dư_triệu 181
miệt_nhi_khất 181
huyết_hận 181
phong_đức_di 181
nhi_nữ 181
lý 181
lý_tứ 181
capone 181
vương_bình_thuận 181
32019 181
ậ@@ 180
phụ_kiện 180
tiếc_rẻ 180
trê@@ 180
lớ@@ 180
amazon 180
ám_thị 180
xí_nghiệp 180
nguyễn_duy@@ 180
liệu_pháp 180
nhịn_đói 180
115 180
ích_lợi 180
hình_hài 180
lò@@ 180
nữ 180
hpv 180
nhớ 180
hy_hữu 180
vững_chãi 180
quốc_trung 180
biế@@ 180
nhũ 180
xóc 180
diễn_thuyết 180
độc_tính 180
nghệ@@ 180
nhâm 180
vẫy_vẫy 180
̉y 180
quai_hàm 180
cấp_bậc 180
ậm 180
xe_bò 180
triết 180
hiền_@@ 180
_vi 180
hương_hoa 180
đặc_phái_viên 180
nhật_báo 180
oán_thù 180
bộ_hành 180
cầm_chắc 180
đùng 180
cất_nhắc 180
chòm_sao 180
oan_gia 180
roger 180
tăng_gia 180
tao_nhã 180
lật_@@ 180
ngu_dốt 180
đoạn_trường 180
lauren 180
việc_gì 180
phu_tử 180
thiên_sách 180
lâm_sĩ_hồng 180
khuê_phòng 180
thị_tỳ 180
rothschild 180
lương_tử_ông 180
vest 179
định_giá 179
_hiền 179
4.0 179
10.@@ 179
ios 179
ban_ngành 179
sơ_tuyển 179
ổi_@@ 179
xan@@ 179
lục_phủ_ngũ_tạng 179
kỷ@@ 179
xâm_lấn 179
kins 179
tur@@ 179
chất 179
đỗ_văn_@@ 179
trời 179
đặc 179
̀u 179
vô_hại 179
chứ 179
để@@ 179
đường_dẫn 179
19/12 179
_hồng_@@ 179
ba_vì 179
40@@ 179
phương_châm 179
đẽo 179
vấy 179
phân_bổ 179
svhouse 179
ngọc_lâm 179
tiếp_tế 179
trần_trụi 179
quản_lí 179
qúa 179
đen_láy 179
xắn 179
tàu_thuỷ 179
hiệu_phó 179
số_là 179
ngâm_nga 179
líu_lo 179
áo_quan 179
song_kiếm 179
linh_khí 179
xẵng 179
huý 179
huyên_thuyên 179
trung_sĩ 179
định_luật 179
thí_mạng 179
hầu_thông_hải 179
quan_thanh 179
bị 179
hạ_quyên 179
trầm_tú 179
khổng_tử 178
7/@@ 178
_le@@ 178
chính_yếu 178
100.000 178
sử_sách 178
mã_hoá 178
trắng_@@ 178
ăn_kiêng 178
cher@@ 178
vũ_trường 178
đề_kháng 178
rong_ruổi 178
bro@@ 178
nhảy_@@ 178
mai@@ 178
an_sinh 178
ãn 178
ằn 178
gang_tấc 178
lãnh_vực 178
phận_sự 178
13/11 178
rắn_rỏi 178
leverkusen 178
fukushima 178
02/03/2012 178
tự_phê_bình 178
hội_chợ 178
đảo_chính 178
cật_lực 178
cười_@@ 178
va_li 178
ngữ_điệu 178
xiếc 178
tương_truyền 178
địch_quân 178
xxi 178
bước_@@ 178
bài_làm 178
cực_@@ 178
nhụt 178
thoát_ly 178
đóng_kịch 178
thiêm 178
vàng_ngọc 178
bàn_định 178
liễu_yến 178
uỷ_tôn_giả 178
cực_lạc 178
trịnh_thục_minh 178
thuốc_lào 177
thu_gom 177
cy@@ 177
chọn_lọc 177
bạ@@ 177
ki_@@ 177
cảm_thán 177
 ảnh 177
ul@@ 177
ò@@ 177
bã 177
_lo@@ 177
chịu 177
mách_bảo 177
sơn_hà 177
tn 177
cháy_bỏng 177
chờ 177
dự@@ 177
toạ_đàm 177
thực_thụ 177
_từ 177
cả_quyết 177
322 177
mộc_mạc 177
tháng_@@ 177
1978 177
đương_đại 177
21/12 177
xả_thân 177
nuôi_nấng 177
_lệ 177
cao_th@@ 177
văn_thanh 177
,_hoả 177
iệu_@@ 177
rác_rưởi 177
sính 177
lảng_tránh 177
âm_phủ 177
đoạn_tuyệt 177
thị_uy 177
hợp_tác_xã 177
văn_nhân 177
ỡ 177
bím 177
đắng_cay 177
gở 177
toà_thánh 177
chấn_song 177
bát_đĩa 177
êm_ả 177
đồng_tâm_hiệp_lực 177
hớn 177
ranh_mãnh 177
tinh_kỳ 177
đa_mưu 177
saunière 177
cửu_giang 177
giảo_quyệt 177
hồng_phất_nữ 177
thủ_tĩnh_đường 177
võ_thánh 177
uyên-sơn 177
đánh_bắt 176
lịch_trình 176
liên_doanh 176
ptnt 176
70@@ 176
truyền_tải 176
thông_dụng 176
qatar 176
_thức 176
af@@ 176
andre@@ 176
ar 176
hệ_luỵ 176
̣a 176
̀a 176
sự@@ 176
ớ@@ 176
kim_thư 176
sách_báo 176
george@@ 176
y_nguyên 176
kênh_truyền_hình 176
phanh_phui 176
mắt_cá 176
ngón_cái 176
ỡ@@ 176
mềm_yếu 176
sứt 176
áp_@@ 176
sách 176
bù@@ 176
hung_khí 176
kinh_tế_thị_trường 176
chiều_qua 176
đầu_não 176
kha_khá 176
thạc_sỹ 176
lễ_nghĩa 176
blackberry 176
thúng 176
đằm_thắm 176
bết 176
vấp_ngã 176
là_là 176
ch_l@@ 176
tuân_@@ 176
thuốc_phiện 176
hải_cảng 176
toi 176
dây_lưng 176
tới_@@ 176
dung_thân 176
bạch_th@@ 176
khiêm_nhượng 176
angiêlic 176
nhạc_thắng 176
y 176
lâm_hưng_châu 176
phong_tư 176
tả_đạo 176
bắc_ưng_lãnh_lạc 176
văn_kinh 176
tiểu_bình_nhi 176
chung_trấn 176
đinh_huỷ 176
tôn_vĩ 176
vương_càn 176
đại_hắc 176
tầm_cỡ 175
gia_lâm 175
phật_ý 175
cre@@ 175
series 175
post 175
đơn_phương 175
ó@@ 175
tậu 175
cười_cợt 175
nản_lòng 175
này_khác 175
ce_@@ 175
bao_tử 175
găng 175
bàn_chải 175
nội 175
hiểm_hoạ 175
thường_trú 175
hà_th@@ 175
_de@@ 175
ọc_@@ 175
đột_xuất 175
tân_bình 175
oan_ức 175
ý_nguyện 175
gương_mẫu 175
nhắc_đi_nhắc_lại 175
gáo 175
lạ_mắt 175
tô-xe 175
bỏ_túi 175
an_nhàn 175
đội_@@ 175
trông_mong 175
mệ 175
chẹn 175
tày_trời 175
thoả_hiệp 175
~ 175
truyền_@@ 175
cuồng_loạn 175
âm_điệu 175
ụi 175
nóng_nực 175
mò_mẫm 175
phơ@@ 175
thế_tục 175
chúa_@@ 175
đinh_tai 175
líu 175
hạnh_dung 175
ðôi 175
thượng_lộ 175
thu_sương 175
phương_chính 175
siêu_quần 175
tình_tử 175
người_bị_hại 174
30-@@ 174
biểu_@@ 174
toản 174
án 174
thọ_xuân 174
nơ@@ 174
xuất_huyết 174
tter@@ 174
_bo@@ 174
karaoke 174
co_quắp 174
củ@@ 174
trêu_ghẹo 174
bổ@@ 174
gn 174
new 174
bắt_mạch 174
cằn_nhằn 174
đan_xen 174
quốc_tịch 174
mắc_cỡ 174
định_dạng 174
lánh_nạn 174
nội_các 174
rũ_rượi 174
trí_@@ 174
đâm_chém 174
thành_tài 174
cảm_thụ 174
bút_@@ 174
hải_vân 174
rơ 174
bạc_@@ 174
êu 174
táp 174
tôn_thờ 174
lên_@@ 174
cắc 174
vòng_cung 174
dự_cảm 174
ỉa 174
vằng_vặc 174
hả_dạ 174
linh_nhi 174
các 174
a_tử 174
hardcastle 174
thục_nhàn 174
vinh_giảo_giảo 174
sa_thành_công 174
tần_hồng_miên 174
hà_đại_trí 174
mai_phi 174
bhyt 173
cổ_tức 173
iển 173
76@@ 173
giờ@@ 173
dra@@ 173
hộ_chiếu 173
tal@@ 173
11-@@ 173
han 173
nêm 173
nội_tiết 173
thai_phụ 173
ster@@ 173
thậm_tệ 173
tiến 173
chớm 173
biệt 173
ban_bố 173
trĩ 173
nam_mỹ 173
bruce 173
đương_@@ 173
chuyển_dịch 173
chắn 173
vô_bờ 173
nghỉ_phép 173
trường_quay 173
mobiado 173
03/03/2012 173
bất_phân_thắng_bại 173
vỡ_nợ 173
vô_hồn 173
bổ_nhào 173
pháp_danh 173
đong_đưa 173
công_ăn_việc_làm 173
mặt_tiền 173
lam_sơn 173
ặc 173
cuống_quýt 173
vệ_@@ 173
kiệt_xuất 173
chột 173
tiêu_khiển 173
lầm_lũi 173
_đài 173
đĩ 173
vô_kể 173
xoàng 173
tuyết_mai 173
thô_kệch 173
diêm_vương 173
đếch 173
khinh_mạn 173
tàng_thư 173
hà_hiếp 173
kim_mao_sư_vương 173
long_hổ 173
tể 173
chìu 173
lý_ngân 173
ninh_hồng 173
sao 173
kano_creta 173
jardine 173
tôn_đình_thượng 173
anxelmô 173
camila 173
450 172
ngoại_hối 172
mes 172
tiền_phong 172
ls 172
phúc_vinh 172
thê@@ 172
thần_đồng 172
hậu_môn 172
rượu 172
giữ 172
cửa_khẩu 172
zz@@ 172
từ_tâm 172
ville 172
diễu_hành 172
1988 172
lác 172
thái_cực_quyền 172
wan@@ 172
gọng 172
tổng_đài 172
già@@ 172
ậy 172
23/11 172
nhà_nông 172
ùn 172
thết 172
assad 172
hí_hửng 172
nổi_cáu 172
thùng_xe 172
hùng_tráng 172
quặt 172
cắm_cúi 172
tuyệt_hảo 172
hàn_th@@ 172
thông_thái 172
lý_l@@ 172
bày_đặt 172
ô_hợp 172
khả_ố 172
nhạn_môn 172
không_ðộng 172
sơn_dã 172
tông_tương_hoa 172
vnch 172
trầm_pháp_hưng 172
huyết_đao 172
sĩ_tín 172
huyết_ảnh 172
lôtariô 172
khai_báo 171
:57 171
lỏng_lẻo 171
môi_@@ 171
đặng_th@@ 171
kì_quái 171
nhiễm_khuẩn 171
đầu_thai 171
http://@@ 171
tai_ương 171
web@@ 171
ale@@ 171
duy_@@ 171
cải_@@ 171
èn 171
cách@@ 171
ầu_@@ 171
đó@@ 171
bóng_rổ 171
thông_tấn 171
ảy 171
đớn_đau 171
thuấn 171
van_@@ 171
giáo_trình 171
mập_mạp 171
trằn_trọc 171
bang_@@ 171
được_@@ 171
đường_đất 171
chia_cắt 171
canon 171
dư_âm 171
bẹp 171
bernabeu 171
mạnh_bạo 171
ập_@@ 171
đỉa 171
tô_@@ 171
cãi_cọ 171
binh_đao 171
tứ_bề 171
bình_phẩm 171
đảm_trách 171
yên_ắng 171
đoan_@@ 171
trắng_ngần 171
n_thương 171
nam_kinh 171
rối_rắm 171
trùng_phùng 171
làm_thân 171
truy_phong 171
diện_@@ 171
chính_tông 171
tiên_chi 171
độc_cô_phượng 171
okada 171
hoả_công 171
mạc_lịnh_cẩn 171
ngài 171
huyền_đức 171
tri_giới 171
cao_ðình_phương 171
sinh.bên 171
vấn_nạn 170
lê_hồng_phong 170
5/@@ 170
chênh 170
lê_lợi 170
chầu_chực 170
vùng_sâu 170
dri@@ 170
độc_nhất_vô_nhị 170
khu@@ 170
hù@@ 170
tế@@ 170
tục 170
sùi 170
dài 170
phẩm_@@ 170
gli@@ 170
nhập_ngũ 170
eli@@ 170
tor 170
ki-@@ 170
liên_ngành 170
gm 170
nóng_tính 170
sụt_sùi 170
chiếu_@@ 170
firefox 170
gặt_hái 170
ảrập 170
tablet 170
bầu_dục 170
ưng_ý 170
8:@@ 170
chiến 170
aeroflot_open 170
lưu_niệm 170
nhớ_thương 170
quật_khởi 170
bắc_việt 170
khải_@@ 170
khai_sáng 170
khởi_@@ 170
nhẫn_nhục 170
xuất_kích 170
kay 170
malcolm 170
dẫy 170
ẩn_long 170
gia_cát_@@ 170
cái_tô_văn 170
dollar_bill 170
chung_nam 170
thế_sung 170
ðào_cán_tiên 170
hàn_bảo_câu 170
cửu_chỉ_thần_cái 170
bảo_ðại_sở 170
vạn_bá_thành 170
bảo_hiểm_xã_hội 169
_mar@@ 169
quan_ngại 169
vùng_xa 169
tị_nạn 169
xoẹt 169
thuỳ@@ 169
tinh_dịch 169
ol 169
địa_chất 169
1986 169
giữa 169
ngô_thị@@ 169
ry@@ 169
đất_cát 169
sậm 169
vấn 169
nghiệt_ngã 169
nghiêm_cấm 169
trên_hết 169
kim_liên 169
đập_tan 169
đi_đêm 169
jack@@ 169
pc 169
iếp 169
gọi 169
cơ_học 169
sắc_@@ 169
phân_phát 169
siêu_nhân 169
quyền_năng 169
hoài_niệm 169
cẩu_thả 169
mưa_phùn 169
ành 169
quan_họ 169
lão_thành 169
phải_@@ 169
khốn_cùng 169
link 169
qna 169
giầu 169
thánh_đường 169
thoái_thác 169
giai_@@ 169
bát_tiên 169
xác_thịt 169
hành_khất 169
nhà_sử_học 169
rành_rọt 169
tấm 169
thấm_thoát 169
tửu_sắc 169
tả_tơi 169
trung_đội 169
yến_lan 169
pít 169
hình_tích 169
đông_tăng 169
trận_đồ 169
thượng_cổ 169
du_nhi 169
thuỷ_đạo 169
lý_thần_thông 169
truy_tầm 169
an_cốc_hề 169
ðao 169
thái_xung 169
trương_thiếu_băng 169
500.000 168
dây_thần_kinh 168
đặc_quyền 168
lập_@@ 168
án_@@ 168
9/11 168
ngăn_nắp 168
mặt_trái 168
truy_vấn 168
cambridge 168
hải_sản 168
:02 168
vẹo 168
mít 168
college 168
dẫn 168
khí_quyển 168
lại_sức 168
tách_biệt 168
tinh_tường 168
nguyễn_du 168
jack 168
yêu_dấu 168
ển 168
việt_anh 168
mai_phương_thuý_thông 168
đỏ_tâm_nguyện 168
20/02/2012 168
anh_tài 168
tiên_cảnh 168
tổ_trưởng 168
bình_thành 168
nõn_nà 168
nài 168
điên_tiết 168
dung_hoà 168
ngượng_ngập 168
n_từ 168
trăng_tròn 168
lai_vãng 168
vùi_đầu 168
tịch@@ 168
dà 168
chông 168
tàn_@@ 168
địa_mộ_giáo 168
cứng_họng 168
dây_cung 168
đào_thanh 168
công_sự 168
thái_hồ 168
hàn_linh 168
26188@@ 168
thiềm 168
hắc_mộc_nhai 168
hồng_bất_phát 168
collet 168
dị_thần_giáo 168
ma_kha_mạt_toán 168
viễn_kiều 168
bành_vân 168
kiến_uy 168
hướng_đông_lai 168
bhxh 167
dân_tình 167
vie@@ 167
tu_dưỡng 167
kỷ_cương 167
uế 167
58@@ 167
chế_tài 167
cục_bộ 167
chiến_lược_gia 167
khoáng_chất 167
cai_nghiện 167
khoẻ_khoắn 167
5:@@ 167
cũ@@ 167
quả 167
tượng 167
nt@@ 167
[...]
