, 3062734
. 2356836
không 742036
của 628178
là 622009
: 588924
- 579791
một 573000
có 541869
người 471132
và 458519
đã 422018
trong 411417
nói 403384
được 403251
lại 362904
cho 352843
ra 314544
? 309007
cũng 295806
này 283559
đến 282079
với 275025
" 274661
những 269010
vào 260624
các 259783
phải 247404
thì 246472
tôi 246045
như 240929
đi 240604
ở 233367
để 229616
đó 226794
ta 225948
mà 212843
! 210728
nhưng 210144
” 203919
“ 203220
lên 201076
còn 199566
hai 198560
rồi 197450
chỉ 194325
về 194181
thấy 187095
làm 181137
khi 180881
anh 180760
) 180666
( 180255
từ 179046
gì 173685
biết 173520
trên 161252
ông 159147
mình 154618
sẽ 154554
cô 145449
sau 144640
bị 143565
con 132402
nhìn 130649
cái 123009
năm 122519
đang 122503
trước 119829
lúc 119181
tới 118979
đây 117451
mới 116680
rất 113853
theo 113350
nhiều 110691
có_thể 109029
cả 106163
lão 105305
hơn 104769
họ 104315
nào 104079
tại 102460
gã 100706
nên 100474
vẫn 99333
tay 98779
nghe 97983
tiếng 97940
nàng 97305
hỏi 97054
ngày 94498
đầu 92886
nữa 92123
nếu 91757
ngươi 91355
bên 90901
vì 90196
muốn 89828
xuống 88745
nhà 88406
việc 88127
cười 86907
chưa 86129
ấy 85643
y 85579
đều 84025
cùng 83594
vậy 83570
chàng 82918
vừa 81881
chuyện 81605
hắn 80176
em 79253
thế 79159
qua 78970
ai 77225
khác 76935
nó 75619
lần 75229
bọn 74995
lấy 73911
chẳng 73181
sự 73079
rằng 71801
hay 71639
tên 71499
; 70099
bà 69235
mắt 68395
mặt 67640
ba 67556
chúng_ta 65528
nhất 64925
đâu 64402
nước 64208
sao 63646
phía 63628
đường 63374
nghĩ 62431
nhau 61669
thật 60801
đáp 60124
lớn 58913
lòng 58612
mấy 58057
... 57578
ngoài 57568
điều 57456
đứng 57402
thành 57194
ngay 57096
cần 56650
chính 56533
bằng 56490
đưa 56483
chết 55313
kiếm 54208
thứ 53816
trường 53803
mọi 53604
xem 53595
khỏi 51697
cách 50940
hạ 50692
chiếc 50563
số 50189
& 50175
bước 49682
nơi 48933
bạn 48696
quá 48306
hết 47660
vị 47659
gặp 47478
cao 46927
chân 46344
ngồi 46334
liền 46138
nay 45922
lời 45920
tìm 45321
hiểu 45174
đánh 44822
thi 44719
không_thể 44543
chạy 44391
thêm 44383
dùng 44089
khiến 43463
thôi 43113
đúng 43069
chúng 41647
quay 41417
sống 40710
cứ 40481
xe 40479
gần 40258
… 39972
dưới 39964
kia 39416
càng 39317
do 39022
chỗ 37954
rõ 37727
tháng 37709
bảo 37667
từng 37589
mẹ 37177
giữa 37139
phòng 36919
nhỏ 36826
lắm 36780
học 36587
bé 36267
chúng_tôi 36234
xin 36133
ăn 35934
nhận 35539
mất 35503
câu 35198
tiền 34881
hãy 34696
trẻ 34318
hạng 34279
đất 34179
chị 34098
tin 33265
thế_nào 33230
chứ 33158
mỗi 33101
hàng 32815
gọi 32637
kẻ 32600
quân 32454
cậu 32364
đại 32160
giờ 32042
cửa 31844
cuộc 31430
bài 31334
bộ 31307
tăng 31298
dám 31221
dân_trí 31021
nhân 31019
việt_nam 30684
sợ 30677
điểm 30590
tất_cả 30045
tự 29964
tuổi 29964
kỳ 29915
giọng 29798
xong 29743
tiếp 29615
đồng 29352
tốt 29118
cây 28928
# 28889
đêm 28622
tỷ 28357
mang 28352
bây_giờ 28308
bỏ 28176
huynh 27868
2 27817
giết 27809
người_ta 27800
sang 27795
thời_gian 27756
khó 27652
đối_với 27528
mỹ 27455
sáng 27331
tiểu 27166
chịu 27020
công 26973
bốn 26670
khấu_trọng 26658
trời 26182
thiếu_long 26156
môn 26085
lâu 26078
thanh 26038
tử_lăng 26025
tuy 25918
chủ 25869
cảm_thấy 25846
nhớ 25697
đủ 25321
chắc 25307
đôi 25287
đấy 25260
giữ 25079
hoặc 25079
nằm 24910
thế_giới 24858
xa 24857
nổi 24827
ngựa 24581
áo 24567
pháp 24499
giúp 24402
triệu 24187
đừng 23999
mười 23898
đọc 23790
vương 23786
đem 23698
tiêu 23687
nam 23605
dậy 23554
cháu 23445
núi 23386
luôn 23360
vi 23345
– 23322
giá 23058
phái 23053
đặt 23034
tỉnh 22820
gái 22535
coi 22503
dù 22330
3 22290
giống 22273
gia 22117
kêu 22107
7/3 22035
bắt 22015
cầm 22005
đáng 21973
1 21942
bỗng 21886
miệng 21858
kể 21668
đá 21576
phần 21575
thiếu 21544
hà_nội 21540
chưởng 21493
vẻ 21349
lệnh 21311
phong 21307
lưng 21307
tiến 21159
thân 21154
thường 21136
trận 21091
vụ 21047
bàn 20960
lập_tức 20930
đột_nhiên 20930
hơi 20904
đời 20890
đầy 20832
cha 20798
trông 20622
loại 20554
đông 20534
ánh 20438
gây 20434
tính 20360
báo 20311
uống 20297
yêu 20191
vốn 20095
bao_giờ 20019
mạnh 19998
vàng 19965
đứa 19912
chi 19774
thần 19748
ý 19706
dài 19693
/ 19642
ảnh 19636
chung 19593
nhanh 19561
vô_cùng 19315
khoảng 19062
mở 19025
chiêu 18874
gia_đình 18788
hôm 18720
tiếp_tục 18643
hồi 18626
muội 18615
bay 18499
hoa 18474
làm_sao 18447
như_vậy 18409
vội 18394
bệnh 18368
lạ 18353
bắt_đầu 18268
cuối_cùng 18239
thuyền 18221
xảy 18180
rượu 18164
đẹp 18101
định 18091
thẳng 17985
viết 17956
nữ 17918
to 17913
đao 17908
đầu_tiên 17833
học_sinh 17793
vài 17775
cạnh 17711
máu 17628
10 17625
giảm 17591
trả_lời 17546
chờ 17487
lớp 17456
tiểu_bảo 17445
tại_sao 17437
| 17430
sai 17362
ít 17320
phu_nhân 17289
sư 17285
mua 17268
như_thế 17154
dân 17099
% 17090
sử_dụng 17085
nắm 17002
gật 16954
hướng 16904
chữ 16879
màu 16854
vấn_đề 16791
mức 16777
đen 16694
võ_công 16678
viên 16664
bán 16622
thích 16558
hề 16494
quả 16491
xã_hội 16378
hoàn_toàn 16362
thương 16338
mặc 16237
biến 16232
một_cách 16127
sinh 16126
dẫn 16050
bức 16000
thu 15986
ngủ 15980
vòng 15961
đám 15939
động 15923
kéo 15894
phương 15892
chút 15874
đồ 15764
giải 15757
việt 15740
một_số 15735
giáo_dục 15717
phi 15701
sớm 15695
trăm 15585
một_chút 15563
khí 15559
khách 15547
bản 15529
thuốc 15472
tạo 15399
già 15364
tránh 15364
lộ 15307
nhảy 15269
mời 15259
tổ_chức 15195
hiện 15174
bởi 15138
trắng 15134
song 15127
hôm_nay 15111
đặc_biệt 15056
điện 15014
nhờ 15011
đạo 14972
khẽ 14918
tấm 14881
độc 14861
trở_thành 14854
chặt 14813
tuần 14783
bóng 14772
thủ 14732
lửa 14726
thằng 14723
công_ty 14671
ca 14639
trở_lại 14637
sách 14635
dừng 14622
quyết_định 14619
phát 14522
4 14479
đoàn 14417
vợ 14406
toàn 14404
buổi 14377
nhân_ái 14362
gửi 14275
tối 14267
sông 14259
thầm 14238
gió 14163
ngạc_nhiên 14148
nửa 14121
đạt 14113
xuất_hiện 14032
thí_sinh 14014
quyền 13996
thư 13986
so 13978
cổ 13967
vùng 13955
cứu 13915
thực_hiện 13856
lý 13854
mỉm 13817
bình 13810
biển 13753
5 13732
thuộc 13620
tuy_nhiên 13577
huyện 13569
lo 13561
khá 13553
chuyển 13542
ngài 13536
con_người 13488
ngọn 13472
đại_học 13464
riêng 13459
mạng 13446
rơi 13411
tình_yêu 13401
phát_triển 13379
chiều 13375
vai 13342
sắp 13336
hẳn 13323
hoạt_động 13300
ư 13281
quỷ 13276
nhi 13253
có_lẽ 13238
bang 13233
xanh 13210
à 13201
nhạc 13173
„ 13173
đệ 13167
thở_dài 13140
rời 13119
chợt 13117
kịp 13104
chồng 13089
thay_đổi 13045
khu 13007
tưởng 12979
cánh 12975
ngờ 12957
2012 12950
kinh_doanh 12912
sức_khỏe 12773
phóng 12772
bụng 12760
c 12726
làm_việc 12684
tiểu_đệ 12677
chú 12649
trái 12642
khóc 12631
bắn 12610
sự_kiện 12600
sư_phụ 12574
nhóm 12568
đoạn 12525
quan 12494
hán 12491
suốt 12477
khắp 12472
ô_tô 12437
cơ_hội 12426
nguyên 12418
đội 12417
giả 12375
sở 12356
thoát 12345
công_tử 12318
sát 12314
thái 12305
bèn 12301
đệ_tử 12262
cô_nương 12243
vua 12233
đàn_ông 12210
dường_như 12183
nặng 12176
quan_trọng 12173
ngã 12158
nói_chuyện 12151
thiên_hạ 12147
quên 12100
bắc 12087
nhất_định 12051
bao_nhiêu 12035
kim 12030
mùa 11968
thạch 11943
mày 11928
đức 11908
chơi 11901
ngôi 11887
trả 11874
địch 11858
khả_năng 11848
hồng 11794
cảm_giác 11777
6/3 11766
sáu 11759
rừng 11754
bờ 11693
mũi 11670
vui 11645
tướng 11645
thị_trường 11634
rõ_ràng 11613
tường 11584
dễ 11578
ngừng 11556
lâm 11544
xây_dựng 11506
cung 11470
trung_quốc 11468
ôm 11456
vang 11435
dương 11424
đành 11388
thầy 11385
đồng_thời 11344
thử 11304
sức_mạnh 11298
phủ 11298
cảnh 11295
lắc_đầu 11291
quanh 11275
tám 11272
6 11232
thấp 11230
phát_hiện 11206
sâu 11195
vật 11192
thắng 11188
truyền 11171
đối_phương 11134
tử 11112
lực 11095
bạn_đọc 11080
tây 11077
trang 11066
mối 11059
cố 11048
cũ 11033
bố 11032
cầu 11028
mụ 11023
quát 10987
cuối 10985
dòng 10963
đỏ 10960
rút 10951
bữa 10904
dạy 10882
chống 10871
chục 10836
sức 10826
thành_phố 10821
đóng 10806
có_vẻ 10786
đào 10774
đuổi 10759
pháp_luật 10744
nhẹ 10739
lạnh 10724
tấn_công 10713
thể_thao 10707
đảo 10692
phu 10666
bàn_tay 10663
tàu 10661
sơn 10632
thông_tin 10618
kinh 10595
tham_gia 10576
mong 10539
tiên 10522
chúa 10510
dự 10472
trúng 10471
nỗi 10456
la 10445
vượt 10438
hết_sức 10404
2011 10380
thời 10375
da 10352
chuẩn_bị 10320
kết_quả 10313
xe_máy 10295
thịt 10293
đầu_tư 10287
căn 10265
lao 10240
con_gái 10236
khó_khăn 10223
cơn 10219
tình 10199
đợi 10186
hàn 10161
anh_em 10157
đh 10135
cuốn 10132
một_mình 10127
phụ_nữ 10122
vạn 10106
cấp 10096
mau 10085
liên_quan 10081
tai 10037
ngực 10025
tung 10013
bảo_vệ 10010
công_việc 9998
7 9995
dự_án 9992
cúi 9983
tâm 9974
hiệp 9955
thưa 9947
phố 9923
bác 9904
bảy 9895
chừng 9888
trượng 9878
phá 9866
ngành 9833
n 9828
giang_hồ 9827
tiên_sinh 9821
đau 9818
mãi 9812
đại_sư 9777
t 9766
quan_hệ 9743
đại_ca 9743
chọn 9737
đấu 9736
tóc 9729
suy_nghĩ 9729
phút 9726
− 9720
chương_trình 9716
văn_hóa 9713
trở 9696
thở 9696
hành_động 9684
từ_từ 9652
quốc_gia 9645
diễn 9621
lục 9602
cháy 9601
thiết 9583
giao 9520
giơ 9504
nhân_vật 9496
sinh_viên 9465
lãnh 9461
quán 9450
băng 9447
nghiên_cứu 9446
ngân_hàng 9402
món 9401
võ_lâm 9367
quần 9344
kỹ 9341
ngang 9331
tuyệt 9330
điện_thoại 9294
bật 9291
lệ 9256
viện 9201
hình 9199
cao_thủ 9189
tôn 9160
đón 9153
phản_hồi 9144
nhằm 9132
dành 9128
yêu_cầu 9127
tài 9127
ban 9114
tự_nhiên 9114
đoán 9095
8 9089
quốc_tế 9078
a 9069
chắc_chắn 9062
xông 9058
trở_về 9033
ngọc 9017
ngàn 8991
kế 8990
hội 8989
cặp 8976
giường 8956
nương 8936
ma 8917
linh 8915
luyện 8907
thậm_chí 8898
lạnh_lùng 8890
thay 8877
vung 8872
kinh_tế 8859
chùa 8845
huynh_đệ 8845
xã 8837
trở_nên 8831
đâm 8817
] 8809
trưởng 8808
hùng 8808
hiện_nay 8795
hồ 8773
đại_nhân 8755
in 8746
bao 8743
đàn_bà 8733
buồn 8722
quang 8712
lên_tiếng 8711
nhị 8708
giật_mình 8707
bản_thân 8688
tuyết 8676
đề 8672
nét 8671
đăng 8658
lo_lắng 8652
bậc 8624
mi 8592
lát 8578
m 8557
lương 8541
ngân 8536
ghế 8518
má 8502
rộng 8482
mưa 8479
trốn 8459
nga 8458
đổ 8452
tiêu_lĩnh_vu 8450
long 8443
chăng 8427
chiếm 8425
tần 8424
doanh_nghiệp 8418
độ 8417
khu_vực 8370
cuộc_sống 8369
quý 8362
cơ_quan 8352
ủng_hộ 8348
yên 8338
dần 8313
quản_lý 8309
máy 8306
ơi 8296
tỏ 8273
vân 8270
tranh 8270
lượng 8262
bác_sĩ 8250
câu_chuyện 8236
hương 8209
mùi 8193
cơm 8184
yến 8170
đỡ 8153
lễ 8144
đẩy 8137
' 8126
thành_công 8114
chủ_tịch 8094
quan_tâm 8085
hệ_thống 8081
binh 8077
nguồn 8066
bí_mật 8047
may 8042
lối 8024
quyết 8007
khổ 7983
chém 7971
âu 7959
tình_trạng 7955
lôi 7955
kinh_hãi 7921
lãnh_đạo 7906
.. 7904
ng 7892
nóng 7888
tình_hình 7882
giới 7871
cắt 7867
kế_hoạch 7866
i 7866
lập 7860
an 7843
môi 7834
hy_vọng 7833
quy_định 7813
âm 7789
nâng 7782
bất_cứ 7760
võ 7751
giỏi 7733
tống 7718
tả 7710
chính_phủ 7709
bát 7705
lưu 7676
sản_phẩm 7667
thiếu_nữ 7655
nhịp 7639
cho_nên 7617
tòa 7594
thực_sự 7593
giấy 7585
nếu_như 7581
ả 7576
bình_thường 7569
tinh_thần 7557
lá 7551
giáo_chủ 7543
bất_ngờ 7532
hại 7531
ánh_sáng 7524
tim 7522
huyệt 7519
phim 7516
đổi 7503
báo_điện_tử 7495
trường_hợp 7493
thăm 7484
nghĩa 7482
chú_ý 7481
an_toàn 7478
mã 7477
vu 7457
mộc 7453
bạch 7451
tạ 7439
tết 7435
phó 7427
lúc_nào 7423
hát 7413
tập 7399
chảy 7388
hải 7388
ảnh_hưởng 7370
đập 7365
chất 7364
ạ 7358
20 7328
minh 7326
nhắc 7319
bạc 7319
9 7317
tận 7310
ý_kiến 7294
xét 7282
trúc 7277
xung_quanh 7275
chuyến 7265
nguy_hiểm 7262
hay_sao 7256
mừng 7252
vì_thế 7250
vì_vậy 7237
nội 7224
chia 7214
đèn 7212
ngón 7199
khẳng_định 7191
gỗ 7187
chu 7176
trao 7161
khuyến_học 7156
trung_tâm 7154
trầm 7152
5/3 7149
chia_sẻ 7148
sau_này 7131
cá 7129
du 7129
vội_vàng 7126
tặng 7116
điều_kiện 7104
usd 7096
nghỉ 7088
chụp 7064
giận 7057
u 7019
kém 7017
cơ_thể 7013
dầu 7010
công_tác 7010
niềm 6997
dựa 6993
12 6988
xuân 6987
góc 6968
cơ 6968
bị_thương 6962
tiền_bối 6959
lùi 6935
kiểm_tra 6933
thpt 6931
toàn_bộ 6929
lan 6914
nước_mắt 6910
đối_phó 6910
diễn_đàn 6900
liên 6896
sắt 6895
hoàng 6878
2019 6864
vô 6852
đài 6846
miền 6835
luồng 6834
vận 6826
nụ 6816
hóa 6815
túi 6799
vợ_chồng 6795
cố_gắng 6792
tội 6773
duy_nhất 6766
bệnh_viện 6765
hạnh_phúc 6731
dao 6711
thân_hình 6704
thơ 6703
con_trai 6697
tiểu_thư 6686
tao 6683
tiểu_tử 6682
vũ 6677
thua 6676
hình_ảnh 6674
tui 6668
hà 6654
cửa_sổ 6652
cực_kỳ 6640
lẫn 6635
chín 6612
trọng 6612
[ 6609
dây 6584
kình 6584
cát 6578
thú 6570
đàn 6568
trai 6568
đỉnh 6564
mặc_dù 6554
giải_thích 6549
xương 6549
vui_vẻ 6543
hình_như 6542
giờ_đây 6538
bá 6519
thực 6512
hỗ_trợ 6511
nhà_nước 6505
tập_trung 6503
mua_bán 6490
xoay 6486
ô 6471
b 6463
xinh 6458
nổi_tiếng 6429
dễ_dàng 6426
siêu 6416
xử_lý 6409
chiếu 6408
trương_tiểu_phàm 6401
giải_quyết 6391
chó 6377
địch_nhân 6376
anh_hùng 6374
giáo_viên 6372
đơn 6371
ngũ 6364
mà_còn 6360
cán_bộ 6356
cốc 6355
h 6343
tức_giận 6337
quen 6333
vừa_rồi 6320
để_ý 6316
sân 6308
nền 6303
tổng_thống 6296
tư 6289
nhé 6288
lý_do 6284
cất 6283
chớ 6274
sắc 6272
lưu_dụ 6268
ra_tay 6262
tiếc 6261
kiểu 6260
dĩ_nhiên 6259
buông 6258
_@@ 6228
đằng 6209
s@@ 6207
công_chúa 6183
nguyên_nhân 6182
liệu 6164
đăng_ký 6163
lượt 6153
đương_nhiên 6146
quần_áo 6145
bất_giác 6141
giáo 6140
điều_tra 6138
phân 6134
nuôi 6130
làng 6129
cánh_tay 6119
vị_trí 6103
hiện_tại 6098
lao_động 6085
d@@ 6080
gian 6077
phí 6075
đề_nghị 6070
11 6070
ngó 6067
đánh_giá 6037
tổ 6037
mảnh 6025
đoạt 6025
im_lặng 6001
trung 5998
địa_phương 5995
gấp 5990
trách_nhiệm 5990
lui 5983
nhẹ_nhàng 5978
tuyển_sinh 5978
trải 5957
bởi_vì 5955
lịch_sử 5935
phục 5927
dịch_vụ 5919
vô_kỵ 5908
nợ 5907
chậm 5907
quả_nhiên 5907
thực_tế 5897
giao_diện 5889
cướp 5880
thế_là 5878
đảm_bảo 5870
blog 5868
cẩn_thận 5837
thì_ra 5835
súng 5832
cổng 5826
chén 5818
phụ 5816
tấm_lòng 5810
nhật 5809
trước_mắt 5805
thúc 5796
khuôn_mặt 5796
dạ 5794
15 5791
khoa_học 5769
mai 5761
sợ_hãi 5755
chào 5749
lợi_hại 5731
hậu 5724
cụ 5721
-@@ 5709
bạt_phong_hàn 5708
30 5700
dịch 5694
thanh_niên 5687
bò 5681
sản_xuất 5657
khúc 5651
đại_@@ 5650
trà 5648
tựa 5643
ghi 5642
thông_báo 5637
quan_sát 5635
thị 5622
toán 5617
nổ 5615
hồn 5613
mẫu 5611
quái 5611
chữa 5609
huyết 5604
kính 5603
chuyên 5600
cơ_sở 5598
giao_thông 5591
thanh_vân 5588
s 5582
n@@ 5579
phiên 5573
hứa 5571
tờ 5556
đảng 5541
giá_trị 5538
nhân_viên 5531
thất 5531
toàn_thân 5519
mỗ 5518
báo_cáo 5517
tạm 5487
ra_sao 5484
xuất 5483
tuần_báo 5482
tuyển 5480
lưỡi 5480
xưa 5475
giám_đốc 5461
thông 5461
tú 5460
thật_sự 5455
english 5453
lướt 5439
tất 5430
mắc 5429
>> 5428
chốn 5427
đốt 5422
ác 5416
lỗ 5415
pda_mua 5414
ngoài_ra 5412
chim 5401
nhanh_chóng 5397
thiếu_niên 5397
sóng 5396
xinh_đẹp 5394
biên 5390
xấu 5388
hắc 5382
quách 5379
phép 5366
răng 5365
khóa 5364
e 5362
sắc_mặt 5360
hiệu_quả 5352
đến_nỗi 5352
chức 5351
châu 5351
tình_cảm 5348
buộc 5346
che 5343
thiếp 5343
đòi 5335
chất_lượng 5334
hiện_giờ 5332
cá_nhân 5323
hô 5318
lợi 5312
thổi 5312
lớn_tiếng 5312
tinh 5310
bối 5306
công_an 5298
làn 5297
nghề 5291
yếu 5279
vẽ 5278
ngoại 5271
gồm 5267
không_khí 5266
sư_huynh 5265
lính 5257
giành 5254
giang 5249
c@@ 5248
tròn 5244
t@@ 5235
lã 5230
nghìn 5220
vườn 5217
cỏ 5202
tức 5200
khoản 5195
bóng_đá 5189
dâng 5177
vì_sao 5175
tan 5173
thanh_âm 5168
không_thể_nào 5165
trẻ_em 5164
cục 5152
quỹ 5149
miếng 5144
ném 5143
điền 5127
màn 5107
thánh 5105
tài_chính 5102
lựa_chọn 5102
giúp_đỡ 5095
sử 5091
khách_hàng 5090
cha_mẹ 5085
giấu 5084
du_học 5076
bốc 5075
du_lịch 5069
hằng 5065
họp 5062
hoàng_đế 5059
vách 5058
đồng_ý 5055
tam 5047
mặt_trời 5046
lũ 5041
tầng 5040
kinh_ngạc 5034
vọng 5033
đơn_giản 5008
b@@ 5005
quận 4998
cương 4995
nhỉ 4988
tiện 4986
vâng 4986
hợp 4984
nghi_ngờ 4980
vỡ 4977
chủ_nhân 4973
sự_việc 4969
nắng 4968
dặm 4963
văn 4960
quá_trình 4951
thoáng 4951
lăn 4941
tươi 4931
có_mặt 4929
công_nghệ 4928
vi_tiểu_bảo 4927
tấn 4926
i@@ 4924
hơn_nữa 4916
chấp_nhận 4914
tp 4913
giới_thiệu 4909
cuộc_đời 4906
cảnh_sát 4898
chạm 4892
vui_mừng 4883
trách 4882
án 4871
nhà_sư 4867
hào 4866
kéo_dài 4851
tiểu_nhân 4849
tương_lai 4844
tổng 4842
danh 4838
gương_mặt 4837
nhân_dân 4834
50 4819
langdon 4814
dung 4810
thời_điểm 4809
nọ 4809
tùng 4806
thốt 4805
công_bố 4789
liếc 4777
cho_phép 4761
đeo 4761
hạt 4759
nước_ngoài 4756
m@@ 4756
chẳng_lẽ 4753
tình_thế 4751
loan 4736
quốc 4733
vọt 4728
chờ_đợi 4724
vỗ 4721
kết 4715
bình_tĩnh 4708
mơ 4708
trương_vô_kỵ 4704
hừ 4704
hộp 4699
chính_thức 4696
than 4696
* 4683
sự_thật 4678
đào_tạo 4676
sợi 4676
điều_trị 4668
xây 4664
trại 4659
ngắn 4656
lực_lượng 4655
tớ 4655
thủ_tướng 4654
phật 4654
lời_nói 4652
yên_tâm 4637
nô 4632
thừa 4629
thái_độ 4627
hận 4621
dấu 4619
ly 4617
e_rằng 4614
cân 4613
khối 4610
tay_trái 4601
xứ 4595
a@@ 4587
hành 4584
nạn 4581
ng@@ 4577
tứ 4572
x@@ 4572
ai_nấy 4569
nghĩ_thầm 4569
kiều 4562
đau_đớn 4557
thông_minh 4556
hút 4556
thôn 4555
triển_khai 4553
tự_do 4552
gốc 4547
ngắm 4547
chứa 4540
quả_thật 4529
khấu 4529
xuyên 4526
trực_tiếp 4522
xăng 4522
lọt 4521
tìm_kiếm 4519
cung_cấp 4518
tiếp_theo 4511
môi_trường 4510
pha 4505
nghèo 4501
nghi 4499
tin_tức 4493
trừ 4487
mục_tiêu 4485
tiêu_điểm 4480
tuyên_bố 4477
run 4477
vải 4470
._@@ 4469
ngược 4468
thái_hậu 4467
tiến_hành 4465
ý_nghĩ 4464
tông 4460
h@@ 4442
cụ_thể 4442
khen 4440
khắc 4438
đơn_vị 4437
vây 4435
thể_hiện 4433
kết_thúc 4432
trưa 4429
ôi 4425
chính_trị 4424
hôn 4414
l 4412
trầm_ngâm 4410
trôi 4399
hai_mươi 4394
phụ_huynh 4393
nguyễn_@@ 4384
cửu 4383
kinh_nghiệm 4382
tùy 4381
kiến_thức 4381
theo_dõi 4377
treo 4377
nhất_là 4371
chương 4370
ni 4365
phương_pháp 4363
hoàng_thượng 4363
hạ_mạt 4363
dọc 4359
lầu 4357
huyền 4354
hư 4354
bệnh_nhân 4352
sữa 4350
chiến 4347
thèm 4346
tượng 4346
quà 4343
tựa_hồ 4336
trăng 4333
sẵn 4321
kín 4319
phải_chăng 4310
nhu_cầu 4306
thực_phẩm 4304
thiên_@@ 4302
bầu 4300
bụi 4299
dựng 4294
đống 4293
dần_dần 4285
vết 4278
hả 4275
mục_đích 4273
100 4272
quỳ 4272
đỗ 4271
vết_thương 4270
gạt 4266
cho_dù 4262
mục 4260
hòa 4259
thân_thể 4256
dịp 4254
may_mắn 4245
liên_tục 4243
bảng 4240
trương_@@ 4239
thuộc_hạ 4234
sứ 4233
ngày_nay 4232
triển 4228
ân 4225
nhất_thời 4222
trị 4220
máy_bay 4213
nhậm 4213
chiến_tranh 4207
tuyến 4203
bút 4201
nhiệm_vụ 4197
tĩnh 4193
hét 4188
d 4185
phản_ứng 4180
thượng_quan_linh 4180
lạc 4178
mượn 4178
bớt 4177
cổ_phiếu 4176
toan 4176
tô 4174
bãi 4172
tốt_nghiệp 4169
thiên 4165
hổ 4162
hoang 4159
đối_thủ 4158
bạn_bè 4151
phù_hợp 4150
đầy_đủ 4149
đồng_hồ 4147
khai 4135
quê 4126
cờ 4126
ngày_mai 4124
không_gian 4121
nội_lực 4120
mồ_hôi 4119
sẵn_sàng 4111
khô 4108
học_tập 4107
sư_đệ 4101
ký 4087
e@@ 4084
xin_lỗi 4081
đau_khổ 4080
dương_@@ 4078
thực_ra 4076
hôm_qua 4071
khinh 4067
một_vài 4066
tiệc 4060
giai_đoạn 4057
chợ 4057
thiết_mộc 4057
trần 4055
o@@ 4053
r@@ 4050
lý_trọc 4049
tầm 4043
đại_diện 4042
2018 4039
nội_dung 4035
chăm_sóc 4033
kỹ_thuật 4031
hộ 4026
ubnd 4021
thủy 4020
chính_sách 4018
thiếu_lâm 4018
chiến_thắng 4013
mây 4010
sa 4009
vươn 4006
thuê 4005
g 4004
đạo_nhân 4004
bộ_trưởng 4001
kỳ_sĩ 3999
thành_viên 3998
thường_xuyên 3997
thiết_kế 3996
quỷ_lệ 3995
tuyệt_đối 3987
ha_hả 3987
hoàn_thành 3986
chăm_chú 3985
khuyên 3981
6@@ 3978
nghiêm 3977
khói 3972
a_@@ 3970
sạch 3969
canh 3967
ngày_càng 3966
từ_chối 3965
hiển_nhiên 3961
k@@ 3960
thảo 3957
bách 3949
bày 3947
mái 3946
danh_sách 3945
mặt_đất 3944
13 3943
u@@ 3942
đối_tượng 3932
tất_nhiên 3931
đứt 3929
vay 3928
mật 3920
v 3916
thức 3912
thả 3911
biện_pháp 3910
thuật 3910
jobs 3909
p 3908
tốc_độ 3907
ngon 3903
cần_thiết 3901
trộm 3897
giáo_sư 3894
âm_thanh 3893
kỳ_lạ 3892
giàu 3891
000 3890
cất_tiếng 3888
thước 3885
nguy_cơ 3882
hành_vi 3879
chớp 3877
trống 3875
nhà_trường 3875
bánh 3865
liên_tiếp 3864
phục_vụ 3863
liên_hệ 3863
hiệu 3861
xem_xét 3858
tiểu_@@ 3856
đậu 3849
ngăn 3849
lĩnh 3849
lý_thế_dân 3846
lẩm_bẩm 3843
công_phu 3838
nhập 3835
trò 3835
l@@ 3834
liễu 3833
khoa 3832
chiến_đấu 3826
âu_dương_hải 3823
gà 3821
p@@ 3818
iran 3818
nhịn 3818
kiến 3812
bố_mẹ 3812
tiết 3809
lĩnh_vực 3808
rớt 3806
hoàn_cảnh 3804
không_những 3799
tia 3797
tướng_quân 3796
xác 3795
họa 3794
cấm 3790
đ 3790
đất_nước 3789
ngưng 3786
hay_là 3786
vãn 3786
rửa 3782
rắn 3779
hợp_tác 3775
xác_định 3773
tốn 3768
môn_phái 3765
ý_nghĩa 3764
bất_vi 3757
giao_dịch 3756
trần_@@ 3755
khách_sạn 3754
17 3750
nh 3748
nở 3747
luật 3742
ngược_lại 3732
giặc 3731
g@@ 3727
v@@ 3726
trình 3726
thị_trấn 3725
triều_tiên 3724
đáy 3720
muộn 3718
hãng 3716
bóng_tối 3716
trí 3716
khổng_lồ 3711
ung_thư 3711
thuế 3707
thức_ăn 3700
thế_này 3696
chấn_động 3692
bao_lâu 3691
doãn 3690
tha 3687
đối_diện 3686
tiết_lộ 3676
mạc 3675
tâu 3673
gãy 3668
lam 3668
nhắm 3664
hoài 3664
chị_em 3664
bọc 3658
gác 3658
sàn 3657
chuyên_gia 3655
khẩu 3649
ăn_uống 3648
ông_già 3647
múa 3646
triều 3641
thất_bại 3639
tưởng_tượng 3636
tắt 3632
ruột 3630
thò 3629
ồ 3622
tuấn 3613
lừa 3609
xử 3607
thể 3598
lăng 3598
cưới 3592
giấc 3589
đụng 3587
lão_gia 3586
ít_nhất 3577
trái_tim 3577
hạn_chế 3576
hẹn 3571
hiếm 3571
phúc 3570
14 3566
do_đó 3565
thương_mại 3563
nghiêng 3559
y_tế 3558
hè 3557
ngầm 3550
tố 3550
tỷ_lệ 3549
giọt 3544
khó_chịu 3542
hiếu 3542
hưởng 3541
cực 3540
quyển 3536
nh@@ 3532
công_lực 3532
công_trình 3521
lưu_@@ 3521
khâu 3521
phối_hợp 3517
tỉ 3513
hữu 3510
đòn 3509
hàn_thu 3509
tức_là 3506
cảm_ơn 3496
chuông 3492
18 3489
căng_thẳng 3487
binh_khí 3486
lỗi 3482
hồ_xung_@@ 3482
học_trò 3481
loài 3480
lặng_lẽ 3480
mở_rộng 3477
thông_qua 3474
bất_kỳ 3473
hoàng_dung 3473
điều_chỉnh 3472
tình_huống 3472
cột 3467
vn 3467
16 3466
tài_sản 3461
5@@ 3452
chìm 3449
tầm_thường 3445
ch 3441
ấn 3441
khoe 3438
8@@ 3436
nhật_bản 3433
bấy_giờ 3433
dặn 3433
tham_dự 3431
đô 3429
phạm 3425
tân 3420
ẩn 3419
ra_mắt 3418
chế_độ 3415
xếp 3415
thanh_tra 3414
dư 3409
nghỉ_ngơi 3407
mạnh_mẽ 3406
mươi 3406
nữ_nhân 3405
dịu_dàng 3403
dứt_lời 3402
khoảnh_khắc 3397
tích_nhân 3393
tăng_cường 3388
chở 3382
+ 3377
vậy_mà 3377
dắt 3377
gdđt 3377
tác_giả 3374
đi_lại 3368
mệt_mỏi 3366
nghiêm_trọng 3363
luôn_luôn 3362
chính_xác 3361
ấn_tượng 3360
ép 3360
vững 3359
quản 3346
nhíu 3345
đế 3341
máy_tính 3340
đạn 3340
pho 3339
ái 3334
khăn 3330
ma@@ 3315
chỉ_huy 3310
trác 3309
chí 3308
chỉ_đạo 3305
nạn_nhân 3305
nhắm_mắt 3298
tồn_tại 3296
phụng 3296
có_điều 3290
tệ 3289
cởi 3289
bao_gồm 3284
tập_đoàn 3283
đợt 3283
nữ_sinh 3280
7@@ 3277
clip 3277
lật 3276
giận_dữ 3276
phát_giác 3275
bổn 3275
tỳ 3273
chi_tiết 3271
bếp 3268
tặc 3263
tiễn 3263
chậm_rãi 3261
kiểm_soát 3258
vỏ 3258
thù 3258
chủ_yếu 3252
đề_phòng 3251
vi_phạm 3248
hình_thức 3245
vô_tình 3245
thủ_hạ 3244
cành 3243
hệ 3241
thơm 3238
nhã 3236
xuất_sắc 3234
ch@@ 3233
lạy 3231
ổn_định 3228
hoa_@@ 3227
đại_gia 3226
văn_bình 3225
bí 3224
cỗ 3224
thoải_mái 3223
tin_tưởng 3218
tử_vong 3217
đói 3217
quân_đội 3215
bất_động_sản 3210
đưa_mắt 3210
văn_phòng 3209
dân_tộc 3207
nãy 3207
40 3206
tai_nạn 3202
cú 3201
cắn 3201
thpt_quốc_gia 3198
chịu_đựng 3195
bám 3193
đáp_ứng 3192
mở_cửa 3191
soái 3190
đột_ngột 3188
dược 3184
apple 3182
chúc 3176
mê 3174
giải_pháp 3171
quân_sự 3169
thẩm 3167
bố_trí 3166
giây_lát 3164
ra_lệnh 3162
áp_dụng 3161
video 3161
ngụy 3160
ban_đầu 3159
sài_gòn 3153
ghé 3153
cộng_đồng 3153
ấm 3151
trao_đổi 3150
top 3147
thủ_đoạn 3147
cô_giáo 3147
tác_dụng 3143
hảo 3143
thất_vọng 3141
chỉ_tiêu 3139
huế 3137
hội_nghị 3135
mắng 3133
lạt 3133
cố_ý 3132
hợp_đồng 3131
bông 3120
cứng 3117
vương_@@ 3110
thượng_quan_kỳ 3105
cừu 3104
hội_đồng 3102
trang_chủ 3101
tác_phẩm 3099
phạm_@@ 3095
bầu_cử 3093
dốc 3093
lang 3093
to_lớn 3089
4/3 3089
trung_ương 3087
đà 3083
chi_phí 3081
thế_mà 3081
phạt 3080
điên 3080
vai_trò 3079
na 3078
say 3078
quảng_cáo 3076
bích 3074
nghệ_thuật 3074
ngôi_sao 3073
thanh_ngân 3071
chả 3069
tâm_sự 3068
bỗng_nhiên 3064
hất 3064
3@@ 3063
hít 3060
thượng_quan 3060
phản 3059
gói 3051
suối 3038
bổ_sung 3033
tướng_công 3032
25 3030
mộ 3030
9@@ 3029
chứng_khoán 3028
kết_luận 3027
uy 3027
dũng 3025
nam_@@ 3023
xuất_khẩu 3021
chui 3020
dì 3019
thưởng 3015
ma_giáo 3015
cảm_nhận 3014
dứt 3014
đ@@ 3013
thai 3010
rốt_cuộc 3009
.@@ 3008
mồm 3008
vinh 3006
hấp_dẫn 3006
nghĩa_là 2999
bất_luận 2998
bầu_trời 2997
gọi_là 2996
273 2992
sỹ 2989
trấn 2988
năng_lực 2983
thiện 2982
ngại 2980
đầu_óc 2980
leo 2978
dính 2977
râu 2977
dãy 2975
mọc 2974
phức_tạp 2974
nặng_nề 2968
chặn 2968
hướng_dẫn 2964
tình_dục 2964
tự_tin 2963
châm 2959
nát 2957
thú_vị 2954
dấu_hiệu 2953
nhà_vua 2952
viêm 2950
ghét 2948
ngấm_ngầm 2945
tính_toán 2944
chứng_kiến 2943
th 2943
trán 2943
hoàn 2942
dị 2941
dạng 2935
qua_đời 2935
bại 2934
trương 2932
lầm 2932
putin 2931
lạng 2930
gan 2927
ipad 2924
đáp_án 2923
đùa 2921
cửa_hàng 2917
tảng 2916
giày 2915
yến_phi 2915
sương 2914
cổ_phần 2912
cưỡi 2912
chia_tay 2910
mệt 2910
số_lượng 2909
ghê_gớm 2909
tháo 2908
xúc_động 2906
vũ_trụ 2906
ta@@ 2898
y_@@ 2897
kim_@@ 2896
thỉnh_thoảng 2895
mũ 2895
ơn 2893
hưng 2888
đà_nẵng 2887
thọ 2883
tỏa 2878
thét 2876
thần_sắc 2875
đám_cưới 2874
’ 2872
hoa_sơn 2872
phẫu_thuật 2867
hồ_sơ 2865
giây 2864
10@@ 2861
hầu_hết 2859
tâm_lý 2859
ống 2857
trung_nguyên 2856
hang 2853
chế 2853
mộng 2846
thu_hút 2840
anh_chàng 2839
tụi 2833
bất_@@ 2832
nha 2830
sáng_tạo 2830
__ 2830
li@@ 2828
kinh_hoàng 2828
thuận 2827
1/3 2826
vũ_khí 2825
tích 2825
ha 2824
biến_sắc 2823
la@@ 2821
vừa_mới 2820
nấu 2820
hiện_đại 2817
lông 2817
ba_mươi 2817
yếu_tố 2816
mong_muốn 2815
việc_làm 2814
an_ủi 2814
trước_kia 2812
xem_ra 2812
ðiền 2812
phản_đối 2806
ðoàn 2806
phường 2805
gầm 2805
quốc_hội 2803
khai_thác 2803
toàn_cầu 2801
xích 2801
sửa 2798
hầu 2798
tìm_hiểu 2795
thượng 2793
lau 2791
công_@@ 2789
hạnh 2788
gạo 2787
chớp_mắt 2787
thừa_chí 2785
tổn_thương 2783
2/3 2783
ưng 2783
tu 2781
trồng 2778
nộp 2776
giả_vờ 2771
áp_lực 2770
vừa_qua 2765
đan 2763
tiếng_nói 2760
miếu 2755
dù_sao 2750
đề_xuất 2749
giật 2743
tiến_sĩ 2742
29/2 2740
sa@@ 2739
tỏ_vẻ 2739
căn_cứ 2735
sư_thúc 2735
diện 2734
26 2733
thiết_bị 2731
phân_tích 2730
quét 2729
báo_chí 2728
duy_trì 2724
người_yêu 2724
té 2722
hiền 2720
nêu 2720
trẻ_con 2720
khán_giả 2719
cà_phê 2717
áp 2715
trịnh_vi 2714
mừng_rỡ 2711
thống_nhất 2710
phi_thường 2710
hầu_như 2709
tháp 2707
ðào 2707
khanh 2705
an_ninh 2700
loạn 2700
lợi_dụng 2699
cước 2698
hành_lang 2698
bỏ_qua 2691
té_ra 2691
cao_cường 2688
quách_tĩnh 2683
t_@@ 2677
chính_quyền 2676
cử_động 2676
nhân_tài 2673
ôn 2673
đinh 2673
khám 2672
k 2672
giám_sát 2671
móc 2671
lên_đường 2670
tề 2666
châu_@@ 2665
mạch 2658
sắp_xếp 2658
dày 2657
thừa_nhận 2651
vô_số 2650
tắm 2650
agrave 2649
tương_tự 2646
quen_thuộc 2645
ngôn 2643
bất_quá 2643
như_thể 2639
thảm 2638
chắp_tay 2638
tư_vấn 2637
thế_kỷ 2635
tuân 2635
o 2635
ma_@@ 2634
tà 2634
bên_cạnh 2632
trói 2631
lén 2630
thục 2628
cạn 2626
thác 2624
432 2622
chấm 2619
lái 2618
tích_cực 2617
_h@@ 2614
hợp_lý 2614
thí_chủ 2614
tạm_thời 2609
đạp 2605
thùng 2603
ca@@ 2600
căn_hộ 2599
ý_định 2598
mẫn 2598
năng_lượng 2597
châu_âu 2597
ổn 2595
kết_hợp 2592
bái 2590
thản_nhiên 2590
cao_ngạn 2589
19 2588
há 2587
dự_kiến 2584
vụ_việc 2584
na@@ 2583
phổ 2582
18@@ 2581
cuồng 2580
bảo_đảm 2578
hầm 2577
a_tử 2577
chiến_lược 2576
giải_thưởng 2576
tam_@@ 2575
biểu_diễn 2571
ti@@ 2568
y@@ 2567
thành_lập 2566
nhược 2566
ngọc_@@ 2565
ho 2563
tư_mã 2562
tăng_trưởng 2561
lo@@ 2561
mỹ_nhân 2561
khám_phá 2560
diệt 2559
24 2551
nén 2551
trung_@@ 2550
hung 2550
chân_nhân 2550
chuẩn 2549
minh_@@ 2546
4@@ 2546
non 2544
hoàng_@@ 2543
bằng_hữu 2543
co 2542
đô_thị 2541
thâm 2540
đa 2539
mái_tóc 2533
dinh_dưỡng 2532
nỗ_lực 2530
cắm 2529
bất_quần 2529
phần_lớn 2524
tán 2524
y_phục 2524
rồng 2522
giáp 2518
nguy 2518
quy 2517
doanh 2516
_t@@ 2515
th@@ 2513
sở_hữu 2512
con_số 2512
ph@@ 2511
nhà_đầu_tư 2510
phe 2510
đồi 2507
cái_bang 2506
tuyệt_vời 2505
phương_tiện 2504
x 2503
thân_phận 2503
lành 2502
đời_sống 2500
tính_mạng 2499
khỏe 2499
thiệt 2499
điện_tử 2498
ắt 2498
tràn 2493
đuôi 2491
duyên 2491
khuya 2485
dạo 2485
chăn 2483
gánh 2482
khỉ 2482
ngắt_lời 2482
am 2480
ung_dung 2479
kèm 2478
rót 2476
đua 2476
thật_ra 2476
bột 2475
ngửa 2474
gắn 2473
côn 2467
tiểu_hôi 2467
cảm 2465
tiếp_xúc 2464
địa 2460
trường_an 2460
kiếp 2459
ứng_dụng 2458
hoang_mang 2456
sai_lầm 2455
liên_lạc 2455
sảnh 2455
phùng_phá 2455
di_chuyển 2451
học_bổng 2451
bia 2451
mé 2451
mông 2448
yêu_thương 2447
cách_mạng 2444
kể_cả 2444
hòn 2443
f@@ 2440
tiểu_bàn 2440
.... 2439
tr@@ 2439
ba@@ 2432
thanh_@@ 2432
toàn_lực 2432
roi 2431
_l@@ 2427
sung_sướng 2426
hễ 2426
bản_lĩnh 2425
cộng 2424
hậu_quả 2421
lần_lượt 2418
cường 2418
kích 2418
hiệu_trưởng 2417
nhận_xét 2416
lăng_độ 2416
tràng 2415
nhu 2412
cốt 2410
thời_trang 2409
nội_công 2408
tài_năng 2405
tiếng_động 2405
hoang_tập 2405
tâm_thần 2403
ngẩng_đầu 2403
hàng_đầu 2402
rít 2402
nguyệt 2402
tphcm 2401
nhà_máy 2399
chứng 2399
dụng 2398
khủng_khiếp 2396
cử 2395
trước_tiên 2393
kỷ_yên_nhiên 2393
quan_điểm 2390
dồn 2390
ngay_lập_tức 2387
tiệm 2387
quyết_tâm 2386
60 2386
tâm_hồn 2386
3/3 2385
nháy_mắt 2385
lều 2383
bom 2382
giấy_phép 2381
minh_bạch 2380
lạ_lùng 2378
lợi_ích 2377
thuyết_phục 2377
điều_hành 2376
chấn 2375
bưng 2375
đương 2373
n_@@ 2372
trạm 2372
nhiễm 2372
xưa_nay 2372
bến 2366
hạt_nhân 2364
tài_liệu 2362
điều_khiển 2362
lắc 2361
gia_tăng 2358
lợn 2357
mãnh_liệt 2357
phụ_trách 2356
biến_đổi 2355
xác_chết 2353
cao_@@ 2348
quảng_bình 2347
thi_thể 2346
trẫm 2346
cảm_xúc 2345
vụt 2345
_s@@ 2343
chủ_động 2342
ước 2342
mức_độ 2339
hàn_quốc 2338
phụ_thân 2336
chứng_minh 2334
liệt 2332
mặt_mũi 2332
hải_phòng 2331
vĩnh_viễn 2331
200 2330
vội_vã 2330
tác_động 2329
khống_chế 2329
le@@ 2328
xé 2328
lẽ_nào 2324
thanh_toán 2323
trợn 2323
tiểu_học 2322
_m@@ 2317
tp.hcm 2313
kho 2312
muối 2311
người_thân 2308
dụ 2307
thẻ 2306
mộ_dung 2305
kh@@ 2303
thay_thế 2301
truyền_thống 2301
gục 2301
ngờ_đâu 2301
nhầm 2298
chầm_chậm 2297
14@@ 2294
nhường 2294
bơi 2293
hối_hận 2291
ý_tưởng 2290
nổi_giận 2290
lạc_dương 2290
_b@@ 2286
gi@@ 2285
góp_ý 2284
r 2276
kẻ_thù 2276
ðịch 2274
bận 2273
cơ_bản 2272
lắng_nghe 2270
‘ 2270
trứng 2270
văn_@@ 2267
cuộc_chiến 2266
tào 2265
gia_@@ 2263
tín 2262
hòa_thượng 2260
hoàn_hảo 2259
bạt 2259
21 2258
bịt 2258
chau_mày 2258
ngốc 2257
ứng_phó 2256
sửng_sốt 2255
doanh_doanh 2255
tù 2253
kỷ_niệm 2252
80 2251
dã 2250
phân_biệt 2249
đại_biểu 2248
co@@ 2248
cản 2248
thu_hồi 2247
rau 2247
triều_đình 2246
re@@ 2245
đồng_chí 2241
xen 2239
toà 2238
đối_mặt 2237
tống_cương 2236
khánh 2235
biểu 2234
bầy 2231
thu_nhập 2230
khe 2229
quen_biết 2229
âm_nhạc 2228
tách 2224
ngô 2224
nghệ_an 2223
thang 2223
con_bé 2223
thế_thì 2223
hiện_tượng 2221
mạo_hiểm 2220
chung_quanh 2220
kha 2219
sổ 2218
di 2218
ngự 2218
cầu_thủ 2218
xóm 2217
hàng_loạt 2216
nhận_định 2209
hành_trình 2209
xà 2209
gậy 2209
quyền_lực 2206
dáng 2206
chuyển_động 2205
hở 2205
đồn 2203
gia_gia 2203
quyên 2200
bí_ẩn 2199
nuốt 2199
aacute 2199
trung_bình 2198
long_vương 2198
thủ_tục 2196
dân_chúng 2193
ám 2191
ngơ_ngác 2191
15@@ 2190
ám_khí 2188
công_nghiệp 2187
nổi_bật 2187
bộ_phận 2184
văn_bản 2183
giam 2182
mẫu_thân 2182
lỡ 2181
2@@ 2180
thay_vì 2179
nhiên 2179
ra@@ 2178
rẽ 2178
ri@@ 2177
mo@@ 2176
căn_bản 2175
mệnh 2175
phi_huyên 2172
thái_tử 2171
vậy_thì 2170
não 2168
tay_phải 2167
vi@@ 2166
địa_bàn 2166
lộc 2166
ca_sĩ 2161
nghệ_sĩ 2161
trỏ 2161
thế_lực 2159
thề 2159
phất 2157
đình 2156
tay_chân 2152
truyện 2152
sự_nghiệp 2151
thương_hiệu 2151
lưới 2151
tư_cách 2150
ro@@ 2148
kịp_thời 2146
mẹ_con 2146
cổn 2145
cười_nhạt 2144
chứng_tỏ 2141
buồn_bã 2141
rút_lui 2140
thói_quen 2139
lê@@ 2138
đầm 2138
hài_lòng 2135
trước_hết 2135
mực 2134
nạp 2133
điệt 2133
vất_vả 2132
lấp_lánh 2130
xu_hướng 2127
cao_thâm 2127
300 2126
reo 2125
biên_giới 2123
tiếp_cận 2121
cải_thiện 2120
thanh_thanh 2120
rẻ 2119
tham 2119
ngẩn 2116
bẩm 2114
bối_rối 2111
chất_độc 2111
16@@ 2110
tương 2108
chánh 2107
ngăn_cản 2106
thế_hệ 2105
ty 2105
địa_vị 2104
quả_thực 2104
tát 2102
mông_cổ 2101
cung_kính 2099
kỳ_quái 2098
do_dự 2097
thần_bí 2097
tín_dụng 2095
ngoại_giao 2095
ừ 2095
đáng_kể 2094
2010 2094
đựng 2094
500 2093
so_sánh 2093
hình_thành 2091
rối_loạn 2091
vực 2089
dư_luận 2088
bất 2088
làm_ăn 2087
hầu_@@ 2087
chức_năng 2086
kinh_@@ 2086
vệ 2086
đôi_khi 2085
tiêu_dùng 2083
thế_gian 2082
–_@@ 2080
cãi 2080
12@@ 2079
ngày_xưa 2078
ý_muốn 2076
lúng_túng 2075
dáng_vẻ 2075
bổ 2072
tàn 2072
thận 2070
kỳ_dị 2069
la_@@ 2064
giải_trí 2064
mộ_dung_phục 2064
châu_á 2062
ra_hiệu 2062
vũ_văn_hàn 2062
nhặt 2061
ứng 2060
nhân_@@ 2060
né_tránh 2059
quá_khứ 2058
loạt 2057
cảm_kích 2057
trình_độ 2056
khoảng_cách 2055
hà@@ 2054
1,@@ 2053
đền 2052
cung_@@ 2051
xách 2051
tay_áo 2051
22 2049
điếm 2048
tiết_kiệm 2047
biểu_hiện 2047
vận_động 2047
thị_vệ 2047
thích_thú 2046
nhà_thờ 2046
báo_thù 2045
ví_dụ 2043
vũ@@ 2043
lụa 2043
nhanh_nhẹn 2042
thủ_đô 2039
khoang 2039
tổ_hợp 2038
ngõ 2038
ăn_mặc 2038
kỷ 2037
hoài_nghi 2036
can 2035
nhiệt 2032
can_thiệp 2031
sườn 2031
bào 2031
mỏng 2031
gặp_mặt 2030
á 2028
tốt_đẹp 2028
trèo 2028
rung 2028
thái_giám 2026
bổng 2025
di_động 2023
khác_biệt 2023
kg 2023
cổ_tay 2023
tư_tưởng 2022
thiền 2022
katie 2022
thông_thường 2019
bão 2019
gặp_gỡ 2016
cựu 2016
im 2016
to@@ 2011
cám_ơn 2007
màn_hình 2006
công_nhân 2006
lý_uyên 2006
de@@ 2005
truy 2005
nầy 2003
khấu_trọng_@@ 2002
phóng_viên 2001
xám 2001
thủ_pháp 1998
xô 1997
người_đẹp 1996
al@@ 1995
đại_sảnh 1994
bất_dịch 1992
hiểu_biết 1991
ê 1990
đĩa 1990
trào 1989
thủy_@@ 1988
rực_rỡ 1988
sốc 1987
trò_chuyện 1987
âm_mưu 1987
ngô_tam_quế 1986
kêu_gọi 1984
sấm 1984
truyền_thông 1981
diễn_viên 1981
quy_mô 1977
đả 1977
tương_đương 1974
thận_trọng 1973
chủ_nhật 1973
nào_ngờ 1973
mau_lẹ 1972
công_khai 1971
quan_tài 1969
ð@@ 1969
nối 1968
sinh_tử 1967
nhà_khoa_học 1966
mèo 1966
may_mà 1966
tiện_thiếp 1966
đè 1964
váy 1964
thích_hợp 1963
mao 1963
dữ_dội 1963
trước_đây 1961
nghiến 1960
quãng 1959
lạnh_lẽo 1959
bệ_hạ 1959
thành_@@ 1956
tổng_số 1955
năm_học 1955
chẳng_thể 1954
nhãn 1953
đùi 1951
tự_nhủ 1949
kim_cương 1948
tửu 1948
an@@ 1947
ar@@ 1947
vô_địch 1947
không_ngớt 1947
lý_mật 1947
xứng_đáng 1946
chu_@@ 1946
tâm_trạng 1946
vú 1945
hiền_đệ 1945
giở 1944
nhấn_mạnh 1942
công_chức 1942
mù 1942
lo_ngại 1941
chửi 1941
huống_chi 1941
tra 1939
mưu 1939
tế 1939
phẫn_nộ 1939
cao_cấp 1938
vitamin 1938
phổ_biến 1937
lạc_hi 1937
đòi_hỏi 1935
ấn_độ 1934
chôn 1934
độc_thủ 1934
bề_ngoài 1933
phát_huy 1932
_th@@ 1931
an_@@ 1930
lái_xe 1928
quân_bình 1927
nhạt 1926
nhát 1925
vtc 1925
anna 1923
đệ_nhất 1923
hoá 1922
phiền 1922
sân_khấu 1922
thi_lễ 1922
động_tác 1921
vắng 1919
ấm_áp 1917
băn_khoăn 1916
trừng 1916
đắc_ý 1916
thúc_đẩy 1915
thi_hành 1915
diệp 1915
ðinh 1915
ra_vẻ 1914
thần_công 1914
vả_lại 1913
địa_điểm 1910
nguyện 1910
phen 1910
cớ 1908
giếng 1907
chiêu_thức 1907
tái 1906
km 1906
kiên 1906
nhấc 1905
xác_nhận 1904
cầu_thang 1904
thành_tích 1901
1@@ 1900
cạnh_tranh 1900
béo 1899
phun 1899
thư_viện 1899
toát 1898
thời_kỳ 1897
sờ 1897
mổ 1895
quy_hoạch 1894
lo_sợ 1894
minh_chủ 1894
thổ 1893
sâu_sắc 1893
di@@ 1892
…_@@ 1892
kiềm_chế 1892
hồ_xung 1892
trụ 1891
liều 1890
chấm_dứt 1890
_c@@ 1889
so@@ 1889
tiêu_diệt 1889
70 1888
đóng_góp 1887
nông_dân 1886
một_nửa 1886
trái_đất 1885
trời_ơi 1885
diễn_biến 1884
đạo_đức 1884
thân_thiết 1883
đàm 1883
cđ 1883
nghiêm_túc 1882
ưa 1882
trâu 1882
trường_học 1879
phát_biểu 1877
yên_lặng 1877
giương 1877
28 1876
0,@@ 1876
do@@ 1876
dại 1875
khuất 1874
ho@@ 1873
nghĩ_ngợi 1872
hiên 1872
dữ 1872
ván 1869
_d@@ 1869
đánh_bại 1868
mi@@ 1866
ca_ca 1865
28/2 1864
mô_hình 1863
23 1863
xấu_hổ 1863
tò_mò 1862
u_@@ 1861
suýt 1861
hiv 1860
hứng_thú 1859
năm_ngoái 1858
te@@ 1857
paris 1857
cảm_động 1856
phảng_phất 1856
kìa 1854
hé 1852
hoa_kỳ 1851
phù 1851
duy 1851
có_lý 1851
diện_tích 1850
tang 1849
hlv 1848
săn 1848
khéo 1848
kiến_trúc 1847
tiêu_chuẩn 1846
chẳng_hạn 1846
chân_tay 1846
trùng 1844
rậm 1844
giục 1842
triển_lãm 1842
tụ 1840
lưu_ý 1835
cáo 1834
mát 1833
không_trung 1832
thái_lan 1831
khoan 1831
mềm 1831
27/2 1829
w@@ 1828
hoảng_sợ 1827
se@@ 1825
ga 1824
bao_vây 1824
khôi 1824
rắc_rối 1823
kiệt 1823
vé 1821
gõ 1821
đồng_thanh 1821
đầu_hàng 1820
rộng_rãi 1819
lãi_suất 1818
nóc 1817
trọng_thương 1817
vff 1816
ngăn_chặn 1816
lý_xuân_hoa 1816
gương 1815
phiến 1815
sự_thực 1814
chẳng_qua 1814
phát_sinh 1813
tới_nơi 1813
hỏng 1812
em_gái 1812
chống_đỡ 1812
nói_dối 1812
lý_viên 1810
đường_phố 1809
phượng 1809
thợ 1809
mờ 1808
đông_@@ 1807
sv 1807
khang 1806
nghị_quyết 1803
phương_án 1803
óc 1803
vuốt 1803
hòa_bình 1802
me@@ 1801
biết_đâu 1800
nhập_khẩu 1799
vụ_án 1798
biết_bao_nhiêu 1797
bắc_kinh 1794
son 1794
đam_mê 1794
lẹ 1794
trời_đất 1793
khanh_khách 1792
z@@ 1791
ủy_ban 1789
ngôn_ngữ 1788
qua_lại 1788
lê 1787
thở_phào 1787
tím 1786
ngoại_trừ 1785
trì 1783
văng 1782
man 1782
ong 1781
quân_@@ 1781
mỹ_nữ 1781
hoa_thiên_hồng 1779
biết_bao 1773
sát_hại 1773
hảo_hán 1771
thản_chi 1770
màu_sắc 1769
thi_đấu 1768
hoảng_hốt 1767
dưỡng 1766
tranh_cãi 1766
đích_thân 1766
trạng_thái 1765
tủ 1763
luận 1762
sanh 1761
sinh_hoạt 1759
lục_@@ 1759
la_sát 1759
mới_đây 1758
lợi_nhuận 1758
phong_cách 1758
miễn_phí 1758
font 1758
kiệu 1758
quốc_@@ 1757
khó_lòng 1757
gp 1756
cưỡng_chế 1755
dọn 1755
bần_đạo 1755
thuần 1754
bảo_@@ 1753
ổ 1752
ý_thức 1751
vỗ_tay 1751
đồ_đệ 1751
gối 1750
chi_bằng 1750
giới_hạn 1749
ha@@ 1749
quỳnh 1749
một_phen 1749
00 1748
gầy 1748
yên_tĩnh 1747
cán 1746
bất_động 1746
run_rẩy 1746
tác 1744
huy_động 1743
1050 1743
17@@ 1742
libya 1742
tươi_cười 1742
càn 1742
vó 1742
nhận_thức 1741
thúy 1741
quạt 1740
ngửi 1740
công_nhận 1739
có_khi 1739
dở 1739
hẹp 1739
vận_chuyển 1736
27 1736
tạp_chí 1736
ướt 1735
khoát 1735
btttt 1734
miễn_cưỡng 1731
góp_phần 1730
unicode 1730
thuận_lợi 1729
tôn_giáo 1729
vương_thế_sung 1729
phần_mềm 1727
gạch 1727
ne@@ 1726
dẫu 1726
trịnh_@@ 1726
coi_thường 1726
[_back 1726
|_giáo_dục 1726
|_nhịp 1726
internet_số 1726
15-07-2008 1726
nhà_ngươi 1726
kiện 1725
su@@ 1724
quấn 1724
đồng_@@ 1724
biểu_tình 1724
|_xã_hội 1724
|_thế_giới 1724
|_nhân_ái 1724
|_văn_hóa_| 1724
cao_minh 1722
mặt_nạ 1722
một_trăm 1721
bắt_buộc 1720
gượng 1719
đội_ngũ 1718
công_bằng 1718
vứt 1717
–@@ 1716
lô 1716
khủng 1714
ha_ha 1714
pa@@ 1712
nhà_thơ 1712
tr 1712
ban_ngày 1710
lai 1710
võ_sĩ 1709
chán 1706
thiền_sư 1706
địa_chỉ 1705
đa_tạ 1705
trình_bày 1704
sĩ 1700
tính_cách 1700
thờ 1700
lúa 1699
công_dân 1699
m2 1697
bề 1697
trầm_trọng 1695
sơ_hở 1695
i_@@ 1692
hủy 1692
syria 1692
m_@@ 1691
ập 1691
…@@ 1690
thép 1690
thời_tiết 1690
thuở 1689
bày_tỏ 1688
1_. 1688
trình_diễn 1688
buôn_bán 1687
phán 1687
chai 1686
trút 1686
mở_mắt 1686
cẩu 1684
cõi 1684
sư_phạm 1682
tiểu_hoàn 1682
tự_hào 1680
tre 1680
ven 1678
ni@@ 1677
cảnh_báo 1677
13@@ 1676
tiến_bộ 1676
bà_con 1676
đỏ_mặt 1676
dời 1675
trước_nay 1675
si@@ 1674
sốt 1672
di_@@ 1670
mười_lăm 1669
trí_tuệ 1669
trướng 1669
rượt 1669
đề_cập 1668
nhà_hàng 1668
bi 1668
nhai 1668
quế 1667
lu@@ 1665
thắc_mắc 1665
bưu_điện 1665
trùm 1665
người_bệnh 1663
truyền_hình 1662
phương_trượng 1662
cử_chỉ 1661
quyến_rũ 1660
tử_tế 1659
tội_nghiệp 1658
khí_thế 1658
thối 1657
chủ_trương 1656
nói_nhỏ 1655
cau_mày 1653
ti 1652
hình_dung 1651
hồi_phục 1650
tư_thế 1649
vệ_sinh 1649
hạ_thủ 1649
cảnh_tượng 1648
ầm 1648
0 1647
giải_phóng 1647
_ch@@ 1647
hư_trúc 1646
ba_@@ 1645
ô@@ 1645
ra_đời 1644
bo@@ 1644
khẩn_trương 1643
28@@ 1642
ngân_sách 1642
úc 1642
thcs 1642
muôn 1641
minh_giáo 1641
dán 1640
thụ 1640
phản_ánh 1638
xuất_thủ 1638
thiên_nhiên 1637
ðây 1637
người_lớn 1636
đinh_@@ 1636
xa_xa 1636
mu 1635
nhốt 1635
hy_sinh 1634
hoàng_hậu 1634
học_viện 1633
khoác 1632
khôi_phục 1630
thì_thầm 1630
hiệp_sĩ 1630
a_châu 1630
lệnh_hồ_xung_@@ 1629
xá 1628
ao 1627
khác_thường 1627
vadim 1626
en@@ 1625
chỉ_số 1625
trả_thù 1625
ngoan 1624
nút 1623
hông 1622
oscar 1622
hạ_sát 1622
cơ_hồ 1622
bước_đi 1620
harry 1620
trang_phục 1618
độc_lập 1615
trang_bị 1614
mét 1614
internet 1613
người_nhà 1613
công_viên 1612
gian_lận 1612
địch_vân 1612
20@@ 1611
nhĩ 1611
điệu 1610
cao_lớn 1610
tối_đa 1609
chặt_chẽ 1608
tộc 1608
lâm_@@ 1607
ngước 1607
45 1606
en 1606
thắp 1606
đại_tướng 1605
vạch 1604
kích_thích 1603
bế 1603
rung_động 1602
phát_hành 1601
tôm 1601
thất_@@ 1601
lò 1600
suy 1599
tôn_trọng 1597
phương_@@ 1597
chung_kết 1597
khỏe_mạnh 1595
tha_thứ 1595
lê_@@ 1595
đếm 1595
căng 1594
khơi 1593
s_@@ 1593
_v@@ 1593
cập 1593
chằm_chằm 1593
va 1592
tí 1592
số_phận 1590
mở_miệng 1590
đối 1589
nhẫn 1589
nghiệp 1588
09@@ 1588
tự_động 1588
kê 1588
hoàng_cung 1588
dương_thu 1588
mặt_mày 1587
nhỏ_bé 1587
điểm_huyệt 1587
đả_thương 1587
rú 1587
hs 1586
vô_hình 1586
tuôn 1586
con_cái 1585
đối_xử 1585
khâm_phục 1585
ngập_ngừng 1585
đấu_tranh 1583
tình_cảnh 1583
04 1581
ảo 1580
nấp 1580
da@@ 1579
thư_thư 1579
hung_thủ 1578
> 1578
nắp 1577
giây_phút 1576
le 1576
hú 1576
kênh 1575
dâu 1575
kỹ_năng 1574
tính_tình 1574
đạo_huyền 1574
lai_lịch 1573
đại_hội 1571
quái_dị 1571
khép 1570
ngẫm_nghĩ 1568
quan_chức 1567
lùn 1567
buồng 1566
hài_nhi 1566
nói_năng 1566
tố_tố 1566
xóa 1565
sn 1565
thiếu_phụ 1565
soi 1564
chân_thành 1563
ốm 1563
bồi 1563
cam_kết 1562
dàn 1562
ninh 1562
ông_bà 1561
ngày_đêm 1560
nam_nhân 1560
nữ_tử 1560
rộng_lớn 1559
ngả 1558
vĩnh 1557
truyền_thụ 1556
độc_đáo 1555
rách 1555
quê_hương 1555
_đ@@ 1554
đấm 1554
dực 1554
tiên_lãng 1554
ấp 1553
lặng 1553
lý_băng 1553
rủi_ro 1552
du_khách 1549
chuột 1549
news 1548
củi 1547
bảo_hiểm 1546
nhắc_nhở 1546
đắt 1546
ỷ 1545
lường 1544
lẽ 1544
ghi_nhận 1543
chúng_nó 1543
trung_thành 1542
luật_sư 1541
7879 1541
vút 1541
chuỗi 1540
rùng_mình 1540
tủm_tỉm 1540
ruộng 1540
mãi_mãi 1539
nhúc_nhích 1537
chốc_lát 1537
bắc_@@ 1536
ðúng 1536
sân_bay 1535
nói_chung 1534
cảnh_giác 1534
thanh_hóa 1533
phách 1531
ngón_tay 1529
ồn_ào 1529
trị_giá 1528
tâm_trí 1528
lâu_dài 1527
sức_lực 1527
mặt_nước 1527
tân_@@ 1526
bể 1526
đại_vương 1526
lịch 1525
hồ_đồ 1525
ðồng 1525
triệu_chứng 1522
sơ 1522
gào 1522
chép 1521
khung 1520
nghĩ_lại 1520
vẫy 1519
thong_thả 1519
tẩu 1518
thảo_luận 1517
khuyến_khích 1515
uy_hiếp 1514
hồ_chí_minh 1513
dê 1513
chi_hiên 1513
dẫn_đầu 1512
01 1512
sea_games 1512
tạm_biệt 1510
35 1509
cỡ 1509
kim_hoa 1509
kịch 1509
phiên_bản 1508
ngao 1508
bộ_mặt 1507
bất_thường 1506
tưởng_chừng 1506
y_lam 1506
tương_đối 1505
trải_nghiệm 1505
nảy 1505
tranh_chấp 1504
bất_chấp 1504
er@@ 1503
hỗn_loạn 1503
thăng 1503
nấy 1503
tôn_quách 1503
phục_hồi 1502
khuê 1502
trung_niên 1501
xem_chừng 1501
no 1500
nhổ 1500
khiêng 1500
bụng_bảo_dạ 1500
đau_lòng 1499
25@@ 1499
biệt 1499
hàng_hóa 1497
19@@ 1496
một_khi 1496
hồng_@@ 1496
hỏa 1496
chúng_mình 1496
quảng_trường 1494
ga@@ 1493
trượt 1493
thời_khắc 1493
liệng 1493
nghi_lâm 1493
lĩnh_vu 1492
độc_giả 1490
rùa 1490
phải_rồi 1490
hồi_hộp 1487
oán 1487
trọn 1485
nghị 1485
tu@@ 1484
nhắn 1483
danh_tiếng 1483
mã_đề 1483
thưởng_thức 1483
hóa_ra 1483
ngây 1483
út 1482
bài_học 1481
gmt 1480
phú 1479
chộp 1479
phát_động 1478
bốn_mươi 1477
xoáy 1477
tiếp_nhận 1477
vở 1477
thầy_giáo 1474
bình_thản 1474
chỉ_trích 1473
nguyễn_thị@@ 1473
như_là 1472
phấn 1472
đối_đầu 1472
sophie 1472
mỡ 1471
vụn 1471
hương_chủ 1471
móng 1470
lý_@@ 1470
khen_ngợi 1470
chuyên_môn 1469
tự_chủ 1469
khớp 1468
đất_đai 1468
đảng_viên 1468
hành_tinh 1468
chiến_trường 1468
danh_hiệu 1467
khang_hy 1467
chúc_mừng 1466
đắp 1466
ngọt_ngào 1466
thực_lực 1466
sang_trọng 1465
ngọt 1465
nhọn 1465
cải_cách 1464
luyện_tập 1463
khom 1463
nỡ 1463
dấu_vết 1463
vĩ_đại 1462
tiêu_biểu 1461
gia_nhập 1460
trích 1460
lông_mày 1460
kiêm 1459
mãnh 1459
chelsea 1459
thách_thức 1458
ts 1458
đại_thần 1458
hi_vọng 1457
lóe 1457
tiền_bạc 1457
vô_ích 1456
a_kha 1456
đột_lợi 1455
chủ_đề 1453
tỉnh_táo 1452
tuyệt_vọng 1452
quí 1452
ra_chiều 1452
ðó 1451
hầu_hi_bạch 1451
phần_nào 1449
nhào 1449
một_ít 1449
âm_thầm 1448
xuất_phát 1448
mâu_thuẫn 1448
vật_chất 1448
thiệu 1448
hãn 1448
chưa_thể 1447
tế_bào 1447
sứ_giả 1446
eu 1445
thùy 1445
nhận_lời 1445
thời_đại 1444
italia 1444
ổng 1444
hân 1444
thịnh 1444
toàn_diện 1443
phản_kích 1443
khẩn_cấp 1442
uy_tín 1442
vật_lý 1441
nguyên_tắc 1440
uyên 1440
hạc 1440
quản_trị 1438
bình_quân 1438
ghép 1438
bừng 1438
ngập 1437
kỷ_luật 1435
còi 1435
thẩm_mộc_phong 1435
hiểu_phong 1435
ka@@ 1434
tuy_vậy 1434
khoái 1434
hổng 1433
yếu_ớt 1433
gs 1432
giải_cứu 1432
sống_chết 1431
trân 1431
xót_xa 1431
đe_dọa 1430
thư_sinh 1429
nhiệt_độ 1428
hốt_hoảng 1428
alexandra 1427
lý_tưởng 1426
rủ 1426
niệm 1426
phàm 1426
hoảng 1426
tịch 1426
thuốc_lá 1425
kề 1425
chân_dung 1425
tiểu_bạch 1425
đổi_mới 1424
đồng_tiền 1424
po@@ 1424
te 1424
đài_loan 1423
dễ_chịu 1422
thật_là 1422
israel 1422
new_york 1421
nhục 1421
nhà_văn 1421
0@@ 1419
ưu_tiên 1419
mô 1419
sơn_la 1419
cuộn 1419
làm_gì 1419
đạo_sĩ 1419
bu@@ 1418
eo 1418
tiêu_@@ 1418
khổ_sở 1418
vận_dụng 1418
thỉnh 1418
phi_@@ 1417
hiểu_lầm 1417
bùn 1416
be@@ 1414
kỷ_lục 1412
phương_thức 1411
men 1410
bình_yên 1410
tịnh 1410
cư_dân 1409
lặn 1408
cảnh_giới 1408
cao_điểm 1407
cổ_quái 1407
khí_giới 1406
lâm_hồng 1405
thần_kinh 1404
oai 1403
tấc 1403
gỡ 1402
29 1402
thuyết 1401
biểu_tượng 1400
cơ_chế 1399
in@@ 1399
theo_đuổi 1399
no@@ 1397
36 1397
thảm_khốc 1397
tổng_hợp 1396
huấn_luyện 1396
binh_sĩ 1396
facebook 1395
hồ@@ 1395
sống_sót 1395
trò_chơi 1394
thu_thập 1393
bất_chợt 1393
tại_chỗ 1392
xuân_@@ 1392
ngoại_ngữ 1392
thừa_cơ 1392
thiên_phong 1392
q@@ 1389
gần_gũi 1388
phạm_vi 1388
dập 1388
quan_@@ 1388
trát 1388
linh_san 1388
đa_số 1387
thổ_ti 1387
j@@ 1386
tuyệt_diệu 1386
ðằng 1386
tín_hiệu 1385
mồi 1385
y_như 1385
._trong 1384
ngất 1384
hcm 1381
gieo 1381
kiên_quyết 1381
24/2 1381
tê 1379
rèm 1379
ban_hành 1378
long_@@ 1378
tràn_đầy 1377
hố 1377
mầm_non 1377
24@@ 1376
nhè_nhẹ 1376
tâm_tình 1376
dữ_liệu 1375
gas 1375
34 1374
sở_dĩ 1373
thái_@@ 1372
vương_quốc 1372
vận_tải 1371
bất_đồng 1371
ðông 1371
cao_đẳng 1369
trừ_phi 1368
hạ_lệnh 1368
tiểu_san 1368
cô_đơn 1367
mạt 1366
phật_giáo 1366
luật_@@ 1363
tài_xế 1363
cảng 1363
trắc_nghiệm 1363
go@@ 1362
lương_thực 1362
hội_thảo 1362
hành_chính 1362
pi@@ 1362
11@@ 1360
kín_đáo 1359
chắn 1359
ngạo 1359
chiến_sĩ 1358
bình_@@ 1357
obama 1357
kết_nối 1356
ki@@ 1356
vui_lòng 1356
mất_tích 1356
chu_đáo 1355
giảng 1354
nửa_đêm 1354
nam_nữ 1354
mỏ 1353
ko@@ 1353
đi_nữa 1353
võ_nghệ 1353
cam 1352
bì 1352
oan 1352
chế_biến 1351
pháo 1351
run_run 1350
cản_trở 1349
độc_ác 1348
23@@ 1346
nếu_vậy 1346
phòng_ngủ 1345
khủng_bố 1345
tử_lăng_@@ 1345
tàn_nhẫn 1344
08 1343
thượng_@@ 1343
sau_cùng 1342
ăn_nói 1341
xoa 1340
bằng_lòng 1338
uy_lực 1338
c_@@ 1337
bắt_tay 1336
thăm_dò 1336
sạch_sẽ 1336
đại_sứ 1336
nguồn_gốc 1335
thần_thái 1335
qu@@ 1334
nguyện_vọng 1334
n_l@@ 1332
âu_thần 1332
chế_tạo 1330
chùm 1330
thầy_trò 1330
nốt 1329
xiết 1329
tướng_mạo 1329
ngữ_văn 1327
phước 1327
london 1327
hào_kiệt 1327
hoàn_thiện 1326
gọn 1326
sai_phạm 1324
liều_mạng 1324
giấc_ngủ 1324
tuần_lễ 1324
trực_tuyến 1323
tiểu_thuyết 1323
vầng 1323
hóa_@@ 1322
virus 1322
buồn_rầu 1322
trưởng_thành 1321
ngộ 1321
văn_học 1321
lên_ngôi 1320
bi@@ 1320
chê 1320
nông_nghiệp 1319
09 1319
giàu_có 1319
rèn_luyện 1319
quỉ 1318
khảo_sát 1317
lấp 1317
hớn_hở 1317
bản_đồ 1316
quì 1316
lo_âu 1315
thứ_ba 1315
buồn_cười 1315
thống_kê 1314
mơ_hồ 1314
tắc 1313
nín 1313
tình_nguyện 1313
đóa 1313
hôn_nhân 1312
đại_tá 1311
lịch_sự 1311
đắc_tội 1310
góp 1309
chuyên_nghiệp 1309
ngoan_ngoãn 1309
thỏa_thuận 1308
thấm 1308
diệu 1308
quy_chế 1307
ngưỡng_mộ 1307
„@@ 1306
lão_@@ 1305
đạo_@@ 1305
đích 1304
cổ_họng 1304
arsenal 1304
quận_chúa 1304
đạo_trưởng 1304
liên_kết 1303
thấu 1302
ðằng_dực 1302
dặn_dò 1301
âm_dương 1301
thương_tâm 1301
27@@ 1300
nến 1300
lữ 1300
tơ 1299
sỏi 1299
tham_nhũng 1299
hà_tĩnh 1298
căn_bệnh 1298
ráng 1298
kịch_liệt 1297
cung_nữ 1297
_ 1296
đồng_nghiệp 1295
se 1295
t-@@ 1295
mềm_mại 1295
bỏng 1294
iphone 1292
biệt_thự 1292
đặc 1292
nóng_nảy 1292
dễ_thương 1292
cười_cười 1292
ðại 1292
thập_bát 1292
thứ_sáu 1291
thiêu 1291
sáng_rực 1291
phụng_tam 1291
tôn_ân 1290
sắc_bén 1289
chen 1289
động_tĩnh 1289
bành 1288
mu@@ 1287
cố_tình 1287
thần_kỳ 1287
thắt 1286
7841 1286
làm_chủ 1284
trú 1284
hỏi_thăm 1284
khóe 1283
my 1283
triệu_@@ 1283
mai_phục 1283
ðược 1283
hu@@ 1282
cấp_cứu 1282
tống_@@ 1282
quý_phái 1282
câu_hỏi 1281
mục_quang 1281
thiên_địa 1280
phỏng_vấn 1279
the 1279
32 1279
chính_@@ 1278
lảo_đảo 1278
nghĩa_phụ 1278
ngẩng 1277
8/3 1277
bằng_chứng 1276
thuyên 1276
chân_@@ 1276
kỹ_sư 1275
con_cháu 1273
bần_tăng 1273
ban_đêm 1272
tràn_ngập 1272
26@@ 1271
đỏ_bừng 1271
mênh_mông 1271
ph 1270
hoả 1270
tý 1270
peter 1269
phòng_thủ 1268
trật_tự 1267
bức_xúc 1267
thành_phần 1267
cài 1267
thái_bình 1267
sáng_mai 1266
33 1265
nhét 1265
400 1264
_g@@ 1264
xa_lạ 1263
trịnh 1263
da_thịt 1262
ðại_@@ 1262
đại_lý 1261
mất_mạng 1261
lách 1260
đạo_diễn 1260
ky 1260
chung_cư 1259
mai_@@ 1259
z 1259
de 1259
mâu 1259
tố_cáo 1257
show 1257
n_t@@ 1256
bất_kể 1256
bàng 1256
thấp_thoáng 1256
hoàn_huyền 1256
toán_học 1255
kem 1255
trái_lại 1255
tước 1255
thiên_thần 1255
7871 1254
1.@@ 1253
_tr@@ 1253
hứng 1253
thương_yêu 1253
bí_thư 1252
tên_tuổi 1252
si 1252
trọ 1252
ánh_mắt 1252
ấp_úng 1252
thẹn 1252
môn_hạ 1252
tả_hữu 1251
buột_miệng 1250
29@@ 1249
pv 1248
kẻ_địch 1248
vương_phủ 1248
miêu 1247
kiều_phong 1247
trạch 1246
nhẫn_nại 1246
thương_lượng 1246
lý_hàn_thu 1246
trinh 1245
kh 1245
nhà_cửa 1245
ra_sức 1245
chủ_trì 1242
khủng_hoảng 1242
linh_hồn 1242
san 1242
mốc 1241
vô_lễ 1241
dược_sư 1241
cơ_quan_chức_năng 1240
khước 1240
mã_số 1239
teen 1239
tinh_tú 1239
tử@@ 1238
bé_nhỏ 1238
hành_sự 1238
ngâm 1237
đẩy_mạnh 1237
vùng_đất 1237
phổi 1237
lư 1237
đức_@@ 1236
đt 1236
toàn_cảnh 1235
kỳ_diệu 1235
rét 1234
bó 1234
vuông 1234
rụng 1232
tít 1232
đột_biến 1231
đo 1231
đường_hầm 1231
hi 1231
tuyết_kiều 1231
thiên_tôn 1230
mảng 1229
hô_hấp 1229
huy 1229
nhảy_vọt 1229
túm 1228
thà 1228
bộ_dạng 1228
giảng_viên 1227
khéo_léo 1227
điên_cuồng 1226
ngô_@@ 1225
chổ 1225
bất_hạnh 1224
nữ_lang 1224
thê_thảm 1224
không_lẽ 1224
sập 1223
đẻ 1223
kiếm_thuật 1223
trở_lên 1222
chủ_nhiệm 1222
nhì 1221
ms 1221
nhún_vai 1221
quân_trung_phụng 1221
sự_cố 1220
xưng 1220
hàm 1220
đối_tác 1219
tiền_tệ 1219
chán_nản 1219
ờ 1219
nóng_bỏng 1219
thắng_bại 1219
trầm_lạc_nhạn 1219
ii 1218
xuất_thân 1218
vô_danh 1218
gáy 1216
giới_tính 1214
giảng_dạy 1214
ngói 1214
mồ_côi 1214
bar 1213
kháng_cự 1213
cơ@@ 1212
giáng 1212
tạ_ơn 1212
bức_bách 1212
bắt_giữ 1211
nghệ 1211
nhỏ_tuổi 1211
nga_mi 1211
dày_đặc 1209
ối 1209
„_@@ 1209
kỳ_vọng 1208
anh_chị 1208
biến_hóa 1208
không_chừng 1208
bùi_@@ 1207
xét_nghiệm 1207
oacute 1207
đỗ_phục_uy 1207
khắc_phục 1206
cọp 1206
ngu 1206
gray 1206
sự_tình 1205
tấu 1205
phổ_thông 1203
cân_nhắc 1202
gấu 1202
trái_cây 1201
sát_khí 1201
tội_phạm 1200
ước_mơ 1200
nhẹ_nhõm 1200
hái 1199
né 1198
thạch_thất 1198
bạo_lực 1198
luân 1198
sáo 1198
gia_cát 1197
bất_tất_phải 1197
cấu_trúc 1196
bẩn 1196
thủy_thủ 1195
tiêu_thụ 1194
ðổng 1194
xe_hơi 1193
cân_bằng 1192
viễn 1192
ðến 1192
đột_quyết 1191
tư_hãn 1191
nồi 1190
ị 1190
tính_chất 1189
ca_khúc 1189
tiểu_trừng 1189
đạo_lý 1188
thắng_lợi 1188
huống_hồ 1187
tiểu_muội 1187
thuỷ 1186
hành_hạ 1186
cặp_đôi 1186
phắt 1186
lẳng_lặng 1186
quầy 1185
tụ_tập 1185
khiếp_sợ 1185
vận_khí 1185
trừng_phạt 1184
mệnh_lệnh 1184
kiến_nghị 1183
dự_báo 1183
bởi_vậy 1183
đặng 1183
khố 1183
triệu_mục 1183
tiêu_dao 1182
xung_đột 1181
đau_đầu 1181
động_viên 1181
bấy_nhiêu 1181
mã@@ 1180
tiêu_cực 1179
xâm_nhập 1179
do_vậy 1179
linh_@@ 1179
ơ 1179
âm_@@ 1178
đích_thực 1178
mặt_khác 1177
p_@@ 1177
tập_thể 1177
−@@ 1177
ðiền_ðan 1177
không_chỉ 1176
chốt 1176
nguyên_@@ 1176
sánh 1176
_r@@ 1176
hàng_xóm 1176
chỉ_thị 1176
tuyên 1175
cuồn_cuộn 1175
ecirc 1175
thình_lình 1175
phong_@@ 1174
đại_sự 1174
tây_@@ 1174
ma_túy 1174
nếm 1174
khôn 1174
đại_quân 1174
singapore 1173
tinh_@@ 1173
7889 1173
bất_lợi 1172
n_th@@ 1172
oanh 1172
linh_hoạt 1171
xôn_xao 1171
bối_cảnh 1171
90 1171
chậm_chạp 1171
diễm 1171
dũng_cảm 1171
lòng_dạ 1171
dự_thảo 1170
chức_vụ 1170
tình_cờ 1170
tung_sơn 1170
nhà_báo 1169
ít_ra 1169
tranh_thủ 1169
yêu_thích 1168
mua_sắm 1167
hành_khách 1167
chiến_dịch 1167
điếu 1167
lẽ_ra 1167
diêu 1167
hiến 1167
xấu_xa 1167
công_lập 1166
hàng_không 1166
trực 1166
thẳng_thắn 1165
bảo_tàng 1165
ưu_đãi 1163
bấm 1163
động_vật 1162
tục 1162
lang_quân 1162
phong_trào 1161
xu 1160
bỏ_rơi 1160
sửa_đổi 1159
tổng_giám_đốc 1159
hải_quân 1159
giăng 1159
đông_đảo 1158
tự_tử 1158
bùng 1157
sôi 1157
đầu_gối 1157
kinh_mạch 1157
thân_mật 1157
buồm 1157
trương_thúy_sơn 1157
vận_hành 1156
đặt_chân 1156
áo_quần 1155
22/2 1155
cong 1154
giác 1153
coi_trọng 1152
thầy_cô 1152
trầm_mặc 1152
dịu 1150
nâu 1150
kinh_khủng 1150
simon 1150
nướng 1149
21/2 1149
giai_nhân 1149
tập_kích 1149
nông_thôn 1148
bàn_bạc 1148
toàn_thể 1148
thâu 1148
hàm_dương 1148
03 1147
ng_@@ 1147
quan_niệm 1147
n_h@@ 1146
búa 1146
áo_dài 1146
lớp_học 1145
hoàng_tử 1145
trung_hoa 1145
xoay_chuyển 1145
john 1145
google 1144
ải 1143
coi_chừng 1143
hành_tung 1143
150 1142
xạ 1142
xa_xôi 1142
công_kích 1142
o_@@ 1141
vi_@@ 1141
tôn_@@ 1141
thất_kinh 1141
ngạc 1140
phan_@@ 1139
bình_luận 1138
dự_trữ 1138
đâu_đó 1138
đề_tài 1137
nguyễn_văn_@@ 1137
vạt 1137
chân_trời 1137
ðoạn 1137
tôlic 1137
giấy_tờ 1136
hổ_thẹn 1136
whitney_houston 1136
trịnh_khắc_sảng 1136
2017 1135
bận_rộn 1135
bỗng_dưng 1135
hâm_mộ 1134
chọc 1134
truyện_ngắn 1134
kinh_tuấn 1134
nhựa 1133
55 1132
dự_đoán 1130
ích 1130
nhung 1130
ký_ức 1130
rước 1129
khương 1129
khoá 1129
quăng 1129
tối_thiểu 1128
liêu 1127
bộ_gdđt 1127
thị@@ 1126
chuồng 1126
chủ_ý 1126
gươm 1126
kính_trọng 1126
nhủ 1125
tham_quan 1125
thê_lương 1125
tống_khuyết 1125
lâu_nay 1124
ốc 1124
cao_nhân 1124
thềm 1123
ra_@@ 1123
chinh_phục 1123
phiếu 1123
hiểm 1123
gia_kỳ 1123
2,@@ 1122
lãi 1122
một_mặt 1122
sơn_trang 1122
thứ_trưởng 1121
ces 1121
đậm 1120
bực_mình 1120
thủy_chung 1120
càn_khôn 1120
hi@@ 1119
trợ_giúp 1119
phấn_khởi 1119
bao_trùm 1118
bất_lực 1118
gai 1117
sói 1117
đêm_tối 1116
kỵ_binh 1116
ngụm 1115
hồng_y 1115
20/2 1115
đánh_chết 1115
hoan_hô 1113
tay_mặt 1113
lờ_mờ 1112
đoàn_dự 1112
tiềm_năng 1111
on 1111
chấm_thi 1111
ung 1111
vô_dụng 1111
gởi 1111
vén 1111
chi@@ 1110
ý_chí 1110
động_cơ 1110
mép 1110
kìm 1110
danh_dự 1110
táo 1109
đuốc 1109
va@@ 1108
định_hướng 1108
kích_động 1108
niên 1107
trảo 1107
30@@ 1106
nghiêm_nghị 1106
bình_an 1105
thất_thanh 1105
bền_vững 1104
suất 1104
học_phí 1104
quái_vật 1104
ngưỡng 1103
du@@ 1103
tọa 1103
hoàng_hôn 1103
bộ_đội 1103
bắt_gặp 1102
nghẹn_ngào 1102
nghề_nghiệp 1101
mau_mau 1101
động_đậy 1101
bình_dương 1100
kẽ 1100
barcelona 1100
định_thần 1100
miễn 1099
rõ_rệt 1099
xe_đạp 1099
bồ 1099
05 1098
hưu 1098
clb 1098
bí_quyết 1097
tôn_giả 1097
thành_tựu 1096
thực_là 1096
nude 1096
tiền_lương 1095
tư_nhân 1095
ít_nhiều 1094
lãng_mạn 1094
tập_luyện 1093
kết_hôn 1092
vợ_con 1091
chuồn 1091
tranh_luận 1090
tạ_tốn 1090
chính_đạo 1090
đỗ_thiên_ngạc 1090
taxi 1089
tụt 1089
li 1089
tin_đồn 1089
sa_mạc 1089
khổng_minh 1089
cổ_đông 1087
ngắn_ngủi 1087
cháo 1087
lồng 1087
thời_hạn 1086
pe@@ 1086
nếp 1086
cần_thơ 1086
dò 1086
siêu_phẩm 1086
sững 1086
hoành 1085
nam_giới 1085
thêu 1085
gằn 1084
heo 1083
mar@@ 1083
bẩy 1083
f 1082
tư_duy 1082
chắc_hẳn 1082
tâm_@@ 1082
lượm 1082
chu_cơ 1082
mc 1081
fan 1081
bóng_dáng 1081
nhăn 1081
dải 1081
gadhafi 1081
sực 1081
đóng_cửa 1080
can_đảm 1080
42 1079
tags@@ 1079
gả 1079
thạch_thanh_tuyền 1079
cùng_với 1078
email 1078
hữu_@@ 1078
bảo_ngọc 1078
bích_dao 1078
38 1077
tăng_giá 1077
công_cụ 1077
dĩ 1077
hắn_ta 1077
điệp 1077
2020 1076
thỏa_mãn 1076
vái 1076
bẻ 1076
dự_định 1075
thông_điệp 1075
sĩ_quan 1075
trang_trại 1074
quân_tử 1074
2009 1073
mớ 1073
doanh_nhân 1073
văn_minh 1073
thảo_nguyên 1073
dầy 1072
thư_phòng 1072
lão_thân 1072
thúy_ái 1072
bọn_ta 1071
huỳnh_@@ 1070
đồ_chơi 1070
câm 1070
chìa_khóa 1070
hình_dáng 1070
huệ 1070
cục_diện 1070
dương_hư_ngạn 1070
huyết_áp 1069
nhánh 1069
mò 1069
53 1068
thuốc_độc 1068
el@@ 1067
am@@ 1067
bạch_@@ 1067
bồng 1067
điện_ảnh 1067
đại_chiến 1067
ào 1066
ham 1065
194 1065
cõng 1065
ầm_ầm 1065
cưu 1065
ra_mặt 1064
ngẫu_nhiên 1063
:@@ 1063
tư@@ 1062
năng 1061
quất 1061
loạng_choạng 1061
sưu_tập 1061
nghiêm_khắc 1060
đỗ@@ 1060
mau_chóng 1060
chút_nữa 1059
đón_tiếp 1059
khoan_khoái 1059
xuôi 1058
đồ_đạc 1058
bộ_lạc 1058
thằng_cha 1058
37 1057
lật_đật 1057
quy_trình 1056
ngu_ngốc 1056
nan 1056
_n@@ 1055
thử_thách 1055
gắn_bó 1055
quản_gia 1055
kỵ 1054
hiện_diện 1054
thư_ký 1053
chậm_trễ 1053
» 1053
dân_chủ 1052
hấp_tấp 1052
buông_tha 1052
quyền_lợi 1051
thích_khách 1051
thân_thiện 1051
khải 1049
hưng_phấn 1049
điêu 1049
nền_tảng 1048
hạn 1048
nhất_@@ 1048
bắt_cóc 1048
tài_trí 1048
phong_phú 1047
sắp_đặt 1047
hoa_hậu 1047
dị_thường 1047
ru@@ 1046
ang 1046
lẻn 1046
tiên_phong 1045
bản_chất 1045
tuổi_trẻ 1045
khe_khẽ 1045
vĩ 1044
cao_tăng 1044
gót 1044
chân_chính 1043
xếp_hạng 1043
pháp_lý 1042
rạp 1042
ce@@ 1041
'@@ 1041
địch_thủ 1041
vặn 1041
tội_lỗi 1041
lời_lẽ 1041
quyết_liệt 1040
phẩm 1040
cằm 1040
bầu_không_khí 1040
sương_mù 1040
mừng_thầm 1040
n-@@ 1039
nhấn 1039
hoà 1038
nhô 1038
an_long 1038
hết_lòng 1037
cao_hứng 1037
gõ_cửa 1036
quốc_phòng 1035
vòng_tay 1035
ủy 1034
say_mê 1034
tuyển_dụng 1034
hòa_@@ 1034
vui_sướng 1034
đê 1034
hỡi 1034
trụ_sở 1033
31 1033
kẹp 1033
lơ_lửng 1033
võ@@ 1033
phản_bội 1033
thời_cơ 1032
hiển 1032
ám_ảnh 1032
cự 1032
dứt_khoát 1032
phận 1032
nổi_danh 1032
nội_bộ 1031
chà 1031
lang_thang 1031
trúng_tuyển 1031
quỷ_vương 1031
cơ_cấu 1030
thanh_thành 1030
cross 1030
tây_bắc 1029
rảo 1029
điều_động 1028
sẻ 1028
mà_lại 1028
buôn 1028
16/2 1028
mốt 1025
thiết_lập 1024
phụ_thuộc 1024
trang_trí 1024
bệnh_tật 1024
vân_@@ 1024
đồng_bào 1024
hôn_mê 1023
nho_nhỏ 1023
nương_nương 1023
tin_cậy 1022
xuất_bản 1022
phương_hướng 1022
la_hán 1022
tuyệt_thế 1022
củ 1021
tô@@ 1021
hòng 1021
song_song 1020
kinh_điển 1020
xấu_xí 1020
chi_@@ 1019
hưởng_ứng 1019
xơ 1019
e_@@ 1019
đôi_chút 1019
úy 1019
cất_bước 1019
phân_phối 1018
sinh_sống 1018
hạ@@ 1018
chậu 1018
xả 1018
nhạc_sĩ 1018
đô-la 1018
đặng_@@ 1017
paul 1017
kiên_nhẫn 1017
ụ 1017
nam_tử 1017
búng 1017
vẫy_tay 1017
nhân_lực 1016
nho 1016
as 1016
ăn_mày 1016
myszka 1016
tuyên_truyền 1015
bất_bình 1015
tiêu_hóa 1015
26/2 1015
tiểu_sư 1015
khả_hãn 1014
đục 1013
náo_nhiệt 1013
ngữ 1012
đầu_@@ 1012
bất_đắc_dĩ 1012
dâm 1012
việt_@@ 1011
tài_khoản 1011
u23 1011
mập 1011
nhan_sắc 1011
hoàn_tất 1010
phòng_chống 1010
thực_hư 1010
mồng 1010
òa 1010
tru 1010
rồi_sao 1010
c-@@ 1009
sáng_suốt 1009
thóa_mạ 1009
trễ 1008
min 1008
sâm 1008
tiên_tử 1007
ròng 1006
chèo 1006
sót 1006
hầu_hạ 1006
44 1005
er 1005
rạng_rỡ 1005
tránh_né 1005
quân_sĩ 1005
sa_thải 1004
công_lao 1004
hóa_giải 1004
giáng_sinh 1003
nhiệt_tình 1003
ban_nha 1002
vịnh 1002
dinh 1002
thứ_tư 1002
tương_ứng 1001
rưỡi 1001
đồng_loạt 1001
hoạt 1001
đàm_phán 1000
tu_hành 1000
02 1000
ài 1000
lộn 1000
hoàn_độ 1000
thống_lĩnh 999
tình_báo 999
hầu_hy_bạch 999
công_chúng 998
ngô@@ 998
car@@ 997
bóng_người 997
hiệt_lợi 997
loan_loan 997
lào 996
lưỡng 996
lợi_thế 995
sinh_@@ 995
cấp_bách 995
voi 995
mô_tô 995
tài_trợ 994
hứa_hẹn 994
cu@@ 994
cô_dâu 994
dật 994
cụm 993
đông_phương 993
ni_cô 993
trung_tà 993
46 992
phạm_tội 992
dụng_cụ 992
dọa 992
lễ_hội 992
nhị@@ 992
xe_tải 992
stevie 992
cúc 992
thái_sơn 992
tổ_sư 992
75 991
thử_nghiệm 991
thiệt_hại 991
_ph@@ 991
nông 990
văn_hoá 989
cầu_@@ 989
tiêu_phong 989
công_văn 988
em_trai 988
real_madrid 988
lấp_loáng 988
mặt_trăng 987
chẳng_mấy_chốc 987
ðã 987
huyền_ðức 987
asean 985
23/2 985
48 984
nảy_sinh 984
viện_trợ 983
suýt_nữa 983
ăng 982
kẻo 982
dẹp 982
đối_địch 982
35@@ 981
bẫy 981
tử_@@ 981
hào_quang 981
cảnh_cáo 980
cáp 980
trọng_đại 980
tối_qua 980
doanh_trại 980
vác 979
hàng_rào 979
long_lanh 979
toàn_quốc 978
ci@@ 978
dồn_dập 978
sầu 978
2.@@ 977
7843 977
thủng 976
bình_nguyên 976
khởi_tố 975
thanh_thế 975
giữ_gìn 974
biến_cố 974
kệ 973
hoàng_gia 973
nghịch 973
cười_hì_hì 973
phủ_nhận 972
bàn_chân 972
thầy_thuốc 972
bè 972
đẫm 972
hốt 972
rống 972
văn_đế 972
giám_thị 971
07 971
thủng_thẳng 971
ghi_nhớ 970
katherine 970
chống_cự 970
tánh 970
rối 969
đãi 969
thúc_bảo 969
39 968
tham_khảo 968
đẹp_đẽ 968
quận_công 968
dương_thống 968
liên_@@ 967
tận_dụng 967
khách_sáo 967
đôn_kihôtê 967
2008 966
bực_bội 966
trục 966
lứa 965
thiếu_soái 965
đối_thoại 963
đình_chỉ 963
quang_minh 963
ăn_@@ 963
ocirc 963
mâm 962
khúc_khích 962
is@@ 961
sinh_nhật 961
bao_phủ 961
giúp_việc 961
đám_mây 961
rúng_động 961
tình_nhân 961
y_học 960
mô_tả 960
kíp 960
khách_quan 960
tâm_linh 960
tư_mã_đạo_tử 960
tỉ_lệ 959
tốp 959
chí@@ 958
thủ_lĩnh 958
giờ_phút 958
đoan 958
say_sưa 958
dượng 958
„_ta 958
tự_sát 957
mộc_phong 957
huyền_thoại 956
cây_cối 956
rên 955
mị 955
kỷ_thiên_thiên 955
thây 954
người_mẫu 954
vittoria 954
ông_@@ 953
chữa_trị 953
tuột 952
trọng_tài 952
đào_tẩu 952
nhìn_nhận 951
đa_dạng 951
lâu_đài 951
xét_xử 950
thiệt_mạng 950
doanh_thu 949
phú@@ 949
07@@ 949
lựa 949
thủy_sản 948
tỷ_phú 948
khốn_khổ 948
tồi_tệ 947
bóp 947
tu_@@ 947
tiện_nghi 946
phương_diện 946
vắt 946
chỉnh 945
sốt_ruột 945
vò 945
sét 945
ân_sư 945
tính_năng 944
vũ_@@ 944
ôtô 944
ca_nhạc 944
trưởng_phòng 943
khiêm 943
võ_đương 943
ngày_một 942
từ_bỏ 942
đe_doạ 942
_nh@@ 942
nói_@@ 942
xưởng 942
thông_cảm 942
vô_lượng 942
7901 941
hiệp_hội 940
gi 940
bái_kiến 940
he@@ 939
tòa_án 939
mẩu 939
vòng_tròn 939
đánh_bạc 939
bá_quang 939
đầu_ra 938
minh_họa 938
huyền_@@ 938
liên_thủ 938
khiếu 937
lột 936
giêng 936
bắt_chước 936
tàng 936
ăn_cắp 936
hứa_sĩ_công 936
mặt_hàng 935
_x@@ 935
bá@@ 935
áo_khoác 935
tung_tích 935
thìn 935
adam 934
lây 933
trang_điểm 933
vòng_vây 933
trung_nguyệt 933
ví 932
nuôi_dưỡng 932
hanh 932
ghen 932
25/2 932
vân_nam 932
hộ_pháp 932
thảm_hoạ 931
quảng_nam 931
thủ_phạm 931
lão_bà 931
xua_tay 931
chuyên_ngành 929
chất_vấn 929
hách 929
tối_cao 928
hân_hoan 928
khởi 927
ki 927
phấn_chấn 927
hiện_trường 927
dương_châu 927
quả_quyết 926
bàn_tán 926
sát_thủ 926
truyền_thuyết 926
phi_cơ 925
thần_tiên 925
inter 924
năn_nỉ 924
thái_phó 924
thứ_năm 923
ám_sát 923
mạo 923
hàm_răng 923
trung_học 923
vô_tận 923
giao_lưu 922
lay_động 922
biển_đông 922
canh_gác 922
đường_@@ 921
vietnamnet 921
thanh_long 921
cu 921
ra_vào 921
d_@@ 920
ke@@ 920
đũa 920
tiễn_biệt 920
bản_quyền 920
bảo_kiếm 920
động_tâm 920
thượng_nhân 920
khiêm_tốn 919
ương 919
hậu_@@ 919
tiếng_tăm 919
tập_trận 919
ủa 919
chư_vị 919
lừa_đảo 918
ng_h@@ 918
nữ_hoàng 918
ma_trí 918
gu@@ 917
nhập_viện 917
học_hành 917
hung_dữ 917
hành_@@ 916
nhất_thiết 916
ghê 916
khách_khí 916
dạ_dày 915
xi@@ 915
kiêu_ngạo 915
sẹo 914
siết 914
lừa_gạt 914
sen 913
rác 913
nghĩa_@@ 913
lịnh 913
joanne 913
kẹt 912
bồ_tát 912
thanh_danh 912
sửa_chữa 911
bán_lẻ 911
càng_ngày_càng 911
đẳng_cấp 910
thánh_thượng 910
vòm 909
khất 909
tổng_cộng 908
hoa_hồng 908
nheo 908
jo@@ 907
đăng_tải 907
lặp 907
tào_tháo 907
tức_thì 907
rập 907
washington 906
gãi 906
tuyền 906
con_em 906
thần_@@ 906
dò_xét 906
nhân_sự 905
quảng_ninh 905
ngọc_nữ 905
kim_jong-il 905
chiến_thuyền 905
64 904
acirc 904
sững_sờ 904
gia_sư 904
ngoại_trưởng 904
chuối 903
bình_định 903
windows 903
làm_nên 903
phiêu 903
mục_trường 903
hà_tất 903
tống_bi_phong 903
10_triệu 902
vững_chắc 902
sếp 902
lớn_lao 902
vui_chơi 902
cộng_sản 902
trở_ngại 902
kiến_khang 902
sụp_đổ 901
tia_sáng 901
hộ_tống 901
tự_xưng 901
đồng_tình 900
es@@ 900
hệt 900
smartphone 899
an_tâm 899
đón_nhận 898
nhân_nghĩa 898
australia 898
á@@ 898
ê@@ 898
sắc_đẹp 898
khoa_học_tự_nhiên 898
táng 898
thần_tình 898
lỏi 898
tiến_độ 897
thống_trị 897
đằng_xa 897
bách_hoa 897
06 896
đệm 896
dõi 896
pháp_bảo 896
đạo_hạnh 896
gợi 895
trúng_độc 895
417 895
thế_công 895
thô 894
lội 894
chấp 894
anh_kiệt 894
tống_ngọc_trí 894
thông_@@ 893
2013 893
n_đ@@ 893
địa_@@ 893
giản_dị 893
vịt 893
lắp 893
ce 892
võng 892
mặc_dầu 892
ðan 892
nội_@@ 891
đỉnh_đầu 891
hào_hứng 891
xuất_gia 891
thoái 890
nhiệm 890
thái_dương 890
nhân_loại 890
ðoàn_dự 890
thẩm_quyền 889
cảm_ứng 889
địa_ngục 889
sơ_bộ 889
chẳng_ngờ 889
thoa 888
bàng_hoàng 888
đường_lối 888
lộ_diện 888
canh_giờ 888
tai_mắt 888
phương_tú 888
tiêu_chí 887
phi_mã 887
hôi 887
làm_quen 887
ngây_thơ 887
ðột 887
thống 886
ngớt 886
khôn_ngoan 885
đạm 885
ngọc_lan 885
diệm 885
mạ 885
củng_cố 884
uyển 884
át 884
7875 884
phá_hoại 884
câu_lạc_bộ 883
công_cộng 883
thứ_bảy 883
tốc 883
56 883
lượn 883
chỉ_điểm 883
ðừng 883
tiếu 883
nước_@@ 882
lành_mạnh 882
cm 882
bù 882
len 882
khánh_@@ 882
xua 882
tội_ác 882
côxchia 882
con_mẹ 881
nức_nở 881
xuất_thần 881
tín_nhiệm 880
đồng_nai 880
chọn_lựa 880
ào_ào 880
kẹo 879
thu_xếp 879
muỗi 879
sâu_xa 879
ngơ_ngẩn 879
ton 878
cứ_việc 878
xantrô 878
hiệu_lực 877
đề_án 877
dao_động 877
tanh 877
làm_phiền 877
trâm 877
khóc_lóc 877
ý_niệm 877
cải_trang 877
trở_gót 877
vương_gia 877
bìa 876
đội_trưởng 875
núp 875
giám 875
7845 875
cây_số 875
ủ 874
ku@@ 874
_kh@@ 874
cau 874
vĩnh_@@ 873
trọng_yếu 873
bự 873
hẻm 873
lưu_lao_chi 873
lý_tịnh 873
điểm_nóng 872
lương_@@ 872
thái_cực 872
diên 872
yên_ổn 872
lý@@ 871
động_đất 871
loại_trừ 870
đột_phá 870
lý_thuyết 870
ðàm 870
màng 869
sôi_động 869
diện_mạo 869
thế_@@ 869
lạnh_nhạt 869
trần_cận_nam 869
lý_nguyên_cát 869
lân 868
phơi 868
túc 868
miên 868
tĩnh_lặng 868
thiên_tử 868
khiêu_chiến 868
ri 867
chìa 867
áy_náy 867
đứng_yên 867
nói_thẳng 867
hấp 866
xâm_phạm 866
nhất_quyết 866
vang_dội 866
chỉ_giáo 866
rà_soát 865
41 865
quật 865
ngăn_trở 865
trái_phiếu 864
lưu_thông 864
tinh_tế 864
ngửng 864
tập_hợp 863
hình_@@ 862
kịch_bản 862
đọng 862
liên_hoàn 862
xinh_xắn 862
tản 862
mặt_bằng 861
xe_buýt 861
trêu 861
người_thường 861
ngưu 861
tới_tấp 861
thành_thử 861
ngọc_sơn 861
2015 860
ðể 860
rụt 860
hổn_hển 860
tiểu_quyên 860
du_học_sinh 859
thi_cử 859
yên_lòng 859
7897 859
cách_thức 858
ầm_ĩ 858
ân_@@ 858
che_chở 858
chập 858
14/2 858
chúc_ngọc_nghiên 858
thẩm_định 857
dừa 857
bôi 857
trọc 857
thuyền_trưởng 857
động_lòng 857
tất_phải 857
49 856
hải_@@ 856
duyên_dáng 856
liên_minh 855
siêu_thị 855
valentine 855
một_tí 854
bừa 854
tóm 854
vì_lẽ 854
triệu_minh 854
kính_cẩn 853
mai_hoa 853
triệu_nhã 853
đường_bộ 852
ng_t@@ 852
dội 852
ùa 852
giầy 852
chào_hỏi 852
phù@@ 852
dụng_ý 852
tiểu_nữ 852
sướng 851
nhạy_cảm 851
hoà_thượng 851
lâm_kinh_vũ 851
tổng_cục 850
che_giấu 850
hàm_ðan 849
bất_tỉnh 848
thám_tử 848
vâng_lời 848
thanh_nhã 848
áo_vàng 848
cười_khẩy 848
bất_tất 848
liên_bang 847
đại_dương 847
cua 847
khả 847
liên_miên 847
47 846
trong_sáng 846
vô_song 846
ngỡ_ngàng 846
yêu_mến 846
10/2 846
« 846
vo@@ 845
vỉa_hè 845
tận_mắt 845
bankplus 845
số_liệu 844
quảng_ngãi 844
ngày_tháng 844
loài_người 844
ghi_chép 844
tàn_sát 844
đại_danh 844
thực_chất 843
dân_cư 843
trường_sinh 843
sáng_lập 842
quang_@@ 842
al 842
giải_@@ 842
năm_tháng 842
bình_minh 842
yếu_đuối 842
mwc 842
thực_hành 841
tải 841
lót 841
đồng_tử 841
tẩm 841
âm_u 841
bình_sinh 841
lý_tuân 841
tiểu_phàm 841
nguyên_liệu 840
phấn_đấu 840
yên_@@ 840
tt@@ 840
tha_thiết 840
chối 840
la_hét 840
hư_vô 840
ngần_ngừ 840
sản_lượng 839
hài 839
hoan 839
sư_tử 839
công_khanh 839
ý_đồ 839
nhiếp 839
ngạn 838
bội 838
phần_trăm 837
bồn_chồn 837
ngậm 837
bàn_thờ 837
cây_xăng 837
quân_sư 837
lọ 836
vốn_dĩ 836
khốn 836
chiếu_cố 836
tiện_ích 835
ct 835
ðường 835
nghiện 834
cải 834
đôn 834
chỉ_định 833
chi_tiêu 833
thu_@@ 833
tiêm 833
vi_khuẩn 832
nguy_cấp 832
ngon_lành 832
hối_hả 832
vinh_quang 832
giở_trò 832
lễ_vật 832
lục_tuyết_kỳ 832
tổng_công_ty 831
trọng_@@ 831
nhật_ký 831
ðêm 831
khởi_động 830
per@@ 830
đồng_hành 830
khung_cảnh 830
đông_á 829
dân_số 829
ương_@@ 829
ư@@ 829
thí_nghiệm 829
ve 829
sôi_nổi 829
tai_họa 829
hợp_nhất 828
quảng 828
thượng_đế 828
cắp 828
tỉnh_ngộ 828
nhăn_nhó 828
ewa 828
fi@@ 827
chết_đuối 827
vùi 827
rương 827
loại_bỏ 826
choáng_váng 826
nằm_xuống 826
kinh_dị 826
thân_binh 826
lộ_trình 825
hiện_thực 825
giảm_giá 825
hành_lý 825
camera 825
giùm 825
mưu_đồ 825
st 824
sút 824
giả_sử 824
đại_trượng_phu 824
vũ_văn_hóa_cập 824
đánh_thức 823
đắng 823
học_@@ 823
ứa 823
uông 823
tối_tăm 823
mathias 823
va_chạm 822
the@@ 822
hn 822
úp 822
cao_siêu 822
soạn 822
xuân_thu 822
biến_động 821
52 821
góc_độ 821
cha@@ 821
or@@ 821
đội_tuyển 821
mù_mịt 821
kinh_động 821
làm_ra_vẻ 821
thung_lũng 820
phong_độ 820
uy@@ 820
điểu 820
chu_nhất_tiên 820
khối_lượng 819
tiêu_tan 819
chăm_chăm 819
nghiêm_trang 819
thương_nghị 819
mới_mẻ 818
ngờ_vực 818
phân_@@ 817
đấu_giá 817
báo_động 817
mơ_ước 817
us@@ 816
chói 816
vuốt_ve 816
truy_tìm 816
bất_an 815
bản_tính 815
cô_độc 815
trương_tam_phong 815
w 814
bộ_máy 814
7899 814
tuệ 814
ức 813
mạn 813
nhan 813
dạy_học 813
tro 813
sắp_sửa 813
cầu_xin 813
hộ_vệ 813
lít 812
diêm 812
rực 812
hòm 812
tu_viện 812
mộ_dung_chiến 812
hiệp_định 811
43 811
tán_thành 811
phê_duyệt 811
bồi_thường 811
sức_khoẻ 811
kỳ_thực 811
ân_hận 811
chân_tướng 811
tu_luyện 811
tạt 810
hiu 810
ðại_sư 810
3.@@ 809
thập 809
cảnh_@@ 809
cổ@@ 809
nhà_bếp 809
lẻ 809
khuyết 808
gay_gắt 808
công_cuộc 808
bộ_đồ 808
câu_nói 807
tim_mạch 807
hoài_@@ 807
đấng 807
sảnh_đường 807
nội_thương 807
tất_@@ 806
động_lực 806
sáng_tác 806
địa_đạo 806
jake 806
ng-@@ 805
trân_trọng 805
chút_ít 805
xong_xuôi 805
bội_phục 805
chứng_nhận 804
_ng@@ 804
ne 804
hà_lan 804
thảm_thiết 803
đao_kiếm 803
indonesia 802
kim_loại 802
lắng 802
từ_biệt 802
loa 802
nghi_hoặc 802
ng_th@@ 801
game 801
anh_trai 801
tài_nguyên 801
đúc 801
chốc 801
mộ_dung_thùy 801
bồi_dưỡng 800
ùng 800
dn 800
ẩm 800
ai_ngờ 800
chiêm_ngưỡng 800
1.000 799
thừa_tướng 799
mầu 799
tuốt 799
đại_phu 799
nhuyễn 798
giống_hệt 798
quan_trung 798
lã_bất_vi 798
nứt 797
sâu_thẳm 797
hoảng_loạn 796
matt 796
hưng_@@ 795
vong 795
cập_nhật 794
vô_lý 794
ế 794
tình_@@ 794
cộng_hoà_mỹ 794
làm_quan 794
._t@@ 793
ưu_thế 793
phòng_ngừa 793
nguyên_tử 793
áp_đảo 793
phùng_@@ 792
mùng 792
nhóc 792
me 791
seoul 791
vệt 791
thím 791
nể_mặt 791
đều_đặn 790
thăng_long 790
đô_la 790
chống_đối 790
xéo 790
nã 790
tiếp_lời 790
chém_giết 790
_triệu 789
trống_rỗng 789
mất_hút 789
ngang_nhiên 789
liễu_mi 789
57 788
bảy_mươi 788
trường_giang 788
nóng_lòng 788
thương_tích 788
biểu_lộ 788
cười_rộ 788
lãng_phí 787
học_hỏi 787
hoán 787
gắng_gượng 787
cảnh_vật 787
nhất_tiên 787
xử_phạt 786
e_ngại 786
máy_móc 786
thương_vong 786
phỏng 786
kia_mà 786
rảnh 786
chứng_chỉ 785
800 785
600 785
ngh@@ 785
cưng 785
mãn 785
thi_@@ 785
lãnh_tụ 785
hòa_thị_bích 785
mạch_máu 784
phi_công 784
7883 784
trí_thức 784
ge@@ 783
địa_lý 783
bát_@@ 783
cuồng_phong 783
lụy 783
lục_tuyết 783
gh@@ 782
gò 782
nghi_@@ 782
sh@@ 781
nhuộm 781
tổ_quốc 781
cất_giọng 781
sáu_mươi 780
nội_vụ 780
thành_thật 780
xứng 780
cầu_nguyện 780
chao 780
than_thở 780
rũ 780
sư_phi_huyên 780
thương_@@ 779
mặt_@@ 779
êm 779
nhận_biết 779
thẫm 779
nấm 779
xưng_hô 779
nhạn 779
ja@@ 778
trí_nhớ 778
vô_tội 778
thái_tổ 778
há_hốc 778
tống_kha 778
com 777
thuận_tiện 777
bực 777
côn_đồ 777
ước_tính 776
mến 776
tán_thưởng 776
dược_vương 776
rạng 775
đào_@@ 775
thị_xã 775
cứng_rắn 775
kim_lan 775
người_dân 774
tt 774
tiểu_vương 774
tổ_tiên 774
hành_quân 774
thiết_@@ 774
65 773
gợi_ý 773
vũng 773
trắng_bệch 773
ve@@ 772
máy_ảnh 772
khởi_đầu 772
lậu 772
tương_@@ 772
barca 772
đâm_chết 772
thượng_thư 772
giao_đấu 772
làm_@@ 771
kinh_phí 771
thái_nguyên 771
riêng_tư 771
đẹp_trai 771
hành_lễ 771
bốp 771
dã_cẩu 771
hạ_tầng 770
đột 770
ứng_viên 770
58 770
ad@@ 770
nhỏ_xíu 770
tp. 769
wa@@ 769
hình_dạng 769
ngần_ngại 769
hỏa_@@ 769
hư_hỏng 768
uỷ 768
phục_@@ 768
cảm_tạ 768
lệnh_hồ_xung 768
08@@ 767
88 767
bài_toán 767
chú_trọng 767
xúc_phạm 767
chéo 767
ngư 767
sách_vở 767
chĩa 767
hãm 766
tà@@ 766
chìa_khoá 766
ðột_nhiên 766
tóe 765
tuân_thủ 764
châu_phi 764
hồ_@@ 764
sơ_sinh 764
yêu_quý 764
cửa_@@ 763
xung_@@ 763
tuổi_tác 763
ngỡ 763
dù_cho 762
chồm 762
giựt 762
dật_tài 762
malaysia 761
05@@ 761
fa@@ 761
canada 761
sưng 761
giải_thoát 761
bảo_vật 761
giám_khảo 761
lương_tâm 761
vô_vi_đạo_trưởng 761
đoàn_kết 760
kích_thước 760
trơ 760
thần_tượng 760
bất_mãn 760
8/2 760
messi 760
ngẩn_người 760
website 759
hoà@@ 759
tâm_tư 759
hiên_ngang 759
bổ_nhiệm 758
làn_sóng 758
tật 758
nhợt_nhạt 758
khiếp 758
ðang 758
khưu 758
3,@@ 757
lý_giải 757
trần_hiếu 757
phản_công 757
200,000 757
kì 756
nghị_định 756
99@@ 756
rát 756
lạc_@@ 756
y_tá 756
chấp_thuận 755
nhích 755
du_@@ 755
anh_@@ 754
land 754
đổng 754
vướng 754
sergei 754
lệnh_cấm 753
quát_tháo 753
khả_đạt_chí 753
phùng 752
hình_sự 752
tha@@ 752
học_viên 752
13/2 752
cầm_thanh 752
cung_cấm 752
lạm_phát 751
mỹ@@ 751
ronaldo 751
suy_đoán 750
bởi_thế 750
đánh_máy 750
tóm_lại 750
văn_tự 750
đầu_đuôi 750
que 749
7873 749
đáng_lẽ 749
hoan_hỉ 749
ảm_đạm 748
06@@ 748
từ_thiện 748
lắp_bắp 748
thử_hỏi 748
tuân_lệnh 748
54 747
cò 747
gắt 747
họng 747
ngỏ 747
đò 747
hạm 747
17/2 747
quan_binh 747
tiêu_lĩnh 747
hỏng_bét 747
sọ 746
khôn_lường 746
ác_mộng 746
ca_ngợi 746
rên_rỉ 746
/12/2011 746
hết_thảy 746
âu_yếm 746
ngóng 746
luống_cuống 746
reo_hò 746
ngu_xuẩn 746
tra_xét 746
đánh_dấu 745
2007 745
bị_cáo 745
re 745
văn_chương 745
hoạ 745
chuyển_đổi 744
chiến_thuật 744
từ_bi 744
steve_jobs 743
37@@ 743
vàng_bạc 743
chẩn_đoán 743
quy_tắc 743
kháng 743
hắc_@@ 743
nắm_bắt 742
vật_liệu 742
cảm_tình 742
ka 742
hột 742
ðiều 742
ver@@ 741
hy 741
che@@ 741
vậy_là 741
bao_công 741
định_@@ 740
thảm_họa 740
tiên_@@ 740
vượn 740
__@@ 740
tp._hcm 739
bánh_mì 739
tinh_thông 739
giết_hại 739
quặn_lòng 739
ôn_nhu 739
cường_địch 739
độc_@@ 738
lừng_lẫy 738
kiều_bào 738
thoát_thân 738
lia_lịa 738
đường_sắt 737
gấm 737
thỉnh_giáo 737
hoang_nhân 737
tạ_huyền 737
hội_@@ 736
nghỉ_dưỡng 736
khuyến_cáo 736
lược 736
tai_nghe 736
không_sao 736
điện_hạ 736
._h@@ 735
kinh_thành 735
7907 735
ba_chục 735
song_thân 735
biên_hoang_tập 735
mã_văn_phi 735
sinh_vật 734
luồn 734
cổ_xưa 734
bệnh_hoạn 734
ưng_thuận 734
ngục 734
antoine 734
kim_tự_tháp 733
lạ_thường 733
thần_trí 733
nhâm 733
tư_đồ 733
evn 732
lôi_kéo 732
xác_minh 732
dục 732
khuất_phục 732
o0o 732
lồng_ngực 731
trợ 731
thân_@@ 731
tỷ_thí 731
bảo_hộ 729
22@@ 729
sở_trường 729
gia@@ 729
bar@@ 729
sáng_tỏ 729
villas-boas 729
quyết_chiến 729
ì 728
cát_@@ 728
viên_chức 728
canxi 728
ngắt 728
thánh_@@ 728
quần_chúng 728
chịu_thua 728
điềm 728
trung_thổ 728
lâm_tĩnh 728
chi_nhánh 727
cẩn 727
khí_hậu 727
tỏ_tình 727
bà_cụ 727
hung_ác 726
51 725
đáp_lễ 725
tầm_mắt 725
quá_đáng 725
kỷ_thiên_thiên_@@ 725
a_s@@ 724
chỉ_dẫn 724
thường_ngày 724
tấm_gương 724
quyết_đấu 724
nhất_tề 724
45@@ 723
tướng_sĩ 723
chất_béo 723
mặc_kệ 723
oa 723
cơ_mà 723
đăm_đăm 723
nhân_gian 723
căm_hận 723
duyệt 722
nô_lệ 722
chót 722
giang_văn_thanh 722
cư_sĩ 722
đô@@ 721
uất 721
ng_l@@ 721
ði 721
dung_mạo 721
dõng_dạc 721
cự_tuyệt 721
nhảy_xổ 721
chi_trả 720
dẫn_dắt 720
chăn_nuôi 720
điều_hòa 720
bực_tức 720
trấn_tĩnh 720
mù_lòa 720
lơ 720
thỏ 720
đính 720
04@@ 719
ốt 719
thiên_đường 719
steve 719
thị_@@ 718
bận_tâm 718
hương_@@ 718
kính_phục 718
cười_thầm 718
truy_cập 717
sân_chơi 717
mì 717
nhức 717
thực_tiễn 717
chọi 717
nghênh_tiếp 717
38@@ 716
đài_@@ 716
biến_chứng 716
thái_sư 716
hồ_xung_đáp 716
hầu_hạo 716
đàng_hoàng 715
thắt_lưng 715
bao_la 715
thi_công 714
thu@@ 714
thứ_hai 714
chăm 714
thoạt 714
tranh_đấu 714
y_thị 714
philippines 713
cầm_đầu 713
tàn_ác 713
nè 713
milan 713
thoắt 713
đồng_môn 713
chính_thuần 713
ngũ@@ 712
đình_@@ 712
21@@ 712
kiên_trì 712
bắc_ninh 712
ry 712
phê_bình 712
đô_đốc 712
sơn_động 712
uyển_thanh 712
người_ngoài 711
tín_đồ 711
toả 711
điển_hình 710
giao_tiếp 710
cày 710
scott 710
chim_ưng 710
chấn_thương 709
chát 709
rậm_rạp 709
phiệt 709
mợ 709
khua 709
sấn 709
mơ_màng 708
kỹ_lưỡng 708
android 708
gia_nhân 708
cương_quyết 708
nam_sinh 708
uy_thế 708
thị_thần 708
nói_riêng 707
trung_đông 707
tri_thức 707
phản_chiếu 707
bộc_lộ 706
may_ra 706
đồn_đại 706
champions_league 706
ma_môn 706
sức_ép 705
chênh_lệch 705
lở 705
nách 705
phá_hủy 705
sinh_mạng 705
đánh_cắp 705
kiểm_điểm 705
mạng_lưới 704
ứ 704
đồ_vật 704
phong_cảnh 704
quan_quân 704
nhạc_sơn 704
thạch_thanh 704
nhiệm_kỳ 703
cửa_hiệu 703
hao 703
đồng_minh 703
độc_thân 703
đai 703
bất_tử 703
thanh_y 703
tổng_@@ 702
vn-index 702
thang_máy 702
chóng 702
ẩn_nấp 702
ùn_tắc 702
100,000 702
lý_tử_thông 702
hồ_xung_nói 702
lườm 701
trạc 701
lão_sư 701
nội_thất 700
vinh_dự 700
công_sức 700
lãnh_thổ 700
hãm_hại 700
tú_sĩ 700
lâm_bình 700
bất_ổn 699
con@@ 699
giỏ 699
tuyệt_đỉnh 699
tan_vỡ 699
02/2012 699
thanh_tú 699
nghĩ_bụng 699
nghi_vấn 698
túy 698
hươu 698
dã_man 698
dòng_họ 698
con_@@ 697
mong_manh 697
toa 697
ngổn_ngang 697
thiên_thu 697
elinor 697
_% 696
xe_khách 696
protein 696
người_đời 696
chuyện_trò 696
cậy 696
hối 696
thân_thế 696
binh_mã 696
nhạc_linh_san 696
quả_nhân 696
chiếm_đoạt 695
ms@@ 695
online 695
giá_cả 695
vớ 695
cho@@ 695
ngo@@ 695
lén_lút 695
há_miệng 695
hỷ 695
rể 695
bàn_luận 694
đông_dương 694
trái_phép 694
cay 694
rachel 694
bánh_xe 694
thần_thông 694
cóc 693
triệt_để 693
xử_trí 693
dìu 693
giáo_@@ 693
đối_đãi 693
chủ_nghĩa 692
nghẹn 692
tự_ý 692
bà@@ 692
nhện 692
giai_cấp 692
ẩn_thân 692
tivi 691
xe@@ 691
sa_@@ 691
họ_hàng 691
báo_đáp 691
dương_tiêu 691
mầy 691
thế_sung 691
ngăn_ngừa 690
trung_cấp 690
thiêng_liêng 690
luật_pháp 690
vắng_vẻ 690
bùng_nổ 689
trang_@@ 689
chống_chọi 689
h5n1 689
kém_cỏi 689
gv 689
đột_nhập 689
qua@@ 688
tổn_hại 688
vấp 688
đánh_@@ 688
sẫm 688
đồ@@ 688
hủy_diệt 688
căn_dặn 688
ðức 688
tiền_mặt 687
bốn_phương 687
120 687
i-@@ 687
cao_su 687
ngất_xỉu 687
an_bài 687
mưa_gió 687
nhập_học 687
noel 687
mạc_@@ 687
đúng_đắn 686
ọ 686
tôn_kính 686
tối_đen 686
rơi_lệ 686
uổng 686
ste@@ 685
phản_kháng 685
chu_du 685
đồng_đạo 685
thất_sắc 685
như@@ 684
as@@ 684
sở_thích 684
có_ích 684
thán_phục 684
sex 684
cống 684
kêu_la 684
trên_dưới 684
real 684
kinh_sợ 683
sừng 683
rạch 683
ự 683
ck 682
thái_bình_dương 682
ac@@ 682
tía 682
bản_năng 682
ló 682
rao 681
ô_nhiễm 681
sai_sót 681
yếu_kém 681
buốt 681
vê 681
đại_khái 681
linh_nhi 681
giao_thủ 681
cởi_mở 680
trẻ_trung 680
giận_dỗi 680
lừa_dối 680
grant 680
kim_bình_nhi 680
dạy_bảo 679
điện_thoại_di_động 678
sung 678
hoang_dã 678
trượng_phu 678
._ông 677
cửu_@@ 677
thi@@ 677
phụ@@ 677
mê_hoặc 677
har@@ 677
tỉ_mỉ 677
tròng 677
vù_vù 677
ngớ_ngẩn 677
choàng 677
trực_thăng 677
59 676
thực_@@ 676
lia 676
khoẻ 676
iên_@@ 676
hỏi_han 676
cay_đắng 676
ngoảnh_đầu 676
nép 676
đoản_kiếm 676
vặt 675
khát 675
chắp 675
lon 674
mong_đợi 674
ồn 674
sải 674
cấu_kết 674
hí 674
võ_ðang 674
100_% 673
ck@@ 673
lê_thị@@ 673
il@@ 673
trọng_lượng 673
thời_giờ 673
thống_khổ 673
vận_mệnh 673
tiểu_huynh 673
hà_nam 672
thay_mặt 672
chinh 672
tồi 672
phì_cười 672
huy@@ 671
trở_đi 671
ya@@ 671
đồng_bộ 671
trịnh_trọng 671
nghiệt 671
tây_hạ 671
tra@@ 670
trọn_vẹn 670
bạch@@ 670
thói 670
gẫy 670
áo_@@ 670
262 670
diên_khánh 670
cao_thức 670
ðại_ca 670
phân_chia 669
sụp 669
sủa 668
ðào_cốc 668
hài_tử 668
đại_lộ 667
thạc_sĩ 667
bồn 667
ngân_@@ 667
vạn_@@ 667
đốc 667
tha_hồ 667
soạt 667
hi_sinh 666
manh_mối 666
trang_sức 666
bóc 666
đặc_điểm 666
duy@@ 666
một_mạch 666
canh_giữ 666
t. 665
megan_fox 665
chầu 665
phong_bì 665
sửa_soạn 665
ma_quỷ 665
tuyệt_luân 665
shi@@ 664
é@@ 664
_viên 664
thí 664
thổ_lộ 664
ngẩn_ngơ 664
như_thường 664
song_nhi 664
hoàng_kim 663
vũng_tàu 663
khí_lực 663
chúng_con 663
hiền_lành 663
kính_@@ 663
tướng_lĩnh 663
loé 663
mỹ_lệ 663
ác_độc 663
nha_môn 663
ngời 662
đẹp_mắt 662
phòng_thí_nghiệm 662
tứ_kết 662
nãy_giờ 662
tinh_vi 661
chảo 661
ngoài_trời 660
dọn_dẹp 660
đau_nhói 660
chải 660
phong_tỏa 660
nữ_nhi 660
xa_cách 660
thâm_tâm 660
ẩn_hiện 660
_thành 659
95 659
nể 659
bài_tập 659
lẩn 659
thiên_cơ 659
sta@@ 658
bánh_@@ 658
1/2 658
hóa_học 658
bảo_tồn 658
like 658
79@@ 658
nhả 658
í 658
tử_thi 658
sim 658
đầm_đìa 658
>>@@ 658
tự_nguyện 657
áo_choàng 657
hác 657
„_ð@@ 657
ngoại_@@ 656
à@@ 656
u_ám 656
xẩy 656
cá_tính 656
tùy_tùng 656
triệu_long 656
ngắn_hạn 655
lý_luận 655
gd-đt 655
binh_lính 655
tung_hoành 655
thân_hành 655
lý_tư 655
2000 654
giải_độc 654
nhảy_múa 654
cúng 654
phát_@@ 653
bất_thình_lình 653
tạng 653
hoành_hành 653
giản 653
nít 653
điềm_đạm 653
văng_vẳng 653
thường_trực 652
lớn_nhỏ 652
cơ_@@ 652
hot 652
biện 652
vô_@@ 652
cảm_tưởng 652
đồng_bọn 652
ác_liệt 652
cam_tâm 652
thân_vương 652
chuyển_nhượng 651
= 651
kỳ@@ 651
đút 651
ồng 651
xăm 651
chủ_quyền 651
thân_pháp 651
lề 650
miễn_dịch 650
nôn 650
ter@@ 650
kiên_cố 650
đàng 650
xê 650
tại_chức 650
ân_oán 650
phong_lưu 650
cổ_tức 649
tương_dương 649
ác_@@ 649
bần_bật 649
tổng_quản 649
cấm_vệ 649
phụng_phi 649
85 648
bi_thương 648
búp_bê 648
dô 648
phút_chốc 648
văn_mẫn 648
thượng_tú_phương 648
tri 647
xi 647
thẩm_mỹ 647
ứng_biến 647
binh_lực 647
inh 646
30_triệu 646
tiết_mục 646
cứu_viện 646
tiếp_ứng 646
đại_trúc_phong 646
bạch_phong 646
quý_giá 645
tâm_huyết 645
hà_giang 645
nghĩa_vụ 645
lãng 645
sơn_cốc 645
qui 644
thiêu_đốt 644
ngàn_dặm 644
suy_giảm 643
nhật_@@ 643
bắc_giang 643
dầu_khí 643
ngư_dân 643
pro@@ 643
lọc 643
cạo 643
rong 643
ân_cần 643
hài_cốt 643
vatican 643
làm_bộ 643
đồng_tính 642
vành 642
hà_@@ 642
vấn 642
tứ@@ 642
văn_võ 642
lưu_đại_nhân 642
tiên_tiến 641
cử_tri 641
sơ@@ 641
rào 641
vòng_quanh 641
-_@@ 641
triệu_tập 641
đâm_ra 641
ẵm 641
21/11 641
công_thương 640
bàn_giao 640
lạc_quan 640
chặng 640
thứ_tự 640
nón 640
bướm 640
phiền_phức 640
giáo_hoàng 640
cuồng_nhiệt 640
đột_kích 640
bắc_phủ_binh 640
ðiền_bá_quang 640
quả@@ 639
2006 639
7913 639
đau_thương 639
tinh_nhuệ 639
đội_hình 639
cực_điểm 639
tiểu_quế_tử 639
iên 638
ly@@ 638
ố 638
ngắm_nghía 638
xẹt 638
quân_địch 638
ẩn_mình 637
_sơn 637
rung_chuyển 637
đối_đáp 637
trố 637
phò_mã 637
hoãn 636
hài_hước 636
cung_điện 636
sầm 636
tinh_diệu 636
tài_nghệ 635
tho@@ 635
tổng_kết 635
thư_giãn 635
bó_tay 635
quý_tộc 635
kinh_châu 635
lý_kiến_thành 635
ngụ 634
xếp_hàng 634
gương_sáng 634
richard 634
tham_vọng 633
259 633
bill 633
hiếm_hoi 633
cắt_giảm 633
iền 633
phân_vân 633
ai_ai 633
danh_@@ 633
ăn_trộm 633
thừng 633
rùng_rợn 633
tây_tạng 633
chuôi 633
thủ_lãnh 633
thái_úy 633
q 632
cầu_giấy 632
viễn_thông 632
mỏi 632
van 632
huyết_@@ 632
lan_can 632
trà_trộn 632
chép_miệng 632
ford 631
rọi 631
dụng_tâm 631
câu_thơ 631
bại_trận 631
phù_kiên 631
áng 630
tái_hiện 630
ù 630
huyên_náo 630
.000 629
đường_dây 629
au 629
kế_tiếp 629
trả_giá 629
ưu 629
cưỡng 629
lộn_xộn 629
lý_trí 629
chẳng_trách 629
mã_phu_nhân 629
nu@@ 628
đắc 628
ngước_mắt 628
xảo 628
đô_thống 628
xế 627
đắm 627
dấu_ấn 626
siêu_@@ 626
bán_kết 626
kinh_hồn 626
nghĩa_khí 626
nhân_dịp 625
rễ 625
mục_@@ 625
thần_thánh 625
ý_tứ 625
lắc_lư 625
nhà_sản_xuất 624
72 624
ần 624
_độ 624
ất 624
tỷ_số 624
chần_chừ 624
chao_ôi 624
thâm_hậu 624
xin_phép 623
giò 623
canh_@@ 623
thái_thú 623
nguyệt_ðàm 623
khát_vọng 622
rải 622
phì 622
đùng_đùng 622
ăn_xin 622
lưu_tâm 621
sinh_học 621
nhà_vệ_sinh 621
trơn 621
khoét 621
mỏi_mệt 621
trổ 621
sơn_@@ 621
mím 621
oai_phong 621
giả_dối 621
đem_lòng 621
mươi_lăm 621
lạm_dụng 620
chu@@ 620
ngạch 620
chiết 620
ớt 620
lung_tung 620
kiều_@@ 620
7847 620
dùm 620
hành_thích 620
công_đường 620
vương_ngọc_yến 620
thực_vật 619
ts@@ 619
mặt_trận 619
dằn 619
tín_lăng_quân 619
tú_tú 619
hải_quan 618
cân_đối 618
giao_@@ 618
giai 618
nhàn 618
kết_nghĩa 618
oán_hận 618
huyền_bí 617
tử_cung 617
hóa_chất 617
cầu_cứu 617
mạnh_@@ 617
9/2 617
liên_quân 617
gaddafi 617
thiên_kiều 617
khẻ 617
thần_tốc 616
khái_niệm 616
hạm_đội 616
sắc_diện 616
thực_thi 615
tổn_thất 615
huy_chương 615
hiện_thân 615
quan_âm 615
mưu_kế 615
cục_trưởng 614
đông_nam_á 614
song_phương 614
phú_quý 614
phó_thủ_tướng 614
cứu_chữa 614
nhỏ_nhẹ 614
bổn_phận 614
giả_như 614
năm_mươi 614
môn_đồ 614
lãnh_thiền 614
hoàng_phủ_tinh 614
bất_cập 613
từ_tốn 613
du_kích 613
pin 612
danh_mục 612
người_người 612
gấp_rút 612
mộc_@@ 612
bảo_toàn 612
rất_đỗi 612
hiệu_lệnh 612
nhà_giáo 612
olympia 612
a-@@ 612
không_tưởng 612
ứng_xử 611
vn@@ 611
vô@@ 611
mô@@ 611
dang 611
thừa_kế 611
lánh 611
rón_rén 611
tất_huyền 611
hoan_nghênh 610
mùa_đông 610
showbiz 610
cút 610
mũi_tên 610
cẩm_nang 610
hình_bóng 610
lãnh_đạm 610
tịch_mịch 610
tiểu_siêu 610
cung_ứng 609
h30 609
nạc 609
ir@@ 608
khuỷu 608
nobel 608
tu_sĩ 608
nhắm_nghiền 608
xưa_kia 608
khả_ngọc 608
phán_đoán 607
quy_củ 607
chiến_mã 607
mỉa_mai 607
gian_tặc 607
/5 606
thoáng_qua 606
công_thức 606
đối_lập 606
thể_chất 606
trầm_tư 606
quang_cảnh 606
liên_xô 606
nhăn_mặt 606
sứ_quán 606
cạm_bẫy 606
hình_phạt 605
trộn 605
rơm 605
tranh_giành 605
bộc 605
đỗ_cửu 605
âu_dương_phong 605
chóng_mặt 604
ham_muốn 604
hắng_giọng 604
bê 604
xung 604
lìa 604
quấy_nhiễu 604
cp 603
khởi_hành 603
sản 603
đỉnh_cao 603
chua 603
thể_xác 603
báu 603
ủng 603
thượng_phong 603
áo_bào 603
thủy_tinh 602
già_nua 602
cây_@@ 602
aids 602
trật 602
ành 602
thú_nhận 602
hồi_giáo 602
cùng_cực 602
hung_hãn 602
lùm 601
tái_@@ 601
nghẹt_thở 601
mê_hồn 601
vệ_sĩ 601
quý_phi 601
ða 601
trừ_khử 601
gọn_gàng 600
mềm_nhũn 600
đại_minh 600
dài_hạn 599
tiểu_đường 599
nd 599
kết_cục 599
chúng_em 599
cup_châu_âu 599
tbn_tennis 599
vô_sự 599
công_nhiên 599
lắng_tai_nghe 599
hung_hiểm 599
gra@@ 598
1_, 598
ơ@@ 598
_nhân 598
lớn_tuổi 598
mùi_vị 598
ler 598
bạn_hữu 598
500,000 598
tiến_triển 597
mác 597
a_h@@ 597
chào_đón 597
giải_đáp 597
nhân_tạo 597
hồng_lan 597
lật_đổ 597
lăng_@@ 597
federer 597
ðộc 597
hợp_pháp 596
/@@ 596
fo@@ 596
trình_@@ 596
vờ 596
nd@@ 595
36@@ 595
sáng_ngời 595
/2010 595
ất_@@ 595
cao_quý 595
wi@@ 595
ru 595
bỉ 595
luật_lệ 595
củng 595
quốc_vương 595
chú_thích 595
bại_lộ 595
long_dương 595
đại_sư_huynh 595
miêu_tả 594
đà@@ 594
sào 594
viện_phí 594
hư@@ 594
hăng_hái 594
gật_gù 594
quán_trọ 594
kết_giao 594
trường_lâm 594
2016 593
nai 593
mải 593
buồn_thảm 593
hò_hét 593
giả_bộ 593
cửa_lớn 592
ưa_thích 592
đề_cử 592
dậm 592
hót 592
hắt 592
tam_gia 592
dự_phòng 591
56@@ 591
nghiệp_vụ 591
bú 591
thoái_lui 591
thiên_lý 591
thủy_nguyệt 591
cống_hiến 590
4.@@ 590
amp 590
l_@@ 590
hung_hăng 590
khiên 590
quay_cuồng 590
sách_lược 590
trang_nghiêm 590
tạ_an 590
microsoft 589
kinh_đô 589
mờ_mờ 589
_ngọc_@@ 589
vệ_tinh 589
ngay_ngắn 589
bốn_bề 589
hang_động 589
got_talent 589
giang_sơn 589
nghênh_đón 589
hồn_nhiên 588
62 588
k_@@ 588
họa_sĩ 588
làm_loạn 588
diệu_kế 588
hoa_quả 587
gtvt 587
nâng_cấp 587
nhiễm_trùng 587
thương_hại 587
dân_sự 586
lệch 586
đơn_thuần 586
gân 586
nghiêm_ngặt 586
ngày_lễ 586
mậu 586
dẫn_dụ 586
hưởng_thụ 585
fpt 585
trường_@@ 585
bục 585
chịu_khó 585
truy_đuổi 585
cuả 585
nộ 585
châu_báu 585
dạy_dỗ 584
700 584
ber@@ 584
mầm 584
trợ_lý 584
cư_xử 584
@ 584
phát_điên 584
phượng_hoàng 584
hàn_quang 584
thân_thủ 584
khai_mạc 583
hàm_@@ 583
nhậu 583
khả_thi 583
võ_@@ 583
ngoại_ô 583
ước_hẹn 583
tống_sư_đạo 583
giặt 582
tỵ 582
điềm_tĩnh 582
sát_nhân 582
rảo_bước 582
thiến 582
đánh_lừa 581
phát_minh 581
sắm 581
trấn_thành 581
sợ_sệt 581
ướt_đẫm 581
kinh_hoảng 581
phân_loại 580
2005 580
fe@@ 580
vô_tư 580
nhất_trí 580
tan_nát 580
15/2 580
quái_lạ 580
nổi_cơn 580
thông_tư 579
tuấn_tú 579
che_kín 579
mer@@ 579
khắc_@@ 579
*_* 579
điên_rồ 579
ur@@ 578
nấu_ăn 578
nồng 578
ục 578
tốt_lành 578
vy 578
a_] 578
tần_vương 578
phá_sản 577
hàm_lượng 577
chủ_quan 577
nhà_nghiên_cứu 577
ái_@@ 577
trốn_tránh 577
khủng_long 577
thất_nghiệp 577
trường_sa 577
địa_thế 577
phiền_não 577
tranh_đoạt 577
hạo 577
lý_lan 577
họp_báo 576
mật_thiết 576
quốc_lộ 576
bừa_bãi 576
i_h@@ 576
tinh_trùng 576
sai_khiến 576
nhe 576
lộng_lẫy 576
đồng_phục 576
giòng 576
78@@ 575
ô_@@ 575
lõi 575
nổi_nóng 575
uyển_chuyển 575
tàn_bạo 575
vững_vàng 574
cận 574
uể_oải 574
lo_liệu 574
hậm_hực 574
đại_pháp 574
frankie 574
vắng_mặt 573
nguyên_vẹn 573
ca_@@ 573
đám_tang 573
dung_nhan 573
náo 573
phù_thủy 573
thập_niên 572
nội_địa 572
gia_tộc 572
tá 572
sừng_sững 572
tùy_ý 572
ếch 572
đầu_vào 572
thi_sĩ 572
ndđt 572
trang_web 571
olympic 571
cư 571
bịch 571
bảo_quản 571
el 571
điếc 571
rắc 571
biếu 571
người_tình 571
bằng_được 571
nẻo 571
xúm 571
lôi_cửu_chỉ 571
công_suất 570
hà_đông 570
nước_bọt 570
par@@ 570
vô_hạn 570
đồng_đội 570
do_thái 570
lão_trượng 570
đa_phần 569
trỗi 569
gấp_bội 569
am_@@ 569
hoàn_@@ 569
cử_nhân 569
môn_học 569
dối 569
thiệt_thòi 569
dân_lập 569
bđs 568
độc_nhất 568
tận_hưởng 568
ed@@ 568
khê 568
thực_tình 568
khai_@@ 568
thiên_h@@ 568
nội_tình 568
tâm_phúc 568
vật_dụng 567
chat 567
nghĩa_trang 567
minh_hóa_bơi 567
trùng_trùng 567
làm_nhục 567
63 566
bút_chì 566
67 566
hy_lạp 566
lay 566
2729@@ 566
hà_hà 566
lưu_hành 565
hàng_@@ 565
phế 565
−_@@ 565
nam_định 565
lẫn_lộn 565
dự_liệu 565
marianne 565
ngũ_hành 565
nhà_xuất_bản 565
cổ_thụ 565
thiên_th@@ 565
trung_úy 565
thuận_tay 565
thủ_cấp 565
huyền_tông 565
68 564
tnhh 564
2004 564
xuất_@@ 564
ộc 564
sinh_mệnh 564
tehran 564
hiểm_trở 564
đại_huynh 564
ngu_huynh 564
ủy_viên 563
ống_@@ 563
biên_bản 563
phòng_bệnh 563
đốm 563
đái 563
nhức_nhối 563
bao_bọc 563
rầu_rĩ 563
phồng 563
cổ_vũ 563
keng 563
hồ_xung_. 563
tư_không 563
thanh_vân_sơn 563
tiêu_dao_tử 563
trần_thị@@ 562
yo@@ 562
bình_thuận 562
chăm_chỉ 562
ồ@@ 562
trông_nom 562
văn_nghệ 562
ngoại_quốc 562
tình_nghĩa 562
hóa_trang 562
khốn_kiếp 562
thượng_hoàng 562
2.000 561
_thanh 561
gập 561
phương_đông 561
rời_bỏ 561
chư 561
tiêu_tiêu 561
be 560
vị_thế 560
of 560
nhượng 560
quẻ 560
]@@ 560
trừng_trừng 560
thúy_sơn 560
loay_hoay 559
cao_ốc 559
úi 559
tận_lực 559
bàn_ghế 559
chận 559
thiết_thực 558
da_@@ 558
trái_ngược 558
cách_biệt 558
đặc_trưng 558
duỗi 558
nhiên_liệu 558
ét 558
sớm_muộn 558
mật_mã 558
chuộc 558
bửa 558
hùng_vĩ 557
chăng_nữa 557
người_@@ 557
ke 557
mạng_@@ 557
chế_ngự 557
tự_dưng 557
tuyệt_@@ 557
khay 557
giáo_hội 557
liệt_sĩ 557
ống_tay_áo 557
mộc_hợp 557
00@@ 556
phát_ngôn 556
hoàn_chỉnh 556
tập_thể_dục 556
bảo_mật 556
tuỳ 556
tức_tối 556
vùng_vẫy 556
hỏa_hoạn 556
khốn_nạn 556
trung_châu 556
ký_kết 555
39@@ 555
í@@ 555
gấp_gáp 555
mảy_may 555
mở_đầu 555
ly_hôn 555
fc 555
lưỡng_lự 555
ly_kỳ 555
ninh_đạo_kỳ 555
88@@ 554
dị_ứng 554
phá@@ 554
y_dược 554
cúp 554
điểm_tâm 554
thủy_sinh 554
igrave 554
juventus 554
thảy 554
côdét 554
hành_sơn 554
dồi_dào 553
đầu_mối 553
trách_móc 553
ba_lan 553
hùng_hậu 553
âu_dương_thống 553
lý_văn_tú 553
cảm_hứng 552
ninh_bình 552
dân_gian 552
a_th@@ 552
xu@@ 552
chực 552
nguyễn_th@@ 552
trần_th@@ 552
ju@@ 552
một_mực 552
mất_mặt 552
nhúng_tay 552
chúa_@@ 552
im_bặt 552
phương_nghị 552
landry 552
kế_toán 551
wall 551
kiệt_sức 551
lò_sưởi 551
honda 551
phí_công 551
lưu_hắc_thát 551
chúa_công 551
ách 550
tệ_hại 550
lỗ_hổng 550
nỗi_lòng 550
tây_phương 550
trúng_kế 550
thạch_động 550
gia_bang 550
khuôn 549
thua_kém 549
điều_dưỡng 549
về_phần 549
úc_@@ 549
ăn_thua 549
hacker 549
nương_tử 549
sụt 548
nha_trang 548
khuyết_điểm 548
bs 548
khàn_khàn 548
chủ_lực 548
hờ 548
james 548
nhộn_nhịp 548
triết 548
trảm 548
tion 547
đông_bắc 547
pu@@ 547
thuốc_mê 547
thu_hoạch 547
diều 547
nga_châu 547
chả_lẽ 547
lạt_ma 547
._v@@ 546
tử_nạn 546
sáng_kiến 546
đoàn_@@ 546
mòn 546
thân_yêu 546
dò_hỏi 546
rụt_rè 546
lễ_phép 546
con_nhỏ 546
thu_phục 546
nghiêng_mình 546
tôn_sư 546
hiền_muội 546
giả_mạo 545
vùng_biển 545
phân_công 545
đồng_bằng 545
tham_lam 545
cô@@ 545
đẩy_lùi 545
bọt 545
nguyên_do 545
quần_đảo 545
giải_tán 545
ngày_ngày 545
sinh_linh 545
hoa_viên 545
thiên_thạch 545
võ_ðương 545
com@@ 544
dứt_điểm 544
ko 544
đồ_uống 544
kế_thừa 544
đậy 544
ngày_@@ 544
gợi_cảm 544
nhướng 544
thảm_hại 544
xuồng 544
bịa 544
hoàng_thái_hậu 544
thối_tha 544
tru@@ 543
báo_@@ 543
xúc 543
nhẫn_tâm 543
thương_xót 543
hô_hoán 543
giám_mục 543
tây_vực 543
garin 543
trợ_cấp 542
ắng 542
hội_chứng 542
kết_@@ 542
cuốc 542
gào_thét 542
thành_thực 542
lý_huynh 542
pm_gmt7@@ 542
đồng_nghĩa 541
kiểm_toán 541
ị@@ 541
tiền_đạo 541
háo_hức 541
/11/2011 541
công_sai 541
nguyễn_h@@ 540
quanh_co 540
sh 540
kiểm 540
rỉ 540
khuyết_tật 540
rồi_đây 540
ông_ta 540
thủ_thành 540
ngây_ngất 540
nhẩy 540
lanh_lảnh 540
teabing 540
vũ_cường 540
5_triệu 539
đa_khoa 539
báo_hiệu 539
đánh_đập 539
ngọ 539
vườn_hoa 539
phi_trường 539
4,@@ 538
brazil 538
tri@@ 538
ực 538
bình_phục 538
trắc 538
gian_khổ 538
dép 538
[_@@ 538
sóng_gió 538
đi_đi 538
thỉnh_cầu 538
tiện_tay 538
giáo_dục_và_đào_tạo 537
công_đoàn 537
ag@@ 537
chiên 537
kho@@ 537
quy_luật 537
láng_giềng 537
phệ 537
mặt_biển 537
công_tôn 537
đương_gia 537
66 536
đề@@ 536
tạp 536
bén 536
20/11 536
đăng_quang 536
nửa_lời 536
hạ_thần 536
„_hạng 536
săn_sóc 535
dơ 535
thù_oán 535
người_hầu 535
diếm 535
ắc 534
ây 534
lỗi_lầm 534
sàng 534
ỵ 534
cơ_chứ 534
ba_tư 534
for@@ 533
cẩm_@@ 533
vị@@ 533
mất_mát 533
phỉ 533
đất_liền 533
trăm_ngàn 533
dũng_mãnh 533
vần 533
cải_tạo 532
ab@@ 532
nội_tâm 532
mạnh_dạn 532
liên_hợp_quốc 532
năng_động 532
nguôi 532
phong_ba 532
giao_tình 532
thượng_hải 531
khu_phố 531
man@@ 531
bơ 531
y_khoa 531
giáo_huấn 531
chúa_thượng 531
thốt_nhiên 531
hội_nhập 530
xâm_hại 530
thon 530
tàn_phá 530
dạ@@ 530
xa_@@ 530
máy_@@ 530
phân_tán 530
học_kỳ 530
nhỏ_nhắn 530
liêm 530
kiên_cường 530
ớ 530
phu_quân 530
sự-ký 530
khu_tập_thể 530
titanic 530
thiên_âm_tự 530
maura 530
hẹn_hò 529
au@@ 529
tắm_rửa 529
ge 529
thường_lệ 529
bộ_binh 529
thượng_tướng_quân 529
ðồng_mỗ 529
pippi 529
bân_ni 529
5.@@ 528
chu_kỳ 528
hiện_thời 528
mới_lạ 528
trung_thực 528
nệm 528
mê_man 528
đề_cao 528
thời_@@ 528
mệt_nhọc 528
thí_dụ 528
7/2 528
ngoảnh 528
giãn 527
ap@@ 527
ngứa 527
thớt 527
quy_@@ 527
thực_tập 527
thiểm 527
cung_tên 527
quạ 527
cao_dương 527
võ_phục 527
tào_ứng_long 527
điểm_số 526
chuyển_biến 526
tẩy 526
khôn_tả 526
nôn_nóng 526
triết_lý 526
mão 526
khả_nghi 525
tác_chiến 525
thuẫn 525
kumiko 525
1_triệu 524
vài_ba 524
bình_chọn 524
ng_đ@@ 524
chấp_hành 524
học_đường 524
sam 524
ngộ_nghĩnh 524
qui_@@ 524
nhạc_@@ 524
khiêu_khích 524
lục_soát 524
chịu_chết 524
xăng_dầu 523
bơm 523
thuốc_@@ 523
ấu 523
xứ_sở 523
bí_hiểm 523
kế_sách 523
48@@ 522
niêm_yết 522
thiếu_thốn 522
cờ_bạc 522
đau_xót 522
miss_teen 522
lách_cách 522
lương_thảo 522
kỵ_mã 522
ô_gia 522
5,@@ 521
riêng_biệt 521
ia 521
trông_coi 521
7853 521
đồ_sộ 521
chloe 521
sĩ_tử 521
quý@@ 520
kiểm_định 520
iếu 520
ồ_ạt 520
hấp_thụ 520
ley 520
bộ_hạ 520
tra_hỏi 520
rắn_độc 520
tự_phụ 520
ðào_phương 520
trương_tĩnh_chi 520
công_nghệ_thông_tin 519
250 519
dệt 519
tỉnh_giấc 519
đanh 519
rải_rác 519
nghiêm_chỉnh 519
ích_kỷ 519
lương_thiện 519
chồn 519
7,@@ 518
mật_độ 518
mg 518
rán 518
lạnh_buốt 518
016@@ 518
tối_om 518
phổ_hoằng 518
dương_phong 518
pa 517
samsung 517
lô@@ 517
iraq 517
tráng 517
hữu_ích 517
điển 517
cứu_giúp 517
thu_cúc 517
bướng_bỉnh 517
gánh_vác 516
khí_huyết 516
hợp_lực 516
cầu_hôn 516
không_kích 516
tiểu_thi 516
bịnh 516
vương_phi_dương 516
chuyển_giao 515
nguồn_lực 515
liên_tưởng 515
lây_nhiễm 515
bin 515
tượng_trưng 515
sức_sống 515
khao_khát 515
bung 515
stephen 515
bất_công 515
phản_cảm 515
ac_milan 515
mê@@ 515
ngượng 515
ngáp 515
thì_thào 515
long_dương_quân 515
sân_nhà 514
h. 514
bề_mặt 514
môn_@@ 514
xì 514
chì 514
cố_vấn 514
nhà_hát 514
vực_thẳm 514
hcv 514
chiêu_@@ 514
đỏ_rực 514
nữ_diễn_viên 514
thanh_lâu 514
mất_ngủ 513
_tử 513
dưa 513
ay 513
tì 513
cả_thảy 513
chuyển_hướng 513
đèo 513
bình_phong 513
lẩm_nhẩm 513
ðối 513
đả_kích 513
phụng_hoàng 513
động_thái 512
thải 512
vùng_sâu_vùng_xa 512
song_@@ 512
lung_linh 512
tứ_phía 512
cơ_chế_thị_trường 511
7_, 511
bất_trắc 511
tức_thời 511
phòng_ngự 511
quấy 511
tác_phong 511
cây_cỏ 511
nhưng_mà 511
dưới_trướng 511
thác_bạt_khuê 511
thập_@@ 510
thành_thị 510
bất_tiện 510
chuốc 510
ba_mẹ 510
nghị_lực 510
đực 510
tri_kỷ 510
ghê_rợn 510
dới 510
loại_hình 509
đen_tối 509
triển_vọng 509
lôi_cuốn 509
thpt_@@ 509
binh_@@ 509
chẳng_thể_nào 509
binh_pháp 509
thê 509
điềm_nhiên 509
lý_xuân_hồng 509
mãn_nguyện 508
vă@@ 508
pho@@ 508
hảo_tâm 508
11/9 508
lụt 508
linh_cảm 508
truyền_lệnh 508
điền_linh_nhi 508
vigor 508
lào_cai 507
bản_@@ 507
neo 507
cồn 507
tiếp_đón 507
nhà_@@ 507
dáng_điệu 507
khát_khao 507
phòng_vệ 507
thúc_giục 507
kháng_chiến 507
ðảng 507
dạt 506
hải_dương 506
ví_như 506
đối_@@ 506
đờ 506
tôn_vinh 506
len_lén 506
kép 505
đổ_bộ 505
thể_lực 505
khoanh_tay 505
chập_chờn 505
thóc 505
ly_khai 505
thám_thính 505
dã_tâm 505
thương_bát 505
huyền_nạn 505
tăng_tốc 504
cầm_@@ 504
cải_tiến 504
chứa_đựng 504
đau_buồn 504
níu 504
hàng_ngũ 504
phong_thái 504
liên_tuyết_kiều 504
đặt_hàng 503
tầng_lớp 503
kiêu_hãnh 503
mại_dâm 503
sảng_khoái 503
n_s@@ 503
afghanistan 503
hạ_giọng 503
bạch_vạn_kiếm 503
74 502
khoa_@@ 502
tiếng_kêu 502
tiêu_tán 502
lăn_lộn 502
lề_đường 502
dựng_đứng 502
hall 502
của_cải 502
tĩnh_mịch 502
chạy_thoát 502
yvette 502
tần_nhi 502
thị_trường_chứng_khoán 501
chuyên_viên 501
có@@ 501
bu 501
phiêu_lưu 501
dơi 501
như_vầy 501
xẻ 501
dương_hải 501
nhứt 501
hồ_thanh_ngưu 501
._th@@ 500
ngoại_lệ 500
luộc 500
thủ_thuật 500
vô_cớ 500
khổng 500
mơ_mộng 500
bất_thần 500
đại_giang 500
khai_huyệt 500
trọng_tâm 499
ý@@ 499
ine 499
chanh 499
trưởng_ban 499
chật 499
tiết_@@ 499
scandal 499
báu_vật 499
mờ_mịt 499
rối_bời 499
mr_đàm 499
tâm_nguyện 499
cười_gượng 499
tổng_thể 498
thực_trạng 498
lũy 498
sưởi 498
ngẩng_mặt 498
sủng_ái 498
nghiêm_mật 498
thị_phi 497
nấc 497
hương_vị 497
chủ@@ 497
xem_thường 497
tĩnh_@@ 497
_châu 497
thương_cảm 497
tưng_bừng 497
tuyệt_nhiên 497
kỵ_sĩ 497
thiên_tài 496
đông_đúc 496
nhược_điểm 496
tường_tận 496
nước_biển 496
kết_bạn 496
thăm_hỏi 496
tiếp_thu 496
phạm_thị@@ 496
đuối 496
ộ 496
bình_đẳng 496
xui 496
bobby 496
đình_đám 495
t.@@ 495
u_l@@ 495
12-@@ 495
thô_lỗ 495
đa_@@ 495
phẳng 495
_dương 495
iacute 495
lừng_danh 495
đầy_tớ 495
ðạo 495
„_thiếu_long 495
lao_ái 495
đào_gia_kỳ 495
bỏ_phiếu 494
vi_tính 494
bao_@@ 494
tái_nhợt 494
làm_khó 494
cào 494
ngượng_ngùng 494
btc 494
xòe 494
con_nít 494
giao_chiến 494
phẫn 494
tám_mươi 494
oai_danh 494
hiếu_thành_vương 494
khai_sơn 494
poirot 494
bền 493
1,5 493
trong_sạch 493
chuyền 493
sơn_đông 493
bách_tính 493
huyền_hoàng_giáo_chủ 493
vương_tử 493
môi_giới 492
thể_dục 492
việt_kiều 492
thình_thịch 492
liên_hồi 492
cũ_kỹ 492
náo_loạn 492
ban_nãy 492
lôi_phi 492
lưu_bị 491
19/11 491
giảo 491
địa_hình 491
đền_bù 491
dự_tính 491
thiên_hà 491
nhục_nhã 491
như_tờ 491
tuấn_mã 491
sa_sầm 491
bất_tà 491
bỉ_nhân 491
phan 490
bắt_nguồn 490
vòi 490
nguyễn_hữu_@@ 490
rền 490
giam_giữ 490
đổ_nát 490
niệm_phật 490
khía_cạnh 489
dè_dặt 489
ăn_ở 489
cẩm 489
bằng_@@ 489
tốt_bụng 489
hàn_@@ 489
thiên_t@@ 489
trang_tương_vương 489
tân_khách 489
iệu 488
/1@@ 488
lan@@ 488
mí 488
nguy_kịch 488
hiểm_nghèo 488
thiện_cảm 488
nghi_lễ 488
súc_sinh 488
thuý_sơn 488
ngô_ứng 488
es 487
quảng_trị 487
hạ_long 487
â@@ 487
buồn_ngủ 487
gia_súc 487
lưu_giữ 487
véo 487
đê_tiện 487
xe_ngựa 487
mẹ_kiếp 487
quát_mắng 487
đơn_độc 486
bệnh_lý 486
hoạn_nạn 486
khích_lệ 486
hèn 486
lũ_lụt 486
nước_nhà 486
tính_nết 486
thiên_sơn 486
từ_thiên_xuyên 486
thượng_quan_sách 486
gian_nan 485
è 485
khăng_khăng 485
‘@@ 485
phụ_hoàng 485
trư_cốc 485
chè 484
kỳ_hạn 484
,@@ 484
đun 484
thành_đạt 484
công_vụ 484
bế_tắc 484
cá@@ 484
đại_hoàng 484
chòm 484
hồi_âm 484
biết_ơn 484
danh_vọng 484
quán_rượu 484
thoi 484
mướn 484
truy_kích 484
46@@ 483
phàn_nàn 483
thành_hình 483
nhận_diện 483
thành_quả 483
ẩu 483
7909 483
thẫn_thờ 483
xót_thương 483
boong 483
phù_dung 483
47@@ 482
bệnh_tình 482
sô 482
at@@ 482
chủng 482
thiệp 482
súc_vật 482
thao 482
chiếu_sáng 482
xanh_biếc 482
thương_hải 482
khinh_thường 482
y_nhân 482
hậu_viện 482
trực_thuộc 481
ú 481
31@@ 481
hụt 481
trở_mặt 481
gù 481
cất_giấu 481
a_hoàn 481
phong_thư 481
thiên_chí 481
a_bích 481
hiện_hữu 480
dự_bị 480
nhà_ở 480
ya 480
et@@ 480
thốc 480
cà 480
êm_ái 480
yên_trí 480
thừa_@@ 480
đợi_chờ 480
còng 480
khuôn_viên 479
on@@ 479
ưu_điểm 479
òng 479
_minh_@@ 479
uẩn_khúc 479
hữu_thủ 479
trình_làng 478
rầm_rộ 478
i_l@@ 478
đảm 478
dập_tắt 478
pm 478
linh_mục 478
tay_vợt 478
ngang_ngược 478
bừng_bừng 478
năm_xưa 478
kurt 478
mariuyt 478
athena 478
78 477
chứng_cứ 477
kéo_theo 477
khí@@ 477
men@@ 477
tinh_binh 477
manh 477
ngạo_mạn 477
hoa_yêu 477
thập_kỷ 476
6,@@ 476
bức_xạ 476
sĩ@@ 476
thờ_ơ 476
tái_hợp 476
thính 476
khích 476
liên_châu 476
đông_nam 475
bẩm_sinh 475
ạch 475
thanh_xuân 475
bân 475
vơi 475
tủ_lạnh 475
thủ@@ 475
ỉ 475
thi_tuyển_sinh 475
harvey 475
sở_hữu_@@ 474
xuất_xứ 474
youtube 474
quanh_quẩn 474
ken 474
mĩ 474
chính_đáng 474
gia_lai 474
vù 474
tuổi_đầu 474
hình_thù 474
khiếu_nại 473
huynh_trưởng 473
nghi_thức 473
hân_hạnh 473
argentina 473
nồng_nặc 473
banh 473
tri_@@ 473
tài_ba 473
tự_ái 473
phù_hộ 473
võ_sư 473
76 472
ới 472
cụt 472
khó_coi 472
bản_thảo 472
mài 472
đánh_rơi 472
34@@ 472
tổng_bí_thư 472
nổi_loạn 472
bái_tử_đình 472
thủy_sanh 472
euro 471
quàng 471
lã@@ 471
thuộc_lòng 471
12/2 471
tức_cười 471
california 470
tích_hợp 470
myanmar 470
8,@@ 470
nhầm_lẫn 470
mía 470
_lan 470
nhi_đồng 470
ba_lô 470
giang_@@ 470
bi_kịch 470
cảnh_sắc 470
/01/2012 470
phục_kích 470
chỉnh_tề 470
giáo_đồ 470
hội_đồng_quản_trị 469
58@@ 469
sto@@ 469
03@@ 469
unicef 469
vụng_về 469
yêu_đương 469
ly_@@ 469
say_xỉn 469
cha_xứ 469
thu_dọn 469
trong_trẻo 469
khinh_bỉ 469
thiền_trượng 469
huy_hoàng 468
thật_thà 468
ố@@ 468
công_trường 468
and 468
tuổi_thơ 468
đắc_lực 468
nhân_chứng 468
xõa 468
tứ_xuyên 468
kình_địch 468
ôn_@@ 468
rầm 468
suy_tư 468
ny 467
van@@ 467
iii 467
đặc_thù 467
phúc_@@ 467
gắng 467
biếc 467
tình_thương 467
biên_tập 467
vũ_văn_huynh 467
khựng 467
tề_hạo 467
trân_ân 467
trọng_trách 466
động_@@ 466
kẽm 466
cọ 466
dạo_chơi 466
biên_chế 466
thể_diện 466
man_city 466
to_tướng 466
bẽn_lẽn 466
thất_lễ 466
ẩn_cư 466
điều_lệ 465
lưu_trữ 465
tàn_khốc 465
tiềm_ẩn 465
9,@@ 465
’@@ 465
mở_đường 465
một_@@ 465
tiến_thoái 465
cứu_vãn 465
quyết_đoán 465
cao_phong 465
đếm_xỉa 465
kim_ngạch 464
her@@ 464
ám_chỉ 464
inh_@@ 464
độc_hại 464
vóc_dáng 464
gar@@ 464
nhấp 464
file 464
chùng 464
nước_da 464
tây_nam 464
vu_@@ 464
sấm_sét 464
300,000 464
nẩy 464
vô_luận 464
cười_mát 464
lệnh_hồ_huynh 464
ổi 463
khai_trương 463
99 463
minh_châu 463
tính_khí 463
61 463
ủy_@@ 463
chích 463
ll 463
lang_@@ 463
uốn 463
chúng_sinh 463
dung_@@ 462
71 462
79 462
cholesterol 462
hãi_hùng 462
un 462
liễu_@@ 462
jesus 462
xúc_xắc 462
trận_thế 462
cẩn_trọng 461
khởi_công 461
bắt_nạt 461
tố@@ 461
ẩn_chứa 461
ôn_hòa 461
n_tr@@ 461
cs 461
john_@@ 461
nom 461
thiên_tai 461
sơ_ý 461
then 461
điên_đảo 461
cười_vang 461
khâm 461
biển_cả 460
dấy 460
we@@ 460
phó@@ 460
hai_@@ 460
cơ_sở_vật_chất 460
bẩn_thỉu 460
chân_tình 460
khởi_@@ 460
bĩu 460
hắc_bạch_tử 460
tro@@ 459
choáng 459
lười 459
thư@@ 459
trạng 459
ít_lâu 459
đỗ_@@ 459
nghị_luận 459
tâm_địa 459
tráng_sĩ 459
ngữ_yên 459
tư_thừa 459
69 458
mắt_xanh 458
1_@@ 458
lân_cận 458
77 458
tú@@ 458
quẳng 458
thức_giấc 458
tốn_kém 458
xương_sống 458
les 458
sáng_chế 458
sự_vật 458
làm_bạn 458
cối 458
phấn_khích 458
chiến_binh 458
khởi_nghĩa 458
hội_họp 458
kỹ_nữ 458
đại_hãn 458
vượt_trội 457
ành_@@ 457
chân_thật 457
ngại_ngùng 457
lập_trường 457
phổ@@ 457
nhắn_tin 457
tàu_ngầm 457
quảng_@@ 457
hoà_bình 457
nói_nhăng 457
vèo 457
hắc_bạch 457
suy_yếu 456
vô_nghĩa 456
khoai 456
xài 456
xo@@ 456
bạo 456
dịch_lam 456
angielic 456
_thanh_@@ 455
rèn 455
tái_phát 455
béo_phì 455
phá_tan 455
găm 455
sóc 455
_văn_@@ 455
vả 455
nhún 455
thiên_thiên 455
album 455
nguyên_khí 455
vang_vọng 455
trần_thủ_độ 455
đạo_quân 455
tuyết_sơn 455
ngao_bái 455
thiên_trúc 455
nguyễn_nguyễn_@@ 455
thống_đốc 454
bộ_môn 454
tưới 454
năng_khiếu 454
iện 454
vào_cuộc 454
lena 454
mộ_dung_@@ 454
phùng_tích 454
68@@ 453
khốc_liệt 453
hồi_tưởng 453
đặc_@@ 453
tự_@@ 453
thúy_@@ 453
bả@@ 453
part 453
304 452
giá_như 452
phiên_tòa 452
phân_tâm 452
đa@@ 452
hợp_@@ 452
chi_phối 452
ớn 452
tận_tâm 452
phao 452
ề 452
bách_khoa 452
mộ@@ 452
triều_@@ 452
sơ_mi 452
chôn_cất 452
nhân_tố 451
vô_ý 451
lo_nghĩ 451
calo 451
nghịch_ngợm 451
thế_trận 451
thiêng 451
la_mã 451
chung_@@ 451
bạch_dương 451
say_đắm 451
chử 451
sato 451
nghi_hòa 451
der@@ 450
dịch@@ 450
ế@@ 450
_thiên_@@ 450
tạ@@ 450
mấu_chốt 450
làm_ơn 450
bất_tuyệt 450
hoang_vu 450
ngạnh 450
đằng_hắng 450
quan_tam_thắng 450
thập_phần 449
è@@ 449
vạn_vật 449
lỏng 449
khắc_nghiệt 449
quân_nhân 449
mát_mẻ 449
yê@@ 449
7911 449
23/12 449
vừa_ý 449
thuý 449
bản_sao 449
ràng_buộc 449
mỹ_thuật 449
hào_khí 449
yahoo 449
vân_ngọc_chân 449
chăm_lo 448
chơi_đùa 448
59@@ 448
tôn_quyền 448
thâm_nhập 448
loãng 448
độ@@ 448
ảnh_@@ 448
tối_@@ 448
2730@@ 448
chân_lý 448
liều_lĩnh 448
quốc_dân 448
đèn_đuốc 448
biết_chừng 448
phương_chứng 448
1975 447
73 447
mp@@ 447
gia_hạn 447
cấy 447
ổ@@ 447
ứ@@ 447
cảm_@@ 447
phăng 447
ịnh 447
lên_án 447
nùng 447
hùng_mạnh 447
iaea 447
teng 447
xa_xăm 447
đừng_hòng 447
biến_hoá 447
kinh_sư 447
hàn_sấm 447
hoàng_dược_sư 447
ngô_chi_vinh 447
sách_giáo_khoa 446
gen 446
trưng_bày 446
động_mạch 446
gia_vị 446
đờ_đẫn 446
ọc 446
mỏng_manh 446
hớp 446
lạnh_ngắt 446
chiến_@@ 446
tuy_rằng 446
toạ 446
phò 446
ngông_cuồng 446
dòm_ngó 446
nguyên_soái 446
gdp 445
thân_cận 445
bổ@@ 445
nước_tiểu 445
xào 445
tự@@ 445
nghiên 445
vô_sắc 445
thoảng 445
nguyên_văn 445
cà_mau 445
bùa 445
khó_nhọc 445
nam_cương 445
bâng_khuâng 445
lỗ_mãng 445
ngàn_vạn 445
đạo_phúc 445
nguyễn_đức_@@ 444
giải_tỏa 444
nhà_trọ 444
tiếp_đãi 444
cao_tốc 444
bangkok 444
trừng_trị 444
tiên_liệu 444
phi_tần 444
diêm_vương 444
ðệ_tử 444
tiêu_sái 444
nam_bút 444
ngừi 444
sanh_xuân 444
phẩm_chất 443
ục_@@ 443
ngà 443
đố 443
ugrave 443
lên_lớp 443
tra_tấn 443
lam_@@ 443
giao_thừa 443
trần_quốc_tuấn 443
tái_ngộ 443
quẹo 443
quốc_công 443
ưng_@@ 442
sơn_tây 442
fed 442
cuống 442
phối 442
đâu_đâu 442
ebola 442
chớp_nhoáng 442
u_linh 442
ã 442
réo 442
ʺ@@ 442
ro 441
thế@@ 441
ca_hát 441
ò 441
bả_vai 441
mễ 441
liên_can 441
tận_cùng 441
bắt_@@ 441
nguyền_rủa 441
mourinho 441
nokia 441
căm_ghét 441
hãi 441
thừa_thế 441
ðình_phương 441
ngọc_chân 441
lục_bất_hòa_thượng 441
lớn_mạnh 440
900 440
dỡ 440
hấp_thu 440
chừa 440
tào_@@ 440
chật_hẹp 440
of_me 440
bay_bổng 440
van_xin 440
tức_khắc 440
nội_thể 440
giảm_thiểu 439
bộ@@ 439
82 439
trọng_điểm 439
_tử@@ 439
họa_@@ 439
kỳ_thị 439
cổ_đại 439
choang 439
cài_đặt 439
táo_bạo 439
suy_ngẫm 439
tin_học 439
hoàng_thành 439
ổn_thỏa 439
tày 439
bay_lượn 439
tối_sầm 439
tri_phủ 439
ðáng 439
27309@@ 439
kháng_sinh 438
thanh_bình 438
chìm_đắm 438
36,@@ 438
is 438
quyền_thế 438
làm_lễ 438
lê_văn_luyện 438
qua_mặt 438
quý_khách 438
phát_tài 438
thâm_trầm 438
ngọc_đường 438
khẳng_khái 438
cảm_khái 438
niên_hiệu 438
loren 438
chủ_chốt 437
dịch_bệnh 437
thẩm_@@ 437
lanh 437
triều_đại 437
toyota 437
ẩm_ướt 437
hữu_nghị 437
đắn_đo 437
dong 437
hẻo_lánh 437
diễn_tả 437
tương_trợ 437
vietnam's 437
hồi_lâu 437
động_thủ 437
park 436
10.000 436
cư_trú 436
giấu_giếm 436
tàn_phế 436
phần_thưởng 436
động_kinh 436
lan_truyền 436
sặc 436
cao_cả 436
trêu_chọc 436
dao_@@ 436
triết_học 436
rặng 436
đĩnh 436
phản_nghịch 436
ðông_phương_bất_bại 436
tổng_binh 436
tam_điểm 436
chí_ít 435
fu@@ 435
tích_lũy 435
ứng_@@ 435
cổ_điển 435
ấn_@@ 435
chi_cục 435
bv 435
vật_thể 435
quân_lính 435
che_khuất 435
hơi_sức 435
cáo_biệt 435
reuters 434
p-@@ 434
mong_ước 434
ói 434
n_b@@ 434
hình_tượng 434
cô_gái 434
7919 434
7855 434
quấy_rầy 434
bệ 434
khẩu_khí 434
mỹ_dung 434
quan_lại 434
uổng_mạng 434
âu_dương 434
hà_vỹ 434
ngoạn_mục 433
tuyển_chọn 433
mark 433
2003 433
tokyo 433
dịch_chuyển 433
tương_tác 433
_sinh 433
nữ@@ 433
19/2 433
chứng_thực 433
vớ_vẩn 433
đầu_bếp 433
thụy 433
nhọc 433
hoa_tiên 433
lầy 433
tan_tành 433
quí_vị 433
tĩnh_chi 433
ngành_nghề 432
6.@@ 432
/2009 432
tv 432
văn_h@@ 432
côn_trùng 432
dằn_mặt 432
nông_@@ 432
gom 432
kỳ_quặc 432
cửa_ải 432
nạt 432
loang_loáng 432
bóng_ma 432
xử_tử 432
a_di_đà 432
trấn_thủ 432
thông_thiên_phong 432
hạng_mục 431
ăng@@ 431
mc@@ 431
ung_@@ 431
nguyễn_thị_@@ 431
1000 431
quanh_năm 431
đương_đầu 431
vứt_bỏ 431
hằn 431
vạ 431
làm_phản 431
tần_@@ 431
nhi_@@ 430
thiếu_hụt 430
nhìn_chung 430
ình 430
a1 430
bấy_lâu_nay 430
cầm_cự 430
cứu_hộ 430
công_thành 430
bần 430
khuyên_giải 430
tống_phàm_bình 430
ệ 429
net 429
nhiệt_huyết 429
trống_ngực 429
pp@@ 429
đường_nét 429
cọc 429
tuyết_@@ 429
nhân_số 429
cổ_tích 429
dính_líu 429
girls_aloud 429
suy_tính 429
hự 429
đại_việt 429
phụng_mệnh 429
lưu_huynh 429
vị_tất 429
doãn_hạ_mạt 429
số_một 428
cố_định 428
ninh_thuận 428
hoành_tráng 428
bảo_trì 428
đồng_cỏ 428
túi_xách 428
vôi 428
nấu_nướng 428
thực_tại 428
biểu_thị 428
vâng_dạ 428
bịa_đặt 428
viếng 428
cộng_hoà 428
6/2 428
thu_hẹp 427
bù_đắp 427
lin 427
đều_đều 427
toại 427
huyền_ảo 427
trấn_áp 427
bọ 427
hoàng_hà 427
nhỡ 427
_đạo 427
falko_goetz 427
khoé 427
vương_tông 427
xung_hư 427
lý_tú_ninh 427
am_gmt7@@ 427
lập_luận 426
phiền_muộn 426
rụi 426
ù@@ 426
thìa 426
trúc_@@ 426
chuộng 426
trí@@ 426
_thế 426
di_tích 426
xao_xuyến 426
vấn_thiên 426
vạn_nhất 426
23.@@ 425
độc_quyền 425
110 425
tiếc_nuối 425
đấu_trường 425
sinh_đôi 425
ranh_giới 425
hờ_hững 425
đa_tình 425
sư@@ 425
thẩm_vấn 425
cánh_diều 425
khấn 425
áp_giải 425
thở_hắt 425
ceo 424
lê_văn_@@ 424
nhiệt_đới 424
rốt_cục 424
tấp_nập 424
tử_thần 424
múc 424
đít 424
ăn_mừng 424
gò_má 424
nhà_thầu 424
dây_thanh_quản 424
xướng 424
nhấp_nháy 424
to_gan 424
ác_tăng 424
hết_mình 423
11-@@ 423
web 423
sinh_sản 423
hủy_hoại 423
tê_liệt 423
nhọc_nhằn 423
tài_@@ 423
đùa_giỡn 423
kohler 423
thảo_nào 423
chung_ly 423
chiến_hạm 422
mặn 422
trao_tặng 422
é 422
báo_giới 422
mãn_châu 422
justin 422
thánh_chỉ 422
cười_gằn 422
đinh_xuân_thu 422
ường 421
tình_tiết 421
iển 421
gần_như 421
bầm 421
tứ_chi 421
hạ_@@ 421
công_hiệu 421
linh_chi 421
dư@@ 421
e_dè 421
lưng_chừng 421
đại_bác 421
dữ_tợn 421
trai_gái 421
đương_thời 421
trần_hải 421
bắt_sống 421
bảo_trọng 421
thế_ra 421
triệu_chi 421
nguyệt_@@ 420
giá@@ 420
cao_độ 420
thấu_hiểu 420
chua_xót 420
thành_ra 420
ngoại_thương 420
tư_chất 420
ngụy_@@ 420
tư_@@ 419
đáo 419
92 419
phân_tử 419
quý_báu 419
chùi 419
cố@@ 419
khổ_tâm 419
nhiêu 419
phái_đoàn 419
bi_thảm 419
đại_lễ 419
đánh_cá 419
hành_hung 419
chạm_trán 419
ooo 419
thông_huệ 419
2014 418
nới 418
vn30 418
giúp_sức 418
za@@ 418
ai_@@ 418
ội 418
thi_thoảng 418
sắc_@@ 418
eleanor 418
tuần_tra 418
rối_rít 418
ðầu 418
bạt_khuê 418
lệnh_hồ 418
tỷ_giá 417
tấn_@@ 417
mã_@@ 417
mini 417
sống_động 417
khéo_tay 417
trấn_an 417
thiếu_@@ 417
om_sòm 417
thân_tín 417
yêu_kiều 417
bừng_tỉnh 417
đêu 417
trủy 417
phát_xuất 417
chu_chỉ 417
thành_đô 416
run_sợ 416
giàn 416
giả@@ 416
xỏ 416
chết_chóc 416
quay_phim 416
đặc_sắc 416
từ_chức 416
lãnh_@@ 416
bính 416
tuồng 416
bênh_vực 416
ngây_người 416
trủy_thủ 416
như_bay 416
bất_đồ 416
yên_nhiên 416
đảm_nhiệm 415
thụy_sĩ 415
ter 415
cơ_nghiệp 415
nguội 415
mồ 415
bình_ổn 415
ban_@@ 415
murray 415
bình_dân 415
xâm_lược 415
_công 415
sự_vụ 415
tắt_thở 415
thanh_tuyền 415
nói_bậy 415
vô_vi 415
tướng_quốc 415
phất_trần 415
tự_lập 414
sắn 414
tinh_xảo 414
gắng_sức 414
di_truyền 414
nước_ngọt 414
chuẩn_xác 414
tai_hại 414
nil 414
cửa_kính 414
nụ_cười 414
sóng_thần 414
là_lạ 414
nỏ 414
tức_mình 414
trá 413
biệt_@@ 413
ou@@ 413
hàng_hoá 413
nhói 413
con_nuôi 413
chính_quy 413
ll@@ 413
nhếch 413
andrei 413
thiếu_tá 413
chẳng_sao 413
hình_thế 413
giảo_hoạt 413
ngữ_khí 413
tổng_đà 413
ình_@@ 412
văn_t@@ 412
gia_cầm 412
giã 412
àng 412
cửu_long 412
tự_vệ 412
_phương 412
madrid 412
đào_hoa 412
bỏ_hoang 412
ngọc_anh 412
ào_ạt 412
định_đoạt 412
fifa 412
chơi_lễ 412
hoang_đường 412
căm_thù 412
khấu_đầu 412
tiểu_thúy 412
xú 412
danh_tính 411
?@@ 411
che_đậy 411
cơ_bắp 411
tơ@@ 411
ngáy 411
xó 411
phong_tục 411
lý_h@@ 411
lý_th@@ 411
lý_lẽ 411
lá_cờ 411
định_mệnh 411
buông_tay 411
thù_hận 411
tính_mệnh 411
vướng_mắc 410
96 410
57@@ 410
phan_thiết 410
ninh_@@ 410
trung_gian 410
ruồi 410
trưng 410
sặc_sỡ 410
chào_đời 410
and@@ 410
thỏa_đáng 410
khô_khan 410
giẫm 410
kí 410
núi_non 410
con_voi 410
yểu_điệu 410
xương_cốt 410
vồ 410
tù_binh 410
hồ_ly 410
côn_luân 410
đỗ_tất_thư 410
lí@@ 409
khu_công_nghiệp 409
200@@ 409
làm_giàu 409
ẩm_thực 409
hữu_hiệu 409
đảo_lộn 409
không_dứt 409
ner 409
sưu_tầm 409
xe_lăn 409
xếp_bằng 409
mong_mỏi 409
bèo 409
9/1 409
hồng_ngọc_celine_dion 409
hồn_vía 409
ðồ 409
như_ý 408
mo 408
lột_xác 408
axit 408
ằng 408
dầu_@@ 408
giắt 408
3/2 408
đàn_@@ 408
thiên_long 408
tế_nhị 408
loạn_xạ 408
bá_tánh 408
thoá_mạ 408
hồ_xung_cười 408
an_khánh 407
mẹo 407
dân_@@ 407
gắp 407
thư_thái 407
thỏa 407
cận_cảnh 407
gượng_gạo 407
bấy_lâu 407
vơ 407
toàn_quân 407
phụ_cận 407
két 407
húc 407
trổ_tài 407
dí 407
huỵch 407
bách_chiến 407
cố_nhiên 407
tây_vương 407
tri_huyện 407
thái_sư_phụ 407
ma_cung 407
._l@@ 406
campuchia 406
vô_biên 406
stress 406
thường_vụ 406
4-@@ 406
bắp 406
cưa 406
chứng_bệnh 406
lùa 406
đà_lạt 406
._ly 406
djokovic 406
cử_hành 406
chính_diện 406
nghĩa_hiệp 406
kissinger 406
tù_và 405
chất_liệu 405
khó@@ 405
sinh_dục 405
83 405
co_@@ 405
khêu 405
nện 405
bangladesh 405
thoang_thoảng 405
chật_vật 405
sinh_động 405
lạng_sơn 405
nhà_nghỉ 405
26/12 405
tiến_công 405
bây 405
ðông_@@ 405
đại_đội 405
phụng_tường 405
phụ_nhân 405
ngộ_xuân 405
iêu 404
pakistan 404
oz 404
_minh 404
bri@@ 404
im_lìm 404
không_@@ 404
bản_án 404
đu 404
nâng_đỡ 404
đặc_tính 404
ống_kính 404
vận_tốc 404
ân_nhân 404
túc_@@ 404
nhàn_nhã 404
bặt_tin 404
thẳm 404
bàn_cờ 404
dịch_giả 404
vẳng 404
bánh_bao 404
nhị_cổ 404
97@@ 403
hung_thần 403
._giá 403
định_kỳ 403
ánh_@@ 403
tảo 403
hạt_giống 403
giời 403
huấn 403
thân_xác 403
ghê_tởm 403
thi_tuyển 403
tròn_xoe 403
chữ_ký 403
liverpool 403
cốp 403
bồi_hồi 403
quả_là 403
hậu_bối 403
pháp_sư 403
uy_phong 403
trận_pháp 403
hương_ngọc_sơn 403
râu_bạc 403
triệu_mẫn 403
sốt_xuất_huyết 402
đau_nhức 402
cor@@ 402
cia 402
kim_dung 402
ôn_tập 402
quang_liêm 402
yến_tiệc 402
chú_rể 402
đoan_trang 402
chua_chát 402
lung 402
đạo_pháp 402
đàn_bà_con 402
bụng_dạ 402
trần_viên_viên 402
thiên_ðịa_hội 402
lý_đệ 402
chấn_sơn 402
phóng_xạ 401
84 401
sjc 401
tột_cùng 401
trì_hoãn 401
cấp_độ 401
ăng_@@ 401
nhí 401
lệ@@ 401
sứ_mệnh 401
dị_nhân 401
uacute 401
cướp_bóc 401
kiều_diễm 401
bất_tận 401
moi 401
án_mạng 401
kinh_thánh 401
đích_xác 401
bát_quái 401
bá_tước 401
rôlinh 401
hoa_hoa 401
mệnh_danh 400
us 400
khánh_hòa 400
keo 400
bỏ_mạng 400
hối_tiếc 400
ăn_chơi 400
u-@@ 400
lisa 400
qh 400
đông_hải 400
cừ 400
màn_kịch 400
phanh 400
hỡi_ôi 400
từ_giã 400
nhỏm 400
ca_tụng 400
ròng_ròng 400
động_dung 400
đại_trí 400
bất_phàm 400
thiệu_đông_tử 400
ngọc_đỉnh 400
suy_thoái 399
tiện_lợi 399
àn 399
ang@@ 399
nồng_độ 399
khoa_học_@@ 399
hồng_hào 399
_o@@ 399
nguyễn 399
học_vấn 399
ngăn_cách 399
võ_thuật 399
công_đức 399
vân_canh 399
đức_cha 399
ub@@ 398
ngậm_ngùi 398
dịch_@@ 398
ả@@ 398
mách 398
người_xưa 398
buồn_bực 398
7903 398
vẻ_mặt 398
hết_@@ 398
trìu_mến 398
thật_tình 398
hãnh_diện 398
trinh_sát 398
hầu_gia 398
kihôtê 398
dương_quảng 398
7.@@ 397
mỹ_phẩm 397
harvard 397
bra@@ 397
học_giả 397
đột_quỵ 397
_hải 397
đèn_lồng 397
rết 397
ngu@@ 397
lờ 397
dụ_dỗ 397
trần_gian 397
nhất_nhất 397
thiên_văn 397
ms4@@ 397
tình_ý 397
nói_láo 397
bá_đạo 397
luân_hồi 397
dương_nghiệp 397
tiểu_lăng 397
uy_danh 397
lá@@ 396
đồ_dùng 396
hiện_hành 396
gián_điệp 396
/2012 396
0.000 396
thực_đơn 396
sáng_sủa 396
đài_truyền_hình 396
triền 396
giơ@@ 396
rình 396
do_thám 396
cố_thủ 396
sao_vậy 396
vi_diệu 396
giới_luật 396
khán_như 396
đình_phương 396
._về 395
bo 395
cởi_bỏ 395
số@@ 395
vinamilk 395
sà 395
gầy_gò 395
sắc_sảo 395
lạc_đà 395
khôn_xiết 395
tông_@@ 395
kar@@ 395
lốc 395
một_lượt 395
casino 395
tiến_cử 395
dante 395
chúng_mày 395
ngoài_mặt 395
chùy 395
nam_song_hiệp 395
sư_phó 395
vương_ngữ_yên 395
đi_@@ 394
quá_tải 394
khuôn_khổ 394
chán_ghét 394
min@@ 394
n.@@ 394
khảo 394
ngạo_nghễ 394
buồn_phiền 394
vu@@ 394
lạnh_giá 394
truật 394
lảng 394
du_ngoạn 394
lặng_yên 394
thanh_thản 394
đáng_giá 394
tàn_@@ 394
thành_hôn 394
làm_trò 394
đại_loạn 394
sp@@ 393
cáo_buộc 393
san@@ 393
buồn_nôn 393
hòa_hợp 393
n_thành 393
đá@@ 393
quét_sạch 393
tập_@@ 393
ngần 393
bửu_châu 393
đền_đáp 393
hối_lộ 393
thiết_tha 393
xảo_quyệt 393
thương_tiếc 393
chằm_chặp 393
sư_cô 393
quyết_ý 393
biên_hoang 393
nữ_tỳ 393
khất_ðan 393
thường_niên 392
bản_tin 392
dây_chuyền 392
mui 392
ss 392
nguyễn_ngọc_@@ 392
ig@@ 392
at 392
giường_bệnh 392
trăn_trở 392
liêu_@@ 392
ngay_tức_khắc 392
phái_đẹp 392
hao_tổn 392
trò_đùa 392
chen_chúc 392
oan_uổng 392
đụng_chạm 392
quang_trung 392
lực_sĩ 392
kỳ_ảo 392
sào_huyệt 392
cơ_mật 392
văn_sĩ 392
vân_trung 392
tiên_đế 392
điều_tức 392
tiểu_hương 392
bất_hoán 392
49@@ 391
tiếp_thị 391
thiếu_sót 391
phần_nhiều 391
texas 391
tập_huấn 391
lý_t@@ 391
thân_mến 391
nương_tựa 391
trư 391
tham_mưu 391
bãi_cỏ 391
di_sản 391
giáo_phái 391
dẫm 391
trực_giác 391
bậy 391
thành_thân 391
phản_tặc 391
điền_bất_dịch 391
101 390
đồng_tháp 390
val@@ 390
sha@@ 390
đảng_@@ 390
cột_sống 390
bản_nhạc 390
trang_trọng 390
trọng_dụng 390
chết_@@ 390
tham_@@ 390
hội_trường 390
thạch_@@ 390
đồng_tâm 390
bóng_hồng 390
thẹn_thùng 390
phòng_học 390
phụng_@@ 390
trúc_anh 390
nhiếp_thiên_hoàn 390
công_nghệ_cao 389
kiên_định 389
san_@@ 389
biên_phòng 389
kế_đó 389
na_@@ 389
ngày_hội 389
olivia 389
ấm_ức 389
trung_quân 389
tạc 389
roma 389
mười_@@ 389
nhân_từ 389
khoe_khoang 389
dối_trá 389
xua_đuổi 388
nhơn 388
tự_tiện 388
ghe 388
nước_hoa 388
xe_cộ 388
robert 388
ngày_kia 388
ái_ngại 388
như_hải 388
đàm_@@ 388
gầm_gừ 388
cổ_mộ 388
dập_đầu 388
lý_phiệt 388
khấu_trọng_thầm 388
1990 387
5.000 387
ban@@ 387
nhu_@@ 387
nho@@ 387
trầm_tĩnh 387
mỏm 387
bộ_tộc 387
lốp 387
bố@@ 387
ngùn_ngụt 387
lôi_@@ 387
thiếu_gia 387
nhếch_mép 387
không_đâu 387
phương_vị 387
tỉ_vương 387
._đ@@ 386
ác_nhân 386
lâu_đời 386
ngắn_gọn 386
tụ_họp 386
cải_@@ 386
_vân 386
nhà@@ 386
giả_thuyết 386
koko 386
19-8 386
11/1 386
lục_tục 386
giỡn 386
phất_phơ 386
đăm_chiêu 386
bất_hối 386
?_@@ 385
01@@ 385
tối_ưu 385
bởi_lẽ 385
trùng_hợp 385
mở_màn 385
go 385
bị_can 385
hưng_yên 385
pre@@ 385
đường_cong 385
ngòi 385
pri@@ 385
lối_thoát 385
ẳng 385
ẩn_náu 385
đốn 385
nhượng_bộ 385
tài_giỏi 385
30/12 385
thám 385
điên_khùng 385
khí_độ 385
tích_hương 385
tỷ_trọng 384
ra_quân 384
ngốc_nghếch 384
khối_u 384
ần_@@ 384
kèn 384
phở 384
đổ_dồn 384
ùn_ùn 384
khai_giảng 384
hay_ho 384
ba_má 384
danh_nghĩa 384
ban_giám_hiệu 384
thoạt_tiên 384
tụ_hội 384
nixon 384
ngớ 384
bôn_tẩu 384
-_dạ_dạ 384
5-@@ 383
nồng_nhiệt 383
thuê_bao 383
ngoại_hình 383
nh_@@ 383
rốt 383
vạm_vỡ 383
trót 383
camry 383
khùng 383
đinh_ninh 383
hằn_học 383
đạt_chí 383
._m@@ 382
._c@@ 382
ráo 382
trà@@ 382
um 382
nữ_giới 382
băng_@@ 382
mặc_cảm 382
ngưng_tụ 382
ong_@@ 382
cuốn_hút 382
mông_lung 382
tái_mét 382
đầu_lâu 382
ðịnh_tĩnh_sư 382
am_hiểu 381
hiển_thị 381
je@@ 381
vượng 381
thẩm_phán 381
golf 381
và@@ 381
chóp 381
xa_xưa 381
sy@@ 381
'_@@ 381
băng_bó 381
vá 381
nhìn_thấu 381
làm_chứng 381
hiến_pháp 381
rừng_núi 381
tranh_cử 381
ngang_hàng 381
vừa_lòng 381
hầm_hầm 381
kat 381
cành_lá 381
buru 381
đinh_điển 381
châu_du 381
bồi_bổ 380
nhân_văn 380
sành 380
dân_làng 380
tán_loạn 380
chuyên_tâm 380
rita 380
thiên_ma_@@ 380
lão_hủ 380
phổ_trí 380
công_tôn_ngọc_sương 380
vật_lộn 379
ren 379
xáo_trộn 379
iê@@ 379
nghiệm 379
ài_@@ 379
bàng_quang 379
ệ@@ 379
ngoại_thành 379
cảnh_ngộ 379
chốc_chốc 379
bổ_ích 379
nuông_chiều 379
hiếp 379
ó 379
ngưỡng_cửa 379
um_tùm 379
liên_hoan_phim 379
móc_túi 379
khét_tiếng 379
muôn_ngàn 379
chiêm 379
thăm_thẳm 379
thiên_lộc 379
nigel 379
hắng_dặng 379
ba_cực 379
quản_trung_tà 379
ba_thục 379
/4 378
gián_tiếp 378
khẩn 378
ên 378
con_tin 378
nhao_nhao 378
hồng_ngọc 378
riết 378
đày 378
dòm 378
quân_du 378
chấn_nam 378
năng_suất 377
hnx 377
_thị@@ 377
chân_thực 377
bơi_lội 377
chia_rẽ 377
nhân_đạo 377
ye@@ 377
ren@@ 377
tủy 377
uận 377
hoàng_anh 377
mê_mẩn 377
mệnh_@@ 377
nối_liền 377
nhà_tù 377
dầu_lửa 377
giằng 377
vpf 377
phi_đao 377
diệp_thanh 377
ầu 376
bùng_phát 376
càn_quét 376
vẩy 376
quá_độ 376
óng 376
từ_ngữ 376
man_@@ 376
vịn 376
rome 376
bỗng_chốc 376
ferrari 376
gớm 376
dũng_khí 376
hoằng 376
phạm_dao 376
tống_gia 376
/2014 375
thành_bại 375
ds 375
mon@@ 375
cam_@@ 375
rượu_vang 375
xốc 375
dụi 375
_vương 375
thương_tổn 375
thu_nạp 375
cạy 375
đượm 375
giảng_giải 375
hổ@@ 375
trống_không 375
thành_cát 375
thanh_lan 375
khâm_sai 375
fache 375
._tại 374
thầu 374
p.@@ 374
khách_mời 374
hoàng_th@@ 374
phẩy 374
vinh_hạnh 374
atilde 374
nhấp_nhô 374
ngày_trước 374
chúi 374
phu_@@ 374
kiêu 374
nhân_tình 374
xâu 374
thế_huynh 374
-- 374
vạn_tuế 374
hannah 374
xung_lang 374
xấp_xỉ 373
ít_ỏi 373
nhàn_rỗi 373
cal@@ 373
nối_tiếp 373
_thủ 373
hoa_sen 373
nhỏ_nhặt 373
nhũn 373
lóng_lánh 373
thu_nhận 373
tiều_tụy 373
chấn_chỉnh 373
giằng_co 373
tuất 373
nhảy_nhót 373
tư_bản 373
hannibal 373
đen_sì 373
ửng_hồng 373
chả_trách 373
sư_huynh_đệ 373
chú_tâm 372
phú_yên 372
ời 372
ranh 372
hy@@ 372
bước_đầu 372
thịnh_vượng 372
rô@@ 372
quan_lớn 372
trống_trải 372
giao_tranh 372
cận_vệ 372
phủi 372
jeff 372
hélène 372
nhớn 372
xa@@ 371
thôi_thúc 371
bắt_lấy 371
bướu 371
cổ_truyền 371
trườn 371
len_lỏi 371
vui_nhộn 371
phê 371
độn 371
thành_danh 371
bugatti_veyron 371
thanh_quang 371
nhà_quê 371
thầy_tu 371
quả_phụ 371
sai_bảo 371
nhà_băng 370
toàn_@@ 370
cla@@ 370
10-@@ 370
ử@@ 370
ghi_điểm 370
quá_sức 370
phô 370
mịn 370
ú@@ 370
tê@@ 370
ưỡn 370
mượt 370
ngấm 370
bảo_bối 370
âu_@@ 370
hũ 370
chim_@@ 370
khoảng_trống 370
ủ_rũ 370
tang_lễ 370
thoả_mãn 370
chu_toàn 370
kiếm_khách 370
tú_tài 370
cầm_quyền 370
nguyên_hiển 370
lẫm_liệt 370
ao_@@ 369
dấn_thân 369
91 369
rủi 369
tràn_trề 369
cai 369
qu 369
bằng_phẳng 369
phê_phán 369
ơng 369
chanel 369
trụ_trì 369
ân_tình 369
khuyển 369
quan_công 369
monk 369
tái_tạo 368
nhưỡng 368
2_, 368
cáu 368
ria 368
phòng_bị 368
văn_th@@ 368
7863 368
vùn_vụt 368
biến_chuyển 368
bặt 368
thần_diệu 368
cõi_đời 368
hầu_tòa 368
thảng_thốt 368
sẳn 368
claudia 368
thát_đát 368
hồi_sinh 367
cá_mập 367
98 367
tất_yếu 367
xấp 367
lí_do 367
rảnh_rỗi 367
ch_@@ 367
phô_trương 367
chụp_ảnh 367
thiếu_máu 367
dị@@ 367
ron 367
lư@@ 367
chàng_trai 367
xác_thực 367
phải_biết 367
mở_toang 367
mẹ_già 367
kết_liễu 367
làm_tình 367
tiểu_đồng 367
viện_@@ 366
không_đổi 366
resort 366
day 366
quầng 366
sấp 366
cất_giữ 366
bus 366
nhổm 366
cuộc_chơi 366
nhang 366
ly_dị 366
che_mắt 366
xuất_chúng 366
băng_giá 366
bả 366
chú_em 366
thú_thần 366
cô_ta 366
dương_công_bảo_khố 366
0o0 366
long_an 365
giảm_sút 365
_sư 365
xoắn 365
tán_dương 365
cầu_vồng 365
anh_chị_em 365
thân_mình 365
tệ_nạn 365
chửi_bới 365
tựu 365
điệu_bộ 365
địa_phận 365
nhẩm 365
bá_thông 365
quỳnh_@@ 364
góp_mặt 364
trăn 364
_long 364
phả 364
xâm_chiếm 364
tiệc_rượu 364
thực_lòng 364
oán_trách 364
kêu_gào 364
vuốt_râu 364
đánh_xe 364
dò_la 364
thống_lãnh 364
gian_tế 364
hầu_huynh 364
tuyệt_nghệ 364
hiển_hạc 364
thị_lang 364
wal@@ 363
đầy_rẫy 363
nội_tạng 363
venezuela 363
tưởng_nhớ 363
tiềm 363
rộ 363
robin 363
huyền_diệu 363
bán_đứng 363
vân_trường 363
nguỵ 363
bới 362
thí_điểm 362
tiến_trình 362
ừa 362
ster 362
trộm_cắp 362
tư_thục 362
ác_chiến 362
goetz 362
hoảng_hồn 362
ủi 362
hoá_ra 362
ernest 362
ðịnh 362
cà_sa 362
–_ngươi 362
jesse 362
đường_bay 361
vinh_danh 361
bản_sắc 361
khốc 361
tử_hình 361
ả-rập_xê-út 361
khương_@@ 361
môn_sinh 361
tí_hon 361
yết_kiến 361
giật_nảy 361
quyền_cước 361
ngô_lục_kỳ 361
thích_phương 361
nhất_cử 360
nghiêm_@@ 360
du_thuyền 360
who 360
lanh_lợi 360
thao_túng 360
phập_phồng 360
ẩy 360
ther@@ 360
máng 360
vô_phương 360
chỉnh_đốn 360
vô_duyên 360
nhân_tâm 360
cao_kiến 360
vô_sỉ 360
ngự_sử 360
thống_khoái 360
nhãn_quang 360
thành_cát_tư_hãn 360
cửu_chỉ 360
thương_tùng 360
chip 359
tand 359
2019@@ 359
thơ_ấu 359
cà_chua 359
thăng_bằng 359
cách_chức 359
phật_@@ 359
trù 359
cắm_đầu 359
thảm_bại 359
/2/2012 359
tha_tội 359
thọc 359
thình_thình 359
diệt_tuyệt_sư 359
nhân_cách 358
điệ@@ 358
6-@@ 358
hành_nghề 358
khoáng_chất 358
viện_trưởng 358
tả@@ 358
kì@@ 358
thân_nhân 358
ký_hiệu 358
gài 358
y_thuật 358
4/2 358
đom_đóm 358
biết_sao 358
210@@ 358
tưởng_niệm 358
đánh_đắm 358
ác_ý 358
nhoẻn 358
canh_phòng 358
hò_reo 358
lôi_thôi 358
cầm_tù 358
hiểm_độc 358
khổ_não 358
nhát_gan 358
nha_dịch 358
quân_sước 358
hốt_nhiên 358
it 357
thị_phần 357
._ch@@ 357
_linh 357
id@@ 357
tự_tại 357
lưu_truyền 357
ậu 357
giấy_@@ 357
tín_ngưỡng 357
trở_tay 357
vui_tươi 357
khiêm_nhường 357
• 357
tình_tứ 357
trần_truồng 357
mấp_máy 357
lão_luyện 357
chúng_bay 357
nhị_nương 357
mạnh_tay 356
1-@@ 356
quyền_hạn 356
triệt 356
hải_sản 356
ị_@@ 356
mụn 356
bánh_chưng 356
97 356
yêu_@@ 356
vô_tuyến 356
thiếu_nhi 356
24/1 356
tù_nhân 356
-_dân_trí 356
sớm_mai 356
chiến_công 356
giải_tử_nguyên 356
hành_xử 355
line 355
mexico 355
bệnh_@@ 355
đái_tháo 355
lên_cơn 355
khám_xét 355
the_@@ 355
cầu_mong 355
sáp 355
đích_thị 355
tầu 355
thệ 355
chữ_cái 355
lặng_thinh 355
mờ_ảo 355
nội_thị 355
lữ@@ 355
xử_sự 355
êm_đềm 355
biên_cương 355
hớt 355
ban_thưởng 355
330.000 354
thượng_đỉnh 354
hose 354
._s@@ 354
minh_chứng 354
90_% 354
visa 354
ảo_giác 354
khiêu_vũ 354
xương_@@ 354
cơn_sốt 354
viền 354
ăn_chay 354
liên_hoan 354
che_lấp 354
khẩu_hiệu 354
nguyên_bản 354
âu_dương_@@ 354
ma_quái 354
phó_tướng 354
___@@ 354
thần_linh 354
chói_tai 354
đánh_cuộc 354
côn_lôn 354
quỷ_quái 354
ðệ 354
tam_nhãn 354
._các 353
hội_tụ 353
xem_lại 353
bước_tiến 353
nửa_ngày 353
thiệu_@@ 353
3d 353
thuần_thục 353
tức_@@ 353
làm_bàn 353
tan_rã 353
lâm_nguy 353
cửa_xe 353
dòng_dõi 353
bàn_tính 353
tâm_pháp 353
khất_đan 353
vin@@ 352
tiềm_lực 352
chào_mừng 352
201@@ 352
fer@@ 352
tràn_lan 352
cà@@ 352
cây_xanh 352
thiết_yếu 352
phạm_văn_@@ 352
sinh_lý 352
nhãn_hiệu 352
đông_y 352
từ_liêm 352
cao_bằng 352
y_th@@ 352
nồng_nàn 352
khoanh 352
7885 352
niêm_phong 352
cựa 352
tuyệt_chiêu 352
5/12 352
lập_công 352
giọng_điệu 352
trách_mắng 352
bạch_long 352
thi_lang 352
lộc_công 352
lưu_nhất_chu 352
kim_thống 352
đình_phụng 352
1998 351
._b@@ 351
đại_sứ_quán 351
đường_cao_tốc 351
thực_khách 351
kha@@ 351
nhạt_nhẽo 351
rộn_ràng 351
giao_cấu 351
_lý 351
phạm_nhân 351
to_tiếng 351
dã_thú 351
tiên_tri 351
tử_chiến 351
tăng_lữ 351
trương_tử_thanh 351
new@@ 350
lấn 350
bơ@@ 350
bảo_lãnh 350
cọng 350
lu 350
nam_nhi 350
>>_@@ 350
nhòa 350
thôi_miên 350
vế 350
bộ_gd-đt 350
vô_tâm 350
thành_trì 350
ôn_tồn 350
đảm_nhận 349
p_l@@ 349
chuẩn_mực 349
công_sở 349
sáp_nhập 349
ỗ 349
đèn_đỏ 349
mẻ 349
yết_hầu 349
kỳ_cục 349
ảo_tưởng 349
ảo_ảnh 349
chúa_trời 349
chư_tướng 349
giao_phong 349
bá_phụ 349
/2018 348
dưới_quyền 348
hích 348
sacombank 348
my_@@ 348
nguyễn_đình_@@ 348
chế_giễu 348
mất_công 348
da_đỏ 348
dàn_xếp 348
che_phủ 348
bô@@ 348
hộc 348
viếng_thăm 348
trắng_xóa 348
giảng_đường 348
giông 348
1,000,000 348
góa 348
hoang_vắng 348
ái_tình 348
oang_oang 348
mười_bảy 348
,5 347
000@@ 347
3.000 347
86 347
p_h@@ 347
xanh_xao 347
1997 347
măng 347
ốp 347
hành_trang 347
ghen_tuông 347
mặt_đường 347
sl 347
băng_tuyết 347
thoi_thóp 347
la_liệt 347
qùy 347
coi_bộ 347
tổng_đốc 347
nhà_bác_học 347
hộ_thân 347
lưu_manh 347
vang_động 347
thiếu_lâm_@@ 347
v.@@ 346
chính_thống 346
vĩnh_phúc 346
linh_động 346
thích_nghi 346
liếm 346
tá@@ 346
thụt 346
hốc 346
bê_bối 346
7887 346
quỳ_gối 346
khả_dĩ 346
thứ_lỗi 346
nhốn_nháo 346
hiếu_@@ 346
chết_tiệt 346
quắc_mắt 346
cao_hiên 346
tỉnh_ủy 345
ự@@ 345
phòng_khám 345
thượng_lưu 345
tổng_thư_ký 345
ễ 345
bbc 345
mang_tiếng 345
hình_tròn 345
dỗ_dành 345
chồng_chất 345
quá_đỗi 345
thủ_thế 345
hillary_clinton_nga 345
thùy_trang 345
long_tuyền 345
cơ_trí 345
đương_trường 345
thạch_chi_hiên 345
lý_mục 345
thị_nữ 345
bank 344
93 344
tươi_đẹp 344
war@@ 344
đè_nén 344
robot 344
j 344
gìn_giữ 344
vô_vàn 344
rang 344
giải_mã 344
háo 344
nguyễn_thanh_@@ 344
you 344
7893 344
mái_chèo 344
bô 344
quân_phục 344
gia_quyến 344
nhãi 344
bẩm_báo 344
sĩ_khí 344
phước_@@ 343
điện_@@ 343
kĩ 343
hiệu_ứng 343
lắp_đặt 343
_ma@@ 343
diệt_trừ 343
nung 343
lê_th@@ 343
lịm 343
mari@@ 343
đọ 343
nườm_nượp 343
chòi 343
hê 343
chung_quy 343
quân_dân 343
lôi_đình 343
úy_kỵ 343
nhãn_lực 343
cút_đi 343
phi_ngựa 343
quần_thần 343
đại_cuộc 343
thiên_sư 343
hồng_thất 343
hướng_@@ 342
phú_thọ 342
dai 342
giá_bán 342
bất_tài 342
3_@@ 342
lõm 342
sở@@ 342
xay 342
ran 342
lơ_đãng 342
lao_@@ 342
sơ_suất 342
phỏng_đoán 342
ý_@@ 342
tống_tiền 342
22/11 342
rihanna 342
cai_quản 342
hồi_ức 342
thày 342
thâu_tóm 341
trang_thiết_bị 341
hòa_nhập 341
m-@@ 341
cơ_sở_hạ_tầng 341
tăng_@@ 341
làm_hỏng 341
vin 341
ắc_@@ 341
kiên_giang 341
vớt 341
s-@@ 341
sòng_bạc 341
khác_nào 341
sám_hối 341
bầu_bạn 341
cao_ngạo 341
ðại_lương 341
kị 340
thịnh_nộ 340
sản_sinh 340
khẩu_phần 340
cất_cánh 340
ế_@@ 340
xà@@ 340
wil@@ 340
kỳ_tích 340
bê_tông 340
tâm_can 340
nhỏ_nhoi 340
bách_@@ 340
dũng_sĩ 340
ðức_nặc 340
thế_dân 340
/10@@ 339
cường_độ 339
tiế@@ 339
tinh_hoa 339
chợp 339
bồ_câu 339
hoạch 339
1945 339
đỏ_ửng 339
tư_liệu 339
hăm_dọa 339
đại_úy 339
phục_tùng 339
ngôi_vị 339
28/12 339
cai_trị 339
làm_khó_dễ 339
quan_viên 339
khinh_địch 339
lưu_gia 339
loảng_xoảng 339
phá_giải 339
chi_chi 339
linh_vị 339
„_ngươi 339
vangiăng 339
nguyễn_minh_@@ 338
tây_nguyên 338
âng 338
ật 338
ỉ@@ 338
_lâm 338
hệ_số 338
cơ_duyên 338
trong_lành 338
cúm_a 338
hàn_lâm 338
u_uất 338
trẻ_thơ 338
trinh_tiết 338
cam_chịu 338
nham_hiểm 338
giấc_mơ 338
hoa_lệ 338
khí_chất 338
vĩnh_hưng 338
ceo_facebook 338
lynda 338
bà_già 338
chân_truyền 338
khoái_lạc 338
chênh_chếch 338
biến_ảo 338
mua_chuộc 338
ngô_lập_thân 338
mb@@ 337
vĩ_mô 337
ạc 337
ấ@@ 337
loét 337
_vị 337
ang_@@ 337
thanh_minh 337
cô_lập 337
ngán 337
lục_địa 337
chột_dạ 337
đối_ngoại 337
laptop 337
kì_thi 337
ĩnh 337
tháo_chạy 337
ạ@@ 337
vết_tích 337
thượng_thặng 337
quyến_luyến 337
siêu_phàm 337
cướp_đoạt 337
quần_hùng 337
khí_khái 337
đỗ_hưng 337
tử_lan 337
chu_thiên 337
gmt7@@ 337
đại_tướng_quân 336
mạ@@ 336
dầu_mỏ 336
mor@@ 336
gia_đinh 336
ngũ_cốc 336
tinh_hoàn 336
thuậ@@ 336
thiên_môn 336
gân_cốt 336
tăm 336
city 336
nước_miếng 336
biến_dạng 336
bí@@ 336
rỗng 336
ính 336
y_hệt 336
đổ_vỡ 336
triều_dương 336
không_quân 336
đứng_đắn 336
thương_gia 336
_đại 336
lưu_luyến 336
xinh_tươi 336
châu_tấn 336
csgt 336
nũng_nịu 336
tụng_kinh 336
acker 336
càu_nhàu 336
tối_hậu 336
tâm_cơ 336
hồ_xung_nghe 336
cửu_trùng 336
tuyệt_sư 336
thông_suốt 335
chức_vị 335
_lo@@ 335
h.@@ 335
suy_sụp 335
định_cư 335
hừng_hực 335
búp 335
chạy_đua 335
khuyên_nhủ 335
khen_thưởng 335
chứ_sao 335
tái_mặt 335
đại_bàng 335
cạch 335
thè 335
hư_hành_chi 335
fêlixitê 335
virginie 335
nhnn 334
thành_khẩn 334
điểm_@@ 334
tiêu_hao 334
trấn_@@ 334
ex@@ 334
ịch 334
nịnh 334
cẳng 334
nữ_thần 334
sóc_trăng 334
trách_cứ 334
ước_chừng 334
thất_lạc 334
khoác_lác 334
tòng 334
khoa_trương 334
năm_trăm 334
cái_gì 334
chiêm_thành 334
thộn 334
ngân_phiếu 334
thu_ðạo 334
nbsp 333
cương_vị 333
ban_chấp_hành 333
vào_khoảng 333
bác_bỏ 333
phân_nửa 333
công_dụng 333
khởi_nghiệp 333
soạn_thảo 333
louis 333
cao_tuổi 333
ngột_ngạt 333
cứng_đờ 333
kiềm 333
nhồi 333
nước_mắm 333
trí_óc 333
et 333
dan@@ 333
hỉ 333
hận_thù 333
ký_túc_xá 333
thoại 333
887.104 333
tư_lệnh 333
sánh_vai 333
thất_thủ 333
trang_đài 333
trào_dâng 333
thủ_tiêu 333
chửi_rủa 333
khuông 333
kiều_loan 333
tử_lăng_thầm 333
bàng_nghĩa 333
thảo_@@ 332
cáng 332
định_nghĩa 332
tích_tụ 332
ml 332
từng_trải 332
nguyễn_t@@ 332
điêu_khắc 332
ba_đình 332
dân_thường 332
quấy_rối 332
hiếp_dâm 332
thông_hiểu 332
1.980 332
diễm_lệ 332
tài_hoa 332
22/12 332
rưng_rưng 332
xếp_đặt 332
khà_khà 332
hải_lưu 332
tiên_nữ 332
lỗi_lạc 332
thế_tử 332
mal’akh 332
tích_lương 332
lệnh_hồ_đại_ca 332
giải_trình 331
bụng_dưới 331
khiếm_khuyết 331
tô_@@ 331
àm 331
vo 331
_lực 331
từ@@ 331
thành_thạo 331
cuba 331
cười_phá 331
huệ@@ 331
tuy@@ 331
11/2 331
ao_ước 331
bửu 331
lui_tới 331
triệu_vân 331
nhớ_nhung 331
ông_trùm 331
e_thẹn 331
tể_tướng 331
the_thé 331
fadette 331
hoa_vân 331
2638 331
đầu_cơ 330
q. 330
danh_giá 330
xi_măng 330
ặc 330
thụ@@ 330
sát_@@ 330
tọa_lạc 330
que@@ 330
phát_tán 330
lạnh_toát 330
ưu_@@ 330
vẩn 330
thú_thật 330
trông_cậy 330
ngân_hàng_không 330
đắc_thắng 330
ttk 330
nxb 330
trắng_muốt 330
cừu_hận 330
đui 330
ðao 330
thù_địch 329
hoàn_kiếm 329
khuynh_hướng 329
lưỡng_@@ 329
phó_hiệu_trưởng 329
tới_mức 329
nhuận 329
ver 329
ép_buộc 329
sofa 329
uấn 329
lặn_lội 329
tay_lái 329
38.050 329
yết 329
nguyễn_tấn_dũng 329
điệp_viên 329
dậu 329
lượng_thứ 329
cây_bút 329
khí_phách 329
sư_tổ 329
gideon 329
dầu_thô 328
ảo_thuật 328
_đồng 328
đơn_@@ 328
ngứa_ngáy 328
đám_đông 328
trú_ngụ 328
áp_đặt 328
tư_pháp 328
_ho@@ 328
thi_đua 328
dúi_dụi 328
ữ 328
giam_cầm 328
loáng 328
kỳ_tài 328
biết_chừng_nào 328
mắng_chửi 328
nghênh_ngang 328
hư_truyền 328
ðại_hán 328
233.977 328
622.925 328
7022 328
30.202 328
hđqt 327
r_@@ 327
94 327
phòng_@@ 327
khả@@ 327
diễn_xuất 327
tiếp_diễn 327
đồ_ăn 327
ngừa 327
dị_dạng 327
/12@@ 327
khánh_thành 327
pan@@ 327
phát_sóng 327
thổn_thức 327
khí_công 327
cắn_răng 327
cảnh_quan 327
quét_dọn 327
quốc_sư 327
lạp 327
cười_@@ 327
thiên_đ@@ 327
vương_quốc_bảo 327
hammond 327
thái_bảo 327
misca 327
bửu_khoa 327
khả_quan 326
_bình 326
tái_định_cư 326
bàng_quan 326
nội_thành 326
bất_định 326
chay 326
săn_bắn 326
dẫu_sao 326
tài_phiệt 326
quảng_châu 326
côn_sơn 326
chấn_@@ 326
mền 326
gia_cát_dật 326
du_thản_chi 326
ðỗ_cửu 326
rau_quả 325
biến_@@ 325
linh_thiêng 325
ạt 325
ốc_@@ 325
đường_thủy 325
ráp 325
khoai_tây 325
thông_thiên 325
ghì 325
vụng 325
char@@ 325
sion 325
rã_rời 325
inch 325
sành_điệu 325
truyền_đạt 325
gây_sự 325
06/03/2012 325
di_tản 325
cẩn_mật 325
ruộng_đất 325
tay_cầm 325
lý_thu_thủy 325
ưu_tú 324
trai_trẻ 324
phiền_toái 324
ct@@ 324
thức_tỉnh 324
tự_thân 324
ne_@@ 324
trở_xuống 324
bỏ_cuộc 324
chung_sống 324
suy_luận 324
tinh_nghịch 324
tột_độ 324
thương_nhớ 324
biên_@@ 324
sổ_sách 324
xa_hoa 324
chài 324
vỗ_về 324
chê_cười 324
xí 324
danh_môn 324
quê_mùa 324
quỷ_kế 324
thanh_tiên_sinh 324
truy_tố 323
hàng_hải 323
biểu_@@ 323
x_@@ 323
bong_bóng 323
quy_nhơn 323
/2011 323
ql@@ 323
87 323
an_th@@ 323
ngăn_kéo 323
cách_ly 323
2_@@ 323
bé@@ 323
dường 323
café 323
khổ_luyện 323
chữ@@ 323
yên_bình 323
xơi 323
05/03/2012 323
quật_cường 323
trịnh_đáng 323
._d@@ 322
/6 322
đổ_xô 322
sữa_chua 322
rổ 322
phú_quốc 322
nhiễu 322
thành_ủy 322
cơm_@@ 322
an_giang 322
ven@@ 322
lẩy_bẩy 322
ban_mai 322
căm_giận 322
tương_đồng 322
tiền_@@ 322
den@@ 322
thương_binh 322
nguy_nan 322
dallas 322
5/2 322
núi_rừng 322
chính_nghĩa 322
vinh_@@ 322
vắng_lặng 322
spoon 322
nực_cười 322
dĩ_vãng 322
hèn_hạ 322
đồ_long 322
ngự_tiền 322
dược_vật 322
c.i.a. 322
trịnh_thạch 322
lex 321
0.@@ 321
đồng_cảm 321
ss@@ 321
phê_chuẩn 321
loanh_quanh 321
cám 321
nghi_ngút 321
du_dương 321
ấm_cúng 321
xen_lẫn 321
buộc_tội 321
nở_rộ 321
ái_nữ 321
quá_cố 321
xuân_thân 321
xe_lửa 321
ngoạm 321
diệp_chi 321
công_thần 321
răn 321
kiếm_@@ 321
đội_trời 321
khuyên_can 321
trấn_giữ 321
ra_dáng 321
hững_hờ 321
pháp_thuật 321
thúi 321
tiểu_huyền_tử 321
illuminati 321
land@@ 320
bạch_mai 320
ướng 320
máy_vi_tính 320
tận_tình 320
màn_ảnh 320
quảng_bá 320
p_t@@ 320
martin 320
nghèo_khổ 320
vạ@@ 320
tiếp_@@ 320
hiệp_lực 320
photoshop 320
cá_voi 320
giật_thót 320
hồn_@@ 320
số_mệnh 320
nhà_kho 319
rác_thải 319
huyết_mạch 319
tiếp_tay 319
nguyê@@ 319
kiểm_lâm 319
ợ 319
_hồng 319
thoái_hóa 319
bao_cao_su 319
vô_sinh 319
don 319
kho_tàng 319
tái_sinh 319
đơ@@ 319
cha_@@ 319
thỏi 319
lạc_lõng 319
giám_@@ 319
ăn_học 319
chửi_mắng 319
bản_xứ 319
cầu_khẩn 319
bá_chủ 319
[@@ 319
lâu_la 319
nho_sinh 319
hứ 319
hỏi_nhỏ 319
–_ta 319
quyên_nhi 319
láng 318
ồi 318
vẻ_ngoài 318
thủy_điện 318
sông_@@ 318
bị_động 318
thương_nhân 318
imf 318
bur@@ 318
lâm_sàng 318
bong 318
my@@ 318
xôi 318
cấp_tốc 318
lợt_lạt 318
gọt 318
bứt 318
hạp 318
khám_nghiệm 318
nhà_ga 318
lâu_lâu 318
thăm_viếng 318
vũ_trang 318
áo_giáp 318
bát_ngát 318
diệc 318
_thần 318
cổ_động 318
cung_nga 318
cợt 318
ðạt 318
tam_cô 318
cửu_dương 318
ba_la_tinh 318
vàng_@@ 317
viettel 317
chuyên_đề 317
ết 317
hạ_cánh 317
hoa_mắt 317
đẩy_lui 317
chư@@ 317
vô_thức 317
tươi_tắn 317
khai_sinh 317
phút_giây 317
thót 317
mờ_nhạt 317
ghi_bàn 317
đương_kim 317
kiến_thành 317
tường_thuật 317
canh_chừng 317
hệ_trọng 317
khoan_thai 317
cố_chấp 317
thiên_si_đạo_trưởng 317
kiệt_lực 317
02@@ 316
đoàn_thể 316
_mar@@ 316
di_cư 316
tế_@@ 316
_vân_@@ 316
ỏi 316
trợ_thủ 316
nes 316
đất_đá 316
7891 316
trông_chờ 316
thâm_@@ 316
cam_đoan 316
diệu_@@ 316
đường_mòn 316
can_ngăn 316
31/1 316
thanh_tịnh 316
quá_chừng 316
lưu_lạc 316
thiên_chúa_giáo 316
dương_khang 316
hủy_bỏ 315
điện_lực 315
cra@@ 315
_số 315
nga_@@ 315
thanh_thiếu_niên 315
mày_râu 315
thọ@@ 315
rành 315
7921 315
cực_đoan 315
15/12 315
thân_thích 315
bài_thơ 315
hình_vẽ 315
ắt_hẳn 315
premier_league 315
lộng 315
hôn_lễ 315
thất_thần 315
nhoáng 315
đùa_cợt 315
tiểu_tốt 315
rủa 315
mù_quáng 315
thoạt_đầu 315
cu-ba 315
ứng_chiến 315
thánh_giá 315
da_dê 315
giang_đô 315
vô_lực 315
thiên_thiên_@@ 315
phu_phụ 315
vô_lại 315
phục_binh 315
/2013 314
tiền_sử 314
lây_lan 314
đoàn_viên 314
_học 314
bằng_cấp 314
phúc_lợi 314
bậc_thang 314
bộ_óc 314
điểm_cao 314
tổ@@ 314
ghìm 314
dúi 314
đụng_độ 314
tạnh 314
huýt_sáo 314
tê_dại 314
độc_dược 314
ngọc_tiêu 314
solomon 314
ngô_khảm 314
thẩm_tường 314
chuyên_@@ 313
linh_kiện 313
ran@@ 313
to_@@ 313
hoạt_bát 313
hỗn_hợp 313
tằm 313
khoẻ_mạnh 313
thất_thường 313
đê@@ 313
rãnh 313
_trung 313
bằng_không 313
hạ_lưu 313
mai_táng 313
victoria_beckham 313
thiên_thư 313
thanh_lương 313
liên_châu_@@ 313
lầm_bầm 313
huyền_soái 313
phụng_tam_@@ 313
1657@@ 313
tô_thiên_bình 313
kin 312
bồ@@ 312
cả@@ 312
nốt_ruồi 312
/11@@ 312
pierre 312
thường_thường 312
giám_định 312
sơ_tán 312
ngoại_tình 312
vô_vị 312
rứa 312
quân_thanh 312
phục_quốc 312
ô_quyển 312
nicôn 312
han@@ 311
nguyễn_xuân_@@ 311
._tr@@ 311
đoàn_tụ 311
thể_nào 311
,_5 311
cúm 311
trầm_cảm 311
gam 311
la_tinh 311
đối_kháng 311
chổi 311
giả_thiết 311
ngoặt 311
vũ_lực 311
ưởng 311
cá_tra 311
hàm_ý 311
nham 311
địa_chấn 311
đè_bẹp 311
nhậm_chức 311
cứng_cỏi 311
nói_sai 311
phật_pháp 311
khinh_miệt 311
tiến_quân 311
uyển_tinh 311
tw 310
nước_sạch 310
89 310
lưu_trú 310
ua 310
yoga 310
mong_chờ 310
soát 310
suy_dinh_dưỡng 310
ẫn 310
điều_@@ 310
hủ 310
2002 310
dăm 310
nghèo_khó 310
thỏ_thẻ 310
tầng_hầm 310
đầy_ắp 310
..... 310
nghiễm_nhiên 310
giai_điệu 310
giả_dạng 310
e_sợ 310
giáo_sĩ 310
phi_yến 310
bộp 310
đại_nghiệp 310
chung_ly_triết 310
antôn 310
bạch_quân_nghi 310
cntt 309
bến_xe 309
10,@@ 309
gặt 309
co_giật 309
khóm 309
kỳ_công 309
mail 309
một_thể 309
phàn 309
tường_vi 309
nhân_hậu 309
đại_cục 309
thế_rồi 309
chạy_@@ 309
vạc 309
nhị_@@ 309
khẩn_cầu 309
nhỏ_mọn 309
tàn_độc 309
súng_lục 309
phế_bỏ 309
tôn_bất_tà 309
tợ 309
thiên_gia 309
ry_@@ 308
trào_lưu 308
yu@@ 308
tí@@ 308
mận 308
hội_thi 308
đi@@ 308
ửng 308
vệ_binh 308
cực_nhọc 308
phúc_kiến 308
7_,_chăm 308
ngoái 308
hát_@@ 308
vãn_hồi 308
quá_ư 308
trầm_lặng 308
ðào_@@ 308
đại_nham 308
như_băng 308
tiểu_linh 308
/6/2019 307
chết_đói 307
gd 307
xoa_dịu 307
nguyên_lý 307
ac 307
đôla 307
chối_cãi 307
hăng 307
zi@@ 307
ẹt 307
uyên_ương 307
lòi 307
cực_kì 307
đàm_luận 307
cô_tô 307
hoa_khôi 307
_sĩ 307
đại_nghĩa 307
lần_mò 307
thổ_dân 307
giễu_cợt 307
vương_bá 307
thanh_nguyên 307
đáp_an 307
ủy_thác 306
khoáng_sản 306
khép_kín 306
áo_lót 306
cương_@@ 306
ích_lợi 306
óng_ánh 306
kiến_tạo 306
bênh 306
ngư@@ 306
đa_nghi 306
24/12 306
tồn_vong 306
la_ó 306
quái_gở 306
ám_hại 306
quân_chủ 306
dượng_đế 306
ji@@ 305
gd@@ 305
/7 305
81 305
ban_công 305
sa_sút 305
lâm_trận 305
ỹ 305
vóc 305
uất_ức 305
trần_h@@ 305
ngây_ngô 305
bảo_an 305
thửa 305
mắc_bẫy 305
/03 305
sâu_đậm 305
đê_hèn 305
edward 305
bành_@@ 305
sao_thế 305
thế_gia 305
trương_giáo_chủ 305
liên_hiệp 304
n. 304
xu_thế 304
fran@@ 304
hải_ngoại 304
ngộ_độc 304
tai_biến 304
ngự@@ 304
tuổi_thọ 304
ă@@ 304
xà_phòng 304
mịn_màng 304
ten 304
thở_dốc 304
_thủy 304
chicago 304
để_dành 304
cảm_phục 304
tiên_đoán 304
vô_cảm 304
khảm 304
kiết 304
cơm_nước 304
phật_tử 304
an_bình 304
bentley 304
trẻo 304
tuyệt_sắc 304
nhân_sĩ 304
đèn_lửa 304
trương_tuyền 304
hồ_nhị_tẩu 304
xúc_tiến 303
lai_@@ 303
tuần_hoàn 303
trích_dẫn 303
cảm_thông 303
lộc_@@ 303
sai_trái 303
nang 303
quá@@ 303
huân 303
miên_man 303
ai_cập 303
gian_hàng 303
2/2 303
e-@@ 303
_hà 303
trung_thu 303
lưu_chuyển 303
khổ_đau 303
tỷ_như 303
cheng 303
sony 303
la_thành 303
ngã_ngửa 303
rợn 303
chói_lọi 303
tiếp_viện 303
tha_lỗi 303
tiêu_nguyệt_ðàm 303
chu_thông 303
xê-va 303
/2@@ 302
bài_bản 302
/8@@ 302
iệp 302
khuẩn 302
gián_đoạn 302
da_gà 302
_hồng_@@ 302
tiê@@ 302
câu_@@ 302
thưa_thớt 302
khan 302
chiều_tối 302
dầm 302
phân_giải 302
phụ_lòng 302
ers 302
tráng_lệ 302
rê 302
thảm_sát 302
lật_tẩy 302
thúy_an 302
thiên_hương 302
hư_thực 302
tiên_thiên 302
uyển_nhi 302
bát_nhã 302
diêm_la 302
hoàn_xỉ 302
siêu_phong 302
raoul 302
nghỉ_việc 301
tháo_gỡ 301
cn 301
tuyên_@@ 301
nhái 301
sang_@@ 301
tập_quán 301
yến_@@ 301
lý_thú 301
kỷ@@ 301
giả_tạo 301
chần_chờ 301
khiếm_thị 301
chống_trả 301
dáng_dấp 301
đúp 301
xavi 301
biết_mấy 301
100,000_@@ 301
gia_minh 301
cố_sức 301
đánh_phá 301
châm_chọc 301
hổ_phách 301
lầm_lẫn 301
hôn_quân 301
thành_ý 301
quỷ@@ 301
khích_động 301
chiện 301
xảo_diệu 301
việt_minh 301
giave 301
ấn_định 300
nor@@ 300
hỗn_độn 300
giải_ngân 300
chuyên_khoa 300
xước 300
m. 300
ướp 300
hội_viên 300
hoa_văn 300
rẫy 300
bỏ@@ 300
biên_soạn 300
news@@ 300
lung_lay 300
nặng_trĩu 300
chơi_bời 300
/3/2012 300
]_@@ 300
hào_phóng 300
ok 300
tơi_bời 300
mấy_mươi 300
nhộn_nhạo 300
áp_chế 300
lồm_cồm 300
thao_thiết 300
le_@@ 299
hán_@@ 299
đại_đa_số 299
cộng_sự 299
đại_thắng 299
lệ_phí 299
2-@@ 299
tiêu_chảy 299
trị@@ 299
nia 299
_thương 299
ari@@ 299
ót 299
dỗ 299
khỏa_thân 299
nan_giải 299
co_rúm 299
làm_ngơ 299
bãi_@@ 299
5/2012_dịch_cúm_a 299
cửa_phật 299
tỉ_thí 299
cha_anh 299
lộc_sơn 299
nê 299
hàm_hồ 299
đoản 299
phổ_côn 299
„_t@@ 299
mục_niệm 299
tô_khôn 299
nato 298
ưu_ái 298
dế 298
un@@ 298
nhà_t@@ 298
thụy_điển 298
quần_@@ 298
nhúng 298
des 298
thô_bạo 298
thị_trưởng 298
băm 298
giỗ 298
dại_dột 298
bực_dọc 298
thiểu_số 298
nói_xấu 298
mãnh_thú 298
oanh_tạc 298
phụ_họa 298
kiếng 298
truyền_thần 298
hô_hố 298
đại_ác 298
tử_thương 298
khẩn_yếu 298
veo_véo 298
kim_lăng 298
tôn_giá 298
ðại_nham 298
ðinh_ðiển 298
thương_vụ 297
nguy_hại 297
ức_@@ 297
ầu_@@ 297
xổ 297
mật_@@ 297
đầu_độc 297
nóng_hổi 297
nội_trú 297
ap 297
mê_tín 297
suy_xét 297
hoắc 297
bá_@@ 297
dấu_tích 297
làm_thuê 297
tàu_chiến 297
di_chúc 297
200,000_@@ 297
long_trọng 297
phạn 297
thâm_độc 297
râu_ria 297
độc_địa 297
tương_kiến 297
quảng_lăng 297
giám_mã 297
gặm 296
trân_châu 296
room 296
phản_xạ 296
iểu 296
download 296
chất_@@ 296
ón 296
trái_@@ 296
ớn_lạnh 296
phụt 296
lồi 296
ấm_@@ 296
ủ@@ 296
nhường_nhịn 296
ff@@ 296
emma 296
kềm 296
bán_hoa 296
toàn_quyền 296
bỉ_ổi 296
đường_sá 296
mê_cung 296
xung_phong 296
7/12 296
miệt 296
hung_tợn 296
leng_keng 296
bellamy 296
kinh_vũ 296
pháp_môn 296
−_lão 296
tạo_dựng 295
hóa_đơn 295
giá_thành 295
chủ_@@ 295
sức_@@ 295
xoang 295
mm 295
ỡ 295
trục_xuất 295
vợt 295
tích_tắc 295
bán_chạy 295
cư@@ 295
nanh 295
nán 295
kiến_@@ 295
mobifone 295
trần_t@@ 295
tẩu_thoát 295
hào_hiệp 295
vời 295
tiếp_kiến 295
nô_bộc 295
phan_ma_lôi 295
phần_phật 295
lưỡng_hồ_bang 295
mộ_bình 295
tênácđiê 295
chu_thiên_@@ 295
4.000 294
5_@@ 294
h_@@ 294
đới 294
ta_@@ 294
mất_@@ 294
gre@@ 294
khuyến_nghị 294
già@@ 294
sang_sảng 294
bún 294
ngũ_tạng 294
biết_việc 294
nóng_ruột 294
hội_an 294
thợ@@ 294
đỏ_hoe 294
nh-@@ 294
đổi_thay 294
ứng_cử_viên 294
ký_giả 294
đoá 294
hiểm_ác 294
giờ_ngọ 294
triệu_thiên 294
thượng_quan_long 294
tiề@@ 293
xa_xỉ 293
đảm_đương 293
sài_@@ 293
en_@@ 293
quyện 293
đất_@@ 293
su 293
đại_học_@@ 293
nỗi_niềm 293
chất_phác 293
toàn_tâm 293
_dương_@@ 293
khôn_khéo 293
thủy_quân 293
gia_tài 293
_vi 293
khôi_ngô 293
mượn_cớ 293
ai_oán 293
võ_quan 293
tuyên_vĩnh 293
võ_đang 293
kỷ_thiến 293
_hóa 292
thoả_thuận 292
/7@@ 292
pv@@ 292
_sa 292
win@@ 292
cro@@ 292
_nữ 292
hoa_th@@ 292
michael 292
ân_ái 292
sùng 292
hồi_@@ 292
mai_sơn 292
phong_thủy 292
giải_trừ 292
chìa_tay 292
hoàng_my 292
khiếp_đảm 292
đại_bại 292
cải_biến 292
xung_nhi 292
soẹt 292
nhuệ_khí 292
ồng_@@ 291
thế_chấp 291
ráo_riết 291
360 291
ì@@ 291
cũi 291
mỳ 291
hoàng_mai 291
thuỷ@@ 291
phi@@ 291
thú_y 291
xoài 291
u_minh 291
ể@@ 291
cứu_hỏa 291
qua_loa 291
bụi_bặm 291
tay_@@ 291
đung_đưa 291
lóa 291
công_giáo 291
uy_@@ 291
cực_@@ 291
16/12 291
nhâm_thìn 291
_nhi 291
ra_gì 291
thành_tâm 291
làm_thịt 291
--- 291
kia_kìa 291
căm_tức 291
sớ 291
mồn_một 291
khiếu_hoá 291
„_ðó 291
tây_hồ 290
c.@@ 290
doanh_số 290
tác_hại 290
cấu_tạo 290
à_@@ 290
ượng 290
thạo 290
_hồ@@ 290
ảy 290
trầm_trồ 290
/19@@ 290
sạt_lở 290
thuỵ 290
trợ_lực 290
kính_bentley 290
ngô_thị_diễn 290
thăng_quan 290
vương_phi 290
trách_phạt 290
trại_chủ 290
nhất_tiếu 290
giác_ngộ 289
hồng_kông 289
điều_khoản 289
vậy_nên 289
ụ@@ 289
trụ_cột 289
king 289
phình 289
/2008 289
khu_@@ 289
chất_lỏng 289
id 289
củ@@ 289
sinh_tồn 289
cù@@ 289
sức_nặng 289
/3@@ 289
ben@@ 289
bõ 289
cung_đình 289
_văn 289
súc 289
năm_@@ 289
máu_me 289
-r@@ 289
xa_rời 289
rung_rinh 289
hẳn_là 289
trường_thành 289
giãy_giụa 289
chòng_chọc 289
dìa 289
nghĩa_quân 289
khấu_trọng_ta 289
địa_đồ 289
khuyến_mại 288
lập_@@ 288
khuyến_mãi 288
tâng_bốc 288
xô_đẩy 288
ld@@ 288
vít 288
ạo 288
bầu_dục 288
rộng_mở 288
vừa_vặn 288
er_@@ 288
trắng_trẻo 288
giới_@@ 288
liên_đoàn 288
sẵn_lòng 288
vân_anh 288
quảng_đại 288
hỗn_chiến 288
xích_mích 288
đế_quốc 288
sỉ_nhục 288
phong_kiến 288
hỗn 288
thiên_. 288
nóng_nẩy 288
gảy 288
nghĩa_huynh 288
châu_nhân_ký 288
vú_già 288
pazini 288
ữu_@@ 287
8.@@ 287
ft 287
khắt_khe 287
tết_nguyên_đán 287
ngon_miệng 287
iệ@@ 287
hỏa_khí 287
phần_tử 287
lùng 287
johnson 287
trí_tưởng_tượng 287
xã_hội_chủ_nghĩa 287
hẹp_hòi 287
thắm 287
tình_ái 287
há@@ 287
gan_dạ 287
đề_đốc 287
huệ_huy 287
diêu_@@ 287
khiết_đan 287
cộng_tác 286
giữa_chừng 286
trương_phi 286
viet@@ 286
ai@@ 286
3-@@ 286
86@@ 286
hp 286
/2015 286
bưởi 286
cúc_@@ 286
tam_giác 286
phe_phẩy 286
ăn_năn 286
/8 286
tính_chuyện 286
khó_hiểu 286
suv 286
tbn 286
thiên_nga 286
lãng_tử 286
rỡ 286
thấp_thỏm 286
khoái_chí 286
hà_bắc 286
n_thủ 286
quang_lâm 286
hừm 286
hồ_xung_hỏi 286
cường_đạo 286
hoàng_chung_công 286
al_@@ 285
thích_ứng 285
não_bộ 285
muôn_vàn 285
thua_lỗ 285
_mo@@ 285
trị_liệu 285
tor 285
oxy_hóa 285
thầ@@ 285
định_kiến 285
rêu 285
cốt_lõi 285
phiên_@@ 285
hyundai 285
chứt 285
đồng_hương 285
ai_bảo 285
sực_tỉnh 285
ngũ_sắc 285
nhạc_phụ 285
triều_chính 285
bất_nghĩa 285
ma_thường 285
lý_hóa_sinh 285
nóng_bức 284
can@@ 284
rìa 284
phím 284
cà_rốt 284
qui_định 284
nặng_nhọc 284
50@@ 284
diễm_@@ 284
tàn_tật 284
tiền_vệ 284
2001 284
nước_lớn 284
bách_bệnh 284
ngón_trỏ 284
nhã@@ 284
dâm_ô 284
bào_chữa 284
bi_@@ 284
nể_nang 284
cực_mạnh 284
quả_bóng_vàng 284
bài_văn 284
vía 284
cavalli 284
bạc_phơ 284
mõ 284
ôm_đầu 284
tú_phương 284
huyền_trinh 284
xương_văn_quân 284
tôn_huynh 284
dôia 284
1992 283
tham_chiếu 283
triền_miên 283
iêm 283
bốc_hơi 283
vì@@ 283
đánh_tan 283
thì_giờ 283
'_' 283
lãng_quên 283
mạo_danh 283
hợp_thành 283
cù 283
bé_bỏng 283
lợp 283
alex 283
đẩu 283
vũ_công 283
hệ_tccn 283
đao_phủ 283
uổng_công 283
sáng_quắc 283
đào_thục_nhi 283
vic 282
_phong 282
tâm_điểm 282
rào_cản 282
hiệp_@@ 282
350 282
b.@@ 282
b_@@ 282
1994 282
thể@@ 282
vừng 282
thức_@@ 282
miễn_là 282
mút 282
tạo_hóa 282
vất 282
đói_bụng 282
297 282
chuyển_@@ 282
cánh_tay_phải 282
cao_vút 282
đạo_cô 282
&@@ 282
_tâm 282
tuyên_ngôn 282
khung_cửa 282
kỳ_lân 282
linh_tính 282
cãi_vã 282
ghế_bành 282
châm_biếm 282
thư_quán 282
sằng_sặc 282
thượng_du 282
thần_lực 282
thở_hồng_hộc 282
đại_biến 282
đông_cung 282
tinh_quang 282
phụ_vương 282
khen_thầm 282
sculley 282
tắc_nghẽn 281
group 281
nhĩ@@ 281
lắp_ráp 281
ngụ_ý 281
tỉnh_thành 281
xuống_cấp 281
ốn 281
rau_@@ 281
vận_động_viên 281
gắn_kết 281
cự@@ 281
nghẹt 281
tróc 281
lên_@@ 281
chán_ngán 281
dây_cót 281
đen_kịt 281
sâu_rộng 281
vé_số 281
tồn_kho 281
mềm_lòng 281
khác_xa 281
sưa 281
bàn_@@ 281
sáng_trưng 281
mất_hồn 281
mật_vụ 281
macintosh 281
càn_rỡ 281
đạo_gia 281
thạch_môn 281
độc_thần 281
dư_nợ 280
trú_ẩn 280
ợ@@ 280
dòng_chảy 280
rạ 280
phản_bác 280
pgs 280
hòe 280
thức_uống 280
ỏ 280
áo_len 280
ser@@ 280
ĩ@@ 280
ùi 280
nhút_nhát 280
chôn_vùi 280
nháy 280
một_chốc 280
diện_mục 280
nguyên_lai 280
chính_tâm 280
dương_văn_can 280
dương_khắc 280
đại_tần 280
ðinh_xuân_thu 280
tô_phổ 280
xuất_nhập_khẩu 279
300@@ 279
cơ_khí 279
sữa_tươi 279
opec 279
bv@@ 279
phần_đông 279
chủ_sở_hữu 279
đề_kháng 279
ừng 279
quyết_@@ 279
kinh_nguyệt 279
sáng_chói 279
xúc_cảm 279
il 279
khuỵu 279
tài_tình 279
bộ_quốc_phòng 279
hoàn_vũ 279
bảo_thủ 279
cung_cách 279
ướt_sũng 279
từ_điển 279
vở_kịch 279
rịt 279
cỡi 279
nhân_thế 279
phục_khiên 279
mã_cát 279
hồ_tiểu_tiên 279
thiên_nhận 279
daswood 279
len@@ 278
_lượng 278
chức_danh 278
hội_đồng_@@ 278
công_danh 278
rick 278
bà_rịa 278
lún 278
trăm_nghìn 278
tận_tay 278
_thể 278
hôi_thối 278
ắm 278
bre@@ 278
bé_con 278
nơ 278
huân_chương 278
khoan_dung 278
thể_chế 278
lhq 278
mìn 278
hồ_nghi 278
25/12 278
beckham_benfica 278
napoli 278
tụng 278
sinh_sự 278
thâm_sâu 278
hẳn_hoi 278
quỷ_thần 278
quyền_quý 278
a_tú 278
ma_kiếm 278
tam_đệ 278
eu@@ 277
đầu_bảng 277
1980 277
ải_@@ 277
đường_kính 277
ò@@ 277
đặc_sản 277
nam_châm 277
đèn_pin 277
lỗ_tai 277
sứ_mạng 277
nội_chiến 277
vi-rút 277
số_không 277
an_táng 277
lẻ_loi 277
chấp_pháp 277
tận_trung 277
sử_địa 277
hoa_thiết_can 277
giăng_vangiăng 277
dy@@ 276
20.000 276
sti@@ 276
1999 276
ốm_yếu 276
an_t@@ 276
gừng 276
khâm_@@ 276
chen_lấn 276
_dạ 276
khiển_trách 276
gia_truyền 276
úy_@@ 276
kề_cận 276
tiếng_vang 276
23/1 276
trồi 276
kim_ngân 276
thống_soái 276
phập 276
_vinh 276
8/3_điểm 276
v-league 276
đại_họa 276
*_*_@@ 276
bất_hiếu 276
muôn_đời 276
căm_phẫn 276
chế_nhạo 276
ðịnh_dật_sư 276
tiểu_trúc_phong 276
tà_đế_xá_lợi 276
lý_tự_thành 276
lâm_bình_chi 276
quách_khai 276
ty@@ 275
nghèo_nàn 275
khó_tính 275
nghiêm_minh 275
tỉ@@ 275
4s 275
ngọc_bích 275
trục_trặc 275
phát_âm 275
a. 275
­ 275
vật_@@ 275
phai 275
hơi_lạnh 275
hơi_nước 275
mỹ_@@ 275
ograve 275
sơ_sài 275
lẩn_tránh 275
căn_cơ 275
khởi_sự 275
tiệp 275
dính_dáng 275
sân_cỏ 275
mưu_trí 275
đánh_đuổi 275
quốc_tính 275
xộc 275
khảo_thí 275
ngoằn_ngoèo 275
nhấc_bổng 275
hùa 275
bưu 275
sự_thể 275
tuần_phủ 275
tam_nương 275
trác_nhượng 275
lễ@@ 274
chuyển_tiếp 274
đị@@ 274
nhân_kiệt 274
triệu_hồi 274
siêu_âm 274
mao_@@ 274
nguyên_tố 274
bảo_trợ 274
sinh_trưởng 274
nắn 274
ar 274
ạnh 274
cực_độ 274
dĩa 274
núi_lửa 274
ấp_ủ 274
lười_biếng 274
hoàng_liên 274
thoăn_thoắt 274
ô-@@ 274
/1/2012 274
nên_chăng 274
container 274
học_vị 274
học_lực 274
uy_nghi 274
hấp_hối 274
dửng_dưng 274
hứa_@@ 274
dễ_nghe 274
hư_danh 274
trơ_trọi 274
cự_địch 274
nhậm_dao 274
ngồi_phệt 274
cơ_biệt 274
diệu_tử 274
kunadu 274
doãn_trừng 274
gen@@ 273
chật_chội 273
thiếu_tướng 273
._khoảng 273
rò_rỉ 273
pgs.ts 273
cổ_@@ 273
om 273
hình_vuông 273
dấn 273
đưa_đón 273
kềm_chế 273
ngũ_@@ 273
…_anh 273
tuyên_dương 273
xuyên_@@ 273
rúc 273
bài_giảng 273
êm_dịu 273
mãng 273
wenger 273
huyên 273
bậy_bạ 273
thô_tục 273
trác_tuyệt 273
lý_gia 273
thế_thủ 273
đà_lôi 273
huyết_ðao 273
468.000 273
định_giá 272
._đối_với 272
gánh_chịu 272
bùi 272
cần_dùng 272
vã 272
ừ@@ 272
fre@@ 272
gạt_bỏ 272
huấn_luyện_viên 272
hậu_vệ 272
ngang_dọc 272
nhà_chức_trách 272
chợ@@ 272
lể 272
hoanh 272
truy_cứu 272
amsterdam 272
quốc_hưng 272
terry 272
trung_nghĩa 272
nghĩa_địa 272
ác_quỷ 272
đại_nạn 272
lồng_lộng 272
tứ_tung 272
trung_thần 272
thâm_tình 272
tung_toé 272
thông_tri 272
chính_tông 272
khai_phong 272
mộ_dung_bảo 272
đường_toàn 272
thiện_nhu 272
p_th@@ 271
tương_phản 271
bru@@ 271
50.000 271
on_@@ 271
hoạch_định 271
hiểm_nguy 271
kích_hoạt 271
272 271
tâm_niệm 271
za 271
biệt_danh 271
khô@@ 271
bấc 271
chửa 271
xe_tăng 271
nghỉ_hè 271
mưu_sinh 271
người_máy 271
nhấn_chìm 271
hoàng_sa 271
thong_dong 271
nam_hải 271
lựu_đạn 271
lulzsec 271
đoàn_văn_vươn 271
thám_hiểm 271
tha_chết 271
biệt_hiệu 271
tự_đắc 271
tiền_sảnh 271
nhòm 271
thiên_l@@ 271
yêu_quái 271
diễm_nữ 271
lại_bộ 271
phản_loạn 271
tam_lại_tử 271
chiếm_lĩnh 270
học_thuật 270
leo_thang 270
mũi_nhọn 270
world 270
ó@@ 270
ma_tuý 270
miệt_mài 270
quyền_sở_hữu 270
nt 270
bel@@ 270
m.@@ 270
lỗ_mũi 270
lí 270
u_buồn 270
nuốt_chửng 270
tiêu_đề 270
khuy 270
ngủ_say 270
đèn_@@ 270
nôi 270
kim_hoàn 270
cuống_cuồng 270
nhân_tiện 270
phụ_tá 270
song_toàn 270
nhập_môn 270
thi_thố 270
quan_ải 270
tiêu_tiễn 270
uông_dụ_hàm 270
bất_ðồng 270
senga 270
kunađu 270
thanh_lịch 269
chỉ@@ 269
huỷ 269
ngượng_nghịu 269
ks 269
mô_phỏng 269
môt 269
hoằng_@@ 269
luống 269
_hữu 269
avg 269
rìu 269
becks 269
tỉa 269
cửa_miệng 269
sư_đoàn 269
đứng_tuổi 269
bao_xa 269
định_bụng 269
phịch 269
lâm_tự 269
chấn_kỳ 269
trần_văn_@@ 268
cho_biết 268
son_@@ 268
ze@@ 268
kali 268
ản 268
hen 268
hữu_dụng 268
pen@@ 268
ể 268
phác 268
đối_chiếu 268
hoa_đào 268
lằn 268
cùng_@@ 268
can_dự 268
bói 268
tuỳ_tiện 268
lũng_đoạn 268
chết_ngạt 268
meryl 268
streep 268
hợp_tình 268
cát_bụi 268
derek 268
cầm_thú 268
tình_lang 268
lạc_thú 268
cả_giận 268
đại_thanh 268
trương_khang_niên 268
tử_lăng_lắc_đầu 268
ngọc_thanh_điện 268
biến_sắc_mặt 268
vích-ky 268
ngọc_dương_tử 268
brandon 268
sinh_thái 267
thu_mua 267
iệu_@@ 267
tự_trọng 267
uế 267
o_th@@ 267
mắc_kẹt 267
then_chốt 267
lơ@@ 267
ôm_ấp 267
cc 267
què 267
dân_tộc_thiểu_số 267
rộn 267
hùng_hồn 267
điền_@@ 267
khôn_cùng 267
17/12 267
linh_nghiệm 267
quây 267
vô_thường 267
ưu_tư 267
phu_thê 267
đen_ngòm 267
chính_phong 267
huyết_khí 267
thiên_ca 267
._việc 266
diệt_vong 266
phụ_cấp 266
csđt 266
100.000 266
thạch@@ 266
tỏi 266
tổn 266
kìm_nén 266
_hòa 266
độc_chất 266
phân_bổ 266
mẫu_giáo 266
cân_@@ 266
ei@@ 266
chồng_con 266
đo@@ 266
/6@@ 266
bài_hát 266
dể 266
_đình_@@ 266
bùi_ngùi 266
công_phá 266
jan 266
lặng_im 266
mọn 266
[_trang 266
điểm_chuẩn 266
bất_nhẫn 266
ký_tên 266
mây_mù 266
lầm_lỗi 266
vây_hãm 266
im_phăng_phắc 266
chứng_cớ 266
xiềng 266
hầu_bàn 266
lão_bộc 266
„_vậy 266
đao_thương 266
trị_tội 266
vạn_hương 266
kỳ_@@ 265
đắt_đỏ 265
cổ_nhân 265
160 265
ỉnh 265
130 265
tiết_chế 265
trực_@@ 265
tam_bảo 265
kiến_trúc_sư 265
< 265
trả_đũa 265
cty 265
chủ_quản 265
nợ_nần 265
toan_tính 265
htc 265
cổ_kính 265
uân 265
an_nhiên 265
quái_đản 265
hoạn 265
sáng_loáng 265
hội_chủ 265
ma_nữ 265
sốt_sắng 265
thế_sự 265
ðồ_long 265
hiểm_yếu 265
trác_kiều 265
tửu_điếm 265
news_vtc_news 265
ọi 264
1,2 264
2,5 264
pha@@ 264
thai_nhi 264
thuật_@@ 264
hường 264
wo@@ 264
lỗ@@ 264
nhữ@@ 264
bồng_bềnh 264
gửi_gắm 264
sáng_@@ 264
margaret 264
mổ_xẻ 264
lo_@@ 264
hăm_hở 264
nhân_nghĩa_thương_yêu 264
ruột_gan 264
vun_vút 264
lỡ_tay 264
toẹt 264
gian_ác 264
tà_ma 264
bất_kính 264
vương_công 264
cõi_lòng 264
hắc_ám 264
bạt_@@ 264
đậu_kiến_đức 264
khoản_đãi 264
di_thể 264
trần_lão_mưu 264
bột_bột 264
quân_mã 264
bạch_phát 264
nông_sản 263
12,@@ 263
tv@@ 263
nhà_riêng 263
điển_trai 263
chị_gái 263
ngoại_tệ 263
óa 263
1993 263
hưng_thịnh 263
._nếu 263
180 263
n_tử 263
_ro@@ 263
ard 263
bất_chính 263
tầm_@@ 263
tán_đồng 263
nhân_phẩm 263
xén 263
vnm 263
van_persie 263
ngoái_đầu 263
xã_tắc 263
thôi_@@ 263
thiết_giáp 263
bất_lương 263
hạ_sơn 263
chiếu_rọi 263
nửa_chừng 263
hựu 263
khởi_binh 263
đại_đao 263
lặc 263
phủ_đệ 263
mĩm 263
bình_thời 263
lagodenko 263
27.066 263
thủ_đức 262
ầ@@ 262
nhiễm_khuẩn 262
bạc_@@ 262
ngoác 262
nhân_ảnh 262
ắn 262
dương_vật 262
chằng_chịt 262
non_nớt 262
tiến_@@ 262
mắt_@@ 262
tù@@ 262
elizabeth 262
thủy_tiên 262
giao_phó 262
cực_khổ 262
thạc 262
thủ_khoa 262
trầm_@@ 262
ngập_tràn 262
an_lạc 262
xẻng 262
mịt_mù 262
vang_lừng 262
tông_tích 262
cao_môn 262
ác_ma 262
„_ðừng 262
thiên_sách_phủ 262
dư_thượng_hải 262
bí_đạo 262
nhã_lan 262
đồng_mỗ 262
elvis_đậu 262
thông_lệ 261
cám_dỗ 261
toàn_phần 261
kích_cỡ 261
vi_chất 261
muỗng 261
tan@@ 261
ụi 261
đong 261
xuất_viện 261
thủy_triều 261
rắn_chắc 261
hùng_@@ 261
xa_lánh 261
bmw 261
to_béo 261
mers 261
èo 261
xê@@ 261
vay_mượn 261
pháp_@@ 261
iệt 261
mặc_nhiên 261
_thành_@@ 261
nương_tay 261
trứ_danh 261
18/2 261
10/12 261
cứa 261
thành_kiến 261
loáng_thoáng 261
thôn_nữ 261
toét 261
ám_hiệu 261
cần_ta 261
hoảng_công_thác 261
thiếu_long_@@ 261
giang_ninh 261
bất_kì 260
nòng 260
basel 260
ce_@@ 260
ã@@ 260
sinh_lực 260
sushi 260
bàn_phím 260
ger@@ 260
san_hô 260
tiếp_viên 260
van_@@ 260
ở@@ 260
tóm_tắt 260
rình_rập 260
thao_tác 260
linh_tinh 260
1995 260
chếch 260
kết_tội 260
tội_danh 260
xào_xạc 260
hèn_nhát 260
địa_chủ 260
lững_thững 260
cột_buồm 260
quay_phắt 260
lả_tả 260
thâm_ý 260
lệ_hằng 260
tư_mã_diệu 260
khấu_trọng_h@@ 260
chính_thị 260
„_có 260
silas 260
huyền_hoa 260
nghi_thanh 260
đăng_kí 259
thủ_công 259
96@@ 259
chiều_hướng 259
lời_@@ 259
qúy 259
ot 259
,000 259
7-@@ 259
mủ 259
cựa_quậy 259
ìn 259
cáu_kỉnh 259
sung_mãn 259
thời_sự 259
7877 259
khách_khứa 259
khắp_nơi 259
trung_đoàn 259
đông_tây 259
tập_kết 259
vđv 259
nguyễn_đức_tâm 259
dân_ca 259
khiết 259
dụa 259
chiêng 259
nông_cạn 259
rách_rưới 259
tăm_tối 259
hạt_châu 259
tan_xương 259
tam_đại 259
mẫu_hậu 259
làm_thinh 259
tây_đạo 259
xa_giá 259
chi_phái 259
ngõa_cương 259
vương_cung 259
ảo_diệu 259
olivetti 259
gr@@ 258
vina@@ 258
76@@ 258
dẫ@@ 258
tq 258
úa 258
chiếu_phim 258
vũ_văn_@@ 258
hồi_sức 258
bắp_thịt 258
lột_da 258
nguyên_thủy 258
mới_đầu 258
y_sĩ 258
khả_ái 258
song_sinh 258
nhờ_vả 258
8-@@ 258
mary 258
_hu@@ 258
công_lý 258
phùng_xuân_nhạ 258
không_khéo 258
tin_chắc 258
ielts 258
30/1 258
mục_kích 258
nguyền 258
đại_lượng 258
ôi_chao 258
saif 258
hý 258
giậm_chân 258
binh_quyền 258
thứ_sử 258
tử_lăng_đáp 258
dư_hồng 258
kịch_chiến 258
vân_soái 258
nương_dung 258
hoa_thiết_cán 258
quán_triệt 257
ten@@ 257
66@@ 257
dưa_hấu 257
/5@@ 257
liệt_@@ 257
sốt_rét 257
vệ@@ 257
qua_ngày 257
thổ_huyết 257
_gia 257
hollywood 257
kéo_@@ 257
cặn_kẽ 257
bé_gái 257
cường_quốc 257
thời_buổi 257
lực_@@ 257
nguy_ngập 257
vẩn_vơ 257
nhỏ_người_mẫu 257
bất_nhân 257
nghênh 257
photon 257
giặc_cướp 257
ba_quân 257
tông_đồ 257
gdđt_@@ 257
chủ_đạo 256
9.@@ 256
triệu_đô 256
truy_nã 256
marketing 256
quậy 256
ử 256
chi_chít 256
tái_xanh 256
con_trẻ 256
chưng 256
ợi 256
quỹ_đạo 256
20/1 256
ạp 256
thu_hà 256
/2007 256
vui_thích 256
kịch_tính 256
hồng_anh 256
sột_soạt 256
vạch_trần 256
bồ_đề 256
k-pop 256
10:@@ 256
thợ_săn 256
trung_tá 256
lạ_mặt 256
hờn 256
cuội 256
miệng_lưỡi 256
vỗ_ngực 256
há_mồm 256
ðộng 256
ðiện 256
hoàn_nhan_khang 256
lệnh_ái 256
hầu_cương 256
sàigòn 256
chu_bá_thông 256
thiếu_nguyên 256
thpt.sau 256
._đây 255
4.0 255
quán_quân 255
2030 255
mac 255
30.000 255
tái_diễn 255
tem 255
hợp_ý 255
chướng 255
quỵ 255
khắc_khổ 255
ngón_chân 255
dã@@ 255
thuốc_men 255
xốp 255
kính_nể 255
đậm_đà 255
bốc_lửa 255
nhỏ_giọt 255
kết_cấu 255
ôm_chầm 255
dùi 255
xót 255
cộng_hòa 255
có_một_không_hai 255
gán 255
ẩn_tàng 255
gùi 255
tường_trình 255
eo_biển 255
kẻ_gian 255
mưa_tuyết 255
hò 255
đồn_điền 255
nadal 255
gian_trá 255
cốt_nhục 255
cướp_lời 255
thái_hư 255
khinh_bạc 255
trọng_viễn 255
„_nếu 255
gia_luật_hồng_cơ 255
thiên_nhân_viên 255
062019 255
cao_tầng 254
iện_@@ 254
kho_báu 254
thất_thoát 254
/4@@ 254
ực_@@ 254
ẻ 254
lạ@@ 254
nhập_@@ 254
cs@@ 254
thuần_khiết 254
ũ@@ 254
đánh_trống 254
én 254
thuyết_trình 254
vô_vọng 254
eacute 254
nhẽ 254
đổi_giọng 254
àn_@@ 254
chân_mày 254
hăm 254
hơ 254
đông_đô 254
chơn 254
pháo_hoa 254
rút_cuộc 254
nhân_duyên 254
rỗi 254
hết_hồn 254
thực_dân 254
bất_hòa 254
khôi_hài 254
ngào_ngạt 254
tam_bí 254
di_lặc_giáo 254
052019 254
._nhiều 253
thú_vui 253
kiểm_chứng 253
thầy_lang 253
ường_@@ 253
hoạt_@@ 253
_dung 253
li_ti 253
cưỡng_bức 253
mất_trí 253
xế_chiều 253
vô_giá 253
hói_đầu 253
thầm_kín 253
7/11 253
tiến_hóa 253
thèm_khát 253
tiếng_@@ 253
mây_khói 253
thôi_việc 253
vcb 253
thuốc_nổ 253
đại_hiệp 253
12/2011 253
nghê 253
chui_lọt 253
rách_nát 253
ụp 253
mặc_@@ 253
khai_quật 253
kiếm_hiệp 253
tửu_quán 253
hiền_huynh 253
phước_oai 253
đại_dũng 253
quan_tây 253
lăng_sơ_bát 253
_hiền 252
10.@@ 252
ưa_chuộng 252
tế@@ 252
hạt_@@ 252
ột 252
nguyễn_tr@@ 252
âm_đạo 252
quốc_tuấn 252
tiếp_sức 252
phông 252
phán_xét 252
tịch_thu 252
toà_án 252
31/12 252
sư_trưởng 252
bão_táp 252
tottenham 252
thảm_kịch 252
đàn_em 252
dây_xích 252
đại_loại 252
phóng_hỏa 252
diễn_văn 252
tộc_trưởng 252
than_ôi 252
bi_ai 252
dây_cương 252
thấp_kém 252
hán_tử 252
ô_hay 252
vô_thượng 252
lương_đô 252
mông_ngao 252
tạ_gia 252
tạ_nam 252
ðại_lý 252
trần_đại_dũng 252
clericuzio 252
ngô_hán_thanh 252
chung_linh 252
vương_hãn 252
tic 251
vỏn_vẹn 251
1/2019 251
_le@@ 251
ps 251
sho@@ 251
mer 251
óa_@@ 251
cứu_trợ 251
ỏ@@ 251
ễ@@ 251
xoá 251
xanh_lè 251
phương_cách 251
chủng_tộc 251
sống_còn 251
hà_thành 251
phi_hành 251
dần_dà 251
el_@@ 251
tìm_tòi 251
chung_thân 251
bán_đảo 251
lòng_dân 251
gia_chủ 251
tripoli 251
đắm_đuối 251
hồi_ký 251
cớ_sao 251
nghiêng_ngả 251
chủ_soái 251
tiên_sư 251
chu_xán 251
chu_triệu_long 251
tống_thanh_thư 251
eileen 251
ina 250
thánh_địa 250
thể_loại 250
thầm_lặng 250
eri@@ 250
buồng_trứng 250
khế 250
nghi_ngại 250
đành_chịu 250
ãn 250
tạm_trú 250
toàn_thắng 250
betty 250
xe_ôm 250
tương_tư 250
yvonne 250
niên_kỷ 250
thiên_la 250
phùng_mậu 250
dã_hạc 250
chó_đẻ 250
bạch_thế_kính 250
pm_gmt7ngày 250
bắt_mắt 249
ập_@@ 249
lâng_lâng 249
khang_@@ 249
ngày_sinh 249
phân_bố 249
mes 249
đo_lường 249
nội_trợ 249
nóng_bừng 249
hòa_giải 249
phong_thanh 249
quệt 249
lỗ_thủng 249
hời_hợt 249
14/11 249
cưỡng_hiếp 249
mặt_trắng 249
di_dời 249
al-@@ 249
tâm_phục 249
henry 249
ồn_@@ 249
kim_jong-un 249
thuỷ_thủ 249
kiều_linh 249
diễu 249
vô_tri 249
thánh_mẫu 249
hoàn_hồn 249
hung_@@ 249
thuyền_bè 249
nam_dương 249
vọng_tưởng 249
vnthuquan 249
tự_tận 249
biata 249
1996 248
nn 248
/2019 248
than_vãn 248
anh_tuấn 248
ược 248
ngậm_miệng 248
nhợt 248
mal@@ 248
iên_th@@ 248
ĩ 248
way 248
he 248
cre@@ 248
tổng_biên_tập 248
quây_quần 248
ul@@ 248
nghị_sĩ 248
361 248
xao_động 248
cầm_đồ 248
nv@@ 248
_lý@@ 248
nhẹ_tênh 248
cửa_mở 248
giai_@@ 248
ngay_thẳng 248
người_lạ_mặt 248
rào_rào 248
ngồi_phịch 248
hành_hình 248
giáp_công 248
hắng 248
phương_di 248
chiếm_cứ 248
«@@ 248
tịch_ứng 248
„_ðã 248
ðầu_ðà 248
trần_hữu_lượng 248
1973 247
44@@ 247
13,@@ 247
pla@@ 247
atm 247
quả_tang 247
giầu 247
rô 247
úng 247
phụ_@@ 247
mứt 247
let 247
trữ 247
chặn_đứng 247
quý_mến 247
thốn 247
quyến 247
david 247
ại 247
chu_vi 247
tương_xứng 247
tua 247
lĩnh_hội 247
giáo_dục_phổ_thông 247
séc 247
ăn_cướp 247
hết_sạch 247
bảo_ngọc_@@ 247
bưu_thiếp 247
lành_lạnh 247
chí_tôn 247
lệnh_@@ 247
nam_vương 247
phong_bế 247
bexi 247
đổ_lỗi 246
điều_tiết 246
nguyễn_trãi 246
ẽ@@ 246
cường_tráng 246
giản_đơn 246
loang 246
_mai 246
toàn_vẹn 246
sai_lệch 246
ậu_@@ 246
lưu_động 246
động_trời 246
tom 246
tất_thảy 246
nhà_ăn 246
hoành_@@ 246
bạ 246
tuýt 246
đói_rách 246
tila 246
gia_sản 246
1248@@ 246
huơ 246
ống_nghe 246
lui_binh 246
trương_huynh 246
perắc 246
thủy_sư 246
thát_ðát 246
cảnh_lăng 246
đông_tử 246
đenphin 246
giles 246
times 245
phơi_bày 245
bro@@ 245
nguời 245
đi_đứng 245
b. 245
bạn_tình 245
inter@@ 245
tử_t@@ 245
ngót 245
du_hành 245
hứng_khởi 245
di_vật 245
chịu_@@ 245
chi_viện 245
dục_vọng 245
chướng_ngại 245
thảm_đỏ 245
lỡ_lời 245
vãi 245
lâm_chung 245
hùng_hổ 245
béo_mập 245
truyền_tin 245
vừa_nãy 245
diêm_vương_tôn 245
cứ_điểm 244
11,@@ 244
thăng_hoa 244
ạc_@@ 244
phi_thuyền 244
dd@@ 244
suy_tim 244
giúp_ích 244
gan_@@ 244
tuệ@@ 244
quang_th@@ 244
chính_trị_gia 244
7915 244
cao_nguyên 244
chữ_số 244
marie 244
/10/2011 244
montgomery 244
đón_chào 244
hiếu_thắng 244
tranh_@@ 244
cứu_vớt 244
vỹ 244
bất_phân 244
tạp_hoá 244
đáo_để 244
kín_mít 244
dương_dương 244
đàm_đạo 244
khinh_khỉnh 244
đằng_đằng 244
tứ_tán 244
tất_là 244
bôn_ba 244
thợ_rèn 244
lần_lần 244
tần_thủy_hoàng 244
hảo_ý 244
vũ_văn_hóa_cốt 244
trường_thương 244
đại_đường 244
bảo_tượng 244
a_tử@@ 244
set 243
1989 243
dằn_vặt 243
ảng 243
dai_dẳng 243
tính_@@ 243
ghim 243
ngoan_cố 243
mercedes 243
thần_thoại 243
gợn 243
dinh_thự 243
mandala 243
sôi_sục 243
tính_sổ 243
quan_họ 243
ồ_@@ 243
thuỵ_sĩ 243
lễ_cưới 243
lất_phất 243
tán_tỉnh 243
thi_hài 243
ngôn_từ 243
neutrino 243
trận_địa 243
xẻo 243
thường_tình 243
toàn_thư 243
vỗ_đùi 243
báo_ứng 243
báo_cừu 243
hư_ngạn 243
vô_vi_đạo 243
đại_ma_tôn 243
dương_thiết_tâm 243
dặn_bảo 243
vân_mộng 243
dra@@ 242
duyên_hải 242
._năm 242
_mã 242
lỳ 242
lli@@ 242
đấu_thầu 242
nước_đá 242
mà@@ 242
họ@@ 242
nghệ@@ 242
_hạ 242
ẹ 242
1991 242
mai_sau 242
dẻo 242
thân_ái 242
lâm_đồng 242
đầy_đặn 242
rạn_nứt 242
1/12 242
thân_thuộc 242
ú_ớ 242
xuân_hương 242
phồn_hoa 242
văn_kiện 242
festival 242
vị_@@ 242
kì_lạ 242
ruột_thịt 242
thẳng_tay 242
mọp 242
thọt 242
dây_dưa 242
kiêu_căng 242
hậu_đường 242
bạch_mi 242
bất_giới_hòa_thượng 242
hầu_lượng 242
hoàn_nhan 242
thừa_sai 242
ðan_nhi 242
ðại_nương 242
trump 241
ăm 241
ây_@@ 241
iết_@@ 241
_sao 241
hộ_khẩu 241
ker 241
ho_khan 241
natri 241
iên_h@@ 241
quyên_góp 241
căn_nguyên 241
hoàng_tộc 241
thường_@@ 241
mơ_tưởng 241
kỉ 241
kon_tum 241
gay_go 241
vĩnh_biệt 241
sinh_khí 241
tươi_tỉnh 241
ém 241
cây_đèn 241
sát_cánh 241
hiền_hòa 241
ghi_âm 241
hợp_tác_xã 241
119@@ 241
kiệt_tác 241
liên_hoan_thơ 241
lục_lọi 241
chiến_trận 241
lộn_nhào 241
tử_vi 241
đào_thoát 241
danh_tướng 241
kappa 241
ái_chà 241
ðỗ 241
lặc_miệt 241
5_% 240
chế_@@ 240
khuấy_động 240
báo_danh 240
ali@@ 240
sen@@ 240
tiện_thể 240
kê@@ 240
ụy 240
cứng_nhắc 240
ngồi_bệt 240
mưa_rào 240
gia_cảnh 240
dù_rằng 240
lè 240
ros 240
chao_đảo 240
16/1 240
mở_mang 240
thúc_thủ 240
phản_biện 240
mương 240
kê_khai 240
302 240
cư_ngụ 240
ghen_tị 240
khắc_khoải 240
ngai_vàng 240
đinh_la_thăng 240
miles 240
ác_cảm 240
hồng_nhan 240
mưu_lược 240
chết_thật 240
_huynh 240
nhất_thống 240
u_châu 240
trừng_quang 240
chế_phục 240
lôi_phương 240
lý_yên_yên 240
veronika 240
hđnd 239
ban_bí_thư 239
vietnam 239
ẩn_ý 239
che_chắn 239
mb 239
quy_tụ 239
dưới_đây 239
văn_thư 239
khán 239
33@@ 239
os@@ 239
lương_khô 239
lởm_chởm 239
hoài_bão 239
đơ 239
bơ_vơ 239
chính_sự 239
tinh_anh 239
gióng 239
áp_bức 239
rất_mực 239
2012_thị_trường 239
kim_jong-il_nhà 239
dở@@ 239
suzuki 239
láo 239
lăm_lăm 239
giao_du 239
chí_khí 239
trường_lạc 239
thê_tử 239
sắc_chỉ 239
chưởng_@@ 239
tiểu_tướng 239
nhất_tâm 239
vân_dương_tử 239
nguyễn_tinh_trúc 239
huỳnh_ỷ_vân 239
lăng_hạo 239
thiên_hải 239
rộng_lượng 238
lạ_lẫm 238
cao_ngất 238
tin_vui 238
lâm_nghiệp 238
fdi 238
gây_dựng 238
_re@@ 238
tn@@ 238
rốn 238
nặng_nhẹ 238
uyên_@@ 238
vằn 238
th_@@ 238
ượng_@@ 238
xương_sườn 238
im_@@ 238
đánh_bật 238
anderson 238
sao_chép 238
maria 238
bao_quát 238
chủ_nghĩa_xã_hội 238
sung_túc 238
dông 238
trượt_tuyết 238
li_@@ 238
nhân_nhượng 238
linh_cữu 238
mùa_xuân 238
hùng_dũng 238
wikileaks 238
2012_nhiều 238
dầu_vụ 238
vĩnh_cửu 238
chữ_nghĩa 238
vệ_@@ 238
dơ_bẩn 238
lịch_duyệt 238
trần_tục 238
đở 238
sát_thân 238
hung_tàn 238
phong_thanh_dương 238
„_hãy 238
thần_hồn 238
„_ðổng 238
chướng_khí 238
vietcombank 237
bồ_đào 237
op@@ 237
thăng_tiến 237
cl@@ 237
ức_chế 237
cửa_ngõ 237
_hương 237
nhân_sâm 237
ảo_@@ 237
hội_ngộ 237
đàn_anh 237
gia_bảo 237
thanh_phong 237
bình_tâm 237
tay_ba 237
mời_@@ 237
công_trái 237
jean 237
_đứng 237
27/12 237
nguyên_tiêu 237
chú_tiểu 237
đệ_nhị 237
liễn 237
chẳng_thà 237
làm_hại 237
thân_chinh 237
ẩn_giấu 237
nhẫn_nhịn 237
tổ_tông 237
tiền_đồ 237
bớ 237
một_hơi 237
toán_tử 237
iv 236
quý_@@ 236
nước_thải 236
_liệu 236
kiên_@@ 236
lênh_đênh 236
quýnh 236
đậu_@@ 236
váng 236
phương_anh 236
9x 236
43@@ 236
cửa_khẩu 236
george 236
xe_gắn_máy 236
tai_tiếng 236
303 236
dễ_dãi 236
kế_vị 236
n_thân 236
xoay_xở 236
lập_cập 236
phong_th@@ 236
sgk 236
khảo_cổ 236
khoảnh 236
giải_vây 236
tài_nào 236
mạo_muội 236
ðặng_@@ 236
cười_ồ 236
bạch_ngọc 236
tiểu_thơ 236
tam_tuyệt 236
hành_chi 236
lưu_kim_đính 236
hồng_tử_xuân 236
tiểu_hoàn_@@ 236
bạch_thanh_nhi 236
mađơlen 236
ba_lê 236
kodensky 236
_tỉ 235
giới_chức 235
vnd 235
_sở 235
tủi_thân 235
phòng_tránh 235
cơ_tim 235
xung_kích 235
lạc_hậu 235
đống_đa 235
nhử 235
giọng_hát 235
ca-@@ 235
tài_tử 235
nhiếp_ảnh 235
thân_quen 235
buồn_buồn 235
1974 235
_lộ 235
giác_@@ 235
lòng_đường 235
4_lễ 235
đính_hôn 235
bá_vương 235
huê 235
tâm_thức 235
đạo_phật 235
lé@@ 235
viễn_@@ 235
hồn_phách 235
thao_thao 235
qui_củ 235
cảo 235
bạt_tai 235
đỡ_lời 235
chân_chạy 235
gennaro 235
bạt_nghi 235
lục_mạch 235
ngừng_tay 235
vương_tiễn 235
tống_lỗ 235
tiếp_nối 234
ọc_@@ 234
125 234
–_t@@ 234
nguyễn_l@@ 234
bể_bơi 234
chàm 234
electron 234
hứng_chịu 234
ữa 234
gội 234
tra_cứu 234
đóng_băng 234
phản_@@ 234
xát 234
điện_toán 234
phù_@@ 234
nhân_công 234
ât 234
thân_tình 234
vui_đùa 234
jennifer 234
duy_@@ 234
_mặt 234
nơm_nớp 234
sạp 234
/06/2019 234
đăng_@@ 234
huống 234
san_sát 234
trọng_th@@ 234
8/12 234
học_bạ 234
cổ_vật 234
náo_động 234
cá_sấu 234
rầm_rập 234
nôm 234
thều_thào 234
chư_tăng 234
xuất_binh 234
nam_trang 234
lệnh_đường 234
ðại_hữu 234
long_môn 234
phăngtin 234
trọng_tôn_long 234
tích_nhân_@@ 234
lý_tiểu_hổ 234
tỹ 234
phơrăng 234
._ʺ 234
._thí_sinh 234
kỉ_niệm 233
phân_trần 233
nhà_cái 233
bắt_đầu_từ 233
flc 233
ol@@ 233
nha@@ 233
hải_âu 233
zo@@ 233
hư_hại 233
iều 233
đả_thông 233
đường_huyết 233
đu@@ 233
bi_quan 233
tri_ân 233
máu_@@ 233
cạn_kiệt 233
mắm 233
quái_@@ 233
sông_nước 233
hy_@@ 233
đắc_@@ 233
sexy 233
cói 233
vật_tư 233
mai_phương_thúy 233
khêu_gợi 233
chiêu_đãi 233
đề_bạt 233
mật_khẩu 233
cây_nến 233
cướp_biển 233
khoa_học_gia 233
đường_hoàng 233
danh_sĩ 233
khói_lửa 233
phóng_túng 233
chúc_tụng 233
thút_thít 233
chí_mạng 233
xiêu 233
tuyệt_không 233
khoái_trá 233
tiểu_liên 233
giả_trang 233
đường_cái 233
quân_bảo 233
âu_dương_khắc 233
gia_luật_@@ 233
đinh_tàn 233
gdđt_sơn_la 233
xh 232
1985 232
khổng_tử 232
nói_bừa 232
’s 232
đùng 232
cy@@ 232
thu_giữ 232
2-3 232
4_@@ 232
khàn 232
tòa_soạn 232
trĩ 232
uyện 232
ui 232
cốt_@@ 232
máu_huyết 232
glôcôm 232
đảo_ngược 232
choáng_ngợp 232
_lão 232
tel 232
lập_nghiệp 232
phớt_lờ 232
con_ngươi 232
cùng_chung 232
sao_@@ 232
cố_@@ 232
thanh_hải 232
276 232
uefa 232
lăng_nhăng 232
trộm_cướp 232
tục_ngữ 232
chính_tà 232
thiết_tưởng 232
nền_trời 232
cam_lòng 232
tà_môn 232
đại_đạo 232
tiểu_tỳ 232
„_ðêm 232
căn_tiên 232
thần_đạo_giáo 232
ngân_lượng 232
tiểu_bắc 232
sylvinet 232
kan@@ 231
kate 231
thu_nhỏ 231
nội_soi 231
140 231
kiế@@ 231
nghiền 231
trí_não 231
bạo_hành 231
hen@@ 231
tinh_khiết 231
thủ_môn 231
10/1 231
trung_hậu 231
may_sao 231
làm_gương 231
day_dứt 231
gắt_gỏng 231
thừa_hưởng 231
anne 231
trông_đợi 231
xuống_đường 231
đồng_lương 231
chi_bộ 231
_môn 231
tinh_quái 231
hoá_trang 231
nhuốm 231
ghê_sợ 231
khứ 231
bấu 231
khinh_thị 231
đại_đức 231
sứ_thần 231
*_*@@ 231
sát_hợp 231
bất_phụ 231
ca_vũ 231
vưu 231
lệ_hoa 231
đinh_hãm 231
bất_tứ 231
hiệ@@ 230
st@@ 230
tầm_vóc 230
thuyền_buồm 230
new_zealand 230
40@@ 230
3g 230
_thị_@@ 230
định_hình 230
bạch_th@@ 230
mướt 230
phu@@ 230
quan_khách 230
biểu_dương 230
nhà_khách 230
sự@@ 230
bác_hồ 230
1a 230
vũ_điệu 230
cẩm_thạch 230
thay_áo 230
ẩu_đả 230
bành_trướng 230
lẽ_phải 230
ngẫm 230
nhã_nhặn 230
tiễn_đưa 230
trọng_thưởng 230
kiểu_cách 230
phúc_đáp 230
thản 230
buông_thõng 230
kẻ_sĩ 230
uy_nghiêm 230
phân_thân 230
phi_yên 230
khấu_trọng_vỗ 230
thư_sinh_cơ_thiên_khuyết 230
thần_y 230
gordie 230
phong_vân_hội 230
042019 230
đức_tính 229
liệt_kê 229
công_nghệ@@ 229
morgan 229
._cô 229
nhà_đất 229
công_nguyên 229
ối_@@ 229
hiển_hiện 229
khuyên_bảo 229
quai 229
quý_hiếm 229
lau_chùi 229
trầu 229
ry@@ 229
mạnh_khỏe 229
ước_nguyện 229
lủng_lẳng 229
nhàn_nhạt 229
ken@@ 229
thảnh_thơi 229
quý_trọng 229
lòa 229
bao_dung 229
kết_án 229
phụng_sự 229
công_tâm 229
sông_đà 229
cây_gỗ 229
phone 229
ila 229
27/1 229
cđv 229
đế_vương 229
mai_mốt 229
khổ@@ 229
thí@@ 229
nhà_thương 229
xích_lô 229
cuồng_nộ 229
hạ_du 229
máu_thịt 229
tu_đạo 229
nuốt_lời 229
toáng 229
nội_cung 229
pê@@ 229
ngu_@@ 229
thổ_địa 229
đầu_mục 229
tiêu_hậu 229
viễn_kiều 229
thánh_nhân 229
diêu_hưng 229
bạch_văn_nguyên 229
ô_quả 229
vương_minh 229
62019 229
._được 228
tsu@@ 228
phần_@@ 228
bến_tre 228
ff 228
dư_thừa 228
ngoại_hối 228
105 228
_tay 228
đói_khát 228
ol 228
nhịp_nhàng 228
quằn_quại 228
hơi_thở 228
hài_hòa 228
bạ@@ 228
kĩ_thuật 228
andre@@ 228
ino 228
tour 228
tuy_thế 228
ỏa 228
rằm 228
oxford 228
_nguyệt 228
tại_nhà 228
tăng_tiến 228
miss 228
nguy_nga 228
mấy_ai 228
ẽ 228
ẩn_@@ 228
phục_sinh 228
lí_nhí 228
song_kiếm 228
hỏi_vặn 228
đánh_lui 228
bái_tạ 228
nói_càn 228
nhi_thiếp 228
ngọa 228
trượng_khách 228
liên_tấn 228
thần_minh 228
52019 228
eximbank 227
1-2 227
buông_lỏng 227
hormone 227
dưỡng_@@ 227
tiết_canh 227
chứa_chất 227
xoa_bóp 227
sàng_lọc 227
bốc_@@ 227
mba 227
dây_@@ 227
sống_mũi 227
mải_mê 227
sơ_đồ 227
đời_thường 227
khôn_lớn 227
tươi_sáng 227
chệch 227
kĩ_năng 227
trinh_@@ 227
trường_phái 227
keangnam 227
sân_@@ 227
29/12 227
ngô_bảo_châu 227
luyến 227
lao_xao 227
câu_đối 227
bắc_đẩu 227
trầm_luân 227
thùy_dung 227
thanh_kim 227
vái_lạy 227
luyến_tiếc 227
nho_nhã 227
viên_tịch 227
càng_hay 227
tát_khắc 227
linh_dược 227
ước_định 227
đại_lực 227
sơn_trại 227
vương_hột 227
vi_an 227
nóng_giận 226
do_@@ 226
ty_@@ 226
bb@@ 226
bạc_liêu 226
gara 226
ca_mổ 226
sinh@@ 226
ôi_@@ 226
em@@ 226
đương_@@ 226
bộ_nhớ 226
cách_@@ 226
nà@@ 226
bê@@ 226
héo 226
ía 226
an_h@@ 226
nhàm_chán 226
địa_chất 226
êu 226
quái_ác 226
1979 226
tiền_giang 226
mac@@ 226
họp_mặt 226
lộ_liễu 226
vói 226
hùm 226
18/1 226
phô_diễn 226
cầm_quân 226
ừng_ực 226
giã_biệt 226
chưng_hửng 226
mây_trắng 226
lim_dim 226
cà_vạt 226
vòm_trời 226
ðịnh_nhàn_sư 226
„_nàng 226
._28 226
ny_@@ 225
/2017 225
cán_cân 225
là@@ 225
nội_tiết 225
thơm_tho 225
xịt 225
nam_bộ 225
ngưu_@@ 225
pháo_nổ 225
òi 225
thiện_@@ 225
oi 225
quần_thể 225
mõm 225
tú_anh 225
mẫu_đơn 225
girl 225
ậy 225
tấ@@ 225
đầu_giường 225
khán_đài 225
nay_mai 225
chọc_tức 225
tề@@ 225
sử@@ 225
chuộc_tội 225
hộc_máu 225
hoá_giải 225
gdđh 225
bắc_kiếm 225
huyền_thúy 225
tự_lượng 225
tiên_vương 225
tát_nhi 225
lý_băng_đáp 225
u_hồn 225
del@@ 224
bản_địa 224
gang 224
đứt_đoạn 224
đá_quý 224
sau@@ 224
việ@@ 224
los_angeles 224
ư_@@ 224
lẫy_lừng 224
chê_bai 224
á_châu 224
t_. 224
chất_chứa 224
méo_mó 224
bóng_chuyền 224
ọ@@ 224
trắng_@@ 224
54@@ 224
bỏ_sót 224
lăm 224
nhạc_cụ 224
ồm_ồm 224
èn 224
mẫu_@@ 224
vneconomy 224
long_th@@ 224
phóng_sự 224
tôn_đức_thắng 224
gmail 224
cheo_leo 224
chán_chường 224
mênh_mang 224
túi_bụi 224
tùng_@@ 224
sùng_bái 224
khẽ_khàng 224
lệnh_bà 224
xa_vọng 224
nhạc_bất_quần 224
tự_đại 224
đạo_hữu 224
lão_nhân 224
hồ_xung_lại 224
yển_sư 224
cả_mừng 224
cung_linh_thứu 224
cn@@ 223
ay_@@ 223
_điểm 223
vhm 223
ch_t@@ 223
tiêu_hủy 223
tối_ngày 223
truyền_bá 223
tửu_lượng 223
liên_hợp 223
giác_quan 223
ăn_kiêng 223
viễn_cảnh 223
tb@@ 223
moscow 223
anh@@ 223
bối_@@ 223
giải_phẫu 223
mát_@@ 223
thiết_nghĩ 223
chút_xíu 223
suôn_sẻ 223
anh_thư 223
ha_@@ 223
niêm 223
dị_nghị 223
đơn_sơ 223
quyền_@@ 223
thúc_@@ 223
ngõ_hẻm 223
vali 223
vắng_tanh 223
đkdt 223
18/11 223
nguyễn_sốc 223
balotelli 223
trần_l@@ 223
thuộc_địa 223
công_tước 223
hiềm_khích 223
dự_tuyển 223
ô_uế 223
yên_lành 223
biện_bạch 223
nói_thầm 223
ẩn_núp 223
đóng_đinh 223
tư_khoa 223
quí_phái 223
oliver 223
họ_mạc 223
nhức_óc 223
mộ_dung_thuỳ 223
–_lão 223
tô_như 223
ác_ôn 223
thiên_mộc 223
công_nương 222
lấn_át 222
mọt 222
_trưởng 222
cáo_trạng 222
bài_trí 222
dãn 222
chiêu_mộ 222
tes 222
đài_phát_thanh 222
phả@@ 222
lây_truyền 222
oxy 222
độc_tố 222
say_rượu 222
bất_cẩn 222
truyền_@@ 222
_thuật 222
lê_h@@ 222
con_chuột 222
trang_trải 222
thiền_định 222
da_cam 222
nguyễn_đ@@ 222
thèm_muốn 222
_huy@@ 222
môi_@@ 222
cấm_@@ 222
phạm_luật 222
ni_@@ 222
bằng_khen 222
thua_thiệt 222
cấm_địa 222
lắm_chuyện 222
điên_dại 222
_bang 222
vẹn_toàn 222
nam_bắc 222
thuyết_@@ 222
lớp_lớp 222
căm_hờn 222
dao_găm 222
mãnh_tướng 222
chiêu_hồn 222
tiên_nga 222
muldoon 222
dĩnh_thủy 222
vấn_thiên_@@ 222
thần_khí 222
trợn_trừng 222
hoàn_nhan_hồng_liệt 222
jennings 222
italy 221
ý_trung_nhân 221
logic 221
ựu 221
đánh_đổi 221
nhân_sinh 221
nhậ@@ 221
._thị_trường 221
hoạ@@ 221
nhức_đầu 221
hậu_môn 221
ment 221
hộ@@ 221
phong_hàn 221
ước_lượng 221
ữ@@ 221
tình_ca 221
_con 221
to_nhỏ 221
lục_phủ 221
tâm_tính 221
25/11 221
_ngọc 221
hên 221
giày_vò 221
ngồi_xổm 221
kennedy 221
hoàn_trả 221
premier_league_vff_quyết 221
falko_goetz_barcelona 221
bernabeu_basel 221
dê_rừng 221
bài_ca 221
ngố 221
tôn_sùng 221
giao_thiệp 221
si_tình 221
treo_cổ 221
nhân_vì 221
tiểu_đoàn 221
nghênh_chiến 221
lọt_tai 221
danh_gia 221
sa_trường 221
trần_đại_hiệp 221
thiếu_danh 221
cát_thiên_phong 221
khởi_kiện 220
bán_@@ 220
anh_dũng 220
trùng_vây 220
cầu_kỳ 220
thấm_thía 220
buôn_lậu 220
xuất_huyết 220
cen@@ 220
tác_@@ 220
tte 220
_trọng 220
mũ@@ 220
nhật_nguyệt 220
1970 220
tráng_kiện 220
bít 220
st_@@ 220
xiên 220
sỹ@@ 220
bác_@@ 220
_tự 220
_thế_@@ 220
lucy 220
cứng_đơ 220
-4 220
phim_hoạt_hình 220
gây_án 220
phá_huỷ 220
vietnam's_got_talent 220
emily 220
mạn_thuyền 220
mập_mờ 220
mắc_lừa 220
thương_quyền 220
co_ro 220
tư_sản 220
hả_giận 220
thông_tuệ 220
huýt 220
đại_thánh 220
capone 220
khấu_trọng_đáp 220
xục 220
đa_mưu 220
cô_ả 220
quải 220
thần_long 220
tiểu_oanh 220
lưu_hướng 220
20192020 220
bhxh 219
147 219
tương_quan 219
hộ_chiếu 219
ger 219
xã_giao 219
táo_bón 219
đạ@@ 219
tra_@@ 219
có_thai 219
ọn 219
nick 219
yếm 219
mon 219
người_hùng 219
xíu 219
lực_lưỡng 219
alice 219
vùng_cao 219
hồng_phúc 219
sco@@ 219
bóc_lột 219
11/2011 219
khốn_đốn 219
địa_danh 219
hóm_hỉnh 219
vèo_vèo 219
độ_lượng 219
ngất_trời 219
yên_thân 219
ngột 219
lễ_độ 219
phi_phàm 219
trí_mạng 219
nhân_huynh 219
điệp_báo 219
dương_tố 219
huyền_ứng 219
lê_ngọc_hàng 219
fải 219
mariuytx 219
giá_mua 218
nới_lỏng 218
bộ_luật 218
tia_@@ 218
dĩ_an 218
cận_kề 218
chèn_ép 218
p. 218
chế_tác 218
ùng_@@ 218
v.v... 218
doạ 218
cao_th@@ 218
nguyễn_hoàng_@@ 218
gốm 218
_thân 218
xa_vời 218
tà_@@ 218
uỷ_ban 218
cụp 218
77@@ 218
nhân_đức 218
khô_khốc 218
hào_hùng 218
vui_thú 218
đổi_ý 218
phân_minh 218
đắc_chí 218
đường_đột 218
nham_thạch 218
rờ 218
tà_đạo 218
ðinh_@@ 218
mật_công 218
lĩnh_giáo 218
tiểu_hồng 218
saunière 218
lão_đạo 218
-_đạo_trưởng 218
tà_kiếm 218
mai_siêu_phong 218
ðổng_thục_trinh 218
thiên_kiếm 218
bà_tử 218
3_% 217
cafe 217
dy 217
đức_tin 217
vẻ_vang 217
tiền_tài 217
_giá 217
mil@@ 217
ãy 217
minh_mẫn 217
nằm_ngửa 217
lờ_đờ 217
eng@@ 217
bệnh_nhi 217
nữ_tính 217
nhạy_bén 217
cữu 217
vậ@@ 217
chủng_loại 217
ad 217
mộng_@@ 217
bè_bạn 217
tâm_lý_học 217
stanton 217
cực_nhanh 217
bàn_cãi 217
ton_@@ 217
trác_@@ 217
y. 217
hàm_chứa 217
cầm_cập 217
phân_định 217
trung_lương 217
phục_hưng 217
n_lý 217
trừ_diệt 217
pháo_thủ 217
lì_xì 217
tam_anh 217
duẫn 217
_định 217
chinh_chiến 217
đông_đủ 217
man_rợ 217
đổ_máu 217
trí_quang 217
quyền_uy 217
ngoại_đạo 217
nhất_loạt 217
nhị_vị 217
ngụy_trưng 217
nhảy_bổ 217
thiên_ưng_giáo 217
thiên_thiên_tiểu_thư 217
càn_long 217
trần_công 217
tavi 217
ðỗ_bích 217
cơ_thiên_khuyết 217
032019 217
đồng@@ 216
hoa@@ 216
hpg 216
quí@@ 216
cáo_@@ 216
1968 216
hụt_hẫng 216
_sinh_@@ 216
vị_thành_niên 216
ộ@@ 216
shi 216
đan_mạch 216
trôi_chảy 216
ắ@@ 216
nặng_@@ 216
đầu_lưỡi 216
rời_rạc 216
ng_r@@ 216
vân_vân 216
0-@@ 216
quảng_tây 216
trũng 216
mả 216
mục_sư 216
hội_kiến 216
vẹn 216
lận 216
frank 216
/8/2011 216
anonymous 216
đỡ_đầu 216
xoè 216
ấ 216
buông_thả 216
sửu 216
khờ 216
xúi 216
yêu_quí 216
napoleon 216
ngưòi 216
đối_nghịch 216
nông_nỗi 216
yêu_ma 216
bộ_thuộc 216
ðơn 216
can_quy 216
thanh_vân_môn 216
bất_giới 216
phát_tiết 216
tiều_phu 216
huyết_châu 216
lâm_an 216
hãy_còn 216
mậu_công 216
nguyễn_văn_h@@ 215
sơ_thẩm 215
xấu_số 215
nguyễn_văn_th@@ 215
lý_lịch 215
ậ@@ 215
nhiễm_bệnh 215
iến 215
ờn 215
khí_trời 215
/9@@ 215
quận_huyện 215
than_phiền 215
quẹt 215
chiến_sự 215
chỗ_đứng 215
14/12 215
28/1 215
lamborghini_aventador_j 215
trù_ẻo 215
vu_vơ 215
nốc 215
ngoảnh_mặt 215
01/03/2012 215
thinh 215
mành 215
hải_tặc 215
chê_trách 215
soi_sáng 215
khuân 215
cửa_ra 215
đánh_thắng 215
ðánh 215
thiêm 215
tay_sai 215
ðiển 215
lạt_ma_@@ 215
nhất_đẳng 215
hà_khiêm 215
thiết_vệ 215
hệ_sinh_thái 214
ipod 214
định_vị 214
han 214
gay 214
phiền_lòng 214
đồng_thuận 214
giun 214
khớp_xương 214
cực_hình 214
rẻ_tiền 214
ận 214
gỉ 214
găng_tay 214
sưng_vù 214
chót_vót 214
up 214
trí_dũng 214
radio 214
120@@ 214
lay_chuyển 214
răn_đe 214
mậu_@@ 214
kỷ_nguyên 214
thoát_nạn 214
đàn_áp 214
nghe_ngóng 214
ngòai 214
rút_cục 214
chẳng_chút 214
chịu_ơn 214
rên_la 214
nhọn_hoắt 214
tổng_đàn 214
đoản_đao 214
lao_ðức_nặc 214
yên_dạ 214
gầm_thét 214
kỳ_phi 214
đồ_lôi 214
giorgio 214
42019 214
xx 213
qui@@ 213
_trung_@@ 213
tâm_đắc 213
_dù 213
3000 213
tự_ti 213
_đức 213
khuyến 213
chẻ 213
bon 213
noi 213
y_đạo 213
ney 213
wu 213
chúng_cháu 213
túc_trực 213
cơn_lốc 213
dìm 213
vũ_tr@@ 213
key_lime_pie 213
-_văn_hóa 213
tuyên_thệ 213
_lệ 213
thông_thạo 213
thượng_sách 213
yểm_hộ 213
sa_hoàng 213
audrey 213
hiềm 213
kinh_phật 213
đổi_hướng 213
uổng_phí 213
hoang_phế 213
nhà_lao 213
bắc_phương 213
tà_vương 213
phát_xạ 213
thiệc 213
nhĩ_văn_hoán 213
bàng_ngọc 213
﻿ 212
g_@@ 212
ky@@ 212
phiên_dịch 212
gates 212
_– 212
quảng_đông 212
_mi@@ 212
bs@@ 212
70@@ 212
nhân_quả 212
má@@ 212
hạch 212
thuyên_giảm 212
im@@ 212
xám_xịt 212
sá@@ 212
_anh 212
n_học 212
giá_rét 212
ội_@@ 212
lou@@ 212
điên_loạn 212
thanh_thoát 212
gia_định 212
nữ_@@ 212
9-@@ 212
tức_tốc 212
chuyển_dịch 212
hợi 212
xuýt_xoa 212
256 212
cấp_ủy 212
khiển 212
13/12 212
13/1 212
đặng_thùy_trâm 212
nãi 212
chúc_@@ 212
thương_mến 212
lễ_nghi 212
hỏi_tội 212
cung_tiễn 212
tôn_t@@ 212
phong_nhã 212
di_thư 212
quý_ly 212
vu_anh 212
ời_@@ 211
kén 211
lan_@@ 211
220 211
l. 211
hạn_hán 211
phim_ảnh 211
bận_bịu 211
cc@@ 211
điều_hoà 211
trầm_lắng 211
lặt_vặt 211
uố@@ 211
nêm 211
như_@@ 211
cứu_tinh 211
_li@@ 211
huyề@@ 211
by 211
_bo@@ 211
ằn 211
dành_dụm 211
nao_núng 211
thướt_tha 211
cao_thượng 211
vụ_trưởng 211
â 211
chiếm_giữ 211
lố 211
thơ_mộng 211
im_ắng 211
nhóc_con 211
trái_ý 211
cốc_@@ 211
đạo_nghĩa 211
đố_kỵ 211
ðầu_@@ 211
quơ 211
tâm_tưởng 211
chớp_chớp 211
huyết_chiến 211
nói_giỡn 211
triệt_thoái 211
11925@@ 211
nông_phu 211
gian_thần 211
ngọc_nghiên 211
cuống_quít 211
„_lần 211
tà_thuật 211
lão_đại 211
lâm_u 211
_phương_@@ 210
thống_@@ 210
thị_lực 210
eli@@ 210
khá@@ 210
sal@@ 210
_trời 210
thực_nghiệm 210
of@@ 210
cá_thể 210
nghiền_nát 210
ốm_đau 210
ghi_hình 210
chày 210
thời_xưa 210
nhân_quyền 210
bộ_chính_trị 210
tái_xuất 210
lác_đác 210
dựng_ngược 210
giao_hảo 210
ô-mai 210
bernabeu 210
pixar 210
bst 210
11:@@ 210
toại_nguyện 210
lạ_kỳ 210
kiến_văn 210
thuỷ_chung 210
ðình 210
lanh_lẹ 210
tư_mã@@ 210
võ_tướng 210
thỉnh_an 210
lục_lâm 210
đa_long 210
lục_sư 210
vib 209
nguyễn_xuân_phúc 209
phủ@@ 209
khoáng 209
phái_sinh 209
thách 209
barack_obama 209
ngs 209
got 209
tiểu_tiện 209
yế@@ 209
ngày_rằm 209
nôn_nao 209
gor@@ 209
n_r@@ 209
rạo_rực 209
bước_ngoặt 209
dù_vậy 209
rỏ 209
lạc_đường 209
đây_đó 209
thằng_nhỏ 209
hương_sơn 209
ụt 209
hậu_trường 209
6/12 209
quảng_bình_tuyển 209
12/1 209
lý_l@@ 209
pháo_đài 209
tua_tủa 209
thiên_cổ 209
như_nguyệt 209
thất_phu 209
phu_tử 209
tư_tình 209
quy_thuận 209
y_hoàng 209
„_ðây 209
ô_trác 209
tiểu_tuấn 209
công_tôn_lạp 209
nữ_trang 208
15-@@ 208
lê_đình_@@ 208
spa 208
liệu_pháp 208
_hóa_@@ 208
lành_lặn 208
quýt 208
ns@@ 208
_hội 208
uỷ_ban_@@ 208
diễn_tập 208
dù@@ 208
ĩnh_@@ 208
cóng 208
tồn 208
ls 208
trắc_bá 208
tổ_ấm 208
gầy_nhom 208
nasa 208
phích 208
bỏ_mặc 208
rỉ_tai 208
beckham 208
vĩnh_hằng 208
rồ 208
phong_trần 208
tọt 208
chường 208
thơ_ngây 208
danh_thiếp 208
trắng_toát 208
cây_đại_thụ 208
hiếu_kỳ 208
tranh_hùng 208
oai_nghiêm 208
tiểu_nhị 208
ðinh_ðang 208
cổ_kim 208
lâm_chấn_nam 208
húy 208
boo@@ 207
bđ@@ 207
ngỗng 207
lim 207
khẩu_trang 207
trình_tự 207
pe 207
ín 207
phụ_tử 207
ur 207
nhận_dạng 207
bịp 207
địa_trung_hải 207
cho_cùng 207
fax 207
bông_@@ 207
_hồ 207
ré 207
hẵng 207
nặn 207
khổ_cực 207
an_sinh 207
thuấn 207
vắn_tắt 207
giỏi_giang 207
thô_sơ 207
quyết_chí 207
tường_@@ 207
báo_giá 207
thảm_cảnh 207
hoàng_t@@ 207
mé@@ 207
chùn 207
rày 207
25/1 207
áo_mưa 207
truy_lùng 207
luận_án 207
tx@@ 207
thời_thế 207
dạ_hội 207
nõn_nà 207
giờ_khắc 207
uy_quyền 207
hậu_duệ 207
xỉu 207
thảm_thương 207
tiếp_tân 207
trọng_vọng 207
yểm_trợ 207
xây_cất 207
chạm_mặt 207
luân_@@ 207
lầm_lì 207
xong_chuyện 207
phụ_mẫu 207
khẩn_khoản 207
xưởng_trưởng 207
hổ_khẩu 207
đại_phá 207
sư_mẫu 207
thổ_phồn 207
dương_sơn 207
willoughby 207
đặc_quyền 206
‘_@@ 206
long_thành 206
15,@@ 206
to_tát 206
xịn 206
hơ@@ 206
tác_nhân 206
lê_d@@ 206
nga@@ 206
nge 206
ão 206
ến 206
tử_v@@ 206
ngo 206
chát_chúa 206
quỳnh_anh 206
quy@@ 206
ệt 206
bluetooth 206
/02/2012 206
bạo_động 206
loạn_lạc 206
thân_phụ 206
quỳ_lạy 206
góc_trời 206
rì_rào 206
hậu_cung 206
thượng_đẳng 206
mạnh_giỏi 206
thượng_lộ 206
chi_trì 206
nạp_lan 206
phong_tế_trung 206
ðàm_dược_sư 206
hiếu_sắc 206
disa 206
by@@ 205
chín_chắn 205
triệu_phú 205
chan 205
far@@ 205
hoàn_lại 205
lin@@ 205
đánh_hơi 205
diễn_tiến 205
vật_vã 205
7_@@ 205
gò@@ 205
hội_chợ 205
thần_chết 205
ling 205
cười_mỉm 205
vẹt 205
tuyển_thủ 205
vô_định 205
xuyến 205
_] 205
khám_bệnh 205
cấu 205
điện_biên 205
cố_hữu 205
chiếm_đóng 205
le_lói 205
tam_giang 205
19/1 205
530@@ 205
công_bộc 205
windows_phone 205
viện_binh 205
phép_tắc 205
giãy 205
tù_trưởng 205
thẳng_tắp 205
_danh 205
đa_đoan 205
đại_công 205
đại_hùng 205
tử_l@@ 205
chư_hầu 205
tinh_minh 205
đồng_đảng 205
thể_thống 205
ngọc_trí 205
chứng_@@ 204
thắng_cảnh 204
_vậy 204
logo 204
te_@@ 204
chọn_lọc 204
1982 204
chạnh_lòng 204
dự@@ 204
buông_xuôi 204
vũ_thị@@ 204
vành_đai 204
phòng_ốc 204
tự_giác 204
bor@@ 204
tươi_mát 204
đen_nhánh 204
uộc 204
trắng_tinh 204
15/9 204
joh@@ 204
luật_giáo_dục 204
inh_ỏi 204
hãm_hiếp 204
thành_ngữ 204
thanh_hoá 204
phán_quyết 204
lừa_bịp 204
kiếm_ăn 204
hồi_đáp 204
tình_địch 204
tỉnh_bơ 204
nguýt 204
nhân_danh 204
quỷ_sứ 204
ngao_ngán 204
truyện_dài 204
trói_buộc 204
ệnh 204
hiền_từ 204
hồ_lô 204
ân_huệ 204
thịnh_tình 204
chịu_tội 204
wozniak 204
minh_phượng 204
mãn_thanh 204
chi_tiên 204
ác_đạo 204
khấu_trọng_l@@ 204
nghĩa_đệ 204
xử_cơ 204
farewell 204
tầm_cỡ 203
3,5 203
ts. 203
bến_@@ 203
ban_chỉ_đạo 203
khấu_@@ 203
ed 203
vết_bầm 203
cò@@ 203
95@@ 203
suy_nhược 203
đỉnh_điểm 203
cậ@@ 203
thai_phụ 203
ngọc_linh 203
khuấy 203
phối_@@ 203
nuôi_trồng 203
iếc 203
ana 203
lò@@ 203
diễn_đạt 203
liếc_mắt 203
disney 203
ãi 203
cửa_biển 203
sắt_đá 203
hoàng_thiên 203
tốc_lực 203
học_thuyết 203
chúa_tể 203
mỵ 203
tung_hô 203
uyên_bác 203
mạt_@@ 203
bở_vía 203
tiêu_diêu 203
ô_ứng_nguyên 203
thiên_chính 203
phó_sứ 203
vinh_nhục 203
diên_táng 203
công_tôn_cửu 203
shar@@ 202
già_yếu 202
kiểu_dáng 202
_ly 202
hệ_quả 202
kiêng 202
công_trạng 202
dan 202
tạo_hình 202
h00 202
ạng 202
bậc_thềm 202
vc@@ 202
ẩm_@@ 202
thì@@ 202
tất_bật 202
trang_hoàng 202
cải_tổ 202
tật_nguyền 202
n_thanh 202
nhà_tắm 202
quên_lãng 202
y-@@ 202
cơ_động 202
12/11 202
bán_trú 202
không_lưu 202
chắn_ngang 202
vô_liêm_sỉ 202
bét 202
đồng_bạc 202
xuân_vũ 202
lễ_hội_ẩm_thực 202
phi_lý 202
truy@@ 202
lưu_ly 202
cứng_đầu 202
hun_hút 202
tình_thâm 202
mê_muội 202
hộ_giá 202
nết 202
diện_kiến 202
mờ_ám 202
ngang_tàng 202
đồng_bạn 202
nhu_mì 202
kha_@@ 202
giang_nam 202
ngô_sĩ 202
bá_quan 202
cáo_lui 202
bình_nhi 202
hụp 202
dịch_lâm 202
hàn_kiệt 202
hỏa_long 202
đại_tống 202
lâm_tri 202
bạch_y_ni 202
uyển_phụng 202
dự_toán 201
hậu_phương 201
2021 201
và_@@ 201
cd 201
danh_lợi 201
cục_bộ 201
one 201
đờm 201
chiếu_@@ 201
tre@@ 201
cỏ_khô 201
ise 201
tp.hcm. 201
nhăm 201
cup 201
vĩnh_long 201
hỏa_nhập 201
ngặt 201
mệt_nhoài 201
266 201
kham 201
nài_nỉ 201
vãng 201
tổng_liên_đoàn 201
vũ_bão 201
trùng_điệp 201
gia_phong 201
stamford_bridge 201
phương_tây 201
04/03/2012 201
hò_hẹn 201
thư_pháp 201
hoang_@@ 201
tùy_@@ 201
thùy_vân 201
tôn_nữ 201
vinh_hoa 201
thất_truyền 201
chạy_loạn 201
triết_gia 201
đánh_trận 201
_lòng 201
nhà_tranh 201
toàn_gia 201
dụng_binh 201
buột 201
võ_khí 201
vấn_an 201
hải_sa 201
an_ngọc_tình 201
hiễu 201
tam_trang 201
tử_trạch 201
phan_nam 201
phùng_như_nguyệt 201
đông_lạnh 200
._còn 200
biểu_quyết 200
trò@@ 200
nuối_tiếc 200
quan_ngại 200
500.000 200
chế_tài 200
đồ_án 200
ửng_đỏ 200
sảy 200
str@@ 200
đầm_ấm 200
trung_học_phổ_thông 200
thủ_trưởng 200
đươc 200
sục 200
đuợc 200
tích@@ 200
_chí@@ 200
1972 200
lết 200
tinh_tử 200
sàm_sỡ 200
ng_hải 200
thẩm_tra 200
nguyễn_phú_trọng 200
ỳ 200
khoan_hồng 200
bội_phần 200
nguyễn_huệ 200
la_liga 200
nhẹ_tay 200
tê_tái 200
bóp_cổ 200
tối_mịt 200
bão_tố 200
mã_lực 200
hào_hoa 200
lhp 200
bập_bùng 200
túng 200
hẹn_ước 200
_hầu_@@ 200
cố_nhân 200
đông_kinh 200
chút_đỉnh 200
hô_hô 200
trường_xuân 200
tony 200
như_không 200
lý_thế_tích 200
tiểu_trọng 200
phần_hương_cốc 200
hân_ly 200
giải_thể 199
khai_báo 199
1_% 199
nhôm 199
toản 199
thiện_chí 199
_an 199
ghi_chú 199
số_ít 199
ươ@@ 199
1/3_số 199
cli@@ 199
chăm_chút 199
liên_h@@ 199
…_h@@ 199
đau_ốm 199
a.@@ 199
ầy 199
gián 199
thâm_niên 199
hình_thể 199
7849 199
hoàng_thị@@ 199
đưa_đẩy 199
ển 199
lãnh_địa 199
ẫm 199
du_mục 199
ật_@@ 199
p2 199
phượt 199
long_đình 199
duyên_@@ 199
ông_cụ 199
chinh_phạt 199
tán_tụng 199
quở_trách 199
tro_tàn 199
rừng_rực 199
quay_ngoắt 199
chiêm_bao 199
quân_cờ 199
phất_phới 199
xuất_chinh 199
trương_tiệp_dư 199
andré 199
di_ngôn 199
cao_lăng_quân 199
ô_thị_lô 199
thục_nhi 199
chu_ðiên 199
dự_@@ 198
kremlin 198
14,@@ 198
lễ_tang 198
phó_tổng_giám_đốc 198
hồ_hởi 198
n_lực 198
115 198
tennis 198
piano 198
nhãy 198
dor@@ 198
dở_dang 198
âm_lịch 198
thớ 198
thõng 198
ặt 198
bày_biện 198
7917 198
luân_phiên 198
trúc_lâm 198
tình_yêu_thương 198
nhục_mạ 198
côn_minh 198
nhơ 198
huých 198
mông_@@ 198
lừ 198
xỉ 198
ajax 198
xác_ướp 198
viễn_đông 198
tan_tác 198
bob 198
bần_thần 198
_thiên 198
khuất_@@ 198
độc_tài 198
hoan_lạc 198
dung_tha 198
lảm_nhảm 198
thê_thiếp 198
phục_sức 198
hất_hàm 198
áo_gấm 198
ðứng 198
dã_cẩu_đạo_nhân 198
thiết_sĩ_tâm 198
phạm_minh 198
tôkita 198
định_đế 198
phần_cứng 197
hiểu_@@ 197
mãnh_hổ 197
đậu_nành 197
nhỏ@@ 197
tổng_đài 197
sản_phụ 197
lệ_thuộc 197
sse@@ 197
chu_văn_an 197
lia_@@ 197
mann 197
ram 197
lộ@@ 197
mảnh_mai 197
hoá_học 197
in_@@ 197
lấm_tấm 197
con_tim 197
văcxin 197
chung_thủy 197
bùng_cháy 197
ngày_giờ 197
mường_tượng 197
đại_bộ_phận 197
tổ_trưởng 197
14/1 197
ậm_ừ 197
vá_trinh 197
ngàn_vàng 197
huế_bằng 197
chau 197
tiền_nhân 197
quấn_quít 197
bóng_loáng 197
vờn 197
viễn_chinh 197
thiên_linh 197
đắc_đạo 197
trương_ngũ 197
vũ_văn_tiên_sinh 197
lẹ_làng 197
tẩu_tẩu 197
nhị_lang 197
triển_chiêu 197
l.@@ 196
ns 196
hs@@ 196
tz 196
2_triệu 196
trực_diện 196
bao_hàm 196
0_@@ 196
nhập_cư 196
sơ_tuyển 196
dược_liệu 196
ssi@@ 196
chăn_gối 196
br@@ 196
medi@@ 196
buồn_tẻ 196
ngô_thị@@ 196
nghỉ_mát 196
ăng-@@ 196
khá_giả 196
máu_nóng 196
ống_quần 196
thích_đáng 196
nhữ 196
gay_cấn 196
12/12 196
thanh_lý 196
mặt_tiền 196
góc_phố 196
gôn 196
osin 196
valentine_bàng_hoàng 196
đứng_@@ 196
la_lối 196
thú_dữ 196
hoả@@ 196
nối_đuôi 196
ai_dè 196
với_lại 196
vô_sản 196
thú@@ 196
dương_lôi 196
chiến_hữu 196
khăn_@@ 196
huyễn 196
thôn_tính 196
duyên_cớ 196
arnold 196
truy_phong 196
bụm 196
vô_đạo 196
dưỡng_thần 196
ptsc 196
đấu_chí 196
úi_chà 196
tu_la 196
thánh_thót 196
chuyển_vận 196
đầu_lĩnh 196
slade 196
hồ_kỳ_sơn 196
võ_cử 196
ðổng_khuông 196
viễn_sơn 196
thượng_quan_vân 196
kratz 196
macfee 196
32019 196
12.@@ 195
lập_trình 195
_be@@ 195
lãm 195
tuyên_quang 195
xông_pha 195
d.@@ 195
teo 195
cỏ@@ 195
đan_xen 195
pi 195
cara@@ 195
mắc_@@ 195
ẻn 195
cương_mục 195
lân_@@ 195
sou@@ 195
1950 195
*@@ 195
sờ_soạng 195
hối_thúc 195
ặn 195
cơ_cực 195
định_luật 195
tám_@@ 195
ê_chề 195
đặc_vụ 195
ev71 195
giắc 195
tiểu_long 195
công_sơn 195
tung_tăng 195
xí@@ 195
giẻ 195
tai_hoạ 195
nếu_thế 195
si_mê 195
yên_nghỉ 195
rose 195
tắt_ngấm 195
hay_biết 195
trù_trừ 195
trạng_nguyên 195
làm_bậy 195
giật_nẩy 195
lưu_chính_phong 195
tham_kiến 195
tổ_phụ 195
nhọc_lòng 195
mặc_kha 195
cao_chiếm_đạo 195
vương_bạc 195
giải_huy 195
đại_ny 195
tông_kiệt 195
tru_tiên 195
ưu_việt 194
bứt_phá 194
450 194
oà 194
gia_công 194
ày 194
55@@ 194
thu_gom 194
_dân 194
mạn_tính 194
rau_xanh 194
rượu_bia 194
xâm_lấn 194
xan@@ 194
sái 194
góp_sức 194
quán_anh 194
để@@ 194
quản_lí 194
mạch_môn 194
sấu 194
xanh_tươi 194
cánh_@@ 194
câu_nệ 194
đổ@@ 194
1987 194
ngạt_thở 194
phóng_khoáng 194
phương_châm 194
gông 194
áy 194
cấp_bậc 194
suông 194
ôn_luyện 194
cửa_nam 194
bamboo_airways 194
sính 194
nhan_@@ 194
tân_binh 194
kỳ_quan 194
bích_ngọc 194
xối_xả 194
mình_mẩy 194
nửa_đường 194
tồi_tàn 194
hoang_tàn 194
ngu_muội 194
sớm_tối 194
thúy_nga 194
raptor 194
lăn_lóc 194
n_thần 194
ly_gián 194
huỳnh_dương 194
dương_tuyền 194
12487@@ 194
xuất_thế 194
tử_lăng_huynh 194
lãnh_lạc 194
38,@@ 193
ctcp 193
1.500 193
an_cư 193
trứng_gà 193
thường_trú 193
bộc_phát 193
dẫn_@@ 193
nảy_nở 193
đối_chọi 193
vua_chúa 193
oàn 193
ti_@@ 193
micro 193
nói_đùa 193
next 193
ham_mê 193
ngất_ngây 193
phương_trình 193
thần_chú 193
lùi_bước 193
thấu_đáo 193
thỉnh_@@ 193
hoàng_l@@ 193
có_hạn 193
tịnh_@@ 193
sừng_sỏ 193
tháp_tùng 193
bất_hủ 193
serie_a 193
hoàng_thân 193
sĩ_diện 193
hoa_mai 193
liveshow 193
lán 193
thô_thiển 193
vố 193
uốn_éo 193
lẳng_lơ 193
trăm_họ 193
mái_hiên 193
dâm_đãng 193
tam_quan 193
sồi 193
chu_tước 193
tư_vị 193
nội_phủ 193
tạ_diễm 193
lão_bản 193
_hưng 192
ghi_@@ 192
ae@@ 192
tờ_trình 192
thục_@@ 192
._com 192
chững 192
bt 192
tc 192
chênh 192
thả_lỏng 192
trọng_bệnh 192
lúa_mì 192
ỵ@@ 192
phí@@ 192
n_tay 192
hả_hê 192
jan@@ 192
loang_lổ 192
_ra 192
nhất_sinh 192
trần_phú 192
tình_bạn 192
tận_tụy 192
kỳ_sơn 192
chủ_nghĩa_@@ 192
947@@ 192
ẩn_số 192
tỉ_phú 192
biếm_họa 192
trắng_tay 192
/08/2011 192
p1 192
vượt_ngục 192
lăng_mộ 192
đồ_cổ 192
giấy_bạc 192
bảnh 192
quân_pháp 192
hiệu_phó 192
túa 192
xiêm_y 192
biền 192
yên_vị 192
nhoài 192
tâm_lực 192
nữ_sắc 192
học_sĩ 192
tuyết_nghi 192
tử_địa 192
đánh_dẹp 192
trấn_ác 192
mạc_ðại_tiên_sinh 192
lão_yêu 192
ðầu_tử 192
thành_khôn 192
thiếu_bảo 192
thông_thiên_giáo 192
acb 191
lg 191
gro@@ 191
chile 191
phế_quản 191
tuần_@@ 191
khít 191
chằng 191
diễn_@@ 191
hệ_lụy 191
por@@ 191
rau_muống 191
thuốc_phiện 191
huỳnh 191
mát_rượi 191
dốt 191
cnn 191
sọc 191
vậy_@@ 191
gió@@ 191
_chi 191
cộc 191
trau_dồi 191
phố_phường 191
yêu_dấu 191
kinh_tế_thị_trường 191
phân_hóa 191
uông_@@ 191
giảng_@@ 191
vp 191
lý_sơn 191
nghi_án 191
cấu_hình 191
phương_linh 191
15/11 191
đát 191
oan_hồn 191
thắm_thiết 191
hậu_sinh 191
diễm_phúc 191
kinh_thiên_động 191
róc_rách 191
đức_ông 191
tiểu_gia 191
giử 191
tuyệt_trần 191
tạ_tội 191
câm_miệng 191
hoạn_quan 191
nhi_nữ 191
dễ_sợ 191
xưng_bá 191
phôsơlơvăng 191
đồ_họa 190
giãi_bày 190
địa_ốc 190
sca@@ 190
shop 190
ngấu_nghiến 190
đần_độn 190
.com 190
thông_dụng 190
zu@@ 190
đập_vỡ 190
pt 190
ci 190
bài_@@ 190
xuống_dốc 190
stu@@ 190
độc_tính 190
nam_mỹ 190
nóng_nực 190
bảo_đại 190
cha_ông 190
át_@@ 190
rà 190
dát 190
tránh_mặt 190
thơm_ngát 190
đồng_loại 190
nhá 190
xới 190
câu_kết 190
kêu_ca 190
thừ 190
ngô_t@@ 190
anh_vũ 190
_trọng_@@ 190
intel 190
las 190
blue-chips 190
tây_sơn 190
_đề 190
mátxcơva 190
_hoa 190
lã_chã 190
tây_dương 190
16/11 190
ðức_@@ 190
bẽ_bàng 190
phẳng_lặng 190
mệ 190
binh_đao 190
sắc_thái 190
câm_lặng 190
suốt_đời 190
khu_trục 190
căn_lều 190
rầm_rầm 190
dè 190
hoa_tranh 190
lê_dương 190
nhường_ngôi 190
chú_mày 190
phong_vân 190
„_xin 190
đui_mù 190
đại_nghịch 190
phản_gián 190
hồ_bân 190
khôi_vĩ 190
lề_luật 190
hồng_mao 190
hình_hài 189
lữ_hành 189
os 189
mật_ong 189
tối_tân 189
200.000 189
đội_@@ 189
niêm_mạc 189
tiết_niệu 189
găng 189
ngóc_đầu 189
thò_lò 189
elli@@ 189
gì@@ 189
sinh_cơ 189
bóng_đèn 189
ạn 189
ghẻ 189
_phi 189
bù@@ 189
vét 189
rock 189
ngán_ngẩm 189
ng_long 189
tân_bình 189
nóng_ran 189
bang_@@ 189
xúi_giục 189
chánh_@@ 189
ba-@@ 189
xá@@ 189
bái_@@ 189
vô_nhân 189
hiển_hách 189
uý 189
phùng_th@@ 189
hì 189
trụi 189
nhu_nhược 189
nhân_tính 189
mưu_mô 189
tấm_tắc 189
tuần_dương_hạm 189
ríu_rít 189
đạo_tặc 189
tamara 189
hung_bạo 189
xui_xẻo 189
tuỳ_tùng 189
nói_ra 189
đời_đời 189
„_m@@ 189
công_sự 189
a_kỳ 189
nhị_gia 189
hêluy 189
châu_nhi 189
re_@@ 188
bất_hợp_pháp 188
_kỳ 188
hạ_hầu_@@ 188
lịch_trình 188
thuận_@@ 188
thạnh 188
._ng@@ 188
ãng 188
hy_hữu 188
niên_@@ 188
dung_dịch 188
rã 188
_thu_@@ 188
lê_t@@ 188
tion_@@ 188
gồng 188
hình_trụ 188
7851 188
29/1 188
thịnh_hành 188
ch_m@@ 188
vị_hoàng_đế 188
đêm_đêm 188
ngự_trị 188
ức_hiếp 188
bủn_rủn 188
tip 188
hàn_huyên 188
tôn_thất 188
fukushima 188
hat-trick 188
quốc_học 188
nhật_báo 188
3/7/2012 188
phượng_@@ 188
siêu_việt 188
ngọc_thạch 188
mịch 188
ngoa 188
quầy_quậy 188
phúc_châu 188
kiệt_xuất 188
suối_vàng 188
gơ@@ 188
lưu_mỗ 188
tiên_nhân 188
mạo_xưng 188
nội_ứng 188
_mỗ 188
võ_trang 188
uyên-sơn 188
cá_ngừ 187
đánh_bắt 187
liên_doanh 187
nó@@ 187
cơ_học 187
phóng_@@ 187
ê_@@ 187
đau_buốt 187
gốc_rễ 187
nhịn_đói 187
trang_nhã 187
bế@@ 187
quí_giá 187
cỏ_cây 187
thông_tấn 187
ire 187
chính_khách 187
điều_ước 187
công_ăn_việc_làm 187
một_phép 187
kỳ_anh 187
bi_đát 187
tro_bụi 187
cổ_tự 187
xiềng_xích 187
phiêu_bạt 187
huyền_th@@ 187
thanh_thiên 187
dữ_dằn 187
làu_bàu 187
coi_như 187
trăng_tròn 187
già_dặn 187
phẫn_uất 187
computer 187
khảy 187
phó_hội 187
thanh_quân 187
hội_diện 187
tịnh_trai 187
„_ðương_nhiên 187
nguyên_lão 187
gia_nô 187
trưởng_lão 187
doanh_@@ 186
thậm 186
gym 186
đồng_ruộng 186
thổ@@ 186
đơn_phương 186
chèn 186
…_t@@ 186
gram 186
link 186
tor@@ 186
tỉnh_@@ 186
trưởng_thôn 186
xắn 186
hiệu_nghiệm 186
af@@ 186
lài 186
xuất_quân 186
vững_chãi 186
lưu_niệm 186
chói_chang 186
bán_nguyệt 186
hò@@ 186
quốc_tịch 186
phà 186
đồi_bại 186
mưu_tính 186
mềm_mỏng 186
uốn_lượn 186
đương_đại 186
abramovich 186
vi_hiến 186
bịn_rịn 186
tủ_sách 186
gặp_may 186
vô_thanh 186
mê_đắm 186
nghen 186
đánh_liều 186
ghế_dài 186
vai_vế 186
khinh_suất 186
mười_phần 186
uất_hận 186
ly_biệt 186
uy_vũ 186
lý_b@@ 186
lui_@@ 186
hả_dạ 186
nghĩa_sĩ 186
binh_bộ 186
huyền_thứ 186
nguyên_cát 186
thần_quân 186
đắc_thủ 186
xét_đoán 186
‟ 186
trác_mã 186
losey 186
kinh_thiện 186
gia_lâm 185
thăng_trầm 185
giày_dép 185
truyền_tải 185
bê_bết 185
bích_@@ 185
ền 185
bứt_rứt 185
bàn_chải 185
lông_mi 185
n_long 185
ẳn 185
hoa_cúc 185
mai@@ 185
ỗ@@ 185
âm_phủ 185
chuyên_dùng 185
field 185
thú_vật 185
nghiêm_cấm 185
_vă@@ 185
n_ng@@ 185
phũ_phàng 185
kiệm 185
ảrập 185
nóng_rực 185
minh_quân 185
vua_@@ 185
phấp_phới 185
ngoi 185
gái_điếm 185
hàng_châu 185
_vạn 185
cửa_quan 185
giật_giật 185
nợ_máu 185
ðịa 185
răng_rắc 185
phóng_đãng 185
hoang_lương 185
yến_hồng 185
đại_chu_thiên 185
bidv 184
bình_dị 184
bộ_gtvt 184
xí_nghiệp 184
nt@@ 184
david@@ 184
ờng 184
thanh_cao 184
108 184
ửa 184
đề_@@ 184
ơn_@@ 184
fri@@ 184
_vi_@@ 184
mặt_trái 184
diễn_thuyết 184
có_@@ 184
hòa_nhã 184
_điện 184
ngày_thường 184
jack 184
que_diêm 184
bích@@ 184
thủ_@@ 184
quan_h@@ 184
ibm 184
vô_cực 184
29/02/2012 184
thúng 184
khôi_@@ 184
biện_hộ 184
phản_lực 184
trống_trơn 184
hùng_tráng 184
tủi 184
bại_hoại 184
tra_khảo 184
con_trưởng 184
bó_đuốc 184
bố_thí 184
oanh_liệt 184
phong_tình 184
quí_tộc 184
lạy_tạ 184
quắc 184
thọ_dương 184
cao_ly 184
thế_xuân 184
ma_tôn 184
huyền_tịch 184
phàm_bình 184
kỷ_cương 183
lỏng_lẻo 183
phan_th@@ 183
s_s@@ 183
mất_tăm 183
chuyển_khoản 183
nam_phi 183
òng_@@ 183
dương_tính 183
ba_vòng 183
n_đình 183
truyền_cảm_hứng 183
ỡ@@ 183
trơ_trơ 183
sâm_@@ 183
quai_hàm 183
vô_hại 183
phó_giáo_sư 183
nâng_niu 183
nhược_@@ 183
iế@@ 183
vũ_trường 183
mít 183
sứt 183
xù 183
_huy 183
đỗ_thị@@ 183
green 183
màng_trinh 183
1984 183
thủ_thỉ 183
thế_kỉ 183
thcs@@ 183
hoàng_sơn 183
vnpt 183
đặc_phái_viên 183
án_@@ 183
_binh 183
minh_tinh 183
rooney 183
ngây_dại 183
hoàng_thái_tử 183
bút_@@ 183
khuất_tất 183
rê@@ 183
ái_mộ 183
cứu_nguy 183
oán_thù 183
chấn_song 183
thù_hằn 183
ngu_dốt 183
mộng_tưởng 183
thiên_chúa 183
nghinh_tiếp 183
phân_tranh 183
hầu_cận 183
phì_thủy 183
tử_lăng_chợt 183
thư_trai 183
lưu_dung 183
hỏa_lệnh 183
tinh_hà 183
hoa_phương_tử 183
quân_tùng 183
đại_chúng 182
vấn_nạn 182
xác_lập 182
v.v 182
post 182
phụ_kiện 182
3_triệu 182
nđ-cp 182
cer@@ 182
cấp_@@ 182
cở 182
thực_thụ 182
bella 182
nhẵn 182
hoá@@ 182
kins 182
đầu_lòng 182
time 182
thủa 182
châu_mỹ 182
nha_@@ 182
phanh_phui 182
nhập_ngũ 182
26/1 182
mộc_mạc 182
sầm_uất 182
oan_gia 182
bức_điện 182
ùm 182
trần_trụi 182
tao_nhã 182
ngoạn 182
nương_nhờ 182
lửa_@@ 182
sự_biến 182
dàn_nhạc 182
trối 182
nhảm_nhí 182
bạch_hổ 182
gàn 182
chòm_sao 182
bặm 182
vương_hầu 182
quái_quỷ 182
bất_diệu 182
tạp_chủng 182
thường_hà 182
tâm_mạch 182
can_qua 182
thực_tiên 182
lạc_hi_@@ 182
đặng_th@@ 181
đảng_ủy 181
._ph@@ 181
thuốc_lào 181
tiếc_rẻ 181
gs@@ 181
hotline 181
tậu 181
âm_ỉ 181
phá_thai 181
ster@@ 181
lợi_@@ 181
trở_mình 181
hor@@ 181
vui_@@ 181
đột_xuất 181
zz@@ 181
lơ_mơ 181
ây@@ 181
1988 181
.vn 181
thác_@@ 181
world_cup 181
ara@@ 181
ánh_hồng 181
gt 181
tận_thế 181
lọt_lòng 181
đẳng 181
không_thèm 181
pr 181
hải_vân 181
ngụy_trang 181
chiêu_bài 181
trung_sĩ 181
kha_khá 181
ưng_ý 181
bộ_hành 181
sand@@ 181
thưởng_ngoạn 181
cất_nhắc 181
rác_rưởi 181
ngữ_điệu 181
đen_láy 181
tiêu_khiển 181
xá_lợi 181
trân_trân 181
chủ_định 181
bát_đĩa 181
đoạn_trường 181
chúc_thọ 181
để_tâm 181
vũ_văn_phiệt 181
nộ_khí 181
phật_sống 181
thâm_hiểm 181
mao_thập_bát 181
công_hành 181
đại_hắc 181
giáp_@@ 180
con_dấu 180
sinh_nở 180
fpt_@@ 180
nal@@ 180
16,@@ 180
ios 180
nguyễn_thành_@@ 180
_vương_@@ 180
uốc 180
98@@ 180
nhăn_nheo 180
nào_đó 180
ker@@ 180
lang@@ 180
nản 180
cử@@ 180
rong_ruổi 180
hồng_bàng 180
cá_kình 180
_chí 180
vấy 180
hiện_trạng 180
gây_rối 180
hậu_cần 180
an_nhàn 180
hải_cảng 180
văn_thanh 180
_đồ 180
xa_gần 180
thành_kính 180
ngô_kiến_huy 180
khoé_mắt 180
trắng_ngần 180
chỉ_dụ 180
tạ_thế 180
thứ_bậc 180
danh_từ 180
gợn_sóng 180
võ_công_@@ 180
đền_ơn 180
ðôi 180
tích_thư 180
thị_tỳ 180
quan_văn_võ 180
độc_cô 180
khuê_phòng 180
chu_cù 180
ngõa 180
tôlan 180
thiên_ất_tử 180
vingroup 179
bộ_@@ 179
17,@@ 179
tàu_hỏa 179
/5/2019 179
hậu_thuẫn 179
der 179
ibra 179
mt 179
vùng_sâu 179
ki_@@ 179
con_đẻ 179
thân_thương 179
dri@@ 179
thọ_xuân 179
khoai_lang 179
1978 179
búi 179
thụ_@@ 179
for 179
bọ@@ 179
che_miệng 179
biế@@ 179
ẹo 179
miến 179
mưa_phùn 179
iêng 179
ner@@ 179
lác 179
cật_lực 179
karaoke 179
lả 179
gang_tấc 179
đẽo 179
câu_đố 179
hung_khí 179
gương_mẫu 179
sãi 179
tự_phê_bình 179
hsx 179
bết 179
lánh_nạn 179
thoát_ly 179
svhouse 179
21/1 179
nhiếp_chính 179
chụm 179
tiếp_tế 179
xả_thân 179
phạm_thượng 179
rước_dâu 179
bích_hồng 179
clip_@@ 179
tang_@@ 179
tương_truyền 179
xxi 179
ngũ_đại 179
ngâm_nga 179
líu_lo 179
gác_cổng 179
dây_leo 179
dự_cảm 179
trùy 179
ranh_mãnh 179
khổ_công 179
dung_thân 179
nào_đâu 179
đứng_sững 179
thí_mạng 179
bàn_định 179
2618@@ 179
dè_đâu 179
ân_tố_tố 179
râu_xồm 179
ngọc_chiêu 179
thiên_ma_thế_vương 179
hoàng_vân_nhi 179
đại_hội_đồng 178
công_t@@ 178
bank@@ 178
lee@@ 178
giả_định 178
ớp 178
tố_tụng 178
thỏa_thích 178
cảm_thán 178
tam_quốc 178
sử_sách 178
hồi_đầu 178
lão_hóa 178
sán 178
phẫu 178
tọa_đàm 178
song_hành 178
nản_lòng 178
web@@ 178
lảng_tránh 178
ọng 178
nghệ_@@ 178
cá_biệt 178
tay_nghề 178
nạng 178
đả@@ 178
mềm_yếu 178
quẫy 178
lãnh_vực 178
tiệc_tùng 178
_lộc 178
13/11 178
ngày_sinh_nhật 178
rắn_rỏi 178
đôi_ba 178
san_bằng 178
sổ_đỏ 178
2/12 178
02/03/2012 178
phan_anh 178
nhà_nông 178
sự_tích 178
tháng_chạp 178
va_li 178
thị_uy 178
toang 178
hồi_tỉnh 178
ôn_hoà 178
êm_ả 178
thành_vương 178
đường_đường 178
thế_tục 178
lauren 178
vàng_ngọc 178
vua_khang_hy 178
đánh_thót 178
lạc_thủy 178
lệnh_hồ_chưởng 178
phong_tước 178
cực_lạc 178
„_l@@ 178
băng_thạch_thất 178
lệnh_huynh 178
rothschild 178
bạch_tự_tại 178
bantz 178
lương_tử_ông 178
tomek 178
nhục_đậu_khấu 178
đảng_bộ 177
vie@@ 177
30-@@ 177
cb@@ 177
ino@@ 177
[...]
