, 2955954
. 2237627
không 725576
" 664062
là 606338
của 604774
- 577795
: 571946
một 555060
có 513550
người 488996
và 429990
đã 411839
nói 400016
trong 392063
được 389849
lại 351229
cho 335015
ra 312116
? 306671
cũng 286434
đến 270002
này 266074
với 260007
ta 257401
những 255331
vào 251414
tôi 244374
phải 242492
thì 240444
các 236645
đi 236085
ở 225632
đó 221351
để 219245
nhưng 208435
mà 203006
! 198471
rồi 197705
lên 196905
về 195070
còn 194428
hai 194127
như 193974
thấy 183068
chỉ 182373
anh 175983
gì 172569
) 172343
( 171863
làm 171537
khi 171240
biết 166615
ông 157215
trên 155563
mình 151545
sẽ 147210
con 144811
cô 140015
sau 139776
bị 137905
từ 133381
nhìn 129812
cái 119921
đang 119467
tới 117345
lúc 116176
mới 112856
đây 111558
rất 110186
năm 110043
trước 108792
theo 105798
cả 104154
có_thể 103567
nhiều 103299
lão 102950
tay 102137
họ 101579
gã 100228
hỏi 98355
nào 98119
nghe 97765
nàng 97369
đầu 96859
vẫn 96107
nên 95894
hơn 95781
ngươi 95592
tại 95046
vì 94879
tiếng 94402
bên 91841
y 90593
nếu 90563
ngày 89863
cười 89357
muốn 89107
nữa 88669
sao 86314
xuống 85909
ấy 85004
nhà 84802
việc 83578
chàng 83543
chưa 83518
đều 82745
chuyện 81178
cùng 81095
hắn 80924
vừa 80007
em 79017
mặt 78173
bọn 76161
qua 75549
nó 74381
rằng 74057
hay 73735
lần 73545
khác 72906
ai 72663
ba 71587
sự 70943
chẳng 70915
bà 67808
tên 67319
lấy 66803
thế 65406
mắt 65032
nghĩ 64911
đâu 64896
chúng_ta 64439
đáp 64166
lòng 63271
phía 62772
vậy 61368
nhau 60852
thật 60393
đường 60292
nước 60037
chết 58873
nhất 58634
thành 58315
đứng 57999
mấy 57235
ngoài 56948
ngay 56798
lớn 55557
thứ 55122
trường 54300
chính 54173
cần 54106
bằng 54000
... 53293
kiếm 52988
mọi 52522
lời 52202
xem 51480
khỏi 50898
nhân 50851
đưa 50533
chiếc 49591
cách 49559
số 49552
điều 49418
hạ 49180
đánh 49070
bước 47451
chân 47244
vị 47143
bạn 47138
gặp 46898
liền 46130
hết 46106
quá 45920
ngồi 45789
thi 45402
chạy 44958
tìm 44592
hiểu 44527
đại 44344
không_thể 43565
nơi 43320
tiểu 43260
đúng 43149
như_vậy 42808
dùng 42719
nay 42655
thêm 42406
quân 42208
cao 42146
khiến 42019
chúng 41837
quay 41688
thôi 41036
sống 40197
kia 39945
cứ 39635
xe 39460
học 39328
dưới 39042
gần 38268
càng 38097
phòng 37960
chỗ 37361
rõ 36955
do 36753
câu 36520
từng 36391
lắm 36387
bảo 36332
mẹ 35866
xin 35824
giữa 35790
huynh 35585
nhỏ 35349
khấu_trọng 35017
hãy 34941
chúng_tôi 34921
mất 34862
bé 34745
gọi 34560
hạng 34491
nhận 34426
tin 34071
chứ 33775
bộ 33450
gia 33403
kẻ 33307
ăn 33278
gái 33121
chị 32903
giờ 32605
tháng 32216
cậu 32163
hàng 32114
trẻ 32103
cửa 31939
bài 31510
đất 31352
công 31342
giọng 31298
dám 31239
tự 31083
sợ 30719
cuộc 30608
mỗi 30390
bỏ 29914
tiếp 29711
| 29519
tiền 29514
; 29461
dân_trí 29390
môn 29323
đêm 29221
tất_cả 29172
cây 29156
tử 28847
xong 28731
đạo 28407
từ_tử_lăng 28209
sư 28136
chịu 28130
bây_giờ 28062
chủ 27958
giết 27716
thiếu_long 27666
tuổi 27595
điểm 27538
bốn 27331
tốt 27263
sáng 27140
sang 27063
đôi 26947
mang 26860
trời 26703
khó 26486
tuy 26476
đồng 26287
cảm_thấy 26220
nữ 26186
việt_nam 26183
áo 26097
xa 26043
thế_nào 25861
2 25713
đừng 25548
thời_gian 25509
nhớ 25428
lâu 25421
chắc 25418
đối_với 25234
thế_giới 25117
mỹ 24661
pháp 24640
đấy 24598
nổi 24312
đủ 24059
đọc 23894
tỷ 23805
đem 23701
vụ 23529
phần 23481
cháu 23362
kêu 23224
giữ 23176
địch 23159
núi 23093
bắt 23049
nằm 23044
ngựa 22964
đông 22806
luôn 22784
kỳ 22659
phái 22639
bàn 22565
thủ 22563
đá 22317
miệng 22281
coi 22243
1 22242
vi_tiểu_bảo 22109
7/3 22049
vẻ 21945
chưởng 21937
bỗng 21916
trận 21868
yêu 21792
hoặc 21790
giống 21765
như_thế 21752
cầm 21750
đáng 21704
dậy 21665
trở 21597
dù 21507
thương 21373
tăng 21341
ánh 21329
ý 21246
tỉnh 21237
hoa 21235
lưng 21210
giúp 21115
lập_tức 20906
đột_nhiên 20822
đầy 20678
trông 20653
thường 20641
mua 20567
thầm 20534
thân 20528
đặt 20503
muội 20384
ca 20348
tiến 20235
báo 20200
đời 20081
thanh 20047
hà_nội 19970
vàng 19952
3 19937
mười 19819
uống 19748
đứa 19655
cạnh 19613
kể 19575
dài 19366
bao_giờ 19362
nhanh 19282
hôm 19237
tính 19182
nam 19180
vô_cùng 19140
cha 19092
hồi 19088
định 19059
đẹp 19045
khí 19019
triệu 18789
thuyền 18638
a 18569
vội 18548
gây 18478
bay 18473
rượu 18465
ảnh 18429
chiêu 18419
đao 18417
hơi 18292
loại 18277
làm_sao 18142
đệ 18090
chung 18063
giá 18033
thẳng 18007
gia_đình 17985
lạ 17914
sai 17899
bắt_đầu 17887
mở 17808
cuối_cùng 17626
xảy 17625
sinh 17533
toàn 17513
thần 17501
to 17473
giáo_dục 17403
vốn 17401
chờ 17306
phu_nhân 17294
lớp 17289
viết 17258
mạnh 17207
vài 17198
chút 17163
tại_sao 17159
đen 17133
giải 17127
học_sinh 17119
trả_lời 17104
đám 17103
quan 16982
võ_công 16974
tiếp_tục 16933
cô_nương 16919
chữ 16910
đầu_tiên 16907
ngủ 16813
viên 16745
đoàn 16674
nắm 16557
lộ 16523
động 16491
máu 16403
thích 16389
màu 16350
bóng 16316
xã_hội 16210
quả 16173
hề 16143
biến 16084
mày 16076
song 16038
mặc 15962
10 15956
hoàn_toàn 15950
một_cách 15948
khoảng 15931
vương 15931
bệnh 15912
tấm 15773
thư 15757
ít 15673
dẫn 15635
bức 15632
kéo 15619
một_chút 15574
trăm 15564
gật 15555
vấn_đề 15527
sách 15517
điện 15490
chi 15480
hướng 15455
cung 15447
> 15384
khẽ 15238
tối 15179
mời 15138
nhảy 15089
sớm 15085
sông 15074
vòng 15066
& 15026
thằng 14840
trắng 14828
tránh 14718
già 14679
chặt 14663
hiện 14660
thuốc 14637
khách 14634
bản 14609
nhờ 14500
thiếu 14490
nửa 14470
sử_dụng 14461
bởi 14388
hôm_nay 14338
dừng 14317
lửa 14305
phát 14162
kinh 14136
trở_thành 14127
đoạn 14099
mỉm 14078
vợ 14068
ngạc_nhiên 14027
trở_lại 14023
gió 14013
lực 14000
bang 13934
rơi 13931
la 13888
trưởng 13815
buổi 13812
thu 13808
biển 13797
nhân_ái 13759
phong 13751
nguyên 13745
quyền 13734
tạo 13733
lệnh_hồ_xung 13727
ngờ 13725
một_số 13688
quyết_định 13663
rời 13617
trai 13573
con_người 13524
xuất_hiện 13459
hán 13455
hẳn 13419
chợt 13393
ngài 13371
ngọn 13309
gửi 13300
độc 13297
đặc_biệt 13260
sắp 13236
ư 13232
tổ_chức 13189
đỏ 13181
đồ 13180
thí_sinh 13157
lo 13149
chú 13124
thở_dài 13122
cứu 13114
xanh 13107
bán 13087
tình_yêu 13058
có_lẽ 12996
kịp 12985
4 12958
à 12948
mức 12942
lệnh 12928
sư_phụ 12922
mạng 12919
bắn 12907
đại_học 12895
chồng 12882
2012 12850
cánh 12843
phóng 12793
huyện 12773
cổ 12750
riêng 12737
thuộc 12686
khóc 12665
tiểu_đệ 12642
5 12634
đội 12631
vùng 12607
khá 12590
tiêu_lĩnh_vu 12581
vật 12549
trang 12544
chơi 12544
chuyển 12543
tai 12543
mau 12532
/ 12516
đệ_tử 12492
vai 12436
công_tử 12403
bèn 12398
tướng 12390
khu 12366
văn_hoá 12355
ô_tô 12313
truyền 12295
sức_khoẻ 12272
chúa 12258
sáu 12253
phủ 12243
suốt 12234
thay_đổi 12226
ngôi 12222
vang 12213
nói_chuyện 12173
đàn_ông 12132
thiên_hạ 12085
hội 12083
tưởng 12079
mùa 12068
dường_như 12064
việt 12053
nặng 12031
quên 12031
thoát 12011
sở 11972
quốc_gia 11942
sâu 11934
nhất_định 11919
ôm 11887
chiều 11877
tuần 11803
tuy_nhiên 11785
tình 11785
rừng 11772
hồ 11768
công_ty 11754
6/3 11749
làm_việc 11738
thực_hiện 11695
sức 11677
trái 11669
bao_nhiêu 11636
thượng_quan 11633
bắc 11613
kinh_doanh 11577
đành 11564
vui 11539
sắc 11527
lý 11514
ngừng 11489
trả 11487
] 11478
bờ 11470
thử 11430
lao 11428
cơ_hội 11420
chục 11393
cảm_giác 11362
hoạt_động 11349
lễ 11325
cố 11324
rút 11300
phương 11278
ban 11276
rõ_ràng 11273
nhóm 11271
lắc_đầu 11235
hồng 11228
thế_này 11221
ma 11203
' 11179
lạnh 11177
tiêu 11176
da 11166
sát 11134
sức_mạnh 11125
giả 11121
quan_trọng 11110
đối_phương 11109
trúng 11107
phó 11091
thời 11049
thầy 11031
dễ 11027
thắng 10996
bụng 10994
mối 10987
mụ 10964
bố 10936
cảnh 10930
quát 10924
ngã 10923
quang 10913
có_vẻ 10901
tường 10899
đuổi 10895
đức 10884
cũ 10877
tâm 10872
so 10828
linh 10807
lưu 10781
dự 10777
sơn 10770
phát_hiện 10758
mong 10743
nỗi 10725
dạy 10686
hiệp 10677
thpt 10673
cầu 10672
đảo 10645
tấn_công 10577
bạn_đọc 10572
khả_năng 10567
giơ 10557
viện 10551
dân 10544
nhẹ 10524
cơn 10521
nga 10506
đồng_thời 10475
đại_sư 10473
đại_ca 10468
kim 10462
tiên 10444
đấu 10444
đạt 10398
mũi 10395
vua 10374
giảm 10371
trung_quốc 10367
nhị 10358
đợi 10307
giao 10295
hết_sức 10253
phát_triển 10235
quanh 10218
xe_máy 10212
cuốn 10207
cặp 10194
thể_thao 10191
bàn_tay 10181
tiên_sinh 10156
bảy 10152
tư 10112
anh_em 10104
trượng 10104
dòng 10071
một_mình 10068
đh 10066
pháp_luật 10058
đau 10056
binh 10048
ngực 10028
có_điều 10018
căn 9993
cúi 9982
tám 9973
thở 9945
vượt 9935
yên 9926
quán 9916
lên_tiếng 9909
chuẩn_bị 9895
thưa 9860
toà 9857
cuối 9850
chống 9813
giang_hồ 9792
phố 9791
quần 9764
thành_phố 9751
thịt 9739
tàu 9737
đón 9736
công_việc 9707
cháy 9687
mãi 9684
phụ_nữ 9666
suy_nghĩ 9657
thay 9641
từ_từ 9637
[ 9615
tung 9610
xây_dựng 9578
sinh_viên 9570
vạn 9558
hành_động 9545
tây 9522
khắp 9518
khó_khăn 9494
thấp 9487
đâm 9484
quan_hệ 9469
chọn 9441
ngang 9430
bình 9418
e 9413
6 9403
võ_lâm 9401
* 9389
hình 9370
nhi 9360
cấp 9350
đề 9342
dương 9317
thái 9301
ngọc 9266
bảo_vệ 9260
đoán 9260
2011 9234
nhân_vật 9231
kết_quả 9201
bật 9196
tóc 9160
thông_tin 9158
phút 9144
minh 9119
đàn_bà 9099
châu 9091
phản_hồi 9044
xông 9036
kế 9004
luyện 8958
liên_quan 8948
đóng 8940
vung 8940
diễn 8937
phá 8935
tuyệt 8925
giường 8894
huynh_đệ 8884
lạnh_lùng 8874
bậc 8873
nhịp 8856
nghĩa 8838
in 8834
đổi 8833
độ 8828
chùa 8810
chương_trình 8809
bác 8807
thiên 8804
quyết 8785
thúc 8782
món 8757
ngàn 8726
chắc_chắn 8721
cao_thủ 8705
tài 8700
lúc_nào 8693
giật_mình 8692
ngón 8677
tham_gia 8663
đẩy 8634
lá 8592
nét 8564
đổ 8559
lát 8536
tự_nhiên 8534
tranh 8534
nhạc 8530
mưa 8506
an 8487
trở_nên 8468
may 8462
đại_nhân 8460
lo_lắng 8448
bản_thân 8441
cơ 8425
7 8401
thậm_chí 8363
nhằm 8356
xã 8354
đỡ 8351
ô 8346
yêu_cầu 8338
nghiên_cứu 8315
đăng 8303
mi 8301
dành 8299
tỏ 8297
rộng 8294
trốn 8272
nội 8270
xuất 8265
má 8265
bạc 8256
máy 8226
hát 8221
buồn 8207
huyệt 8186
tôn 8164
bao 8158
thị 8148
ghế 8146
điện_thoại 8143
phụ 8115
tam 8102
thực 8082
chừng 8075
môi 8072
câu_chuyện 8067
võ 8067
lục 8062
cơm 8019
chăng 7977
khổ 7973
giáo_chủ 7973
ngành 7971
bí_mật 7966
lão_phu 7966
8 7960
lối 7958
.. 7957
cuộc_sống 7932
quỷ_lệ 7917
kinh_hãi 7907
giấy 7902
đèn 7901
tập 7888
hiện_nay 7882
lập 7878
đập 7867
tội 7853
vân 7847
thơ 7832
hơn_nữa 7828
đưa_mắt 7820
tim 7814
dần 7812
băng 7807
nếu_như 7790
chém 7789
quỷ 7784
hại 7768
bác_sĩ 7729
chia 7697
báo_điện_tử 7693
long 7686
giỏi 7677
bát 7673
hy_vọng 7673
thanh_ngân 7661
mùi 7633
giáo 7629
quốc_tế 7624
thiếu_nữ 7624
yến_phi 7594
cho_nên 7589
quan_tâm 7567
bất_cứ 7545
phim 7541
vận 7541
chiếm 7520
âm 7513
lâm 7460
giới 7416
tình_hình 7414
đằng 7409
ánh_sáng 7394
cơ_quan 7386
đàn 7353
kỹ 7351
chủ_tịch 7350
tinh_thần 7350
hương 7348
tết 7341
bất_ngờ 7323
chụp 7311
trung 7298
siêu 7296
tất 7288
vội_vàng 7277
nóng 7275
thành_công 7266
người_dân 7255
ạ 7255
mã 7254
đỉnh 7253
thực_sự 7247
bữa 7225
mừng 7224
cắt 7214
kiện 7207
nhắc 7205
bình_thường 7203
sau_này 7202
ơi 7199
bị_thương 7194
án 7171
văn 7170
tinh 7167
như_thế_nào 7165
nụ 7157
thăm 7153
5/3 7145
xung_quanh 7141
gỗ 7120
khuyến_học 7118
trao 7110
dạ 7109
góc 7094
hoàng 7092
vì_thế 7090
hậu 7083
nâng 7072
dây 7055
giận 7050
tiền_bối 7029
xét 7026
tận 7011
lương 6992
kinh_tế 6976
ả 6972
tình_trạng 6968
hầu 6968
bạch 6964
nguy_hiểm 6958
chú_ý 6953
lùi 6949
gian 6946
đối_phó 6945
khu_vực 6922
chuyến 6919
tặng 6917
xuân 6903
kế_hoạch 6888
tao 6877
phật 6865
quận 6858
sự_kiện 6839
dứt 6833
đào 6828
tiểu_thư 6823
nghỉ 6819
kém 6817
hệ_thống 6811
buông 6803
hình_như 6802
luồng 6797
diễn_đàn 6787
niềm 6786
chiếu 6779
thua 6778
dựa 6754
nước_mắt 6745
tui 6726
cực_kỳ 6720
khẳng_định 6709
ý_kiến 6708
vì_vậy 6700
lẫn 6676
thiếu_lâm 6672
kình 6668
thân_hình 6660
thị_trường 6652
trước_đây 6643
trường_hợp 6640
miền 6640
phục 6638
toàn_bộ 6625
đài 6622
xoay 6622
liệu 6619
cửa_sổ 6609
sắt 6599
vợ_chồng 6578
túi 6574
cố_gắng 6572
cướp 6570
hạnh_phúc 6551
ra_tay 6550
duy_nhất 6548
tiếc 6548
chảy 6523
xinh 6496
mà_còn 6483
vui_vẻ 6483
chớ 6466
thế_là 6459
hình_ảnh 6455
danh 6453
hoá 6445
tả 6444
quen 6443
vô 6425
vi 6423
ủng_hộ 6416
giải_thích 6412
ảnh_hưởng 6400
trương_tiểu_phàm 6391
lưu_dụ 6387
chia_sẻ 6383
chín 6382
lui 6381
dĩ_nhiên 6366
tức_giận 6357
bệnh_viện 6353
hùng 6344
nguồn 6341
mua_bán 6339
phân 6321
anh_hùng 6303
để_ý 6301
trầm 6288
vừa_rồi 6280
trung_tâm 6271
ác 6270
ngân_hàng 6267
chim 6258
cá 6256
điều_kiện 6240
công_tác 6232
nổi_tiếng 6219
sân 6206
nhé 6203
an_toàn 6175
co 6167
đảng 6165
giáo_viên 6161
9 6148
kiểm_tra 6147
kiểu 6139
phi 6134
quần_áo 6133
thông 6127
bất_giác 6126
mặc_dù 6112
tổng_thống 6108
quý 6105
cánh_tay 6102
tuyết 6100
lý_do 6089
đương_nhiên 6087
giờ_đây 6077
thú 6076
dễ_dàng 6074
lý_hàn_thu 6073
tổng 6054
ngó 6054
lớn_tiếng 6054
cất 6047
lượng 6031
tuyển_sinh 6025
quản_lý 6018
nuôi 6007
đầu_tư 5998
vô_kỵ 5998
chính_phủ 5993
vâng 5992
che 5987
lượt 5978
im_lặng 5973
hàn 5972
tờ 5971
chất 5968
t 5967
công_chúa 5961
giải_quyết 5942
dịch 5937
xương 5926
trần 5925
sư_huynh 5910
dặm 5902
răng 5899
nhẹ_nhàng 5882
làng 5877
cổng 5877
nền 5876
quy_định 5867
giao_diện 5866
phép 5863
mỗ 5856
tổ 5854
lệ 5852
cụ 5848
kính 5848
lợi_hại 5842
quả_nhiên 5831
trước_mắt 5825
cán_bộ 5819
thoáng 5817
lãnh_đạo 5816
lấy_làm 5815
tan 5811
ngũ 5810
bởi_vì 5794
tuyển 5778
cỏ 5753
khuôn_mặt 5753
trương 5751
12 5749
điều_tra 5747
cẩn_thận 5745
lịch_sử 5745
bá 5717
bạt_phong_hàn 5715
cốc 5712
mảnh 5710
chó 5706
tựa 5704
sợ_hãi 5693
quả_thật 5693
đăng_ký 5692
chuyên 5688
tập_trung 5680
hiện_tại 5658
thanh_niên 5650
20 5635
gấp 5622
vọng 5621
toàn_thân 5621
đề_nghị 5620
súng 5618
mục 5613
đa 5606
nhất_là 5592
vườn 5588
lam 5564
trải 5559
doanh_nghiệp 5552
canh 5536
chào 5526
nguyên_nhân 5519
dự_án 5514
buộc 5512
hữu 5504
tay_trái 5504
trách_nhiệm 5502
phí 5501
sóng 5495
cục 5493
mây 5485
lưỡi 5483
đơn 5481
vị_trí 5468
tuần_báo 5468
đốt 5466
mai 5461
quốc 5453
quan_sát 5453
ghi 5442
hô 5438
thiếp 5438
chậm 5428
c 5421
mẫu 5411
bò 5405
nổ 5404
thiếu_niên 5404
pda 5402
blog_tấm 5399
english_sự 5399
thông_báo 5397
ái 5366
u 5366
cơ_thể 5365
xinh_đẹp 5362
nhân_viên 5354
thực_tế 5346
đến_nỗi 5339
không_thể_nào 5331
lướt 5330
dung 5326
tức 5322
vây 5322
lời_nói 5320
cờ 5315
màn 5314
thật_sự 5310
hiện_giờ 5307
thổi 5292
trại 5291
thanh_âm 5287
tình_cảm 5283
mắc 5279
chén 5277
vẽ 5272
tạm 5271
vỡ 5257
trí 5251
hoà_thượng 5251
lính 5244
thạch 5235
nghề 5233
s 5229
n@@ 5228
gdđt 5214
sản_phẩm 5208
bất 5207
toán 5204
liếc 5203
xử_lý 5200
khen 5186
dâng 5176
lao_động 5172
giành 5166
bối 5160
s@@ 5159
đòi 5159
chức 5146
không_chỉ 5139
tầng 5139
tròn 5135
lang 5133
trà 5129
xấu 5124
quỳ 5113
không_khí 5106
ném 5102
chốn 5093
địa_phương 5088
cơ_sở 5079
tống 5077
30 5076
vách 5076
2019 5075
giấu 5075
yếu 5068
nhỉ 5053
nghìn 5048
du_học 5031
đào_tạo 5023
hợp 5022
ẩn 5007
hiệu 4999
hỗ_trợ 4998
nhanh_chóng 4995
khai 4994
chữa 4993
kinh_ngạc 4991
xuyên 4974
đánh_giá 4964
dầu 4959
làn 4957
công_an 4953
lũ 4953
cảnh_sát 4951
trống 4948
lợi 4947
tần 4939
hai_mươi 4921
đồng_ý 4917
có_mặt 4908
giao_thông 4907
lăn 4902
ngoại 4899
cha_mẹ 4895
nghi_ngờ 4885
giúp_đỡ 4884
thất 4881
vỗ 4875
xưa 4866
cát 4865
nhà_sư 4849
hoàng_đế 4848
tùng 4846
sự_việc 4846
vui_mừng 4841
hà 4834
đeo 4829
thốt 4828
langdon 4812
chủ_nhân 4811
mặt_trời 4810
kết 4808
đảm_bảo 4797
hải 4792
cuộc_đời 4782
đơn_giản 4780
than 4779
chạm 4779
trẻ_em 4779
tiểu_nhân 4779
nợ 4769
nhật 4767
d@@ 4763
bãi 4756
nọ 4754
thế_thì 4753
gương_mặt 4752
phải_chăng 4750
trách 4748
ngắn 4742
chấp_nhận 4740
lọt 4740
sử 4732
va 4731
trừ 4728
thuỷ 4724
trương_vô_kỵ 4722
gạt 4714
cân 4710
cực 4703
tình_thế 4699
t@@ 4698
gồm 4696
ly 4695
chẳng_lẽ 4693
m 4690
11 4689
cho_phép 4686
thuật 4686
hôn 4684
tớ 4683
cất_tiếng 4680
giới_thiệu 4672
môt 4669
hào 4668
trăng 4659
bình_tĩnh 4656
-@@ 4652
tha 4648
bụi 4647
tươi 4640
sự_thật 4639
vọt 4633
khoa_học 4626
dấu 4620
chiến 4613
tiện 4609
dao 4606
nắng 4599
trọng 4587
cá_nhân 4579
hứa 4578
chúc 4574
i 4573
cấm 4573
ngược 4566
chờ_đợi 4564
thái_độ 4563
bầu 4558
ai_nấy 4555
nhân_dân 4552
vải 4548
lã_bất_vi 4547
tứ 4545
nhà_nước 4544
ngân 4544
miếng 4539
mượn 4536
tương_lai 4535
yên_tâm 4532
bóng_đá 4526
toan 4525
tiêu_điểm 4525
hộp 4523
dịch_vụ 4516
lực_lượng 4513
thức 4508
run 4507
sợi 4506
nương 4502
xây 4501
hạt 4495
xứ 4495
giám_đốc 4491
công_nghệ 4489
hoà 4489
ngắm 4480
mơ 4479
đau_đớn 4478
họp 4471
sứ 4463
khoá 4460
vũ 4460
ngoài_ra 4459
n 4454
tin_tức 4449
pha 4446
thèm 4444
nạn 4441
trầm_ngâm 4435
c@@ 4434
sản_xuất 4431
tư_mã 4426
tích_nhân 4426
quách_tĩnh 4422
lựa_chọn 4419
khinh 4412
ám 4411
kéo_dài 4410
chất_lượng 4408
lan 4403
tựa_hồ 4401
thánh 4399
ý_nghĩ 4396
gốc 4391
âu_dương_hải 4384
15 4381
thông_minh 4374
vết 4370
khối 4368
luật 4364
liên 4361
nghèo 4361
trôi 4359
tạ 4353
khắc 4348
trúc 4340
dịp 4338
hoàng_thượng 4338
# 4337
tp. 4330
lạc 4328
thuộc_hạ 4327
b 4321
treo 4318
thôn 4318
dọc 4317
sạch 4317
tượng 4314
nhất_thời 4314
nhiên 4311
tìm_kiếm 4306
tấn 4304
bốc 4302
thế_mà 4301
trưa 4298
hả 4297
tuyên_bố 4293
lầm 4287
quê 4284
cương 4280
hét 4277
đỗ 4276
xem_ra 4273
khúc 4269
hộ 4261
tiến_hành 4258
quà 4257
lôi 4255
hiệu_quả 4254
báo_cáo 4248
lỗi 4247
dần_dần 4230
thân_thể 4228
thừa 4226
thủ_tướng 4225
trị 4223
hay_là 4223
lý_trọc 4219
nghi 4212
ngẩng 4210
thể 4209
tiếp_theo 4205
vết_thương 4203
cho_dù 4201
kiến_thức 4200
hành 4200
lầu 4199
hừ 4198
phụ_huynh 4197
hận 4196
sư_đệ 4190
tắt 4189
xác 4188
thể_hiện 4184
di 4183
i@@ 4176
chương 4174
đoạt 4173
mật 4173
chính_thức 4169
nhập 4157
phương_pháp 4154
theo_dõi 4153
thái_hậu 4151
công_lực 4151
kinh_nghiệm 4139
môi_trường 4127
chí 4124
học_tập 4120
khô 4118
bảng 4116
ng@@ 4116
kỳ_lạ 4115
m@@ 4111
dựng 4111
đống 4110
may_mắn 4108
tự_do 4107
sẵn 4103
công_bố 4099
đối_thủ 4096
giá_trị 4092
nội_lực 4092
thượng 4088
phu 4088
usd 4087
hắc 4085
cua 4084
kết_thúc 4083
h@@ 4070
trực_tiếp 4067
khoản 4062
quá_trình 4060
một_hơi 4060
đau_khổ 4053
cột 4049
sa 4037
bánh 4030
hút 4029
chính_trị 4026
âm_thanh 4021
gà 4020
bạn_bè 4018
xin_lỗi 4018
mạch 4016
lỗ 4013
giặc 4012
kín 4009
thực_ra 4009
mục_đích 4006
đứt 4002
thì_ra 3997
tướng_quân 3996
phản_ứng 3996
nô 3995
ha_hả 3992
ngăn 3988
đương 3986
giáo_sư 3985
ngày_mai 3982
tiệc 3981
thiết_mộc 3981
vãn 3974
nguyễn_@@ 3968
ơn 3963
chăm_chú 3961
chứa 3955
rớt 3955
máy_bay 3954
hiển_nhiên 3951
chớp 3950
hoạ 3948
thả 3947
đà 3947
chiến_thắng 3946
lý_thế_dân 3939
bớt 3938
quái 3930
đồng_hồ 3928
vươn 3916
mồ_hôi 3915
tài_chính 3910
đói 3909
thời_điểm 3906
khuyên 3904
ngon 3896
nhiệm_vụ 3896
nhịn 3895
mái 3894
nước_ngoài 3892
tưởng_tượng 3890
triều_tiên 3887
jobs 3882
từ_chối 3881
ngầm 3877
vậy_mà 3877
chợ 3874
sẵn_sàng 3873
ngược_lại 3873
mục_tiêu 3871
mươi 3868
b@@ 3865
tuyệt_đối 3864
lẩm_bẩm 3864
bày 3861
một_vài 3853
rắn 3852
khoa 3851
mặt_đất 3850
thiết 3850
thước 3850
tất_nhiên 3849
lẽ 3841
đô 3835
khói 3833
tà 3830
cởi 3823
ngày_nay 3809
mà_lại 3807
hcm 3805
tốt_nghiệp 3805
trộm 3804
râu 3802
thanh_vân 3801
tu 3796
triển 3788
đinh 3782
bệnh_nhân 3780
ngưng 3780
liên_hệ 3779
loạn 3774
hoàng_dung 3774
hôm_qua 3770
say 3768
giật 3762
liên_tục 3759
liên_tiếp 3752
chấm 3746
chiến_tranh 3746
bóng_tối 3746
công_phu 3746
chấn_động 3741
chăm_sóc 3735
hổ 3727
x@@ 3715
a@@ 3714
thị_trấn 3714
hoang 3712
thiết_kỳ_sĩ 3712
diện 3708
_@@ 3707
hoàn_cảnh 3707
ân 3706
triển_khai 3704
bố_mẹ 3704
môn_phái 3704
cưới 3701
chiến_đấu 3699
tp 3694
ông_già 3691
tầm 3690
lai 3689
đòn 3688
thò 3687
mở_cửa 3683
nhà_trường 3682
nhắm 3677
gãy 3675
không_những 3671
ubnd 3670
ni 3670
hư_trúc 3668
hẹn 3665
huyết 3664
xử 3662
bao_lâu 3658
phen 3657
đả 3654
ôi 3645
khổng_lồ 3643
thuê 3642
điều_trị 3641
đất_nước 3640
tỉ 3639
chuông 3637
bọc 3627
dặn 3625
iran 3624
đối_diện 3623
đầy_đủ 3621
âu 3614
o@@ 3607
tâu 3607
hoàn_thành 3606
nội_dung 3605
ý_nghĩa 3602
lừa 3602
chả 3602
tiết_lộ 3601
thất_bại 3599
tiêu_phong 3591
muộn 3590
hè 3589
giấc 3582
đơn_vị 3573
ít_nhất 3573
khẩu 3570
há 3569
không_gian 3568
nở 3564
tia 3564
tặc 3562
gác 3555
đụng 3553
điền 3545
múa 3543
triều 3543
ký 3541
nghiêm 3539
thuận 3539
giọt 3535
bổn 3534
thành_viên 3533
xăng 3533
hành_vi 3531
cành 3527
nhíu 3524
lãnh 3523
ấn 3520
đối_tượng 3518
ngày_càng 3517
điên 3517
khoe 3509
đến_nơi 3503
xem_xét 3501
phạt 3497
trái_tim 3496
tay_phải 3492
hiếm 3491
binh_khí 3491
tốc_độ 3490
cung_cấp 3489
phạm 3489
ngô 3487
du_lịch 3480
thường_xuyên 3477
đại_diện 3475
phản 3467
phục_vụ 3465
lặng_lẽ 3465
p@@ 3459
danh_sách 3458
lăng 3453
tuyến 3447
bút 3446
tệ 3441
khó_chịu 3438
chị_em 3433
biện_pháp 3432
khách_sạn 3430
mê 3421
tầm_thường 3420
tình_huống 3419
dắt 3419
cảm_ơn 3412
vn 3411
trò 3410
ép 3410
cụ_thể 3405
tiếng_nói 3404
bấy_giờ 3403
tức_là 3402
tuân 3402
rửa 3402
đan 3396
bất_kỳ 3392
dịu_dàng 3391
loài 3389
bếp 3388
khoảnh_khắc 3386
ra_mắt 3385
vững 3384
ghé 3381
50 3378
phù_hợp 3376
mồm 3373
đáy 3369
cần_thiết 3368
học_trò 3363
giàu 3355
apple 3353
xếp 3352
hảo 3351
hợp_tác 3348
.@@ 3347
khắp_nơi 3347
nãy 3344
hồn 3343
xác_định 3341
quyển 3341
hang 3340
hít 3340
luôn_luôn 3340
đạn 3340
hất 3333
mộ 3330
r@@ 3329
khăn 3327
pho 3326
nha 3322
lật 3319
thẩm_mộc_phong 3319
chắp 3317
e@@ 3316
thủ_hạ 3316
g@@ 3307
u@@ 3307
văn_bình 3307
tham_dự 3303
hưởng 3303
đùa 3300
chỉ_huy 3299
gương 3297
chở 3295
thiết_kế 3294
kỹ_thuật 3292
phiên 3288
ba_mươi 3288
mắng 3286
bí 3284
chui 3284
chậm_rãi 3278
l@@ 3271
h 3270
khách_hàng 3269
đậu 3268
nữ_sinh 3268
giận_dữ 3263
phát_giác 3261
hãng 3257
chìm 3257
nạn_nhân 3252
nghỉ_ngơi 3251
sữa 3248
nhắm_mắt 3247
thét 3246
clip 3236
bông 3234
p 3233
tuỳ 3232
đi_lại 3226
trình 3223
đề_phòng 3223
chu 3223
lạy 3223
nghiêng 3222
nát 3217
internet 3215
đại_gia 3212
tác_giả 3211
lông 3208
trưởng_lão 3205
tướng_công 3201
ngắt 3200
ồ 3193
thơm 3192
mẹ_con 3190
ống 3189
thưởng 3185
cố_ý 3181
vừa_mới 3180
ấn_tượng 3179
vỏ 3175
y_tế 3171
13 3166
giây_lát 3166
quân_đội 3164
nguy_cơ 3161
vô_tình 3161
tử_vong 3156
xuất_sắc 3154
cứng 3152
thủ_đoạn 3148
ung_thư 3147
cỗ 3147
chịu_đựng 3145
phối_hợp 3138
nh@@ 3137
cắn 3137
nghiêm_trọng 3134
tồn_tại 3134
căng_thẳng 3133
ăn_uống 3133
thức_ăn 3133
chính_sách 3131
am 3122
ra_lệnh 3121
bám 3117
mệt_mỏi 3117
thoải_mái 3112
lĩnh_vực 3109
công_trình 3109
thất_vọng 3101
văn_phòng 3099
mạnh_mẽ 3095
mộc 3093
bộ_trưởng 3090
dân_tộc 3090
quét 3090
4/3 3089
quản 3086
tin_tưởng 3084
sàn 3082
bầu_cử 3075
nhật_bản 3073
hoàn 3073
thảo 3072
quảng_cáo 3070
100 3068
tông 3067
biến_sắc 3066
tâm_sự 3063
to_lớn 3059
chính_xác 3058
đột_ngột 3057
mũ 3057
dính 3056
vu 3055
chuyên_gia 3055
nhu_cầu 3054
đình 3053
chỉ_đạo 3049
4@@ 3047
giai_đoạn 3043
chế 3042
châm 3041
tác_phẩm 3039
bỗng_nhiên 3038
k@@ 3037
giày 3036
trang_chủ 3036
phúc 3034
bơi 3034
tài_sản 3033
ngôi_sao 3030
tiễn 3027
khoẻ 3025
đê 3025
gầm 3023
ma_giáo 3023
dì 3017
chặn 3016
tai_nạn 3012
mở_rộng 3012
1/3 3012
bố_trí 3006
thần_sắc 3004
bất_luận 3000
quân_sự 2997
tống_cương 2997
tụi 2992
hưng 2991
ipad 2991
mọc 2987
thù 2987
bầu_trời 2986
tháp 2982
dạo 2979
hầm 2977
suối 2975
kiều_phong 2975
hỏng 2973
giây 2971
rốt_cuộc 2971
leo 2969
do_đó 2968
du 2963
lạng 2963
ban_đầu 2961
cộng_đồng 2960
cú 2960
máy_tính 2960
toả 2959
bước_đi 2956
nghệ_thuật 2956
dãy 2956
dương_@@ 2953
ấm 2953
v@@ 2952
5@@ 2950
top 2947
ngửa 2947
chỉ_tiêu 2945
thiếu_gia 2943
chi_tiết 2939
cảm_nhận 2938
hội_đồng 2934
ho 2934
trao_đổi 2932
ngấm_ngầm 2932
đầu_óc 2929
ng 2927
dốc 2925
tảng 2920
thừa_chí 2918
xúc_động 2917
đo 2910
qua_đời 2909
chia_tay 2907
video 2902
sài_gòn 2901
ch@@ 2901
trần_@@ 2901
trán 2898
ngẩn 2890
thú_vị 2889
ghê_gớm 2886
lục_tuyết_kỳ 2884
nặng_nề 2880
cưỡi 2877
sương 2877
thông_qua 2876
thỉnh_thoảng 2872
trịnh_vi 2872
bại 2870
mệt 2870
tự_tin 2868
doanh_doanh 2867
việc_làm 2862
hình_thức 2858
tái 2858
dày 2858
huyền 2857
đám_cưới 2854
hội_nghị 2849
bữa_nay 2846
mệnh 2845
nguỵ 2845
địa 2841
17 2841
vay 2840
chứng_kiến 2836
đại_@@ 2834
té_ra 2834
cước 2833
người_yêu 2832
ôn 2831
huế 2827
thê 2827
cô_giáo 2822
ứng 2821
lau 2821
ngớt 2820
đợt 2817
anh_chàng 2817
gói 2816
cửa_hàng 2815
nêu 2814
kinh_hoàng 2809
phức_tạp 2808
phản_đối 2808
tộc 2808
kha 2805
tính_toán 2801
hạ_mạt 2798
an_ủi 2796
chớp_mắt 2795
giả_vờ 2795
trung_nguyên 2795
2/3 2794
thục 2793
d 2791
ghét 2790
tiết 2788
soái 2786
dư 2782
nghĩa_là 2779
kết_luận 2771
con_bé 2770
vi_phạm 2769
trước_kia 2768
hạn_chế 2766
có_khi 2764
putin 2755
6@@ 2751
tình_dục 2748
thí_chủ 2747
29/2 2746
8@@ 2743
vũ_trụ 2741
tắm 2736
tỏ_vẻ 2734
chủ_yếu 2733
không_chừng 2732
bất_quá 2731
18 2730
nhạc_bất_quần 2729
vực 2728
trẻ_con 2726
nhường 2725
lều 2725
đươc 2716
hợp_đồng 2715
lên_đường 2715
khanh 2710
gan 2709
ruột 2709
ưng 2706
tân_@@ 2702
yến 2702
mừng_rỡ 2701
dị 2698
cừu 2696
cắm 2696
quy 2693
phi_thường 2691
cao_cường 2687
lôi_phi 2687
ra_vẻ 2686
bao_gồm 2685
dù_sao 2685
ngại 2683
vương_@@ 2683
trung_ương 2681
sáng_tạo 2681
dũng 2673
năng_lực 2667
bỏ_qua 2664
chăn 2660
mỹ_nhân 2658
cử_động 2657
tìm_hiểu 2654
diệu 2653
thạch_chi_hiên 2650
hiếu 2649
đà_nẵng 2648
miếu 2647
kiếp 2646
thảm 2645
hấp_dẫn 2643
đua 2642
hoa_sơn 2641
hồ_sơ 2638
tăng_cường 2638
ổn_định 2638
chung_quanh 2637
nhân_tài 2634
hành_lang 2634
kho 2633
người_thân 2630
vô_số 2628
lén 2627
trồng 2625
khán_giả 2624
nhà_vua 2621
phẫu_thuật 2620
lợi_dụng 2619
vai_trò 2618
duyên 2616
như_thể 2614
sa@@ 2605
tỳ 2605
nấu 2600
yêu_thương 2598
tiến_sĩ 2594
thản_nhiên 2593
chế_độ 2591
hầu_hết 2590
dạng 2589
quen_thuộc 2587
thế_kỷ 2583
lạc_hi 2581
mong_muốn 2579
tương 2575
l 2575
thực_phẩm 2574
chau 2569
hiểu_phong 2567
kiểm_soát 2566
giải_pháp 2565
loan_loan 2565
sắp_xếp 2564
đạp 2562
điều_chỉnh 2559
chẳng_những 2559
tổn_thương 2556
40 2556
phường 2554
chẳng_thể 2554
biên_hoang 2552
móc 2548
cái_bang 2548
thiện 2547
hư 2545
chi_phí 2541
thống_nhất 2540
trói 2540
một_nửa 2539
đối 2538
nén 2537
an_ninh 2536
ổn 2536
bằng_hữu 2536
thừa_nhận 2534
đế 2532
vương_gia 2532
hầu_như 2531
16 2529
hoà_bình 2527
dồn 2527
y_phục 2526
nội_công 2526
lành 2525
biên_hoang_tập 2525
mái_tóc 2524
vũ_khí 2523
biểu_diễn 2523
thiên_@@ 2521
ý_định 2518
tạm_thời 2516
nộp 2507
tham 2507
xé 2506
trương_@@ 2504
té 2503
tạ_tốn 2502
gánh 2500
lạc_dương 2499
đáp_ứng 2498
chính_quyền 2498
dấu_hiệu 2495
đuôi 2494
phe 2492
vừa_qua 2490
báo_chí 2490
26 2489
hòn 2484
ung_dung 2484
căn_cứ 2482
cửu 2478
khám_phá 2476
khỉ 2474
áp 2472
3@@ 2469
tính_mạng 2468
dụng 2464
phùng_phá_thạch 2459
tâm_lý 2458
thâm 2457
áp_dụng 2454
tâm_thần 2447
thai 2445
rót 2444
tháo 2444
đông_phương_thanh_vân 2443
diễn_viên 2441
hạnh 2440
cao_ngạn 2440
tương_tự 2437
giải_thưởng 2437
phương_tiện 2435
vệ 2435
biểu 2434
tế 2432
cau 2432
doãn_hạ_mạt 2432
thật_ra 2431
25 2430
roi 2430
nguy 2430
khuya 2429
mé 2428
thiệt 2428
vụt 2427
nghĩ_bụng 2427
hoang_mang 2423
thành_lập 2423
tiếng_động 2423
nháy_mắt 2423
lăng_độ_vũ 2422
thanh_tra 2421
lẽ_nào 2421
kỷ_yên_nhiên 2421
thọ 2419
hệ 2418
lãnh_như_băng 2417
li@@ 2416
tiểu_hôi 2415
thề 2414
sung_sướng 2413
sườn 2412
đằng_dực 2412
hướng_dẫn 2410
sai_lầm 2404
chôn 2404
dược 2404
rít 2404
bom 2403
quảng_bình 2402
tác_dụng 2402
hễ 2402
liên_lạc 2401
bản_lĩnh 2398
cộng 2397
lắng_nghe 2397
mộng 2395
đề_xuất 2393
14 2393
3/3 2391
bưng 2391
thiết_bị 2388
phổ 2386
ơ 2385
học_bổng 2383
nhu 2383
giang 2382
im 2379
xưa_nay 2379
rồng 2379
kim_@@ 2378
non 2376
tuyệt_vời 2375
tán 2375
sửa 2372
thân_phận 2371
trấn 2371
muôn 2370
tài_năng 2369
số_lượng 2359
tphcm 2359
điếm 2359
kiến 2358
khủng_khiếp 2358
thu_hút 2357
hiệu_trưởng 2357
cạn 2356
cà_phê 2355
phần_lớn 2355
tràn 2355
trẫm 2354
tâm_hồn 2351
a_@@ 2351
phụ_thân 2351
giam 2350
trước_tiên 2349
vụ_việc 2348
châu_âu 2345
gắn 2344
vương_thế_sung 2344
tù 2341
g 2340
mãnh_liệt 2339
biến_hoá 2339
xác_chết 2337
có_lý 2337
hung 2335
đ@@ 2334
âu_thần 2334
khám 2333
mạc 2330
triệu_mục 2330
gậy 2329
kể_cả 2327
gục 2327
thuyết_phục 2326
thi_thể 2326
thuế 2324
điền_bất_dịch 2324
tiệm 2323
đời_sống 2322
trợn 2322
chẳng_qua 2320
hiền 2319
.... 2318
béo 2318
vội_vã 2317
tập_đoàn 2316
con_số 2311
thời_trang 2311
áp_lực 2310
chầm_chậm 2310
ước 2309
ngay_lập_tức 2309
tràng 2308
quyết_tâm 2304
vĩnh_viễn 2304
ắt 2303
ngự 2302
lạ_lùng 2301
khống_chế 2301
đồi 2299
9@@ 2297
vơi 2297
đóng_cửa 2295
rung 2295
dập 2294
quả_thực 2294
cử 2292
nuốt 2291
cuộc_chiến 2290
000 2290
bổ 2289
tốn 2288
biết_đâu 2288
ty 2286
kẻ_thù 2286
đe_doạ 2285
hối_hận 2285
cớ 2285
nguyệt 2284
di_chuyển 2283
lái 2283
nổi_giận 2283
quốc_hội 2282
ma@@ 2282
phụ_trách 2278
18@@ 2277
th@@ 2275
lạt 2274
tiểu_@@ 2274
mông_cổ 2274
đột 2269
giấy_phép 2267
cảm_xúc 2267
lỡ 2266
đền 2266
nỗ_lực 2264
cổ_tay 2261
dụ 2260
đồn 2260
hiện_đại 2259
biến_đổi 2259
bến 2258
góp_ý 2257
đùi 2256
tỷ_lệ 2255
xám 2254
bề 2254
truyện 2254
ngờ_đâu 2254
hậu_quả 2251
triều_đình 2250
nhận_xét 2249
tiếp_xúc 2248
o 2248
nhầm 2247
tài_liệu 2247
chấn 2247
lần_lượt 2246
quen_biết 2246
sửng_sốt 2245
sư_phi_huyên 2245
một_khi 2243
dân_chúng 2243
giám_sát 2242
khe 2239
tiểu_học 2239
ngước 2232
dê 2232
tách 2229
lâm_bình_chi 2226
trạm 2224
gạo 2224
tay_chân 2224
7@@ 2223
làm_chi 2221
tô 2219
sổ 2217
ứng_phó 2216
phân_biệt 2214
thái_tử 2214
gượng 2214
gót 2213
kèm 2211
viêm 2209
10@@ 2208
hằng 2206
ga 2205
rẽ 2205
minh_bạch 2204
ca_sĩ 2204
đồng_chí 2203
bận 2202
mặt_mũi 2201
năm_học 2199
cha_con 2198
bổng 2198
dáng 2198
cười_nhạt 2198
ngơ_ngác 2197
kỷ_niệm 2196
ý_tưởng 2195
kích 2195
reo 2195
âm_nhạc 2193
hoàn_hảo 2191
mạo_hiểm 2191
kết_hợp 2190
diệt 2190
bảo_đảm 2189
hoài 2185
bia 2185
tư_vấn 2184
bí_ẩn 2184
k 2182
xen 2180
lưới 2179
mẫu_thân 2179
y@@ 2178
mực 2178
nhiễm 2177
rau 2171
lý_uyên 2171
cách_mạng 2170
lệnh_hồ 2170
quyền_lực 2169
chứng_minh 2169
chuyển_động 2167
no 2167
nhấc 2167
phân_tích 2164
nhà_máy 2161
nhãn 2160
tay_áo 2159
vẫy 2157
vtc 2157
hoá_ra 2156
xà 2155
á 2154
lưu_@@ 2153
phẩm 2151
kiên 2151
nghệ_an 2150
sảnh 2150
khoang 2148
cung_kính 2148
thang 2147
căn_bản 2145
hải_phòng 2144
se 2142
cốt 2139
trước_nay 2139
vuốt 2137
điều_khiển 2135
buồn_bã 2135
mổ 2133
mưu 2133
ngốc 2133
đối_mặt 2132
vứt 2131
đồ_phụng_tam 2130
gối 2129
thế_lực 2129
lấp_lánh 2129
nam_@@ 2128
sở_hữu 2128
thập 2128
tiểu_hoàn 2128
24 2127
trứng 2126
truyền_thống 2125
rút_lui 2123
cầu_thủ 2123
giáp 2123
ti@@ 2122
cường 2122
hoàng_@@ 2121
bẩm 2121
sinh_tử 2120
cản 2119
làm_ăn 2118
du_thản_chi 2118
cao_thâm 2117
đôi_khi 2116
địa_vị 2115
bổ_sung 2114
thiền 2114
mù 2112
loé 2106
phất 2106
gi@@ 2105
mộ_dung_phục 2105
công_nhân 2104
do_dự 2102
vất_vả 2098
chứng_tỏ 2098
kỳ_quái 2095
chủ_động 2093
nghiệp 2093
tuấn 2092
thạch_phá_thiên 2092
yếu_tố 2091
hành_trình 2091
thần_bí 2091
thay_thế 2090
nghệ_sĩ 2090
bối_rối 2087
xóm 2087
khó_lòng 2086
cho_hay 2085
tề 2085
ra_hiệu 2082
cãi 2081
sự_nghiệp 2080
chán 2080
bào 2080
não 2079
xách 2079
bừng 2078
bản_lãnh 2078
lý_mật 2078
al@@ 2077
vũ_văn_hàn_đào 2077
le@@ 2076
lái_xe 2075
may_mà 2073
ngăn_cản 2072
ứng_dụng 2070
luận 2070
phương_tú 2068
ky 2066
bịt 2066
thu_hồi 2065
kìa 2065
duy_trì 2064
đầm 2063
hiền_đệ 2063
tr@@ 2062
sĩ 2062
hài_lòng 2061
tư_cách 2061
thùng 2060
biết_bao_nhiêu 2060
mũi_tên 2059
phạm_@@ 2058
nhạc_linh_san 2058
bích_dao 2058
hạt_nhân 2055
lúng_túng 2055
trước_hết 2055
thế_gian 2055
kỳ_dị 2052
cảm_kích 2051
né_tránh 2050
bi 2050
mười_hai 2050
thị_vệ 2049
đựng 2048
bất_tất 2048
thăng 2047
thái_giám 2047
trỏ 2042
nhanh_nhẹn 2038
côn 2036
thanh_thanh 2035
kỷ_thiên_thiên 2035
xô 2034
báo_thù 2033
dáng_vẻ 2032
katie 2032
gặp_mặt 2031
uy 2031
nghiến 2031
sơ 2030
vỗ_tay 2028
biên_giới 2027
chất_độc 2026
đè 2025
bầy 2025
kỷ 2023
nào_ngờ 2023
hoài_nghi 2023
chúng_mình 2019
kỵ 2018
2018 2016
chu_nhất_tiên 2014
ăn_mặc 2013
hàng_đầu 2012
so_sánh 2008
thích_thú 2008
liễu 2008
trèo 2007
nổi_bật 2007
nhặt 2007
vê 2006
tố_tố 2006
ngày_xưa 2004
di_động 2003
vắng 2001
nhà_thờ 2001
nầy 2001
khoảng_cách 2000
dâu 2000
chửi 2000
lụa 2000
trùm 1999
tích_cực 1998
quá_khứ 1997
không_trung 1995
ngây 1995
giương 1994
năng_lượng 1992
màn_hình 1992
tàn 1991
trào 1991
phụng 1991
f@@ 1990
âm_mưu 1990
kh@@ 1988
rực_rỡ 1988
hở 1987
mỏng 1987
thây 1987
ca@@ 1986
hứng_thú 1986
ngoại_giao 1985
loạt 1984
nhiệt 1984
la@@ 1983
rẻ 1982
nhà_khoa_học 1979
hàn_quốc 1979
quan_điểm 1977
quan_tài 1976
ch 1976
vinh 1974
bộ_phận 1974
tần_nhi 1974
hiện_tượng 1973
tốt_đẹp 1972
cựu 1972
cổn_long_vương 1972
dư_luận 1971
an@@ 1971
mèo 1971
tím 1971
năm_xưa 1971
cđ 1969
đại_sảnh 1968
thủ_pháp 1965
mau_lẹ 1965
trình_độ 1964
thay_vì 1964
tra 1964
hàng_loạt 1963
2010 1962
ngôn 1962
thế_hệ 1961
gặp_gỡ 1960
ngô_tam_quế 1960
váy 1959
thi_lễ 1958
lợi_ích 1957
mức_độ 1956
dại 1956
đáp_án 1956
huống_chi 1955
hợp_lý 1953
nhát 1953
thương_mại 1952
cơ_bản 1950
khâu 1950
tiện_thiếp 1950
hiểu_biết 1949
19 1948
trò_chuyện 1948
cám_ơn 1947
ph@@ 1943
ván 1942
tự_nhủ 1942
bệ_hạ 1941
giở 1940
đoàn_dự 1940
bề_ngoài 1938
vả_lại 1938
tư_tưởng 1937
kêu_gọi 1937
điệt 1937
vô_địch 1935
ê 1934
sự_thực 1934
quỹ_nhân 1933
liệt 1932
thủ_đô 1932
xá 1929
rậm 1928
mông 1927
cảm 1926
phẫn_nộ 1924
đồng_thanh 1924
lạnh_lẽo 1923
minh_chủ 1923
địa_bàn 1922
dự_kiến 1921
đánh_bại 1921
quỹ 1920
ngõ 1920
quãng 1920
độc_thủ 1919
can_thiệp 1918
lợn 1916
động_tác 1916
_ 1913
chứng 1912
ý_muốn 1912
vff 1912
nhã 1912
dữ_dội 1912
chiêu_thức 1912
ha 1911
x 1910
niệm 1909
anna 1909
co@@ 1908
bắc_kinh 1907
chiến_lược 1905
sờ 1903
dữ 1903
ấm_áp 1901
ừ 1901
thói_quen 1900
toát 1900
khéo 1900
nối 1899
xứng_đáng 1899
tủ 1899
phóng_viên 1898
lê@@ 1898
đại_tướng 1896
chủ_nhật 1895
óc 1893
ỷ 1892
đĩa 1891
tử_lăng 1890
na 1889
bái 1889
chánh 1888
đi_nữa 1887
thân_pháp 1887
trùng 1883
v 1881
thợ 1881
khôn 1881
ấn_độ 1880
biết_bao 1879
sốc 1878
dọn 1878
nghĩ_ngợi 1878
giếng 1878
mở_mắt 1876
yên_lặng 1874
tát 1872
cầu_thang 1871
hoa_thiên_hồng 1871
thần_công 1867
tâm_trạng 1865
quỷ_vương 1865
khoan 1864
man 1863
khoé 1863
lo_sợ 1862
khác_biệt 1861
khai_thác 1859
sâu_sắc 1857
cũng_nên 1857
kiềm_chế 1857
chìa_khoá 1857
nảy 1857
băn_khoăn 1854
thích_hợp 1853
thành_tích 1853
60 1853
mộ_dung_thuỳ 1853
28/2 1852
suy 1851
công_khai 1851
tò_mò 1850
phảng_phất 1849
biểu_hiện 1847
đặng_@@ 1846
chân_tay 1845
thanh_@@ 1845
dương_thu 1845
trút 1844
14@@ 1843
cảm_động 1843
hiv 1842
dẫu 1841
lẹ 1841
thấu 1840
trái_đất 1839
xấu_hổ 1839
thờ 1839
lý_xuân_hoa 1839
sân_khấu 1838
khôi 1838
tiêu_dao 1838
oai 1837
ví_dụ 1836
sau_cùng 1836
vật_chất 1835
chống_đỡ 1834
đắc_ý 1834
hé 1833
kịch 1833
trung_bình 1832
thông_thường 1832
27/2 1832
càn 1832
giao_dịch 1831
giục 1831
tiếp_cận 1829
đầu_hàng 1829
soi 1828
nhục 1828
khấu 1828
công_nghiệp 1827
phát_huy 1827
bằng_lòng 1827
phun 1827
suýt 1826
rú 1826
văn_bản 1825
ta@@ 1825
mát 1825
12@@ 1824
liên_tuyết_kiều 1824
tiêu_diệt 1822
nói_nhỏ 1822
truyền_thông 1821
trọng_thương 1821
t_@@ 1820
tre 1820
khác_nào 1817
thi_hành 1816
15@@ 1815
hoảng_sợ 1815
kịp_thời 1814
thời_kỳ 1814
bao_vây 1814
đòi_hỏi 1813
bách_lý_băng 1813
chỉ_trích 1812
nhận_định 1811
triển_lãm 1811
17@@ 1808
21 1807
ba@@ 1807
xua 1806
thu_nhập 1805
thcs 1804
rắc_rối 1803
thuở 1802
xoa 1799
lo_ngại 1798
vú 1798
syria 1797
to@@ 1797
hông 1796
qua_lại 1796
khanh_khách 1795
thủ_tục 1794
tú 1794
địa_điểm 1793
triệu_nhã 1793
an_@@ 1792
thận_trọng 1791
đoạt_hồn_kỳ 1791
lo@@ 1790
vận_động 1790
nói_dối 1790
gầy 1789
quái_nhân 1788
điện_tử 1787
em_gái 1787
thở_phào 1786
libya 1785
chấm_dứt 1783
thân_thiết 1783
nóc 1783
chi_bằng 1783
kê 1780
ngửi 1780
ngu 1780
văng 1779
kiệu 1779
khung 1777
dù_cho 1777
vé 1776
mờ 1776
đam_mê 1776
đích_thân 1776
back 1775
nghiêm_túc 1774
nông_dân 1772
lô 1772
mỹ_nữ 1771
nhạt 1770
chứng_khoán 1769
đáng_kể 1769
bạt 1769
hạ_sát 1768
re@@ 1767
lý_viên 1767
gia_tăng 1766
nút 1766
hlv 1765
xác_nhận 1765
huỷ 1765
cán 1765
rối_loạn 1765
vở 1765
hoảng_hốt 1765
hảo_hán 1765
đạo_đức 1764
hoa_kỳ 1763
nhăn 1763
bần_đạo 1763
tác_động 1762
khuất 1761
điêu 1760
căng 1759
giảng 1758
thuần 1758
đồ_đệ 1757
đ 1755
ngoại_trừ 1755
gp 1755
trường_học 1754
tửu 1754
28 1753
tổ_hợp 1753
từ_khoá 1752
hình_thành 1750
vó 1750
tiết_kiệm 1748
chuột 1745
biểu_tình 1745
_h@@ 1744
rộng_rãi 1744
thổ 1744
phiến 1743
1050 1743
trăm_năm 1741
tươi_cười 1741
tố 1739
tranh_cãi 1739
tích 1738
miễn_cưỡng 1736
chuẩn 1735
nghĩ_lại 1734
ri@@ 1733
btttt 1733
n_@@ 1731
gõ 1731
sát_hại 1730
16@@ 1728
nhà_thơ 1728
yên_tĩnh 1727
2@@ 1726
coi_thường 1726
sấm 1726
mu 1725
font_unicode_đặt_dân 1725
15-07-2008 1725
tính_cách 1724
nghi_lâm 1724
minh_@@ 1723
thỉnh 1723
trâu 1723
người_nhà 1722
r 1721
hoả 1721
thì_thầm 1720
vi@@ 1719
sv 1719
facebook 1717
ar@@ 1717
ngọc_@@ 1716
giải_trí 1716
thành_ra 1716
cưỡng_chế 1715
mở_miệng 1715
pm 1715
hằng_sơn 1715
muối 1714
lĩnh 1714
nhà_ngươi 1714
bế 1713
săn 1712
khủng 1711
tước 1711
quấn 1711
địch_vân 1711
mềm 1710
liều 1709
thiền_sư 1709
thi_đấu 1708
run_rẩy 1708
cử_chỉ 1708
cam 1707
võ_sĩ 1705
tiểu_bạch 1703
trời_đất 1702
thương_hiệu 1701
ngôn_ngữ 1701
quạt 1700
nạp 1698
thẳm 1698
hiên 1697
_b@@ 1696
dời 1696
sanh 1696
tử_tế 1695
chẳng_hạn 1695
toạ 1693
huy 1691
mặt_nạ 1691
dán 1690
cao_minh 1690
en@@ 1689
sư_phạm 1689
đường_phố 1687
mép 1687
phát_biểu 1686
kiêm 1686
sơ_hở 1686
văn_@@ 1684
lặng 1684
sn 1683
ro@@ 1683
công_chức 1683
gạch 1680
người_lớn 1678
_m@@ 1677
dàn 1676
tính_tình 1675
đa_tạ 1675
khoẻ_mạnh 1672
rượt 1672
đóng_góp 1671
màu_sắc 1671
tĩnh 1671
80 1670
_l@@ 1670
thí 1668
trình_diễn 1668
phàm 1668
kim_hoa 1667
phải_biết 1666
đô_thị 1666
ngoan 1664
xa_xa 1664
cộng_hoà 1663
ý_thức 1662
khôi_phục 1661
thư_viện 1661
phương_trượng 1658
thiếu_soái 1656
liễu_mi 1656
tổng_số 1655
quân_bình 1655
300 1654
sốt 1654
thuý_ái 1654
hs 1653
duy 1653
hy_sinh 1652
phát_sinh 1651
rách 1651
cõi 1650
trinh 1649
bắt_buộc 1649
chai 1649
thúc_bảo 1649
tập_thể 1648
trình_bày 1648
con_cái 1647
thảm_hoạ 1645
ăn_nói 1645
phiền 1644
hài 1643
uỷ_ban 1643
tạp_chí 1643
bội 1643
mười_lăm 1642
ngả 1642
quí 1642
phai 1641
rảo 1641
tôn_giáo 1640
vadim 1639
tri 1638
vào_khoảng 1638
học_viện 1638
hoa_@@ 1638
quyến_rũ 1638
hạ_thủ 1638
nhận_thức 1637
miễn_phí 1637
tơ 1637
cảnh_tượng 1637
ngăn_chặn 1636
nhốt 1636
phán 1636
buôn_bán 1635
xưng 1635
hình_dung 1635
bách 1633
bão 1632
địa_chỉ 1632
số_phận 1631
trả_thù 1631
khí_thế 1631
thác 1630
tôn_quách 1630
lò 1629
ts 1628
bà_con 1628
hiệp_sĩ 1627
lên_ngôi 1626
tụ 1626
ra@@ 1626
năm_ngoái 1625
bưu_điện 1625
8/3 1625
nhà_lãnh_đạo 1624
sinh_hoạt 1624
phần_mềm 1624
gmt 1624
khác_thường 1623
công_nhận 1622
chức_năng 1621
kiến_trúc 1621
harry 1621
tự_hào 1620
khép 1619
trạng_thái 1619
cơ_hồ 1619
phắt 1618
ho@@ 1616
châu_á 1615
trầm_trọng 1615
quản_trung_tà 1615
vạch 1614
tôn_trọng 1610
ướt 1610
thắp 1610
đại_biểu 1609
đào_gia_kỳ 1609
tư_thế 1608
500 1606
lắc 1606
trang_phục 1606
khâm_phục 1606
bụng_bảo_dạ 1606
lạt_ma 1606
mét 1605
nhào 1605
_c@@ 1604
dưỡng 1603
đông_@@ 1602
ra_chiều 1602
giới_hạn 1601
củi 1601
tiến_bộ 1600
de@@ 1600
thắc_mắc 1600
cao_lớn 1599
tuôn 1599
hiểm 1598
rung_động 1598
kg 1596
đối_xử 1596
điền_bá_quang 1596
phong_cách 1595
âu_dương_thống 1595
chelsea 1593
đên 1590
22 1589
đắt 1589
thanh_hoá 1589
thẻ 1589
hoàng_cung 1589
n.@@ 1588
mo@@ 1588
nhấn_mạnh 1587
trung_@@ 1587
di@@ 1587
lùn 1587
chằm_chằm 1587
đại_lý 1586
vô_hình 1585
phổ_biến 1584
nhổ 1584
công_bằng 1583
bốn_mươi 1583
ban_ngày 1583
đột_lợi 1583
bày_tỏ 1582
cuộn 1582
ngập_ngừng 1582
ra_đời 1580
xích 1579
ong 1579
trịnh 1579
bất_chấp 1578
nấp 1578
đổng 1578
200 1577
sở_dĩ 1576
ao 1576
tội_nghiệp 1576
nh 1575
tha_thứ 1575
chung_kết 1574
giám 1574
ruộng 1574
thiếu_phụ 1574
si 1573
ngẫm_nghĩ 1572
so@@ 1571
lúa 1569
tê 1569
tình_cảnh 1568
truy 1568
nhậm 1568
mặt_mày 1568
cát_tư_hãn 1568
ưa 1566
đề_cập 1566
ông_bà 1566
trụ 1565
thái_lan 1564
quái_dị 1564
nắp 1564
nghệ 1563
lai_lịch 1563
gào 1563
dẹp 1561
thừa_cơ 1561
khẩn_trương 1560
chân_thành 1560
thương_yêu 1560
tức_thì 1559
hiển 1559
_s@@ 1558
nhỏ_bé 1558
chắn 1557
nói_năng 1557
ảo 1556
thép 1555
oscar 1555
bồi 1555
cảnh_báo 1554
trơ 1554
điểm_huyệt 1554
bất_động 1553
tủm_tỉm 1552
truyền_hình 1549
giây_phút 1549
bể 1549
cạnh_tranh 1548
ngữ 1548
tiên_lãng 1548
kim_cương 1547
paris 1546
mi@@ 1546
quan_chức 1545
thời_tiết 1545
xung 1544
xoáy 1543
tam_@@ 1543
ngày_đêm 1543
chốc_lát 1543
đội_ngũ 1542
nhà_văn 1542
vận_chuyển 1540
mới_đây 1540
rùng_mình 1540
liệng 1540
chê 1538
sơn_la 1536
chiến_trường 1536
nỡ 1536
công_dân 1532
truyền_thụ 1532
chúng_nó 1531
nhúc_nhích 1531
đạo_huyền 1530
mãi_mãi 1529
xem_chừng 1528
mười_tám 1528
hoảng 1527
hồ_đồ 1527
se@@ 1526
vút 1526
dinh_dưỡng 1525
buồng 1525
hài_nhi 1525
bất_động_sản 1524
_t@@ 1524
nguyện 1523
bó 1523
tí 1523
quê_hương 1523
trang_bị 1521
cải_thiện 1521
doanh 1521
đếm 1521
trời_ơi 1521
rộng_lớn 1518
phù 1517
me 1516
ốm 1516
cất_bước 1516
sáng_rực 1515
la_sát 1515
lịch 1514
lưu_ý 1514
thong_thả 1514
chép 1514
pháo 1513
ồn_ào 1512
kỹ_năng 1511
bộ_mặt 1511
nhắc_nhở 1509
cười_cười 1509
hầu_hi_bạch 1509
sứ_giả 1508
năm_mươi 1507
cảnh_giác 1507
hung_thủ 1507
uy_hiếp 1507
kinh_tuấn 1507
xe_ngựa 1506
hồ_chí_minh 1505
móng 1505
kim_bình_nhi 1505
thời_đại 1504
thận 1504
tẩu 1504
khiêng 1504
ngoảnh 1504
tưởng_chừng 1503
hỗn_loạn 1502
chu_cơ 1500
phiên_bản 1499
nến 1498
nấy 1498
mô_hình 1497
thời_khắc 1497
nhà_hàng 1496
tạ_huyền 1496
võ_đương 1496
giải_phóng 1495
nghị_quyết 1495
tạm_biệt 1494
lâm_hồng 1493
trung_thành 1491
toàn_cầu 1490
hàm 1490
bột 1490
điệu 1490
11@@ 1489
lường 1489
cỡ 1488
bắc_@@ 1486
bích 1486
israel 1486
đau_lòng 1483
hôi 1482
công_@@ 1481
hổng 1481
giấc_ngủ 1480
đẻ 1480
dở 1479
khơi 1478
trung_niên 1478
chưa_thể 1477
hòng 1477
đại_vương 1476
độc_lập 1475
w@@ 1475
bài_học 1474
sophie 1474
lâm_kinh_vũ 1474
tu@@ 1473
lu@@ 1473
tâm_trí 1472
nhắn 1471
sea_games 1471
hú 1470
bình_thản 1469
khiếu 1469
vua_khang_hy 1469
thanh_toán 1468
đối_đầu 1468
rùa 1467
nhai 1467
nam_nữ 1467
phát_động 1462
khoái 1461
thà 1461
phượng 1461
thư_sinh 1461
cao_@@ 1460
hành_tinh 1460
đại_thần 1460
trí_tuệ 1459
vĩ_đại 1458
một_mặt 1458
na@@ 1457
lông_mày 1457
khom 1456
thực_lực 1456
ổng 1455
tiêu_dùng 1453
độc_đáo 1453
gia_nhập 1453
thúc_đẩy 1452
thổ_ti 1452
huy_động 1451
ập 1451
liêu 1451
+ 1450
khen_ngợi 1450
mô 1449
trượt 1449
vụn 1449
sập 1448
ninh 1448
vòng_tay 1448
chủ_trương 1447
23 1446
pa@@ 1446
ven 1445
thuỷ_thủ 1444
phản_kích 1444
nhọn 1443
nhưng_mà 1443
dấu_vết 1442
ha_ha 1442
trọn 1441
le 1441
la_@@ 1441
si@@ 1441
nhận_lời 1441
chộp 1441
mã_đề 1441
quy_mô 1440
thái_@@ 1440
gian_lận 1440
đt 1440
trái_lại 1440
đắp 1440
alexandra 1440
luật_sư 1439
gs 1439
thiên_nhiên 1438
danh_tiếng 1438
san 1437
danh_hiệu 1437
do@@ 1436
căn_hộ 1436
luyện_tập 1435
chúc_mừng 1435
vô_ích 1435
thuận_lợi 1434
hi_vọng 1434
tuyệt_vọng 1434
27 1433
vô_vi 1433
thủng 1432
đảng_viên 1431
sống_chết 1431
tiền_bạc 1430
trướng 1429
gươm 1429
hồi_hộp 1428
chen 1428
đấm 1428
phách 1428
đấu_tranh 1427
hoàng_hậu 1427
phản_ánh 1427
hốt_hoảng 1427
oan 1427
can 1425
tro 1425
ầm 1425
đôn_kihôtê 1425
italia 1424
chân_dung 1424
tấc 1422
tự_động 1421
cổ_phiếu 1420
noi 1420
khí_giới 1420
lộc 1419
đạo_sĩ 1419
âm_thầm 1418
yếu_ớt 1418
loan 1416
cổ_quái 1416
quảng_trường 1415
tranh_chấp 1414
tín 1414
+7 1414
rủ 1413
phấn 1413
tỉnh_táo 1412
năng 1412
phần_nào 1412
úc 1412
chu_@@ 1411
24/2 1411
diễn_biến 1410
tự_chủ 1410
đại_hội 1409
mâu_thuẫn 1409
binh_sĩ 1409
thu_thập 1408
lịch_sự 1408
khổng_minh 1408
thoả_mãn 1407
mơ_hồ 1407
điều_hành 1406
tiêu_biểu 1406
cổ_phần 1405
lê 1405
thoá_mạ 1405
long_@@ 1404
uổng 1404
thưởng_thức 1403
còi 1403
gỡ 1402
một_ít 1402
in@@ 1401
khẩn_cấp 1400
cao_cấp 1400
hãn 1400
huấn_luyện 1399
men 1398
cô_đơn 1397
ghép 1397
con_nhỏ 1396
mặt_nước 1396
thảm_khốc 1396
gieo 1395
điền_đan 1395
mỏ 1394
triệu_@@ 1394
phiếu 1392
0 1392
tào_tháo 1391
thịnh 1391
ngọt_ngào 1391
tâm_tình 1390
tại_chỗ 1389
vương_quốc 1388
sống_sót 1387
ngất 1387
khổ_sở 1385
ráng 1385
tiêu_tiêu 1384
biên 1383
nhẫn 1383
kênh 1381
giải_cứu 1380
giáng 1380
dễ_chịu 1378
nhè_nhẹ 1377
oán 1377
ni@@ 1376
nguyễn_thị@@ 1375
eo 1375
ngọt 1375
voi 1375
thần_thái 1374
chỉ_điểm 1374
góp 1373
ngâm 1373
thầy_giáo 1373
pv 1372
dẫn_đầu 1372
bất_thường 1371
vận_dụng 1369
sáo 1369
xuất_phát 1368
cao_điểm 1367
trước_sau 1367
sang_trọng 1366
theo_đuổi 1366
lặn 1366
mồi 1366
chủ_đề 1365
_th@@ 1365
cự 1365
tiêu_@@ 1365
y_như 1365
quý_vị 1365
hạ_lệnh 1365
diện_tích 1364
sực 1364
phật_giáo 1363
bùng 1362
gần_gũi 1362
tràn_đầy 1362
rèm 1362
út 1361
xiết 1361
chặt_chẽ 1360
trừ_phi 1360
đất_đai 1358
obama 1358
khớp 1357
nửa_đêm 1357
rước 1356
su@@ 1356
bất_chợt 1356
buồn_cười 1355
chuyên_môn 1354
võ_nghệ 1354
nghị 1353
phú 1351
chà 1351
sự_cố 1350
đồng_tiền 1349
kề 1349
khoác 1349
run_run 1349
trầm_lạc_nhạn 1349
đài_loan 1348
rét 1348
xu_hướng 1346
ai_ai 1346
sức_lực 1346
thầy_trò 1345
cảnh_giới 1344
hương_chủ 1344
độc_giả 1343
te@@ 1343
kiên_quyết 1343
giàu_có 1342
trác 1342
er@@ 1341
buồm 1341
hồi_phục 1340
bo@@ 1340
biểu_tượng 1340
tiếp_nhận 1340
tôn_ân 1340
thăm_dò 1339
tàn_nhẫn 1339
đàm 1339
thẩm 1338
ít_ra 1338
uy_lực 1338
phiệt 1338
thiên_địa 1338
thảo_luận 1337
tuyệt_diệu 1337
en 1336
quế 1336
vầng 1335
lương_thực 1334
quỉ 1334
lâu_dài 1332
thuỷ_chung 1332
phương_án 1331
dịu 1331
độc_ác 1331
ổ 1330
bảo_ngọc 1330
gai 1329
chu_đáo 1329
vao 1328
gọn 1328
xót_xa 1328
khâu_tiểu_san 1328
13@@ 1327
đặc 1327
văn_học 1327
đắc_tội 1327
khuyến_khích 1326
ne@@ 1326
công_viên 1325
bẫy 1325
20@@ 1323
uyên 1323
chấp 1323
ma_tuý 1323
hố 1323
gi 1323
cao_đẳng 1323
hoàn_huyền 1323
dương_hư_ngạn 1323
đại_sứ 1322
tài_xế 1320
tuy_vậy 1320
bóp 1319
vui_lòng 1319
chiến_sĩ 1319
gia_@@ 1317
khủng_bố 1317
ra_sức 1316
phạm_vi 1315
tương_đương 1315
of 1315
cứu_mạng 1315
mầm_non 1315
bấm 1313
buồn_rầu 1313
thoát_thân 1313
kích_thích 1312
thạch_thất 1312
đỗ_phục_uy 1312
tôlic 1312
km 1311
trịnh_@@ 1311
hớn_hở 1311
tạ_nam 1311
phụng_phi 1311
z@@ 1309
tương_đối 1308
ngưỡng_mộ 1308
đỏ_bừng 1308
khánh 1307
đoá 1307
tướng_mạo 1307
chùm 1306
mất_tích 1306
hứng 1305
biêt 1305
trò_chơi 1304
vĩnh 1304
hào_kiệt 1304
lân 1303
tiêu_chuẩn 1302
be@@ 1302
ấp 1301
iphone 1301
hôn_nhân 1301
ngoan_ngoãn 1301
hết_lòng 1301
đuốc 1301
nhân_@@ 1300
tả_hữu 1300
nhún_vai 1300
quyên_nhi 1300
lê_@@ 1298
ngoại_ngữ 1298
tôm 1297
hẹp 1297
tuần_lễ 1296
cung_nữ 1296
thẹn 1296
dặn_dò 1294
arsenal 1294
thềm 1293
nguyện_vọng 1293
chuỗi 1292
bắt_tay 1292
cọp 1292
kín_đáo 1291
bì 1291
kịch_liệt 1291
thấp_thoáng 1291
quì 1291
nốt 1290
phước 1290
lý_tưởng 1290
liều_mạng 1290
lo_âu 1289
rèn_luyện 1288
cải_cách 1288
câm 1287
góp_phần 1286
me@@ 1286
hoá_giải 1286
real_madrid 1286
sững 1286
tăng_trưởng 1285
vũ@@ 1285
thần_kỳ 1285
thương_tâm 1285
tang 1284
kem 1284
ô@@ 1284
phòng_thủ 1284
ngộ 1283
tên_tuổi 1282
my 1282
buột_miệng 1282
sắc_bén 1281
google 1281
thứ_sáu 1280
nóng_nảy 1280
cản_trở 1280
hàng_hoá 1279
động_tĩnh 1279
cac 1278
dễ_thương 1276
mai_phục 1276
triệu_minh 1276
nguyễn_văn_@@ 1275
nín 1275
thách_thức 1274
xuất_khẩu 1274
cổ_họng 1274
đốc 1273
ngày_trước 1273
lảo_đảo 1273
nghĩa_phụ 1273
gáy 1272
hỏi_thăm 1272
trừng 1271
kỹ_sư 1270
hà_tĩnh 1270
sạch_sẽ 1270
bé_nhỏ 1270
trưởng_thành 1269
tiểu_thuyết 1269
vuông 1269
mênh_mông 1269
london 1267
miêu 1267
đoan 1266
mềm_mại 1266
hà@@ 1265
bần_tăng 1265
triệu_mẫn 1265
thất_kinh 1264
tống_khuyết 1264
nói_chung 1263
trọ 1263
bản_đồ 1262
đa_số 1262
kiều 1262
70 1261
quách 1261
bình_yên 1261
cố_tình 1261
thiên_phong 1261
cong 1260
vong 1260
trú 1260
đổi_mới 1259
thuốc_lá 1259
tràn_ngập 1259
sáng_mai 1259
ngập 1258
ki@@ 1258
cu 1258
da_thịt 1258
thác_bạt_khuê 1258
xuất_thân 1257
qu@@ 1255
mất_mạng 1255
milan 1254
tối_đa 1253
phỏng_vấn 1253
kỷ_lục 1253
kiệt 1253
y_@@ 1252
hay_biết 1252
nhỏ_tuổi 1252
nhét 1252
cảng 1251
mãnh 1250
môn_hạ 1250
45 1249
thuyết 1249
chủ_nhiệm 1248
xa_lạ 1247
vệ_sinh 1247
thắt 1245
gray 1245
new_york 1244
chói 1244
jong-il 1244
bi@@ 1243
mâu 1243
19@@ 1242
nhẫn_nại 1242
vô_lễ 1242
hành_sự 1241
giang_nam 1240
thiên_thần 1240
cam_kết 1239
toán_học 1239
phương_thức 1238
con_cháu 1238
lột 1237
trực 1236
rác 1236
đại_tá 1236
lách 1235
tên_lửa 1235
tục 1235
linh_hồn 1234
tinh_tú 1234
am@@ 1233
nhà_cửa 1233
mập 1233
ra_mặt 1233
toàn_diện 1232
hái 1232
bất_kể 1231
búa 1231
biệt 1230
chổ 1230
kỷ_luật 1229
hồng_@@ 1229
đạo_diễn 1228
mộ_dung 1228
hiến 1227
pi@@ 1227
sự_tình 1227
sai_phạm 1226
son 1226
cài 1226
trung_hoa 1226
rụng 1224
kỳ_diệu 1224
vùng_đất 1223
tít 1223
trải_nghiệm 1222
bỏng 1222
ban_đêm 1220
thuyên 1220
nhảy_vọt 1220
nguyên_tắc 1219
nho 1219
sót 1219
cẩu 1218
tôn_bất_tà 1218
dò 1217
tịnh 1217
thê_thảm 1217
tố_cáo 1215
xoá 1214
toàn_cảnh 1214
bùn 1214
show 1214
bất_hạnh 1213
uy_tín 1212
đường_hầm 1212
đinh_xuân_thu 1212
khủng_hoảng 1210
cáo 1210
nhà_đầu_tư 1209
35 1209
buốt 1209
ngói 1209
huyền_đức 1209
phục_hồi 1207
ghê 1207
thái_bình 1207
đai 1206
không_lẽ 1206
thái_sư 1206
bùi_@@ 1205
chán_nản 1205
chuyên_nghiệp 1204
phùng 1204
gấu 1204
nóng_bỏng 1204
trì 1203
túm 1203
bức_bách 1203
thoả_thuận 1202
c. 1202
tắc 1202
đích_thực 1202
ham 1201
sát_khí 1201
lôi_cửu_chỉ 1201
bằng_chứng 1200
doạ 1200
lễ_hội 1200
vương_tử 1200
bắt_giữ 1199
cai 1198
mồ_côi 1198
ha@@ 1197
du_khách 1196
căn_bệnh 1196
kiến_khang 1196
phát_hành 1195
trật_tự 1195
khéo_léo 1195
phi_thân 1195
bar 1194
no@@ 1194
vái 1194
bỏ_rơi 1194
đại_quân 1194
trị_giá 1193
quy_chế 1193
dày_đặc 1193
kiếm_thuật 1193
kết_hôn 1192
ngữ_văn 1192
vào_cuộc 1192
virus 1192
lây 1190
thương_lượng 1190
giai_nhân 1190
trương_thuý_sơn 1190
tiểu_trừng 1190
gas 1188
quốc_@@ 1187
hoàng_tử 1187
long_dương 1187
điếu 1186
lộn 1186
nâu 1186
những_ai 1186
nhẹ_nhõm 1186
whitney_houston 1186
đồng_nghiệp 1185
ghi_nhận 1183
nướng 1183
thấm 1182
thụ 1182
dũng_cảm 1182
thối 1182
đạo_lý 1181
lẳng_lặng 1181
bạo_lực 1180
huống_hồ 1180
đêm_tối 1180
khiếp_sợ 1179
thất_thanh 1179
peter 1178
tác 1177
giảng_dạy 1177
bẩn 1177
vận_khí 1177
trác_cuồng_sinh 1177
suất 1175
mu@@ 1174
ưu_tiên 1174
cơ_chế 1174
i_@@ 1174
động_cơ 1174
lẽ_ra 1174
mệnh_lệnh 1174
34 1173
lớp_học 1172
cuồn_cuộn 1172
tự_tử 1172
thê_lương 1172
ca_khúc 1171
nhì 1170
bức_xúc 1170
nhiệt_độ 1170
ngọc_nghiên 1170
lấp 1169
giới_tính 1169
trầm_mặc 1169
hầu_hy_bạch 1169
đột_quyết 1169
hội_thảo 1168
hành_hạ 1168
kỳ_dao 1168
ng.@@ 1167
hàng_xóm 1167
bấy_nhiêu 1167
ị 1166
tụ_tập 1166
tấu 1166
cuồng 1165
giảng_viên 1164
vặn 1164
đại_sự 1163
quốc_phòng 1163
04 1163
tình_nguyện 1163
quản_gia 1163
quyên 1162
lưỡng 1162
xấu_xa 1162
thình_lình 1161
ấp_úng 1161
tây_ban_nha 1160
khả_đạt_chí 1160
anh_chị 1159
bộ_dạng 1159
sinh_nhật 1158
hàm_dương 1158
đạo_tử 1158
xe_hơi 1157
cứ_việc 1157
xôn_xao 1156
lòng_dạ 1156
t.@@ 1155
bởi_vậy 1155
nếm 1155
xuân_@@ 1155
nhậm_ngã_hành 1154
khảo_sát 1153
nheo 1153
ai_cập 1153
áo_quần 1153
coi_trọng 1152
cấp_cứu 1152
chậm_chạp 1151
ước_mơ 1150
động_viên 1150
tranh_thủ 1149
rực 1149
_đ@@ 1149
tham_nhũng 1149
21/2 1149
nguồn_gốc 1148
_d@@ 1147
m2 1147
sánh 1146
tình_cờ 1146
tý 1146
22/2 1146
áo_dài 1146
xoay_chuyển 1146
thâm_hậu 1146
j@@ 1145
âu_dương_phong 1145
tổng_hợp 1144
người_mẫu 1144
len 1144
bẻ 1144
tung_sơn 1144
ma_@@ 1143
ka@@ 1142
hổ_thẹn 1142
hành_tung 1142
m_@@ 1141
đích 1141
đặt_chân 1140
thiệu 1140
kính_trọng 1140
thêu 1140
trảo 1139
chế_tạo 1138
simon 1138
toà_án 1138
tập_kích 1138
cầm_thanh 1138
trịnh_khắc_sảng 1138
thẳng_thắn 1137
chăm 1137
kể_ra 1135
hạn 1134
đề_tài 1134
liên_kết 1134
đỗ_thiên_ngạc 1134
xâm_nhập 1133
bàn_bạc 1133
tô_như 1133
mai_@@ 1132
thầy_cô 1132
càn_khôn 1132
mc 1131
thiêu 1131
car@@ 1131
thân_mật 1131
thằng_cha 1131
né 1130
ban_hành 1129
hâm_mộ 1129
nhân_nghĩa 1129
te 1129
tia_sáng 1129
chỉ_thị 1129
phong_trào 1128
thần_@@ 1128
hô_hấp 1128
thiết_@@ 1128
đột_biến 1127
chậu 1127
chủ_trì 1125
bình_@@ 1125
chủ_ý 1125
phận 1125
chuồng 1125
chốc 1125
hì_hì 1124
đinh_@@ 1123
rạp 1123
nhà_báo 1123
coi_chừng 1123
tây_@@ 1123
toàn_thể 1123
xưởng 1123
bực_mình 1121
20/2 1121
miễn 1120
u_@@ 1120
thắng_lợi 1120
thuý 1120
gả 1120
cơ_quan_chức_năng 1119
bỗng_dưng 1119
khuê 1119
nhủ 1118
luân 1118
myszka 1118
công_lập 1117
lờ_mờ 1116
29 1115
mỡ 1115
chuồn 1115
chắc_hẳn 1114
đầu_gối 1114
tay_mặt 1114
chiến_dịch 1113
mar@@ 1113
ces 1113
trực_tuyến 1112
kìm 1112
kinh_khủng 1112
lâu_nay 1111
bu@@ 1110
xu 1110
bà_già 1110
sảnh_đường 1110
ti 1109
vô_dụng 1109
điên_cuồng 1108
mò 1108
kỵ_binh 1108
truỷ 1108
thuý_sơn 1108
23@@ 1107
clb 1107
bất_lợi 1107
u23 1107
teen 1107
phấn_khởi 1107
gởi 1107
gõ_cửa 1106
vào_vai 1106
lợi_nhuận 1105
sôi 1105
buôn 1105
xa_xôi 1105
mộ_dung_chiến 1105
chu_chỉ_nhược 1105
24@@ 1104
bao_trùm 1104
ngụm 1104
quy_hoạch 1103
quầy 1103
da@@ 1103
kích_động 1103
tuyệt_kỹ 1103
25@@ 1102
cao_nhân 1102
ngân_sách 1101
hành_chính 1101
nude 1101
nghiêm_nghị 1101
90 1100
khởi 1100
quái_vật 1100
ầm_ầm 1099
dược_vương 1099
đục 1098
nồi 1098
tin_đồn 1098
nghẹn_ngào 1098
bất_lực 1098
hải_quân 1097
lãi_suất 1097
quỳnh 1097
quang_@@ 1096
chung_cư 1096
ối 1096
trợ_giúp 1096
định_thần 1096
thâu 1096
hải_@@ 1096
danh_dự 1096
bét 1096
09@@ 1095
vạt 1095
uý 1095
đâu_đó 1094
bận_rộn 1094
barcelona 1093
lồng 1093
hoàng_hôn 1093
quăng 1093
đầu_ra 1092
trân 1092
công_kích 1092
hoan_hô 1092
chức_vụ 1091
sĩ_quan 1091
chính_đạo 1091
dương_châu 1091
vợ_con 1090
vén 1090
xét_nghiệm 1090
mỗi_một 1090
mao_thập_bát 1090
vietnam 1089
sân_bay 1089
làm_vậy 1088
gadhafi 1088
dự_đoán 1087
đắc 1087
đau_đầu 1087
đông_đảo 1087
giấy_tờ 1086
chìa 1086
lượm 1086
tả_lãnh_thiền 1086
28@@ 1085
cân_nhắc 1085
đón_tiếp 1085
quan_niệm 1085
lão_thân 1085
điền_linh_nhi 1085
i.@@ 1084
bắt_gặp 1084
bừa 1083
chinh_phục 1083
bô 1083
lãng_mạn 1083
o_@@ 1082
hùng_vương 1082
hình_sự 1081
xe_đạp 1081
1@@ 1080
thạch_thanh_tuyền 1079
mớ 1078
as 1078
bí_thư 1077
chi@@ 1077
cô_dâu 1077
thảo_nguyên 1077
động_đậy 1077
biệt_thự 1076
tiểu_bàn 1076
sen 1075
nghịch 1074
ít_nhiều 1074
cư_dân 1074
ây 1074
dải 1074
gằn 1074
kì 1073
ngắn_ngủi 1073
bóng_dáng 1073
chinh 1073
xuống_nước 1073
trọng_đại 1073
thuốc_độc 1073
sắp_đặt 1073
thư_phòng 1073
de 1072
sâm 1072
đại_chiến 1072
ký_ức 1071
cõng 1070
n_t@@ 1069
bình_luận 1068
fan 1068
gân 1068
cấu_trúc 1067
tín_hiệu 1067
ii 1067
ý_chí 1067
mảng 1067
can_đảm 1067
hình_dáng 1067
thái_dương 1067
dã 1067
người_bệnh 1066
do_vậy 1066
bộ_đội 1066
tam_lại_tử 1065
võ_đang 1064
chân_chính 1063
phương_@@ 1063
khoan_khoái 1063
singapore 1062
cục_diện 1062
hành_khách 1061
nông 1061
linh_@@ 1061
hoa_hậu 1061
đồ_chơi 1061
loạng_choạng 1061
dương_tiêu 1061
linh_hoạt 1060
đậm 1059
biết_điều 1058
li 1058
mặt_khác 1058
t-@@ 1058
tuỳ_tiện 1058
bộ_lạc 1058
tổng_giám_đốc 1057
dự_định 1057
lý@@ 1057
nhức 1056
buông_tha 1056
xăng_dầu 1055
400 1055
sẻ 1054
xung_đột 1054
từ_bỏ 1054
lật_đật 1054
tính_chất 1053
triệu_chứng 1052
t. 1052
xuất_bản 1052
cưu_ma_trí 1052
rống 1051
đình_phương 1051
nghề_nghiệp 1050
tranh_luận 1050
quản_trị 1050
sầu 1050
sưu_tập 1050
bảo_@@ 1049
hạc 1049
lẻn 1049
hương_ngọc_sơn 1049
ngu_ngốc 1048
ngẫu_nhiên 1048
bầu_không_khí 1048
vò 1048
tú_tú 1048
doanh_nhân 1047
say_mê 1047
nếp 1047
194 1047
vô_danh 1047
nhiêu 1046
taxi 1045
dị_thường 1045
giờ_phút 1045
học_phí 1045
ko@@ 1044
tống_@@ 1044
kết_nối 1043
chân_@@ 1043
nổi_dậy 1043
lục_@@ 1043
mau_chóng 1042
khe_khẽ 1042
36 1041
giáng_sinh 1041
nhô 1041
lời_lẽ 1041
tài_trí 1041
tu_hành 1040
bôi 1040
điệp 1040
động_tâm 1040
đức_@@ 1039
sương_mù 1039
nông_nghiệp 1038
gd-đt 1038
vietnamnet 1038
đồ_đạc 1038
khiếp 1038
dâm 1038
mừng_thầm 1038
po@@ 1037
chọc 1037
cao_tăng 1037
trừng_phạt 1036
tế_bào 1036
nghiêm_khắc 1036
mạn 1036
lang_thang 1036
bí_quyết 1035
điều_động 1034
bắt_cóc 1034
khố 1034
nổi_danh 1033
an_long 1033
tống_đại_nhân 1033
hưng_phấn 1032
nhánh 1032
cao_hứng 1032
đàm_dược_sư 1032
tội_phạm 1031
xi@@ 1031
địch_thủ 1031
nghênh 1031
tư_duy 1030
ngư 1030
cằm 1030
dứt_khoát 1029
sa_mạc 1029
thiên_thiên 1029
tiền_lương 1028
16/2 1028
niên 1027
q@@ 1027
ngục 1027
thanh_thành 1027
chậm_trễ 1026
lơ_lửng 1026
bồng 1026
phản_bội 1026
rạng_rỡ 1025
phổ_thông 1025
du@@ 1025
cross 1025
hiệt_lợi 1025
tuyệt_thế 1025
việt_@@ 1024
windows 1024
thời_cơ 1023
z 1023
văn_minh 1023
hấp_tấp 1023
kia_mà 1023
hà_tất 1023
dữ_liệu 1022
email 1022
gắn_bó 1022
nam_tử 1022
bảo_tàng 1021
hoàng_gia 1019
dân_chủ 1019
châu_@@ 1019
cháo 1019
vui_sướng 1019
tham_quan 1018
2009 1017
tags@@ 1017
xấu_xí 1017
mặc_dầu 1017
26/2 1017
tội_lỗi 1017
thành_tựu 1016
go@@ 1016
suýt_nữa 1016
ảnh_@@ 1015
thắng_bại 1015
bản_chất 1014
tịch 1014
triệu_chi 1014
hôn_mê 1013
mốt 1013
thích_khách 1012
điện_ảnh 1012
kinh_điển 1011
mẫn 1011
th 1010
măt 1010
sét 1010
búng 1010
sáng_suốt 1009
tai_hoạ 1009
tống_bi_phong 1008
on 1007
mồng 1007
đồng_bào 1007
nho_nhỏ 1007
tối_cao 1006
thực_hư 1006
ta_đây 1006
32 1005
trang_trí 1005
âm_@@ 1005
pháp_bảo 1005
paul 1004
phương_hướng 1004
heo 1003
làm_phiền 1003
quân_sĩ 1003
vũ_văn 1003
lương_@@ 1002
táo 1002
sa_thải 1002
tuyên 1002
phòng_bị 1002
tránh_né 1002
tập_luyện 1001
ám_ảnh 1000
bậy 1000
tuổi_trẻ 999
nhan_sắc 999
náo_nhiệt 999
hiện_diện 998
trạch 998
ăn_mày 998
thống_lĩnh 997
mâm 997
xạ 997
hầu_hạ 997
ngửng 997
phạm_tội 996
bồ 996
choàng 996
khắc_phục 995
nảy_sinh 995
khoa_học_tự_nhiên 995
tô@@ 994
phiêu 994
nhạc_sĩ 994
27@@ 993
kiên_nhẫn 993
rõ_rệt 993
tình_báo 993
quân_tử 993
thống_kê 992
tiền_tệ 992
lấp_loáng 992
nông_thôn 991
tư_nhân 991
trễ 991
đồ_ăn 991
thần_kinh 991
vòng_quanh 991
kinh_@@ 991
hứa_sĩ_công 991
stevie 990
công_lao 989
hưởng_ứng 988
nhiệt_tình 988
lâm_@@ 988
mô_tô 988
hu@@ 987
adam 987
rối 986
nhung 985
một_tí 985
thủng_thẳng 983
hào_quang 983
23/2 983
nao 982
tánh 982
ac 981
chẳng_mấy_chốc 981
giám_thị 979
tân 979
f 979
công_văn 979
lăm 979
phổi 978
hiếu_kỳ 978
doanh_trại 978
gấm 978
thử_thách 977
bàn_chân 977
viện_trợ 977
vác 977
đối_địch 977
trúng_tuyển 976
rên 976
va@@ 975
bè 975
kẻo 975
xe_tải 975
tâm_linh 975
vương_phủ 975
gmt7@@ 975
trang_điểm 974
phơi 972
anh_@@ 972
mạo 972
xảo 972
tĩnh_chi 972
long_lanh 971
nhất_@@ 970
ni_cô 970
nhựa 969
kẹp 969
rảnh 969
oà 969
gu@@ 968
_ch@@ 968
hi@@ 967
tiếng_tăm 967
hân 967
khúc_khích 967
kệ 966
tối_qua 966
tự_sát 965
vân_@@ 965
chống_cự 965
bình_nguyên 965
trần_cận_nam 965
mốc 964
cấp_bách 964
hẻm 964
kẹo 963
nhấn 963
mặt_trăng 963
đãi 963
đúc 962
giống_hệt 962
tống_kha 962
vittoria 961
phong_phú 960
rưỡi 960
tốp 960
khương 960
đẩy_mạnh 959
đôi_chút 959
chư 959
tin_cậy 958
thành_phần 958
vùi 958
nữ_hoàng 958
say_sưa 958
hoàn_thiện 957
thư_ký 957
bực_bội 956
ốc 956
ích 956
trọc 956
kháng_cự 956
chân_trời 956
lãi 955
kiến_nghị 955
đẹp_đẽ 955
rúng_động 955
tụt 954
dồn_dập 954
cưng 954
33 954
cảnh_cáo 954
công_cụ 953
kíp 952
biến_cố 952
phan_@@ 952
quyền_lợi 951
n_th@@ 951
bất_đắc_dĩ 951
làm_nên 951
katherine 951
văn_đế_đế 951
phi_cơ 950
ông_@@ 950
_tr@@ 949
sh@@ 949
sô 949
huyền_thoại 948
hưu 947
minh_hoạ 947
cần_thơ 947
vòng_tròn 947
hàng_rào 947
thứ_trưởng 946
quyết_liệt 946
mô_tả 946
giữ_gìn 946
em_trai 946
lựa 946
thanh_danh 946
khoát 946
dinh 945
ce@@ 945
vịt 945
ghi_nhớ 945
động_vật 945
kẹt 945
thể_nào 945
trung_nguyệt 945
trụ_sở 944
tuyển_dụng 944
thầy_thuốc 944
trung_học 944
để_tâm 944
ngao_bái 944
tiêu_cực 943
29@@ 943
đào_tẩu 943
bái_kiến 943
ru@@ 942
nam_giới 942
bao_phủ 942
đỗ_cửu 942
cây_cối 941
_v@@ 941
nội_bộ 941
vòm 941
vận_tải 939
sinh_sống 939
thiệt_mạng 939
ghen 939
xuôi 939
vòng_vây 939
lã 939
dự_trữ 938
cắp 938
thần_tình 938
phủ_nhận 937
sướng 937
lào 937
ca_nhạc 937
hân_hoan 937
thông_cảm 936
trọng_tài 936
đình_chỉ 935
vật_lý 935
bàn_tán 935
càng_ngày_càng 935
ải 935
trúng_độc 935
tối_thiểu 934
đồng_loạt 934
sói 934
lâu_đài 934
tung_tích 934
tự_xưng 934
ewa 934
thần_tiên 933
song_song 932
the 932
thủ_lĩnh 932
bắt_chước 932
25/2 932
26@@ 931
chèo 931
khốn_khổ 931
kẽ 931
tiêu_nguyệt_đàm 931
er 930
sốt_ruột 930
cộng_sản 930
vũ_văn_hoá_cập 930
quan_@@ 929
phấn_chấn 928
hàm_răng 928
đáng_lẽ 928
150 927
que 927
lay_động 927
got_talent 927
nhìn_nhận 926
cư 926
qui 926
quất 926
khốn 926
lý_tịnh 926
thử_nghiệm 925
xả 925
đánh_bạc 925
canh_gác 925
củ 924
truyền_thuyết 924
anh_kiệt 924
nương_nương 924
vô_lượng 924
tuyên_truyền 923
cân_bằng 923
chư_vị 923
con_mẹ 922
ám_sát 922
anh_tuấn 922
vân_nam 922
joanne 922
hứa_hẹn 921
quang_minh 921
khải 921
dội 921
ăn_cắp 921
vịnh 920
tồi_tệ 920
mua_sắm 920
phương_diện 920
tiễn_biệt 920
cút 920
2008 919
thoa 919
xếp_hạng 919
năn_nỉ 919
vân_ngọc_chân 919
thân_thiện 918
07@@ 917
đối_thoại 917
xét_xử 917
lừa_gạt 917
màng 916
dõi 916
tập_trận 916
mã@@ 915
mẩu 915
ờ 915
hộ_pháp 915
liên_minh 914
diêm 914
giúp_việc 914
lược 914
cải 913
bình_an 913
hung_dữ 913
kiêu_ngạo 913
tai_mắt 912
ngày_tháng 911
rủi_ro 910
thi_tuyển 910
thánh_thượng 910
trân_ân 910
tống_ngọc_trí 909
al 907
oanh 907
vô_tận 907
công_chúng 906
động_lòng 906
hộ_tống 906
dục 905
bệnh_tật 905
xéo 905
lỏi 905
tăng_thư_thư 905
đào_như_hải 905
nhân_lực 904
lưu_lao_chi 904
bình_dương 903
ngọc_nữ 903
bản_quyền 903
dò_xét 903
tào 903
xuất_gia 903
quảng 902
dụng_cụ 902
hoàn_tất 902
lượn 902
miên 902
chu_triệu_long 902
thiệt_hại 901
địa_ngục 900
gợi 900
hiện_trường 900
áo_khoác 900
bảo_kiếm 900
thủ_phạm 899
trung_phụng 899
0@@ 898
hạ@@ 898
chát 898
phụ_thuộc 897
s_@@ 897
tiêm 897
đâm_ra 897
chiến_thuyền 897
thích_phương 897
tuột 896
sững_sờ 896
trái_cây 895
từ_biệt 895
cúm 895
nhất_thiết 894
nằm_xuống 894
quả_quyết 894
dự_thảo 893
sửa_đổi 893
nan 893
nói_thẳng 893
lý_tuân 893
đạo_hạnh 893
chữa_trị 892
thống_trị 892
phá_huỷ 892
đũa 892
khách_quan 892
tình_nhân 892
quan_trung 892
phương_di 892
thông_điệp 891
học_hành 891
ve 891
gia_sư 891
thiện_nhu 891
trang_trại 890
khách_khí 890
khởi_tố 889
lớn_lao 889
trâm 889
rể 889
chống_đối 889
khách_sáo 889
đồng_@@ 888
tổ_sư 888
mục_trường 888
hàn_sấm 888
khất_đan 888
tanh 887
bàng_hoàng 887
hồng_thất 887
xantrô 887
khiêm_tốn 886
lớn_tuổi 886
sư_tử 886
một_hai 886
ngoại_trưởng 886
sụp_đổ 885
khả 885
đắm 885
truyện_ngắn 885
lý_nguyên_cát 885
côxchia 885
thời_hạn 884
giản_dị 884
trắng_bệch 884
tbn 884
thiên_tử 884
ga@@ 883
ngây_thơ 883
giao_lưu 883
lừa_đảo 882
phi_mã 882
sẹo 882
ửng 882
inter 882
tiên_phong 881
trục 880
chỉ_giáo 880
ngơ_ngẩn 880
bự 879
tỷ_phú 878
asean 878
trêu 878
phá_hoại 878
tú_tuần 878
khôn_ngoan 877
bất_bình 877
một_triệu 876
ai_ngờ 876
quặn 876
mwc 876
ôtô 875
hành_lý 875
sọ 875
mười_ba 875
dượng_đế 875
năm_tháng 874
ngăn_trở 874
ủa 874
tần_vương 874
hướng_vấn_thiên 874
người_đời 873
vũng 873
đô-la 873
ào_ào 873
đồng_mỗ 873
nền_tảng 872
rôi 872
thành_thử 872
đinh_điển 872
chỉ_nhược 872
thiết_lập 871
sếp 871
lội 871
tĩnh_lặng 871
hoàng_dược_sư 871
smartphone 870
cải_trang 870
hàm_đan 870
cảm_ứng 869
sâu_xa 869
sưng 869
lạnh_nhạt 869
khiêu_chiến 869
định_hướng 868
quảng_nam 867
đối_tác 867
giai 867
áy_náy 867
ad@@ 866
an_tâm 866
nuôi_dưỡng 866
đường_lối 866
núp 866
rụt 866
thái_phó 866
bài_tập 865
nức_nở 865
khóc_lóc 865
vang_dội 865
cho_xong 865
hoa_hồng 864
tham_khảo 864
yên_ổn 864
thanh_thế 864
diệm 864
yên_@@ 863
nhất_quyết 863
tính_năng 862
cu@@ 862
tài_nguyên 862
or@@ 862
nhân_loại 862
ngọc_lan 862
hắc_@@ 862
quật 862
cười_khẩy 862
tiện_nghi 861
nhập_viện 861
qua_@@ 861
cáo_từ 861
30@@ 860
giảm_giá 860
min 860
trở_ngại 860
gãi 860
cây_số 860
kiếm_@@ 860
ý_niệm 860
vương_ngữ_yên 860
xinh_xắn 859
đẫm 859
bìa 859
14/2 859
chập 859
dã_cẩu 859
xâm_phạm 858
anh_trai 858
chào_hỏi 858
washington 857
làm_quen 857
hào_hứng 857
thanh_long 857
lẻ 857
be 856
c-@@ 856
sơ_bộ 856
phương_chứng 856
đô_la 855
liên_hoàn 855
lót 855
trọng_yếu 855
mộc_uyển_thanh 855
vi_@@ 854
như_thường 854
khước_hoàn_độ 854
bối_cảnh 853
động_đất 853
tiếp_lời 853
dụng_ý 853
yên_lòng 853
mathias 853
cửu_@@ 852
ví 852
bao_công 852
toàn_quốc 851
42 851
quy_trình 851
cổ@@ 851
nấm 851
sắc_đẹp 850
muỗi 850
thu_xếp 850
thuyền_trưởng 850
ầm_ĩ 849
hoá_học 849
che_chở 849
giăng 849
nói_@@ 848
nhuộm 848
hãm 848
toàn_cầu_hoá 848
tới_tấp 848
kính_cẩn 848
chuyên_ngành 847
lứa 847
hanh 847
thượng_đế 847
đồng_tử 847
tàn_sát 847
tu_viện 847
sửa_chữa 846
thành_thật 846
hòm 846
trươc 845
bồ_tát 845
nhập_khẩu 844
chọn_lựa 844
loài_người 844
thái_cực 844
cười_rộ 844
điểm_nóng 843
cô_độc 843
tuỳ_tùng 843
ngần_ngừ 843
hợp_nhất 842
tải 842
du_học_sinh 842
dầy 842
siết 842
phát_tác 842
hiu 842
ào 842
ceo 841
ci@@ 841
liên_miên 841
mến 841
lọ 840
tinh_tế 839
đọng 839
viêc 839
thám_tử 839
lệ_hằng 839
mạ 839
tỉnh_ngộ 839
thân_binh 839
bầm 838
câu_lạc_bộ 838
kỳ_thực 838
75 836
lắp 836
sơn_@@ 836
giầy 836
dĩ 836
tỉ_lệ 835
nguy_cấp 835
đồng_tình 835
vốn_dĩ 835
giở_trò 835
rương 835
cò 834
ms 834
hối_hả 834
10/2 834
cây_xăng 834
hoá_trang 834
hoà_thị_bích 834
tập_hợp 833
chầu 833
ghi_chép 833
đô_đốc 833
chiếu_cố 833
lễ_vật 833
đào_@@ 832
che_giấu 832
chăm_chăm 832
1,@@ 831
tha_thiết 831
viễn 831
tận_mắt 831
hư_vô 831
ưu 830
thẫm 830
es@@ 830
khát 830
lý_thuyết 830
chao 830
soạn 830
la_hét 830
nhăn_nhó 830
nghiêng_mình 830
đăng_tải 829
tận_dụng 829
thực_hành 829
vinh_quang 829
01 828
địa_lý 828
bàn_thờ 828
huỷ_diệt 828
tội_ác 828
dừa 827
báu 827
yếu_đuối 827
giùm 827
loại_trừ 826
dạy_học 826
ùa 826
bình_sinh 826
phòng_chống 825
bộ_đồ 824
dang 824
ý_đồ 824
kinh_động 824
tín_nhiệm 823
vững_chắc 823
lý_@@ 823
chết_đuối 823
đón_nhận 823
cao_thức 823
sôi_nổi 822
hổn_hển 822
đại_trượng_phu 822
bồn_chồn 821
toa 821
vỉa_hè 821
âm_u 821
quân_sư 821
bản_tính 821
trường_sinh 821
cầu_xin 821
văn_võ 821
trương_tam_phong 821
trí_nhớ 820
trong_sáng 820
el@@ 819
31 819
tản 819
con_em 819
nghiêm_trang 819
chân_tướng 819
44 818
tẩm 818
choáng_váng 818
bực 818
hộ_vệ 818
mị 818
lý_tư 818
xe_buýt 817
đem_lòng 817
c.@@ 816
quân_@@ 816
ngon_lành 816
vận_hành 815
kinh_dị 815
diệp 815
lương_tâm 815
khung_cảnh 815
dưới_trướng 815
gtvt 814
kỳ_vọng 813
dn 813
vuốt_ve 813
tiêu_tan 813
trí_thức 812
mưu_đồ 812
cao_siêu 812
bao_bất_đồng 812
bị_cáo 811
thung_lũng 811
truy_tìm 811
lánh 811
38 810
hiện_thực 810
thi_cử 810
tạ_an 810
chảy_máu 809
nhân_từ 809
tạt 809
mãn 808
va_chạm 808
đánh_thức 808
tóm 808
đội_trưởng 808
jake 808
com 807
ân_hận 807
than_thở 806
tổ_quốc 806
ngờ_vực 806
chu_thiên 806
bất_an 805
nghiện 805
địa_đạo 805
thình 805
đại_phu 805
huỳnh_@@ 804
xong_xuôi 804
chúng_em 804
bình_minh 804
từ_bi 804
cúc 803
_g@@ 802
bình_định 802
phong_độ 802
nội_thương 802
tuốt 802
nghi_hoặc 802
mao 801
cuồng_phong 801
đao_kiếm 801
báo_động 800
ngỡ_ngàng 800
nhếch 800
thảm_thiết 800
doãn 800
đàng 800
bảo_hiểm 799
bât 799
sát_thủ 799
tiểu_phàm 799
cách_thức 798
53 798
nhe 798
ngỏ 798
sắp_sửa 798
tu_luyện 798
steve_jobs 797
37 797
thí_nghiệm 797
sáng_tác 797
cạo 797
họng 797
nhật_ký 797
thượng_thư 797
thương_nghị 797
khoa_học_xã_hội 795
mơ_ước 795
cậy 795
matt 795
bây 794
mù_mịt 794
khôn_lường 794
êm 793
tổng_cộng 792
đại_dương 792
công_cộng 792
camera 792
rắc 792
xứng 792
tennis 792
diện_mạo 791
australia 791
châu_mỹ 791
bất_tử 791
mầu 791
con_nít 791
tây_hạ 791
ứa 790
chém_giết 790
phỏng 789
phong_toả 789
nhạy_cảm 787
đanh 787
hoảng_loạn 787
gắng_gượng 787
trấn_tĩnh 787
tôn_@@ 787
p_@@ 786
64 786
tài_khoản 786
có_ích 786
barca 786
tâm_tư 786
mì 785
vĩnh_@@ 785
sụp 785
biểu_lộ 785
đầu_@@ 785
phi_@@ 785
công_cuộc 784
cm 784
mất_hút 784
yêu_mến 784
phong_@@ 784
nóng_lòng 784
ngang_nhiên 784
thuỷ_nguyệt 784
âm_quý_phái 784
y_học 783
game 783
ả_rập 783
khởi_động 782
tăng_giá 782
bởi_thế 782
n-@@ 782
mới_mẻ 782
phi_công 782
đội_tuyển 782
chiêm_ngưỡng 782
hành_quân 782
trích 781
trợ 781
trống_rỗng 781
nhóc 781
một_ngàn 781
tung_toé 781
đàm_phán 780
phấn_đấu 780
lợi_thế 780
bồi_dưỡng 780
may_ra 780
ngô@@ 780
duyên_dáng 780
bất_@@ 780
chịu_thua 780
cảnh_vật 780
thái_sơn 780
véo 779
indonesia 778
chuối 778
nhà_bếp 778
mùng 778
gò 778
chuộc 778
tổ_tiên 778
há_hốc 778
ke@@ 777
xưng_hô 777
seoul 777
hiên_ngang 777
giả_như 777
tín_dụng 776
lưu_thông 776
làm_đẹp 776
android 776
huệ 776
hoặc_giả 776
tín_lăng 776
tán_thành 775
vô_lý 775
tử@@ 775
đệm 775
cầu_nguyện 775
tán_thưởng 775
lãnh_tụ 775
nghẹn 774
đồng_nai 774
_r@@ 774
bộ_máy 774
thỉnh_giáo 774
giao_đấu 773
nhiệm 772
thoái 772
củng_cố 772
vệt 772
thỏ 772
hồng_ngọc 772
cảm_tạ 772
thi_lang 772
kim_lan 772
thực_chất 771
tt 771
không_tài_nào 771
bà_cụ 771
điển 771
rũ 771
điểu 771
tống_sư_đạo 771
phì 770
nhận_biết 770
mai_hoa 770
trân_trọng 770
ton 770
bát_@@ 769
áp_đảo 769
valentine 769
2007 768
chốt 768
xúc_phạm 768
phản_công 768
chĩa 768
pháp_lý 767
ưu_đãi 767
re 767
nang 767
mạnh_@@ 767
trong_trẻo 767
máy_ảnh 766
góc_độ 766
nôi 766
côn_đồ 766
thường_ngày 765
tư_đồ 765
c_@@ 764
vặt 764
lanh 764
phi_huyên 764
liên_bang 763
đột_phá 763
nứt 763
không_@@ 763
tiêu_dật_tài 762
ngỡ 761
hoành 761
ế 761
chút_ít 761
nể_mặt 761
giựt 761
tiêu_thụ 760
y_tá 760
riêng_tư 760
8/2 760
hương_cốc 760
học_hỏi 759
tiên_@@ 759
chồm 759
gật_gật 759
ngày_một 758
_n@@ 758
đỗ@@ 758
diễm 758
giả_sử 758
vô_tội 758
chót 758
pe@@ 757
ứng_viên 757
đề_án 757
khánh_@@ 757
bánh_xe 757
sút 757
đẹp_trai 757
nguyên_tử 757
khiêm 757
dằn 757
gay_gắt 756
tật 756
giải_thoát 756
bất_mãn 756
bảo_vật 756
sergei 756
ng-@@ 755
48 755
xem_lại 755
ng_@@ 755
e_ngại 755
hà_lan 755
hết_thảy 755
tinh_thông 755
sách_vở 755
chế_biến 754
vắt 754
ngần_ngại 754
nokia 754
thử_hỏi 754
đánh_máy 753
tròng 753
gv 753
quát_tháo 753
fpt 752
cứng_rắn 752
thần_tượng 752
lườm 752
villas-boas 752
13/2 752
sáng_lập 750
tỏ_tình 750
yêu_quý 750
giám_khảo 750
văn_tự 750
hệt 750
đầu_đuôi 750
cung_cấm 750
bồi_thường 749
quảng_ngãi 749
thị@@ 749
suy_đoán 749
hành_lễ 749
hoan_hỉ 749
đào_phương 749
gắt 748
bỉ 748
đò 748
luống_cuống 748
kim_tự_tháp 748
thô 747
hương_@@ 747
thánh_@@ 747
nghe_nói 747
nhỏ_xíu 746
rong 746
thất_@@ 746
ngu_xuẩn 746
tra_xét 746
vàng_bạc 745
hà_nam 745
cảm_tình 745
hư_hỏng 745
khả_hãn 745
sừng 744
diên 744
1.@@ 743
ra_@@ 743
từ_thiên 743
sơ_sinh 743
vượn 743
sản 742
từ_thiện 742
trắc 742
giác 742
ngọ 742
tầm_mắt 742
hiệp_hội 741
lý_giải 741
rên_rỉ 741
âu_yếm 741
ngậm 741
ford 741
gia_nhân 741
gợi_ý 740
nhợt_nhạt 740
lâm_tĩnh 740
nhích 739
vitamin 739
tuổi_tác 739
đính 739
nã 739
cường_địch 739
thái_úy 739
đoàn_kết 738
vậy_thì 738
lừng_lẫy 738
hoạ_sĩ 738
messi 738
văn_chương 738
quá_đáng 738
tuỳ_ý 738
song_thân 738
thiệu_đông_tử 738
vướng 737
lia 737
kiều_bào 737
antoine 737
đồng_môn 737
không_tưởng 736
học_viên 736
chất_vấn 736
17/2 736
tr 735
làm_trò 735
giang_văn_thanh 735
trần_hiếu_chính 735
hoc 734
thoắt 734
thừa_tướng 733
tối_tăm 733
ưng_thuận 733
hung_ác 733
lý_tử_thông 733
tt@@ 732
bánh_mì 732
tơi 732
độc_@@ 732
bác_sỹ 732
the@@ 731
đấng 731
giết_hại 731
khuất_phục 731
dạy_bảo 731
điện_hạ 731
lia_lịa 731
rạng 730
sở_trường 730
chi_tiêu 730
chuyện_trò 730
tỷ_thí 730
hình_dạng 729
bền_vững 729
thẩm_định 729
nhuyễn 729
đêu 729
úp 729
vô_song 729
phù_thuỷ 729
quyết_chiến 729
phần_trăm 728
ưu_thế 728
evn 728
ê@@ 728
thần_trí 728
bệnh_hoạn 728
vơ 728
binh_mã 728
mã_văn_phi 728
chi_@@ 727
chiến_thuật 727
võ@@ 727
thoạt 727
ân_@@ 727
mạt 727
lạ_thường 727
nách 727
cổ_xưa 727
ca_ngợi 727
lãng_phí 726
vấn 726
news@@ 726
người_tình 726
giang_@@ 726
trật 726
phan 726
giản 726
hầu_hạo 726
ảm_đạm 725
khởi_đầu 725
thói 725
ung 725
mù_loà 725
hiếu_thành 725
đường_bộ 724
quyết_đấu 724
nhảy_xổ 724
thái_nguyên 723
đàng_hoàng 723
lôi_kéo 723
tướng_sĩ 723
ác_mộng 723
kỹ_càng 723
quần_chúng 723
dung_mạo 723
người_người 722
kinh_thành 722
luồn 722
tranh_đấu 722
điều_hoà 721
cống 721
kính_phục 721
uyển 721
căm_hận 721
thuỷ_sản 720
dân_cư 720
đều_đặn 720
moi 720
dõng_dạc 720
chí@@ 719
hao 719
sáng_tỏ 719
nô_lệ 719
thím 719
chọi 719
cự_tuyệt 719
bốp 718
nghênh_tiếp 718
bù 717
h. 717
quan_quân 717
á@@ 716
kịch_bản 716
thưc 716
bao_la 716
điềm 716
kinh_phí 715
rao 715
scott 715
ồn 715
làn_sóng 714
nội_vụ 714
thương_tích 714
lồng_ngực 714
xoè 714
thị_thần 714
he@@ 713
đồng_hành 713
lậu 713
bực_tức 713
mặc_kệ 713
tàn_ác 713
là_lạ 713
50% 712
46 712
e_@@ 712
chỉ_dẫn 712
phì_cười 712
mợ 712
08@@ 711
lặp 711
huyền_@@ 711
đồn_đại 711
phù_kiên 711
bận_tâm 710
thi@@ 710
siêu_thị 710
phế 710
vành 710
tri_thức 710
sơn_động 710
tín_đồ 709
bặt 709
nhân_gian 709
thanh_y 709
39 708
sôi_động 708
quy_tắc 708
uy_thế 708
thứ_bảy 707
đến_cùng 707
gẫy 707
sải 707
hối 707
sấn 707
khả_ngọc 707
đẳng_cấp 706
rát 706
rậm_rạp 706
rachel 706
dòng_họ 706
đăm_đăm 706
mơ_màng 705
vui_chơi 705
hoà@@ 705
phản_chiếu 705
nô_tỳ 705
ge@@ 704
cầm_đầu 704
nhan 704
nằm_mơ 704
mầy 704
elinor 704
tiêu_chí 703
2006 703
hươu 703
trạc 703
lắng_tai 703
phú@@ 702
nghiên 702
phong_lưu 702
kinh_châu 702
bá@@ 701
cúng 701
cương_quyết 701
nè 701
diệt_tuyệt 701
đốm 700
họ_hàng 700
nghiệt 700
ronaldo 700
vạn_@@ 699
hoan 699
đánh_cắp 699
honda 699
đời_nào 699
mùi_vị 698
vương_ngọc_yến 698
chứng_nhận 697
thôi_thì 697
ẩm 697
bước_tiến 697
cưỡng 697
tuyệt_đỉnh 697
đông_phương_bất_bại 697
dương_công_khanh 697
minh_giáo 697
tan_vỡ 696
vù_vù 696
hoàng_kim 695
lành_mạnh 695
bất_tỉnh 695
duỗi 695
van 695
kêu_la 695
khó_coi 695
thạch_thanh 695
bộc_lộ 694
dìu 694
phong_cảnh 694
điềm_đạm 694
reo_hò 694
đối_đãi 694
nhất_tề 694
cấm_vệ 694
nón 693
kích_thước 693
độc_thân 693
hãm_hại 693
philippines 692
cơ_cấu 692
thuận_tiện 692
ki 692
ke 692
nhât 692
nghe_ngóng 692
keng 692
lâm_chấn_nam 692
ang 691
tây_nam 691
kim_loại 691
an_bài 691
tất_huyền 691
tề_hạo 691
định_@@ 690
rồi_đây 690
mơi 690
ẩn_nấp 690
lén_lút 690
mưa_gió 690
giỏ 690
trư_cốc 690
loại_bỏ 689
ka 689
sinh_vật 689
vĩ 689
cập 689
ngổn_ngang 689
bộc 689
o0o 689
triệu_đức_ngôn 689
nắm_bắt 688
tự_ý 688
_kh@@ 688
đồng_đạo 688
chóng 687
dã_man 687
chéo 686
tồi 686
chu_du 686
grant 686
bàn_luận 685
cụm 685
thiêng_liêng 685
xê 685
đột_nhập 685
kết_nghĩa 685
kém_cỏi 685
bái_tử_đình 685
cửa_hiệu 684
mê_hoặc 684
bài_toán 684
kháng 684
cưa 684
tóm_lại 684
nữ_nhi 684
ùn_tắc 684
căn_dặn 684
nhả 684
mạc_@@ 684
thanh_tú 684
lắp_bắp 684
báo_đáp 684
nhiếp_thiên_hoàn 684
văn_mẫn 684
nhật_@@ 683
trắc_nghiệm 683
vắng_vẻ 683
hốt 683
tàng 683
truy_cập 682
giao_tiếp 682
đồ_vật 682
tôn_kính 682
thất_sắc 682
55 681
nghi_vấn 681
cổ_đông 681
mong_manh 681
xăm 681
chống_chọi 681
nguyễn 681
nhện 681
phản_kháng 681
tía 681
chỉ_định 680
uỷ 680
ngũ@@ 680
cát_@@ 680
bướm 680
giận_dỗi 680
đoản_kiếm 680
thủ_lãnh 680
sân_chơi 679
2013 679
chỉnh 679
thứ_tự 679
ăng 679
hỏi_han 679
ngũ_hành 679
đại_khái 679
giám_mục 679
hoàng_phủ_tinh 679
đánh_dấu 678
dân_số 678
kinh_sợ 678
cay 678
binh_lính 678
trung_uý 678
trượng_phu 678
đại_trúc_phong 678
xe_khách 677
nguyên_@@ 677
thán_phục 677
sex 677
uy@@ 677
di_@@ 677
tây_tạng 677
hủ 677
ương 676
chu@@ 676
kiểm_điểm 676
trên_dưới 676
hí 676
nãy_giờ 676
tích_thư_nhân 675
động_lực 674
sung 673
xử_phạt 673
đồng_minh 673
rạch 673
bàng 673
rât 673
cảnh_@@ 673
steve 673
khua 673
chẳng_trách 673
2020 672
triệt_để 672
kiên_trì 672
_ph@@ 672
ù 672
vận_mệnh 672
chận 672
lý_kiến_thành 672
ngh@@ 671
trẻ_trung 671
sinh_mạng 671
megan_fox 671
noel 671
thống_khổ 671
hắng_giọng 671
hoạt 670
vinh_dự 670
ụ 670
sẫm 670
vớ 670
túc 670
từ_chức 670
phê_bình 670
xi 669
hi_sinh 669
khuyết 669
thẩm_quyền 669
thuỷ_tinh 669
trịnh_trọng 669
cấu_kết 669
lừa_dối 669
nép 669
chu_bá_thông 669
tài_trợ 668
sở_thích 668
đa_dạng 668
máy_móc 668
canada 668
công_sức 668
bọt 668
cay_đắng 668
một_mạch 668
tướng_lĩnh 668
gia_cát_dật 668
phân_phối 667
tivi 667
rọi 667
41 666
nhĩ 666
fi@@ 666
ngất_xỉu 666
ngớ_ngẩn 666
xương_bình 666
nhạc_sơn 666
es 665
cập_nhật 665
đắng 665
cơ@@ 665
tráng 665
bản_năng 665
sim 665
nhập_học 665
tha_hồ 665
thiên_lý 665
tuyệt_luân 665
m.@@ 664
gh@@ 664
cởi_mở 664
át 664
triệu_tập 664
ba_mẹ 664
điểm_chuẩn 664
ngạn 664
xác_minh 663
tiêu_hoá 663
tỉ_mỉ 663
hoang_dã 663
ác_độc 663
thân_hành 663
huyết_đao 663
chấp_thuận 662
vật_liệu 662
rà_soát 662
hà_giang 662
ngẩn_ngơ 662
sửa_soạn 662
mờ_mờ 662
canh_giữ 662
ma_quỷ 662
thâm_tâm 662
manh_mối 661
thân_@@ 661
thìn 661
tâm_nguyện 661
giai_cấp 661
sủa 661
du_bạch_phong 661
chiếm_đoạt 660
thuỵ_sĩ 660
xử_trí 660
thổ_lộ 660
tứ_kết 660
trường_giang 660
malaysia 659
điển_hình 659
bất_ổn 659
khuôn 659
chú_trọng 659
_nh@@ 659
thời_giờ 659
khí_lực 659
tiểu_siêu 659
lâu_thiên_tôn 659
thoả 658
bằng_không 658
ẩn_hiện 658
cam_tâm 658
đẹp_mắt 657
mạch_máu 657
bi_thương 657
từ_tốn 657
chải 657
tâm_@@ 657
thừng 657
chuôi 657
tổn_hại 656
per@@ 656
đút 656
đau_nhói 656
phong_bì 656
262 656
vatican 656
mỹ_lệ 656
thượng_tú_phương 656
thị_xã 655
nể 655
bảo_toàn 655
cho@@ 655
hoài_@@ 655
bắc_phủ_binh 655
nha_môn 655
is@@ 654
vo@@ 654
dô 654
trực_thăng 654
ân_oán 654
bổ_nhiệm 653
1/2 653
châu_phi 653
dọn_dẹp 653
ớn 653
cá_tính 653
tung_hoành 653
cư_sĩ 653
lộ_trình 652
trung_cấp 652
dối 652
dao_động 652
một_lòng 652
lớn_nhỏ 652
hoành_hành 652
xa_cách 652
ngạo 652
đường_sắt 651
hiền_lành 651
phòng_thí_nghiệm 651
ngoái 651
phút_chốc 651
luật_pháp 650
trăm_ngàn 650
ngoài_mặt 650
tống_phàm_bình 650
hiệu_lực 649
chẩn_đoán 649
sai_sót 649
đúng_đắn 649
ăn_@@ 649
tử_thi 649
tại_chức 649
ck 648
hot 648
giáo_hoàng 648
đồng_bọn 648
bần_bật 648
bất_thình_lình 648
phân_chia 647
lạm_phát 647
like 647
ác_liệt 647
văng_vẳng 647
mắt_thấy 647
microsoft 646
lấy_lòng 646
nhà_xuất_bản 646
quý_tộc 646
tiếp_ứng 646
tinh_vi 645
samsung 645
tiềm_năng 645
ber@@ 645
mong_đợi 645
thang_máy 645
xẩy 645
21/11 645
huyền_tông 645
ôn_hoà 644
nhảy_múa 644
thay_mặt 644
cảm_tưởng 644
trơn 644
binh_lực 644
bảo_hộ 643
kỹ_lưỡng 643
yếu_kém 643
thạc_sĩ 643
xì 643
chịu_khó 643
làm_nhục 643
06@@ 642
bar@@ 642
khí_hậu 642
kiên_cố 642
thiêu_đốt 642
táng 642
nhiếp 642
quả_nhân 642
chứng_chỉ 641
website 641
ngoài_trời 641
bất_đồng 641
u_ám 641
trát_mộc_hợp 641
tự_nguyện 640
đình_@@ 640
xếp_hàng 640
xế 640
hoá_giá 640
đau_thương 640
phong_ba 640
sơn_cốc 640
cóc 639
quảng_ninh 639
lãnh_thổ 639
đội_hình 639
ân_cần 639
hài_cốt 639
cuồng_nhiệt 639
đại_minh 639
đột_kích 639
hình_bóng 639
cực_điểm 639
nẩy 639
2.@@ 638
dẫn_dắt 638
trái_phép 638
búp_bê 638
ran 638
chép_miệng 638
dè 638
nhân_sự 637
03 637
ẵm 637
câu_thơ 637
thi_công 636
mặt_bằng 636
i-@@ 636
ce 636
thắt_lưng 636
phiền_phức 636
rung_chuyển 636
thân_thế 636
trố 636
tinh_diệu 636
nữ_tỳ 636
tiến_độ 635
võng 635
quý_giá 635
tiết_mục 635
cứu_viện 635
tài_nghệ 634
làm_loạn 634
chủ_quyền 634
02/2012 634
hồ@@ 633
mười_bảy 633
nhậm_thanh_thị 633
thiên_đường 632
cày 632
quán_trọ 632
800 631
21@@ 631
600 631
con@@ 631
88 631
tháng_giêng 631
hy_lạp 631
miss_teen 631
05@@ 630
cụt 630
ri 630
phân_vân 630
sầm 630
rùng_rợn 630
tinh_nhuệ 630
đầm_đìa 630
trà_trộn 630
thành_hình 629
uỷ_viên 629
ng_t@@ 629
nhà_sản_xuất 629
bđs 629
wa@@ 629
che@@ 629
hoả_hoạn 629
bại_trận 629
liên_quân 629
xẹt 629
tương_dương 628
trang_web 628
hữu_@@ 628
lan_can 628
lạc_@@ 628
trang_sức 627
chay 627
bén 627
khuỷu 627
hột 627
tổng_công_ty 626
mỏi 626
lơi 626
9/2 626
huyên_náo 626
thối_lui 626
xơ 625
bo 625
đặc_điểm 625
hoàng_hà 625
diều 625
khúc_ngạo 625
doanh_thu 624
ve@@ 624
43 624
on@@ 624
rơm 624
trổ 624
biếu 624
rất_đỗi 624
lung_tung 624
lãnh_đạm 624
khẻ 624
thôi_bác 624
bán_kết 623
vương_phi_dương 623
dự_báo 622
manh 622
lý_luận 622
ngư_dân 622
thực_tiễn 622
ăn_xin 622
khoét 622
thần_thánh 622
dùm 622
dụng_tâm 622
chỉ_số 621
02 621
thăng_long 621
nhà_nghiên_cứu 621
nhà_nghỉ 621
oai_phong 621
đông_hải 621
,@@ 620
2015 620
ngời 620
q 620
bảo_tồn 620
chiên 620
mím 620
hài_hước 620
lay 620
tiểu_quế_tử 620
nạc 619
lắc_lư 619
sào 619
nưa 619
cùng_cực 619
ngắm_nghía 619
du_tiểu_quyên 619
ngụ 618
điểm_tâm 618
har@@ 618
đùng_đùng 618
giả_dối 618
richard 618
hành_thích 618
giả_bộ 618
phổ_hoằng 618
47 617
trọn_vẹn 617
chảo 617
rải 617
ter@@ 617
tỷ_số 617
hót 617
của_cải 617
soạt 617
huyền_bí 616
vệ_tinh 616
xin_@@ 616
trả_giá 616
cung_điện 616
sắc_diện 616
thiên_kiều 616
bàng_nghĩa 616
thường_trực 615
lon 615
nghẹt_thở 615
chấn_thương 615
mỏi_mệt 615
qua_mặt 615
tụng 615
oán_hận 615
môn_đồ 615
đánh_@@ 614
kỳ@@ 614
bê 614
tinh_binh 614
đối_đáp 614
sáng_ngời 613
jo@@ 613
giặt 613
nam_sinh 613
rón_rén 613
điện_thoại_di_động 612
tổn_thất 612
n_l@@ 612
cúp 612
thát_đát 612
trọng_lượng 611
chần_chừ 611
lộn_xộn 611
quay_cuồng 611
du_@@ 611
huyền_hoàng_giáo 611
cp 610
kiểm 610
đô@@ 610
định_cư 610
hăn 610
thù_hận 610
giang_sơn 610
chiến_mã 610
tịch_mịch 610
ì 609
rào 609
bổn_phận 609
du_kích 609
cơ_mà 609
quấy_nhiễu 609
trúc_anh 609
tâm_huyết 608
thượng_@@ 608
hờ 608
tu_sĩ 608
tiêu_hậu 608
mưu_kế 608
xung_hư 608
nam_hải_ngạc_thần 608
for@@ 607
cứu_chữa 607
hạm_đội 607
vần 607
bành 607
hung_hiểm 607
hoãn 606
hê 606
news 606
lật_đổ 606
đồ_long 606
tham_vọng 605
hn 605
hiện_thân 605
thừa_kế 605
công_đường 605
âu_dương_khắc 605
minh_hoá 604
hụt 604
huy_chương 604
thủ_thành 604
nhắm_nghiền 604
gaddafi 604
như_không 604
cạm_bẫy 604
như@@ 603
dạ_dày 603
trầm_tư 603
thuỷ@@ 603
vá 603
bạch_@@ 603
hung_hãn 603
liên_luỵ 603
ý_tứ 603
gấp_rút 602
hiếm_hoi 602
p.@@ 602
ck@@ 602
lệch 602
trộn 602
tạng 602
lốc 602
bạn_hữu 602
mỉa_mai 602
triệu_thiên 602
gian_tặc 602
100% 601
mạng_lưới 601
phán_đoán 601
khuyến_cáo 601
ku@@ 601
giò 601
quang_cảnh 601
tì 601
hồi_giáo 601
tiểu_bảo 601
số_liệu 600
nội_thất 600
thần_tốc 600
quy_củ 600
trùng_trùng 600
vệ_sĩ 600
lý_trí 600
cái_thế 600
trừ_khử 600
khởi_hành 599
gắng 599
là@@ 599
chính_@@ 599
cup_châu_âu_bóng 599
hắng 599
dậm 599
ôn_@@ 599
ngưỡng 598
2000 598
nhân_dịp 598
showbiz 598
vụng_về 598
sứ_quán 598
trấn_thành 598
nẻo 598
trung_đông 597
đối_lập 597
bóc 597
cận 597
ức 597
aids 597
phúc_@@ 597
mải 597
thượng_phong 597
nhạc_@@ 597
ất_@@ 597
bùng_nổ 596
thông_@@ 596
kết_giao 596
ap@@ 595
duy@@ 595
thường_lệ 595
giỡn 595
49 594
as@@ 594
thoái_lui 594
sát_nhân 594
chung_linh 594
tư@@ 593
vài_ba 593
đỉnh_cao 593
sân_nhà 593
cầu_cứu 593
cao_quý 593
mềm_nhũn 593
làm_khó 593
ọ 593
chặng 592
uốn 592
khang 592
hình_phạt 592
bại_lộ 592
hưởng_thụ 591
buồn_thảm 591
diệu_kế 591
vị@@ 590
lùm 590
địa_@@ 590
giá_cả 590
ngạt 590
che_kín 590
thể_xác 590
ngay_ngắn 590
hăng_hái 590
không_kích 590
hồng_lan 590
gật_gù 590
hắt 590
không_trách 590
hạm 590
chú_thích 590
như_ý 589
tổng_kết 589
2004 589
viễn_thông 589
tái_hiện 589
ăn_trộm 589
phương_nghị 589
nhiệm_kỳ 588
52 588
hoan_nghênh 588
con_trẻ 588
xúc 588
hung_hăng 587
luật_lệ 587
olympia 587
tranh_giành 587
sách_lược 587
federer 587
châu_báu 587
ngọc_tiêu_lang_quân 587
mác 586
bị_can 586
gọn_gàng 586
viện_phí 586
đậu_kiến_đức 586
65 585
khát_vọng 585
huy@@ 585
vô_tư 585
ăn_ở 585
già_nua 585
lìa 585
trang_nghiêm 585
thần_thông 585
đồng_tính 584
đại_lộ 584
làm_bạn 584
bung 584
loa 584
truy_đuổi 584
đề_cử 584
cuả 584
khưu_xử_cơ 584
ver@@ 583
mỹ@@ 583
tuyền 583
vô_hạn 583
ướt_đẫm 583
thanh_lan 583
lề 582
kinh_đô 582
gấp_bội 582
nhà_vệ_sinh 582
15/2 582
bankplus 582
phong_thái 582
dẫn_dụ 582
thượng_hoàng 582
chiết 581
thương_vong 581
điềm_tĩnh 581
hang_động 581
quỷ_vương_tông 581
an_bân_ni 581
0,@@ 580
_x@@ 580
ủ 580
cô@@ 580
dưa 580
hiểm_trở 580
định_dật 580
giòng 580
22@@ 579
ed@@ 579
thu_@@ 579
man@@ 579
chì 579
đu 579
sợ_sệt 579
việt_kim 579
hấp 578
cử_nhân 578
trường_@@ 578
tan_nát 578
thương_hại 578
liên_hoan 578
ngàn_vạn 578
đức_nặc 578
khái_niệm 577
dấy 577
kế_tiếp 577
cư_xử 577
liên_xô 577
kinh_hoảng 577
ống_tay_áo 577
lưu_hắc_thát 577
hùng_tín 577
ước_tính 576
fa@@ 576
dấu_ấn 576
hy 576
nhậu 576
đám_tang 576
tạp 576
đôi_lúc 576
sai_khiến 576
dường 576
phóng_hoả 576
đứng_tuổi 576
hỡi 576
đại_huynh 576
phục_khiên 576
dạy_dỗ 575
miêu_tả 575
ya@@ 575
chua 575
nổi_nóng 575
đơ 575
hcv 575
nhỏ_nhẹ 575
khủng_long 575
mê_hồn 575
kết_cục 575
frankie 575
thành_@@ 574
é@@ 574
hoá_chất 574
mer@@ 574
nấu_ăn 574
việt_john 574
phiền_não 574
ndđt 574
đô_thống 574
bạch_quân_nghi 574
cống_hiến 573
nói_riêng 573
tuấn_tú 573
thượng_thừa 573
ru 573
sắm 573
đảm 573
trợ_lý 573
điên_rồ 573
lý_lan 573
hồn_nhiên 572
pu@@ 572
ứng_xử 572
quốc_vương 572
hậm_hực 572
thi_sĩ 572
thượng_tướng 571
ja@@ 571
uể_oải 571
một_mực 571
hàn_@@ 571
nhị@@ 571
dân_lập 571
nội_tình 571
ước_hẹn 571
đánh_lừa 570
lít 570
mô@@ 570
chông 570
bục 570
tinh_@@ 570
tranh_đoạt 570
marianne 570
ne 569
giải_độc 569
uyển_chuyển 569
bửa 569
cửa_mở 569
thủ_cấp 569
lão_trượng 569
huyền_nạn 569
mật_thiết 568
thái_bình_dương 568
lạc_quan 568
gập 568
lộng_lẫy 568
sừng_sững 568
tầng_lớp 567
2005 567
bó_tay 567
từng_trải 567
môn_học 567
a-@@ 567
tốt_lành 567
phát_minh 566
tàn_bạo 566
họp_báo 565
chênh_lệch 565
il@@ 565
gù 565
mật_mã 565
tâm_phúc 565
lưu_chính_phong 565
par@@ 564
tử_cung 564
chanh 564
trốn_tránh 564
áo_choàng 564
vờ 564
cẩn 564
cho_rồi 564
hắc_bạch_tử 564
mộc_kiếm_bình 564
đường_dây 563
ham_muốn 563
bừa_bãi 563
đạo_@@ 563
lo_liệu 563
phục_@@ 563
nghĩa_trang 563
thuốc_mê 563
thập_niên 562
luỹ 562
hà_đông 562
đồng_đội 562
cung_@@ 562
ngoại_quốc 562
chat 562
cổ_vũ 562
hiệu_lệnh 562
xúm 562
chuyển_đổi 561
tận_lực 561
ớt 561
nồng 561
trông_nom 561
dung_nhan 561
dự_liệu 561
cử_tri 561
rầu_rĩ 561
72 560
chăm_chỉ 560
hãi 560
hộc 560
quái_lạ 560
thuỷ_sinh 560
tra@@ 559
ô_nhiễm 559
chào_đón 559
song_phương 559
thiệt_thòi 559
ly_kỳ 559
trăm_họ 559
côdét 559
lạm_dụng 558
mắt_xanh 558
cầu_giấy 558
phồng 558
120 558
khay 558
fc 558
tức_tối 558
dơ 558
hò_hét 558
chiêu_@@ 558
trừng_trừng 558
phò_mã 558
lỏng 557
khai_mạc 557
200@@ 557
nguyên_vẹn 557
lư 557
ưa_thích 557
thỉnh_cầu 557
sinh_mệnh 557
chúa_công 557
= 556
cha@@ 556
hoán 556
giải_đáp 556
bàn_ghế 556
đồng_phục 556
thác_bạt_nghi 556
trung_châu 556
landry 556
eu 555
lưu_tâm 555
vững_vàng 555
tự_dưng 555
ít_lâu 555
thứ_bẩy 555
ferrari 555
tào_ứng_long 555
đồ_lôi 555
trỗi 554
một_@@ 554
văn_nghệ 554
tỉnh_giấc 554
này_@@ 554
mảy_may 554
thương_xót 554
giao_tình 554
khốn_kiếp 554
ân_tố_tố 554
lý_văn_tú 554
dậy_thì 553
sức_ép 553
vắng_mặt 553
ly_hôn 553
bênh 553
liệt_sĩ 553
trường_sa 553
truy_sát 553
mất_mặt 553
nhúng_tay 553
vinh_phụng_tường 553
triển_diệp_thanh 553
toyota 552
am_@@ 552
thú_nhận 552
lẫn_lộn 552
gợi_cảm 552
vùng_vẫy 552
xuồng 552
dựng_đứng 552
cách_biệt 552
juventus 552
trang_tương 552
ninh_đạo_kỳ 552
anh_đào 551
2017 551
pin 551
and 551
thu_phục 551
nước_bọt 551
ngày_ngày 551
đại_hoàng 551
/12/2011 551
củng 551
khất 551
viên_ngoại 551
vu_trường_thanh 551
tuân_thủ 550
loay_hoay 550
gấp_gáp 550
sớm_muộn 550
địa_thế 550
đại_cao_thủ 550
âu_dương 550
nu@@ 549
thư_giãn 549
cả_thảy 549
ngo@@ 549
tiêng 549
im_bặt 549
quẻ 549
nới 548
5% 548
để_dành 548
tứ@@ 548
rụt_rè 548
tru 548
hacker 548
titanic 548
lễ_phép 548
thiên_âm_tự 548
hi 547
56 547
james 547
lưỡng_lự 547
đông_á_eu 547
hô_hoán 547
tây_phương 547
tử_nạn 546
gia_tộc 546
huỷ_hoại 546
20/11 546
nhức_nhối 546
giáo_hội 546
thực_tình 546
garin 546
vương_thông_huệ 546
bán_lẻ 545
tiền_@@ 545
phiên_toà 545
bồn 545
bao_bọc 545
nhướng 545
mặt_biển 545
hoa_viên 545
quạ 545
thối_tha 545
dò_hỏi 544
chối 544
đâu_đâu 544
tham_lam 543
mở_đường 543
ba_lan 543
rễ 543
điếc 543
đỏ_rực 543
nỗi_lòng 543
nhà_giáo 543
nhẫn_tâm 543
phật_@@ 543
áo_bào 543
hiền_muội 543
wall 542
đậy 542
mở_đầu 542
afghanistan 542
thiên_thạch 542
khàn_khàn 542
hách_liên_bột_bột 542
mặt_hàng 541
dũng_mãnh 541
thảm_hại 541
vu_ô_quyển 541
teabing 541
hùng_vĩ 540
et 540
phòng_ngừa 540
cao_ốc 540
trách_móc 540
lỗ_hổng 540
kiệt_sức 540
đực 540
đèo 540
tuyên_vĩnh 540
_thành 539
lê_thị@@ 539
tệ_hại 539
phòng_vệ 539
cuốc 539
giải_tán 539
nguyên_khí 539
hết_lời 539
lanh_lảnh 539
tổng_cục 538
vật_dụng 538
bịch 538
thoảng 538
hùng_hậu 538
ngoại_ô 538
tàn_độc 538
tác_chiến 538
chồn 538
n. 537
tiên_tiến 537
tri@@ 537
như_điên 537
lơ 537
giắt 537
sóng_gió 537
thiếu_gì 537
chúa_thượng 537
brazil 536
hợp_pháp 536
trái_ngược 536
sỏi 536
nguyên_do 536
hậu_@@ 536
gian_khổ 536
sinh_linh 536
khoanh_tay 536
ngây_ngất 536
phi_trường 536
kim_lăng 536
lục_bất 536
lãng 535
bắc_giang 535
sức_sống 535
bắc_ninh 535
lò_sưởi 535
linh_thanh_tra 535
thù_oán 535
sơ_mi 535
đào_hoa 535
thiên_cơ 535
ro 534
1.000 534
05 534
ko 534
dai 534
nai 534
tần_@@ 534
khốn_nạn 534
côn_luân 534
hác_trường_hanh 534
maura 534
tnhh 533
tinh_trùng 533
thái_quá 533
nam_định 533
dong 533
gào_thét 533
diếm 533
hư_hành_chi 533
lỗi_lầm 532
săn_sóc 532
thì_thào 532
nghĩa_khí 532
thú_thần 532
và@@ 531
online 531
hói 531
nghĩa_vụ 531
hoà_hợp 531
lề_đường 531
tự_phụ 531
tôn_sư 531
đa_phần 530
us@@ 530
20% 530
nào_là 530
nôn 530
nghiêm_ngặt 530
chưng 530
đánh_đập 530
chuyền 530
sự-ký 530
ngượng 530
chiêc 530
tiếu 530
bill 529
sinh_học 529
lan_toả 529
sáng_kiến 529
khảo 529
khuyết_tật 529
el 529
háo_hức 529
dơi 529
láng_giềng 529
7/2 529
thốt_nhiên 529
trương_tĩnh_chi 529
tỉ_vương 529
thể_chất 528
tỵ 528
đơn_thuần 528
ju@@ 528
lẩm_nhẩm 528
phá_sản 527
thu_hà 527
đờ 527
phòng_ngự 527
tình_nghĩa 527
thuẫn 527
bạch_tiêu_thiên 527
lê_văn_@@ 526
lắng 526
bút_chì 526
xoã 526
nhược 526
bất_công 526
tuổi_đầu 526
nôn_nóng 526
cao_dương 526
kumiko 526
huyết_áp 525
giá_lạnh 525
phù@@ 525
ố 525
đường_@@ 525
chloe 525
lên_tiếng_nói 525
ổn_thoả 525
nhộn_nhịp 525
rắn_độc 525
tiểu_thi 525
võ_phục 525
thu@@ 524
ng_th@@ 524
sơn_đông 524
mất_mát 524
kiên_cường 524
ngộ_nghĩnh 524
htc 524
quắc 524
hồ_thanh_ngưu 524
tv 523
54 523
giả_mạo 523
nội_tâm 523
chủ_quan 523
tắm_rửa 523
mầm 523
dân_gian 523
cây_cỏ 523
ăn_thua 523
uông 523
đưng 523
bình_phục 523
mr_đàm 523
đau_xót 523
vigor 523
10:@@ 522
tàn_phá 522
báo_hiệu 522
thất_nghiệp 522
như_vầy 522
tra_hỏi 522
ai_lại 522
náo 522
giáo_huấn 522
bốc_thiên_chí 522
thẩm_mỹ 521
bú 521
đề_cao 521
mệt_nhọc 521
khả_nghi 521
đồ_sộ 521
nệm 521
thí_dụ 521
bình_phong 521
giang_đô 521
kỵ_mã 521
lưu_hành 520
mạnh_dạn 520
bà@@ 520
vôi 520
học_đường 520
sĩ_tử 520
thưa_@@ 520
mai_siêu_phong 520
chuyển_nhượng 519
iraq 519
biên_bản 519
thon 519
trông_coi 519
thành_thực 519
kế_sách 519
bác_học 519
lách_cách 519
trung_thổ 519
ba_@@ 518
phân_công 518
khí_huyết 518
chực 518
bẩy 518
w 517
nghị_định 517
nghiệp_vụ 517
ếch 517
a. 517
nhỏ_nhắn 517
man_city 517
khiêu_khích 517
lương_thiện 517
ly_khai 517
thuỵ 517
thảy 517
tân_khách 517
viên_chức 516
trung_thực 516
thiệp 516
khoa_@@ 516
tiền_đạo 516
banh 516
duyệt 516
stephen 516
nhiên_liệu 516
mờ_mịt 516
bịa 516
phân_tán 516
lương_thảo 516
bịnh 516
vi_khuẩn 515
xứ_sở 515
pro@@ 515
mòn 515
cọ 515
nươc 515
lơn 515
ài 515
ngáp 514
ley 514
tượng_trưng 514
bướng_bỉnh 514
tác_phong 514
phịch 514
hợp_lực 514
hoàng_thái_hậu 514
dới 514
pippi 514
thiết_thực 513
hiện_thời 513
liên_tưởng 513
hệ_điều_hành 513
11/9 513
con_@@ 513
cứu_giúp 513
kết_bạn 513
bí_hiểm 513
binh_pháp 513
đại_đội 513
% 512
quanh_co 512
hẹn_hò 512
lõi 512
bỏ_phiếu 512
gánh_vác 512
ine 512
khiên 512
tức_thời 512
thiếu_thốn 512
nhạn 512
nghiêm_chỉnh 512
tứ_phía 512
thi_trắc_nghiệm 512
vân_dịch_lam 512
thái_hân 512
hành_@@ 511
thua_kém 511
rải_rác 511
sưởi 511
luc 511
quy_luật 511
lập_công 511
kế_thừa 511
đả_kích 511
bộ_hạ 511
chu_điên 511
du_vũ_cường 511
đầu_mối 510
phòng_bệnh 510
thât 510
cờ_bạc 510
bộ_binh 510
tri_kỷ 510
điềm_nhiên 510
thường_hà 510
lý_xuân_hồng 510
tru@@ 509
it 509
tổng_@@ 509
bất_trắc 509
bệnh_tình 509
mới_lạ 509
cầu_hôn 509
kh 509
thơi 509
cố@@ 509
nhà_hát 509
quần_đảo 509
đại_hoạ 509
lục_soát 509
vùng_sâu_vùng_xa 508
ái_@@ 508
hảo_tâm 508
thực_tập 508
btc 508
lung_linh 508
kinh_hồn 508
giăng_vangiăng 508
thi_@@ 507
u.@@ 507
ướp 507
tá 507
cao_thấp 507
đăng_quang 507
tối_om 507
yvette 507
tiến_triển 506
myanmar 506
phùng_@@ 506
n_đ@@ 506
lôi_cuốn 506
tôn_vinh 506
triết_lý 506
ghê_rợn 506
len_lén 506
chuỳ 506
dã_tâm 506
sa_sầm 506
thanh_lâu 506
hoa_yêu 506
hàn_đào 506
thị_phi 505
700 505
chật 505
thăm_hỏi 505
bừng_bừng 505
bạch_vạn_kiếm 505
ac@@ 504
nghị_lực 504
trọng_@@ 504
điều_dưỡng 504
nước_nhà 504
tay_vợt 504
lắc_lắc 504
xu@@ 503
tường_tận 503
đau_buồn 503
champions_league 503
rối_bời 503
biếc 503
chập_chờn 503
kháng_chiến 503
thái_thú 503
dạt 502
vấp 502
y_dược 502
ví_như 502
linh_cảm 502
ích_kỷ 502
nộ 502
nhứt 502
bất_thần 502
quách_khai 502
tây_bắc 501
kho@@ 501
phản_cảm 501
38@@ 500
kế_toán 500
ia 500
kiêu_hãnh 500
vô_cớ 500
mặt_trận 500
ngày_kia 500
sòng 500
khát_khao 500
phân_@@ 500
thúc_giục 500
mơ_mộng 500
đại_việt 500
thám_thính 500
khối_lượng 499
2,@@ 499
nh.@@ 499
nguyên_liệu 499
euro 499
tho@@ 499
khao_khát 499
tình_@@ 499
lụt 499
đất_liền 499
a_hoàn 499
tĩnh_mịch 499
bơm 498
xem_thường 498
phiêu_lưu 498
scandal 498
thu_cúc 498
hàng_ngũ 498
sủng_ái 498
ab@@ 497
thiên_tài 497
keo 497
5-@@ 497
tốc 497
mồ 497
lăn_lộn 497
báu_vật 497
thương_cảm 497
mãn_nguyện 497
tiêu_tán 497
nghiêm_mật 497
au@@ 496
thuỳ 496
mại_dâm 496
mài 496
dáng_điệu 496
tưng_bừng 496
lịnh 496
thiểm 496
04@@ 495
cải_tạo 495
ste@@ 495
thô_lỗ 495
ồ_ạt 495
liên_hợp_quốc 495
nhất_trí 495
thóc 495
bảo_mật 495
náo_loạn 495
giao_chiến 495
tuyệt_nhiên 495
biến_động 494
chi_nhánh 494
nâng_cấp 494
huy_hoàng 494
bất_tiện 494
cơ_chế_thị_trường 494
tim_mạch 494
tận_hưởng 494
11:@@ 494
thủ_thuật 494
ự 494
viêt 494
nói_gì 494
quý_phi 494
nhớn 494
cảm_hứng 493
nhơ 493
bình_đẳng 493
bạo 493
úi 493
cũ_kỹ 493
khó_dễ 493
đầy_tớ 493
đạo_huyền_chân_nhân 493
chủ_nghĩa 492
78@@ 492
xoá_bỏ 492
khuyết_điểm 492
đen_tối 492
y_khoa 492
sảng_khoái 492
thình_thịch 492
ngượng_ngùng 492
cào 492
chủ_lực 492
nhất_nhất 492
tuấn_mã 492
giãn 491
vùng_biển 491
oa 491
nd 491
_dương 491
chuyển_hướng 491
hồi_âm 491
lạ_mặt 491
bobby 491
hiền_điệt 491
bách_tính 491
dứt_điểm 490
hoàn_chỉnh 490
ler 490
bv 490
huỳnh 490
tái_nhợt 490
ẩu 490
điểm_số 490
19/11 490
rền 490
m. 490
đuối 490
vù 490
uông_dụ_hàm 490
thuộc_lòng 489
đình_đám 489
vũng_tàu 489
đa_khoa 489
thu_hoạch 489
việt_kiều 489
tuổi_thơ 489
thoi 489
lừng_danh 489
dép 489
châu_nhân_ký 489
lưu_bị 488
dệt 488
dầu_khí 488
â@@ 488
chứa_đựng 488
tận_tâm 488
ngang_ngược 488
mới_rồi 488
đinh_đang 488
công_thức 487
giá_như 487
mộc_@@ 487
cao_su 487
đổ_bộ 487
níu 487
nghị_luận 487
quát_mắng 487
khán_như 487
hoá@@ 486
nấc 486
lọc 486
bùa 486
rỉ 486
cố_vấn 486
iên_@@ 486
choáng 486
đổ_nát 486
mướn 486
còng 486
cảnh_sắc 486
đít 486
kỵ_sĩ 486
thệ 486
dương_quảng 486
đa_long 486
định_tĩnh 486
huyền_từ 486
cát_hiểu_phong 486
số_một 485
khăng_khăng 485
tốt_bụng 485
học_kỳ 485
lầy 485
đê_tiện 485
thuỷ_sanh 485
bình_chọn 484
hoạn_nạn 484
rán 484
vi_tính 484
273 484
bu 484
mariuyt 484
mạch_kỳ 484
com@@ 483
lào_cai 483
chuyển_biến 483
57 483
xốc 483
and@@ 483
trong_sạch 483
liên_hồi 483
xâm_hại 483
thiện_cảm 483
tính_nết 483
ban_nãy 483
jesus 483
truy_kích 483
hạ_thần 483
đoàn_chính_thuần 483
ninh_bình 482
sư@@ 482
giải_toả 482
thẫn_thờ 482
tiếng_vang 482
lũ_lụt 482
vua_@@ 482
trần_hải 482
thảo_nào 482
tây_vực 482
doãn_trừng 482
/5 481
ngoại_lệ 481
biết_ơn 481
giam_giữ 481
fifa 481
khinh_thường 481
súc_sinh 481
đặt_hàng 480
cẩm_@@ 480
cầu_@@ 480
gian_nan 480
có_thai 480
hiểm_nghèo 480
lở 480
yên_trí 480
đơn_độc 480
tiếp_đón 480
uẩn_khúc 480
sắc_màu 480
pierre 480
nghi_lễ 480
kurt 480
phê_duyệt 479
thường_vụ 479
chi_trả 479
trạng 479
ngưu 479
phỉ 479
mê_man 479
ủng 479
chỉ_bảo 479
thiếu_@@ 479
hall 479
shi@@ 478
mui 478
nước_da 478
mặt_@@ 478
thoả_đáng 478
nhin 478
ương_@@ 478
phu_quân 478
nhoẻn 478
làm_ơn 478
chúng_sinh 478
ngạch_đồ 478
thiêu_hoả_côn 478
đại_giang 478
trình_làng 477
thực_thi 477
chuyên_viên 477
phao 477
argentina 477
ba_lô 477
tái_hợp 477
nỏ 477
giang_nam_song_hiệp 477
thiên_si 477
trúc_pháp_khánh 477
athena 477
harvey 477
hán_@@ 476
riêng_biệt 476
công_đoàn 476
chu_kỳ 476
xài 476
thanh_quản 476
dự_tính 476
unicef 476
linh_mục 476
nổ_súng 476
cất_giấu 476
nhục_nhã 476
đợi_chờ 476
thám 476
võ_sư 476
tâm_địa 476
tăng_tốc 475
chóng_mặt 475
dè_dặt 475
đa_@@ 475
bất_cập 475
thành_quả 475
sàng 475
john 475
xui 475
nil 475
thiên_trúc 475
ngô_chi_vinh 475
biện 474
thành_thị 474
a_s@@ 474
is 474
nguyễn_th@@ 474
xương_sống 474
chung_@@ 474
chế_ngự 474
chòm 474
đặc_trưng 473
áng 473
êm_ái 473
tài_ba 473
phù_hộ 473
khấn 473
boong 473
tru_tiên 473
quách_tỉnh 473
phàn_nàn 472
58 472
bơ 472
tro@@ 472
đái 472
tự_ái 472
_hoả 472
tức_cười 472
tiền_mặt 471
bàn_giao 471
00 471
chăn_nuôi 471
chân_thật 471
buồn_ngủ 471
bề_mặt 471
then 471
nồng_nặc 471
súc_vật 471
đánh_rơi 471
ngạo_mạn 471
ghì 471
mãn_châu 471
hành_sơn 471
vô_luận 471
thế_ra 471
tạ@@ 470
lên_lớp 470
12/2 470
quý_khách 470
nổi_loạn 470
suy_tư 470
an_nguy 470
đồng_nghĩa 469
yo@@ 469
cáp 469
nguy_kịch 469
tình_thương 469
nguyên_văn 469
năng_động 469
thoại 469
ngao 469
địa_hình 469
danh_vọng 469
điểm_cao 469
rầm 469
hình_thù 469
nam_bút 469
lý_mục 469
độc_ma 469
we@@ 468
thật_thà 468
nhi_đồng 468
hỉ 468
file 468
quang_liêm 468
thiêng 468
cử_hành 468
thu_dọn 468
chỉnh_tề 468
khựng 468
đạo_phúc 468
tuyết_nghi 468
a.@@ 467
bình_quân 467
v.v 467
lô@@ 467
ới 467
quanh_quẩn 467
hiêu 467
đồng_cỏ 467
đền_bù 467
khó_nhọc 467
kình_địch 467
công_sai 467
nhậm_dao 467
âm_hiển_hạc 467
nghi_thức 466
vâng_dạ 466
6/2 466
bĩu 466
cựa 466
khinh_bỉ 466
ẩn_cư 466
cân_đối 465
ds 465
hữu_ích 465
làm_@@ 465
cứu_vãn 465
khích 465
phù_dung 465
cung_ứng 464
tính_khí 464
tàn_khốc 464
để_mắt 464
ám_chỉ 464
tẩy 464
ư@@ 464
hỏi_đáp 464
xướng 464
đại_uý 464
kiều_loan 464
nam_cương 464
bách_hoa 464
nhược_điểm 463
< 463
tiều_tuỵ 463
sự_vật 463
ló 463
đèn_lồng 463
thớt 463
bẽn_lẽn 463
thất_lễ 463
đếm_xỉa 463
làm_phản 463
cười_mát 463
giáo_đồ 463
bức_xạ 462
biển_cả 462
/@@ 462
hãi_hùng 462
yêu_đương 462
ú 462
sấm_sét 462
xót_thương 462
lôi_thôi 462
xúc_xắc 462
tào_thu_đạo 462
đại_chu_thiên 462
51 461
công_nghệ_thông_tin 461
kéo_theo 461
95 461
kép 461
huynh_trưởng 461
bế_tắc 461
chùng 461
nhìn_chung 461
xay 461
say_xỉn 461
thờ_ơ 461
chòi 461
thiên_hà 461
to_tướng 461
lý_thu_thuỷ 461
dân_sự 460
thành_đạt 460
găm 460
poirot 460
tưởng_tư_thừa 460
ác_@@ 459
4-@@ 459
ị@@ 459
nước_biển 459
trọng_trách 459
ng_l@@ 459
bi_kịch 459
sơ_ý 459
ã 459
quàng 459
hân_hạnh 459
mạnh_lương 459
tôn_quyền 458
chân_tình 458
khích_lệ 458
quyết_đoán 458
phục_kích 458
nom 458
hội_họp 458
âm_dương 458
kỹ_nữ 458
angielic 458
dồi_dào 457
bẩm_sinh 457
ứ 457
thế_@@ 457
vèo 457
phò 457
khu_phố 456
bản_thảo 456
tiếp_đãi 456
phùng_tích_phạm 456
vương_tích_hương 456
3,@@ 455
ngoại_@@ 455
bánh_@@ 455
mặn 455
nguôi 455
chính_đáng 455
andrei 455
vô_ý 454
chuyển_giao 454
chuyên_@@ 454
cải_tiến 454
vóc_dáng 454
gia_súc 454
bắt_nguồn 454
vòi 454
chuốc 454
tổng_bí_thư 454
trở_mặt 454
bóng_ma 454
xử_tử 454
gra@@ 453
lo_nghĩ 453
bắt_nạt 453
youtube 453
quân_nhân 453
hốc 453
bẩn_thỉu 453
trắng_xoá 453
part 453
quẳng 453
phi_yến 453
đằng_hắng 453
nghi_hoà 453
sh 452
lưu_giữ 452
phấn_khích 452
les 452
người_xưa 452
sato 452
ngại_ngùng 451
cồn 451
đắc_lực 451
cuôc 451
xuông 451
chiến_binh 451
sáng_chế 451
chấp_hành 451
_sơn 451
lục_đại_hữu 451
đông_nam_á 450
tưới 450
neo 450
day 450
huấn 450
cà 450
phạm_thị@@ 450
tận_cùng 450
nhàn 450
bạch_dương 450
thể_diện 450
binh_@@ 450
nhầm_lẫn 449
bền 449
ạch 449
phú_quý 449
năng_khiếu 449
thanh_xuân 449
23/12 449
vừa_ý 449
lập_trường 449
quốc_dân 449
iaea 449
tàu_ngầm 449
thế_trận 449
hoang_vu 449
dư_hồng 449
liên_tấn 449
phân_loại 448
ực 448
nhiễm_trùng 448
nhấp 448
thức_giấc 448
say_đắm 448
hào_khí 448
đèn_đuốc 448
dư_thượng_hải 448
quan_tam_thắng 448
10% 447
09:@@ 447
mí 447
công_trường 447
gar@@ 447
hớp 447
cao_cả 447
lên_án 447
hoài_lâm 447
chôn_cất 447
xa_xăm 447
bịa_đặt 447
ngông_cuồng 447
thừa_thế 447
ngạnh 447
cơ_thiên_khuyết 447
kinh_sư 447
5,@@ 446
74 446
hồi_tưởng 446
triều_đại 446
au 446
khê 446
bửu_châu 446
đa_tình 446
lạnh_ngắt 446
trừng_trị 446
trấn_thủ 446
tion 445
hàng_không 445
thể_dục 445
dỡ 445
đất_trời 445
album 445
bâng_khuâng 445
điên_đảo 445
hạ_mình 445
vị_tất 445
kim_bất_hoán 445
thập_kỷ 444
tố@@ 444
ir@@ 444
tú_anh 444
ry 444
mỏng_manh 444
hinh 444
quyền_thế 444
bản_sao 444
phát_tài 444
lỗ_mãng 444
tráng_sĩ 444
phản_nghịch 444
ngừi 444
chơi_đùa 443
khía_cạnh 443
85 443
ẩn_chứa 443
d_@@ 443
cơn_sốt 443
tiết_@@ 443
mấu_chốt 443
vả 443
tuy_rằng 443
trì_sanh_xuân 443
california 442
thực_trạng 442
biến_chứng 442
gây_chuyện 442
tiếp_thu 442
nhắn_tin 442
liên_can 442
ệ 442
diễn_tả 442
chữ_viết 442
xanh_biếc 442
í 442
tuyết_sơn 442
sơn_tây 441
hiệp_định 441
dự_phòng 441
súc 441
chớp_nhoáng 441
nghịch_ngợm 441
phô 441
iên 441
bố_con 441
ỵ 441
tái_ngộ 441
mê@@ 441
quý_phái 441
đờ_đẫn 441
tiêu_sái 441
tổ_thiên_thu 441
đào_thục_nhi 441
63 440
hội_chứng 440
rầm_rộ 440
phá@@ 440
thảo_dược 440
tra_tấn 440
bả_vai 440
biểu_thị 440
chân_lý 440
chừa 440
hoàng_thành 440
tiên_liệu 440
vang_vọng 440
trần_thủ_độ 440
hăm_doạ 440
dòm_ngó 440
thâm_trầm 440
hội_nhập 439
_ng@@ 439
phụ@@ 439
số_ít 439
xo@@ 439
phân_tâm 439
chủng 439
nắn 439
celine_dion 439
rợn 439
chẳng_là 439
khẳng_khái 439
tổng_binh 439
yên_nhiên 439
đông_đúc 438
us 438
số@@ 438
đồng_bằng 438
sĩ@@ 438
trình_@@ 438
xâu 438
tử_thần 438
nhận_diện 438
john_@@ 438
hầu_@@ 438
cây_bút 438
gia_lai 438
thanh_bình 438
danh_nghĩa 438
lùng 438
ề 438
100,000 438
biên_chế 438
mẻ 438
căm_ghét 438
tương_trợ 438
thế_dân 438
thái_tôn 438
gd 437
ph 437
ở@@ 437
thể_lực 437
bin 437
lười 437
quấy 437
thiêt 437
khan 437
nhượng 437
liều_lĩnh 437
kỳ_bí 437
bay_bổng 437
réo 437
quan_lại 437
nhăng 437
cảm_khái 437
đỗ_hưng 437
vân_soái 437
lộc_công 437
quả@@ 436
bộ_môn 436
giúp_sức 436
ya 436
vu_@@ 436
nguyền_rủa 436
chìm_đắm 436
thiên_tai 436
trần_quốc_tuấn 436
hự 436
nóng_ruột 436
trai_gái 436
cười_gằn 436
niên_hiệu 436
vũ_@@ 435
uỷ_thác 435
chứng_cứ 435
lây_nhiễm 435
vo 435
sam 435
chật_hẹp 435
cửa_ải 435
hẻo_lánh 435
ràng_buộc 435
ần 435
hình_tượng 435
che_khuất 435
khẩu_khí 435
hơi_sức 435
ngoã_cương 435
phạm_dao 435
chung_thất 435
tù_và 434
tự@@ 434
vạn_vật 434
mor@@ 434
giấu_giếm 434
rằm 434
trang_@@ 434
chứng_thực 434
cổ_đại 434
n1 434
hình_@@ 434
thân_yêu 434
girls_aloud 434
giông 434
200,000 434
tứ_xuyên 434
khấu_đầu 434
mộc_cao_phong 434
nhã_lan 434
công_suất 433
nha_trang 433
ngăn_ngừa 433
chi_cục 433
tiểu_đường 433
ọ@@ 433
chăm_lo 433
ca_hát 433
phẳng 433
kỳ_thị 433
b. 433
nguyễn_hữu_@@ 433
trấn_an 433
19/2 433
van_xin 433
triết_học 433
tan_tành 433
gợn 433
vạn_nhất 433
3.@@ 432
tàn_phế 432
nạt 432
hùng_mạnh 432
dằn_mặt 432
rặng 432
loang_loáng 432
suy_tính 432
bàn_cờ 432
thật_tình 432
thánh_chỉ 432
khuyên_giải 432
lý_tú_ninh 432
lữ_bố 432
30% 431
ninh_@@ 431
đắn_đo 431
tông_@@ 431
nhân_chứng 431
nhà_trọ 431
tức_khắc 431
quẹo 431
quân_lính 431
hầm_hầm 431
bay_lượn 431
ernest 431
cáo_biệt 431
ròng 430
1975 430
tứ_chi 430
hằn 430
quấy_rầy 430
hữu_nghị 430
cài_đặt 430
teng 430
đàm_@@ 430
trong_ngoài 430
đĩnh 430
tối_sầm 430
quí_vị 430
phụng_mệnh 430
dương_khang 430
loren 430
tiêu_lĩnh 430
đỗ_tất_thư 430
hà_vỹ 430
phổ_trí 430
tương_ứng 429
trêu_chọc 429
at@@ 429
vật_thể 429
one 429
rô@@ 429
kỳ_quặc 429
hờ_hững 429
áp_giải 429
tri_phủ 429
lưu_trữ 428
lã@@ 428
khắc_nghiệt 428
quốc_lộ 428
trưng_bày 428
cuống 428
tốn_kém 428
ruồi 428
ngà 428
ngoài_miệng 428
con_nuôi 428
táo_bạo 428
nghi_@@ 428
kohler 428
tù_binh 428
giới_luật 428
thông_thiên_phong 428
phong_tế_trung 428
ác_tăng 428
mong_ước 427
nói.@@ 427
q. 427
chí_ít 427
2003 427
quảng_trị 427
thac 427
suy_ngẫm 427
cha_xứ 427
bangkok 427
dính_líu 427
khai_@@ 427
cái_@@ 427
hứa_@@ 427
gia_trang 427
thở_hắt 427
phí_công_lượng 427
suy_giảm 426
khuôn_viên 426
hoa_quả 426
hoà_nhập 426
rụi 426
gò_má 426
bấy_lâu_nay 426
đều_đều 426
vinh_danh 426
bân 426
động_thái 425
trương_phi 425
khoai 425
cưu 425
hoi 425
tự_vẫn 425
trần_thị@@ 424
bs 424
ơ@@ 424
bạch@@ 424
vn@@ 424
đố 424
khac 424
cầm_cự 424
đương_đầu 424
bằng_phẳng 424
biên_tập 424
huyền_ảo 424
nhấp_nháy 424
thanh_nhã 424
2/@@ 423
ngoạn_mục 423
thâm_nhập 423
học_@@ 423
đường_thuỷ 423
mật_độ 423
tày 423
đánh_cá 423
húc 423
xao_xuyến 423
từ_giã 423
tạo_hoá 423
chùi 423
lena 423
trá 423
thuỳ_trang 423
bần 423
công_nhiên 423
phát_xuất 423
tiểu_thuý 423
ooo 423
tiêu_tiễn 423
đi_chăng_nữa 422
công_vụ 422
roma 422
viếng 422
làm_tình 422
tính_mệnh 422
liên_@@ 421
vừa_phải 421
mã_số 421
304 421
chè 421
phiền_muộn 421
tiếc_nuối 421
đấu_trường 421
p. 421
viền 421
ngồi_xếp_bằng 421
lờ 421
nhâm_thìn 421
khéo_tay 421
tuồng 421
tư_chất 421
đương_thời 421
vu_anh 421
khiếu_nại 420
cẩn_trọng 420
/19@@ 420
ký_kết 420
nhiệt_huyết 420
tiêp 420
vị_thế 420
rốt_cục 420
sinh_đôi 420
trấn_áp 420
thính 420
lưng_chừng 420
lãnh_giáo 420
tạ_yên_khách 420
lớn_mạnh 419
tuyển_chọn 419
ly@@ 419
xe@@ 419
khốc_liệt 419
ngứa 419
ẩm_ướt 419
xe_lăn 419
ục 419
quý_báu 419
lê_văn_luyện 419
cứu_hộ 419
đùa_giỡn 419
không_khéo 419
đại_bác 419
dữ_tợn 419
thẩm_vấn 419
hèn 419
giảo_hoạt 419
3% 418
hết_mình 418
nhang 418
hương_vị 418
phê 418
khổ_tâm 418
hiếu_@@ 418
cửa_kính 418
môn_@@ 418
túi_xách 418
bi_thảm 418
lý_lẽ 418
đẩu 418
tiến_công 418
dương_nghiệp 418
bỉ_nhân 418
nghiền 417
dân_làng 417
432 417
chua_xót 417
phần_thưởng 417
mấy_mươi 417
thiên_văn 417
núi_non 417
vớ_vẩn 417
phất_trần 417
trọng_tâm 416
lan_truyền 416
lan@@ 416
mạnh_tay 416
tokyo 416
giàn 416
08:@@ 416
mát_mẻ 416
cà_mau 416
thủ@@ 416
lam_@@ 416
phái_đoàn 416
nhỡ 416
cầm_quyền 416
yến_tiệc 416
phăng 416
hoang_đường 416
hình_thế 416
bất_đồ 416
lộc_trượng_khách 416
thiên_gia 416
hai_bà_trưng 415
ra_quân 415
chương_@@ 415
tương_@@ 415
nhọc_nhằn 415
mon@@ 415
báo_giới 415
khoác_áo 415
điền_@@ 415
mái_chèo 415
dượng 415
trổ_tài 415
đáng_giá 415
tắt_thở 415
diên_khánh 415
rối_rít 415
tức_mình 415
sách_giáo_khoa 414
2.000 414
cs 414
giả@@ 414
st@@ 414
hoành_tráng 414
nội_@@ 414
trí@@ 414
thi_thoảng 414
lối_thoát 414
ebola 414
rốt 414
giáo_@@ 414
e_dè 414
chị_em_ruột 414
gac 414
djokovic 414
tướng_quốc 414
thiên_địa_hội 414
vương_hột 414
hoa_hoa 414
tình_tiết 413
ai_@@ 413
00@@ 413
thành_đô 413
cach 413
cơ_nghiệp 413
đường_nét 413
nữ@@ 413
khai_sinh 413
1000 413
cái_trò 413
múc 413
bệ 413
yêu_kiều 413
đường_đường 413
long_tuyền 413
trác_kiều 413
hà_@@ 412
đi_@@ 412
62 412
thao 412
gom 412
news_@@ 412
quay_phim 412
tin_học 412
liêm 412
chơi_lễ 412
chữ_ký 412
thực_tại 412
phong_thuỷ 412
chạm_trán 412
thứ_lỗi 412
dương_công_bảo_khố 412
tiên_thiên 412
doãn_thanh_nhã 412
cừu_thiên_nhận 412
ống_kính 411
hấp_thụ 411
bảo_quản 411
cia 411
vỗ_về 411
đi_sâu 411
sư_cô 411
thoang_thoảng 411
khởi_nghĩa 411
bênh_vực 411
bảo_trọng 411
dư_thương_hải 411
trợ_cấp 410
68 410
nghiệm 410
khô_khan 410
chết_chóc 410
nhói 410
do_thám 410
justin 410
kỳ_sơn 410
phụ_cận 410
bụng_dạ 410
phòng_không 409
kiểm_định 409
250 409
lập_luận 409
run_sợ 409
trao_tặng 409
yết_hầu 409
ân_nhân 409
bỏ_hoang 409
9/1 409
xẻ 409
vồ 409
phục_nan_đà 409
eleanor 409
phẩm_chất 408
côn_trùng 408
tấp_nập 408
sơ@@ 408
đau_nhức 408
cận_cảnh 408
tai_hại 408
ranh_giới 408
thân_mến 408
linh_chi 408
giẫm 408
tuần_tra 408
phanh 408
xương_cốt 408
tri_huyện 408
hạ_tầng 407
đà_lạt 407
tập_thể_dục 407
cao_độ 407
thầy_cô_giáo 407
nữ_thần 407
choang 407
ngai 407
cối 407
đại_lễ 407
nhân_tâm 407
tế_nhị 407
dí 407
nhàn_nhã 407
loạn_xạ 407
đan_thanh 407
dặng 407
nhân_số 407
quách_tương 407
cố_định 406
nắng_nóng 406
đặc_thù 406
che_đậy 406
cor@@ 406
ngần 406
không_lưu 406
màn_kịch 406
lăng_@@ 406
ào_ạt 406
bánh_bao 406
bá_tánh 406
uy_phong 406
cố_nhiên 406
đơn_uyển_tinh 406
tô_phi 406
vô_biên 405
101 405
tự_lập 405
đông_dương 405
cấy 405
_hà 405
chiều_tối 405
cổ_tích 405
gượng_gạo 405
phong_tục 405
26/12 405
liverpool 405
om_sòm 405
thanh_tuyền 405
chuẩn_xác 405
bồi_hồi 405
căm_thù 405
quốc_công 405
bách_hoa_sơn_trang 405
chiến_hạm 404
hung_thần 404
cư_trú 404
tinh_xảo 404
76 404
bỏ_mạng 404
chào_đời 404
sóng_thần 404
chú_rể 404
đoan_trang 404
bắt_@@ 404
lùa 404
sước 404
đào_căn_tiên 404
fu@@ 403
bảo_trì 403
luộc 403
tư_pháp 403
qua@@ 403
sinh@@ 403
rèn 403
sát_@@ 403
lu 403
thư_thái 403
di_tích 403
mourinho 403
biết_mấy 403
hành_hung 403
thôi_@@ 403
vẳng 403
tham_kiến 403
ngữ_khí 403
thông_tư 402
vô_nghĩa 402
chỉ@@ 402
im_lìm 402
gắng_sức 402
ố@@ 402
kính_@@ 402
tang_lễ 402
hải_dương 402
mong_mỏi 402
quỳnh_anh 402
chiêm 402
định_mệnh 402
nện 402
đích_xác 402
ác_nhân 402
dĩnh_thuỷ 402
67 401
ct 401
giường_bệnh 401
bách_khoa 401
tê_liệt 401
nhún 401
khăn_tay 401
cố_thủ 401
liên_hoan_phim 401
dẫm 401
qh 401
chính_diện 401
hậu_bối 401
đúng_ra 401
uy_danh 401
bạch_liên 401
huỷ_bỏ 400
pakistan 400
tích_luỹ 400
tạp_hoá 400
tột_cùng 400
học_vấn 400
wi@@ 400
nguội 400
phần_nhiều 400
ồng 400
tròn_xoe 400
con_tin 400
lisa 400
vân_canh 400
làm_bàn 400
sặc_sỡ 400
xâm_lược 400
trinh_sát 400
rình 400
đồng_bộ 399
bước_đầu 399
dạ@@ 399
chật_vật 399
tay_trong 399
bé_con 399
đảo_lộn 399
ngăn_cách 399
bangladesh 399
cốp 399
thiếu_tá 399
chua_chát 399
mẹ_kiếp 399
trần_viên_viên 399
gia_bang 399
rôlinh 399
vương_hãn 399
la_võng_cơ 399
bốn_phương 398
ẩm_thực 398
từ_ngữ 398
trống_ngực 398
băt 398
chi_phối 398
tự_vệ 398
nhí 398
võ_thuật 398
xuống_đường 398
kiều_diễm 398
chăng_nữa 398
cươi 398
ca_tụng 398
pháp_sư 398
nghĩa_hiệp 398
hằn_học 398
thiên_sư 398
nguyễn_nguyễn_@@ 398
ngọc_đỉnh 398
2019@@ 397
từ@@ 397
men@@ 397
nấu_nướng 397
du_ngoạn 397
cô_lập 397
bấy_lâu 397
ỉ 397
trảm 397
bộ_chính_trị 397
sống_động 397
án_mạng 397
định_đoạt 397
thắm 397
rết 397
ôn_tập 397
nhỏm 397
quỷ_quái 397
thống_lãnh 397
tiểu_hương 397
trái_phiếu 396
tự_tại 396
lột_xác 396
66 396
ngậm_ngùi 396
gắp 396
vưa 396
kiêu 396
vận_tốc 396
gài 396
ghê_tởm 396
la_mã 396
lặng_yên 396
đâu_đây 396
trìu_mến 396
lảng 396
đã_đành 396
thành_hôn 396
bá_đạo 396
buồn_bực 396
uyển_nhi 396
tiểu_quận 396
bình_tây_vương 396
nhị_cổ 396
nguyên_soái 396
sp@@ 395
bộ@@ 395
học_giả 395
quanh_năm 395
sưu_tầm 395
kim_dung 395
ge 395
mất_công 395
dante 395
elvis_đậu 395
hđqt 394
gián_điệp 394
môi_giới 394
dị_nhân 394
hồng_hào 394
triệt 394
thân_xác 394
ngay_tức_khắc 394
cướp_bóc 394
két 394
chống_trả 394
ròng_ròng 394
luân_hồi 394
hồi_sinh 393
hiển_thị 393
sto@@ 393
đơn_@@ 393
ứng_biến 393
3/2 393
ngạo_nghễ 393
nhồi 393
khôn_xiết 393
rỡ 393
ả-rập 393
sony 393
thiết_tha 393
đượm 393
tiến_cử 393
bát_quái 393
ngớ 393
thành_thân 393
phi_ngựa 393
ắc 392
xua_đuổi 392
cắt_giảm 392
pho@@ 392
gầy_gò 392
đam 392
lốp 392
rô 392
ngưỡng_cửa 392
kinh_thiên_động_địa 392
nói_láo 392
xảo_quyệt 392
lưu_nhất_chu 392
mẹo 391
chán_ghét 391
59 391
làm_giàu 391
protein 391
đun 391
chích 391
nước_@@ 391
ur@@ 391
bụng_dưới 391
thế@@ 391
land 391
thân_nhân 391
hỷ 391
chen_chúc 391
nương_tựa 391
lạng_sơn 391
dụ_dỗ 391
camry 391
falko_goetz 391
tí_hon 391
chằm_chặp 391
lữ@@ 391
lẩn 391
đạo_pháp 391
cơ_mật 391
tần_thuỷ_hoàng 391
văn_sĩ 391
hồng_hộc 391
bùng_phát 390
blog 390
hối_tiếc 390
sinh_@@ 390
kèn 390
khí_công 390
thụt 390
sắc_sảo 390
sành 390
mal 390
mini 390
ghế_ngồi 390
chính_quy 390
/01/2012 390
ngập_tràn 390
trực_giác 390
chao_ôi 390
ct.ly 390
thạch_đầu 390
koko 390
/7 389
y.@@ 389
sắn 389
cổ_điển 389
ai@@ 389
sinh_động 389
đọ 389
đền_đáp 389
đụng_chạm 389
kiều_@@ 389
thẹn_thùng 389
ăn_chơi 389
khoe_khoang 389
bất_tận 389
hư@@ 389
hạt_giống 389
ngang_hàng 389
trở_tay 389
sà 389
tiên_đế 389
xú 389
misca 389
min@@ 388
tuỳ_thuộc 388
nước_hoa 388
thấu_hiểu 388
thanh_thản 388
tĩnh_@@ 388
triền 388
liễu_@@ 388
nhẩy 388
trừng_quan 388
nhị_nguyễn_@@ 388
phóng_xạ 387
khai_trương 387
danh_tính 387
ca_@@ 387
gen@@ 387
chuyển_hoá 387
tủ_lạnh 387
hũ 387
trót 387
bản_án 387
buồn_phiền 387
ấm_ức 387
chuyên_tâm 387
sáng_sủa 387
vpf 387
ngùn_ngụt 387
trầm_tĩnh 387
đinh_ninh 387
phong_vân 387
triển_chiêu 387
nội_địa 386
harvard 386
đảm_nhiệm 386
mở_màn 386
thống_đốc 386
ss 386
hưng_@@ 386
thuê_bao 386
phái_đẹp 386
đầu_bếp 386
hao_tổn 386
ách 386
ăn_mừng 386
/2010 386
_viên 386
hay_ho 386
bản_nhạc 386
19-8 386
11/1 386
thừ 386
yểu_điệu 386
thương_tiếc 386
phạn 386
tự_tiện 386
nixon 386
sào_huyệt 386
chừng_như 386
thoạt_tiên 386
sốt_xuất_huyết 385
lên_cơn 385
mất_ngủ 385
sử@@ 385
cứu_hoả 385
khổng 385
2011-2012 385
chơ 385
óng 385
đặc_sắc 385
rừng_núi 385
ngoại_thương 385
hãnh_diện 385
phất_phơ 385
khổ_não 385
phản_tặc 385
quách_tường 385
vô_sắc 385
này.@@ 384
thi.@@ 384
văn_th@@ 384
ưu_điểm 384
chổi 384
công_hiệu 384
tham_mưu 384
bèo 384
móc_túi 384
giáo_phái 384
lục_tục 384
chúng_mày 384
bạch_y 384
78 383
mệnh_danh 383
2% 383
iii 383
bị_động 383
mụn 383
cao_to 383
um 383
hơp 383
hùng_@@ 383
ái_ngại 383
hiếp 383
cọc 383
đôn 383
tụ_họp 383
nghe_đâu 383
dòm 383
phụ_hoạ 383
đầu_lâu 383
bôn_tẩu 383
kha_ngạch_luân 383
đình_phụng 383
mỹ_phẩm 382
hàm_@@ 382
rủi 382
đài_truyền_hình 382
can@@ 382
mỏm 382
bình_dân 382
texas 382
thu_nạp 382
nigel 382
tán_loạn 382
oan_uổng 382
olivia 382
đen_sì 382
tái_mét 382
đức_cha 382
đăm_chiêu 382
vương_đạm_chân 382
ngô_lập_thân 382
trì_hoãn 381
vạm_vỡ 381
thường_@@ 381
nhân_văn 381
vịn 381
nhũn 381
ùn_ùn 381
ẩn_náu 381
ngáy 381
mông_lung 381
lại_@@ 381
tụ_hội 381
thì_thôi 381
quan_công 381
đào_chi_tiên 381
net 380
thành_bại 380
cá_mập 380
chất_liệu 380
trùng_hợp 380
ạc 380
ghi_điểm 380
ngạc 380
phia 380
chóp 380
nhà_tù 380
ghe 380
ngưng_tụ 380
mỹ_thuật 380
muôn_ngàn 380
gầm_gừ 380
nhượng_bộ 380
kat 380
4,@@ 379
71 379
ny 379
ch_@@ 379
ngốc_nghếch 379
riết 379
thuỵ_điển 379
ngắn_gọn 379
trang_trọng 379
chướng 379
ard 379
mách 379
trăn_trở 379
nối_liền 379
ba_má 379
bugatti_veyron 379
xử_sự 379
vừa_lòng 379
danh_từ 379
không_trí 379
châu_du 379
trịnh_thạch_như 379
hiện_hữu 378
tổng_thể 378
thương_binh 378
1990 378
mo 378
bình_nhưỡng 378
ng_h@@ 378
càn_quét 378
ngoai 378
sứ_mệnh 378
thuý@@ 378
nhao_nhao 378
trọng_dụng 378
khét_tiếng 378
thăm_thẳm 378
dật 378
hélène 378
et@@ 377
quá_sức 377
rang 377
mang_tiếng 377
băng_bó 377
bộ_tộc 377
a1 377
ngọc_anh 377
ớ 377
dối_trá 377
kinh_thánh 377
đại_lương 377
fache 377
tô_tinh_hà 377
phú_thọ 376
ngô_@@ 376
ten@@ 376
nồng_nhiệt 376
nn 376
thẩm_phán 376
lún 376
thực_vật 376
chia_rẽ 376
sinh_sản 376
hữu_hiệu 376
ùng 376
qua_ngày 376
lạc_đà 376
khoanh 376
khai_giảng 376
mê_mẩn 376
tài_giỏi 376
vui_nhộn 376
rita 376
coi_bộ 376
buru 376
cao_tôn_giả 376
chung_ly 376
phi_đao 376
du_liên_châu 376
_châu 375
sinh.@@ 375
cá@@ 375
tương_tác 375
búp 375
mặc_cảm 375
nuông_chiều 375
trưng 375
đường_cong 375
nâng_đỡ 375
vô_phương 375
cạy 375
ân_tình 375
rập 375
um_tùm 375
la_hán 375
kiến_thành 375
an_ngọc_tình 375
monk 375
vật_lộn 374
p-@@ 374
thân_cận 374
phú_yên 374
lân_cận 374
lâu_đời 374
ta_@@ 374
ang@@ 374
vinh_hạnh 374
ren@@ 374
ll@@ 374
giả_thuyết 374
giao_thừa 374
giằng 374
đáo 374
chốc_chốc 374
với_lại 374
quả_phụ 374
hannibal 374
bất_giới 374
lưỡng_hồ 374
the_@@ 373
nguyễn_đức_@@ 373
gen 373
79 373
cấp_độ 373
sinh_dục 373
khẩn 373
vui_buồn 373
xê-út 373
lữ 373
thầy_tu 373
liên_châu 373
sai_bảo 373
độc_cô 373
tưởng_bình 373
công_tôn_ngọc_sương 373
hạng_mục 372
tích_hợp 372
69 372
77 372
lên_xuống 372
ủ_rũ 372
cảnh_ngộ 372
xa_xưa 372
nhấp_nhô 372
mĩ 372
cẩm 372
điệu_bộ 372
giao_tranh 372
giảng_giải 372
hà_hà 372
cầm_@@ 371
pa 371
tha@@ 371
đồ_dùng 371
trực_thuộc 371
nguồn_lực 371
der@@ 371
lí_do 371
phat 371
ắng 371
phạm_văn_@@ 371
nữ_giới 371
đăng_@@ 371
ay 371
jean 371
chúi 371
quảng_@@ 371
nam_an_khánh 371
thanh_quang 371
dũng_khí 371
kim_hoàn 371
râu_tóc 371
lóng_lánh 371
không_động 371
kissinger 371
tand 370
am_hiểu 370
khánh_hoà 370
ner 370
tăng_@@ 370
xỏ 370
nhân_đạo 370
đỗ_@@ 370
bỗng_chốc 370
hiền_hoà 370
5/2012 370
kỳ_ảo 370
cận_vệ 370
tiểu_đồng 370
hiểm_độc 370
82 369
có@@ 369
cuốn_hút 369
dư@@ 369
nhân_tạo 369
đặc_tính 369
phân_tử 369
đong 369
đổ_dồn 369
quá_độ 369
phê_phán 369
mộ@@ 369
trát 369
chanel 369
khắc_@@ 369
ộ 369
lý_h@@ 369
kẻ_gian 369
giậm 369
jeff 369
chung_ly_triết 369
thẩm_tường 369
kiên_định 368
vin@@ 368
quá_tải 368
thiếu_sót 368
triển_vọng 368
lai_@@ 368
thể@@ 368
ria 368
nơ 368
_nhân 368
xe_cộ 368
hối_lộ 368
trống_trải 368
tay_không 368
khùng 368
ban_giám_hiệu 368
điên_khùng 368
bõ 368
hannah 368
định_nhàn 368
việt_minh 368
khang_hy 368
đổng_thục_trinh 368
.000 367
hội_trường 367
ngành_nghề 367
73 367
1-@@ 367
ou@@ 367
độc_hại 367
bong 367
agrave 367
thần_diệu 367
chân_thực 367
hiến_pháp 367
chu_toàn 367
thực_lòng 367
thảng_thốt 367
nhảy_nhót 367
bả 367
bảo_bối 367
chúng_bay 367
lẫm_liệt 367
tú_sĩ 367
kim_thống 367
suy_yếu 366
bù_đắp 366
phô_trương 366
ngoại_hình 366
vùn_vụt 366
cắn_răng 366
bồi_bổ 366
nhỏ_nhặt 366
bus 366
ngôi_vị 366
giọng_điệu 366
thốc 366
cầm_tù 366
bán_đứng 366
ngoắt 366
gian_tế 366
ngô_lục_kỳ 366
claudia 366
0o0 366
thị_lang 366
đinh_bất_tứ 366
khởi_công 365
dấn_thân 365
tan@@ 365
xấp 365
cuộc_chơi 365
nối_tiếp 365
bắp 365
báo_@@ 365
bổ_ích 365
trăn 365
độc_nhất 365
cõi_đời 365
trần_gian 365
xuất_chúng 365
tràn_trề 365
lôi_@@ 365
quốc_hưng 365
kết_liễu 365
nội_thị 365
sẳn 365
ngọc_dương_tử 365
cát_thiên_phong 365
phát_@@ 364
phở 364
sưa 364
quá@@ 364
ca_sỹ 364
gớm 364
cừ 364
công_đức 364
giác_viễn 364
1% 363
7,@@ 363
hoà_giải 363
3d 363
đạm 363
trườn 363
chửi_bới 363
xâm_chiếm 363
tiệc_rượu 363
vô_duyên 363
cất_giữ 363
lâm_nguy 363
hoảng_hồn 363
nhổm 363
kêu_gào 363
hạo 363
đại_tống 363
bát_vương 363
vượt_trội 362
cáo_buộc 362
chú_tâm 362
7% 362
suy_thoái 362
trai_trẻ 362
rảnh_rỗi 362
đầy_rẫy 362
cột_sống 362
ngoại_thành 362
dụi 362
quầng 362
thu_nhận 362
không_quân 362
len_lỏi 362
lạnh_giá 362
băng_giá 362
nhãn_quang 362
cao_chiếm_đạo 362
trần_trường_lâm 362
nhậm_huyền 362
độc_quyền 361
đề@@ 361
tưởng_nhớ 361
ưỡn 361
tán_dương 361
quyền_cước 361
h30 360
_thanh 360
loại_hình 360
gia_hạn 360
lanh_lợi 360
tập_huấn 360
đa@@ 360
4/2 360
hài_hoà 360
sỹ 360
thiệu_@@ 360
nhà_thầu 360
trúc_@@ 360
kiếm_khách 360
toé 360
bá_tước 360
dã_cẩu_đạo_nhân 360
tống_lỗ 360
điền_mỹ_mỹ 360
hoa_vân 360
hội_đồng_quản_trị 359
nguyệt_@@ 359
thôi_thúc 359
biên_phòng 359
hải_ngoại 359
ss@@ 359
sáp 359
vẩy 359
nhơn 359
liếm 359
cẩm_nang 359
_minh 359
hưng_yên 359
sửa_sang 359
lui_tới 359
sớm_mai 359
bán_đấu_giá 359
mấp_máy 359
phủi 359
mời_@@ 359
trung_quân 359
đắc_thắng 359
vừa_nãy 359
khâm_sai 359
tử_nguyên 359
chủ_chốt 358
ít_ỏi 358
nhiệt_đới 358
nhàn_rỗi 358
web 358
tảo 358
tả@@ 358
trung_gian 358
huân 358
tranh_cử 358
giêng 358
ác_ý 358
nhân_tình 358
ó 358
thành_danh 358
canh_phòng 358
dò_la 358
tiểu_huyền_tử 358
vương_tiễn 358
jesse 358
bến_xe 357
da_@@ 357
thải 357
her@@ 357
nung 357
khoả_thân 357
cầu_vồng 357
24/1 357
tù_nhân 357
30/12 357
đường_mòn 357
đích_thị 357
nhà_quê 357
oán_trách 357
huyền_diệu 357
yết_kiến 357
vui_tươi 357
vân_trường 357
hoả_khí 357
đồ_tiên 357
vân_dương_tử 357
hạ_hầu_cương 357
6,@@ 356
tiềm_ẩn 356
thu_hẹp 356
thuỷ_điện 356
fo@@ 356
anh_chị_em 356
góp_mặt 356
thảm_bại 356
tú_tài 356
nguyên_bản 356
chiến_công 356
lão_luyện 356
nham_hiểm 356
đánh_cuộc 356
lẩy_bẩy 356
cao_kiến 356
thủ_thế 356
hốt_nhiên 356
nạp_lan 356
1,5 355
soát 355
ff@@ 355
thuỷ_triều 355
đứng_đắn 355
trụ_trì 355
trào_dâng 355
ra_dáng 355
thọc 355
nhát_gan 355
4% 354
cẳng 354
ngấm 354
chăc 354
huyên 354
bằng_an 354
tưởng_niệm 354
5/12 354
to_tiếng 354
thần_linh 354
tuyết_hoa 354
chiêm_thành 354
trừng_quang 354
tàn_hồn 354
tang_kết 354
ngũ_phù 354
động_@@ 353
dịch_chuyển 353
st. 353
bon 353
ang_@@ 353
gia_cầm 353
tệ_nạn 353
phập_phồng 353
trộm_cắp 353
đốn 353
làm_gì 353
khiêm_nhường 353
veo 353
khốc 353
la_tinh 353
trương_tử_thanh 353
tô_phổ 353
dự_bị 352
đống_đa 352
xáo_trộn 352
lão_hoá 352
thăng_bằng 352
bồ_câu 352
chứng_bệnh 352
mạnh_khoẻ 352
kỳ_cục 352
diệu_@@ 352
goetz 352
giảng_đường 352
trù 352
mờ_ảo 352
hò_reo 352
dã_thú 352
quân_dân 352
thống_khoái 352
tăng_lữ 352
sĩ_khí 352
cảnh_lăng 352
ường 351
39@@ 351
330.000 351
đi_đôi 351
đông_bắc 351
you 351
trò_đùa 351
ly_dị 351
hơn_bao_giờ_hết 351
cao_bằng 351
cam_chịu 351
cóng 351
đom_đóm 351
quân_phục 351
êm_đềm 351
nxb 351
thành_trì 351
bàn_tính 351
hô_lôi_phương 351
vạn_chấn_sơn 351
đặng_bách_xuyên 351
tiếp_thị 350
công_thương 350
sta@@ 350
hành_xử 350
st 350
5.000 350
kĩ 350
è@@ 350
trần_th@@ 350
bánh_chưng 350
u-@@ 350
thuần_thục 350
lòi 350
cười_phá 350
bới 350
tan_rã 350
real 350
lưu_truyền 350
đâu_đấy 350
ái_tình 350
thót 350
y_thuật 350
to_gan 350
chư_tướng 350
trác_nhượng 350
trọng_tôn_long 350
mẫn_nhu 350
du_trường_thuỷ 350
84 349
ranh 349
bơi_lội 349
kháng_sinh 349
at 349
nam_nhi 349
che_lấp 349
xoắn 349
dàn_xếp 349
cơm_nước 349
lặng_thinh 349
nồng_nàn 349
ảo_ảnh 349
dòng_dõi 349
thôi_miên 349
bá_chủ 349
thì_giờ 349
cơ_trí 349
giao_phong 349
ảo_giác 348
đẩy_lùi 348
đui 348
tử_hình 348
tuyệt_chiêu 348
niêm_phong 348
dịch_giả 348
chối_từ 348
hồn_vía 348
ôn_tồn 348
oang_oang 348
bột_nhi_thiếp 348
bửu_khoa 348
ong_@@ 347
tư_bản 347
di_truyền 347
ea@@ 347
đèn_đỏ 347
đơi 347
bản_sắc 347
khiêu_vũ 347
n_s@@ 347
/11/2011 347
lịm 347
ký_hiệu 347
ttk 347
chỉnh_đốn 347
phượng_hoàng 347
lượng_thứ 347
hổ@@ 347
thiên_sơn 347
vang_động 347
bẩm_báo 347
nha_dịch 347
inh 346
cứng_đờ 346
rộn_ràng 346
rỗng 346
phỏng_đoán 346
sặc 346
giao_cấu 346
thư_từ 346
la_liệt 346
diệt_trừ 346
trách_mắng 346
lưu_manh 346
lục_cao_hiên 346
thị_nữ 346
4.@@ 345
/1@@ 345
nước_ngọt 345
dị_ứng 345
mút 345
sấp 345
nguyên_thuỷ 345
ghen_tuông 345
khẩu_hiệu 345
lấn 345
đè_nén 345
quá_đỗi 345
cầu_mong 345
hillary_clinton_nga 345
rihanna 345
xa_@@ 345
_công 345
tào_@@ 345
không_văn 345
đổng_thục_ni 345
chu_thông 345
vu@@ 344
cuộc_gọi 344
bong_bóng 344
í@@ 344
hành_nghề 344
linh_động 344
murray 344
_hải 344
n_b@@ 344
hành_trang 344
dỗ_dành 344
v. 344
22/11 344
thoi_thóp 344
vía 344
toán_@@ 344
ma_quái 344
ảo_tưởng 344
nhốn_nháo 344
làm_chứng 344
bầu_bạn 344
akh 344
tối_hậu 344
cao_ngạo 344
khuông 344
nhãi 344
thao_thiết 344
mặc_kha 344
liệt_hà 344
vương_minh 344
thiếu_nguyên 344
thiến_như 344
nhất_tiếu 344
gmt7ngày 344
1/@@ 343
u_l@@ 343
m-@@ 343
360 343
đi@@ 343
bri@@ 343
cuba 343
đất_đá 343
chiêng 343
địa_phận 343
hoàng_my 343
tầu 343
nghinh 343
gã@@ 343
lạc_thuỷ 343
quần_thần 343
diệp_nhị_nương 343
bá_phụ 343
xuân_thân 343
thanh_thư 343
o.@@ 342
10.000 342
wal@@ 342
10-@@ 342
khả_dĩ 342
hăng 342
sơ_suất 342
thiếu_nhi 342
đáng_lý 342
che_phủ 342
tư_thục 342
châu_tấn 342
nhớ_nhung 342
phục_tùng 342
nghênh_ngang 342
ác_chiến 342
hỏi_nhỏ 342
hàn_kiệt 342
mạc_đại 342
nhị_tẩu 342
thành_khẩn 341
chính_thống 341
lỗ@@ 341
tổ@@ 341
lơ_đãng 341
cơ_bắp 341
ung_@@ 341
ken 341
khả_thi 341
mât 341
chồng_chất 341
tay_@@ 341
28/12 341
csgt 341
cọng 341
ngũ_sắc 341
hoang_vắng 341
tuyệt_sắc 341
chó_săn 341
thộn 341
tú_phương 341
fêlixitê 341
vu_dung 341
đông_phương_ngọc 341
70% 340
dài_hạn 340
tỉnh_uỷ 340
thành_uỷ 340
dây_chuyền 340
to_@@ 340
bur@@ 340
bất_tài 340
động_kinh 340
_minh_@@ 340
giỗ 340
bỏ_cuộc 340
điêm 340
chung_quy 340
viếng_thăm 340
huệ@@ 340
cách_chức 340
ngã_ngửa 340
dũng_sĩ 340
tiên_tri 340
khí_chất 340
phi_yến_đa_la 340
tiểu_lăng 340
tử_lan 340
ngu@@ 339
thư@@ 339
mịn 339
chợp 339
một_chiều 339
đỏ_ửng 339
chột_dạ 339
chấn_chỉnh 339
sánh_vai 339
hồi_tỉnh 339
xếp_đặt 339
sám_hối 339
khoái_lạc 339
quan_viên 339
thè 339
nhãn_lực 339
gia_quyến 339
hộ_thân 339
loảng_xoảng 339
mông_ngao 339
long_thiên_lộc 339
tô_thiên_bình 339
chào_mừng 338
99 338
thịnh_nộ 338
long_an 338
hạ_long 338
định_nghĩa 338
ban@@ 338
ói 338
nội_tạng 338
đơ@@ 338
xôi 338
u_uất 338
kỳ_tích 338
đông_nam 338
đổ_vỡ 338
xanh_xao 338
biến_chuyển 338
nườm_nượp 338
băng_tuyết 338
xinh_tươi 338
hừng_hực 338
ăng_@@ 338
thày 338
quyến_luyến 338
quỷ_tiên_sinh 338
tươi_đẹp 337
campuchia 337
tràn_lan 337
sl 337
tu_@@ 337
tât 337
thịnh_vượng 337
victoria_beckham 337
thương_gia 337
tỷ_như 337
siêu_phàm 337
cai_quản 337
quân_chủ 337
lộng 337
chênh_chếch 337
diêu_mãnh 337
giảm_thiểu 336
xa@@ 336
tàu_hoả 336
cây_xanh 336
ari@@ 336
bị@@ 336
thú_thật 336
trẻ_thơ 336
tái_phát 336
ịnh 336
khuy 336
tống_tiền 336
tạc 336
chân_truyền 336
doanh_chính 336
khí_khái 336
lỗ_diệu_tử 336
hoàn_nhan_hồng_liệt 336
chức_vị 335
35@@ 335
han@@ 335
lạ@@ 335
dịch_bệnh 335
san@@ 335
ộc 335
os@@ 335
nguyễn_thị_@@ 335
cơ_duyên 335
gián_tiếp 335
trinh_tiết 335
bô@@ 335
bình_ổn 335
thanh_minh 335
đại_bàng 335
nũng_nịu 335
âu_@@ 335
phạm_nhân 335
chói_lọi 335
thượng_thặng 335
chết_tiệt 335
linh_vị 335
đoàn_diên_khánh 335
giảm_sút 334
thượng_hải 334
y_hệt 334
nước_miếng 334
nhẩm 334
tâm_can 334
nhỏ_nhoi 334
khám_xét 334
hoá_thân 334
khoác_lác 334
khoa_trương 334
hớt 334
mua_chuộc 334
cửu_nạn 334
nhậm_thiếu_danh 334
trân_châu 333
war@@ 333
fe@@ 333
thơ_ấu 333
ven@@ 333
lấy_@@ 333
bằng_cấp 333
hận_thù 333
giời 333
11/2 333
22/12 333
vẩn 333
hồi_ức 333
cai_trị 333
e_thẹn 333
càu_nhàu 333
_vương 333
phu_phụ 333
thế_tử 333
dã_lặc_miệt 333
virginie 333
niêm_yết 332
nd@@ 332
xuất_xứ 332
who 332
diễn_xuất 332
canxi 332
khuyên_nhủ 332
mấy_ai 332
quá_cố 332
laptop 332
trấn_@@ 332
chửi_rủa 332
gia_đinh 332
hoàng_chung_công 332
thích_trường_phát 332
illuminati 332
887.104 332
kị 331
thâu_tóm 331
giá@@ 331
je@@ 331
thức_tỉnh 331
nho@@ 331
đà@@ 331
tơ@@ 331
sống_còn 331
hạ_@@ 331
ngán 331
ại 331
bê_bối 331
tay_lái 331
tằm 331
áo_@@ 331
ước_chừng 331
tình_tứ 331
ao_ước 331
tạnh 331
trung_đoàn 331
số_mệnh 331
thông_hiểu 331
truyền_thần 331
the_thé 331
cướp_đoạt 331
ngân_phiếu 331
lư_tuần 331
tịch_ứng 331
fadette 331
bảo_định_đế 331
gideon 331
2638 331
1.980 331
khuôn_khổ 330
ti_vi 330
thực_khách 330
cất_cánh 330
chuyên_khoa 330
chế_giễu 330
vy 330
vớt 330
di_sản 330
rưng_rưng 330
toại 330
vết_tích 330
thất_thủ 330
biên_cương 330
giam_cầm 330
luỵ 330
quê_mùa 330
mở_toang 330
cừu_hận 330
can_quy 330
đầu_tử 330
nhạc_thừa 330
acker 330
triệu_tiền_tôn 330
gia_luật_hồng_cơ 330
6-@@ 329
nhân_tố 329
phủ@@ 329
đồng_cảm 329
bác_bỏ 329
81 329
phân_nửa 329
tự_thân 329
buồn_nôn 329
lõm 329
thành_thạo 329
giải_mã 329
xen_lẫn 329
tà@@ 329
tài_hoa 329
quyền_sở_hữu 329
thủ_tiêu 329
thừa_@@ 329
lạnh_toát 329
vô_sỉ 329
lỗi_lạc 329
nhân_ảnh 329
38.050 329
van@@ 328
du_thuyền 328
cáng 328
9x 328
14:@@ 328
ổi 328
vô_vàn 328
hoàn_@@ 328
gân_cốt 328
quấy_rối 328
chính_nghĩa 328
premier_league 328
tháo_chạy 328
dúi_dụi 328
trần_truồng 328
cắm_đầu 328
tổng_đốc 328
bách_chiến 328
233.977 328
622.925 328
7022 328
30.202 328
ạ@@ 327
new@@ 327
calo 327
lin 327
khối_u 327
dù_vậy 327
mới_đầu 327
ngột_ngạt 327
đẳng 327
trí_óc 327
ký_túc_xá 327
triệu_vân 327
nịnh 327
nhạt_nhẽo 327
khâm 327
tiên_nữ 327
mắng_chửi 327
khí_phách 327
thiên_môn 327
tất_yếu 326
trọng_điểm 326
đại_sứ_quán 326
15:@@ 326
áp_đặt 326
sat 326
miễn_là 326
ấu 326
lung 326
săn_bắn 326
lặn_lội 326
tuệ 326
lynda_trang_đài 326
siêu_mẫu 326
giật_thót 326
quét_dọn 326
chài 326
thoạt_đầu 326
tiềm 326
thất_lạc 326
hững_hờ 326
46@@ 325
liên_hiệp 325
linh_thiêng 325
công_sở 325
han 325
thao_túng 325
sofa 325
inch 325
à@@ 325
đồ@@ 325
rã_rời 325
rúc 325
thổn_thức 325
gìn_giữ 325
hàn_lâm 325
nguyễn_tấn_dũng 325
điệp_viên 325
lưu_luyến 325
bất_khả 325
nho_sinh 325
thúi 325
ngự_tiền 325
thần_phong 325
chả_trách 325
ảo_thuật 324
tiện_lợi 324
ts@@ 324
khiếm_khuyết 324
rành 324
2001 324
điêu_khắc 324
bi_@@ 324
kar@@ 324
hoả@@ 324
ngứa_ngáy 324
dallas 324
kiên_giang 324
thành_tâm 324
xa_hoa 324
06/03/2012 324
tài_phiệt 324
dẫu_sao 324
tín_ngưỡng 324
chê_cười 324
cẩn_mật 324
nhoáng 324
thân_tín 324
canh_chừng 324
mền 324
hèn_hạ 324
vạn_tuế 324
vô_sự 324
khương_duy 324
trương_tuyền 324
7-@@ 323
kin 323
dầu_mỏ 323
sáp_nhập 323
khổ_luyện 323
1997 323
sống_lưng 323
trách_cứ 323
bao_@@ 323
05/03/2012 323
ổ@@ 323
thẩm_@@ 323
bôn 323
búi 323
chử 323
bàng_quan 323
tuyệt_@@ 323
lộc_sơn 323
rê 323
spoon 323
kỳ_tài 323
quật_cường 323
lâu_la 323
thuý_an 323
quỷ_kế 323
trầm_linh 323
vô_lại 323
tần_vô_viêm 323
83 322
ụ@@ 322
thù_địch 322
buộc_tội 322
cổ_truyền 322
tinh_nghịch 322
cang 322
nghê 322
hình_tròn 322
_lan 322
5/2 322
suy_luận 322
bai 322
khác_gì 322
khen_thưởng 322
loáng 322
ưng_@@ 322
bốn_phương_tám_hướng 322
căm_giận 322
biến_ảo 322
pháp_thuật 322
thái_bảo 322
ngô_khảm 322
cntt 321
tái_sinh 321
bmw 321
bất_định 321
tột_độ 321
mọi_khi 321
thương_nhớ 321
thống 321
nguy_nan 321
núi_rừng 321
quảng_châu 321
photoshop 321
trông_cậy 321
đương_kim 321
cây_cổ_thụ 321
quây 321
bất_hoà 321
nực_cười 321
khuyên_can 321
cải_biến 321
thái_tông 321
trần_văn_@@ 320
/6 320
ý@@ 320
:00 320
điểm.@@ 320
nhà_trắng 320
reuters 320
ngân_@@ 320
_ho@@ 320
đồng_tháp 320
chất_béo 320
ường_@@ 320
xào 320
hêt 320
trú_ngụ 320
ái_nữ 320
tận_tình 320
ngoạm 320
ngòi 320
hoa_lệ 320
vắng_lặng 320
thạch@@ 320
thất_thần 320
thiên_chúa_giáo 320
dĩ_vãng 320
nam_hải 320
2019đáp 320
đảm_nhận 319
03@@ 319
61 319
1998 319
hàm_lượng 319
imf 319
suy_sụp 319
ngự@@ 319
zi@@ 319
ăng@@ 319
năm_tuổi 319
y. 319
khám_nghiệm 319
truyền_đạt 319
ế@@ 319
lâu_lâu 319
hiếp_dâm 319
vệ_binh 319
robot 319
_động 319
trấn_giữ 319
đông_phương 319
tiện_nhân 319
vi_thần 319
mục_niệm_từ 319
chuỷ 319
nhân_cách 318
ưu_tú 318
phiền_toái 318
phát_ngôn 318
cương_vị 318
nhà_kho 318
nhiễu 318
sen@@ 318
hích 318
tú@@ 318
tươi_tắn 318
rượu_vang 318
é 318
nghèo_khổ 318
ban_mai 318
1945 318
ệ@@ 318
chêt 318
da_gà 318
diệp_chi 318
yến_@@ 318
ắt_hẳn 318
di_tản 318
đế_quốc 318
hệ_trọng 318
cợt 318
tiến_quân 318
tể_tướng 318
tử_chiến 318
tần_thúc_bảo 318
phong_linh 318
minh_chứng 317
lư@@ 317
ap 317
anh_cả 317
găng 317
cách_ly 317
khuynh_hướng 317
ghi_bàn 317
cá_voi 317
chửi_mắng 317
treo_cổ 317
thanh_tịnh 317
nghi_ngút 317
đùa_cợt 317
khoan_thai 317
nhọc 317
hôn_quân 317
diêm_vương_tôn_giả 317
thứ_sử 317
thị_trường_chứng_khoán 316
thị_@@ 316
danh_giá 316
bbc 316
thìa 316
vô_thức 316
xiên 316
lạc_lõng 316
liên_đoàn 316
cam_đoan 316
thăm_viếng 316
t&t 316
tư_liệu 316
yên_bình 316
vạc 316
kho_tàng 316
màn_ảnh 316
bản_xứ 316
cầu_khẩn 316
đổ_máu 316
ứng_chiến 316
lợt_lạt 316
tiểu_tiên 316
phục_binh 316
lam_ngọc_đường 316
08 315
5.@@ 315
quyền_hạn 315
hạ_cánh 315
louis 315
tiến_trình 315
phát_tán 315
15/12 315
ngăn_kéo 315
rẫy 315
bát_ngát 315
lí 315
quá_chừng 315
goá 315
làm_thinh 315
đổ_xô 314
tiềm_lực 314
s-@@ 314
ther@@ 314
gia_vị 314
sóc 314
tinh_hoàn 314
dấn 314
ben@@ 314
79@@ 314
chạy_đua 314
kềm 314
venezuela 314
cho_qua 314
cụ_già 314
du_dương 314
giá_mà 314
31/1 314
hôn_lễ 314
nam_bắc 314
mù_quáng 314
tinh_hoa 314
đề_đốc 314
dã_tốc_cai 314
cửu_trùng 314
bra@@ 313
/0@@ 313
fran@@ 313
3-@@ 313
hàng_@@ 313
thích_nghi 313
cửa_@@ 313
xác_thực 313
khảm 313
ép_buộc 313
nghĩa_@@ 313
đụng_độ 313
mai_táng 313
ấm_cúng 313
đông_tây 313
khẩn_cầu 313
thuỳ_dung 313
rủa 313
lưu_lạc 313
rứa 313
huýt_sáo 313
tê_dại 313
trầm_lặng 313
ai_oán 313
hựu 313
đại_nham 313
vô_lực 313
kiệt_lực 313
hà_thiết_thủ 313
nicôn 313
hoá_đơn 312
110 312
đoàn_tụ 312
tiếp_tay 312
ấ@@ 312
thỏ_thẻ 312
huyết_@@ 312
xanh_@@ 312
bao_cao_su 312
sành_điệu 312
mã_@@ 312
cấp_tốc 312
ngoại_tình 312
nở_rộ 312
quang_trung 312
500,000 312
tường_thuật 312
áo_giáp 312
cha_anh 312
dúi 312
phi_tần 312
inh_@@ 312
thổ_dân 312
cô_tô 312
hứ 312
lý_tự_thành 312
diêu_hưng 312
thiên_tôn 312
ban_chấp_hành 311
cao_ngất 311
92 311
pre@@ 311
biến_dạng 311
tưng 311
rãnh 311
qua_loa 311
mượt 311
hàm_ý 311
chữ_cái 311
mất_hồn 311
vô_vị 311
cạch 311
phế_bỏ 311
hứa_khai_sơn 311
tô_khôn 311
mậu_công 311
antôn 311
96 310
định_kỳ 310
kiểm_lâm 310
nghèo_khó 310
tê@@ 310
động_mạch 310
hoàng_anh 310
sion 310
giã 310
đôla 310
hà_thành 310
nhà_ăn 310
phút_giây 310
dan@@ 310
cực_đoan 310
đoàn_viên 310
mercedes 310
..... 310
lhq 310
chiến_sỹ 310
ăn_học 310
mờ_nhạt 310
e_sợ 310
hạ_lưu 310
côn_sơn 310
vế 310
đa_nghi 310
ghìm 310
cô_hầu 310
khinh_miệt 310
lầm_bầm 310
lương_đô 310
truy_tố 309
k. 309
31@@ 309
go 309
tiêu_hao 309
xó 309
hoàng_liên 309
sóc_trăng 309
giả_thiết 309
trông_chờ 309
bộ_óc 309
người_máy 309
thuỷ_tiên 309
quyêt 309
can_ngăn 309
meryl_streep 309
đàm_vĩnh_hưng 309
từ_liêm 309
vãn_hồi 309
ù@@ 309
đánh_phá 309
kỳ_công 309
chưa_biết_chừng 309
vnthuquan 309
kỷ_thiến 309
tống_thanh_thư 309
9/@@ 308
al_@@ 308
/2014 308
olympic 308
mày_râu 308
a_th@@ 308
phả 308
xíu 308
đu@@ 308
hoanh 308
chuyên_trang 308
đoàn_@@ 308
nhỏ_mọn 308
giáo_sĩ 308
nghiễm_nhiên 308
lãnh_@@ 308
diễm_lệ 308
trẻ_nít 308
thanh_nguyên 308
hợp_đáp_an 308
vương_huyền_ứng 308
tiế@@ 307
_gia 307
ết 307
nguyễn_thanh_@@ 307
nanh 307
đối_kháng 307
vô_cảm 307
đàm_luận 307
đè_bẹp 307
nhậm_chức 307
ên 307
trắng_muốt 307
thời_@@ 307
đại_cục 307
thái_tổ 307
phổ_côn 307
lý_hốt_đài 307
raoul 307
đoàn_thể 306
na_@@ 306
điều_@@ 306
khởi_nghiệp 306
pan@@ 306
ll 306
nguyễn_ngọc_@@ 306
vỡ_lẽ 306
tiên_đoán 306
tầm_@@ 306
hoạt_bát 306
mễ 306
măng 306
đầy_ắp 306
khóm 306
24/12 306
tồn_vong 306
/03 306
kiến_@@ 306
xe_lửa 306
bàn_@@ 306
thầm_thì 306
xí 306
khinh_khi 306
quốc_sư 306
tử_thương 306
tiểu_trúc_phong 306
ngũ_đài_sơn 306
khiết_đan 306
49@@ 305
dưng 305
trợ_thủ 305
tổn 305
thanh_thiếu_niên 305
kiềm 305
ồ@@ 305
cây_@@ 305
uất_ức 305
robert 305
chung_thân 305
óng_ánh 305
khổ_đau 305
núi_lửa 305
cảm_phục 305
lý_thú 305
ok 305
giai_điệu 305
ám_hại 305
bình_nhi 305
chu_đan_thần 305
tháng_ngày 304
lê_th@@ 304
di_cư 304
thương_nhân 304
ly_@@ 304
nguyễn_đình_@@ 304
tường_vi 304
bê_tông 304
2/2 304
ngây_ngô 304
trong_trắng 304
vũ_công 304
tư_lệnh 304
cực_nhọc 304
nhân_sĩ 304
khích_động 304
danh_bất_hư_truyền 304
hammond 304
vương_bá 304
hoàn_nhan_khang 304
vạn_khuê 304
bất_hối 304
thông_suốt 303
gia@@ 303
công_nghệ_cao 303
lắp_đặt 303
nước_tiểu 303
uyên_ương 303
tổng_thư_ký 303
ngoặt 303
đổi_thay 303
cực_kì 303
tơi_bời 303
đại_nghĩa 303
la_thành 303
cứng_cỏi 303
đổng_@@ 303
sâu_đậm 303
vạ 303
lần_mò 303
áp_chế 303
chúa_trời 303
đê_hèn 303
yêu_ma 303
vời 303
tiếp_viện 303
chiện 303
thuỷ_sư 303
đào_hoa_tiên 303
huyền_trinh 303
đà_lôi 303
giave 303
hồng_liên 303
88@@ 302
kỳ_hạn 302
6% 302
win@@ 302
trà@@ 302
xương_@@ 302
mủ 302
nốt_ruồi 302
thẳng_tay 302
chối_cãi 302
sơ_tán 302
lật_tẩy 302
trầm_@@ 302
nhỏ_hẹp 302
hoa_văn 302
hình_vẽ 302
lầm_lẫn 302
thợ_rèn 302
giễu_cợt 302
giả_dạng 302
gia_minh 302
hận_thiên_nữ 302
tiểu_linh 302
á. 301
cảm_thông 301
ốp 301
vô_sinh 301
/2013 301
độn 301
p_t@@ 301
dị_dạng 301
lâm_trận 301
khánh_thành 301
thở_dốc 301
lưu_chuyển 301
chần_chờ 301
đối_ngoại 301
khiếm_thị 301
xavi 301
kỳ_anh 301
quá_lời 301
châm_chọc 301
câu_@@ 301
hổ_phách 301
súng_lục 301
hồ_ly 301
ngôn_như_băng 301
lịnh_chấn_kỳ 301
học.@@ 301
nato 300
quỳnh_@@ 300
tái_tạo 300
tiền_sử 300
viettel 300
thí_điểm 300
thượng_lưu 300
làm_ngơ 300
chủ@@ 300
lan_@@ 300
8-@@ 300
miên_man 300
lục_địa 300
máy_@@ 300
trung_thu 300
co_rúm 300
vũ_lực 300
mê_cung 300
_trung 300
cáu 300
phát_sóng 300
tehran 300
hoả_tiễn 300
quái_gở 300
bửu 300
én 300
thâm_độc 300
độc_địa 300
huỵch 300
hoàn_xỉ 300
ấn_định 299
za@@ 299
vũ_văn_@@ 299
lồi 299
triều_dương 299
găp 299
võ_@@ 299
lĩnh_nam 299
bơ@@ 299
y_t@@ 299
he 299
thọ@@ 299
café 299
chít 299
thảm_sát 299
địa_chấn 299
v-league 299
hoa_khôi 299
casino 299
la_ó 299
bảo_thủ 299
kiều_linh 299
tỉ_thí 299
mãnh_thú 299
nhộn_nhạo 299
mai_sơn 299
cu-ba 299
bộp 299
lồm_cồm 299
tiêu_liệt_vũ 299
hà_thái_xung 299
đường_cao_tốc 298
l. 298
quôc 298
mong_chờ 298
chicago 298
tăm 298
danh_@@ 298
đoản 298
nhân_hậu 298
oanh_tạc 298
hùa 298
quảng_đại 298
bồ_đề 298
vỗ_ngực 298
cheng 298
thành_ý 298
edward 298
võ_quan 298
thân_vương 298
giảo_kim 298
ân_lê_đình 298
nhnn 297
01@@ 297
2-@@ 297
dế 297
tiếp_diễn 297
h.@@ 297
ser@@ 297
07:@@ 297
xoa_dịu 297
tái_@@ 297
nặng_trĩu 297
kim_ngân 297
tuyết_@@ 297
phúc_lợi 297
thô_bạo 297
xã_hội_chủ_nghĩa 297
cty 297
thưa_thớt 297
đúp 297
vũ_trang 297
hội_viên 297
tính_chuyện 297
toạ_lạc 297
nói_xấu 297
ngọc_thành 297
làm_thịt 297
trí_quang 297
gặm 297
côn_lôn 297
cố_chấp 297
tam_đại 297
tương_kiến 297
tiết_thần_y 297
2016 296
lex 296
xấp_xỉ 296
97 296
l_@@ 296
golf 296
ban_công 296
bệnh_lý 296
val@@ 296
fer@@ 296
emma 296
gán 296
công_giáo 296
thi_đua 296
hào_phóng 296
làm_thuê 296
7/12 296
thiên_nga 296
hiểm_ác 296
phúc_kiến 296
toạc 296
hung_tợn 296
chính_tâm 296
độc_dược 296
leng_keng 296
sang_sảng 296
xương_văn 296
vu_yêu 296
kha_trấn 296
thượng_đỉnh 295
hoạch 295
201@@ 295
đới 295
download 295
loanh_quanh 295
giả_tạo 295
:@@ 295
nguyên_lý 295
suy_xét 295
martin 295
nhà_ga 295
biên_soạn 295
bực_dọc 295
bỉ_ổi 295
đường_sá 295
túp 295
kính_bentley 295
bán_chạy 295
bentley 295
gia_tài 295
tẩu_thoát 295
ủi 295
giằng_co 295
lang_quân 295
nhường_nhịn 295
chén_thánh 295
râu_ria 295
hô_hố 295
khẩn_yếu 295
phần_phật 295
phệ_huyết_châu 295
du_đại_nham 295
xê-va 295
76@@ 294
thổ_nhĩ_kỳ 294
đại_thắng 294
ứ@@ 294
sản_sinh 294
trào_lưu 294
mark 294
nhái 294
cả@@ 294
hội_tụ 294
bún 294
tuổi_thọ 294
don 294
lung_lay 294
niêm 294
tương_đồng 294
ag@@ 294
chất_phác 294
nán 294
nỗi_niềm 294
tiến_hoá 294
bươc 294
vp 294
lãng_tử 294
tráng_lệ 294
đao_@@ 294
quá_ư 294
hơi_nước 294
đại_bại 294
truật_xích 294
mã_cát 294
nhuệ_khí 294
giám_mã 294
,5 293
gr@@ 293
hỗn_độn 293
chức_danh 293
man_@@ 293
ter 293
sai_trái 293
phổ@@ 293
vât 293
nước_lớn 293
thương_@@ 293
dại_dột 293
chơi_bời 293
nan_giải 293
đung_đưa 293
đỏ_hoe 293
trục_xuất 293
dấu_tích 293
xi_măng 293
úc_@@ 293
tàu_chiến 293
dây_xích 293
tỉa 293
di_chúc 293
lý_th@@ 293
long_trọng 293
robin_@@ 293
hào_hiệp 293
khôi_ngô 293
như_trở_bàn_tay 293
ống_nghe 293
soẹt 293
tôn_giả 293
nhậm_tuấn 293
2014 292
nhà_băng 292
thạo 292
thiếu_hụt 292
yu@@ 292
thực_đơn 292
đảm_đương 292
từ_trường 292
soạn_thảo 292
_thống 292
rome 292
ngón_trỏ 292
_phương 292
nóng_hổi 292
xung_phong 292
nhân_các 292
ồi 292
đày 292
ữ 292
phụt 292
mây_mù 292
bạc_phơ 292
thượng_du 292
đào_cốc 292
nô_bộc 292
06 291
nhúng 291
nội_trú 291
ba_đình 291
tập_quán 291
có_hạn 291
khuỵu 291
sở@@ 291
tán_đồng 291
kí 291
16/12 291
rạ 291
sổ_sách 291
vô@@ 291
khiếp_đảm 291
căm_tức 291
bellamy 291
mồn_một 291
hàm_hồ 291
gdđh 291
dìa 291
tiếp_kiến 291
ma_thường 291
phan_ma_lôi 291
bảo_tượng 291
hàng_hải 290
trang_thiết_bị 290
gdp 290
đấu_giá 290
91 290
thương_tổn 290
nội_thành 290
trong_lành 290
phải_chi 290
nt 290
òng 290
ễ 290
toàn_quyền 290
giám_định 290
suv 290
nh_@@ 290
khôn_khéo 290
bước_đường 290
chết_thật 290
tống_kim_cương 290
đông_cung 290
ngại_hổ 290
anh@@ 289
ốt 289
tiền_vệ 289
ale@@ 289
khô@@ 289
loang 289
ân_ái 289
vương_quốc_anh 289
rung_rinh 289
xuân_thu 289
dáng_dấp 289
_kiều 289
chủ_nghĩa_xã_hội 289
sớ 289
thánh_giá 289
thái_hư 289
đại_biến 289
bối_hải_thạch 289
hiện_hành 288
láng 288
99@@ 288
lả 288
mận 288
ngang_dọc 288
ình 288
mịn_màng 288
om 288
máu_me 288
hoàn_kiếm 288
sa_sút 288
thiểu_số 288
cung_đình 288
khoái_chí 288
nhập_môn 288
giãy_giụa 288
lệ_hoa 288
triều_chính 288
giác_ngộ 288
kỳ_binh 288
mộ_dung_bảo 288
vi_nhất_tiếu 288
danh_mục 287
phản_xạ 287
86 287
ưu_ái 287
,000 287
băm 287
kết_@@ 287
thất_thường 287
johnson 287
hệ_tccn 287
nobel 287
hẹp_hòi 287
cả_gan 287
công_thần 287
nghe_ra 287
cũi 287
trợ_lực 287
kiếng 287
chớp_chớp 287
chòng_chọc 287
nóng_nẩy 287
27309@@ 287
dương_thiết_tâm 287
ngao_nguỵ_mâu 287
pazini 287
del@@ 286
bộ_luật 286
tối_ưu 286
900 286
tâng_bốc 286
mía 286
hiệu_ứng 286
xô_đẩy 286
mm 286
bỏ@@ 286
chồng_con 286
đầu_độc 286
gia_truyền 286
quai 286
hà_bắc 286
nh-@@ 286
sẵn_lòng 286
xa_rời 286
ký_giả 286
tử_@@ 286
cầm_thú 286
tuyết_như 286
tuấn_@@ 285
16:@@ 285
măc 285
rộ 285
ngư@@ 285
mạo_danh 285
phe_phẩy 285
ăn_năn 285
đê@@ 285
mail 285
khương_@@ 285
bài_@@ 285
hyundai 285
hỗn_chiến 285
cđv 285
ứng_cử_viên 285
giải_trừ 285
016@@ 285
đât 285
ì@@ 285
bất_hiếu 285
luống 285
sỉ_nhục 285
phì_thuỷ 285
thần_lực 285
vú_già 285
al-@@ 284
v.@@ 284
độ@@ 284
trường.@@ 284
3g 284
hội_an 284
đá@@ 284
ngấn 284
tích_tụ 284
bụi_bặm 284
bách_bệnh 284
lời_@@ 284
đung 284
2002 284
chỗ_đứng 284
ùng_@@ 284
cavalli 284
hết_hồn 284
macintosh 284
đao_phủ 284
bất_nghĩa 284
cường_đạo 284
trâu_diễn 284
sculley 284
dôia 284
cộng_tác 283
tar@@ 283
93 283
09 283
kêt 283
phím 283
đông_y 283
khoai_tây 283
hy@@ 283
vừa_vặn 283
chiếc_bóng 283
vít 283
phần_tử 283
tuyên_ngôn 283
u_linh 283
linh_tính 283
thấp_thỏm 283
đời_@@ 283
dưỡng_thương 283
quỷ_thần 283
sủng 283
công_tôn 283
dương_văn_can 283
sáng_quắc 283
giữa_chừng 282
gặt 282
tây_nguyên 282
gang 282
muôn_vàn 282
xuống_cấp 282
ọc 282
tàn_tật 282
7879 282
ráo_riết 282
/2009 282
đạo_cô 282
yêu_@@ 282
vđv 282
rông 282
ngóng 282
trầm_trồ 282
lý_t@@ 282
vất 282
xuân_vũ 282
ba_quân 282
ni_huệ_huy 282
tô_chỉ_quỳnh 282
ngụ_ý 281
ks 281
mon 281
vừng 281
dỗ 281
chặn_đứng 281
trắng_trẻo 281
tích_tắc 281
sạt_lở 281
ngô_bảo_châu 281
chứt 281
ielts 281
hoàng_sa 281
khoa_học_gia 281
người_@@ 281
nhuốm 281
u_minh 281
muôn_đời 281
hư_danh 281
châm_biếm 281
nhạc_phụ 281
gan_dạ 281
trung_thần 281
nhân_thế 281
càn_rỡ 281
phụ_vương 281
vương_tố_thư 281
nguyễn_minh_@@ 280
quý@@ 280
thường_niên 280
visa 280
triệu_hồi 280
vợt 280
điện_@@ 280
xà_phòng 280
thỏi 280
mục_@@ 280
bào_chữa 280
lỡ_lời 280
nghĩa_địa 280
đánh_đuổi 280
xích_mích 280
rỗi 280
tuý 280
tình_ái 280
kéo_lại 280
nhảy_dựng 280
hoạn 280
quyền_quý 280
cỡi 280
nam_dương 280
hoan_hỷ 280
cơ_biệt 280
phụng_hoàng 280
đinh_bội 280
biên_bất_phụ 280
vân_trung_hạc 280
thục_@@ 279
năng_suất 279
rick 279
phần_đông 279
xa_xỉ 279
mexico 279
phình 279
ú@@ 279
hậu_vệ 279
ủ@@ 279
ala@@ 279
ừ@@ 279
vin 279
quẹt 279
đèn_pin 279
tài_tình 279
khoan_dung 279
kì@@ 279
hoàn_vũ 279
jong-un 279
hồ_nghi 279
lẽ_phải 279
galaxy_note 279
mão 279
â 279
ngoằn_ngoèo 279
phục_sinh 279
trong_vắt 279
saif 279
thái_uý 279
thâm_mạt_hoàn 279
trọng_viễn 279
hoa_thiết_cán 279
trác_linh 279
stress 278
công_danh 278
nguy_hại 278
tận_tay 278
quảng_bá 278
gay 278
ngơi 278
lợp 278
beckham_benfica 278
chán_ngán 278
mọn 278
sáng_trưng 278
lên_giọng 278
ghế_bành 278
mềm_lòng 278
định_bụng 278
gảy 278
huơ 278
thành_công_lực 278
ngồi_phệt 278
đơn_hoành_chương 278
cường_độ 277
học_thuật 277
csđt 277
nhút_nhát 277
cấu_tạo 277
_long 277
mao_@@ 277
của_@@ 277
giải_@@ 277
xe_tăng 277
nhà@@ 277
xúc_cảm 277
thị_trưởng 277
đưa_đón 277
cung_cách 277
napoli 277
xơi 277
dung_@@ 277
mật_vụ 277
rợp 277
ruộng_đất 277
thiên_ma 277
tống_viễn_kiều 277
nguyên_lai 277
đại_đường 277
tiêu_tông_kiệt 277
hoa_thiết_can 277
eu@@ 276
sản_lượng 276
tq 276
ngạch 276
khoáng_sản 276
tem 276
phản_bác 276
23/1 276
quỹ_đạo 276
wil@@ 276
lãng_quên 276
mê_tín 276
rêu 276
chô 276
trắng_tinh 276
làm_gương 276
phát_âm 276
ngày_sinh 276
huân_chương 276
wenger 276
25/12 276
phật_tử 276
lực_sĩ 276
song_toàn 276
ướt_sũng 276
nhảm 276
lẻ_loi 276
hoàng_thiên 276
phẫn 276
ký_tên 276
lồng_lộng 276
tà_ma 276
sự_thể 276
mõ 276
xích_phát_đại_ma 276
hoạ_đồ 276
nv 275
ngài_@@ 275
eo_@@ 275
aacute 275
hỗn_hợp 275
j 275
hôi_thối 275
uất 275
cao_vút 275
máy_vi_tính 275
bằng_@@ 275
đen_kịt 275
rộng_mở 275
hoành_@@ 275
becks 275
terry 275
sân_cỏ 275
cãi_vã 275
lắm_chuyện 275
sư_đoàn 275
thâm_sâu 275
an_lạc 275
hẳn_hoi 275
khuyển 275
uy_nghi 275
thần_long 275
chó_đẻ 275
ta_na 275
c.i.a. 275
kunadu 275
tần_chung 275
hồng_kông 274
cổ_nhân 274
lệ_phí 274
den@@ 274
mc@@ 274
nhãn_hiệu 274
đi_đứng 274
sinh_tồn 274
àng 274
lười_biếng 274
cam_@@ 274
gal@@ 274
ợ 274
kềm_chế 274
pháo_hoa 274
định_kiến 274
thống_soái 274
vé_số 274
4s 274
avg 274
ất 274
trường_thành 274
giẻ 274
chấp_pháp 274
dậu 274
đại_nạn 274
thâm_tình 274
bứt 273
cao_tốc 273
ngặt 273
ỹ 273
sao_chép 273
có_một_không_hai 273
thần_chú 273
mobifone 273
ngô_thị_diễn 273
vi-rút 273
chen_lấn 273
mưu_trí 273
lặng_im 273
ác_quỷ 273
an_táng 273
cỏ_cây 273
kề_cận 273
căm_phẫn 273
trơ_trọi 273
giáo_lý 273
trác_tuyệt 273
khởi_sự 273
thông_tri 273
phước_oai 273
468.000 273
lệ@@ 272
đầu_cơ 272
1992 272
ầu 272
phòng_khám 272
1994 272
phi@@ 272
ò 272
dầm 272
ét 272
bảo_trợ 272
thoăn_thoắt 272
vân_anh 272
trung_nghĩa 272
cn 272
dăm 272
xộc 272
khảo_thí 272
nể_nang 272
thô_tục 272
ba_lê 272
biết_chừng_nào 272
tứ_tung 272
cực_độ 272
nhòm 272
cần_ta 272
lãnh_huyết_diễm_nữ 272
vương_hoằng 272
quy_tân_thụ 272
khoát_nhi_xích 272
ngọc_thanh_điện 272
làm_tròn 271
hoàn_mỹ 271
90% 271
lão_@@ 271
rìa 271
ốm_yếu 271
thuần_tuý 271
ron 271
12:@@ 271
nhăm 271
kể_lể 271
audi 271
hấp_hối 271
chùn 271
biệt_hiệu 271
thanh_lương 271
phụng_@@ 271
nê 271
thi_thố 271
bá_đương 271
nguỵ@@ 271
yêu_quái 271
khoản_đãi 271
trần_lão_mưu 271
nhà_riêng 270
tương_phản 270
87 270
nước_sạch 270
phê_chuẩn 270
lá@@ 270
bạch_mai 270
_vân 270
bê@@ 270
đó@@ 270
ục_@@ 270
mỳ 270
tâm_niệm 270
áo_lót 270
bảo_an 270
dĩa 270
lulzsec 270
nhấn_chìm 270
17/12 270
tuyệt_mỹ 270
học_lực 270
cửa_miệng 270
lẩn_trốn 270
dính_dáng 270
thong_dong 270
tiền_sảnh 270
đại_thụ 270
thiên_long 270
tuần_phủ 270
thánh_hoả 270
địa_đồ 270
đào_thực_tiên 270
senga 270
lắp_ráp 269
tạo_dựng 269
nòng 269
_văn 269
ấp_ủ 269
chim_@@ 269
ngừa 269
cao_tuổi 269
gián_đoạn 269
gam 269
gian_hàng 269
sơ_sài 269
alex 269
thửa 269
tiệp 269
n_thành 269
vãi 269
vang_lừng 269
ưu_tư 269
derek 269
tận_trung 269
nương_tay 269
phản_loạn 269
mộng_hồ 269
lâm_phùng_chân 269
hạ_quân_bình 269
đinh_nhất_bạch 269
3.000 268
hiểm_nguy 268
nội_ngoại 268
nặng_nhọc 268
michael 268
àn 268
nasa 268
hơ 268
lơ_là 268
tuyên_dương 268
cau_có 268
êm_dịu 268
nên_chăng 268
phương_anh 268
qui_định 268
u_buồn 268
moscow 268
ngôn_từ 268
loáng_thoáng 268
lầm_lỗi 268
cửu_chân 268
huyết_khí 268
tà_đế_xá_lợi 268
trương_khang_niên 268
solomon 268
chu_xán 268
052019 268
diệt_vong 267
khuyến_mại 267
ành_@@ 267
triền_miên 267
thuyền_buồm 267
tự_trọng 267
vóc 267
kẽm 267
k_@@ 267
biệt_danh 267
ự@@ 267
huấn_luyện_viên 267
mers 267
vét 267
mưu_sinh 267
phối 267
bùi_ngùi 267
lằn 267
dể 267
dửng_dưng 267
lũng_đoạn 267
can_dự 267
300,000 267
cuống_cuồng 267
linh_nghiệm 267
bậy_bạ 267
bất_nhẫn 267
nuốt_chửng 267
căn_cơ 267
khúc_@@ 267
trận_địa 267
tiểu_đoàn 267
cười_ồ 267
phan_long 267
thế_sự 267
xiềng 267
dây_cót 267
mĩm 267
tôn_huynh 267
veronika 267
anh_dũng 266
cự@@ 266
đột_quỵ 266
trích_dẫn 266
vã 266
ánh_@@ 266
bí@@ 266
mari@@ 266
ôm_ấp 266
toà_soạn 266
lí@@ 266
lè 266
thầy_lang 266
bồ@@ 266
què 266
cực_khổ 266
jan 266
vô_@@ 266
rộn 266
chế_nhạo 266
ngượng_nghịu 266
chí_tôn 266
rịt 266
hồng_tử_xuân 266
quảng_lăng 266
brandon 266
kunađu 266
tấn_@@ 265
chuẩn_mực 265
thanh_lịch 265
8% 265
thích_ứng 265
quản_lý_nhà_nước 265
50@@ 265
miệt_mài 265
miễn_dịch 265
hen 265
chuộng 265
học@@ 265
sai_@@ 265
ngầu 265
kìm_nén 265
dâm_ô 265
cụp 265
câu_đối 265
xế_chiều 265
diễu 265
đàn_@@ 265
hờn 265
tang_@@ 265
lé@@ 265
hiểm_yếu 265
khởi_binh 265
hoảng_công_thác 265
tửu_điếm 265
quan_tây 265
vân_cửu_long 265
lagodenko 265
cổ_thiên_nhân_viên 265
news_vtc_news 265
nóng_bức 264
bal@@ 264
sti@@ 264
/2012 264
7.@@ 264
hải_quan 264
trụ_cột 264
tây_hồ 264
1999 264
1980 264
hoạ@@ 264
bản_@@ 264
ei@@ 264
nghỉ_hè 264
một_phép 264
kết_tội 264
truy_cứu 264
gô 264
nùng 264
tte 264
tiêu_đề 264
lựu_đạn 264
10/12 264
vô_tâm 264
cấp_uỷ 264
phu_thê 264
cõi_lòng 264
hướng_vân_thiên 264
trương_tam 264
lộc_đan_nhi 264
chỉnh_sửa 263
ráo 263
ế_@@ 263
ả@@ 263
to_béo 263
nhi_@@ 263
gre@@ 263
vô_tuyến 263
ngóc 263
sứ_mạng 263
amsterdam 263
toan_tính 263
nguyễn_quang_@@ 263
sáng_loáng 263
hùng_hồn 263
mậu 263
bà_cô 263
bất_kính 263
toét 263
hạ_sơn 263
nếu_mà 263
khôn_cùng 263
bi_ai 263
giang_hải_lưu 263
nguỵ_trưng 263
phương_kỳ 263
trần_đại_dũng 263
tả_pháp_thụ 263
27.066 263
nghỉ_việc 262
tuần_hoàn 262
đường_kính 262
nhà_chức_trách 262
hăm 262
let 262
video_putin 262
quái_đản 262
nhân_tiện 262
khach 262
đồng_hương 262
bấc 262
xẻng 262
phong_thanh 262
im_phăng_phắc 262
hắc_ám 262
thư_lại 262
quan_ải 262
nạp_nha_a 262
phủ_đệ 262
thát 262
quế_tích_lương 262
nghi_thanh 262
độc_thần 262
điển_trai 261
điều_khoản 261
gánh_chịu 261
nghèo_nàn 261
kinh_nguyệt 261
hường 261
_thanh_@@ 261
mô_phỏng 261
hoả_tốc 261
ster 261
chếch 261
nông_@@ 261
hình_vuông 261
k-pop 261
tổng_biên_tập 261
18/2 261
3/7/2012 261
phụ_tá 261
ruột_gan 261
thường_tình 261
chết_@@ 261
vun_vút 261
bồng_bềnh 261
lòng_thành 261
xa_giá 261
an_nhiên 261
ngự_sử 261
đại_đao 261
âm_kỳ 261
silas 261
dịch_lâm 261
lục_quán_anh 261
olivetti 261
mạc_ngạo 261
thủ_công 260
yoga 260
bor@@ 260
tiến_@@ 260
tẩu_hoả 260
ắc_@@ 260
phuc 260
trục_trặc 260
chu_vi 260
xào_xạc 260
o_th@@ 260
thủ_khoa 260
những_tưởng 260
đoàn_văn_vươn 260
ngưu_@@ 260
triều_@@ 260
mịt_mù 260
sốt_sắng 260
tông_tích 260
bao_xa 260
tương_tư 260
nhón 260
lững_thững 260
sgk 260
ám_hiệu 260
lả_tả 260
binh_quyền 260
vô_thượng 260
.tôi 260
uỷ_tôn 260
trọng_tôn_huyền_hoa 260
lăng_sơ_bát 260
câp 259
iv 259
huyết_mạch 259
ăn_chay 259
vận_động_viên 259
gì@@ 259
ver 259
ex@@ 259
khoi 259
tâp 259
chiều_chuộng 259
váng 259
khách_khứa 259
30/1 259
_đại 259
diễn_văn 259
hăm_hở 259
đông_đô 259
bất_nhân 259
cười_khà_khà 259
quỷ@@ 259
chính_thị 259
vây_hãm 259
bất_lương 259
lão_bộc 259
lập_loè 259
hiền_huynh 259
giang_ninh 259
clericuzio 259
sàigòn 259
trịnh_đáng 259
sinh.khoảng 259
mb@@ 258
room 258
giá_thành 258
tối_ngày 258
vượng 258
ub@@ 258
bàn_phím 258
cám 258
ngót 258
on_@@ 258
rắn_chắc 258
rò_rỉ 258
sinh_trưởng 258
za 258
bán_@@ 258
mary 258
ngoác 258
margaret 258
giao_phó 258
ẹ 258
dân_ca 258
cương_@@ 258
nguyền 258
vạch_trần 258
nông_cạn 258
tăm_tối 258
nửa_chừng 258
cười_sằng_sặc 258
nghĩa_quân 258
nhu_hoà 258
kịch_chiến 258
bắc_kiếm 258
thổ_phồn 258
bạch_hàn_phong 258
phụng_trúc 258
4.000 257
thánh_địa 257
dòng_chảy 257
khả_ái 257
cám_dỗ 257
cro@@ 257
bắp_thịt 257
xót 257
trung_học_phổ_thông 257
nhân_phẩm 257
tottenham 257
nguyễn_đức_tâm 257
nguy_ngập 257
vẩn_vơ 257
paris_cánh_diều_vàng 257
dụa 257
cứa 257
giữ_mình 257
rách_rưới 257
mặc_nhiên 257
bạch_long 257
thổ_huyết 257
tửu_quán 257
đạt_ma 257
kỳ_thật 257
áo_cà_sa 257
linh_thứu 257
nghiêm_tiểu_long 257
gmt7sáng 257
đảng_uỷ 256
hướng_@@ 256
chật_chội 256
mac 256
ana 256
sushi 256
sung_mãn 256
20/1 256
giác_@@ 256
con_ngươi 256
chằng_chịt 256
ử@@ 256
gửi_gắm 256
thời_sự 256
iền 256
van_persie 256
mục_kích 256
hoè 256
giàu_sang 256
đại_lượng 256
linh_tinh 256
phải_trái 256
ơng 256
photon 256
giáp_công 256
khinh_bạc 256
di_thể 256
bành_liên_hổ 256
bình_thời 256
lệnh_ái 256
cừu_thiên_nhậm 256
thpt.sau 256
6.@@ 255
phước_@@ 255
ninh_thuận 255
chị_gái 255
chuyển_mình 255
lây_lan 255
vùng_cao 255
tạo_hình 255
ôm_chầm 255
mắc_kẹt 255
dương_vật 255
pp@@ 255
cặn_kẽ 255
nghiêp 255
hữu_dụng 255
hoàng_th@@ 255
hợp_thành 255
bé_bỏng 255
mổ_xẻ 255
thèm_khát 255
dân_tộc_thiểu_số 255
vui_thích 255
gùi 255
mưa_tuyết 255
bốc_lửa 255
chữa_cháy 255
thám_hiểm 255
đồn_điền 255
nuốt_lời 255
khôi_hài 255
phập 255
chứng_cớ 255
chiếu_rọi 255
miệng_lưỡi 255
khai_phong 255
di_lặc_giáo 255
bạch_thế_kính 255
lý_hoá_sinh 255
ă@@ 254
hợp_ý 254
nghiêm_minh 254
su 254
xa_lánh 254
độc_chất 254
rình_rập 254
thoái_hoá 254
hoàng_mai 254
trồi 254
1995 254
hội_@@ 254
nhà_quản_lý 254
tom 254
thảm_kịch 254
nguyên_tiêu 254
lòng_đường 254
bst 254
trứ_danh 254
thợ_săn 254
hệ_số 254
nội_chiến 254
hèn_nhát 254
đen_ngòm 254
dực 254
niềm_nở 254
ngào_ngạt 254
thâm_ý 254
tam_công 254
đại_thanh 254
thông_thiên 254
âu_dương_hi_di 254
cát_nhĩ_đan 254
trị_tội 254
cửu_dương 254
8,@@ 253
tw 253
quán_triệt 253
xét_lại 253
vĩnh_phúc 253
sinh_lực 253
cl@@ 253
ling 253
oi 253
quỹ@@ 253
gọt 253
/2015 253
gốm 253
gắn_kết 253
thú_y 253
pri@@ 253
nhã@@ 253
lâm_đồng 253
pgs 253
1/12 253
cáu_kỉnh 253
tóm_tắt 253
rữa 253
dân_thường 253
khắc_khổ 253
chiến_tranh_lạnh 253
bankplus_hướng 253
càn_long 253
cổ_vật 253
xã_tắc 253
khiển_trách 253
vương_phi 253
cựa_quậy 253
kẻ_cướp 253
vọng_@@ 253
danh_tướng 253
sột_soạt 253
nhà_tu 253
tuỳ_cơ_ứng_biến 253
niên_kỷ 253
thấp_kém 253
phục_long_đỉnh 253
hung_nô 253
đăng_kí 252
cơ_khí 252
0.000 252
phụ_cấp 252
1993 252
li_ti 252
bàng_quang 252
que@@ 252
hoài_bão 252
bưởi 252
sy@@ 252
chân_mày 252
chủng_tộc 252
bất_chính 252
yvonne 252
sâu_rộng 252
điện_biên 252
công_lý 252
kịch_tính 252
héo 252
đàn_em 252
toàn_thắng 252
rách_nát 252
trong_veo 252
kính_nể 252
trung_tá 252
đạo_nghĩa 252
vô_thường 252
phong_kiến 252
ô_hay 252
hỗn 252
tộc_trưởng 252
thụp 252
trống_không 252
lần_lần 252
tam_bí 252
ơn_đức 252
hừm 252
bắc_hiệp 252
lạc_kỳ_phi 252
nghiêm_bình 252
thúc_mưu 252
nhuận_phủ 252
mũi_nhọn 251
king 251
40% 251
char@@ 251
chuyên_đề 251
thế_chấp 251
thú_vui 251
khép_kín 251
_đức 251
tôt 251
non_nớt 251
phu@@ 251
hollywood 251
_hu@@ 251
ngậm_miệng 251
khịt 251
thân_thích 251
bão_táp 251
đại_loại 251
tán_tỉnh 251
cổ_động 251
vô_tri 251
khai_quật 251
chí_khí 251
bôn_ba 251
mẫu_hậu 251
linh_lung_kiều 251
giang_hoài 251
đỗ_bích 251
tạ_ánh_đào 251
chiếm_lĩnh 250
hđnd 250
điện_lực 250
quán_quân 250
cửu_long 250
truy_nã 250
80% 250
hưng_thịnh 250
sacombank 250
thuyết_trình 250
vô_vọng 250
em@@ 250
xuất_viện 250
_ngọc_@@ 250
nhờ_vả 250
xà@@ 250
hp 250
_phong 250
9-@@ 250
km/h 250
thầm_kín 250
cự_ly 250
máu_huyết 250
minh_mẫn 250
31/12 250
san_hô 250
cổ_kính 250
lượt_đi 250
đáo_để 250
đắm_đuối 250
địa_chủ 250
thuốc_nổ 250
xe_ôm 250
lành_lạnh 250
bói 250
tử_vi 250
chó_má 250
a_châu 250
tênácđiê 250
chuyển_tiếp 249
a_h@@ 249
rác_thải 249
khuyến_mãi 249
set 249
tái_diễn 249
hoạch_định 249
son_@@ 249
tiếp_viên 249
thuốc_men 249
p_l@@ 249
nước_mắm 249
kích_cỡ 249
dần_dà 249
nguyễn_t@@ 249
nói_tóm_lại 249
bốc_hơi 249
tịch_thu 249
mất_trí 249
s. 249
nhâm 249
14/11 249
tạm_trú 249
dục_vọng 249
tội_danh 249
ẩn_tàng 249
vinh_@@ 249
đường_hoàng 249
khắc_khoải 249
chọc_giận 249
tái_xanh 249
bích_hồng 249
tình_ý 249
la_thiên 249
vũ_văn_hoá_cốt 249
phùng_mậu 249
đại_hãn 249
đạo_nhân 249
tự_tận 249
thiếu_thất 249
tạ_diễm 249
ngô_hán_thanh 249
eileen 249
biata 249
kim_lôi 249
bình_thuận 248
đại_đa_số 248
mứt 248
đạ@@ 248
băng_@@ 248
cup 248
truyền_cảm 248
phán_xét 248
đi_tiểu 248
cổ_thụ 248
tiết_chế 248
kham 248
lâng_lâng 248
thuôc 248
tam_giác 248
tìm_tòi 248
vay_mượn 248
tươi_tỉnh 248
đói_rách 248
việt_cẩm 248
nhẹ_tênh 248
chi_chít 248
xích_lô 248
biên_@@ 248
nadal 248
hoà_khí 248
ngay_thẳng 248
ĩ 248
tức_@@ 248
thuyền_bè 248
sinh_sự 248
chiếm_cứ 248
hung_tàn 248
perắc 248
chi_phái 248
lã_nương_dung 248
tần_hoài 248
thang_bà_tử 248
nhà_thiết_kế 247
ô_@@ 247
tắc_nghẽn 247
nguyễn_xuân_@@ 247
tỉnh_thành 247
đầu_bảng 247
thiếu_tướng 247
nguyễn_trãi 247
tiến_sỹ 247
văn_t@@ 247
cầm_chân 247
để@@ 247
sụt 247
chính_trị_gia 247
cứu_trợ 247
nhợt 247
bùn_đất 247
tua 247
lĩnh_hội 247
để_chế 247
lộn_nhào 247
sài_@@ 247
bưu_thiếp 247
nháy 247
gian_trá 247
tripoli 247
lận 247
giọng_lưỡi 247
bạ 247
đường_đột 247
hạp 247
hoàn_hồn 247
hành_hình 247
trác_mã 247
cáp_tát_nhi 247
lý_yên_yên 247
kỷ_hiểu_phù 247
bexi 247
triệu_tam_cô 247
d. 246
3/@@ 246
vướng_mắc 246
tal@@ 246
than_vãn 246
line 246
giải_trình 246
sau@@ 246
siêu_âm 246
ham@@ 246
ống_@@ 246
chữ_số 246
xuống_tay 246
hời_hợt 246
xao_động 246
quỵ 246
ô-@@ 246
tất_thảy 246
cưỡng_bức 246
trả_đũa 246
trưởng_phòng 246
gia_chủ 246
khoảnh 246
george 246
hồi_ký 246
thời_buổi 246
tường_trình 246
ba_hoa 246
khinh_khỉnh 246
tam_bảo 246
tiên_sư 246
phệ_hồn 246
lục_tiên_sinh 246
ji@@ 245
vỏn_vẹn 245
trữ 245
bru@@ 245
ấn_@@ 245
khí@@ 245
phơi_bày 245
my_@@ 245
il 245
bảo_lãnh 245
đối_chiếu 245
t_m@@ 245
ảo_@@ 245
nợ_nần 245
cầm_quân 245
tập_kết 245
đế_vương 245
giường_nằm 245
đàm_đạo 245
tề@@ 245
thuần_khiết 245
huýt 245
lạc_thú 245
hậu_đường 245
phạm_minh 245
đenphin 245
phan_nam 245
tuyến_nương 245
bắt_mắt 244
phi_thuyền 244
thiết_yếu 244
khó_tính 244
mark_zuckerberg 244
hô@@ 244
thứ@@ 244
bướu 244
tai_biến 244
shi 244
dan 244
dùi 244
xoang 244
tac 244
gianh 244
toàn_phần 244
ghim 244
di_vật 244
ngoan_cố 244
quây_quần 244
mẫu_giáo 244
montgomery 244
nhỏ_giọt 244
mưa_rào 244
nà@@ 244
vô_giá 244
mừng_vui 244
đằng_đằng 244
tứ_tán 244
nhất_thống 244
mộc_hoa_lê 244
bình_nhất_chỉ 244
lan_hoa_phương_tử 244
giles 244
ina 243
nga@@ 243
quý_mến 243
nghị_sĩ 243
đánh_bật 243
hâu 243
chung_thuỷ 243
quệt 243
cầm_đồ 243
cao_nguyên 243
thúc_thủ 243
hiếu_thắng 243
uefa 243
thôi_việc 243
rất_mực 243
tuýt 243
nhân_duyên 243
qui_@@ 243
âu_dương_@@ 243
gia_sản 243
đặc_sản 243
dầu_lửa 243
suzuki 243
thọt 243
chó_sói 243
sùng_sục 243
dây_dưa 243
xanh_lè 243
bàng_ngọc 243
lam_phượng_hoàng 243
1973 242
bất_kì 242
nhà_cái 242
vă@@ 242
ali@@ 242
đầy_đặn 242
cù@@ 242
song_sinh 242
thốn 242
ngơ 242
ẹt 242
nguyễn_đ@@ 242
sco@@ 242
phác 242
đêm_ngày 242
chi_viện 242
chủ_quản 242
cha_ông 242
cường_quốc 242
container 242
đinh_la_thăng 242
thành_kiến 242
mọp 242
cớ_sao 242
neutrino 242
hiềm 242
thư_quán 242
kiêu_căng 242
đở 242
phong_bế 242
ôn_thanh 242
lăng_hạo 242
thiên_hải 242
khuấy_động 241
kremlin 241
thương_vụ 241
ps 241
quảng_đông 241
người_quản_lý 241
mõm 241
sán 241
chất_lỏng 241
tor 241
dươi 241
huống 241
nguời 241
toàn_@@ 241
xổ 241
khuyên_bảo 241
phồn_hoa 241
mở_mang 241
há@@ 241
henry 241
mátxcơva 241
mùa_nobel 241
lục_lọi 241
lăng_mộ 241
đóng_băng 241
kì_lạ 241
ngai_vàng 241
lương_khô 241
cá_sấu 241
lâm_chung 241
tái_xuất 241
nghiêng_ngả 241
gian_ác 241
miles 241
cạn_chén 241
kappa 241
tiền_đồ 241
phi_hành 241
nhậm_mi_mi 241
nguyễn_tinh_trúc 241
trần_hữu_lượng 241
mandala 241
ao_@@ 240
cứ_điểm 240
lỳ 240
dằn_vặt 240
cà_chua 240
tuôi 240
ạt 240
thầm_lặng 240
đầu_vào 240
ẳng 240
then_chốt 240
đón_chào 240
thần_thoại 240
rolls-royce 240
/10/2011 240
nick 240
áp_bức 240
quốc_tuấn 240
chữ_nghĩa 240
sôi_sục 240
thi_hài 240
toàn_vẹn 240
lẩn_tránh 240
pha_lê 240
lịch_duyệt 240
tiền_độc_quan 240
nhất_đăng 240
lý_tiểu_hổ 240
nor@@ 239
ot 239
cường_tráng 239
san_francisco 239
iện 239
dù_rằng 239
hứng_khởi 239
trực_@@ 239
gỉ 239
ram@@ 239
lưu_động 239
lỡ_cơ 239
anderson 239
fre@@ 239
ry_@@ 239
phương_cách 239
ngồi_bệt 239
hên 239
ú_ớ 239
cưỡng_hiếp 239
tinh_anh 239
16/1 239
thạch_@@ 239
động_trời 239
xuân_nhâm 239
tehran_con 239
khang_@@ 239
ngẫm 239
nghi_ngại 239
ác_cảm 239
khước_từ 239
lăm_lăm 239
thực_dân 239
thần_hồn 239
huyền_thuý 239
mađơlen 239
yến_hồng 239
thường_ngộ_xuân 239
cố_viêm_võ 239
tang_côn 239
042019 239
thảo_@@ 238
giới_chức 238
thăng_hoa 238
công_dụng 238
ed 238
kiến_tạo 238
axit 238
hoàng_tộc 238
nữ_tính 238
nguyên_tố 238
nhiêm 238
xuât 238
lên_tay 238
siêu_@@ 238
gay_go 238
bình_tâm 238
xe_gắn_máy 238
wikileaks 238
ghen_tị 238
thảm_đỏ 238
tiếp_sức 238
tiến_thoái_lưỡng_nan 238
người_hùng 238
cứu_vớt 238
lất_phất 238
quýnh 238
cử@@ 238
dơ_bẩn 238
dương_lôi 238
đào_thoát 238
giao_du 238
thiên_thu 238
mưu_lược 238
hoà_hoãn 238
hảo_ý 238
lưu_kim_đính 238
phương_bách_xuyên 238
vích-ky 238
chướng_khí 238
hào_bân 238
ngôn_đạt_bình 238
công_tôn_lạp 238
kodensky 238
daswood 238
_linh 237
nhà_cung_cấp 237
07 237
chip 237
all 237
san_@@ 237
tiện_thể 237
quả_tang 237
cal@@ 237
ye@@ 237
mg 237
ngon_miệng 237
phân_bố 237
đổ@@ 237
xốp 237
gái_bán_hoa 237
đh@@ 237
bơ_vơ 237
khế 237
chao_đảo 237
tuy@@ 237
tận_tuỵ 237
mương 237
luật_@@ 237
vĩnh_cửu 237
@yahoo 237
công_phá 237
balotelli 237
ĩnh 237
khói_lửa 237
mơ_tưởng 237
kiểu_cách 237
rìu 237
láo 237
rào_rào 237
nhẫn_nhịn 237
hý 237
tổ_tông 237
tiểu_liên 237
vương_huyền_thứ 237
tợ 237
hầu_lượng_sinh 237
tiểu_bắc 237
vi_an 237
phơrăng 237
rộng_lượng 236
thập_@@ 236
89 236
len@@ 236
94 236
ẩn_ý 236
cra@@ 236
thua_lỗ 236
chú@@ 236
vui_đùa 236
pen@@ 236
ol 236
dị@@ 236
bọ 236
tăng_tiến 236
chạy_@@ 236
linh_cữu 236
eo_biển 236
bác_hồ 236
mìn 236
chướng_ngại 236
từ_điển 236
háo_sắc 236
vỹ 236
sắc_chỉ 236
phong_thanh_dương 236
bạch_thanh_nhi 236
phăngtin 236
tịch_tà 236
tỹ 236
lg 235
vũ_khí_hạt_nhân 235
98 235
mại 235
ráp 235
_lâm 235
gia_cảnh 235
văn_thư 235
giúp_ích 235
bel@@ 235
đậu_@@ 235
tâm_lý_học 235
cái_răng 235
nhẵn 235
hoà_nhã 235
dẻo 235
quyên_góp 235
phụ_tử 235
thiện_@@ 235
tham_@@ 235
sài 235
luật_giáo_dục 235
tính_sổ 235
8/12 235
quậy 235
hcđ 235
luyến 235
bốt 235
tau 235
kiệt_tác 235
xiêu 235
qui_củ 235
thân_chinh 235
gennaro 235
thê_tử 235
đinh_hãm 235
lưu_hướng 235
032019 235
50.000 234
bài_bản 234
nghiêm_@@ 234
giao_@@ 234
thủ_đức 234
tiền_tài 234
tủi_thân 234
my@@ 234
thao_tác 234
điểm_@@ 234
1991 234
xương_tuỷ 234
quý_trọng 234
ho_khan 234
bang_@@ 234
chiêu_đãi 234
chiến_trận 234
danh_sĩ 234
viện_bảo_tàng 234
thều_thào 234
ẩn_giấu 234
thuỷ_quân 234
bấu 234
liễn 234
vấn_an 234
thần_đạo_giáo 234
vương_cung 234
phái_@@ 234
dương_dật_chi 234
vu_bà_bà 234
al_obaydi 234
mp@@ 233
chàm 233
chủ_sở_hữu 233
ran@@ 233
hội_ngộ 233
0-@@ 233
hút_hồn 233
bóng_đèn 233
ecirc 233
nơm_nớp 233
máng 233
rỏ 233
elizabeth 233
bạo_hành 233
đính_hôn 233
sung_túc 233
khoảng_không 233
mạo_muội 233
pháp_@@ 233
thiết_tưởng 233
buông_thõng 233
thông_tuệ 233
lập_cập 233
cốt_nhục 233
giả_trang 233
khinh_thị 233
chói_loà 233
ptsc 233
sylvinet 233
đinh_mẫn_quân 233
đinh_tàn 233
thiên_mộc 233
os 232
1996 232
hộ@@ 232
hải_âu 232
cư@@ 232
le_@@ 232
đồng_thuận 232
cuôi 232
xung_kích 232
đắt_đỏ 232
im@@ 232
sach 232
lơ@@ 232
tươi_sáng 232
ger@@ 232
vĩnh_biệt 232
hứng_chịu 232
buồn_buồn 232
đả_thông 232
khêu_gợi 232
bính 232
windows_phone 232
náo_động 232
tục_ngữ 232
năm_@@ 232
phóng_túng 232
sống_mũi 232
rầm_rập 232
cây_gỗ 232
phông 232
bi_phẫn 232
sạp 232
thút_thít 232
trí_minh 232
tòng 232
công_trái 232
hỏi_vặn 232
khoái_trá 232
cam_lòng 232
sư_trưởng 232
đào_hồng_anh 232
huyền_minh 232
tuyết_kỳ 232
ca_vũ 232
trịnh_mã_thuỷ 232
62019 232
lạ_lẫm 231
ctcp 231
thăng_tiến 231
gây_dựng 231
thể_loại 231
lênh_đênh 231
trầm_cảm 231
giản_đơn 231
ể 231
kích_hoạt 231
sexy 231
iếu 231
đàn_anh 231
ca-@@ 231
por@@ 231
trung_hậu 231
rạn_nứt 231
cói 231
7/11 231
may_sao 231
day_dứt 231
cứng_nhắc 231
gor@@ 231
302 231
27/12 231
10/1 231
thể_thao_thể 231
lăng_nhăng 231
huê 231
ghi_âm 231
nhử 231
nhân_công 231
trượt_tuyết 231
răn 231
đắm_chìm 231
máu_thịt 231
đố_kỵ 231
chí_mạng 231
toáng 231
tuy_thế 231
mái_hiên 231
thiên_th@@ 231
bạt_tai 231
thổ_địa 231
sứ_thần 231
mộ_dung_@@ 231
gia_luật_@@ 231
gordie 231
15% 230
tin_vui 230
_thị@@ 230
duyên_hải 230
đông_lạnh 230
họ@@ 230
điện_toán 230
tết_nguyên_đán 230
chủ_nghĩa_@@ 230
bố@@ 230
ze@@ 230
co_@@ 230
kon_tum 230
rau_@@ 230
thủ_môn 230
quyến 230
diễn_đạt 230
cựu_@@ 230
loãng 230
nhẽ 230
mắt_@@ 230
nhàn_nhạt 230
tài_tử 230
nhoà 230
hiển_hiện 230
tường_@@ 230
kết_cấu 230
ngọc_bích 230
họp_mặt 230
ỳ 230
đây_đó 230
cẩm_thạch 230
cuồng_sát 230
nhà_nguyện 230
dinh_thự 230
nhẹ_tay 230
chọc_tức 230
ruột_thịt 230
cướp_biển 230
cư_ngụ 230
chúc_tụng 230
kín_mít 230
ra_vào 230
tiễn_đưa 230
rừng_rực 230
ăn_cướp 230
uy_nghiêm 230
phân_thân 230
thuỷ_đại 230
thị_lô 230
062019 230
park 229
gia_cát_lượng 229
_bình 229
đồ_hoạ 229
rào_cản 229
xã_giao 229
truyền_bá 229
muỗng 229
des 229
phớt_lờ 229
cốt_lõi 229
lủng_lẳng 229
chưc 229
phap 229
_thiên_@@ 229
đỏ_ngầu 229
bao_dung 229
_thuỷ 229
27/1 229
tinh_quái 229
bành_trướng 229
kế_vị 229
dễ_dãi 229
nguỵ_trang 229
san_sát 229
chẳng_nói_chẳng_rằng 229
tan_xương_nát_thịt 229
kẻ_sĩ 229
ba-@@ 229
long_môn 229
tiền_đại_nương 229
tấn_từ 229
kỉ_niệm 228
phân_trần 228
1989 228
thự 228
tác_hại 228
vằn 228
lâm_sàng 228
mẫu_đơn 228
cúc_@@ 228
oxford 228
chửa 228
ăm 228
nhà_khách 228
gắt_gỏng 228
electron 228
mi_@@ 228
29/12 228
choáng_ngợp 228
phô_diễn 228
đkdt 228
chụm 228
bãi_@@ 228
chi_bộ 228
mai_mốt 228
trộm_cướp 228
lì 228
séc 228
dao_@@ 228
trầm_luân 228
mênh_mang 228
nhã_nhặn 228
pgs.ts 228
cuồng_nộ 228
trọng_thưởng 228
ghê_sợ 228
vái_lạy 228
nhân_nhượng 228
toang 228
luyến_tiếc 228
bức_điện 228
kiếm_hiệp 228
trần_tục 228
chư_tăng 228
đời_đời 228
đầu_mục 228
bái_tạ 228
cao_quân_bảo 228
yển_sư 228
tông_đồ 228
đường_tam_cô 228
quý_ly 228
kim_hoa_bà_bà 228
sử_địa 228
trị@@ 227
ượng 227
trư@@ 227
ic 227
70@@ 227
quan_khách 227
hấp_thu 227
ten 227
xuất_@@ 227
fa 227
sự_tích 227
ời 227
đơn_sơ 227
tai_tiếng 227
hợp_@@ 227
ẩu_đả 227
ila 227
nay_mai 227
văn_kiện 227
lởm_chởm 227
gặng 227
chưng_hửng 227
lim_dim 227
phân_hoá 227
lôi_đình 227
phụng_sự 227
lí_nhí 227
đường_cái 227
hầu_bàn 227
ái_chà 227
tình_lang 227
đạo_hữu 227
tạ_đông_dương 227
không_kiến 227
ước_định 227
trợn_trừng 227
đức_tính 226
1985 226
land@@ 226
_to@@ 226
ước_nguyện 226
quái_ác 226
/4 226
đảo_ngược 226
nội_trợ 226
núm 226
1979 226
trà_@@ 226
1974 226
lau_chùi 226
disney 226
mũ_bảo_hiểm 226
đến_nơi_đến_chốn 226
bao_quát 226
ừng_ực 226
18/11 226
lao_xao 226
ản 226
đạt_@@ 226
đồng_lương 226
lhp 226
xoay_xở 226
hụp 226
bon@@ 226
tiền_nhân 226
tâm_thức 226
hạ_du 226
nho_nhã 226
_bang 226
bảo_nhi 226
muldoon 226
bọ_ngựa 226
linh_dược 226
sơn_trại 226
trình_thương_cổ 226
bạch_văn_nguyên 226
châu_nhi 226
mình.@@ 225
boo@@ 225
che_chắn 225
5/@@ 225
tsu@@ 225
dân_@@ 225
thoả_thích 225
chiêu_mộ 225
đài_phát_thanh 225
thai_nhi 225
tiết_canh 225
co_giật 225
suy_dinh_dưỡng 225
lạc_hậu 225
quy_@@ 225
gia_bảo 225
ồng_@@ 225
glôcôm 225
hồng_phúc 225
kết_án 225
phản_biện 225
cấm_địa 225
nguy_nga 225
nham 225
anh_minh 225
vói 225
chư@@ 225
thiến 225
giã_biệt 225
khẽ_khàng 225
nhật_nguyệt 225
oliver 225
vòm_trời 225
thế_gia 225
thần_quan_tú_sĩ 225
thiên_ưng_giáo 225
cao_lăng 225
9,@@ 224
doanh_số 224
lẫy_lừng 224
hồi_sức 224
nhân_sâm 224
mải_mê 224
loét 224
sai_lệch 224
david 224
mba 224
khôn_lớn 224
rẻ_tiền 224
an_giang 224
mac@@ 224
chệch 224
ỉ@@ 224
anne 224
kĩ_năng 224
giáo_dục_phổ_thông 224
gián 224
khán_đài 224
lộ_liễu 224
cheo_leo 224
chán_chường 224
danh_y 224
tôn_sùng 224
sùng_bái 224
cà_vạt 224
nham_thạch 224
dài_dòng 224
quyện 224
hiền_từ 224
đứt_đoạn 224
dao_găm 224
dương_tố 224
tụ@@ 223
n_ng@@ 223
khắt_khe 223
đỉnh_điểm 223
đói_khát 223
vật_@@ 223
hư_hại 223
tồn 223
_hồ 223
ồm_ồm 223
định_hình 223
trầu 223
dịch_@@ 223
đia 223
ẫn 223
nhịp_nhàng 223
tương_xứng 223
e-@@ 223
mả 223
girl 223
bán_đảo 223
quý_hiếm 223
tila_nguyễn_sốc 223
hiềm_khích 223
dông 223
túi_bụi 223
biện_bạch 223
một_trời_một_vực 223
mạc_tư_khoa 223
nam_trang 223
tiến_thoái 223
jennings 223
lệ_liên 223
tic 222
1-2 222
8.@@ 222
thu_mua 222
đá_quý 222
cơ_sở_hạ_tầng 222
marketing 222
khấu_@@ 222
gara 222
180 222
xoa_bóp 222
khuân 222
dị_nghị 222
nhừ 222
úa 222
sông_nước 222
inter@@ 222
mắm 222
thân_quen 222
mật_khẩu 222
học_bạ 222
chiến_@@ 222
vẹn_toàn 222
giải_vây 222
thèm_muốn 222
thân_phụ 222
rờ 222
nói_thầm 222
ẩn_núp 222
nghênh_chiến 222
truỳ 222
căm_hờn 222
nhất_đẳng 222
trương_lộc 222
ác_ôn 222
chu_cù 222
mộc_tang 222
công_nương 221
bks 221
gd@@ 221
chiều_hướng 221
nhuận 221
thạnh 221
bày_bán 221
chê_bai 221
nhạc_cụ 221
lộ@@ 221
kiểm_chứng 221
kiến_trúc_sư 221
thơm_tho 221
cảm_@@ 221
to_nhỏ 221
viễn_cảnh 221
mường_@@ 221
nắm_đấm 221
thảnh_thơi 221
sinh_khí 221
un 221
premier_league_vff 221
falko_goetz_barcelona 221
bernabeu_basel 221
champions_league_quả 221
lưu_thuỷ 221
chạm_mặt 221
lọt_tai 221
mãnh_tướng 221
xục 221
lạy_chúa 221
thọ_dương 221
thiên_ất_tử 221
20192020 221
/7@@ 220
phí@@ 220
xúc_tiến 220
world 220
350 220
thách 220
sơ_thẩm 220
đánh_đổi 220
ngs 220
dd@@ 220
sinh_lý 220
lòng_@@ 220
gây_rối 220
thuốc_@@ 220
méo_mó 220
è 220
lucy 220
nước_đá 220
hâm 220
xuyên_@@ 220
tay_trên 220
hoang_@@ 220
_tâm 220
trông_đợi 220
gióng 220
liêu_@@ 220
pháo_thủ 220
intel 220
cảnh_quan 220
diên_@@ 220
diệp_@@ 220
ụp 220
biệt_@@ 220
giao_thiệp 220
xúi 220
túng 220
co_ro 220
trăm_tuổi 220
quyền_uy 220
hả_giận 220
ngoại_đạo 220
duyên_cớ 220
diêu 220
khúc_phi_yên 220
chủ_soái 220
sa_trường 220
biệt_lặc_cổ_đài 220
điệp_báo 220
triều_tôn 220
tần_uyển_phụng 220
bản_địa 219
dịch@@ 219
ứng_@@ 219
cafe 219
thấm_thía 219
bé@@ 219
vẹt 219
tre@@ 219
alice 219
dai_dẳng 219
el_@@ 219
ton_@@ 219
giày_vò 219
có_hậu 219
kĩ_thuật 219
mất_lòng 219
phóng_sự 219
thân_tình 219
thuần_@@ 219
emily 219
quằn_quại 219
hào_hùng 219
nhà_thương 219
muôn_năm 219
vui_thú 219
kén 219
phân_minh 219
lạ_kỳ 219
ngố 219
ôi_chao 219
mắc_lừa 219
ô_uế 219
yên_lành 219
yên_thân 219
quí_phái 219
đại_đức 219
lễ_độ 219
danh_gia 219
phi_phàm 219
tam_tuyệt 219
mộ_dung_bác 219
tavi 219
lê_ngọc_hàng 219
fải 219
mariuytx 219
lư_thế_xuân 219
thông_lệ 218
khả_quan 218
sá@@ 218
bài_trí 218
trị_liệu 218
b.@@ 218
tí@@ 218
far@@ 218
barack_obama 218
cli@@ 218
tửu_lượng 218
bi_quan 218
căn_nguyên 218
thich 218
đăc 218
david@@ 218
bất_cẩn 218
nhà_lớn 218
suông 218
di_dời 218
bóc_lột 218
cầm_cập 218
thiết_nghĩ 218
cụm_từ 218
ub 218
đề_bạt 218
trường_phái 218
chất_chứa 218
đát 218
phong_trần 218
mãng 218
yêu_quí 218
ngưòi 218
bán_tín_bán_nghi 218
hồn_phách 218
ừa 218
quốc_thái 218
thiên_cổ 218
nhất_loạt 218
bề_tôi 218
phương_sinh 218
quy_thuận 218
hà_khiêm 218
đổng_khuông 218
nguỵ_diên 218
hành_si 218
42019 218
giải_thể 217
nóng_giận 217
liệt_kê 217
đồng@@ 217
khả@@ 217
tiện_ích 217
lập_nghiệp 217
nạng 217
ui 217
ội 217
hoăc 217
má@@ 217
thân_thuộc 217
cù 217
y_sĩ 217
ngồi_xổm 217
sơ_đồ 217
lamborghini_aventador_j 217
chinh_chiến 217
keangnam 217
khô_khốc 217
hội_hoạ 217
mập_mờ 217
đông_đủ 217
ý_trung_nhân 217
đắc_chí 217
tráng_kiện 217
đi_tu 217
si_tình 217
vèo_vèo 217
tư_sản 217
đánh_liều 217
tà_đạo 217
xong_chuyện 217
dương_tuyền 217
tiểu_quyên 217
vân_trung_nhạc 217
vân_mộng_bình 217
times 216
bank 216
mọt 216
logic 216
bạc_liêu 216
nước_thải 216
ây_@@ 216
cáo_trạng 216
los_angeles 216
công_nguyên 216
lực_lưỡng 216
mảnh_mai 216
ước_lượng 216
tâm_tính 216
pha@@ 216
thuý_nga 216
suôn_sẻ 216
xa_vời 216
ượng_@@ 216
đời_thường 216
bóng_chuyền 216
goi 216
hàm_chứa 216
giác_quan 216
kiệm 216
276 216
ý_@@ 216
tình_đầu 216
đối_nghịch 216
ra_bộ 216
toàn_gia 216
lĩnh_giáo 216
phát_tiết 216
tiều_phu 216
võ_cử 216
tiêu_minh_phượng 216
lôi_hiểu 216
tá@@ 215
bồ_đào_nha 215
ipod 215
buông_lỏng 215
cà@@ 215
tuyên_@@ 215
nhàm_chán 215
khàn 215
hạch 215
stanton 215
p_h@@ 215
ken@@ 215
chút_xíu 215
xuân_hương 215
ém 215
key_lime_pie 215
14/12 215
28/1 215
trù_ẻo 215
vũ_điệu 215
01/03/2012 215
đàn_áp 215
anh_vũ 215
mành 215
hóm_hỉnh 215
nguyễn_huệ 215
hào_hoa 215
man_rợ 215
khờ 215
thượng_sách 215
napoleon 215
già_trẻ 215
kiến_văn 215
nông_nỗi 215
chịu_lời 215
lễ_nghi 215
tay_sai 215
dụng_binh 215
rên_la 215
tống_thái_tổ 215
mạnh_tam_nương 215
thiệc 215
chu_tước 215
chu_lão_thán 215
chung_vạn_cừu 215
tuấn_khương 215
kim_nguyên_đạo 215
ban_bí_thư 214
cn@@ 214
160 214
nghỉ_dưỡng 214
cầu_kỳ 214
new_zealand 214
giơi 214
tra_cứu 214
sưng_vù 214
bè_bạn 214
bàn_cãi 214
_ngọc 214
đáng_ra 214
anonymous 214
vu_vơ 214
đắk_lắk 214
ni_@@ 214
chế_tác 214
mỹ_@@ 214
ưởng 214
khốn_đốn 214
kỳ_thú 214
hải_tặc 214
chê_trách 214
ót 214
dùng_bữa 214
phục_hưng 214
mỵ 214
nết 214
phong_hàn 214
hồ_lô 214
rút_cục 214
đông_kinh 214
kiến_đức 214
nhảy_bổ 214
trí_mạng 214
đàm_bách_thuỷ 214
quách_tùng 214
lâm_tri 214
dương_sơn 214
bạch_hoàng_giáo 214
giorgio 214
tây_hoa_tử 214
phùng_như_nguyệt 214
ren 213
tháo_gỡ 213
liều_mình 213
khuẩn 213
1968 213
đức_tin 213
xoài 213
cà_rốt 213
đái_tháo_đường 213
cạn_kiệt 213
bít 213
chị@@ 213
rời_rạc 213
nam_châm 213
_hồng_@@ 213
ng. 213
lay_chuyển 213
trở_mình 213
18/1 213
lì_xì 213
ấ 213
tủi 213
nhan_@@ 213
canh_@@ 213
dự_tuyển 213
đo@@ 213
gió@@ 213
loạn_lạc 213
cứ_cho_là 213
phiếm 213
audrey 213
pháo_đài 213
xuýt 213
chư_hầu 213
hỏi_tội 213
vua_tôi 213
huỳnh_dương 213
phát_xạ 213
lạy_tạ 213
nhĩ_văn_hoán 213
giang_lăng 213
tiêu_hồng_tiến 213
thiết_sĩ_tâm 213
thù_nhi 213
02@@ 212
mal@@ 212
liên_hợp 212
cánh_@@ 212
radio 212
vô_định 212
việt_đức 212
hoạt_@@ 212
iện_@@ 212
sốt_rét 212
găng_tay 212
lar@@ 212
nao_núng 212
_anh 212
thể_chế 212
trinh_@@ 212
13/12 212
19/1 212
vali 212
đặng_thuỳ_trâm 212
nhóc_con 212
giá_rét 212
maria 212
buông_thả 212
dìm 212
trắc_bá 212
vờn 212
huyết_chiến 212
trừ_diệt 212
đoản_đao 212
lục_lâm 212
đơn_hùng_tín 212
phong_nhã 212
vương_bạc 212
tú_chân 212
a_bích 212
ngọc_chiêu 212
khởi_kiện 211
7/@@ 211
d.@@ 211
ct@@ 211
quy_tụ 211
quy@@ 211
vẻ_vang 211
teo 211
cực_hình 211
af@@ 211
jan@@ 211
trang_trải 211
kê@@ 211
ngũ_@@ 211
bến_tàu 211
ngày_giờ 211
kiết 211
tri_ân 211
303 211
12/1 211
hội_kiến 211
nguýt 211
tuyên_thệ 211
chót_vót 211
thiên_t@@ 211
hồn_@@ 211
frank 211
thông_thạo 211
yểm_hộ 211
rầy 211
độ_lượng 211
thủ_@@ 211
uổng_phí 211
ruổi 211
triệt_thoái 211
oai_nghiêm 211
võ_tướng 211
cổ_kim 211
khổ_đầu_đà 211
willoughby 211
tiếp_nối 210
_hưng 210
đất_@@ 210
xấu_số 210
nồng_độ 210
en_@@ 210
way 210
nư 210
wu 210
1970 210
tinh_khiết 210
tức_tốc 210
lờ_đờ 210
mục_sư 210
thướt_tha 210
nhạy_bén 210
trôi_chảy 210
kỷ_nguyên 210
vân_vân 210
ô-mai 210
6/12 210
nốc 210
pixar 210
túi_tiền 210
địa_danh 210
xám_xịt 210
giãy 210
im_ắng 210
bính_@@ 210
hùng_hổ 210
hợp_tình_hợp_lý 210
_binh 210
hoa_tranh 210
_tử 210
thất_phu 210
an_thế_thanh 210
lý_thế_tích 210
tông_bảo 210
mãn_thanh 210
lâm_an 210
thể_thống 210
đại_dũng 210
vương_lăng 210
hồng_thất_công 210
52019 210
vĩ_mô 209
nhiếp_ảnh_gia 209
đông_á 209
lộc_@@ 209
âm_đạo 209
xịt 209
cơm_@@ 209
nhà_tắm 209
than_phiền 209
nes 209
cứu_tinh 209
y-@@ 209
người_phát_ngôn 209
da_cam 209
_vân_@@ 209
giữ_chân 209
loà 209
thừa_hưởng 209
cao_thượng 209
ngọc_sơn 209
tình_ca 209
nhân_đức 209
ơi_là 209
bóp_cổ 209
nhân_danh 209
ỏ 209
thuỳ_vân 209
chỉ_trỏ 209
thánh_mẫu 209
yếm 209
àm 209
thượng_đẳng 209
lanh_lẹ 209
hoang_phế 209
giao_hảo 209
tư_không_diêu 209
hạ_quốc 209
sư_mẫu 209
cuống_quít 209
tà_thuật 209
ngũ_tử_tư 209
thanh_nhân 209
lợi_hanh 209
ngắn_hạn 208
nữ_trang 208
lợi_@@ 208
morgan 208
nhà_đất 208
lặt_vặt 208
sản_phụ 208
wo@@ 208
đã@@ 208
du_hành 208
gầy_nhom 208
xước 208
phát_nổ 208
chát_chúa 208
chiu 208
ig@@ 208
biểu_dương 208
tiền_giang 208
_ro@@ 208
đan_mạch 208
marie 208
túc_trực 208
thiền_định 208
tất_@@ 208
phương_trình 208
một_cái 208
rỉ_tai 208
luận_án 208
hương_sơn 208
rày 208
toại_nguyện 208
bập_bùng 208
xỉu 208
gia_phong 208
tọt 208
ngất_trời 208
xây_cất 208
tua_tủa 208
trắng_toát 208
báo_ứng 208
nhà_lao 208
nông_phu 208
hoài_thuỷ 208
tư_tình 208
đáp_lý_đài 208
hàn_kế_tín 208
lâm_u 208
ươc 207
lấn_át 207
thu_giữ 207
_an 207
2-3 207
phim_ảnh 207
bận_bịu 207
xh 207
ment 207
tuyển_thủ 207
thanh_thoát 207
sưc 207
ers 207
rạo_rực 207
sông_@@ 207
25/11 207
quẩn 207
xê@@ 207
chẻ 207
máu_nóng 207
hộ_khẩu 207
quyết_chí 207
/2011 207
25/1 207
yahoo 207
nguyễn_phú_trọng 207
thời_thế 207
dạ_hội 207
phân_định 207
kiếm_ăn 207
danh_thiếp 207
yết 207
đan_@@ 207
bành_@@ 207
phẩy 207
ngang_tàng 207
tôn_thất 207
khẩn_khoản 207
hổ_khẩu 207
tây_đạo 207
tịnh_trai 207
disa 207
phùng_xuân_nhạ 207
lo_@@ 206
ưa_chuộng 206
xu_thế 206
rổ 206
chạnh_lòng 206
ino 206
trí_não 206
quảng_tây 206
ré 206
tuc 206
xx 206
hẵng 206
trũng 206
dương_cầm 206
dành_dụm 206
diễm_@@ 206
âng 206
hiệp_@@ 206
nôn_nao 206
hùng_vương_tphcm 206
thơ_mộng 206
hùng_dũng 206
bạo_động 206
thảm_cảnh 206
tin_tặc 206
đậm_đà 206
hò 206
bích_ngọc 206
thúc_@@ 206
thõng 206
thảm_thương 206
tuần_dương_hạm 206
thẳng_tắp 206
yểm_trợ 206
tâm_tưởng 206
ngu_@@ 206
không_tâm_thái 206
triết_la_tinh 206
9% 205
_k@@ 205
ã@@ 205
2,5 205
viện_kiểm_sát 205
to_tát 205
danh_lợi 205
nguyễn_văn_th@@ 205
tự_ti 205
tâm_đắc 205
sàng_lọc 205
ận 205
tony 205
quận_huyện 205
hụt_hẫng 205
_thu_@@ 205
giỏi_giang 205
tay_ba 205
thô_sơ 205
tri_@@ 205
trắng_tay 205
rồ 205
phone 205
sắt_đá 205
uy_quyền 205
bá_@@ 205
chiếm_giữ 205
quỷ_sứ 205
đầu_lưỡi 205
ngút 205
xẻo 205
mặc_@@ 205
ắt_là 205
lầm_lì 205
wozniak 205
mạnh_giỏi 205
bao_hưng 205
ngọc_trí 205
robert_langdon 205
hiếu_sắc 205
tố_thư 205
hô_diên_táng 205
công_tôn_cửu 205
farewell 205
chín_chắn 204
nam_bộ 204
tp.hcm. 204
khẩu_phần 204
nhân_sinh 204
cd 204
á_châu 204
bao_hàm 204
uyên_@@ 204
về@@ 204
bro@@ 204
hoa_cúc 204
up 204
oẹ 204
cen@@ 204
nặn 204
p_th@@ 204
song_@@ 204
15/9 204
chiến_sự 204
nhĩ@@ 204
/3/2012 204
ốm_đau 204
điều_ước 204
cố_hữu 204
tỉnh_bơ 204
truy_lùng 204
vĩnh_hằng 204
diễn_@@ 204
cốc_@@ 204
tối_mịt 204
viện_binh 204
lác_đác 204
lố 204
chiếm_đóng 204
iệ@@ 204
chường 204
trói_buộc 204
lãnh_địa 204
làm_chủ 204
hậu_cung 204
ngô_sĩ_liên 204
nợ_máu 204
thác_bạt 204
lã_hùng 204
giáng_long 204
tiên_tử 204
bao_tích_nhược 204
đinh_bất_tam 204
dương_liên_đình 204
tiểu_lạc 204
ầ@@ 203
cộng_sự 203
vênh 203
ích_@@ 203
hạn_hán 203
120@@ 203
un@@ 203
xịn 203
chế@@ 203
13:@@ 203
trơi 203
xâm 203
là_hơi 203
mụ@@ 203
ẽ@@ 203
khổ_cực 203
vắn_tắt 203
phòng_ốc 203
fax 203
inh_ỏi 203
t.ư 203
xanh_tươi 203
stamford_bridge 203
tình_địch 203
mướt 203
nhâm_@@ 203
thanh_thảo 203
chiêu_bài 203
tù_trưởng 203
vinh_hoa 203
tung_hô 203
điên_loạn 203
mờ_ám 203
mông_@@ 203
rì_rào 203
đa_đoan 203
xồm 203
nhọn_hoắt 203
bá_quan 203
lý_bạch 203
đại_phá 203
đồng_đảng 203
lục_mạch_thần_kiếm 203
câu_hồn 203
tuý_đầu_đà 203
ược 202
dự@@ 202
.9@@ 202
phần_cứng 202
tel 202
đường_bay 202
đo_lường 202
tật_nguyền 202
ngộ_độc 202
eri@@ 202
ghi_hình 202
đuợc 202
buôi 202
giấy_@@ 202
cửa_ngõ 202
vật_tư 202
nhân_quyền 202
hoằng_@@ 202
hậu_trường 202
tàu_sân_bay 202
công_bộc 202
phương_linh 202
trang_hoàng 202
phi_lý 202
le_lói 202
giờ_khắc 202
ngoa 202
bần_thần 202
hun_hút 202
giảng_hoà 202
thua_thiệt 202
lừa_bịp 202
triết_gia 202
uyên_bác 202
quơ 202
bách_@@ 202
tịnh_@@ 202
thịnh_tình 202
lê_dương 202
tranh_hùng 202
cáo_lui 202
bở_vía 202
điệp_luyến_hoa 202
thuỷ_kỳ_lân 202
đồ_ma_cốt 202
mã_ngọc 202
ma_cung 202
hân_ly 202
trường_thi 201
tương_quan 201
nhỏ@@ 201
60% 201
tiêu_huỷ 201
nhà_tài_trợ 201
cận_kề 201
_dung 201
gừng 201
tán_@@ 201
bệnh_nhi 201
mật_@@ 201
mọng 201
_hương 201
nan@@ 201
lành_lặn 201
phôi 201
xuống_dốc 201
khản 201
diễn_tập 201
cơ_động 201
cấu 201
sao_@@ 201
chói_chang 201
tự_giác 201
ajax 201
hoàn_trả 201
04/03/2012 201
hùm 201
tê_tái 201
tx@@ 201
mã_lực 201
tốc_lực 201
ngao_ngán 201
loá_mắt 201
yên_nghỉ 201
thất_truyền 201
diện_kiến 201
đánh_hơi 201
hồng_nhan 201
vô_liêm_sỉ 201
tam_quan 201
nhu_mì 201
cố_nhân 201
bờ_cõi 201
vô_đạo 201
võ_khí 201
liêu_đông 201
hỡi_ơi 201
tam_nhãn 201
lê_đại 201
hiễu 201
nhã_đại_ny 201
bạch_tự_tại 201
vi_thiên_cơ 201
gia_luật_sở_tài 201
phiên_dịch 200
shar@@ 200
20.000 200
kiểu_dáng 200
25% 200
45@@ 200
vnđ 200
atm 200
sha@@ 200
nhân_quả 200
ql@@ 200
_lực 200
bre@@ 200
đen_nhánh 200
nhận_dạng 200
triêu 200
i. 200
_học 200
ngỗng 200
na_uy 200
quên_lãng 200
mệt_nhoài 200
ùi 200
hối_thúc 200
kennedy 200
sse@@ 200
bật_lửa 200
xuýt_xoa 200
nài_nỉ 200
nghệ_sỹ 200
biếm_hoạ 200
la_liga 200
áo_mưa 200
khiết 200
phượt 200
thừa_thiên 200
tan_tác 200
cửa_biển 200
ngô_kiến_huy 200
đại_bộ_phận 200
thơ_ngây 200
hồi_đáp 200
độc_tài 200
hoan_lạc 200
khứ 200
cữu 200
hẹn_ước 200
truyện_dài 200
phụ_mẫu 200
xuất_chinh 200
nguyên_lão 200
cầu_kiến 200
mạc_bắc 200
vu_thần 200
hêluy 200
du_tấn 200
hoàn_độ 200
hương_phi 200
diệp_my 200
hậu_phương 199
logo 199
gates 199
130 199
ft 199
uỷ@@ 199
hồ_hởi 199
buông_xuôi 199
hình_thể 199
bac 199
lưc 199
tươi_mát 199
thực_nghiệm 199
xù 199
iệu 199
đị@@ 199
vãng 199
13/1 199
thời_thượng 199
liệt_@@ 199
hò_hẹn 199
àn_@@ 199
thú_dữ 199
lưu_ly 199
li_@@ 199
chinh_phạt 199
mê_muội 199
học_thuyết 199
tiếp_tân 199
chúa_tể 199
câu_kết 199
ĩ@@ 199
lảm_nhảm 199
chiêm_bao 199
phất_phới 199
sát_hợp 199
đắc_đạo 199
tiêu_diêu 199
khang_thân_vương 199
nhãy 199
tiên_vương 199
diêu_cương 199
tiểu_quan 199
chu_trường_linh 199
giám_đốc_điều_hành 198
cao_tầng 198
tz 198
định.@@ 198
quy_nhơn 198
chiếu_phim 198
lý_lịch 198
dj 198
ns@@ 198
ngũ_cốc 198
giải_phẫu 198
lim 198
tes 198
buồng_trứng 198
tài_@@ 198
tất_bật 198
vị_thành_niên 198
tựu 198
80@@ 198
nhiếp_ảnh 198
12/11 198
ống_quần 198
256 198
đưa_đẩy 198
usb 198
cầu_treo 198
tạo_dáng 198
bái_@@ 198
xa_gần 198
tranh_@@ 198
lùi_bước 198
công_trạng 198
hộ_giá 198
quở_trách 198
khoan_hồng 198
bưu 198
hung_bạo 198
thang_@@ 198
dung_tha 198
cung_nga 198
tra_@@ 198
thê_thiếp 198
tuyệt_trần 198
tổ_phụ 198
ân_thiên_chính 198
gian_thần 198
andré 198
độc_cô_phong 198
chu_nguyên_chương 198
huyền_hoả_giám 198
tôkita 198
vương_tiến_bảo 198
bạch_mi_giáo 198
thiết_chỉ_thư_sinh 198
ine@@ 197
con_dấu 197
ật 197
linh_kiện 197
dàng 197
dãn 197
mãnh_hổ 197
đắc_@@ 197
rốn 197
id 197
diễn_tiến 197
bộ_nhớ 197
ăng-@@ 197
_hoá 197
gối_đầu 197
hiện_đại_hoá 197
-4 197
con_ruột 197
ổ_cứng 197
ậm_ừ 197
osin 197
14/1 197
huế_bằng 197
thành_ngữ 197
vũ_bão 197
chế_@@ 197
tiến_minh 197
tây_sơn 197
bày_biện 197
tuệ@@ 197
mình_mẩy 197
biết_tay 197
lac 197
hậu_duệ 197
tôn_t@@ 197
tán_tụng 197
lủi 197
rơ 197
iêu 197
hoang_tàn 197
thiết_giáp 197
ngách 197
trùng_điệp 197
viễn_@@ 197
raptor 197
thần_quyền 197
arnold 197
đánh_đòn 197
chút_đỉnh 197
cửa_quan 197
thánh_thót 197
nhún_mình 197
liêm_pha 197
oa_khoát_đài 197
gia_công 196
nuối_tiếc 196
trú_ẩn 196
247 196
thuận_@@ 196
dor@@ 196
phòng_tránh 196
bước_ngoặt 196
chèn_ép 196
1972 196
cốt_@@ 196
háo 196
lâp 196
ngấy 196
thớ 196
cô_chú 196
cải_tổ 196
valentine_bàng 196
xỉ 196
ằng 196
phục_sức 196
piano 196
bão_tố 196
phép_tắc 196
cùng_đường 196
quấn_quít 196
si_mê 196
phúc_đáp 196
chiến_hữu 196
thôn_tính 196
tạ_thế 196
viễn_chinh 196
bụm 196
ngọc_yến 196
diệc 196
phàn_cương 196
lẹ_làng 196
miêu_@@ 196
vạn_hoá_đạo_tử 196
iển 195
giòn 195
nguyễn_l@@ 195
30.000 195
1982 195
cs@@ 195
xát 195
lết 195
chât 195
đôc 195
khẳng 195
duy_@@ 195
nam_phi 195
chủng_loại 195
3000 195
mường_tượng 195
gông 195
răn_đe 195
mưu_tính 195
nhục_mạ 195
cùng_@@ 195
vnpt 195
la_lối 195
minh_tinh 195
tung_tăng 195
bề_trên 195
sục 195
nhoài 195
huých 195
trù_trừ 195
nữ_sắc 195
bịp 195
trạng_nguyên 195
định_tâm 195
ma_môn 195
nhọc_lòng 195
ngũ_tuyệt 195
vương_xử_nhất 195
kratz 195
huyền_thiên 195
tiêu_phụng_hoàng 195
trích_tinh_tử 195
kiểm_toán 194
lee 194
italy 194
viet@@ 194
kiêng 194
.com 194
tổ_ấm 194
cnn 194
khử 194
ngọc_linh 194
giun 194
cấm_@@ 194
hun 194
đau_ốm 194
eng@@ 194
lặp_đi_lặp_lại 194
bốc_@@ 194
phóng_khoáng 194
ảng 194
khẩu_trang 194
khâm_@@ 194
ử 194
đầm_ấm 194
phát_thanh 194
gốc_rễ 194
sát_cánh 194
đỡ_đầu 194
lý_sơn 194
long_đình 194
đồ_cổ 194
đèn_@@ 194
tồi_tàn 194
vố 194
iết_@@ 194
câu_nệ 194
tắt_ngấm 194
quên_mình 194
lăn_lóc 194
đoạn_trường 194
ly_gián 194
diêm_nguyên_cảnh 194
phổ_kiên 194
lệnh_bà 194
tra_y_hoàng 194
dịch_cân_kinh 194
tiêu_thất 194
tương_lão 194
lỗ_công_hành 194
thông_thiên_giáo 194
chu_nhất_cuồng 194
sinh_thái 193
già_yếu 193
6/@@ 193
thị_phần 193
ol@@ 193
mt 193
đối_@@ 193
thiện_chí 193
_dũng 193
tình_nguyện_viên 193
sò 193
vật_vã 193
sờ_soạng 193
ham_mê 193
dũng_@@ 193
hoá_thạch 193
gội 193
đởm 193
266 193
ến 193
đồng_loại 193
được_@@ 193
khái 193
sừng_sỏ 193
strauss-kahn 193
ê_chề 193
ibm 193
ev71 193
15/11 193
gay_cấn 193
anh_thư 193
xối_xả 193
ần_@@ 193
thô_thiển 193
bóng_loáng 193
kim_đính 193
uốn_éo 193
dầy_đặc 193
lẳng_lơ 193
chỉ_dụ 193
côn_minh 193
iế@@ 193
lấm_tấm 193
dâm_đãng 193
hề_hề 193
tư_vị 193
đầu_lĩnh 193
phạm_thiên 193
trảm_long_kiếm 193
hàn_tiểu_oanh 193
phôsơlơvăng 193
dương_bất_hối 193
âu_trường_phong 193
ky@@ 192
thậm 192
thể_hình 192
xông_pha 192
thâm_niên 192
time 192
lou@@ 192
ker 192
nghẹt 192
nê@@ 192
pe 192
căm 192
đăt 192
loang_lổ 192
_mai 192
chính_khách 192
ghi_chú 192
bất_hủ 192
đặc_vụ 192
cơ_cực 192
vượt_ngục 192
ẩn_số 192
_hùng 192
nối_đuôi 192
liveshow 192
thưởng_ngoạn 192
thương_mến 192
chu_văn 192
túa 192
nghen 192
sớm_tối 192
đi_sát 192
lý_l@@ 192
khổ_sai 192
viên_tịch 192
uy_vũ 192
bạt_@@ 192
hoạn_quan 192
hải_sa 192
chuyển_vận 192
can_qua 192
thiên_ma_@@ 192
tử_trạch 192
vạn_độc_môn 192
tích_mộc 192
công_tôn_hách 192
thích@@ 191
nhà_phân_tích 191
leo_thang 191
điều_tiết 191
chile 191
tuyên_quang 191
tỉ@@ 191
ul@@ 191
bộc_phát 191
pal@@ 191
cứ@@ 191
cá_thể 191
29/1 191
khá_giả 191
uni@@ 191
ính 191
16/11 191
phạm_luật 191
pr 191
doãn_@@ 191
tháp_tùng 191
rooney 191
ngất_ngưởng 191
mạch_môn 191
vĩ_thanh 191
angelina_jolie 191
giắc 191
iêm 191
buồn_tẻ 191
gôn 191
công_tước 191
vô_danh_tiểu_tốt 191
ra_trò 191
vô_sản 191
bịt_mắt 191
tâm_lực 191
ngoi 191
cảo 191
đại_bi 191
hồng_thuỷ 191
sồi 191
tử_địa 191
nhất_tâm 191
xuất_thế 191
võ_trang 191
ngộ_xuân 191
nam_cung_ngọc 191
kinh_thiện 191
hoa_thích_tử_mô 191
liễu_văn 191
huyết_ảnh_ma_tôn 191
vân_thao 191
khoáng 190
hơn.@@ 190
shb 190
op@@ 190
trực_diện 190
hồ_@@ 190
12-@@ 190
tối_@@ 190
đơn_thân 190
/12@@ 190
nhiễm_bệnh 190
tur@@ 190
oacute 190
dãi 190
tì@@ 190
sọc 190
yê@@ 190
mang_tai 190
tránh_mặt 190
mann 190
thanh_lý 190
đb 190
lã_chã 190
@gmail 190
phán_quyết 190
sĩ_diện 190
iều 190
giấy_bạc 190
h00 190
trụi 190
lán 190
xiêm_y 190
biền 190
đâm_đầu 190
trân_trân 190
xúi_giục 190
quan_âm 190
betty 190
khổ_công 190
giử 190
chú_mày 190
đại_nghịch 190
trương_tiệp_dư 190
khôi_vĩ 190
thạch_tố_phương 190
slade 190
chung_khí_tử 190
mai_lăng 190
điền_tú_tú 190
ari 189
259 189
lâm_nghiệp 189
định_vị 189
thất_thoát 189
105 189
/11@@ 189
sảy 189
gồng 189
khít 189
der 189
tróc 189
hel@@ 189
7841 189
phiền_lòng 189
iến 189
đêm_đêm 189
luân_phiên 189
thân_ái 189
thơm_ngát 189
ài_@@ 189
bán_trú 189
thích_đáng 189
12/12 189
serie_a 189
hiển_hách 189
quỹ_khuyến 189
quốc_học 189
dốt 189
mưu_mô 189
êu 189
vắng_tanh 189
yên_vị 189
đèn_pha 189
tamara 189
ngu_muội 189
rầm_rầm 189
róc_rách 189
học_sĩ 189
đậu_khấu 189
líu 189
thánh_nhân 189
lâm_lãng 189
bảo_tiêu 189
hữu_lượng 189
dương_diên_chiêu 189
vệ_bích 189
bến_tre 188
tầm_vóc 188
sho@@ 188
ty@@ 188
trầm_lắng 188
đồ_án 188
tiêu_chảy 188
micro 188
:01 188
nội_soi 188
chăn_gối 188
ngan 188
sou@@ 188
thả_lỏng 188
cy 188
ễ@@ 188
vô_hiệu 188
ươm 188
ghẻ 188
ngất_ngây 188
ner@@ 188
bủn_rủn 188
cộc 188
trưởng_thôn 188
iết 188
william 188
tân_binh 188
kêu_ca 188
ano 188
siêu_việt 188
bẽ_bàng 188
phẳng_lặng 188
tại_trận 188
tôn_đức_thắng 188
sạn 188
thấu_đáo 188
sắc_thái 188
cuội 188
quầy_quậy 188
toàn_tâm_toàn_ý 188
tấm_tắc 188
oan_hồn 188
xá_lợi 188
không_đội_trời_chung 188
ríu_rít 188
đạo_tặc 188
tuệ_mẫn 188
phí_bân 188
môn_đệ 188
hổ_lao 188
ngốc_bút_ông 188
đui_mù 188
lý_tĩnh 188
vu_sở_hồng 188
lưu_dung 188
thâm_hiểm 188
triệu_bá 188
vạn_kiếm_nhất 188
mộc_kiếm_thanh 188
đồ_thúc_phương 188
bạch_tố_nghi 188
gt 187
tự_phát 187
robert_@@ 187
tối_tân 187
ải_@@ 187
văcxin 187
plus 187
đi_cầu 187
dát 187
ăt 187
khoa_học_kỹ_thuật 187
cá_kình 187
xoá_sổ 187
lông_mi 187
ngự_trị 187
ức_hiếp 187
ngán_ngẩm 187
rần 187
như_ai 187
phim_hoạt_hình 187
nhá 187
vàng_@@ 187
sân_vận_động 187
nào_@@ 187
hat-trick 187
tỉ_phú 187
nghi_án 187
công_tâm 187
kẻ_trộm 187
khuất_tất 187
xiềng_xích 187
đối_chọi 187
uốn_lượn 187
ngân_sơn 187
hả_hê 187
sùng_@@ 187
ôn_luyện 187
thắm_thiết 187
làu_bàu 187
xui_xẻo 187
lừ 187
lút 187
trác_@@ 187
suối_vàng 187
phẫn_uất 187
xuất_quân 187
vua_chúa 187
ly_biệt 187
khảy 187
sắc_lạnh 187
đông_ngô 187
thò_lò 187
phản_gián 187
gia_nô 187
hoa_thương_thương 187
lỗ_túc 187
thiên_ma_thế_vương 187
6.000 186
khá@@ 186
ắ@@ 186
cla@@ 186
ngấu_nghiến 186
đần_độn 186
thun 186
bỏ_dở 186
you@@ 186
lệ_thuộc 186
ld 186
1950 186
ry@@ 186
tận_thế 186
lơ_mơ 186
thú_vật 186
rock 186
lễ@@ 186
thực_@@ 186
nhập_cư 186
trau_dồi 186
iệt 186
phantom 186
âm_lịch 186
trọng_bệnh 186
truy@@ 186
_lương 186
chủ_toạ 186
bịn_rịn 186
thùng_thình 186
tủ_sách 186
năm_ba 186
như_chơi 186
phiêu_bạt 186
vô_thanh 186
sọt 186
phúc_châu 186
ẻo 186
già_dặn 186
trang_nhã 186
trắng_nõn 186
quên_bẵng 186
tiên_nhân 186
mạo_xưng 186
nội_ứng 186
lạc_phương 186
lề_luật 186
xét_đoán 186
phổ_hoằng_thượng_nhân 186
huyện_uỷ 185
for 185
kate 185
147 185
đưa_@@ 185
gro@@ 185
triệu_phú 185
_hà@@ 185
ssi@@ 185
tuỷ 185
cc 185
khuấy 185
phả@@ 185
ký@@ 185
nảy_nở 185
lây_truyền 185
7871 185
như_@@ 185
ậm 185
_hồng 185
cấu_hình 185
abramovich 185
ibra 185
29/02/2012 185
quyết_thắng 185
đâu_vào_đấy 185
cổ_tự 185
nóng_rực 185
1,000,000 185
câm_lặng 185
_thần 185
quí_giá 185
hàn_huyên 185
lạp 185
hậu_sinh 185
đùng 185
gàn 185
ghế_dài 185
thục_mạng 185
uất_hận 185
dọ 185
vương_hầu 185
nước_đại 185
nghĩa_sĩ 185
dạ_oa_tử 185
phóng_đãng 185
nữ_chân 185
quí_tộc 185
cao_ly 185
hồng_mao 185
độc_chủ_hành 185
giãi_bày 184
nhôm 184
hệ_quả 184
lực_lượng_vũ_trang 184
đóng_dấu 184
cò@@ 184
lúa_mì 184
lưa 184
màng_trinh 184
tuỳ@@ 184
chuyên_dùng 184
@@@ 184
cở 184
dân_nghèo 184
lời_giải 184
vạ@@ 184
ẳm 184
tour 184
đó_đây 184
stu@@ 184
tính_@@ 184
đồi_bại 184
gs.ts 184
pi 184
asha 184
từ_trần 184
thắng_@@ 184
tip 184
canh_bạc 184
nương_nhờ 184
vi_hiến 184
bi_đát 184
thư_pháp 184
thanh_hoa 184
hoàng_thái_tử 184
bob 184
kê_khai 184
sửu 184
bại_hoại 184
dữ_dằn 184
thanh_cao 184
ngõ_hẻm 184
thứ_bậc 184
vai_vế 184
dây_leo 184
computer 184
bố_thí 184
bặm 184
thiên_chúa 184
nghinh_tiếp 184
răng_rắc 184
thần_long_giáo 184
tru_tiên_cổ_kiếm 184
ngạc_lan 184
dương_toàn_kỳ 184
tiêu_viễn_sơn 184
hốt_lan 184
tomek 184
l.@@ 183
dy@@ 183
có_dễ 183
ger 183
bá_vương 183
rà 183
phàn 183
bán_nguyệt 183
đường_sinh 183
vĩnh_long 183
dubai 183
chằng 183
thủ_thỉ 183
phố_phường 183
sãi 183
ram 183
triết 183
võ_sỹ 183
đồng_tâm 183
1a 183
trối 183
trần_thế 183
ái_mộ 183
cười_xoà 183
phấp_phới 183
mê_đắm 183
vẹn 183
nhác 183
vụng 183
bê_bết 183
ngoạn 183
tiểu_đội 183
ân_huệ 183
oanh_liệt 183
giũ 183
tốc_bất_đài 183
uất_trì_kính_đức 183
tiết_mộ_hoa 183
huyền_tịch 183
hàn_thanh_quân 183
tôlan 183
thần_hành_tiểu_la 183
basel 182
ios 182
buôn_lậu 182
or 182
hormone 182
hoà_mình 182
:05 182
thủa 182
chất_@@ 182
chăm_chút 182
củ@@ 182
thinh 182
đỗ_văn_@@ 182
chèn 182
fan@@ 182
lan_anh 182
nâng_niu 182
đường_thẳng 182
thế_kỉ 182
đồng_ruộng 182
0,000 182
phũ_phàng 182
đồng_bạc 182
cấm_vận 182
26/1 182
quản_@@ 182
ngây_dại 182
bội_phần 182
biện_hộ 182
kỳ_quan 182
thổ@@ 182
cơm_rượu 182
thủ_trưởng 182
tra_khảo 182
xuất_đầu_lộ_diện 182
diễm_phúc 182
thù_hằn 182
mát_rượi 182
sỉ 182
mộng_tưởng 182
chúc_thọ 182
hung_@@ 182
minh_minh 182
đại_lão 182
phong_tình 182
phân_tranh 182
hầu_cận 182
dễ_sợ 182
thư_trai 182
tô_thuyên 182
mông_lực_khắc 182
hô_diên_tán 182
tiền_lão_bản 182
bao_nhất_thiên 182
trát_lan_đinh 182
tam_anh 182
hoàng_vân_nhi 182
tô_lỗ_khắc 182
32019 182
uỷ_ban_nhân_dân 181
thá@@ 181
bình_dị 181
thăng_trầm 181
125 181
bứt_rứt 181
bước_sóng 181
nêm 181
lê_phương 181
đầu_lòng 181
thuyên_giảm 181
này@@ 181
an_th@@ 181
ỉnh 181
sky 181
ocirc 181
nhũ 181
nhăn_nheo 181
theo_@@ 181
hoại 181
1984 181
úng 181
lọt_lòng 181
ngọc_thạch 181
ỏng 181
vệ@@ 181
lang_@@ 181
câu_đố 181
bật_mí 181
tin_@@ 181
21/1 181
bin_laden 181
ước_@@ 181
lãm 181
hiệu_nghiệm 181
óm 181
110@@ 181
minh_quân 181
trống_trơn 181
nhu_nhược 181
cô_cậu 181
thầy_bói 181
thatcher 181
nhảm_nhí 181
đánh_úp 181
gái_điếm 181
khinh_suất 181
cổ_mộ 181
chiến_quốc 181
chết_tươi 181
cao_hoài_đức 181
dư_triệu 181
miệt_nhi_khất 181
huyết_hận 181
phong_đức_di 181
nhi_nữ 181
lý_tứ 181
hạnh_hoa 181
capone 181
vương_bình_thuận 181
mạ@@ 180
phụ_kiện 180
tiếc_rẻ 180
ám_thị 180
xí_nghiệp 180
zu@@ 180
liệu_pháp 180
ing 180
đ. 180
ah@@ 180
chấn_@@ 180
ích_lợi 180
mil@@ 180
vững_chãi 180
hy_hữu 180
xóc 180
diễn_thuyết 180
mẫu_@@ 180
độc_tính 180
toi 180
vẫy_vẫy 180
tiếng_@@ 180
cấp_bậc 180
nuôi_trồng 180
xe_bò 180
hiền_@@ 180
_vinh 180
nhật_báo 180
trần_t@@ 180
oán_thù 180
bộ_hành 180
cầm_chắc 180
lài 180
chòm_sao 180
oan_gia 180
roger 180
tăng_gia 180
tao_nhã 180
ngu_dốt 180
lauren 180
việc_gì 180
quái_quỷ 180
tứ_@@ 180
nhị_@@ 180
phu_tử 180
thiên_sách 180
lâm_sĩ_hồng 180
khuê_phòng 180
thị_tỳ 180
rothschild 180
định_giá 179
vest 179
đặng_th@@ 179
4.0 179
ban_ngành 179
ộ@@ 179
iê@@ 179
dy 179
sơ_tuyển 179
ker@@ 179
trắng_@@ 179
ẩy 179
ard@@ 179
gở 179
xâm_lấn 179
lục_phủ_ngũ_tạng 179
ịch 179
cường_@@ 179
1987 179
biêu 179
vô_hại 179
st_@@ 179
đường_dẫn 179
phòng_@@ 179
19/12 179
_hoàng 179
đương_@@ 179
ba_vì 179
phương_châm 179
đẽo 179
vấy 179
phân_bổ 179
svhouse 179
fukushima 179
ngọc_lâm 179
tiếp_tế 179
trần_trụi 179
hương_hoa 179
đặc_phái_viên 179
qúa 179
đen_láy 179
xắn 179
mễ@@ 179
số_là 179
ngâm_nga 179
cất_nhắc 179
líu_lo 179
áo_quan 179
song_kiếm 179
linh_khí 179
xẵng 179
ùm 179
thiêm 179
huý 179
huyên_thuyên 179
trung_sĩ 179
định_luật 179
thí_mạng 179
hầu_thông_hải 179
quan_thanh 179
lương_tử_ông 179
hạ_quyên 179
trầm_tú 179
khổng_tử 178
10.@@ 178
chính_yếu 178
amazon 178
sử_sách 178
_tình 178
cholesterol 178
ăn_kiêng 178
mã_hoá 178
hor@@ 178
vũ_trường 178
cher@@ 178
đề_kháng 178
rong_ruổi 178
nhảy_@@ 178
hpv 178
tich 178
hoàng_thị@@ 178
an_sinh 178
ạnh 178
gang_tấc 178
quai_hàm 178
lãnh_vực 178
phận_sự 178
13/11 178
rắn_rỏi 178
2/12 178
02/03/2012 178
hội_chợ 178
đảo_chính 178
cật_lực 178
quản_lí 178
hỡi_ôi 178
cười_@@ 178
va_li 178
ngữ_điệu 178
xiếc 178
tương_truyền 178
tàu_thuỷ 178
địch_quân 178
hiệu_phó 178
bài_làm 178
nhụt 178
thoát_ly 178
đóng_kịch 178
vàng_ngọc 178
gô@@ 178
bàn_định 178
uỷ_tôn_giả 178
cực_lạc 178
trịnh_thục_minh 178
thu_gom 177
chọn_lọc 177
cảm_thán 177
bã 177
thuỵ@@ 177
trẻ@@ 177
hình_hài 177
trường@@ 177
mách_bảo 177
hong 177
pham 177
sơn_hà 177
quốc_trung 177
đap 177
cháy_bỏng 177
nghệ@@ 177
ãn 177
toạ_đàm 177
thực_thụ 177
cả_quyết 177
mộc_mạc 177
12/2011 177
1978 177
got 177
tự_phê_bình 177
đương_đại 177
21/12 177
xả_thân 177
nuôi_nấng 177
văn_thanh 177
giong 177
,_hoả 177
rác_rưởi 177
sính 177
lảng_tránh 177
âm_phủ 177
đoạn_tuyệt 177
thị_uy 177
xxi 177
hợp_tác_xã 177
văn_nhân 177
bím 177
đắng_cay 177
toà_thánh 177
chấn_song 177
bát_đĩa 177
êm_ả 177
đồng_tâm_hiệp_lực 177
hớn 177
ranh_mãnh 177
tinh_kỳ 177
đa_mưu 177
saunière 177
cửu_giang 177
giảo_quyệt 177
hồng_phất_nữ 177
thủ_tĩnh_đường 177
võ_thánh 177
uyên-sơn 177
series 176
liên_doanh 176
truyền_tải 176
thông_dụng 176
nhịn_đói 176
ew@@ 176
ặc 176
đep 176
trung_hoà 176
sách_báo 176
y_nguyên 176
phanh_phui 176
mắt_cá 176
ín 176
ngón_cái 176
đản 176
mềm_yếu 176
sứt 176
hung_khí 176
kinh_tế_thị_trường 176
chiều_qua 176
đầu_não 176
kha_khá 176
thạc_sỹ 176
lễ_nghĩa 176
blackberry 176
thúng 176
đằm_thắm 176
bết 176
âp 176
xao 176
vấp_ngã 176
là_là 176
thuốc_phiện 176
hải_cảng 176
đoan_@@ 176
dây_lưng 176
tới_@@ 176
dung_thân 176
khiêm_nhượng 176
úi_chà 176
angiêlic 176
nhạc_thắng 176
lâm_hưng_châu 176
phong_tư 176
tả_đạo 176
văn_kinh 176
tiểu_bình_nhi 176
chung_trấn 176
đinh_huỷ 176
tôn_vĩ 176
vương_càn 176
đại_hắc 176
tầm_cỡ 175
phật_ý 175
kan@@ 175
đánh_bắt 175
lịch_trình 175
thuốc_lào 175
đơn_phương 175
ptnt 175
11-@@ 175
_do@@ 175
140 175
tậu 175
100.000 175
cười_cợt 175
ảnh@@ 175
ise 175
này_khác 175
qatar 175
kins 175
andre@@ 175
hệ_luỵ 175
bao_tử 175
rươu 175
bàn_chải 175
hiểm_hoạ 175
tn 175
kênh_truyền_hình 175
thường_trú 175
đột_xuất 175
ìn 175
áp_@@ 175
_từ 175
oan_ức 175
/1/2012 175
ý_nguyện 175
nhắc_đi_nhắc_lại 175
gáo 175
lạ_mắt 175
lánh_nạn 175
tô-xe 175
bỏ_túi 175
đon 175
an_nhàn 175
trông_mong 175
mệ 175
chẹn 175
tày_trời 175
thoả_hiệp 175
~ 175
cuồng_loạn 175
bước_@@ 175
âm_điệu 175
ụi 175
nóng_nực 175
mò_mẫm 175
thế_tục 175
đếch 175
chúa_@@ 175
đinh_tai 175
bạch_th@@ 175
thượng_lộ 175
thu_sương 175
phương_chính 175
siêu_quần 175
bắc_ưng_lãnh_lạc 175
sc@@ 174
ay_@@ 174
cy@@ 174
post 174
xuất_huyết 174
nam@@ 174
karaoke 174
nản_lòng 174
17:@@ 174
_thức 174
ce_@@ 174
co_quắp 174
giư 174
beo 174
sin@@ 174
ak@@ 174
trêu_ghẹo 174
chữ@@ 174
hen@@ 174
gn 174
bắt_mạch 174
ỡ@@ 174
cằn_nhằn 174
đan_xen 174
quốc_tịch 174
àng_@@ 174
gương_mẫu 174
mắc_cỡ 174
nội_các 174
rũ_rượi 174
đâm_chém 174
bích@@ 174
cao_th@@ 174
thành_tài 174
cảm_thụ 174
hải_vân 174
táp 174
tôn_thờ 174
lên_@@ 174
dự_cảm 174
vằng_vặc 174
hả_dạ 174
hạnh_dung 174
liễu_yến 174
hardcastle 174
thục_nhàn 174
vinh_giảo_giảo 174
sa_thành_công 174
hà_đại_trí 174
mai_phi 174
bhyt 173
_hiền 173
người_bị_hại 173
việ@@ 173
ff 173
cổ_tức 173
hộ_chiếu 173
max 173
thọ_xuân 173
ml 173
nội_tiết 173
115 173
nguyễn_duy@@ 173
kỷ@@ 173
ể@@ 173
thậm_tệ 173
chớm 173
sự@@ 173
ban_bố 173
trĩ 173
nam_mỹ 173
bruce 173
chuyển_dịch 173
vô_bờ 173
40@@ 173
nghỉ_phép 173
trường_quay 173
mobiado 173
định_dạng 173
03/03/2012 173
bất_phân_thắng_bại 173
vỡ_nợ 173
vô_hồn 173
bổ_nhào 173
pháp_danh 173
đong_đưa 173
/2/2012 173
công_ăn_việc_làm 173
thết 173
đỉa 173
mặt_tiền 173
vơ@@ 173
cuống_quýt 173
thánh_đường 173
bút_@@ 173
ẽ 173
kiệt_xuất 173
chột 173
tiêu_khiển 173
đĩ 173
xoàng 173
vòng_cung 173
tuyết_mai 173
thô_kệch 173
diêm_vương 173
khinh_mạn 173
linh_nhi 173
tàng_thư 173
hà_hiếp 173
long_hổ 173
tể 173
chìu 173
ninh_hồng 173
tần_hồng_miên 173
kano_creta 173
jardine 173
tôn_đình_thượng 173
anxelmô 173
camila 173
_mỹ@@ 172
biểu_@@ 172
ngoại_hối 172
eli@@ 172
lớ@@ 172
máu_@@ 172
thần_đồng 172
thai_phụ 172
phúc_vinh 172
tù@@ 172
:3 172
cửa_khẩu 172
đối_xứng 172
sal@@ 172
từ_tâm 172
ville 172
hà_th@@ 172
diễu_hành 172
lác 172
thái_cực_quyền 172
gọng 172
jack@@ 172
tân_bình 172
xô@@ 172
nhà_nông 172
ùn 172
assad 172
lam_sơn 172
hí_hửng 172
nổi_cáu 172
thùng_xe 172
hùng_tráng 172
quặt 172
cắm_cúi 172
lầm_lũi 172
tuyệt_hảo 172
hàn_th@@ 172
thông_thái 172
vô_kể 172
ngọc_đường 172
bày_đặt 172
ô_hợp 172
khả_ố 172
nhạn_môn 172
sơn_dã 172
kim_mao_sư_vương 172
tông_tương_hoa 172
vnch 172
trầm_pháp_hưng 172
tình_tử 172
a_tử 172
đại_hán 172
sĩ_tín 172
huyết_ảnh 172
lôtariô 172
khai_báo 171
lỏng_lẻo 171
36@@ 171
kì_quái 171
bả@@ 171
của@@ 171
br@@ 171
nhiễm_khuẩn 171
đầu_thai 171
_phi 171
giưa 171
èn 171
vũ_thị@@ 171
bóng_rổ 171
thông_tấn 171
đớn_đau 171
thuấn 171
ire 171
giáo_trình 171
new 171
tổng_đài 171
mập_mạp 171
trằn_trọc 171
chia_cắt 171
đường_đất 171
canon 171
23/11 171
dư_âm 171
bẹp 171
bernabeu 171
mạnh_bạo 171
pt 171
cãi_cọ 171
binh_đao 171
tứ_bề 171
bình_phẩm 171
đảm_trách 171
yên_ắng 171
bạc_@@ 171
...... 171
trắng_ngần 171
nam_kinh 171
cắc 171
rối_rắm 171
trùng_phùng 171
làm_thân 171
truy_phong 171
chính_tông 171
tiên_chi 171
độc_cô_phượng 171
sóc_thiên_đại 171
lý_ngân 171
okada 171
hoả_công 171
mạc_lịnh_cẩn 171
đào_cán_tiên 171
tri_giới 171
cao_đình_phương 171
sinh.bên 171
vấn_nạn 170
giờ@@ 170
ươ@@ 170
chênh 170
chầu_chực 170
bạ@@ 170
ami@@ 170
mat 170
ền 170
ổi_@@ 170
hậu_môn 170
miêng 170
mít 170
cải_@@ 170
web@@ 170
phẩm_@@ 170
đe 170
nhập_ngũ 170
ki-@@ 170
liên_ngành 170
ình_@@ 170
nóng_tính 170
sụt_sùi 170
chiếu_@@ 170
khao 170
firefox 170
gặt_hái 170
ảrập 170
bầu_dục 170
tablet 170
link 170
aeroflot_open 170
lưu_niệm 170
quật_khởi 170
thuỷ_@@ 170
bắc_việt 170
khải_@@ 170
khai_sáng 170
nhẫn_nhục 170
xuất_kích 170
malcolm 170
dẫy 170
ẩn_long 170
gia_cát_@@ 170
cái_tô_văn 170
dollar_bill 170
chung_nam 170
thế_sung 170
cửu_chỉ_thần_cái 170
bảo_đại_sở 170
gia_lâm 169
ns 169
quan_ngại 169
toản 169
vùng_sâu 169
vùng_xa 169
lập_@@ 169
rin 169
tị_nạn 169
http://@@ 169
tai_ương 169
kay 169
06:@@ 169
sùi 169
cách@@ 169
đất_cát 169
sậm 169
by 169
1988 169
nghiêm_cấm 169
trên_hết 169
đập_tan 169
đi_đêm 169
pc 169
cơ_học 169
sắc_@@ 169
phân_phát 169
đấu_@@ 169
siêu_nhân 169
quyền_năng 169
hoài_niệm 169
cẩu_thả 169
ney 169
leverkusen 169
ưng_ý 169
quan_họ 169
lão_thành 169
phải_@@ 169
xư 169
thoái_thác 169
nhớ_thương 169
bát_tiên 169
xác_thịt 169
hành_khất 169
kỳ_@@ 169
quần_@@ 169
rành_rọt 169
thấm_thoát 169
tửu_sắc 169
tịch@@ 169
tả_tơi 169
trung_đội 169
yến_lan 169
pít 169
hình_tích 169
thượng_cổ 169
thuỷ_đạo 169
lý_thần_thông 169
truy_tầm 169
an_cốc_hề 169
hàn_bảo_câu 169
vạn_bá_thành 169
thái_xung 169
trương_thiếu_băng 169
bảo_hiểm_xã_hội 168
điểm@@ 168
500.000 168
dây_thần_kinh 168
đặc_quyền 168
dụ@@ 168
ngăn_nắp 168
độc_nhất_vô_nhị 168
mặt_trái 168
truy_vấn 168
cambridge 168
hải_sản 168
tinh_dịch 168
địa_chất 168
ât 168
vẹo 168
giup 168
lò@@ 168
1986 168
zz@@ 168
ầu_@@ 168
gò@@ 168
khí_quyển 168
lại_sức 168
kim_liên 168
tách_biệt 168
tinh_tường 168
jack 168
yêu_dấu 168
ển 168
mưa_phùn 168
mai_phương_thuý_thông 168
đỏ_tâm_nguyện 168
ành 168
tiên_cảnh 168
tổ_trưởng 168
cần_@@ 168
giầu 168
nõn_nà 168
nài 168
điên_tiết 168
luân_@@ 168
dung_hoà 168
ngượng_ngập 168
n_từ 168
trăng_tròn 168
lai_vãng 168
vùi_đầu 168
dà 168
địa_mộ_giáo 168
cứng_họng 168
dây_cung 168
đào_thanh 168
trận_đồ 168
du_nhi 168
công_sự 168
thái_hồ 168
hàn_linh 168
thiềm 168
hắc_mộc_nhai 168
hồng_bất_phát 168
collet 168
ma_kha_mạt_toán 168
viễn_kiều 168
bành_vân 168
kiến_uy 168
hướng_đông_lai 168
bhxh 167
dân_tình 167
tu_dưỡng 167
kỷ_cương 167
chế_tài 167
chan 167
dầu_@@ 167
in_@@ 167
9/11 167
star@@ 167
cục_bộ 167
chiến_lược_gia 167
khoáng_chất 167
phẫu 167
ston 167
ta-@@ 167
cai_nghiện 167
khoẻ_khoắn 167
chong 167
kim_thư 167
_so@@ 167
âm_ỉ 167
1960 167
1965 167
canh_cánh 167
sơ_khai 167
lòng_vòng 167
phích 167
hải_đảo 167
phà 167
hiếu_học 167
hậu_cần 167
anh_tài 167
long_th@@ 167
11/2011 167
lèo 167
phòng_thân 167
bình_thành 167
sapa 167
ênh 167
cứng_đầu 167
cắt_nghĩa 167
khư_khư 167
ỡ 167
mặc_sức 167
_đường 167
vây_bọc 167
phục_quốc 167
an_toạ 167
vương_nghĩa 167
đông_tăng 167
tĩnh_toạ 167
hạ_quan 167
thu_dụng 167
dương_kiên 167
thành_kiều 167
trương_tùng_khê 167
trấn_nam_vương 167
nam_phát 167
hồng_thắng_hải 167
trác_sở_viên 167
vi_hoa 167
dị_thần_giáo 167
thẩm_văn_tú 167
lê_hồng_phong 166
mất_tăm 166
đấu_thầu 166
niên_thiếu 166
giải_lao 166
ngọc_trai 166
nghiệt_ngã 166
xiêu_vẹo 166
phệ 166
phóng_đại 166
nguyễn_du 166
cúm_gia_cầm 166
iếp 166
trình_diện 166
mù_mờ 166
ía 166
nhạc_công 166
sand@@ 166
kỳ_thủ 166
sa_pa 166
/02/2012 166
gầy_guộc 166
3/11 166
_ninh 166
hiếu_thảo 166
đội_viên 166
kính_yêu 166
lâm_thời 166
sống_mái 166
ben 166
met 166
dở_khóc_dở_cười 166
nhà_sử_học 166
thiên_tư 166
hết_sức_lực 166
đãng 166
xém 166
thoát_tục 166
dở_hơi 166
lòng_sông 166
chung_tình 166
vĩnh_an 166
minh_phượng 166
nghiêm_cẩn 166
độc_kế 166
quan_đông 166
đại_quan 166
sa_phúc 166
nội_giám 166
khuyển_dưỡng_quang_hùng 166
tả_tử_mục 166
liễu_đại_hồng 166
galli 166
môli 166
cléopatre 166
hà_túc_đạo 166
mệnh_trời 165
9.@@ 165
uế 165
ive 165
thênh_thang 165
bất_thành 165
điệ@@ 165
lụ@@ 165
chuyển_khoản 165
dương_tính 165
lin@@ 165
thau 165
bổ@@ 165
caroline 165
tĩnh_tâm 165
cực_đại 165
ão 165
trình_báo 165
sennheiser_bluetooth 165
khốn_khó 165
thắt_cổ 165
tiễn_chân 165
n_đức 165
sâu_nặng 165
khốn_cùng 165
chướng_ngại_vật 165
vinashin 165
vệ_@@ 165
nhiệt_liệt 165
aus@@ 165
hà_tây 165
khổ_nỗi 165
mặc_cả 165
án_binh_bất_động 165
ăn_vận 165
tối_thượng 165
đồi_núi 165
mềm_mỏng 165
cảm_nghĩ 165
thù_ghét 165
rắn_rết 165
mộng_@@ 165
bỗng_đâu 165
híp 165
sáng_choang 165
đội_ơn 165
giôngđơret 165
ellie 165
đại_pháp 165
hầu_tước 165
trish 165
công_dã_càn 165
cao_lệ 165
hiểu_phù 165
huỳnh_ỷ_vân 165
/8@@ 164
1,2 164
hạnh_@@ 164
15-@@ 164
sẻ.@@ 164
xoẹt 164
ki_@@ 164
té@@ 164
lịch_thiệp 164
lo_toan 164
lan_tràn 164
phết 164
gia_định 164
lê_t@@ 164
bắp_chân 164
ê_ẩm 164
van_@@ 164
tai_@@ 164
tại_gia 164
gm 164
thân_thương 164
hồi_@@ 164
công_vinh 164
air@@ 164
lê_quý_đôn 164
nhiếp_chính 164
khung_thành 164
cờ_vua 164
kỉ 164
đkvđ 164
big_bang 164
chỉ_@@ 164
phiên_@@ 164
àu 164
ạo 164
quách_@@ 164
thơ_ca 164
_sỹ 164
moskva 164
hoa_lá 164
kì_dị 164
09/04 164
xì_xào 164
có_chăng 164
nối_gót 164
tân_gia 164
chúng_tao 164
khò 164
tập_họp 164
tiện_nữ 164
công_hãm 164
từ_thế_tích 164
chủ_khách 164
tiểu_trọng 164
tiềm_nhập 164
mạnh_hoạch 164
bạt_ngọc 164
bát_nhã 164
hậu_hoạn 164
trịnh_ngạc 164
quật_ca 164
tuý_phong 164
lương_vô_uý 164
thạch_trung_ngọc 164
ân_ly 164
khêu_nhật_thăng 164
/10@@ 163
giả_định 163
tin@@ 163
kỹ_thuật_viên 163
tiền_phong 163
qui@@ 163
ting 163
lie 163
nguyễn_thành_@@ 163
đúng_mức 163
giang_đông 163
cer@@ 163
8h 163
chuyên_chở 163
dar@@ 163
trớ_trêu 163
da_dẻ 163
trình_tự 163
ez 163
nt@@ 163
7889 163
miết 163
nguội_lạnh 163
sáng_mắt 163
nản 163
gli@@ 163
th_@@ 163
ạn 163
già@@ 163
phế_nhân 163
cứu_@@ 163
f430 163
kế_nhiệm 163
dở_dang 163
khoán 163
lãnh_hải 163
hão_huyền 163
sậy 163
_văn_@@ 163
cá_cược 163
_vũ 163
thố 163
máy_kéo 163
lão_tướng 163
hấp_lực 163
tâm_khảm 163
van_nài 163
ra-@@ 163
bố_cục 163
mắng_nhiếc 163
đại_xá 163
tiếp_cứu 163
thuỷ_chiến 163
phỉnh 163
vưu_@@ 163
mây_khói 163
báo_đền 163
tự_đắc 163
tử_khí 163
chu_đại_chí 163
nằm_mộng 163
kasahara_may 163
thiêu_hoả 163
molly 163
bắc_thiên_tôn_giả 163
vạn_hương 163
dương_câu 163
phát_đạt 162
khác.@@ 162
ưu_việt 162
giải_khát 162
hậu_thuẫn 162
f1 162
dung_lượng 162
lậ@@ 162
phụ_giúp 162
ls 162
tiê@@ 162
bài_thuốc 162
đành_lòng 162
sấy 162
e_m@@ 162
pha_trộn 162
cẳng_chân 162
scotland 162
nhom 162
phản_@@ 162
green 162
đức_hạnh 162
gu 162
ằng_@@ 162
cốt_yếu 162
rượu_mạnh 162
mần 162
chum 162
bắc_mỹ 162
đặng 162
trư 162
:5 162
vượt_biên 162
trại_giam 162
mời_mọc 162
một_thân_một_mình 162
đỏ_gay 162
khổng_@@ 162
giáo_đường 162
_thiên 162
gằm 162
huênh_hoang 162
thất_thế 162
dăm_ba 162
lũ_lượt 162
lọn 162
mét_vuông 162
cúng_tế 162
bảo_đại 162
nghỉ_chân 162
phẩy_tay 162
chính_trực 162
mân_mê 162
chiến_xa 162
bái_phục 162
cứt 162
buột 162
lưu_an 162
giam_hãm 162
hàn_triều_an 162
vô_hạ 162
cingle 162
tủ_sắt 162
san_san 162
nicholson 162
đại_chúng 161
vladimir_putin 161
thiếu_vắng 161
dẫ@@ 161
lê_lợi 161
xử_lí 161
_re@@ 161
bắt_chuyện 161
cm@@ 161
mộc_lan 161
tế@@ 161
có_hạng 161
hoà_nhạc 161
tàu_@@ 161
suy_nhược 161
dang_dở 161
34@@ 161
địa_trung_hải 161
bón 161
cộm 161
g. 161
spi@@ 161
lao_đao 161
elli@@ 161
thuật_ngữ 161
cứu_thương 161
khập_khiễng 161
loá 161
dàn_dựng 161
/08/2011 161
ậu 161
ập_@@ 161
lam_lũ 161
điên_dại 161
bêu 161
éc 161
roosevelt 161
áp_tải 161
vòng_vèo 161
đánh_bạn 161
làm_tiền 161
chừ 161
cần_câu 161
chẳng_nhẽ 161
tiêu_điều 161
lố_nhố 161
lẽo_đẽo 161
phố_xá 161
nói_chơi 161
xảo_trá 161
than_ôi 161
ác_thú 161
trần_thiết 161
sai_phái 161
chiêu_thánh 161
đặng_ngãi 161
đánh_bạo 161
kimmy 161
lữ_khưu_mộ_bình 161
bạch_ngọc_đường 161
yates 161
hựu_lan 161
lục_phi_thanh 161
30-@@ 160
sạm 160
vtv 160
sjc 160
đỏ@@ 160
ar 160
tổng_quát 160
zo@@ 160
nhi@@ 160
dẫn_chứng 160
_tu@@ 160
chạy_nhảy 160
lincoln 160
we 160
đen_trắng 160
dẫn_chương_trình 160
mát_@@ 160
nhạt_nhoà 160
[...]
